#version: 0.2
n a
d ị
k a
m a
n '
b ụ
e r
a r
n dị
k e
h a
na -
er e
ar a
y a
m e
i h
l a
g a
s i
ny e
j i
h ụ
t a
ih e
kw u
r ụ
r i
a ny
a hụ
r u
n ke
r ị
t u
b a
kw a
o nye
na- a
na- e
gh ị
t ụ
d ụ
t i
ga -
t e
gb a
o tu
l e
b e
b i
z i
any ị
s ị
m ma
p ụ
k ọ
m ụ
a n
ch i
ch ị
ch e
nw e
z ọ
a ka
l ọ
r ọ
k ụ
d o
ụ lọ
w e
n e
kw ụ
a la
nw a
g o
f ọ
gb u
i si
r a
mma dụ
l i
gb e
e be
i ke
ọ rọ
i ri
kwu ru
w a
d e
ch a
r o
ma ka
b u
m gbe
t ọ
ga- e
m ere
s o
t ara
n i
gb o
ụ mụ
rị a
ọ ọ
gw u
ị a
ọ rụ
e ti
nw ere
ga- a
n ụ
s a
g e
ọ chị
any a
a fọ
m ba
b o
i me
o kwu
nw ụ
a bụ
kw e
a kụ
ọ zọ
g ị
a kwụ
l u
ị ji
ịji rịa
na ịjirịa
n ọ
o bi
kw ọ
s e
kp e
z u
d i
e zi
s te
ne ke
ste eti
chi neke
i che
akwụ kwọ
kp a
ny ere
d a
i le
n t
n u
dị ka
pụ ta
o ke
r e
ni ile
o ge
j e
g ụ
a gh
tụ tụ
w u
k u
ya .
abụ ọ
akụ kọ
ị bụ
na-e me
ar ị
er i
m p
k o
a .
a ma
onye isi
an ọ
i gbo
ọ tụtụ
o n
bụ rụ
s ọ
kp ọ
b ịa
nwa anyị
kw ara
bo do
p u
ịbụ l
ba ịbụl
m i
ọ nụ
bụ la
m me
o bodo
d u
a na
e gwu
2 0
i ji
gb ọ
ch ọ
f e
ụ wa
h i
a ga
gw a
pụ tara
i wu
si ri
i kpe
t o
ụ b
z e
e go
e me
m b
u ru
a z
g ọ
ụb ọchị
nt ị
a gba
o nwe
t ere
a ,
h o
ụ rụ
s t
ar i
ih i
n dụ
ahụ .
o zi
o ji
u we
ma na
sị rị
g ara
ọchị chị
a ha
l ụ
a tọ
a h
ụ zọ
u kwu
g ọọ
m m
gọọ me
B u
kp ọrọ
hụ rụ
e lu
fọ dụ
kwu o
oji i
ọ ka
ya ,
nw oke
j ụ
ụ fọdụ
ha .
kp o
n d
20 1
ụ gbọ
s ụ
ọ ma
s ara
ahụ ,
n so
e ze
agh a
o me
me e
w ere
m er
. ”
gb ara
o r
nwe ghị
a sa
ch ara
ho v
ih u
je hov
h ari
Bu hari
ga-e me
ma ra
gh arị
ọ bụla
g i
u gbu
ọ kụ
na kwa
o lu
gw ụ
n na
ny o
ụ ka
gba sara
gw ara
li te
uwe ojii
e l
ma ,
onyeisi ala
ch ọrọ
o le
ọ nwa
e la
nw u
we e
na-e kwu
n ga
m kpa
jehov a
zọ s
a ba
ji zọs
n ta
ji ri
. "
p a
ar ụ
a tụ
m bụ
gw e
mm iri
gọọme ntị
n tụ
an ụ
gbu ru
na-a gba
v anọ
mp i
gọ vanọ
pụ rụ
kp ụ
m o
j ọ
d ọ
si te
e kwe
j a
n ne
i we
a nwụ
ga-a ma
a l
n ị
p e
d ere
l ị
m gba
J o
g u
i n
j u
ah ịa
i se
gw ọ
a dị
bi do
kwa do
k ị
nd ọrọ
o ko
ezi okwu
B B
a sọ
ny i
any ere
m u
ntụ li
ka rị
gh ọ
tu pu
t h
ọ nwụ
az ụ
i gwe
m kp
na- ahụ
c e
BB C
ọ la
z ị
z ụ
mb ra
n ri
ana mbra
agh ara
ọ gwụ
b ere
ntụli aka
e bu
asọ mpi
o kp
b ara
ọ gba
az ị
nso gbu
ru o
ọ kwa
f u
e ji
b ọọ
ọ j
gh ara
n che
e tu
nwu nye
gh a
e nu
bọọ lụ
b ị
re gwu
egwu regwu
k iri
rị ka
ta a
m mụ
l o
na-a ga
ch ụ
chi e
o la
i g
ọ hụrụ
y i
u nu
ma azị
e bi
ga-ama sị
ka cha
nwe e
an ị
na anị
a f
eti ti
zi e
w ara
nwe ta
i be
o u
enu gwu
ny a
a mer
ezi gbo
b anyere
a kwa
M a
A P
le e
ch ukwu
sị :
ọj ọọ
ọ bụ
zi ri
s u
ụlọ ọrụ
ụmụ nwaanyị
wa kpo
kwụ sị
er u
ụ tọ
aga ghị
a gụ
ra ị
n ti
M u
ị ka
bu ru
ụlọ ikpe
n de
gh i
aba lị
s ta
go si
na rị
e nye
a da
e n
kwe sịrị
ị gba
ke mgbe
201 9
ana ghị
kp ere
o l
go olu
Ch i
chi ri
gị nị
ti nye
n gwa
N ig
amer ịka
nọ dụ
ga a
ha ,
e kwuo
a jụ
z o
mb ọ
0 0
ụ gwọ
nwụ rụ
i l
nke ji
na l
af rịka
ọ rịa
z a
k ere
ru ru
ọ nọdụ
ga-e si
che ta
ti on
la ba
kọ ta
ekwuo la
go siri
m eri
bị ara
ụ dị
nyo cha
ba ta
R o
ṅ ụ
mp aghara
nche kwa
li tere
v i
ụgbọ elu
be ghị
n ụlọ
n g
ezi nụlọ
ọ dị
gị :
Nig eri
na-a kpọ
AP C
n je
nga laba
kọ rọ
so ro
a sụ
o si
u gwu
pu ku
gọọme nti
i zu
i t
ome iwu
ke e
okp uru
isi i
gbo ro
n o
e hi
bụ kwa
i mo
1 9
i ko
na-a chị
e nweghị
e kpere
bụ ghị
a mụ
n kiri
bi ri
na-e che
o h
m ,
kọ wa
k i
m .
M an
n ku
u che
ọ sọ
ụgbọ ala
n zu
kw ere
ajụ jụ
ọ gụ
o zu
v er
dị rị
ị ma
raị st
abụ ghị
t er
nye ghị
ga-e ji
asụ sụ
S u
k raịst
e nwe
e le
e chi
mmụ ọ
R e
mu me
na- arụ
na-a chọ
atụ ma
a bịa
n nu
atụma tụ
ole e
n sọ
asa a
o ro
mme mme
a gwa
L i
ma ọbụ
na-e nye
gbu o
Jo se
ụ kwụ
na-a dị
o bere
nga gharị
an o
kp ara
n kwa
gi de
a m
ọzọ .
a chọ
karị rị
tụ rụ
t ọrọ
adị ghị
mkp ụrụ
M o
D a
ụmụ aka
anya .
a kpa
e ke
le s
kọ wara
kwu kwara
r an
ha pụ
e nyi
e gbe
ọgba kọ
na la
be kee
asa tọ
B oko
rị ta
o f
nwa ta
à m
àm à
ugbu a
ma nụ
H ara
p er
Nigeri a
h ịa
C o
u gboro
ti nyere
L a
ch ere
D P
v e
o fe
ebu bo
anụ manụ
ụ kọ
o kpo
nje m
na i
h ọ
o ri
ma litere
i to
f ụ
na-a kpa
n ka
kị ta
k ike
N a
bido ro
p o
o gi
nku zi
ghọ ta
nnu kwu
mụ rụ
U ni
e zu
ga-a bụ
nta akụkọ
P DP
Hara m
u do
me chara
na-a tụ
hi e
ka rịa
ka ma
agba nyeghị
nai ra
c a
ọ kpụ
y e
aka .
d ara
Jose f
m kpe
i bu
ọ cha
L e
zu ru
oh ere
anya nwụ
pa ti
gọ s
du m
chọ pụta
naịjirịa .
i kike
P e
ị hụ
le gọs
okpo ro
gụ nyere
e gbu
t ị
o go
a u
ndị àmà
kwuru ,
ka nu
ndọrọ ndọrọ
Mu ha
m di
ito olu
a bu
A l
u s
mma nụ
O B
ahụ hụ
I P
Muha mma
e kwu
E C
oko ro
ma lite
ch ọọ
na-a kụ
kacha sị
ike .
cha a
ụkọ chukwu
w o
o che
na-e le
steeti .
na-a bịa
n ọrọ
mm eri
i de
chi ela
ma ta
E a
sịrị :
ofe si
na-e ji
Muhamma du
ị dị
o p
mi ni
ri s
IP OB
ụlọ omeiwu
gha chi
a chị
u go
st er
sa ụ
li e
kwe siri
F a
niile .
ma ha
ti ku
p ọ
mma .
ar ịa
ụmụ akwụkwọ
i a
so te
n kwado
mụ ta
ụ tụtụ
kọ rịta
gba a
e si
A tiku
ụ ba
re l
ogi ge
o chie
i nye
a gb
b ọ
anya ,
o nal
ikpe azụ
ọ dụ
okp u
mmụ ta
I n
nzu kọ
n tọ
ama ghị
h e
ọ ha
ala eze
ị rị
osi si
Su per
ọzọ ,
c k
ba nye
họ pụta
o sote
mgba sa
na-a ma
ka tọ
A da
ga-a dị
bụrụ kwa
maha dum
anyị .
a lụ
saụ t
mini sta
m kpọrọ
di a
ah ọ
a sị
" ."
te d
sh ịa
e ,
nwe kwara
mer iri
A r
ị rụ
T ru
ọ tọ
obi ano
na-e fe
na ghị
aka ra
a ja
O ko
na-e nwe
na- eru
na-a gụ
a jọ
si e
elu igwe
dọ kịta
f i
ọ na
ome nala
o ku
amụ ma
ị ga
pụta la
kpa tara
ọ dọ
ga ghị
e che
S o
t y
kọ mi
ọma .
okwu kwe
nt oro
bụ ,
ọka cha
ọ ba
ntoro bịa
anyị ,
a d
A b
na-e bu
W il
I N
i kwu
c o
Ea g
ta n
ga wa
e s
IN EC
j ụrụ
ga-e nye
Tru mp
F C
ọ hịa
vi d
rụ rụ
nwe tara
m wakpo
a kpụ
A f
ebi ghị
Uni ted
o mume
nw an
u soro
ngagharị iwe
it y
ike ,
baịbụl .
K a
onwe ghị
S a
nọ chi
kpọ ku
N e
A de
n jọ
ihe .
ga-a gba
do ro
S e
Eag les
te n
s s
na "
i z
go ro
o d
nna mdi
echi che
ba ka
v o
ọ w
R i
M i
ụlọ ụka
ọ gọ
obi .
me tụ
akụ kụ
li k
ke dụ
chineke ,
arị ta
an i
O bi
ị tụ
wakpo ro
u r
u me
tu ru
f o
a :
ọw ụwa
an d
p t
n da
el se
B a
ọ fụ
pọ l
na-e gosi
i r
meri e
i yi
f ere
e bo
chọ pụtara
c on
na-e si
Ch else
w ụ
o hi
di o
C ity
, "
ọ gbọ
na-e so
katọ lik
iz rel
i ne
so n
la nd
kwa lite
chineke .
o nyi
enye maka
e mume
ụ nya
ta ghị
n ihu
abu ja
ti onal
po ol
i nwe
eziokwu .
Mo ha
ver pool
ori ri
na-a kwado
Li verpool
20 0
shịa l
o li
na-adị ghị
isi okwu
f ada
so shịal
pụ la
n ji
e we
c i
a kị
a chụ
S ou
D e
na-e kpe
gụ ọ
. .
z de
o gbu
Af ri
" "
j eri
a gu
C a
' .
ọka iwu
ọ mụ
onyi nye
j uru
Chelse a
t ri
o yi
ọ "
na-a gwa
kp ọọ
in g
a kpọ
ụlọ akwụkwọ
o de
o nyo
isi .
iche .
ọgba aghara
sị ghị
onyo nyo
mmadụ .
e kpe
e .
ar c
aka ,
2019 .
ugbu a,
me nt
ha m
ch u
T o
rị ọ
ne t
na- ere
a gbọ
ọ bara
na-e we
m gb
che ster
Man chester
w it
nwan ne
mme d
gh arịa
ụwa .
or t
ma ma
kwuru .
Sou th
ma du
i te
bi e
201 8
ge e
dị ghị
abụọ .
ụ ra
okpu kpe
okoro cha
ala .
ọ gbu
l y
go dị
a k
J a
E l
ọ nị
ọnị cha
vo otu
r y
ome ka
mb ere
kpọrọ "
cha s
S ta
Ro chas
Nw o
na-e kwuru
f or
ọchị ehi
ya ?
o pe
nye la
aga .
F ran
Ar se
v a
na-a ta
mbere de
e de
B i
n le
kp u
ga-a ga
d er
b ri
agbọ ghọ
aga ,
Arse nal
nụ rụ
akị rịka
Moha mmed
F e
“ ọ
nwụ ọ
iji pt
eme ela
Pe ter
se tan
n ọọ
ju u
gba ta
' ,
kọ tara
gharị rị
ọka mmụta
k y
1 0
ị kpa
wit ter
ta la
s ,
on g
kwere madu
ba tara
atụ ,
E kweremadu
00 0
ta a.
omeka ome
na- eri
n họpụta
kọmi sh
eke le
b er
anwụ ọla
P re
K e
ụwa ,
w i
u ju
s .
ou r
mkp arịta
gi dere
E ze
A bu
ọrụ .
ozu gbo
m pụ
kọmish ọna
c y
ar u
ala ,
ị lụ
na-a bụ
na eze
mkp u
j o
eziokwu ,
e h
a ?
ị kpọ
zị rị
nwere ike
kwa sị
1 ,
ọka ikpe
ọgụ gụ
rụ ọ
ogbu ni
ogbuni gwe
n ,
i ro
) .
ọha naeze
w arị
i m
.” )
n kị
mme hie
kwụ rụ
i je
ga-e nwe
e do
ahụ ike
we pụtara
w er
n .
me gide
ihe ,
ọrụ ,
ọdị nihu
s si
egbu ola
Jo h
1 4
mi dia
ha pụrụ
ma ara
ha zi
baịbụl ,
ndị igbo
mkpe bi
i gbu
gh e
enye la
e wu
Chi na
ịma ta
ta .
nọchi te
mp e
mma ,
i re
f ra
atụ rụ
1 5
) ,
ndị agha
n kwe
maka na
E me
ụlọ ọgwụ
ụ jọ
ru e
niile ,
na- arị
de vid
bịa fra
W e
O ke
M ar
y ọọ
p h
nwa yọọ
na-a mụ
mmadụ ,
metụ tara
achọ ghị
_ _
B e
sa tọ
na-e nweghị
gburu gburu
ga- anọ
ama lite
agba ta
a ta
N or
satọ de
n gw
gị ,
ga-e nyere
c tion
ụtọ .
sị ,
nt er
fe e
Z i
S ara
S S
Ch ris
z ara
sh i
m ị
kwa ghị
du na
N na
ụlọ akụ
ọdị nala
ti us
ri d
i ru
R a
Le agu
ị gụ
obi ,
na-e gbu
m ọ
ele kere
egwuregwu ,
na-a zụ
na ụba
la ta
fu fe
cha pụ
S er
201 7
ọfụ ma
t ha
sh a
nzu zo
na bata
li c
ka ta
j a.
La go
ọgbu gbu
uru .
na-e bi
na-a tọ
la ị
gị .
akụ naụba
a kpọrọ
a gwọ
O si
Ch ukwu
ugbu a.
tius de
pu tara
ka n
ekwe ntị
abụ rụ
P au
ọnụ .
ị chị
nkị tị
na-a lụ
kw o
Wil lie
O r
J u
FC C
ụmụ nne
ụ da
ọgọ st
ọdọ ụgbọelu
wu te
ri e
p ị
naịjirịa ,
na-a kwụ
l ere
gụ rụ
gbo chi
to r
s onye
na-a nọ
n chọpụta
kp ụrụ
iche iche
chi tere
agụ mba
abụọ ,
y o
we pụ
n nyocha
m fe
igbo ,
i tinye
i jeri
dị kwa
cha ghị
baka r
ar d
we ere
oli le
n nọọ
mkpe sa
mba ụwa
U ma
U de
T witter
P ro
Ada m
1 )
zu te
ogo lo
ogolo go
mme kọrịta
ma n
e fu
bụkwa nụ
bri ten
Abu bakar
ọmụ mụ
u ro
si tere
mere .
k ,
i di
gba sa
ga- ahụ
ebo nyi
chọọ chị
Pau l
M e
G u
na-a zọ
li ri
ga-e bi
ezu m
bu tere
G A
E FCC
201 5
th er
o gbe
ndị )
le ba
l ụrụ
atọ .
Sta te
N A
y in
sta te
ri a
raị de
mer ụrụ
la tri
kọ ọ
gw o
f raịde
a kwado
I he
ti c
pa pa
nye ere
na-e nyere
mma nya
kị rị
ga-a kpọ
I nter
G o
2 3
ọ da
se net
s an
p i
ofesi ,
nwụ chi
Ne w
ọ ṅụ
ị kwụ
okoro bịa
n kịta
ga chara
f a
d ebe
bụ "
F u
El -
2 ,
za ky
t on
nwa afọ
ndị "
m bu
iche ,
ha b
b ra
ak zaky
a wa
Z akzaky
I ke
B o
ọ kpara
y iri
nu e
na-e kwe
m pụtara
m bi
ga be
e bere
dọ la
Sara ki
Mu gabe
A u
1 7
zu o
pụ ọ
o fufe
na-a ka
kw anyere
gu zo
gbo o
okwu .
mụ tara
m ọdụ
jehov a.
gbu ola
fọ rọ
anwụ chiela
Lago s
ndụ mọdụ
n' "
kwa a
i ku
e fe
dị ,
P a
D i
ọma ,
nka ta
na-a da
n rọ
fo to
e nweta
bụ bu
be nue
ama ta
agụ ụ
1 8
ụmụ afọ
zu tere
i fe
ezum ike
e to
Ch a
Afri ca
AP GA
pu ta
mme pe
ka duna
ego si
ba ara
agb ụrụ
a zọ
? ”
ị ny
oh u
latri k
ga-a kwụ
e so
d rid
anyị "
akwụkwọ .
agh ọ
a pụta
T a
N o
Ma drid
E le
ọkụ kọ
ị ṅụ
our t
oke nye
ndụ .
mgbe de
m iri
kwa la
e nyo
ama okwu
B ri
1 .
ọkacha mara
ị zọ
okporo ụzọ
o wer
nji kere
na ra
mkparịta ụka
mba .
kwụ ọ
d an
akụ rụ
1 3
ị nta
ịnta ne
ịntane ti
ị ba
wo re
pụrụ iche
o na
na-eme .
na-e tinye
e nyere
So wore
R u
A ma
19 9
ụ tụ
ọda chi
ị kwụsị
olile anya
j ị
enwe ghi
ah ị
V i
ọdị da
ọba san
ọbasan jọ
ị kwalite
th e
steeti ,
sa a
na-ekwu chitere
agh a.
Ihe dio
I bra
na-akụ zi
na ta
mgb ere
l d
ji ji
i nweta
gu n
e se
bụ zị
A S
we ne
s pe
ji de
chị rị
be ghi
T e
Nw a
G e
ị ghọta
wene zde
onye ozi
na-arị ọ
na-akụ ziri
na-a cha
mer ụ
kwa zie
arị rị
any i
a pụ
G a
ọ kọ
ị kụ
ị chụ
st ra
q u
obi bi
na-e de
na-a sụ
n gwụ
n chị
e bido
Ibra hi
Gh ana
ọọ la
ọka ra
ọj ị
ọ kpọ
u p
s ti
pa se
osi miri
igbo .
ga-e bu
bo ro
ahị hịa
a ṅụ
I fe
F A
4 .
1 6
ọkacha sị
ọ k
sị ga
o mi
na-a kọwa
mbụ .
m kpọ
i so
i nyere
ge n
ezi e
anwụ rụ
akụrụ ngwa
aka rị
a gw
Nwo su
I s
F al
se na
na-a kwa
na tional
mọ nde
ma s
m gbọ
i bi
ga-a chị
ga ara
ebu m
ar ụrụ
O lu
Na tional
ri ri
nkwe kọrịta
na-e to
na-e nyo
na-e bo
n rụrụ
mba b
mbab we
la ni
kpe biri
ga-a bara
bi a
akwụ sị
Zi mbabwe
W a
U S
T i
Ihedio ha
Ibrahi m
ọkụ .
sena tọ
ra l
p ịa
na-a jụ
me ere
kụ zi
ka ra
gba nwee
e jiri
b y
ar e
anambra ,
Pre mi
P la
Ma du
El- Zakzaky
A h
ọnwụ .
ọka fọ
ọ zụ
ị nya
ị cha
u bi
te la
ope kata
nwe tere
n go
izu ụka
asa tara
O N
Na i
Leagu e
ụfọdụ ,
u te
u le
na-ele kọta
na-e ti
mụ ọ
ma achị
ga-e we
ga-a kwụsị
ekwe ghị
egwu .
arc ourt
agba ala
P ort
Inter national
H arcourt
E mma
3 0
“ onye
ọk to
ọkto ba
ọchịchị .
ị zụ
ị mụ
tọ zde
tu o
sị a
na-e ke
mi ta
ma kwụ
l l
er o
