#version: 0.2
n a
d ị
k a
m a
n '
b ụ
e r
a r
n dị
k e
h a
na -
er e
ar a
y a
m e
i h
l a
g a
s i
ny e
j i
h ụ
t a
ih e
kw u
r ụ
r i
a ny
a hụ
r u
n ke
r ị
t u
b a
kw a
o nye
na- a
na- e
gh ị
t ụ
d ụ
t i
ga -
t e
gb a
o tu
l e
b e
b i
z i
any ị
s ị
m ma
p ụ
k ọ
m ụ
a n
ch i
ch ị
ch e
nw e
z ọ
a ka
l ọ
r ọ
k ụ
d o
ụ lọ
w e
n e
kw ụ
a la
nw a
g o
f ọ
gb u
i si
r a
mma dụ
l i
gb e
e be
i ke
ọ rọ
i ri
kwu ru
w a
d e
ch a
r o
ma ka
b u
m gbe
t ọ
ga- e
m ere
s o
t ara
n i
gb o
ụ mụ
rị a
ọ ọ
gw u
ị a
ọ rụ
e ti
nw ere
ga- a
n ụ
s a
g e
ọ chị
any a
a fọ
m ba
b o
i me
o kwu
nw ụ
a bụ
kw e
a kụ
ọ zọ
g ị
a kwụ
l u
ị ji
ịji rịa
na ịjirịa
n ọ
o bi
kw ọ
s e
kp e
z u
d i
e zi
s te
ne ke
ste eti
chi neke
i che
akwụ kwọ
kp a
ny ere
d a
i le
n t
n u
dị ka
pụ ta
o ke
r e
ni ile
o ge
j e
g ụ
a gh
tụ tụ
w u
k u
ya .
abụ ọ
akụ kọ
ị bụ
na-e me
ar ị
er i
m p
k o
a .
a ma
onye isi
an ọ
i gbo
ọ tụtụ
o n
bụ rụ
s ọ
kp ọ
b ịa
nwa anyị
kw ara
bo do
p u
ịbụ l
ba ịbụl
m i
ọ nụ
bụ la
m me
o bodo
d u
a na
e gwu
2 0
i ji
gb ọ
ch ọ
f e
ụ wa
h i
a ga
gw a
pụ tara
i wu
si ri
i kpe
t o
ụ b
z e
e go
e me
m b
u ru
a z
g ọ
ụb ọchị
nt ị
a gba
o nwe
t ere
a ,
h o
ụ rụ
s t
ar i
ih i
n dụ
ahụ .
o zi
o ji
u we
ma na
sị rị
g ara
ọchị chị
a ha
l ụ
a tọ
a h
ụ zọ
u kwu
g ọọ
m m
gọọ me
B u
kp ọrọ
hụ rụ
e lu
fọ dụ
kwu o
oji i
ọ ka
ya ,
nw oke
j ụ
ụ fọdụ
ha .
kp o
n d
20 1
ụ gbọ
s ụ
ọ ma
s ara
ahụ ,
n so
e ze
agh a
o me
me e
w ere
m er
. ”
gb ara
o r
nwe ghị
a sa
ch ara
ho v
ih u
je hov
h ari
Bu hari
ga-e me
ma ra
gh arị
ọ bụla
g i
u gbu
ọ kụ
na kwa
o lu
gw ụ
n na
ny o
ụ ka
gba sara
gw ara
li te
uwe ojii
e l
ma ,
onyeisi ala
ch ọrọ
o le
ọ nwa
e la
nw u
we e
na-e kwu
n ga
m kpa
jehov a
zọ s
a ba
ji zọs
n ta
ji ri
. "
p a
ar ụ
a tụ
m bụ
gw e
mm iri
gọọme ntị
n tụ
an ụ
gbu ru
na-a gba
v anọ
mp i
gọ vanọ
pụ rụ
kp ụ
m o
j ọ
d ọ
si te
e kwe
j a
n ne
i we
a nwụ
ga-a ma
a l
n ị
p e
d ere
l ị
m gba
J o
g u
i n
j u
ah ịa
i se
gw ọ
a dị
bi do
kwa do
k ị
nd ọrọ
o ko
ezi okwu
B B
a sọ
ny i
any ere
m u
ntụ li
ka rị
gh ọ
tu pu
t h
ọ nwụ
az ụ
i gwe
m kp
na- ahụ
c e
BB C
ọ la
z ị
z ụ
mb ra
n ri
ana mbra
agh ara
ọ gwụ
b ere
ntụli aka
e bu
asọ mpi
o kp
b ara
ọ gba
az ị
nso gbu
ru o
ọ kwa
f u
e ji
b ọọ
ọ j
gh ara
n che
e tu
nwu nye
gh a
e nu
bọọ lụ
b ị
re gwu
egwu regwu
k iri
rị ka
ta a
m mụ
l o
na-a ga
ch ụ
chi e
o la
i g
ọ hụrụ
y i
u nu
ma azị
e bi
ga-ama sị
ka cha
nwe e
an ị
na anị
a f
eti ti
zi e
w ara
nwe ta
i be
o u
enu gwu
ny a
a mer
ezi gbo
b anyere
a kwa
M a
A P
le e
ch ukwu
sị :
ọj ọọ
ọ bụ
zi ri
s u
ụlọ ọrụ
ụmụ nwaanyị
wa kpo
kwụ sị
er u
ụ tọ
aga ghị
a gụ
ra ị
n ti
M u
ị ka
bu ru
ụlọ ikpe
n de
gh i
aba lị
s ta
go si
na rị
e nye
a da
e n
kwe sịrị
ị gba
ke mgbe
201 9
ana ghị
kp ere
o l
go olu
Ch i
chi ri
gị nị
ti nye
n gwa
N ig
amer ịka
nọ dụ
ga a
ha ,
e kwuo
a jụ
z o
mb ọ
0 0
ụ gwọ
nwụ rụ
i l
nke ji
na l
af rịka
ọ rịa
z a
k ere
ru ru
ọ nọdụ
ga-e si
che ta
ti on
la ba
kọ ta
ekwuo la
go siri
m eri
bị ara
ụ dị
nyo cha
ba ta
R o
ṅ ụ
mp aghara
nche kwa
li tere
v i
ụgbọ elu
be ghị
n ụlọ
n g
ezi nụlọ
ọ dị
gị :
Nig eri
na-a kpọ
AP C
n je
nga laba
kọ rọ
so ro
a sụ
o si
u gwu
pu ku
gọọme nti
i zu
i t
ome iwu
ke e
okp uru
isi i
gbo ro
n o
e hi
bụ kwa
i mo
1 9
i ko
na-a chị
e nweghị
e kpere
bụ ghị
a mụ
n kiri
bi ri
na-e che
o h
m ,
kọ wa
k i
m .
M an
n ku
u che
ọ sọ
ụgbọ ala
n zu
kw ere
ajụ jụ
ọ gụ
o zu
v er
dị rị
ị ma
raị st
abụ ghị
t er
nye ghị
ga-e ji
asụ sụ
S u
k raịst
e nwe
e le
e chi
mmụ ọ
R e
mu me
na- arụ
na-a chọ
atụ ma
a bịa
n nu
atụma tụ
ole e
n sọ
asa a
o ro
mme mme
a gwa
L i
ma ọbụ
na-e nye
gbu o
Jo se
ụ kwụ
na-a dị
o bere
nga gharị
an o
kp ara
n kwa
gi de
a m
ọzọ .
a chọ
karị rị
tụ rụ
t ọrọ
adị ghị
mkp ụrụ
M o
D a
ụmụ aka
anya .
a kpa
e ke
le s
kọ wara
kwu kwara
r an
ha pụ
e nyi
e gbe
ọgba kọ
na la
be kee
asa tọ
B oko
rị ta
o f
nwa ta
à m
àm à
ugbu a
ma nụ
H ara
p er
Nigeri a
h ịa
C o
u gboro
ti nyere
L a
ch ere
D P
v e
o fe
ebu bo
anụ manụ
ụ kọ
o kpo
nje m
na i
h ọ
o ri
ma litere
i to
f ụ
na-a kpa
n ka
kị ta
k ike
N a
bido ro
p o
o gi
nku zi
ghọ ta
nnu kwu
mụ rụ
U ni
e zu
ga-a bụ
nta akụkọ
P DP
Hara m
u do
me chara
na-a tụ
hi e
ka rịa
ka ma
agba nyeghị
nai ra
c a
ọ kpụ
y e
aka .
d ara
Jose f
m kpe
i bu
ọ cha
L e
zu ru
oh ere
anya nwụ
pa ti
gọ s
du m
chọ pụta
naịjirịa .
i kike
P e
ị hụ
le gọs
okpo ro
gụ nyere
e gbu
t ị
o go
a u
ndị àmà
kwuru ,
ka nu
ndọrọ ndọrọ
Mu ha
m di
ito olu
a bu
A l
u s
mma nụ
O B
ahụ hụ
I P
Muha mma
e kwu
E C
oko ro
ma lite
ch ọọ
na-a kụ
kacha sị
ike .
cha a
ụkọ chukwu
w o
o che
na-e le
steeti .
na-a bịa
n ọrọ
mm eri
i de
chi ela
ma ta
E a
sịrị :
ofe si
na-e ji
Muhamma du
ị dị
o p
mi ni
ri s
IP OB
ụlọ omeiwu
gha chi
a chị
u go
st er
sa ụ
li e
kwe siri
F a
niile .
ma ha
ti ku
p ọ
mma .
ar ịa
ụmụ akwụkwọ
i a
so te
n kwado
mụ ta
ụ tụtụ
kọ rịta
gba a
e si
A tiku
ụ ba
re l
ogi ge
o chie
i nye
a gb
b ọ
anya ,
o nal
ikpe azụ
ọ dụ
okp u
mmụ ta
I n
nzu kọ
n tọ
ama ghị
h e
ọ ha
ala eze
ị rị
osi si
Su per
ọzọ ,
c k
ba nye
họ pụta
o sote
mgba sa
na-a ma
ka tọ
A da
ga-a dị
bụrụ kwa
maha dum
anyị .
a lụ
saụ t
mini sta
m kpọrọ
di a
ah ọ
a sị
" ."
te d
sh ịa
e ,
nwe kwara
mer iri
A r
ị rụ
T ru
ọ tọ
obi ano
na-e fe
na ghị
aka ra
a ja
O ko
na-e nwe
na- eru
na-a gụ
a jọ
si e
elu igwe
dọ kịta
f i
ọ na
ome nala
o ku
amụ ma
ị ga
pụta la
kpa tara
ọ dọ
ga ghị
e che
S o
t y
kọ mi
ọma .
okwu kwe
nt oro
bụ ,
ọka cha
ọ ba
ntoro bịa
anyị ,
a d
A b
na-e bu
W il
I N
i kwu
c o
Ea g
ta n
ga wa
e s
IN EC
j ụrụ
ga-e nye
Tru mp
F C
ọ hịa
vi d
rụ rụ
nwe tara
m wakpo
a kpụ
A f
ebi ghị
Uni ted
o mume
nw an
u soro
ngagharị iwe
it y
ike ,
baịbụl .
K a
onwe ghị
S a
nọ chi
kpọ ku
N e
A de
n jọ
ihe .
ga-a gba
do ro
S e
Eag les
te n
s s
na "
i z
go ro
o d
nna mdi
echi che
ba ka
v o
ọ w
R i
M i
ụlọ ụka
ọ gọ
obi .
me tụ
akụ kụ
li k
ke dụ
chineke ,
arị ta
an i
O bi
ị tụ
wakpo ro
u r
u me
tu ru
f o
a :
ọw ụwa
an d
p t
n da
el se
B a
ọ fụ
pọ l
na-e gosi
i r
meri e
i yi
f ere
e bo
chọ pụtara
c on
na-e si
Ch else
w ụ
o hi
di o
C ity
, "
ọ gbọ
na-e so
katọ lik
iz rel
i ne
so n
la nd
kwa lite
chineke .
o nyi
enye maka
e mume
ụ nya
ta ghị
n ihu
abu ja
ti onal
po ol
i nwe
eziokwu .
Mo ha
ver pool
ori ri
na-a kwado
Li verpool
20 0
shịa l
o li
na-adị ghị
isi okwu
f ada
so shịal
pụ la
n ji
e we
c i
a kị
a chụ
S ou
D e
na-e kpe
gụ ọ
. .
z de
o gbu
Af ri
" "
j eri
a gu
C a
' .
ọka iwu
ọ mụ
onyi nye
j uru
Chelse a
t ri
o yi
ọ "
na-a gwa
kp ọọ
in g
a kpọ
ụlọ akwụkwọ
o de
o nyo
isi .
iche .
ọgba aghara
sị ghị
onyo nyo
mmadụ .
e kpe
e .
ar c
aka ,
2019 .
ugbu a,
me nt
ha m
ch u
T o
rị ọ
ne t
na- ere
a gbọ
ọ bara
na-e we
m gb
che ster
Man chester
w it
nwan ne
mme d
gh arịa
ụwa .
or t
ma ma
kwuru .
Sou th
ma du
i te
bi e
201 8
ge e
dị ghị
abụọ .
ụ ra
okpu kpe
okoro cha
ala .
ọ gbu
l y
go dị
a k
J a
E l
ọ nị
ọnị cha
vo otu
r y
ome ka
mb ere
kpọrọ "
cha s
S ta
Ro chas
Nw o
na-e kwuru
f or
ọchị ehi
ya ?
o pe
nye la
aga .
F ran
Ar se
v a
na-a ta
mbere de
e de
B i
n le
kp u
ga-a ga
d er
b ri
agbọ ghọ
aga ,
Arse nal
nụ rụ
akị rịka
Moha mmed
F e
“ ọ
nwụ ọ
iji pt
eme ela
Pe ter
se tan
n ọọ
ju u
gba ta
' ,
kọ tara
gharị rị
ọka mmụta
k y
1 0
ị kpa
wit ter
ta la
s ,
on g
kwere madu
ba tara
atụ ,
E kweremadu
00 0
ta a.
omeka ome
na- eri
n họpụta
kọmi sh
eke le
b er
anwụ ọla
P re
K e
ụwa ,
w i
u ju
s .
ou r
mkp arịta
gi dere
E ze
A bu
ọrụ .
ozu gbo
m pụ
kọmish ọna
c y
ar u
ala ,
ị lụ
na-a bụ
na eze
mkp u
j o
eziokwu ,
e h
a ?
ị kpọ
zị rị
nwere ike
kwa sị
1 ,
ọka ikpe
ọgụ gụ
rụ ọ
ogbu ni
ogbuni gwe
n ,
i ro
) .
ọha naeze
w arị
i m
.” )
n kị
mme hie
kwụ rụ
i je
ga-e nwe
e do
ahụ ike
we pụtara
w er
n .
me gide
ihe ,
ọrụ ,
ọdị nihu
s si
egbu ola
Jo h
1 4
mi dia
ha pụrụ
ma ara
ha zi
baịbụl ,
ndị igbo
mkpe bi
i gbu
gh e
enye la
e wu
Chi na
ịma ta
ta .
nọchi te
mp e
mma ,
i re
f ra
atụ rụ
1 5
) ,
ndị agha
n kwe
maka na
E me
ụlọ ọgwụ
ụ jọ
ru e
niile ,
na- arị
de vid
bịa fra
W e
O ke
M ar
y ọọ
p h
nwa yọọ
na-a mụ
mmadụ ,
metụ tara
achọ ghị
_ _
B e
sa tọ
na-e nweghị
gburu gburu
ga- anọ
ama lite
agba ta
a ta
N or
satọ de
n gw
gị ,
ga-e nyere
c tion
ụtọ .
sị ,
nt er
fe e
Z i
S ara
S S
Ch ris
z ara
sh i
m ị
kwa ghị
du na
N na
ụlọ akụ
ọdị nala
ti us
ri d
i ru
R a
Le agu
ị gụ
obi ,
na-e gbu
m ọ
ele kere
egwuregwu ,
na-a zụ
na ụba
la ta
fu fe
cha pụ
S er
201 7
ọfụ ma
t ha
sh a
nzu zo
na bata
li c
ka ta
j a.
La go
ọgbu gbu
uru .
na-e bi
na-a tọ
la ị
gị .
akụ naụba
a kpọrọ
a gwọ
O si
Ch ukwu
ugbu a.
tius de
pu tara
ka n
ekwe ntị
abụ rụ
P au
ọnụ .
ị chị
nkị tị
na-a lụ
kw o
Wil lie
O r
J u
FC C
ụmụ nne
ụ da
ọgọ st
ọdọ ụgbọelu
wu te
ri e
p ị
naịjirịa ,
na-a kwụ
l ere
gụ rụ
gbo chi
to r
s onye
na-a nọ
n chọpụta
kp ụrụ
iche iche
chi tere
agụ mba
abụọ ,
y o
we pụ
n nyocha
m fe
igbo ,
i tinye
i jeri
dị kwa
cha ghị
baka r
ar d
we ere
oli le
n nọọ
mkpe sa
mba ụwa
U ma
U de
T witter
P ro
Ada m
1 )
zu te
ogo lo
ogolo go
mme kọrịta
ma n
e fu
bụkwa nụ
bri ten
Abu bakar
ọmụ mụ
u ro
si tere
mere .
k ,
i di
gba sa
ga- ahụ
ebo nyi
chọọ chị
Pau l
M e
G u
na-a zọ
li ri
ga-e bi
ezu m
bu tere
G A
E FCC
201 5
th er
o gbe
ndị )
le ba
l ụrụ
atọ .
Sta te
N A
y in
sta te
ri a
raị de
mer ụrụ
la tri
kọ ọ
gw o
f raịde
a kwado
I he
ti c
pa pa
nye ere
na-e nyere
mma nya
kị rị
ga-a kpọ
I nter
G o
2 3
ọ da
se net
s an
p i
ofesi ,
nwụ chi
Ne w
ọ ṅụ
ị kwụ
okoro bịa
n kịta
ga chara
f a
d ebe
bụ "
F u
El -
2 ,
za ky
t on
nwa afọ
ndị "
m bu
iche ,
ha b
b ra
ak zaky
a wa
Z akzaky
I ke
B o
ọ kpara
y iri
nu e
na-e kwe
m pụtara
m bi
ga be
e bere
dọ la
Sara ki
Mu gabe
A u
1 7
zu o
pụ ọ
o fufe
na-a ka
kw anyere
gu zo
gbo o
okwu .
mụ tara
m ọdụ
jehov a.
gbu ola
fọ rọ
anwụ chiela
Lago s
ndụ mọdụ
n' "
kwa a
i ku
e fe
dị ,
P a
D i
ọma ,
nka ta
na-a da
n rọ
fo to
e nweta
bụ bu
be nue
ama ta
agụ ụ
1 8
ụmụ afọ
zu tere
i fe
ezum ike
e to
Ch a
Afri ca
AP GA
pu ta
mme pe
ka duna
ego si
ba ara
agb ụrụ
a zọ
? ”
ị ny
oh u
latri k
ga-a kwụ
e so
d rid
anyị "
akwụkwọ .
agh ọ
a pụta
T a
N o
Ma drid
E le
ọkụ kọ
ị ṅụ
our t
oke nye
ndụ .
mgbe de
m iri
kwa la
e nyo
ama okwu
B ri
1 .
ọkacha mara
ị zọ
okporo ụzọ
o wer
nji kere
na ra
mkparịta ụka
mba .
kwụ ọ
d an
akụ rụ
1 3
ị nta
ịnta ne
ịntane ti
ị ba
wo re
pụrụ iche
o na
na-eme .
na-e tinye
e nyere
So wore
R u
A ma
19 9
ụ tụ
ọda chi
ị kwụsị
olile anya
j ị
enwe ghi
ah ị
V i
ọdị da
ọba san
ọbasan jọ
ị kwalite
th e
steeti ,
sa a
na-ekwu chitere
agh a.
Ihe dio
I bra
na-akụ zi
na ta
mgb ere
l d
ji ji
i nweta
gu n
e se
bụ zị
A S
we ne
s pe
ji de
chị rị
be ghi
T e
Nw a
G e
ị ghọta
wene zde
onye ozi
na-arị ọ
na-akụ ziri
na-a cha
mer ụ
kwa zie
arị rị
any i
a pụ
G a
ọ kọ
ị kụ
ị chụ
st ra
q u
obi bi
na-e de
na-a sụ
n gwụ
n chị
e bido
Ibra hi
Gh ana
ọọ la
ọka ra
ọj ị
ọ kpọ
u p
s ti
pa se
osi miri
igbo .
ga-e bu
bo ro
ahị hịa
a ṅụ
I fe
F A
4 .
1 6
ọkacha sị
ọ k
sị ga
o mi
na-a kọwa
mbụ .
m kpọ
i so
i nyere
ge n
ezi e
anwụ rụ
akụrụ ngwa
aka rị
a gw
Nwo su
I s
F al
se na
na-a kwa
na tional
mọ nde
ma s
m gbọ
i bi
ga-a chị
ga ara
ebu m
ar ụrụ
O lu
Na tional
ri ri
nkwe kọrịta
na-e to
na-e nyo
na-e bo
n rụrụ
mba b
mbab we
la ni
kpe biri
ga-a bara
bi a
akwụ sị
Zi mbabwe
W a
U S
T i
Ihedio ha
Ibrahi m
ọkụ .
sena tọ
ra l
p ịa
na-a jụ
me ere
kụ zi
ka ra
gba nwee
e jiri
b y
ar e
anambra ,
Pre mi
P la
Ma du
El- Zakzaky
A h
ọnwụ .
ọka fọ
ọ zụ
ị nya
ị cha
u bi
te la
ope kata
nwe tere
n go
izu ụka
asa tara
O N
Na i
Leagu e
ụfọdụ ,
u te
u le
na-ele kọta
na-e ti
mụ ọ
ma achị
ga-e we
ga-a kwụsị
ekwe ghị
egwu .
arc ourt
agba ala
P ort
Inter national
H arcourt
E mma
3 0
“ onye
ọk to
ọkto ba
ọchịchị .
ị zụ
ị mụ
tọ zde
tu o
sị a
na-e ke
mi ta
ma kwụ
l l
er o
de e
bi sh
a "
Co mm
A le
2 .
ụ gha
ta a,
otu ,
ori akụ
mere ,
makwụ kwọ
kwa nụ
ga-a chọ
Premi er
Jo na
2 )
ụnya ahụ
otu .
n ba
lọ ta
kụ rụ
kwe ere
kwa ,
f uru
ekwe sịghị
a kọ
Fal con
ụmụ nwoke
ụ bụrụ
ọzụ zụ
ya. ”
rị ọrọ
ome be
nke "
nche ta
nba jo
n turu
n di
me d
jụ ọ
ise .
ihe "
bi ga
achị cha
Osi nbajo
M baka
G er
B ra
ụ ma
na-e nyocha
na-a kọ
c tor
atọ ,
arc el
afọ .
a gwụ
S t
B ro
Ale x
A ba
ịny ịnya
o re
n su
mpi on
mkpa mkpa
m be
kwuo ,
họ pụtara
gh ọọ
e mi
e mere
c an
a kpara
Wil li
O nye
Joh n
Fa ce
Eme ka
Da vid
A ir
201 6
ọgwụ gwụ
u gbo
obodo .
ny ụ
ntọ rị
nne wi
ni a
mo zu
mgbasa ozi
mgba nwe
ar y
akwa mozu
agb idi
a wụ
Willi am
W or
M A
Jona tha
C amer
ọbụla .
sị kwa
s :
ro m
iku ku
ide mmiri
ego .
e were
da y
ari be
ar ọ
ah u
H a
D SS
C on
B or
A i
ị ta
sụ gharịrị
si a
pi ta
o "
na-a naghị
ma a
m mi
la .
kwụ sịrị
kwe ta
ji dere
ch o
ber t
al th
aka ebe
Y o
S am
Fu lani
Ab du
A na
na- arịa
n zụ
kan sa
ju laị
isi ,
b re
Sh e
Ri va
Nai ja
M ba
Fe der
E uro
Cha mpion
Ab aribe
A di
“ ndị
y en
ve s
tụ nyere
tọ ọrọ
to ro
rị rị
p an
ngwụ cha
nchị kọta
na-eme kwa
mma sị
l la
kọmi ti
j ere
ga-e zute
e nwere
T imo
D el
pụta .
p te
p ara
nsogbu .
ndị ,
na-e nweta
na-aga ghị
na-a nụ
na ,
mee kwa
kwe si
ke lere
ime .
ho o
ga-e so
che tara
an u
U t
I v
H e
Falcon s
E ng
ụnya ahụ.
zọ rọ
t ti
okwu ,
nwụ chiri
n do
me cha
kwe nyere
er s
eji je
arcel ona
U mu
Jonatha n
I gbo
B en
B arcelona
“ ihe
ị nọ
ukwu .
te au
ri tere
onal d
ode akwụkwọ
nzụ kọ
na-a nwụ
n tu
mp u
mgba kọ
mee .
mbụ ,
ghọ tara
g ra
e meri
dị .
anwụ .
We st
Pla teau
Nor th
D onald
D ani
3 ,
" ọ"
ọgwụ gwọ
ọbụla dị
taa :
sa yen
on do
o on
o k
nwaanyị .
na-e zi
na-e be
mm er
ji kọtara
i nọ
gb ụ
ga-a bịa
bụ zi
Wor ld
Uma hi
Fran ce
Camer oon
Ba y
2 5
“ n'
“ m
ọjọọ .
se pte
na-ebu te
n kụ
m bodo
i li
ga- eri
eh ihi
echi chi
ebi .
asa mbodo
Ut d
T he
Ro bert
Li b
Del ta
ọnụ ,
za a
tu s
opekata mpe
na-a bụghị
la a
kraịst ,
ka ma,
eh u
c u
akwụkwọ ,
aka tọ
a ku
Sh i
Riva s
O ba
L ondo
I M
Ai sha
1 00
- ndị
ịcha fụ
ị kwa
zọ pụta
t hi
ssi on
sayen sị
ower ri
ogbe nye
o ma
na-e yi
mi n
m bido
c ra
agụ makwụkwọ
abụrụ la
U K
1 2
ị mụta
yin bo
u hie
to yinbo
ti ri
t ten
re e
nso n
nku me
ma ghị
li a
j ama
jama nị
inọ k
gachara ,
ga-ama lite
da a
amerịka .
adị gboro
T u
I bi
H u
E bo
Chris ti
ụ ta
tu m
mkpa .
m gbochi
le y
l ịa
l ara
h ọrọ
h u
gba ara
d ike
agba nye
afrịka .
a gbara
__ __
To tten
Re al
Nig er
Dani el
A FC
3 .
2019 :
- O
ụ ghọ
ọnụ ọgụgụ
ọbụ ghị
ịhụ na
ị da
z ụrụ
te ,
so nyere
s ọọ
p p
oge ,
nu el
nturu ugo
na-a ṅụ
n ghọta
n du
me s
jizọs ,
iche -
i na
gh ọrọ
ga- arụ
bi ko
agh ụghọ
Sh ehu
Oko ro
Face bo
Fa toyinbo
De mo
Co mmi
AFC ON
A ra
9 .
6 ,
2019 ,
2 8
- A
“ a
ụmụ nna
ụdị rị
zọ ọ
wa nye
v s
osi ka
nwe ela
na-ama sị
me gidere
k ra
ji kwa
j a,
ga-a sị
g ri
fu o
ekpere ,
egwu ,
chi te
azụ ma
arị rịọ
Timo ti
Re v
L u
5 .
.. .
." ọ"
ị kọ
ị chọ
si na
nwa ada
ndị da
na-e cheta
na-ama ghị
n jiri
njiri mara
mme kọ
m wute
i chi
gbo chie
ga l
e p
ama di
ahịa .
agh a,
S i
Nigeri an
D an
A C
4 )
( n
ụbọchị ,
ọla edo
pu ru
o ti
nọ .
nri ,
n' ụba
mu el
mma lite
mba ,
le ment
kọwa a
ko la
eti nyela
eti nye
eji ghị
do zi
ama .
akụ n'ụba
a tion
Totten ham
Sa muel
Pe op
E bre
ọna tara
ọkụ ,
tọ hapụ
okwu te
o do
nọ ve
nrụrụ aka
n kwụ
kwu putara
kwado ro
ka "
jizọs .
jehov a,
ise ,
i zi
gha chiri
gba gburu
ga-e nweta
ga kwara
ekwe nsu
bish ọ
az a
al o
S te
O la
Ja pan
Emma nuel
Ele ction
Champion s
Ah med
A gu
A N
ụzọ ,
ọnatara chi
ọhụrụ .
ọdị mma
z .
re ss
onyeisi oche
onye àmà
o se
na-e wu
kpọku o
ka tọrọ
juu n
i s
i gosi
bishọ p
ana bata
amalite la
ahụ ?
agbanye ghi
Oko n
Oke zie
J e
Ife anyi
C e
Bro ther
Afri can
ụzọ .
ụtọ ,
ụlọ ,
ya "
s sa
no a
mme gbu
me chaa
ma r
kwu pụtara
ka na
g ere
chụ pụ
c ia
bụ .
a zu
P ar
Jo e
Ada mu
A bi
“ chineke
ọ ga
ị gwa
ị ara
w ala
u m
ti n
spe n
rị cha
p ti
nye kwara
nri te
na-eme pụta
na-e mere
ma sịrị
ki lo
ih ere
f f
ep rel
eme ghị
ekwe si
eji de
e je
dị ịrị
agw ala
afọ ,
K ano
Euro pe
A nd
.” ,
- E
ọma rịcha
ọ gara
zi l
ya. "
w an
se le
pti zi
o te
n' obi
n cha
mi li
lụ ọ
kụ ọ
kwe sị
kpe e
ko ria
jọ n
ihu .
i du
hi bere
ga- aka
ga na
g y
ehihi e
e ju
e e
do o
da ị
ba ptizi
azị za
ama ra
aghọ ta
William s
W ol
T ho
Sh ia
P ri
O gbo
M ike
I kpe
Facebo ok
Eng land
C O
A s
A li
ọkpọ ka
ọ gbụ
ọgbụ gba
ugwu .
t ho
s ere
rọ shịa
para daị
p ort
na-agba lị
na-a ba
na batara
n nọchite
n kw
mme chi
me kwara
m y
li n
ga-e kwu
Ri ver
Obi ano
Jo b
I d
Demo cra
Bor no
B el
B aba
2 4
ị jụ
ukwu ,
u de
ne l
ndụ ,
ndị ozi
mma nwụ
me biri
m gbu
li an
le ta
kọ ọrọ
ju pụtara
j eru
f ran
eme mme
e gburu
bọ je
ba a
asa ala
anọ .
ama dị
alụ kwaghị
Y emi
: "
5 0
" ,"
ụka .
ọ wa
ọ gbara
u ni
to m
ong ress
ogo go
o t
na-e gwu
na-a nọchite
na-a mụta
me chiri
kwe tara
kpọ pụta
ka sị
jeru sele
i ti
i gbe
ere na
c ar
ar ba
S erena
S ala
Ikpe azu
Id ris
D o
Commi ssion
C ongress
C lement
9 ,
7 ,
ị kwado
ị dọ
w in
u du
p ere
obodo ,
nso .
na-ekwu .
na-e se
kọ mpu
gba pụ
gba lị
eme e
ebum n'obi
bụ :
ba ,
b eri
an g
abụ bụ
a cha
Vi ctor
Ser a
S y
O nwu
Igbo kwe
G od
Bra zil
1 1
- 3
ụlọ .
ọchịchị ,
ịhụna nya
ị na
zị kwa
w .
v el
tụ ọ
sọọ sọ
so la
nọ ,
na-agba nyeghị
n ce
me zuru
me pụta
la ghachi
kilo mita
il l
i ce
ha ?
ha "
gba la
fe bụ
febụ warị
eme .
ebu be
du n
de ine
chi ,
che e
b le
asa a.
any ụ
abu ja.
Okon kwo
Nna mdi
Ke nya
In dia
E m
Chi bo
B ig
A R
19 8
“ o
ọdịnihu .
ọ bụrụ
ị nwụ
tụ beghị
pase ntị
nri .
na-ekwu sa
na-e zu
na-a sị
n kwu
mgba ghara
mb ịara
la h
kpa ta
ki ti
ke pu
i mi
gh t
ga-akpọ lite
azụ .
anọ ghị
adịgboro ja
a wakpo
U N
Re hab
Okoro cha
Joh nson
Ibi am
G arba
Co s
C or
6 .
201 4
ịgba nwe
we tara
sị: "
si ,
s "
rị tara
ru tere
p raị
osika pa
o kiri
ntị .
na-e je
n hazi
kwa sịrị
kpa a
iche- iche
gha chị
gen cy
ga-e bido
ga zi
for d
ezi .
el l
ekpere .
ama ala
a kpọọ
U gwu
N L
F F
Da vi
Adi chie
20 23
19 6
- anyanwụ
ọjọọ ,
v en
oke .
nọve mba
nso nso
nle ta
na-eme ,
na-eche gbu
na-akpa ta
kọ b
kwa ara
kraịst .
kpe bi
je kọb
igbo ?
gba tara
gba lịa
ga-eme cha
ga-e tinye
eme pụta
de pụtara
de n
ci al
bịa .
bị aru
b ru
b lic
anwụ ọ
ama m
Oko ye
O mo
K u
Jose ph
Ch ar
Bu kola
7 .
5 )
ọbụla ,
ọ sị
ị laị
ị hapụ
ta in
o gbo
nwa agbọghọ
na-a gbara
na .
mere nụ
m bo
kọmpu ta
kra ine
ji ,
i lu
gwa kwara
ga sị
g re
ese m
ekwe sị
chụ ọ
cha ala
an e
a ko
Uni on
Ude mba
U kraine
U che
O su
O j
NL C
M er
In no
Ebre ham
D C
Ce nt
Al l
A ng
A n
8 ,
19 7
0 .
ụka ,
ọsọ .
wo od
vi ce
te ghị
so kwa
ol ly
olly wood
o g
o .
na-eme gbu
na-e wute
na-a chụ
n rụ
kpọku ru
kpọ m
i kwe
h ,
gị ?
ga- eru
ga fee
f ero
eme bi
di se
ci s
ba .
anọ ,
ala kụ
agbata obi
Wol ves
Na tion
Londo n
Bi o
Al lah
9 )
7 )
2 6
ọka ibe
ọgara nya
z or
septe mba
ozi .
nwere .
na-efe gharị
mmiri .
mmer ụ
me zuo
mb ara
ma chiri
ko ro
ibu te
hi bru
gụnyere :
gbasa ara
ga-e gbu
f fi
elu .
ekwe la
e hab
e "
d y
c t
bụla .
bụla ,
apụta ghị
akatọ ọla
ahụhụ .
ahụ ghị
a kp
a ce
U me
Par ty
Madu ka
Da y
B an
3 )
20 20
ọnwụ ,
ọga nihu
ọcha .
ọcha ,
ị za
ị me
wu tere
t ta
si kwa
okiri kiri
nw o
ngwa ahịa
ne gal
n no
n chụ
mme pụta
metụ ta
lọ ghachi
kp uru
k ris
j ọrọ
ikpeazụ ,
h r
ga-eme .
ejiri la
ego ,
ebu ru
chọrọ .
che be
bi nyere
bekee .
aha pụ
Z am
Se negal
S an
Ro hr
Mi ni
I S
Gu ine
Fe mi
E d
Democra tic
Da p
B re
A w
A kanu
8 .
0 ,
ụlọ ahịa
ị nụ
zụ ọ
we pụta
ti gbuo
sh op
onwe alth
okpuru ọchịchị
nwere ,
nkw arị
na-e du
n si
mer u
me jọ
legọs .
le n
l .
kwụ nye
ji .
izu gbe
gba wara
eze ,
eru ola
e cheta
cha el
ch ụrụ
bụ bụ
bu te
anyị ?
akpara la
abụ ,
a dọ
Z A
Uni ver
Uma r
U zo
T ra
R ibe
O nu
K anu
I V
Davi do
Comm onwealth
Chibo k
CO ZA
C up
C ro
" n'"
ọka ,
ọ t
zi tere
we ta
ur ch
udo .
te ela
st le
p ho
ny a.
ntụ nye
nke a
na-aga biga
na-a kwanyere
n z
mi di
la wa
kọwa ara
kwesi li
ide mili
ghị .
ga-e gosi
ga fere
f ara
eri a
dịka "
do zie
di na
di mkpa
cho ol
bọọlụ .
ba n
amerịka ,
amam ihe
akpọọ la
T im
Ribe ka
Port Harcourt
O gu
N ọt
M or
Fran cis
F o
E ji
C ana
AS U
A ku
! ”
“ mgbe
ọ bịa
ị chọpụta
ṅ ụrụ
zi te
ye tti
re n
pase nt
onye nwe
nwe beghị
ntụliaka .
no t
njọ .
na-e fu
na-a sọ
na li
n ze
n sụ
kwa zịrị
ji kọrọ
ice ster
ha a
gri k
gi ge
esem okwu
elu ,
de l
che kwa
aṅụ rị
N gige
Mi yetti
Ma y
Le icester
Eze kwesili
Ea st
E thi
Christi an
C ou
C ol
A ni
2 1
." anyị"
ị nye
ṅ omi
zọ gbuo
te k
t t
pụtara .
pu te
ozi gbo
oge .
nwụọ .
nwata kịrị
ngwa agha
na-a pụ
n sị
mkpọrọ .
mi c
le ke
kụzi iri
kwu buru
kpo chapụ
kpe bie
ke wa
ka ,
k la
gwo ju
gbalị rị
gba wa
eluigwe ,
ebi ,
d ọrọ
chị buru
asa taghị
arị ọ
a. "
P u
Oj ukwu
Nwo do
Mer cy
I ran
I mo
C y
( N
ụ gh
ọṅụ ṅụ
ọtọ .
ọhụrụ ,
ọ fọ
zụ ta
ya :
ugwu ,
tek nụ
teknụ zụ
sh u
ri te
onye "
ol y
o wu
o m
nsọ .
nle kọta
nje debe
ni n
na-e kiri
na-a dọ
na hụrụ
n kọwa
n c
merụ ọ
ma tara
kpa mkpa
kpa chara
ko lo
ke le
i sonye
i kiri
i gba
i beri
hi a
go la
ga-ama ta
ga-a mụta
ga nị
e f
dere ,
anụ rị
alakụ ba
akpụ kpọ
ahụ la
ahịa ,
aga fe
abụ )
a kwọ
V a
Shi ite
Ser vice
S AR
SAR S
K ing
In di
IM N
I D
H er
H IV
G ra
Ethi op
E n
Dap chi
Bi shop
A nt
A F
2017 .
ụ fụ
ọrọ la
ọ tụ
zo ro
zi k
uru ,
ume ala
u ,
pu blic
pe e
on gwo
ochie .
nọchi tere
nwụrụ ,
ngw ongwo
n nwere
ma gazi
m on
m .”
kpụ pụ
ihu ,
iche kwa
gu nyere
gre ssi
gh ere
gba kọrọ
ga-eme zu
ga-a lụ
ga sịrị
g ar
eziokwu ?
eluigwe .
ebo ro
e soro
dise mba
da bara
bi bie
asị .
Or ji
O s
Nwa chukwu
Nw an
Mike l
K ogi
Ja mes
Ike chukwu
I ta
Fran k
Da kolo
Ch urch
Bu r
Bri tain
Bio dun
Ben ja
And re
ASU U
A gency
2 2
." ndị"
- onye
" nke"
ụ kwara
ọwụwa -anyanwụ
ọnwụ nwa
ọfụma .
ị bịa
ya t
taa ta
sị ,"
si iri
si de
r ere
pe nali
penali ti
p ro
p ar
obi ọma
nọ chiri
nkwe nye
nji kọ
na-abịa .
na-a pụta
na pụta
mana "
magazi n
ma hụ
m ne
la ,
kọ rịtara
kwuo .
kpọ litere
kana da
i fo
hi were
gra m
gola yat
ga-ebi bi
ga-e mere
f re
eze .
enugwu .
eme nt
de pụta
da pụtara
chị kọ
ahụ. ”
a tọrọ
a kọwa
S C
Peop le
Pe ace
Nigeri a,
Mi chael
K im
Ger not
B ar
A d
' ?
" na"
“ ka
ụlọikpe .
zị kwara
vel op
velop ment
ta nka
sị "
st ri
so cia
socia tion
oke ,
nwụrụ .
nwaanyị ,
nsọ ,
mp ịa
lu ,
la n
jiji ji
i ju
gọ zie
ga-a zọ
ga-a za
fraịde .
enugwu -
emeri ela
e fere
di ,
chọ tara
chineke ?
cha a,
be lata
am ị
a nwa
a ja.
Zam fara
Univer si
So yin
Se con
Pro gressi
N du
K ore
Ge or
E x
E li
As sociation
Abdu l
5 00
5 ,
4 ,
2018 .
ọkọ lọ
ọkọlọ tọ
ọkpụ kpụ
ọ kpa
ịkụ ziri
ị sị
zi gara
ya nwa
wa y
tụ ta
to o
ti ve
tho lic
si me
ro up
ri st
p ha
o kwe
nwe te
nta kịrị
nna ya
ne si
na-ewe ta
na-eme gide
na-a hazi
n kọ
mmiri ,
mma chi
mkpa gbu
me chie
kp arịta
iwe .
isii ,
iri .
in o
ime ,
il la
i nyocha
ho le
h ere
gwu ru
gw ọọ
gha pụ
gbata gbata
gaa sị
g er
enwe ela
el sa
el d
ede me
e kp
ca stle
c to
bu uru
atọ hapụ
ari a
alụ mdi
ahụ rụ
ada ala
T an
Olu se
O gbu
O du
N ji
N i
Mu sa
M z.
M ala
Leagu e.
F I
Ethiop ia
De velopment
Ca tholic
Bay elsa
Ban k
Ana je
( A
ụ zụ
ọ pị
we la
tụ la
sụ gharịa
rụ tụrụ
ruo la
ru s
ra el
paradaị s.
ozugbo .
ozi ,
nụ warị
nọ kwa
nwụ chie
ntụ kwasị
mere la
me pụtara
mb er
kwu tere
kwu kwa
ku zi
kpọm kwe
jọ gburu
jerusele m
je nụwarị
je e
iwu .
iwe pụ
ite ghe
ime ụlọ
ikpe .
i were
ha zie
guzo be
gu ri
ga-a gwa
eme ka
edeme de
eche fu
ebido la
dụ ọ
ce nt
bu o
anambra .
akpa ta
ad ọọla
Yo ru
Y u
Tho mas
Su dan
She ka
S p
P i
Oluse gun
Lib ya
Ka lu
Is rael
H ar
Go od
Char les
Ch an
Cana da
C ar
Bu sola
Alex and
A ja
- N
- "
’ )
ụbọchị .
ọgụ .
ọ si
ị sụ
ṅụ ọ
zụ ga
zị ghị
v an
u kwa
tiusde .
sta n
siri ak
shi om
shiom hole
ri n
ra tion
praị m
ochie ,
nụ .
nwụọ ,
nwee kwa
nnọchite anya
ndị a
na-eme bi
na-eke le
na-a ghọta
n nụ
mpịa kọta
mkpa :
mbu ze
kụ ziri
isii .
gọ zi
ga fe
es si
er n
eme pe
e ge
di bia
chọ ta
akwa .
ah ịrị
adị rị
achọ pụta
W ike
Ugwu anyi
T V
Soyin ka
Ro nal
P ari
P C
Nna bu
New castle
Ger ma
Au stra
Air port
A re
6 )
2015 .
." o"
“ unu
ọ s
ọ pụ
ọ kwọ
ọ kpụrụ
ọ chụ
wu ru
wa ,
tara mahụ
taramahụ hụ
t witter
ph en
ozi ọma
oyi bo
otu to
or k
o lo
o bo
nwụ nahụrụ
na-eche kwa
na-aga ,
na-a za
na tara
n taramahụhụ
n ma
mme fu
mgb idi
m :
li ela
l li
l arị
kọ pa
kpọ tụrụ
ke ,
ju putara
ijipt .
idu guri
i nt
i mere
i kpere
gy pt
gba kwara
ga-a gụ
ga s
ga d
fọdụ rụ
enugwu ,
en er
echiche .
e nyocha
cha ara
bịa ,
biko ,
azụma hịa
au di
asatọ ,
arị ọla
apụ ghị
anya .”
agba gbuola
aga di
aga ala
aba ta
a pụtala
____ ____
T ara
Ste phen
Sheka u
S chool
River s
Nation s
N ollywood
Ma iduguri
M ah
J ane
H aru
Feder al
F or
E gypt
Comm uni
Chi oma
Ch ad
Cent ral
Benja min
B ori
B enu
Abdu lla
2 9
19 14
ụ kpa
ọ lị
ịlaị ja
ịdị na
z arọ
ya ;
x i
sọ nde
sta l
sh o
se kọ
s er
onyeisiala .
ohi ,
o ,
nye kwa
nwoke .
nwoke ,
nweghị kwa
nw uru
nu che
nkwa nye
ndị ;
nc il
na-eru bere
na-e zo
mma ?
me sa
mbu li
mbi lite
lian ce
le t
la zarọ
la ck
l eri
ime bi
ga-e kwe
ezi na
ejide la
egosi la
eche ghị
ebi bi
ebi a
du ru
di ng
con omi
chọ ghị
che l
bu lu
bo n
azụ ,
asatọ .
ar ebia
ama chiela
ala ghachi
akwa ,
ada ba
a hia
Universi ty
Tim gad
S audi
S al
Re public
P S
O shiomhole
Ny ako
M ou
La i
Inno son
I bo
G roup
C B
Al liance
Abdulla hi
A meri
4 00
. ,
. )
) "
“ e
ụmụ okorobịa
ọpụ pụ
ọkpụrụ kpụ
ịtụ kwasị
ị na-eme
ị họpụta
xi co
tu re
ti e
te .
t .
st y
st on
shi p
s ụrụ
s ala
rụ warị
ran s
ote le
op h
oph obi
ogo ogo
o s
nụ ,
ny ụrụ
nwa amadị
ne s
na-ekwe sịghị
na-aga .
na-a sa
na-a kpụ
na hụ
mgba kwụnye
mana ,
kwuru ?
kwe kọrịtara
ku ru
k s
k no
izrel .
in ji
igbo chi
i kpo
ha. ”
ga-a nwụ
ga-a hapụ
ga-a da
fe b
feb rụwarị
enweta la
en ophobi
e zo
da da
chụ pụrụ
chị a
chara ,
bụrụ godị
bu nyere
asa a,
akpara ma
ahụ. "
agba sa
agba la
afrịka ,
adị .
achụ ọla
achọ pụtala
a ị
a wara
a t
Y ou
T here
Ronal do
Q u
P )
Oba ma
Me xico
Mba ise
Ma da
M ana
In sta
I C
Guine a
Geor ge
E conomi
Cou ncil
Be nin
Bay ern
ụra ,
ọzọ kwa
ọnịcha ,
ị gbara
we zụga
vi sa
ro n
pụta ,
olu tion
nwe dịrị
ntu tu
na-e were
na-e do
na-a mị
mụ wa
mkpọ tụ
mee ,
mama nda
ma dị
le ge
le ,
la tị
kpọ lite
ikpeazụ .
i d
gba chara
ga-eme li
ga-eme kwa
ga-a tụ
ga-a ta
ga ni
ezu ghị
ewere la
ekpe bi
echiche ,
e gbochi
di .
day ọsi
ata ala
arụ sị
ama ,
akụkọ "
aba cha
a nwu
X enophobi
U ga
There sa
Te kno
Su nda
Rev olution
P ower
P ope
Or tom
O ye
O gun
O di
K ha
Is la
Haru na
G ran
FI FA
Europe an
Chi mamanda
Ch rist
C ri
C N
Bori s
Al g
A t
8 )
201 3
’ ”
ụra .
ụnya ahụ,
ụmụ ada
ụgh a.
ọrịa .
ọkwa .
ọchị chọ
ọ nya
ọ bọ
ị wa
v in
u ra
u chu
ti u,
ta ,
sa ị
sa ,
ru te
ri ng
r .
per ation
ou s
or g
o ra
ny a,
na-e jere
na-a kọrọ
na-a katọ
na-a bata
na-a bara
na- arụrụ
n gụ
ma sị
ma k,
lu ck
lic an
le kwa
kọ ba
kwu te
kpa m
ke t
ji zi
iwu ,
i gh
gba ghara
eme zu
e kpo
dụ rụ
di nma
co deine
chọ kwara
c al
bọọlụ ,
bi .
baptizi m
anya ?
anwụ chiri
agụ m
agba nwe
Z ara
W AS
Sunda y
St .
Pre side
PS G
O de
O WAS
Nji kọ
N su
N ke
N di
N FF
Ke nne
Em lin
EC OWAS
E nyi
E MA
Chi ef
B lack
B al
Agu leri
A M
? "
2018 ,
20 00
ụmụ agbọghọ
ụgwọ .
ọsị sọ
ọrụ ugbo
ị kọwa
zi ga
ya hoo
y ,
wi ch
wa .
u re
si ng
satọde .
rid ge
p ou
otu "
ome n
olu lu
of or
o ne
nz agha
ny ahụ
nu pụrụ
nu pụ
nno gh
nnogh en
nkeji :
na-ekwu si
na-e tu
na-e hi
na-e ge
na-akwụ wa
na-ahụ ta
na-a na
n kwọ
n gosi
mi la
mfe .
me ziri
me tụrụ
me kwa
me bie
ma tiu,
kwuru :
kpụ ọ
kp arị
ke lee
ja iro
isi ala
iri ,
ing land
iche ta
gw ụrụ
gosi kwara
gba pụrụ
ga-ama si
eji ji
e du
dayọsi isi
d iri
ce se
c er
bọje tị
bu lie
arụ ọla
amụ ta
ama sị
akụ ziri
abịa .
a kpọrọ"
Z e
Z a
Uga nda
U E
UE FA
Tan z
T ur
Sala h
S olu
R ama
Osu n
O no
O nnoghen
M ela
Kenne th
Ju ven
Isla mic
I I
Good luck
E zi
Chi ne
Ch e
Ca li
CB N
Au gu
Ang lican
Ade leke
A pp
3 7
ụfọdụ .
ụ nyahụ
ọsọ ,
ọmụ gwọ
ọkọ chị
ị banye
ya, "
y ode
were godị
w n
tinye kwara
t ra
t ,
s to
ri ty
pụtara ?
pụtara ,
pị ara
pho sa
nwụchi kọrọ
nwe chara
nwan na
nsọ pụrụ
ni s
naịjirịa ?
na-ekwe ghị
na-e kpo
midi a.
mee la
ma ọbụrụ
m -
lọ ta.
lị kan
li .
kụzi ere
kla asị
ka .
k in
jeri ko
ime zu
ile ta
ibu so
i gwu
ha. "
goolu .
gharị ị
gb ụrụ
ga-e le
ga-e kpe
ga-a ghọ
ga- ere
ga .
eru o
eme chiela
da ta
cha a.
bi gara
ar o
anwụ ,
ama w
alụkwaghị m
akwụsị la
aka ?
aga ghi
aba nyela
Yu su
Yoru ba
W A
WA EC
S oko
Rama phosa
R us
Progressi ve
P oli
NA F
N nia
Mela ye
M essi
Ka duna
Josef .
J ong
Insta gram
Ibo m
He alth
Gran d
G ener
Ebo nyi
Col lege
Buhari ,
Bel lo
Ab ra
A mara
A la
A ka
A chebe
" -"
ụwa ?
ụmụnwaanyị .
ụlọ mkpọrọ
ụgbọ mmiri
ọwụwa anyanwụ
ọhịa .
ọbụ na
ị na-echegbu
ị hazi
zik iwe
y uro
yuro p
y ele
x it
unu .
u ba
tụ madị
tọ gbọ
t arị
st ry
s y
s se
rọ rọ
r ala
po li
nyocha a
nw ara
nupụ ụrụ
ntị ,
nsi bi
nnụ nụ
nchekwa ,
naịjirịa -
na-eme tụ
na-eji ghị
na-e chu
na-agba si
na-achị kọta
n zọpụta
mmụọ .
mi na
mgba pụta
me zu
me pere
maha du
ma kwa
ma h
lọ tara
li ng
li ghị
le godị
le agu
lazarọ s
l t
l ,
kwụsị .
kpo ro
ho ny
hi ere
gwa kwa
gba pụta
ga-ebu te
fi m
ezi e,
eti ela
ekwesị .
eji ma
ebum nuche
e chere
da ,
d ọọ
d ne
chi buru
chara .
bekee ,
b ar
arụ kwaghị
ama beghị
akụ nụ
akparama gwa
a. ”
a kọrọ
a kwara
a jị
a chọrọ
a bị
a bara
Yo be
Uzo dinma
U wa
Tara ba
S pa
Os car
Onwu ama
Omo yele
O ha
Nor wich
N B
Mada gas
J i
Ita ly
I gh
I di
E kiti
Da biri
D ino
D AC
Cro ss
C an
Bre xit
Ant hony
Ade sina
Abra ham
A zikiwe
30 ,
- 4
, ”
"" n'"
" ka"
ọzọ ?
ọmụ ma
ị kọrọ
ya -
wenezde .
vi e
uju .
tọzde .
si la
s uru
oyi egwu
oti egwu
on ,
ohi .
nwe kwa
nwa .
ntu zi
niile .”
na-ebu so
na-e kpere
na-arụ pụta
na-aka si
na-a kwọ
na-a bị
na- ara
na pụrụ
n ọchị
n zọ
n or
n chere
mọnde .
mma .”
mkp arị
me zịrị
me we
me l
kpọku ola
kpu o
ka h
j anụ
janụ warị
inji n
ile kọta
h ị
gụ tara
ga-adị kwa
ga-a pụta
ga-a dịrị
ga la
ga bigara
f ị
ewe pụ
enyi ,
en ce
eme la
ele kọta
ebi .”
e ku
dọ tara
de gara
chi .
cha sị
c c
bọje t
bu ka
baịbụl ?
agwụ la
adị la
a ja,
a g
Y ork
Ta cha
T ogo
Soko to
Peop les
O peration
O pe
Nor way
Njikọ ka
NAF DAC
M on
Ka t
Igh alo
Germa ny
Gener al
Eze ife
Economi c
E do
Da ve
D on
D en
Con go
Chukwu emeka
Chan nel
B ru
B les
Anaje mba
Ama echi
Alg eria
Ada ma
A ction
2016 .
20 ,
15 ,
." n'"
." ihe"
ụtụtụ ,
ọgọst ,
ọchị .
ịntaneti .
ị kpe
zi ghị
wu lite
w w.
w ww.
ver ton
v re
us tom
ume .
u n
te e
sti ne
st rị
spe n.
se litere
saụ di
ry stal
ritere la
onyinye ,
o su
o st
o ni
o gu
nị strị
nye gara
nye fee
nwa okorobịa
nrụ rịta
nka ,
na-ebi pụta
na-a nata
mị nịstrị
mkp ị
maka "
ma gburu
lu k
li stra
l s
l le
kọ ọla
kwu be
kwe sịghị
kris mas
kpo ko
jụ ụ
j w.
iko .
iche iche.
iberi be
i ma
hi we
gharị ala
gawa ,
ga-e meri
ga-a ghọta
fa i
ezigbo te
eso m
e kere
chọ wa
chere ?
bụ na
bu r
bu ola
bu liri
bu ike
bo ur
be del
ba ll
ani sh
anaghị kwa
an do
akwụ sịghị
agb ụ
agafe ela
achụ m
abụ bọ
abalị ,
Wa t
W omen
U do
Tur ke
T rans
Sp anish
Sam son
Ru fai
Ro ad
Osi ta
Or gani
Obi ora
O sa
O ndo
O li
Ny esom
Nwan kwo
No w
Ka yode
J AM
JAM B
IM F
H ope
G ol
Fo ot
F ren
F ore
F lo
F es
F B
FB I
Enyi nnaya
E verton
Cos mas
Communi ty
Co deine
Chi do
Chi di
Channel s
C ustom
APC .
A so
A T
A )
6 0
3 3
19 4
“ ị
ụtụ isi
ụmụaka .
ụlọọgwụ .
ụlọ elu
ọnụ ahịa
ọ kwụ
ịrị ọ
ịma lite
ịgba ghara
è vre
wenezde ,
w ard
ute eze
us tin
uru ndi
udo ,
tụ kwasịrị
tọ ọ
to zuru
tic al
ta ny
tany ahu
st ru
si on
sh ola
pe nde
pa p
og le
ofesi .
obi ?
o nwere
nzukọ .
ntuzi aka
nso ,
ni ch
ngw an
nga gwa
ne ,
na-ekpe gara
na-e siri
na-e dozi
na-agba sa
na- anya
na ngagwa
n ha
mọnde ,
mne sty
mgba gwoju
ma .
ma "
m kpụ
li st
li nt
la ghachiri
kọwa a,
kwu we
kiri e
ke ke
karị chara
ka li
ju pụta
jeri a
iwe pụta
iwe ,
injin ịa
il le
ikpe ,
ibu .
i su
i meri
hụ la
ha i
ha -
gw oro
gosi pụta
gh ton
gb anyere
ga-e were
ga-e wepụ
ga-a sọ
ga-a ba
f èvre
ezina ụlọ
ezi ,
es onye
eru ghị
ere .
ekwe taghị
ekwe ta
egbe .
e nwee
du nyere
do were
cha beghị
bụ ?
bị lọ
bi pụtara
ba bịlọ
b n
ala ce
ala ala
al jeria
akwụ na
aha zi
aha pụla
aghọ taghị
agaghị kwa
adịghị .
a to
a bọ
Turke y
Spa in
Solu do
So lo
Secon d
S ia
Ru ga
Re gi
R wan
Pri ma
P hi
P h
Oke chukwu
O jo
O bo
Ne tanyahu
NY SC
Mu sta
Mu nich
M nangagwa
Le fèvre
L an
Ke shi
Juven tus
I nde
I be
I ba
Gra ce
Go ogle
Feder ation
Ebo la
E qu
E kwu
E U
Ch ike
C rystal
Bo y
B urundi
B er
Austra lia
Ameri ca
Abi ke
A sh
2 7
- -
" "."
“ otu
“ obi
“ anyị
’ ,
ụmụ ahịa
ọrụ )
ọka .
ọchịchị rị
ị pụ
ị kpụ
ị kpatara
zọ pụtara
zi pụrụ
y rus
y chel
ychel les
v ement
u ri
tic s
taa ?
t eri
su o
so m
sh ia
se s
satọde e
rin ho
ri l
pap yrus
ozu zo
olee kwanụ
ohu .
ogi di
o ju
nyụ ọ
nyo chara
nwayọọ ,
ntọ ala
nsogbu ,
nsibi di
nnwere onwe
nd ọ
nchụ aja
na-eru beghị
na-eme karị
na-akpọ tụ
na-achọ ghị
na-a gọ
na pụ
n isi
mọ n
mme zu
mkpa ,
mgbe "
mgba li
mesa ya
me jọrọ
mbi ze
ma nyere
m s
m kpo
m bịa
lu k,
kụ ta
kwukwara ,
kpọmkwe m
ka sie
ka p
ka mel
jiri kwa
iji de
ibu li
i bido
h uru
gụ wa
gba nwere
gba gbuo
gara ,
ga n
fraịde ,
fran sị
esi la
es ere
eri ela
e siri
de bere
d g
chu tu
che bara
cha ,
ch an
bịa ara
bu ghị
biri .
bi lie
bi ,
baptizi m,
awụ sa
awakpo ola
atụ ọla
anu si
an ia
ama nye
akwụ ghị
aku bu
aha .
agba lị
aba nye
aba ala
a gara
Yusu f
Y akubu
Wat ford
W al
V illa
Ude mba.
Tu nisi
Tanz ania
Se ychelles
Qu e
O sho
N go
Mou rinho
Ma ina
Ma gu
Kore a
K on
Jong -
J or
Inde pende
H igh
G re
G i
Fren ch
Feder er
Bri ghton
Bles sing
B ala
Aw gu
Ara bi
An ge
A be
; )
2018 :
2017 ,
201 4.
10 ,
"" na"
“ mkpụrụ
ụkwụ .
ụ kwa
ọtọ ,
ọ stra
ọ ghọ
ịna pụ
ị nweta
ị na-eche
zụ tara
u be
tụ kwasị
tọ ghapụ
ti a
sekọ nd
sekọnd rị
saa c
sa tara
s ọrọ
s ley
ra h
qu e
par t
p re
p or
osisi ,
or d
on gworo
ole ezi
ol oko
okwu chukwu
obiano ,
obere .
o gwu
nwa ,
nke ọma
nke m
ni e
nghọta hie
ne bọ
ndị ọrụ
ndi na
nda gwuru
ndagwuru gwu
na-atụ ghị
na-akpọ "
na-akpa tara
na-aga gharị
na-a wakpo
na-a ghọ
na n
mm y
mgbe ,
mgb ọrọ
me zie
mbụ :
ma chie
m pụta
kwu pụta
kwesị kwara
ju o
je nesi
izu ,
izrel ,
im iri
iche fu
gw ongworo
gosi pụtara
ghị kwa
ge ment
gburugburu ,
gboo ,
gbo chiri
ga-e cheta
ga-abụ rịrị
ga-a kwa
ga ,
fọdụ zie
fu l
ffi eld
ewe pụtala
etiti .
er a
er ,
ekwesi ghị
ekp eri
e merụ
dị zị
dị na
dg z.
da h
cto ral
chọrọ ,
chineke .”
che godị
bo r
ba l
ar on
anụ .
ang ers
anaghị zi
akụ ọla
akwụ wa
ahụ ike,
agba ghara
agb arụọla
achụ pụla
abu ja,
abalị .
a kpụrụ
W hi
V C
Ume h
Ti wa
She ffield
Sh a
SS OB
R angers
Que en
Pa tri
O yo
O ki
Nigeria :
Ndu bu
Moha med
Mini stry
Mar tin
MA SSOB
La w
Kat sina
J ide
Iba dan
I saac
I re
H ou
H en
H au
Ga bon
Fore st
Fes tus
F ri
Ele ctoral
Custom s
Ca mp
C la
BB Naija
A nya
A nti
A mu
A mi
A I
4 5
4 0
2020 .
2015 ,
19 5
1 1,
( S
“ na-
ọsị sa
ọrịa ,
ọktoba .
ọchị agha
ọ b
ịkwụ wa
ị wakpo
ị bata
zi puru
z ịa
ye mi
y ị
y mar
tụ ụrụ
so ja
shu a
ru mba
ri sh
r ahụ
pụta ghị
pụ .
pọ tị
pa s
ozi zi
oju ju
oge "
o o
nụ !
nzu zu
nwunye .
nwu chiri
nweghị zi
nwe ere
nt ọrọ
nka .
ngwa ,
ngw ere
ne u
na-eme zu
na-eme fu
na-arụ kọ
na-agba .
na-a nabata
n wakpo
mo u
mmụọ ,
mme bi
mepụta goro
mecha kwara
me ya
me n
ma rị
m ?
li us
le be
la m
l ụwa
kwu sa
kwu puta
kwe tere
kpọ pụtara
kpu chie
kpata ara
ka gbuo
ka a
k er
ji sie
j ọọ
iteghe te,
ina b
imiri kiti
ime -
i kpa
hụ tara
hoo haa
hi be
ha :
gọọmentị ,
gịnị ?
gị nwa
gu a
ghara zie
gha ara
ge :
gburugburu .
gbu .
gboo .
gbasa a
gba nụ
ga-e ke
ga-a kpa
ga-a gwụ
g ọrọ
enye ghị
enwe beghị
eme odo
eme ,
ekwu ghị
ekpe nta
ekere sime
e yi
e te
e kike
e e,
di nta
de kwara
che fuo
c tu
c ol
bịaru o
bịa kwutere
bu so
bri el
be e
b ọrọ
apụ ọla
anwụọ .
an du
ama beghi
ala nd
akwa lite
akpụ pụla
akp ịrị
aka .”
ahụ kwa
agaghị zi
aga a
af ụ
a sịrị
a s
Ze aland
Za inab
W ar
U ba
Te ch
Sy ria
Rwan da
P o
Onye ma
Oke ke
Nnabu ihe
Ne ymar
Na sara
Mo vement
Mo ses
M al
L o
Ku kah
Kha fi
K o
Jide ọfọ
J ere
In do
I si
I A
Go ver
Ga briel
Eji ke
D ru
D ike
Cy ril
C i
Ara bia
Andre w
Aba cha
A mo
A chu
; ,
200 7
2 -
14 )
" ihe"
" anyị"
“ ha
ụlọ oriri
ụjọ .
ụgbọala .
ụ gwọọ
ụ dọ
ọzọ .”
ọnwa .
ọgụ ,
ọghọ m
ọdọ ahịa
ọ rumba
ịgba sa
ị nata
ị la
ṅomi e
yi e
y u
win do
we pu
ugbua ?
ugboro .
ugbo g
ugbo ,
ude le
u l
u ke
tu uru
th y
t ro
sịga ,
sị ala
si ghị
sh ing
sa sịa
rị ọkwa
ru la
pita l
pe nal
penal ty
paradaị s
onwe beghị
omume .
o nel
nọ gidere
nwa mkpị
nu bu
nnu pụ
nkịtị .
njọ ,
nje m.
niile ?
ngw a.
neu mo
nche kwube
na-enye kwa
na-eji kwa
na-atụ nye
na-atụ bata
n karị
mp ị
mp anọ
mmer son
mmadụ ?
mma nya.
mkpụrụ .
mgbọrọ gwụ
meya ng
me lu
mbịara mbịara
mara kwa
mara ,
maachị .
ma m
lo ma
li a.
le kọta
la tara
kwu chara
kwe ghị
ka siri
ka mpanọ
k h
ji e
iyi .
itoolu ,
ihi we
i fufe
ha ;
gwa ziri
ghachi te
gburu .
gb ọrọ
ga-eri te
ga-e leba
ga-agba nwe
ga-a kwado
ga a.
fi ele
eziokwu .”
esi ghị
enyi .
enugwu- ukwu
eme ghi
ele ction
eji ghi
eburu la
ebi ri
ebe "
do r
der s
chịkọ bara
cha pụrụ
c co
bụ ru
bị bịa
bur g
ba meyang
asa ba
anyị .”
anwụ chi
an ,
ala ?
akụ zi
akwado la
akpa ego
ahụhụ ,
agwa ala
achụm nta
achụ pụ
abụbụ ọrụ
abịa ghị
abịa ,
a na-eme
a kw
a a
Zi dan
Xenophobi a
W ole
U T
Ti nubu
Solo mon
Sia sia
Second ary
Rus sia
Ro ck
Power ful
Pari s
P er
P alace
Onwuama egbu
O tti
Ngo zi
N u
N PC
N NPC
Mor si
Mana gement
Ma t
Ma li
M oro
M c
Li onel
Ka bi
Jor dan
Ire land
Hara m.
H O
F i
Eme fiele
E mmerson
Chukwu ma
Ch ile
Ba le
B ridge
B ebe
Au bameyang
Ang lịkan
Al ha
Al -
Aba ng
A si
A gbo
201 2
14 ,
." mana"
( APC
" ndị"
” .
“ mmadụ
“ dị
ụlọ ikwu
ụlọikwu u
ụkwụ ,
ụgwọọ nwa
ọnịcha .
ọgwụ ,
ọdụ m
ọ ta
ọ bịbịa
ịgba so
ị sa
ị nọchite
ị nwụchi
ị nwe
ị ghọ
ị "
z on
z bọ
ya na
ya bụ
y ọ
wa l
wa a
w ụrụ
u tu
tu te
th ur
sọ l
siri ri
si r
si n
shing ton
s anya
rụ pụtara
ru be
ri es
pụọ ,
pas tọ
p ta
p a,
onye ndu
omume ,
oke osisi
oji egbe
oge ne
ode e
o j
o di
nyere la
nsụ gharị
nna ,
nkị rị
ni ,
ngwan gwa
neumo nia
ne buka
nebuka dne
ndị isi
na-ekwu ,
na-e gbochi
na-e chi
na-e chere
na-asụ gharị
na-akpọ ku
na-agụ si
na-a nwa
na-a kwalite
na-a kparịta
na-a banye
na nt
n chọ
mụ nwa
mkpe gharị
mgba go
mechara ,
me goro
me bi
mata kwa
malitere .
ma to
ma nye
ma d
m son
m )
lo s
lli on
li fe
lee !
latị n
kwuo kwa
kwa .
kuzi ere
kpọku kwazie
kpo r
kpa kp
kpakp ando
kemgbe .
kedụ "
ke wara
kap ito
ka chara
ka -
j ara
j ani
ijipt ,
igwe ,
i dozi
ha ziri
gọọmentị .
gwu pụtara
gba go
gba do
gb aru
ga-e zu
ga-e li
ga-a tọ
ga-a jụ
ga- anụ
fre y
ezi ghi
er ịrị
er iri
enyemaka .
ekwu pu
ekwe tala
ekpebi ela
ehi ,
ebu te
ebo la
ebe ,
e kwo
e kpu
e gbuo
do be
dio cese
de e,
ctu ring
c ard
bụrụ zie
be zbọ
babịlọ n
azụma ahịa
atọhapụ la
arụ .
ara la
ar ch
anwu chiela
amụ rụ
ahụ beghị
a tu
a gọ
We ah
Wa shington
V an
Tho mson
T hi
Su le
Regi na
Ra dio
Ra bi
Phi li
P neumonia
Odu me
Nsu k
Musta pha
Le ah
La ssa
King sley
Kanu :
K ar
Independe nt
I lo
H os
Gol den
Fa shola
F re
Em zor
Eli za
Election :
El- Rufai
Eji ofor
China .
Chi nwe
C C
Buhari .
Bo b
Ar thur
Al len
Adi nu
A ri
A mnesty
A kpa
9 0
2023 .
13 )
1 1)
." nke"
( gbara
( $
" bụ"
“ nke
“ i
ụtọ .”
ụgbọelu .
ụgbọala ,
ụ tarị
ọba ego
Ọ ka
Ọka fọ
ịtụ na
ịma chi
ịchọ ta
ịchị .
ị tọ
zị e
z ere
ya n
were kwa
uweojii ,
uru ?
uche .
u mu
to mato
tiusde ,
ti mi
ti co
ther land
te l
su s
stru cturing
sta nt
s )
rụ wa
riterela :
ran ce
pọtị fa
praị marị
p se
oriri .
or y
onyeisiala ,
olee kwa
obi .”
o ba
nọ ghị
nzuzo ,
nwụ chiela
nu k
nnupụ isi
nle gharị
nke wa
ni c
nebọ t
ndụ .”
ndịda -
naịjirịa "
na-ezi ghị
na-ele ba
na-ekwu karị
na-eche bara
na-e ku
na-e buru
na-asọ pụrụ
na-aga kwa
na-a la
na-a bọ
n nọ
mp ton
mme kpa
mkpọrọ ,
mi ,
mer uru
me pe
me ghị
me gharịa
me dia
mberede .
mahadu m,
ma go
m were
lu e
le bara
kwuru "
kwuo la
kwe nye
kwe kwazie
kraịst .”
kpọpụta sịrị
kpọku zie
ke nan
karị sịa
kali ki
k eri
isi on
ime- ime
il ding
ikwu sa
iko m
iji kọ
ibi bi
iberi ibe
i kweta
gọọmentị "
gh ani
gboo ?
gba kọtara
gba goro
ga-eme bi
ga-eme ,
ga-e nyocha
ga-e kpebi
ga-e che
ga-anọ chite
ga-anọ chi
ga-a wụ
ga- ala
ga- akara
ga nye
ga kwuru
fran s
ezi e.
eze nwaanyị
ewe pụta
eso ghị
eso ghi
eprel ,
enwe te
eme li
ekperi ma
ekeresime si
ebe e
e ne
dị la
di e
di bịa
cu rity
chị bụrụ
bịafra .
buru la
bu nye
bu .
bi o
ba ghị
atụ .
asị ,
anụmanụ .
anwụọ ,
ama litere
alụmdi na
akọwa ala
akarị .
ajụ la
ahụ ;
agwa ghị
agh ọọ
agba nweela
agb ari
ag ọrọla
adị ,
achọ pụtara
aba kaliki
a ṅ
a st
a lọta
a li
W HO
V ir
U loma
T er
South ,
S anusi
Ro timi
Ro ma
Re d
PDP .
Ope n
Onye bu
Odume gwu
O ga
O f
Nw oko
Nigeria "
Mu r
Moro cco
Mo gha
Mi lan
Jo shua
Inno cent
Idi go
I je
I de
High life
Hen ry
Har ry
God win
Foot ball
FA AN
F ani
El kana
E mer
Day :
Chi som
Chi nu
C AF
Bor der
Bi nta
B ol
Alha ji
Adam s
A ya
A sa
A ngo
5 :
4 7
4 4
3 9
2 :
10 )
." akụkọ"
." a"
- I
' "
“ okwu
“ nna
“ ma
ụwa .”
ụmụaka ,
ọgọst .
ọ n
ọ ha.
ịnwụ .
ị nara
zu ga
zo o
zi a
wu chiri
we pụrụ
unu .”
unu ,
ume ngwụ
u t
u nyi
u di
tụrụ la
tụ nye
tu nde
the d
thed ral
ter s
te ta
te :
t ter
t s
sa tion
s li
ruru ,
ri tuo
ri son
ri al
re s
re fere
ra te
pou nd
ozugbo ,
ozu bulu
owerri ,
ole .
ola nd
ojii ,
og iri
o ye
o ghe
o bu
nwụ ọla
nwụ chịrị
ntụliaka ,
nti al
nta bi
nne s
nna bata
nle y
nke sa
ngw ọrọ
ndụ ?
ndịda- ọwụwa
ndi di
nd er
nchekwa .
na-ekwu rịta
na-ekwu kwa
na-egwu pụta
na-e li
na-e dina
na-agba nwe
na-a wụ
na-a hapụ
na-a gwọ
n za
n te
n gwọ
n gwu
n er
mo la
mme tọ
meru be
meri chara
mere ?
mam ịrị
lị ka
ly ing
li ne
legọs ,
leagu e
la tion
la ss
kwụ nyere
kwu ,
kwe te
kwa so
ku nle
kpọ chiri
kpa suo
karị chaa,
kacha si
ka nda
ka ch
jizọs ?
ji ghị
ja a
izu u
izu .
izi zi
iwe ta
ime pụta
im on
ile ba
ike sa
ihe .”
ig .
i ze
i kwado
hụ kwara
hi chapụ
ha m,
ha ala
gụ pụtara
gbara la
gbala hụ
gba pụtara
gb anyụ
gafere ,
ga-ewe ta
ga-eme ?
ga-achị wa
ga-achị pụ
ga-a chụ
fị ọ
fa ce
enwe la
el ari
ekwu pụtala
eke wa
egbu ghị
efu .
eche tara
eche kwa
ebi ?
ebere ,
e x
e kwere
e bidoro
dị gasị
do we
dere .
ci e
chọ ro
cheta ara
che z
cha .
c ity
bụzị kwa
bi nye
be l
bara .
ban k
b lọ
aza ghị
awụ ọla
asọ pụrụ
ara ck
anụ ,
anwụọla .
ana ta
an .
alụ m
ahọ pụta
agha ghị
a wu
a wakporo
a maka
a gboro
________ ________
Y e
Uche ndu
U s
Tunisi a
T hai
Sy ri
Se curity
San chez
Sa dio
S imon
Preside ntial
Poli ce
P oly
P an
P VC
P P
Onye ama
Onwu emeodo
Ogbo nna
Ogbo do
O ma
O by
Ne therland
Ndi di
Nasara wa
N imo
Mar y
M ozi
M ma
La bour
L y
K y
K lint
Ju d
Josef ,
H ong
H oly
Ge a
G andu
Fri day
Face App
F lying
Ekweremadu :
E van
E ri
E be
E R
Cent re
Ca thedral
Bur nley
B ill
B au
B arack
B S
Ah mad
Afri c
Af ghani
Adinu ba
AI T
A wo
A gba
8 8
7 7
19 )
18 7
17 )
15 )
- Olu
- 5
“ abụ
ụmụnwaanyị ,
ụgwọ ,
ọnụ ego
ọchị ,
ịrụ si
ị nabata
zuru ike
za tion
z agha
ya. ,
ya :"
we litere
va ge
v ision
uweojii .
udu mmiri
tụ dịghị
tọzde ,
tọ gburu
tu ola
tu le
tu furu
tor s
te bụ
te bulu
tara ,
ta do
t re
t le
sụ ọ
sịrị ,
su rance
sse y
so cial
si ere
si .
rụ chaa
ran t
pụọ .
pụta kwara
pụta karịchara
pu tere
part ment
pa tị
oyi ,
ola s
okwu ?
ogologo .
ogi di,
o kwuru
nwụchi kọọ
nwunye ,
nwu te
nta net
nno chite
nne kwu
nne ,
nkwu pụta
nkuzi ,
nka si
ngo zi
ndị .
nche ,
na-ezu ghị
na-ewe pụta
na-eme kpa
na-edu hie
na-e bido
na-arụ .
na-anọ ghị
na-achị .
na-abụ karị
n ko
n k
n ch
mp ard
mo od
mmekọ ahụ
mkpa ta
mgbe .
ma ị
m ọtọ
m wulite
m wepụ
li s
le tico
la pse
la g
kọọ ,
kwụ wa
kwuru, "
kwuo ro
kwu siri
kwu nyere
kwu ghị
kwara ji
kwa gara
kwa ga
kpọku zịrị
kpọ wa
kpọ ta
kpa wa
kepu kepu
kampanọ s
ka gburu
ji si
ji chiri
jenesi s
jamanị .
isi obodo
ikpe bi
ike ?
ike .”
i nu
i ntanet
i ge
i buru
hu abu
h ara
gị .”
gwu o
guzo ro
ghị ,
gh e,
gbo ,
gbara .
gba buru
gba ba
gb ari
gar de
gaghị kwa
ga-abịa .
ga-a mụ
ga-a kụziri
ga-a bụkwa
ga- ebe
ga wara
ga ba
fre d
fe ty
f ia
etiti ,
esoro la
er ị
er re
eme cha
ekwuo na
ekwentị ,
ekwe siri
ekwe nyeghị
ekpe biri
eji chiela
edo zi
eche gbu
ebere .
dịka rị
de au
da ura
da .
chị wa
cheta "
che gharịa
ch ari
ca tion
bụ dị
bịara ,
bịafra ,
bịa ziri
bi biri
ber g
be th
be .
ba gidere
azọ pụtala
atụrụ ,
atọrọ la
atọ ọrọ
asọmpi .
ara ,
ar di
anụmanụ ,
anya sị
amị taghị
alụkwaghị m.
alụ ghị
akwụ ọla
akwado ghị
akpa ti
aka ri
abị ala
a ịza
a se
a pa
a lu
a kpọkuola
a di
Zidan e
Y a
Us man
U go
Ti jani
Tech no
T A
So cial
Secon du
Sa vage
S we
S tan
S elari
Ro mne
Pa ki
P or
Oscar s
Oko rie
O kwaraji
Na sir
Mor rison
Mar k
Mala y
Mah mood
M aria
M M
Londo n.
Le ban
La mpard
La garde
K an
Jere my
Indi gen
I ko
H ollywood
Gandu je
G ir
Fu nd
F ire
F ir
F R
England .
Ed ward
E mi
E id
Di ck
De partment
Dan daura
D r
Cy ber
Cor po
Cali for
C ourt
Benu e,
Bel gi
Bal l
Ba sh
B il
At letico
As se
Ami nu
Aja yi
Ade sanya
A ustin
A th
A kwu
A chi
4 3
20 )
1 -
(APC )
"" ,"
" (
“ mụ
ụtụtụ .
ụmụ ntakịrị
ụlọụka .
ụlọikpe ,
ụlọ ozu
ụbụrụ isi
ụb ọ
ụ sa
ụ bịa
ụbịa m
ọnụ nụ
ọhịa ,
ọdịnihu ?
ọ nyụ
ọ mị
ịsụ gharị
ịmata kwu
ịgba lị
ị gwọ
ị che
zị ,
zu kọrọ
z er
wu o
we tere
ur tado
ubi ,
tọ hapụrụ
to zuo
t te
sị kwara
sị ;
so o
so chiri
septe mba.
se pụ
saị t
satọde e.
sa .
s k
ro m.
ris ti
ries :
ra q
ra c
r d
puku ,
pro te
pa l
ozi e
onye .
okwukwe .
oke ala
ojii .
oji ego
obere ,
o ghere
nọrọ la
nọ gide
nọ chie
nz ere
nwụ nye
nwụ chị
nwu chie
nwere onwe
nke a,
ni ng
ngụ kọ
ngwa ọrụ
ng er
nebukadne za
ndu ru
na-ewe tara
na-eru ghị
na-enwe kwa
na-eme zi
na-eme kọ
na-ele ta
na-ekwu ?
na-eji de
na-egbu ke
na-e sote
na-e meri
na-e debe
na-agba kwa
na-a jọ
na-a gwụ
na-a dịrị
n' otu
n nọchi
n ment
n ike
n gọ
mou th
mmeri .
mmehie .
midi a,
mi se
metụtara .
mer ịrị
me pee
me fu
me chi
mbu gharị
mbi nye
mara .
ma buru
m ọkụ
m "
le we
la goro
l lo
l ari
kụ ọla
kọta la
kwu ziri
kwu rịta
kwu dịrị
ku ziri
kpamkpa m.
kpamkpa m
kpa chiri
katọ ọ
kach anụ
ka wa
ka ara
julaị .
isi si
iru bere
inọk .
inwe te
ime gide
iko ,
i nyo
i la
i jere
hụrụ .
huabu nwa
hov ah
h el
gụnyere ;
gịnị "
gu e
gu ,
gi di
ght s
gbala ga
gba doro
ga-enye kwa
ga-e zi
ga-e du
ga-a nabata
ga-a kpụpụ
ga-a kpụ
ga-a chọpụta
etu rula
er uwe
eme nwu
eme gbu
ele ghị
ekwu pụta
egwuregwu .
ebu liela
ebi nyela
ebi nye
ebi ghi
e ghe
e dere
dụ ọla
di um
da a.
ck le
ci ence
chụ sasịa
chukwu ,
c tri
bu gara
bi si
baịbụl .”
aị zik
ato rial
arụkwaghị m
arụ pụta
are th
ar t
anyanwụ ,
anabata la
ana ,
an ọọla
an ọrọ
an ti
alụmdina nwunye
ala igbo
akatọ la
akarị ala
aka si
aka gbuola
ahụhụ ?
ahọ pụtala
aha ,
agw ọọla
agba makwụkwọ
aga kwaghị
af a
adịgboro ja.
adị ?
abụ ;
aba tala
a b
You Tu
Vir gi
Va len
Twitter .
Thai land
Ta mmy
Ta i
T ar
T IP
Swe den
Si ckle
Sh ari
Sa fety
S ky
S co
S cience
Ri ta
Re de
Ra y
Queen s
Pro mise
Preside nt
Phili p
Patri ck
PDP ,
Organi sation
Onyebu chi
Onu mah
Oke ke,
Ode kpe
Oba ma,
O G
Nwa gbara
Nsuk ka
Nigeri a.
New s
Mogha lu
Madagas ka
Li ght
L ig
L af
K en
Ju lius
Jong- un
Indigen ous
I raq
Hou se
Hos pital
F r.
F in
Evan s
Equ atorial
Ekweremadu .
E ke
E F
E E
Chukwu di
Ch u
C al
Buhari "
Bu ilding
Bo ston
Bo ni
Bi ble
Benu e
Bash ir
Baba tunde
Ba ssey
Ango la
Ana o
Amara izu
Ama zon
Alexand ra
Akpa bio
Aja x
Afghani stan
Ade ye
Adama wa
Ada m.
AP TIP
A zu
A yo
A wa
A ston
A ki
8 5
8 0
3 5
201 3.
201 1
1 ;
- ọkaiwu
- uweojii
- gọọmentị
- bụ
- U
- Buhari
" a"
“ oge
“ gịnị
“ ezi
ụtọ ?
ụ kpụrụ
ọrụ ?
ọma ?
ọlị .
ọktoba ,
ọjọọ ?
ọgwụgwọ .
ọgba ta
ọgbata uhie
ọchụ chụ
ọb ọgwụ
ọ f
ọ d
ọ chan
ọchan ja
ịzụ ta
ịtụ nyere
ị s
ị pụta
ị ,
zu ola
zite ere
wụ ọ
we bụ
webụ saịt
we bata
w oro
ve nant
uru .”
u huru
tọrọ la
tu nyere
tta ck
to zu
tle he
tha ni
thani el
teri te
te nis
sọ lọ
sịga .
sị:" anyị"
st s
ss an
soro kwa
so .
siri a
si sta
ser ver
rụ tụ
rụ chara
rịta ụka
ru uru
risti ano
re dio
re :
po re
p ri
p lo
ozu zu
owu we
osika pa,
or ,
oli li
oj oro
of frey
obo si
o nu
o kike
o ka
nọ nyeere
nzuzo .
nye maka
nwe tụla
nwata ,
nwa le
nwa a
nuk lia
ntụ zi
nt on
nt o
nrọ .
nnewi ,
nkwụ cha
nke ,
ni ca
nhazi gharị
nga pore
na-eke sa
na-e te
na-e sonye
na-ara hụ
na-akpọ kwa
na-agụ rụ
na-agba ta
na-agba gwoju
na-agba ghara
na-abịa ,
na-a wa
na-a kparị
na" ọ"
na pụtara
n mi
mwere onwe
mu m
mpụ ,
mp any
mmemme .
mmemme ,
mmadụ .”
mma nya,
mgba wa
mgba gbu
mecha a,
me be
mbọ mbọ
mbo de
malitere ,
maara ?
ma pụtara
ma ni
lu b
latri k,
la a.
kụ pụrụ
kọwa kwara
kwesiri .
kwe e
kwa ba
kpọkuo kwa
kpọ pụrụ
kpu chi
kpe ere
ke .
katọlik ,
karị chaa
ka tara
je we
je kwu
izu te
iwe tara
itoolu .
in de
ime mila
il ling
ike le
ih ụ
igwe .
iche gbu
hụ ta
hụ kwa
ha nnes
h ong
gọọ la
gwo o
gra mme
gba sie
gba pee
gb arụrụ
gara la
gachara .
ga-e chekwa
ga- arị
ga a,
fu ola
fi eld
ezu ru
esere se
eri ng
er t
er ere
enyere la
emerụ ọla
eme ne
ekwe ghi
ekpere ?
eke sa
ehi .
egbe ,
echi .
echi ,
ebe .
e wo
e gbo
do m
di li
di c
de ji
da ara
d d
col lapse
chị m
che kwara
che kwaa
che ba
c ement
bụ cha
briten ,
blọ k
bish op
be la
aịza ya
atụ la
arụrụ ala
ar ma
ar .
apụta .
anabata ghị
ana cho
an ọchị
an s
an ca
amaw bịa,
amata li
ala bar
akọ wala
akịrịka .
akwado ghi
akwa ala
akpụ .
akpọ lite
akpa abụ
ahụ ta
agh ọọla
agba ghị
agba a
ada gbuola
ada .
ad er
achọ ta
a pị
a nwan
a kwanyere
a ;
Z u
Yo aku
Uni lag
U SS
USS D
Twitter ,
To ny
Stan ley
Si ngapore
Shari bu
Selari ọs
S ri
S eme
Prima ries:
Pa les
P y
P oland
P in
Okorocha :
Obi na
O zo
O we
O ri
O na
O ld
O kwu
O ka
O do
Nw abu
Na thaniel
NB C
N EMA
N C
N )
Muhamma d
Mu ell
Mon day
Mma ku
Mini mum
Mar ch
Madagas car
Ma ta
Ma ku
M ari
Lu ka
Lago s,
L am
Kw ara
Kano ,
Job ,
Jo hannes
Je hovah
Je ff
J er
In surance
Ihe anacho
I zu
I ya
Hu nt
Her ọd
Gu ardi
Gir ls
Gh ost
Ge offrey
Fo ru
Fa i
F urtado
F ina
F er
Eme ma
Eliza beth
EE DC
Cos chari
Corpo ration
Co venant
Co de
Chi ka
Chi eji
Champion ship
Ch eri
C ristiano
C ole
C ele
C alabar
C AN
Buhari :
Bi anca
Be nson
Augu stine
Augu st
Asse mb
Amu neke
Ali yu
Agu ata
A mbode
A kwa
A gwu
9 5
5 5
4 6
3 2
199 9
000 )
." e"
- Umu
- 6
- 2
- 19
( nke
( IPOB
' '
" o"
ụlọọgwụ ,
ụ sọ
ụ mị
ọọ pụ
ọzọ ."
ọtụtụ .
ọnụ ma
ọhanaeze ,
ọgọ dọ
ọgbakọ .
ọfụ ma,
ọbara .
ọ zara
ọ sụ
ọ kwụrụ
ịkpọ pụta
ịkpa ta
ị ị
ị tọrọ
ị tinye
ị mara
ị bu
z a.
z a,
ya. )
ya "."
wit zer
we zuga
we tuo
we ghara
wa ala
w ọ
vootu .
v il
uhie ,
ugbog uru.
u kpor
tụ tara
tụ gharịa
tị nkọ
tum tum
to ph
toph er
tinye kwa
ti s
ti ng
ti ne
ti es
ti ce
the w
tha mpton
tebụ l
ta li
t ary
su lt
sto ne
sti ng
sti a
so we
siri la
si c
septe mba,
sekọ ndị
sekọndị rị
se pu
se kpụ
satọde ,
sa l
rịọ kwara
ru bere
ris ky
re al
r ara
pụ ghị
po pe
p la
p hi
our ne
ourne mouth
otuto .
ote ela
okpu kpere
okpukpere chi
okpo koro
oji ri
ogbu gbu
ogbenye .
obi ọma.
nọ zị
nọ bu
nzukọ ,
nzagha chi,
nzagha chi
nye fere
nwe kwaghị
nw ịị
nti na
ntaakụkọ .
no w
nkịta .
njedebe .
ni u
ne ss
naghị kwa
na-eme nụ,
na-ele kwa
na-ekwe sighị
na-eji karị
na-e nwere
na-arụ si
na-apụ ghị
na-akwa nye
na-agba wa
na-agba so
na-agba pe
na-aga fe
na-adị kwu
na-a ja
na-a gha
na-a gara
na-a dụ
na-a bịara
na- arọ
n tụtụ
n se
n ozie
n kwụsị
n chara
mụ chara
mu su
mme gide
mi ted
mgba .
merenụ ,
mee la.
me hiere
mber g
mba ụwa.
mba ta
mba nụ!
mba !
m gbo
lọta ,
lọghachi te
lọ t
lu m
li stia
li sh
leba godị
la s
kwu nye
kwa ala
kris ma
kpụ pụrụ
kpọrọ ,
kpọ ọrọ
kpọ kwara
kpara .
kpa suru
ke sa
ke ela
ka wanye
ka sịrị
ka dị
jị kọrọ
ji kọta
ji gide
je ct
j ụwa
izuu ka.
iwu lite
isi ike
ime chi
iku chi
ibe lata
i za
i tu
i man
i malite
i kwụ
i fu
hụ ghị
ha zị
gụ chara
gọvanọ "
gọ ziri
guzo bere
go zie
go te
go oro
go o
gi ne
ghe e
gha pụla
gh asa
gba hapụ
gba daa
gba chiri
gba chie
gawa .
gasịrị ,
ga-eme tụta
ga-e zuru
ga-e hichapụ
ga-aka si
ga-a zụta
ga-a gwọ
ga-a bịaru
ga- akarị
g ers
fi te
fi listia
f er
ezu .
ewe ta
emebi ela
eme d
eme chara
ele ta
ekwu si
ekwentị .
ekele ,
eke ne
eke ,
efu ,
ebu tela
e e.
dịrị ghị
dị zi
du m.
do la
devid .
devid ,
de nyere
de gaara
da alụ
ck ing
cie ty
chụ dara
chọpụta kwara
chi ghị
chi gha
che we
che ghị
ca de
c lo
bụna dị
briten .
bish ọọpụ
bido ziri
bido kwara
bi tere
bata .
ba s
b si
awakpo la
atụ ghị
asị sa
arị ala
aru o
ara .
anyị -
anyanwụ .
anya ụfụ
anwụchi kọọla
ana ra
ana pụla
an t
amụ tara
ama egwuregwu
al ert
akụkọ ,
akịrịka ,
aka sị
ahọ pụtara
agụ ma
agụ ,
agwa etiti
af ana
ad res
abụ ba
aba lịa
aba ,
a chi
a chara
York .
Yoaku m
Wal ter
W o
V in
V AR
UN I
Tru deau
Tra ffi
Sou thampton
So ciety
Sam bi
S qu
S on
S ime
S and
Ro gers
Rev .
Rede emed
Rabi u
R al
Pro gramme
Plateau :
Pa pa
P en
P F
Oye de
Ojo to
Ogbo nnaya
O wer
O para
O kpa
O ji
O huabunwa
O ffi
Ni c
Netherland s
Ndubu aku
N ze
N ne
N j
N ike
N an
N APTIP
Muha mmed
Mozi s
Mo tors
Mo st
Mat thew
Man e
M aga
Luka ku
Li mited
La dy
L E
Kon go
Kanu .
Ka chi
INEC ,
I sa
Ha di
G ree
G areth
G ala
Flo ri
Fai th
F ou
F iji
En gine
Emema nka
Ele ctri
Ebre ham,
Ea ster
E r
E kpe
Dan ju
D u
Christi ne
Chris topher
Chi ld
Cele stine
C our
Bu l
Bru ce
Bro ad
Boni face
Bob risky
Black "
Bau chi
B ournemouth
B ide
B alo
B aka
B afana
Aya melu
Assemb ly
Ar ge
Ada m,
A ta
A nne
A m
A k
A do
A cade
A DC
9 7
8 4
3 1
28 ,
25 ,
2014 ,
201 3,
201 0.
201 0
200 ,
2 7,
197 0
1914 .
16 ,
16 )
1 000
(IPOB )
( APGA
” ,
“ ụwa
“ ụmụ
“ ya
“ nwa
ụta zị
ụmụ anụmanụ
ụlọakụ ,
ụ nwụ
ụ kp
ụ dara
ọsọ ndụ
ọnwụ ?
ọma .”
ọla ọcha
ọkụkọ ,
ọdịnihu ,
ọdịda -anyanwụ
ọdị ghị
ọdachi .
ọ ha,
ịzọ pụta
ịtụna nya
ịtụ bata
ịrụ zi
ịma .
ịgba kụta
ịchụ pụ
ịchị kọta
ịchị kọba
ịchafụ .
ị sọ
ị pịa
ị let
ị kwọ
ị kwu
ị iza
ị họrọ
ị bọ
zọ ma
za ghị
yurop .
ya.” )
ya ”
ya mo
y ou
wu ji
witzer land
wa pụta
w ill
w anyere
visa ""
vi so
viso ry
vi a
va ị
va tion
v ing
u tical
u se
u gba
tụ ghị
tu tu
tta h
to ck
tia tive
ti u
te ch
ta l
ta kwara
sụ gharị
su per
su n
su ji
so r
si ve
si kwara
shu ga
setan .
se e
s per
s la
s chool
ru beghị
rish .
re wa
pị m
pu la
pou los
pa ịlet
p per
oyi .
osisi .
onyeisi "
onye kwuo
onyekwuo uche
onye ,
omi mi
ojiego achụ
odi bo
o gbaru
o cese
nọchị te
nọ zi
nọ kwara
nọ goro
nọ .”
nzu te
nwụchi kọ
nwo gharị
nwo -Olu
nwe chaghị
nw erịrị
nu s
nu gwu
nta ,
nrụrụ aka.
nrụrịta ụka
nkịta ,
nkwa lite
nkw arụ
nkuzi .
nke y
nka tọ
nje m,
ni tiative
nghọta .
ngagharịiwe .
ndọ rịtaụka
nda ba
naira .
na-eto lite
na-eto ,
na-eme nyụ
na-ekwu pụta
na-eche tara
na-ebu gharị
na-ebi .
na-e zute
na-e su
na-e nupụrụ
na-ata ,
na-ama nye
na-alụ .
na-akpụ dobe
na-agba ,
na-agaghị zi
na-achị ,
na-a nọchi
na-a fụ
na te
na hị
n' uche
n gi
mụ wara
mị ta
mu s
mpụ .
mp a
mmehie ,
mmanụ .
mma nye
mma -
mkpu ghe
mgba chi
mgba ,
mezuo .
merie .
me tu
me tere
me mi
me ch
mbụ ?
mbi bi
ma kụ
lo be
lite la
leba a
le banye
lawa .
latrik .
l eruo
l eru
l er
kọwa pụtara
kọ bara
kwuwe ,
kwusa wa
kwu putere
kwesịrị .
kwa tara
kris ti
kpọku zịkwara
kpọ ghị
kpọ chie
kpoko bara
kpa m.
kewa pụ
ke tara
katọlik .
k ing
jụ kwara
ji siri
ji kere
ji bu
jerusele m.
ire ctor
imezu pụta
ime ?
ihe ?
iche- iche,
ibi nye
i ṅomi
i zo
i ki
i hazi
hụ ru
ha nwa
h er
gị ga
gwa ghị
guzo sie
gu gu
ghọ gburu
ge ge
gba pe
gba narị
gba fuo
gba buuru
ga-eme zi
ga-ebi nye
ga-e yi
ga-e nwerịrị
ga-anọ gide
ga-anwụ .
ga-aka cha
ga-a pụ
ga-a banye
ga- arịọ
ga- anọchị
fu ghị
fere la
f oro
ewu .
eti nyere
esonye la
esi ji
es cu
ere nd
ere la
enye m
enweta ghị
enweghị zị
enweghị zi
en cy
el ịiza
ekwupu tala
ekwu sa
ekp ili
eju la
ejije .
eji dere
eje ghi
ego "
ebi li
e z
e meriri
e liri
e kw
dọ kwara
dịghị kwa
dị "
da kwasịrị
d ra
d ge
ci ous
chị kọta
che pụtara
cha ị,
ce utical
ca sting
c op
bụrụ "
bịa kwute
bu bu
bidoro .
bido kwa
be ,
ba by
aị rish.
azọ pụta
arma ceutical
ar s
ar ou
ar iri
anwụrụ la
anwụ ?
anaghị zị
ana rala
amụ tala
alụkwaghị m,
ala .”
al la
akụnụ ba.
akpụ ,
aka ọrụ
aka :
agụ .
aghụghọ .
aghọta chaghị
agh arị
agba pe
aga wa
aga da
adịghị ,
adị chaghị
ada l
ada a
achị taghị
abụọ )
a lọ
a gọọla
Z uba
YouTu be
W i
Vin cent
Vi sa
Valen cia
V ene
Uche nna
U zọma
U zor
To wn
Timo thy
T ri
T oro
T ele
Syri a.
Sule iman
Shiite s
Ser ge
Secondu s
Sa nwo-Olu
Sa di
S witzerland
S pe
S il
Romne y
Revolution Now
Rev erend
Re structuring
R ome
Progressi ves
Pre ss
Pre cious
Por tu
Ph armaceutical
Pe p
Papa do
Pales tine
Oyede po
Osho di
Osho ala
Organi zation
Opara nozie
Ono ja
Ona ga
Okoye ,
Okorocha ,
Ogu nye
Ogbu ata
Obi di
O y
O te
O ra
O lo
O kpoko
Nwosu ,
Nwachukwu ,
Nw eke
No Bra
Nna ji
Niger ,
National "
N el
N adal
Mohammed ,
Mexico .
Mar ket
Malay sia
Mah re
Ma uri
Ma c
M bo
M T
Lib eria
Li ve
Li on
Laf ia
L in
Ky ari
Kon du
Ke yamo
Johannes burg
Je sus
J im
Iv ory
Italy .
In sti
Imo hi
I w
I chi
Hau sa
Hara m,
Gover nment
Fre edo
For ce
Fa ther
FR SC
FF K
F ree
F r
F arou
F ala
Euro pa
Eng lish
Emer gency
E vo
E u
E )
Dru nk
Do gara
Dick son
Di ocese
Danju ma
D ou
D irector
D ar
D ana
D R
Cour to
Coschari s
Cos by
Co mpany
City .
Chine du
C ul
C lub
C ell
C S
C ON
Bul g
Buhari ?
Broad casting
Belgi um
Ball on
Ath le
Andre escu
Ala de
Akwu ke
Afric a.
Adeye ye
Ade mola
Ade bo
Ada zi
Achu zia
Abubakar ,
Abaribe ,
Aba te
Aba gana
Ab del
Ab ba
A maka
A kwete
A cc
A aron
A K
A BS
A AC
; ;
8 00
7 0
50 ,
4 :
30 )
3 8
3 6
3 00
2019 ?
200 9.
200 9
2 9)
19 ,
18 0
10 .
1 2,
1 2)
." onye"
." dịka"
." cheta"
-O suji
-O b
-3 5
- onyeisi
- APC
( ya
( ma
( bụ
( U
( PDP
( P
' ;
" ma"
" kwuru"
! !
” ?
“ si
“ ebe
