{
  "version": "1.0",
  "truncation": null,
  "padding": null,
  "added_tokens": [
    {
      "id": 0,
      "content": "<unk>",
      "single_word": false,
      "lstrip": false,
      "rstrip": false,
      "normalized": false,
      "special": true
    },
    {
      "id": 1,
      "content": "<s>",
      "single_word": false,
      "lstrip": false,
      "rstrip": false,
      "normalized": false,
      "special": true
    },
    {
      "id": 2,
      "content": "</s>",
      "single_word": false,
      "lstrip": false,
      "rstrip": false,
      "normalized": false,
      "special": true
    },
    {
      "id": 3,
      "content": "<pad>",
      "single_word": false,
      "lstrip": false,
      "rstrip": false,
      "normalized": false,
      "special": true
    },
    {
      "id": 4,
      "content": "<mask morph>",
      "single_word": false,
      "lstrip": false,
      "rstrip": false,
      "normalized": false,
      "special": true
    }
  ],
  "normalizer": {
    "type": "NFC"
  },
  "pre_tokenizer": {
    "type": "Whitespace"
  },
  "post_processor": null,
  "decoder": {
    "type": "BPEDecoder"
  },
  "model": {
    "type": "BPE",
    "dropout": null,
    "unk_token": "<unk>",
    "continuing_subword_prefix": null,
    "end_of_word_suffix": null,
    "fuse_unk": false,
    "vocab": {
      "<unk>": 0,
      "<s>": 1,
      "</s>": 2,
      "<pad>": 3,
      "<mask morph>": 4,
      " ": 5,
      "!": 6,
      "\"": 7,
      "#": 8,
      "$": 9,
      "%": 10,
      "&": 11,
      "'": 12,
      "(": 13,
      ")": 14,
      "*": 15,
      ",": 16,
      "-": 17,
      ".": 18,
      "/": 19,
      "0": 20,
      "1": 21,
      "2": 22,
      "3": 23,
      "4": 24,
      "5": 25,
      "6": 26,
      "7": 27,
      "8": 28,
      "9": 29,
      ":": 30,
      ";": 31,
      "<": 32,
      "=": 33,
      ">": 34,
      "?": 35,
      "@": 36,
      "A": 37,
      "B": 38,
      "C": 39,
      "CH": 40,
      "Ch": 41,
      "D": 42,
      "E": 43,
      "F": 44,
      "G": 45,
      "GB": 46,
      "Gb": 47,
      "Gh": 48,
      "Gw": 49,
      "H": 50,
      "I": 51,
      "J": 52,
      "K": 53,
      "KP": 54,
      "Kp": 55,
      "Kw": 56,
      "L": 57,
      "M": 58,
      "N": 59,
      "NW": 60,
      "NY": 61,
      "Nw": 62,
      "Ny": 63,
      "O": 64,
      "P": 65,
      "Q": 66,
      "R": 67,
      "S": 68,
      "SH": 69,
      "Sh": 70,
      "T": 71,
      "U": 72,
      "V": 73,
      "W": 74,
      "X": 75,
      "Y": 76,
      "Z": 77,
      "[": 78,
      "]": 79,
      "^": 80,
      "_": 81,
      "`": 82,
      "a": 83,
      "b": 84,
      "c": 85,
      "ch": 86,
      "d": 87,
      "e": 88,
      "f": 89,
      "g": 90,
      "gb": 91,
      "gh": 92,
      "gw": 93,
      "h": 94,
      "i": 95,
      "j": 96,
      "k": 97,
      "kp": 98,
      "kw": 99,
      "l": 100,
      "m": 101,
      "n": 102,
      "nw": 103,
      "ny": 104,
      "o": 105,
      "p": 106,
      "q": 107,
      "r": 108,
      "s": 109,
      "sh": 110,
      "t": 111,
      "u": 112,
      "v": 113,
      "w": 114,
      "x": 115,
      "y": 116,
      "z": 117,
      "{": 118,
      "|": 119,
      "}": 120,
      "£": 121,
      "®": 122,
      "·": 123,
      "É": 124,
      "Ö": 125,
      "×": 126,
      "à": 127,
      "á": 128,
      "ã": 129,
      "ä": 130,
      "å": 131,
      "æ": 132,
      "ç": 133,
      "è": 134,
      "é": 135,
      "ì": 136,
      "í": 137,
      "ï": 138,
      "ñ": 139,
      "ó": 140,
      "ô": 141,
      "ö": 142,
      "ø": 143,
      "ù": 144,
      "ú": 145,
      "ü": 146,
      "ć": 147,
      "č": 148,
      "ğ": 149,
      "ń": 150,
      "ş": 151,
      "š": 152,
      "ż": 153,
      "ž": 154,
      "̀": 155,
      "́": 156,
      "ׁ": 157,
      "ה": 158,
      "נ": 159,
      "פ": 160,
      "ש": 161,
      "ṅ": 162,
      "ạ": 163,
      "ẹ": 164,
      "Ị": 165,
      "ị": 166,
      "Ọ": 167,
      "ọ": 168,
      "Ụ": 169,
      "ụ": 170,
      "–": 171,
      "—": 172,
      "‘": 173,
      "’": 174,
      "“": 175,
      "”": 176,
      "•": 177,
      "₦": 178,
      "€": 179,
      "■": 180,
      "●": 181,
      "": 182,
      "na": 183,
      "dị": 184,
      "ka": 185,
      "ma": 186,
      " .": 187,
      "n'": 188,
      "bụ": 189,
      "er": 190,
      " ,": 191,
      "ar": 192,
      "ndị": 193,
      "ke": 194,
      "ha": 195,
      "na-": 196,
      "ere": 197,
      "ara": 198,
      "ya": 199,
      "me": 200,
      "ih": 201,
      "la": 202,
      "ga": 203,
      "si": 204,
      "nye": 205,
      "ji": 206,
      "hụ": 207,
      "ta": 208,
      "ihe": 209,
      "kwu": 210,
      "rụ": 211,
      "ri": 212,
      "any": 213,
      "ahụ": 214,
      "ru": 215,
      "nke": 216,
      "rị": 217,
      "tu": 218,
      "ba": 219,
      "kwa": 220,
      "onye": 221,
      "na-a": 222,
      "na-e": 223,
      "ghị": 224,
      "tụ": 225,
      "dụ": 226,
      "ti": 227,
      "ga-": 228,
      "te": 229,
      "gba": 230,
      "otu": 231,
      "le": 232,
      "be": 233,
      "bi": 234,
      "zi": 235,
      "anyị": 236,
      "sị": 237,
      "mma": 238,
      "pụ": 239,
      "kọ": 240,
      "mụ": 241,
      "an": 242,
      "chi": 243,
      "chị": 244,
      " \"": 245,
      "che": 246,
      "nwe": 247,
      "zọ": 248,
      "aka": 249,
      "lọ": 250,
      "rọ": 251,
      "kụ": 252,
      "do": 253,
      "ụlọ": 254,
      "we": 255,
      "ne": 256,
      "kwụ": 257,
      "ala": 258,
      "nwa": 259,
      "go": 260,
      "fọ": 261,
      "gbu": 262,
      "isi": 263,
      "ra": 264,
      "mmadụ": 265,
      "li": 266,
      "gbe": 267,
      "ebe": 268,
      "ike": 269,
      "ọrọ": 270,
      "iri": 271,
      "kwuru": 272,
      "wa": 273,
      "de": 274,
      "cha": 275,
      "ro": 276,
      "maka": 277,
      "bu": 278,
      "mgbe": 279,
      "tọ": 280,
      "ga-e": 281,
      "mere": 282,
      "so": 283,
      "tara": 284,
      "ni": 285,
      "gbo": 286,
      "ụmụ": 287,
      "rịa": 288,
      "ọọ": 289,
      "gwu": 290,
      "ịa": 291,
      "ọrụ": 292,
      "eti": 293,
      "nwere": 294,
      "ga-a": 295,
      " :": 296,
      "nụ": 297,
      "sa": 298,
      "ge": 299,
      "ọchị": 300,
      "anya": 301,
      "afọ": 302,
      "mba": 303,
      "bo": 304,
      "ime": 305,
      "okwu": 306,
      "nwụ": 307,
      "abụ": 308,
      "kwe": 309,
      "akụ": 310,
      "ọzọ": 311,
      "gị": 312,
      "akwụ": 313,
      "lu": 314,
      "ịji": 315,
      "naịji": 316,
      "naịjirịa": 317,
      "nọ": 318,
      "  \"": 319,
      "obi": 320,
      "kwọ": 321,
      "se": 322,
      "kpe": 323,
      "zu": 324,
      "di": 325,
      "ezi": 326,
      "ste": 327,
      "neke": 328,
      "steeti": 329,
      "chineke": 330,
      "iche": 331,
      "akwụkwọ": 332,
      "  \" ": 333,
      "kpa": 334,
      "nyere": 335,
      "da": 336,
      " ?": 337,
      "ile": 338,
      "nt": 339,
      "nu": 340,
      "dịka": 341,
      "pụta": 342,
      "oke": 343,
      "re": 344,
      "niile": 345,
      "oge": 346,
      "je": 347,
      "gụ": 348,
      "agh": 349,
      "tụtụ": 350,
      " )": 351,
      "wu": 352,
      "ku": 353,
      "ya .": 354,
      "abụọ": 355,
      "akụkọ": 356,
      "ịbụ": 357,
      "na-eme": 358,
      "arị": 359,
      "eri": 360,
      "mp": 361,
      "ko": 362,
      "a .": 363,
      "ama": 364,
      "onyeisi": 365,
      "anọ": 366,
      "igbo": 367,
      "ọtụtụ": 368,
      "“ ": 369,
      "on": 370,
      " ”": 371,
      "bụrụ": 372,
      "sọ": 373,
      "kpọ": 374,
      "bịa": 375,
      "nwaanyị": 376,
      "kwara": 377,
      "bodo": 378,
      "pu": 379,
      "ịbụl": 380,
      "baịbụl": 381,
      "mi": 382,
      "ọnụ": 383,
      "bụla": 384,
      "mme": 385,
      "du": 386,
      "obodo": 387,
      "ana": 388,
      "egwu": 389,
      "20": 390,
      "gbọ": 391,
      "iji": 392,
      "chọ": 393,
      "fe": 394,
      "ụwa": 395,
      "hi": 396,
      "aga": 397,
      "gwa": 398,
      "pụtara": 399,
      "iwu": 400,
      "siri": 401,
      "ikpe": 402,
      "to": 403,
      "ụb": 404,
      "ze": 405,
      "ego": 406,
      "eme": 407,
      "mb": 408,
      "az": 409,
      "uru": 410,
      "gọ": 411,
      "ụbọchị": 412,
      "ntị": 413,
      "agba": 414,
      "onwe": 415,
      "tere": 416,
      "a ,": 417,
      "ho": 418,
      "ụrụ": 419,
      "st": 420,
      "ari": 421,
      "ihi": 422,
      "ndụ": 423,
      "ahụ .": 424,
      "ozi": 425,
      "oji": 426,
      "uwe": 427,
      "mana": 428,
      "sịrị": 429,
      "gara": 430,
      "ọchịchị": 431,
      "aha": 432,
      "lụ": 433,
      "atọ": 434,
      "ah": 435,
      "ụzọ": 436,
      "ukwu": 437,
      "gọọ": 438,
      "mm": 439,
      "gọọme": 440,
      "Bu": 441,
      "hụrụ": 442,
      "kpọrọ": 443,
      "elu": 444,
      "fọdụ": 445,
      "kwuo": 446,
      "ojii": 447,
      "ọka": 448,
      "ya ,": 449,
      "nwoke": 450,
      "jụ": 451,
      "ụfọdụ": 452,
      "ha .": 453,
      "kpo": 454,
      "nd": 455,
      "201": 456,
      "ụgbọ": 457,
      "sụ": 458,
      "ọma": 459,
      "sara": 460,
      "ahụ ,": 461,
      "nso": 462,
      "eze": 463,
      "agha": 464,
      "ome": 465,
      "mee": 466,
      "were": 467,
      "mer": 468,
      "gbara": 469,
      " . ”": 470,
      "or": 471,
      "nweghị": 472,
      "asa": 473,
      "chara": 474,
      "hov": 475,
      "ihu": 476,
      "hari": 477,
      "jehov": 478,
      "Buhari": 479,
      "ga-eme": 480,
      "mara": 481,
      "gharị": 482,
      "ọbụla": 483,
      "gi": 484,
      "ugbu": 485,
      "ọkụ": 486,
      "( ": 487,
      "nakwa": 488,
      "olu": 489,
      "gwụ": 490,
      "nna": 491,
      "nyo": 492,
      "ụka": 493,
      "gbasara": 494,
      "gwara": 495,
      "lite": 496,
      "uweojii": 497,
      "el": 498,
      "ma ,": 499,
      "onyeisiala": 500,
      "chọrọ": 501,
      "ole": 502,
      "ọnwa": 503,
      "ela": 504,
      "nwu": 505,
      "wee": 506,
      "na-ekwu": 507,
      "nga": 508,
      "mkpa": 509,
      "jehova": 510,
      "zọs": 511,
      "aba": 512,
      "jizọs": 513,
      "nta": 514,
      "jiri": 515,
      "pa": 516,
      "arụ": 517,
      "atụ": 518,
      "gwe": 519,
      "mbụ": 520,
      "mmiri": 521,
      "gọọmentị": 522,
      "ntụ": 523,
      "anụ": 524,
      "gburu": 525,
      "na-agba": 526,
      "vanọ": 527,
      "mpi": 528,
      "gọvanọ": 529,
      "pụrụ": 530,
      "kpụ": 531,
      "mo": 532,
      "jọ": 533,
      "dọ": 534,
      "site": 535,
      "ekwe": 536,
      "ja": 537,
      "nne": 538,
      " ;": 539,
      "iwe": 540,
      "anwụ": 541,
      "ga-ama": 542,
      "al": 543,
      "nị": 544,
      "pe": 545,
      "dere": 546,
      "lị": 547,
      "Jo": 548,
      "mgba": 549,
      "gu": 550,
      "in": 551,
      "ju": 552,
      "ahịa": 553,
      "gwọ": 554,
      "adị": 555,
      "ise": 556,
      "bido": 557,
      "kwado": 558,
      "kị": 559,
      "ndọrọ": 560,
      "oko": 561,
      "eziokwu": 562,
      "BB": 563,
      "asọ": 564,
      "nyi": 565,
      "anyere": 566,
      "mu": 567,
      "ntụli": 568,
      "karị": 569,
      "ghọ": 570,
      "tupu": 571,
      "th": 572,
      "ọnwụ": 573,
      "azụ": 574,
      "igwe": 575,
      "mkp": 576,
      "na-ahụ": 577,
      "ce": 578,
      "BBC": 579,
      "zị": 580,
      "ọla": 581,
      "zụ": 582,
      "mbra": 583,
      "nri": 584,
      "anambra": 585,
      "aghara": 586,
      "bere": 587,
      "ọgwụ": 588,
      "ebu": 589,
      "ntụliaka": 590,
      "asọmpi": 591,
      "okp": 592,
      "bara": 593,
      "ọgba": 594,
      "azị": 595,
      "nsogbu": 596,
      "ruo": 597,
      "ọkwa": 598,
      "fu": 599,
      "eji": 600,
      "bọọ": 601,
      "ọj": 602,
      "ghara": 603,
      "nche": 604,
      "etu": 605,
      "gha": 606,
      "bị": 607,
      "enu": 608,
      "nwunye": 609,
      "bọọlụ": 610,
      "regwu": 611,
      "egwuregwu": 612,
      "kiri": 613,
      "rịka": 614,
      "taa": 615,
      " .  \" ": 616,
      "lo": 617,
      "mmụ": 618,
      "na-aga": 619,
      "chụ": 620,
      "chie": 621,
      "ola": 622,
      "ig": 623,
      "yi": 624,
      "ọhụrụ": 625,
      "unu": 626,
      "maazị": 627,
      "ebi": 628,
      "ga-amasị": 629,
      "kacha": 630,
      "anị": 631,
      "nwee": 632,
      "naanị": 633,
      "af": 634,
      "etiti": 635,
      "zie": 636,
      "wara": 637,
      "nweta": 638,
      "ibe": 639,
      "ou": 640,
      "enugwu": 641,
      "nya": 642,
      "amer": 643,
      "ezigbo": 644,
      "banyere": 645,
      "akwa": 646,
      "Ma": 647,
      "AP": 648,
      "lee": 649,
      "chukwu": 650,
      "sị :": 651,
      "ọbụ": 652,
      "ziri": 653,
      "ọjọọ": 654,
      "su": 655,
      "ụlọọrụ": 656,
      "ụmụnwaanyị": 657,
      "eru": 658,
      "kwụsị": 659,
      "ụtọ": 660,
      "agaghị": 661,
      "agụ": 662,
      "nti": 663,
      "raị": 664,
      "Mu": 665,
      "ịka": 666,
      "buru": 667,
      "wakpo": 668,
      "ghi": 669,
      "nde": 670,
      "ụlọikpe": 671,
      "abalị": 672,
      "sta": 673,
      "gosi": 674,
      "narị": 675,
      "enye": 676,
      "ada": 677,
      "en": 678,
      "kwesịrị": 679,
      "ịgba": 680,
      "kemgbe": 681,
      "2019": 682,
      "anaghị": 683,
      "kpere": 684,
      "ol": 685,
      "goolu": 686,
      "Chi": 687,
      "chiri": 688,
      "gịnị": 689,
      "tinye": 690,
      "ngwa": 691,
      "Nig": 692,
      "amerịka": 693,
      "nọdụ": 694,
      "gaa": 695,
      "ha ,": 696,
      "ekwuo": 697,
      "ajụ": 698,
      "zo": 699,
      "00": 700,
      "mbọ": 701,
      "ụgwọ": 702,
      "il": 703,
      "nwụrụ": 704,
      "nal": 705,
      "nkeji": 706,
      "afrịka": 707,
      "za": 708,
      "ọrịa": 709,
      "kere": 710,
      "ruru": 711,
      "ọnọdụ": 712,
      "ga-esi": 713,
      "cheta": 714,
      "laba": 715,
      "kọta": 716,
      "tion": 717,
      "ekwuola": 718,
      "gosiri": 719,
      "meri": 720,
      "bịara": 721,
      "Ro": 722,
      "ụdị": 723,
      "bata": 724,
      "nyocha": 725,
      "ṅụ": 726,
      "mpaghara": 727,
      "nchekwa": 728,
      "litere": 729,
      "vi": 730,
      "ụgbọelu": 731,
      "beghị": 732,
      "ng": 733,
      "nụlọ": 734,
      "ezinụlọ": 735,
      "ọdị": 736,
      "gị :": 737,
      "Nigeri": 738,
      "na-akpọ": 739,
      "APC": 740,
      "nje": 741,
      "ngalaba": 742,
      "kọrọ": 743,
      "soro": 744,
      "asụ": 745,
      "osi": 746,
      "ugwu": 747,
      "puku": 748,
      "gọọmenti": 749,
      "it": 750,
      "izu": 751,
      "kee": 752,
      "omeiwu": 753,
      "okpuru": 754,
      "isii": 755,
      "gboro": 756,
      "no": 757,
      "bụkwa": 758,
      "ehi": 759,
      "19": 760,
      "imo": 761,
      "iko": 762,
      "na-achị": 763,
      "enweghị": 764,
      "bụghị": 765,
      "ekpere": 766,
      "amụ": 767,
      "nkiri": 768,
      "biri": 769,
      "na-eche": 770,
      "oh": 771,
      "m ,": 772,
      "ki": 773,
      "m .": 774,
      "kọwa": 775,
      "Man": 776,
      "nku": 777,
      "uche": 778,
      "ọsọ": 779,
      "nzu": 780,
      "ụgbọala": 781,
      "kwere": 782,
      "ajụjụ": 783,
      "ozu": 784,
      "ọgụ": 785,
      "ver": 786,
      "dịrị": 787,
      "ịma": 788,
      "abụghị": 789,
      "raịst": 790,
      "ter": 791,
      "nyeghị": 792,
      "ga-eji": 793,
      "Su": 794,
      "asụsụ": 795,
      "kraịst": 796,
      "ele": 797,
      "echi": 798,
      "enwe": 799,
      "mmụọ": 800,
      "Re": 801,
      "mume": 802,
      "na-arụ": 803,
      "na-achọ": 804,
      "atụma": 805,
      "abịa": 806,
      "nnu": 807,
      "atụmatụ": 808,
      "- ": 809,
      "nsọ": 810,
      "olee": 811,
      "asaa": 812,
      "Li": 813,
      "oro": 814,
      "mmemme": 815,
      "agwa": 816,
      "maọbụ": 817,
      "na-enye": 818,
      "gbuo": 819,
      "Jose": 820,
      "na-adị": 821,
      "ụkwụ": 822,
      "obere": 823,
      "ano": 824,
      "ngagharị": 825,
      "kpara": 826,
      "am": 827,
      "nkwa": 828,
      "gide": 829,
      "ọzọ .": 830,
      "achọ": 831,
      "karịrị": 832,
      "tụrụ": 833,
      "tọrọ": 834,
      "adịghị": 835,
      "Da": 836,
      "Mo": 837,
      "mkpụrụ": 838,
      "ụmụaka": 839,
      "anya .": 840,
      "akpa": 841,
      "eke": 842,
      "les": 843,
      "kwukwara": 844,
      "kọwara": 845,
      "hapụ": 846,
      "ran": 847,
      "enyi": 848,
      "egbe": 849,
      "ọgbakọ": 850,
      "nala": 851,
      "asatọ": 852,
      "bekee": 853,
      "Boko": 854,
      "of": 855,
      "rịta": 856,
      "nwata": 857,
      "àm": 858,
      "Hara": 859,
      "manụ": 860,
      "ugbua": 861,
      "àmà": 862,
      "per": 863,
      "Nigeria": 864,
      "Co": 865,
      "hịa": 866,
      "tinyere": 867,
      "ugboro": 868,
      "La": 869,
      "DP": 870,
      "chere": 871,
      "ve": 872,
      "ofe": 873,
      "ebubo": 874,
      "anụmanụ": 875,
      "ụkọ": 876,
      "okpo": 877,
      "njem": 878,
      "họ": 879,
      "nai": 880,
      "ori": 881,
      "malitere": 882,
      "ito": 883,
      "fụ": 884,
      "nka": 885,
      "na-akpa": 886,
      "kịta": 887,
      "kike": 888,
      "Na": 889,
      "bidoro": 890,
      "po": 891,
      "ogi": 892,
      "ghọta": 893,
      "nkuzi": 894,
      "mụrụ": 895,
      "Uni": 896,
      "nnukwu": 897,
      "ezu": 898,
      "ga-abụ": 899,
      "ntaakụkọ": 900,
      "Haram": 901,
      "PDP": 902,
      "udo": 903,
      "mechara": 904,
      "na-atụ": 905,
      "hie": 906,
      "kama": 907,
      "karịa": 908,
      "agbanyeghị": 909,
      "ca": 910,
      "naira": 911,
      "ye": 912,
      "aka .": 913,
      "ọkpụ": 914,
      "dara": 915,
      "Josef": 916,
      "ibu": 917,
      "mkpe": 918,
      "Le": 919,
      "ọcha": 920,
      "zuru": 921,
      "anyanwụ": 922,
      "ohere": 923,
      "pati": 924,
      "dum": 925,
      "chọpụta": 926,
      "gọs": 927,
      "Pe": 928,
      "naịjirịa .": 929,
      "ikike": 930,
      "ịhụ": 931,
      "legọs": 932,
      "okporo": 933,
      "gụnyere": 934,
      "egbu": 935,
      "tị": 936,
      "au": 937,
      "ogo": 938,
      "kwuru ,": 939,
      "kanu": 940,
      "ndịàmà": 941,
      "ndọrọndọrọ": 942,
      "Muha": 943,
      " !": 944,
      "mdi": 945,
      "abu": 946,
      "itoolu": 947,
      "Al": 948,
      "us": 949,
      "OB": 950,
      "mmanụ": 951,
      "ahụhụ": 952,
      "IP": 953,
      "Muhamma": 954,
      "EC": 955,
      "ekwu": 956,
      "chọọ": 957,
      "malite": 958,
      "okoro": 959,
      "na-akụ": 960,
      "ike .": 961,
      "chaa": 962,
      "kachasị": 963,
      "wo": 964,
      "na-ele": 965,
      "oche": 966,
      "ụkọchukwu": 967,
      "nọrọ": 968,
      "ide": 969,
      "steeti .": 970,
      "na-abịa": 971,
      "mmeri": 972,
      "chiela": 973,
      "Ea": 974,
      "mata": 975,
      "na-eji": 976,
      " . \"": 977,
      "ofesi": 978,
      "Muhammadu": 979,
      "sịrị :": 980,
      "op": 981,
      "ịdị": 982,
      "mini": 983,
      "ris": 984,
      "IPOB": 985,
      "ghachi": 986,
      "ụlọomeiwu": 987,
      "achị": 988,
      "Fa": 989,
      "ugo": 990,
      "lie": 991,
      "saụ": 992,
      "kwesiri": 993,
      "ster": 994,
      "maha": 995,
      "niile .": 996,
      "pọ": 997,
      "mma .": 998,
      "arịa": 999,
      "tiku": 1000,
      "ia": 1001,
      "ụmụakwụkwọ": 1002,
      "mụta": 1003,
      "sote": 1004,
      "nkwado": 1005,
      "esi": 1006,
      "gbaa": 1007,
      "ụtụtụ": 1008,
      "kọrịta": 1009,
      "Atiku": 1010,
      "ụba": 1011,
      "agb": 1012,
      "inye": 1013,
      "rel": 1014,
      "ochie": 1015,
      "ogige": 1016,
      "bọ": 1017,
      "anya ,": 1018,
      "ikpeazụ": 1019,
      "onal": 1020,
      "ọdụ": 1021,
      "okpu": 1022,
      "In": 1023,
      "mmụta": 1024,
      "ntọ": 1025,
      "amaghị": 1026,
      "nzukọ": 1027,
      "he": 1028,
      "ọha": 1029,
      "alaeze": 1030,
      "ịrị": 1031,
      "osisi": 1032,
      "Super": 1033,
      "ck": 1034,
      "banye": 1035,
      "ọzọ ,": 1036,
      "họpụta": 1037,
      "mgbasa": 1038,
      "osote": 1039,
      "na-ama": 1040,
      "katọ": 1041,
      "Ada": 1042,
      "ga-adị": 1043,
      "bụrụkwa": 1044,
      "anyị .": 1045,
      "alụ": 1046,
      "mahadum": 1047,
      "asị": 1048,
      "dia": 1049,
      "ahọ": 1050,
      "mkpọrọ": 1051,
      "minista": 1052,
      "saụt": 1053,
      "e ,": 1054,
      "shịa": 1055,
      "Ar": 1056,
      "ted": 1057,
      "nwekwara": 1058,
      "meriri": 1059,
      "ịrụ": 1060,
      "Tru": 1061,
      "naghị": 1062,
      "akara": 1063,
      "ọtọ": 1064,
      "na-efe": 1065,
      "aja": 1066,
      "obiano": 1067,
      "Oko": 1068,
      "na-enwe": 1069,
      "na-eru": 1070,
      "na-agụ": 1071,
      "ajọ": 1072,
      "sie": 1073,
      "eluigwe": 1074,
      "dọkịta": 1075,
      "fi": 1076,
      "ọna": 1077,
      "oku": 1078,
      "amụma": 1079,
      "omenala": 1080,
      "ịga": 1081,
      "kpatara": 1082,
      "pụtala": 1083,
      "gaghị": 1084,
      "ọdọ": 1085,
      "So": 1086,
      "eche": 1087,
      "ty": 1088,
      "kọmi": 1089,
      "bụ ,": 1090,
      "okwukwe": 1091,
      "ọma .": 1092,
      "ntoro": 1093,
      "ad": 1094,
      "Ab": 1095,
      "ọba": 1096,
      "anyị ,": 1097,
      "ọkacha": 1098,
      "ntorobịa": 1099,
      "IN": 1100,
      "na-ebu": 1101,
      "Wil": 1102,
      "co": 1103,
      "ikwu": 1104,
      "Eag": 1105,
      "es": 1106,
      "tan": 1107,
      "gawa": 1108,
      "INEC": 1109,
      "FC": 1110,
      "ga-enye": 1111,
      "jụrụ": 1112,
      "Trump": 1113,
      "rụrụ": 1114,
      "nwetara": 1115,
      "akpụ": 1116,
      "mwakpo": 1117,
      "vid": 1118,
      "ọhịa": 1119,
      "Af": 1120,
      "  \" . \"": 1121,
      "ebighị": 1122,
      "United": 1123,
      "nwan": 1124,
      "omume": 1125,
      "ike ,": 1126,
      "usoro": 1127,
      "ity": 1128,
      "ngagharịiwe": 1129,
      " \" \"": 1130,
      "baịbụl .": 1131,
      "Ka": 1132,
      "Sa": 1133,
      "onweghị": 1134,
      "Ne": 1135,
      "Ade": 1136,
      "nọchi": 1137,
      "kpọku": 1138,
      "ihe .": 1139,
      "njọ": 1140,
      "Se": 1141,
      "doro": 1142,
      "ga-agba": 1143,
      "Eagles": 1144,
      "ss": 1145,
      "ten": 1146,
      "iz": 1147,
      "goro": 1148,
      "od": 1149,
      "baka": 1150,
      "echiche": 1151,
      "nnamdi": 1152,
      "vo": 1153,
      "Ri": 1154,
      "ọw": 1155,
      "Mi": 1156,
      "metụ": 1157,
      "akụkụ": 1158,
      "obi .": 1159,
      "ọgọ": 1160,
      "ụlọụka": 1161,
      "kedụ": 1162,
      "Obi": 1163,
      "ani": 1164,
      "lik": 1165,
      "chineke ,": 1166,
      "arịta": 1167,
      "ur": 1168,
      "fo": 1169,
      "ume": 1170,
      "turu": 1171,
      "ịtụ": 1172,
      "a :": 1173,
      "wakporo": 1174,
      "and": 1175,
      "ọwụwa": 1176,
      "Ba": 1177,
      "pt": 1178,
      "nda": 1179,
      "else": 1180,
      "ir": 1181,
      "na-egosi": 1182,
      "ọfụ": 1183,
      "pọl": 1184,
      "fere": 1185,
      "ebo": 1186,
      "con": 1187,
      "chọpụtara": 1188,
      "iyi": 1189,
      "merie": 1190,
      "na-esi": 1191,
      "Chelse": 1192,
      "wụ": 1193,
      "dio": 1194,
      "ohi": 1195,
      "City": 1196,
      "ine": 1197,
      "na-eso": 1198,
      "ọgbọ": 1199,
      "izrel": 1200,
      "katọlik": 1201,
      "son": 1202,
      "chineke .": 1203,
      "land": 1204,
      "kwalite": 1205,
      "onyi": 1206,
      "enyemaka": 1207,
      "emume": 1208,
      "taghị": 1209,
      "nihu": 1210,
      "ụnya": 1211,
      "abuja": 1212,
      "inwe": 1213,
      "eziokwu .": 1214,
      "Moha": 1215,
      "pool": 1216,
      "tional": 1217,
      "200": 1218,
      "na-akwado": 1219,
      "Liver": 1220,
      "oriri": 1221,
      "Liverpool": 1222,
      "oli": 1223,
      "shịal": 1224,
      "isiokwu": 1225,
      "fada": 1226,
      "na-adịghị": 1227,
      "De": 1228,
      "ci": 1229,
      "nji": 1230,
      "pụla": 1231,
      "ewe": 1232,
      "akị": 1233,
      "achụ": 1234,
      "Sou": 1235,
      "soshịal": 1236,
      "na-ekpe": 1237,
      "gụọ": 1238,
      "ogbu": 1239,
      "zde": 1240,
      "Afri": 1241,
      "Ca": 1242,
      "' .": 1243,
      "jeri": 1244,
      "agu": 1245,
      "ọmụ": 1246,
      "juru": 1247,
      "ọkaiwu": 1248,
      "Chelsea": 1249,
      "onyinye": 1250,
      "tri": 1251,
      "oyi": 1252,
      "kpọọ": 1253,
      "akpọ": 1254,
      "na-agwa": 1255,
      "ing": 1256,
      "ode": 1257,
      "ụlọakwụkwọ": 1258,
      "e .": 1259,
      "isi .": 1260,
      "mmadụ .": 1261,
      "iche .": 1262,
      "onyo": 1263,
      "2019 .": 1264,
      " \" \" ": 1265,
      "arc": 1266,
      "sịghị": 1267,
      "aka ,": 1268,
      "ekpe": 1269,
      "ọgbaaghara": 1270,
      "onyonyo": 1271,
      "chu": 1272,
      "To": 1273,
      "ham": 1274,
      "ment": 1275,
      "ugbua ,": 1276,
      "na-ere": 1277,
      "rịọ": 1278,
      "sị ,": 1279,
      "net": 1280,
      "agbọ": 1281,
      "mgb": 1282,
      "na-ewe": 1283,
      "ọbara": 1284,
      "Manche": 1285,
      "Manchester": 1286,
      "kwuru .": 1287,
      "mmed": 1288,
      "wit": 1289,
      "gharịa": 1290,
      "nwanne": 1291,
      "mama": 1292,
      "ọ \"": 1293,
      "ụwa .": 1294,
      "ort": 1295,
      "South": 1296,
      "ite": 1297,
      "madu": 1298,
      "2018": 1299,
      "dịghị": 1300,
      "bie": 1301,
      "gee": 1302,
      "abụọ .": 1303,
      "ala .": 1304,
      "ụra": 1305,
      "okorocha": 1306,
      "okpukpe": 1307,
      "ak": 1308,
      "El": 1309,
      "Ja": 1310,
      "ly": 1311,
      "godị": 1312,
      "ọgbu": 1313,
      "ry": 1314,
      "Nwo": 1315,
      "Sta": 1316,
      "chas": 1317,
      "mbere": 1318,
      "kpọrọ  \" ": 1319,
      "omeka": 1320,
      "ọnị": 1321,
      "vootu": 1322,
      "Rochas": 1323,
      "ọnịcha": 1324,
      "na-ekwuru": 1325,
      "for": 1326,
      "nyela": 1327,
      "ya ?": 1328,
      "aga .": 1329,
      "ope": 1330,
      "ọchịehi": 1331,
      "Fran": 1332,
      "Arse": 1333,
      "va": 1334,
      "Bi": 1335,
      "na-ata": 1336,
      "ede": 1337,
      "mberede": 1338,
      "kpu": 1339,
      "der": 1340,
      "bri": 1341,
      "nle": 1342,
      "ga-aga": 1343,
      "aga ,": 1344,
      "agbọghọ": 1345,
      "Arsenal": 1346,
      "Fe": 1347,
      "nụrụ": 1348,
      "akịrịka": 1349,
      "Mohammed": 1350,
      "nwụọ": 1351,
      "“ ọ": 1352,
      "emeela": 1353,
      "Peter": 1354,
      "ijipt": 1355,
      "' ,": 1356,
      "gbata": 1357,
      "nọọ": 1358,
      "juu": 1359,
      "setan": 1360,
      "kọtara": 1361,
      "gharịrị": 1362,
      "ky": 1363,
      "10": 1364,
      "s ,": 1365,
      "ọkammụta": 1366,
      "tala": 1367,
      "batara": 1368,
      "ịkpa": 1369,
      "ong": 1370,
      "atụ ,": 1371,
      "000": 1372,
      "Ekwere": 1373,
      "witter": 1374,
      "Ekweremadu": 1375,
      "Ke": 1376,
      "ber": 1377,
      "Pre": 1378,
      "na-eri": 1379,
      "taa .": 1380,
      "anwụọla": 1381,
      "ekele": 1382,
      "nhọpụta": 1383,
      "kọmish": 1384,
      "omekaome": 1385,
      "wi": 1386,
      "s .": 1387,
      "ala ,": 1388,
      "Abu": 1389,
      "ụwa ,": 1390,
      "Eze": 1391,
      "gidere": 1392,
      "uju": 1393,
      "our": 1394,
      "mkparịta": 1395,
      "cy": 1396,
      "aru": 1397,
      "mpụ": 1398,
      "ọrụ .": 1399,
      "ozugbo": 1400,
      "kọmishọna": 1401,
      "eh": 1402,
      "jo": 1403,
      "na-abụ": 1404,
      "a ?": 1405,
      "ịlụ": 1406,
      "naeze": 1407,
      "eziokwu ,": 1408,
      "mkpu": 1409,
      "1 ,": 1410,
      "rụọ": 1411,
      "kwasị": 1412,
      "nwereike": 1413,
      " ) .": 1414,
      "ịkpọ": 1415,
      "zịrị": 1416,
      "n ,": 1417,
      "iro": 1418,
      "ọkaikpe": 1419,
      "nigwe": 1420,
      "ọgụgụ": 1421,
      "ogbunigwe": 1422,
      "im": 1423,
      "warị": 1424,
      "ọhanaeze": 1425,
      "edo": 1426,
      "kwụrụ": 1427,
      "ahụike": 1428,
      "ga-enwe": 1429,
      "ije": 1430,
      " . ” )": 1431,
      "nkị": 1432,
      "mmehie": 1433,
      "n .": 1434,
      "wer": 1435,
      "ihe ,": 1436,
      "wepụtara": 1437,
      "megide": 1438,
      "14": 1439,
      "ssi": 1440,
      "ọrụ ,": 1441,
      "Joh": 1442,
      "egbuola": 1443,
      "ọdịnihu": 1444,
      "hapụrụ": 1445,
      "midia": 1446,
      "maara": 1447,
      "hazi": 1448,
      "baịbụl ,": 1449,
      "ghe": 1450,
      "igbu": 1451,
      "makana": 1452,
      " ) ,": 1453,
      "ewu": 1454,
      "ndịigbo": 1455,
      "enyela": 1456,
      "China": 1457,
      "mkpebi": 1458,
      "15": 1459,
      "ta .": 1460,
      "mma ,": 1461,
      "fra": 1462,
      "ire": 1463,
      "mpe": 1464,
      "atụrụ": 1465,
      "ịmata": 1466,
      "nọchite": 1467,
      "Eme": 1468,
      "nkwe": 1469,
      "ndịagha": 1470,
      "We": 1471,
      "Mar": 1472,
      "Oke": 1473,
      "rue": 1474,
      "mmadụ ,": 1475,
      "niile ,": 1476,
      "na-arị": 1477,
      "ụjọ": 1478,
      "ụlọọgwụ": 1479,
      "devid": 1480,
      "bịafra": 1481,
      "Be": 1482,
      "ph": 1483,
      "__": 1484,
      "na-amụ": 1485,
      "nway": 1486,
      "achọghị": 1487,
      "metụtara": 1488,
      "nwayọọ": 1489,
      "ata": 1490,
      "satọ": 1491,
      "ga-anọ": 1492,
      "agbata": 1493,
      "Nor": 1494,
      "na-enweghị": 1495,
      "amalite": 1496,
      "gburugburu": 1497,
      "ngw": 1498,
      "gị ,": 1499,
      "ga-enyere": 1500,
      "ction": 1501,
      "satọde": 1502,
      "Zi": 1503,
      "SS": 1504,
      "Sara": 1505,
      "nter": 1506,
      "fee": 1507,
      "ụtọ .": 1508,
      "Chris": 1509,
      "shi": 1510,
      "mị": 1511,
      "Nna": 1512,
      "zara": 1513,
      "kwaghị": 1514,
      "duna": 1515,
      "Ra": 1516,
      "rid": 1517,
      "iru": 1518,
      "ụlọakụ": 1519,
      "egwuregwu ,": 1520,
      "ọdịnala": 1521,
      "tius": 1522,
      "Leagu": 1523,
      "mọ": 1524,
      "na-egbu": 1525,
      "obi ,": 1526,
      "ịgụ": 1527,
      "elekere": 1528,
      "Ser": 1529,
      "lata": 1530,
      "chapụ": 1531,
      "2017": 1532,
      "na-azụ": 1533,
      "fufe": 1534,
      "naụba": 1535,
      "sha": 1536,
      "tha": 1537,
      "kata": 1538,
      "lic": 1539,
      "gị .": 1540,
      "ja .": 1541,
      "nabata": 1542,
      "nzuzo": 1543,
      "Lago": 1544,
      "ọfụma": 1545,
      "laị": 1546,
      "Osi": 1547,
      "na-ebi": 1548,
      "na-atọ": 1549,
      "na  \" ": 1550,
      "uru .": 1551,
      "Chukwu": 1552,
      "akpọrọ": 1553,
      "agwọ": 1554,
      "ọgbugbu": 1555,
      "akụnaụba": 1556,
      "kan": 1557,
      "abụrụ": 1558,
      "putara": 1559,
      "ugbua .": 1560,
      "ekwentị": 1561,
      "Pau": 1562,
      "tiusde": 1563,
      "Ju": 1564,
      "kwo": 1565,
      "Or": 1566,
      "ịchị": 1567,
      "igbo ,": 1568,
      "ọnụ .": 1569,
      "na-alụ": 1570,
      "Willie": 1571,
      "FCC": 1572,
      "nkịtị": 1573,
      "pị": 1574,
      "lere": 1575,
      "rie": 1576,
      "na-akwụ": 1577,
      "gbochi": 1578,
      "naịjirịa ,": 1579,
      "ụda": 1580,
      "gụrụ": 1581,
      "wute": 1582,
      "ụmụnne": 1583,
      "ọdọụgbọelu": 1584,
      "ọgọst": 1585,
      "sonye": 1586,
      "na-anọ": 1587,
      "icheiche": 1588,
      "abụọ ,": 1589,
      "tor": 1590,
      "chitere": 1591,
      "kpụrụ": 1592,
      "agụmba": 1593,
      "nchọpụta": 1594,
      "yo": 1595,
      "ard": 1596,
      "dịkwa": 1597,
      "chaghị": 1598,
      "mfe": 1599,
      "itinye": 1600,
      "nnyocha": 1601,
      "bakar": 1602,
      "ijeri": 1603,
      "Uma": 1604,
      "wepụ": 1605,
      "weere": 1606,
      "Ude": 1607,
      "Pro": 1608,
      "1 )": 1609,
      "mbaụwa": 1610,
      "mkpesa": 1611,
      "Adam": 1612,
      "olile": 1613,
      "nnọọ": 1614,
      "Twitter": 1615,
      "man": 1616,
      "zute": 1617,
      "efu": 1618,
      "logo": 1619,
      "bụkwanụ": 1620,
      "mmekọrịta": 1621,
      "briten": 1622,
      "Abubakar": 1623,
      "ogologo": 1624,
      "Gu": 1625,
      "Me": 1626,
      "k ,": 1627,
      "ga-ahụ": 1628,
      "uro": 1629,
      "mere .": 1630,
      "gbasa": 1631,
      "idi": 1632,
      "sitere": 1633,
      "chọọchị": 1634,
      "ebonyi": 1635,
      "ọmụmụ": 1636,
      "Paul": 1637,
      "GA": 1638,
      "na-azọ": 1639,
      "liri": 1640,
      "ga-ebi": 1641,
      "butere": 1642,
      "atọ .": 1643,
      "2015": 1644,
      "ezum": 1645,
      "EFCC": 1646,
      "NA": 1647,
      "leba": 1648,
      "ogbe": 1649,
      "ndị )": 1650,
      "lụrụ": 1651,
      "ther": 1652,
      "State": 1653,
      "gwo": 1654,
      "ria": 1655,
      "kọọ": 1656,
      "merụrụ": 1657,
      "yin": 1658,
      "akwado": 1659,
      "fraị": 1660,
      "state": 1661,
      "Ihe": 1662,
      "latri": 1663,
      "fraịde": 1664,
      "23": 1665,
      "Go": 1666,
      "nyeere": 1667,
      "tic": 1668,
      "na-enyere": 1669,
      "ga-akpọ": 1670,
      "papa": 1671,
      "kịrị": 1672,
      "mmanya": 1673,
      "Inter": 1674,
      "pi": 1675,
      "2 ,": 1676,
      "san": 1677,
      "nwụchi": 1678,
      "iche ,": 1679,
      "ọda": 1680,
      "ofesi ,": 1681,
      "New": 1682,
      "senet": 1683,
      "Fu": 1684,
      "fa": 1685,
      "pụọ": 1686,
      "ịkwụ": 1687,
      "debe": 1688,
      "gachara": 1689,
      "ọṅụ": 1690,
      "nkịta": 1691,
      "okorobịa": 1692,
      "El-": 1693,
      "Bo": 1694,
      "Ike": 1695,
      "hab": 1696,
      "bra": 1697,
      "awa": 1698,
      "mbu": 1699,
      "nwaafọ": 1700,
      "ton": 1701,
      "Zak": 1702,
      "zaky": 1703,
      "Zakzaky": 1704,
      "..": 1705,
      "Au": 1706,
      "17": 1707,
      "gabe": 1708,
      "mbi": 1709,
      "yiri": 1710,
      "na-ekwe": 1711,
      "nue": 1712,
      "mpụtara": 1713,
      "dọla": 1714,
      "ebere": 1715,
      " - ": 1716,
      "ọkpara": 1717,
      "Saraki": 1718,
      "Mugabe": 1719,
      "na-aka": 1720,
      "gboo": 1721,
      "zuo": 1722,
      "kwanyere": 1723,
      "guzo": 1724,
      "ofufe": 1725,
      "fọrọ": 1726,
      "mụtara": 1727,
      "okwu .": 1728,
      "jehova .": 1729,
      "gbuola": 1730,
      "anwụchiela": 1731,
      "mọdụ": 1732,
      "Lagos": 1733,
      "Pa": 1734,
      "Di": 1735,
      "dị ,": 1736,
      "kwaa": 1737,
      "iku": 1738,
      "efe": 1739,
      "ọma ,": 1740,
      "ndụmọdụ": 1741,
      "18": 1742,
      "n' \"": 1743,
      "nrọ": 1744,
      "bụbu": 1745,
      "na-ada": 1746,
      "amata": 1747,
      "enweta": 1748,
      "agụụ": 1749,
      "nkata": 1750,
      "foto": 1751,
      "benue": 1752,
      "Cha": 1753,
      "ụmụafọ": 1754,
      "ife": 1755,
      "eto": 1756,
      "zutere": 1757,
      "Africa": 1758,
      "APGA": 1759,
      "ezumike": 1760,
      "baara": 1761,
      "azọ": 1762,
      " ? ”": 1763,
      "puta": 1764,
      "egosi": 1765,
      "mmepe": 1766,
      "agbụrụ": 1767,
      "kaduna": 1768,
      "Ta": 1769,
      "No": 1770,
      "ịny": 1771,
      "Ele": 1772,
      "anyị \"": 1773,
      "eso": 1774,
      "ga-akwụ": 1775,
      "akwụkwọ .": 1776,
      "apụta": 1777,
      "aghọ": 1778,
      "Mad": 1779,
      "ohu": 1780,
      "latrik": 1781,
      "Madrid": 1782,
      "Bri": 1783,
      "kwala": 1784,
      "miri": 1785,
      "mgbede": 1786,
      "mba .": 1787,
      "okenye": 1788,
      "amaokwu": 1789,
      "ndụ .": 1790,
      "ọkụkọ": 1791,
      "enyo": 1792,
      "ịṅụ": 1793,
      "ourt": 1794,
      "13": 1795,
      "dan": 1796,
      "ịzọ": 1797,
      "kwụọ": 1798,
      "nara": 1799,
      "akụrụ": 1800,
      "na-eme .": 1801,
      "okporoụzọ": 1802,
      "ọkachamara": 1803,
      "njikere": 1804,
      "mkparịtaụka": 1805,
      "ower": 1806,
      "Ru": 1807,
      "ona": 1808,
      "Ama": 1809,
      "ịba": 1810,
      "neti": 1811,
      "enyere": 1812,
      "ịnta": 1813,
      "na-etinye": 1814,
      "199": 1815,
      "wore": 1816,
      "ịntaneti": 1817,
      "Sowore": 1818,
      "jị": 1819,
      "Vi": 1820,
      "ụtụ": 1821,
      "ahị": 1822,
      "pụrụiche": 1823,
      "ịkwụsị": 1824,
      "enweghi": 1825,
      "olileanya": 1826,
      "ọdachi": 1827,
      "saa": 1828,
      "steeti ,": 1829,
      "agha .": 1830,
      "the": 1831,
      "ọdịda": 1832,
      "ịkwalite": 1833,
      "na-ekwuchitere": 1834,
      "Ihedio": 1835,
      "ọbasan": 1836,
      "Ibra": 1837,
      "ọbasanjọ": 1838,
      "AS": 1839,
      "ld": 1840,
      "jiji": 1841,
      "nata": 1842,
      "ese": 1843,
      "gun": 1844,
      "bụzị": 1845,
      "inweta": 1846,
      "na-akụzi": 1847,
      "mgbere": 1848,
      "Nwa": 1849,
      "Te": 1850,
      "Ge": 1851,
      "chịrị": 1852,
      "wene": 1853,
      "jide": 1854,
      "spe": 1855,
      "beghi": 1856,
      "Ga": 1857,
      "anyi": 1858,
      "apụ": 1859,
      "na-acha": 1860,
      "arịrị": 1861,
      "onyeozi": 1862,
      "merụ": 1863,
      "kwazie": 1864,
      "ịghọta": 1865,
      "na-akụziri": 1866,
      "na-arịọ": 1867,
      "wenezde": 1868,
      "qu": 1869,
      "ọkọ": 1870,
      "nchị": 1871,
      "ịkụ": 1872,
      "na-ede": 1873,
      "obibi": 1874,
      "Ghana": 1875,
      "stra": 1876,
      "na-asụ": 1877,
      "ngwụ": 1878,
      "ebido": 1879,
      "ịchụ": 1880,
      "Ibrahi": 1881,
      "up": 1882,
      "FA": 1883,
      "16": 1884,
      "sti": 1885,
      "ga-ebu": 1886,
      "ọọla": 1887,
      "boro": 1888,
      "igbo .": 1889,
      "ọkpọ": 1890,
      "Ife": 1891,
      "ọkara": 1892,
      "pase": 1893,
      "ọjị": 1894,
      "aṅụ": 1895,
      "osimiri": 1896,
      "ahịhịa": 1897,
      "ọk": 1898,
      "Is": 1899,
      "agw": 1900,
      "sịga": 1901,
      "akarị": 1902,
      "iso": 1903,
      "gen": 1904,
      "ezie": 1905,
      "inyere": 1906,
      "mkpọ": 1907,
      "omi": 1908,
      "mbụ .": 1909,
      "anwụrụ": 1910,
      "Fal": 1911,
      "na-akọwa": 1912,
      "ọkachasị": 1913,
      "Nwosu": 1914,
      "akụrụngwa": 1915,
      "mas": 1916,
      "gaara": 1917,
      "na-akwa": 1918,
      "ibi": 1919,
      "ndị \"": 1920,
      "ga-achị": 1921,
      "Olu": 1922,
      "sena": 1923,
      "mgbọ": 1924,
      "arụrụ": 1925,
      "ebum": 1926,
      "national": 1927,
      "National": 1928,
      "mọnde": 1929,
      "Ti": 1930,
      "US": 1931,
      "Wa": 1932,
      "4 .": 1933,
      "riri": 1934,
      "bia": 1935,
      "bwe": 1936,
      "lani": 1937,
      "na-ebo": 1938,
      "akwụsị": 1939,
      "na-eto": 1940,
      "na-enyo": 1941,
      "ga-abara": 1942,
      "kpebiri": 1943,
      "nrụrụ": 1944,
      "nkwekọrịta": 1945,
      "Zimba": 1946,
      "Ihedioha": 1947,
      "Ibrahim": 1948,
      "Zimbabwe": 1949,
      "Ah": 1950,
      "by": 1951,
      "are": 1952,
      "meere": 1953,
      "Pla": 1954,
      "kụzi": 1955,
      "ral": 1956,
      "kara": 1957,
      "pịa": 1958,
      "kwuo ,": 1959,
      "na-ajụ": 1960,
      "ọkụ .": 1961,
      "ejiri": 1962,
      "anambra ,": 1963,
      "gbanwee": 1964,
      "Madu": 1965,
      "Premi": 1966,
      "El-Zakzaky": 1967,
      "senatọ": 1968,
      "ON": 1969,
      "tela": 1970,
      "ubi": 1971,
      "mụọ": 1972,
      "ngo": 1973,
      "ịcha": 1974,
      "nwetere": 1975,
      "ọkafọ": 1976,
      "ụfọdụ ,": 1977,
      "asatara": 1978,
      "ọnwụ .": 1979,
      "ọzụ": 1980,
      "ịnya": 1981,
      "izuụka": 1982,
      "Nai": 1983,
      "League": 1984,
      "opekata": 1985,
      "30": 1986,
      "na-eti": 1987,
      "ute": 1988,
      "ule": 1989,
      "Emma": 1990,
      "ga-ewe": 1991,
      "egwu .": 1992,
      "agbaala": 1993,
      "ọchịchị .": 1994,
      "ekweghị": 1995,
      "ga-akwụsị": 1996,
      "na-elekọta": 1997,
      "maachị": 1998,
      "Harc": 1999
    },
    "merges": [
      "n a",
      "d ị",
      "k a",
      "m a",
      "  .",
      "n '",
      "b ụ",
      "e r",
      "  ,",
      "a r",
      "n dị",
      "k e",
      "h a",
      "na -",
      "er e",
      "ar a",
      "y a",
      "m e",
      "i h",
      "l a",
      "g a",
      "s i",
      "ny e",
      "j i",
      "h ụ",
      "t a",
      "ih e",
      "kw u",
      "r ụ",
      "r i",
      "a ny",
      "a hụ",
      "r u",
      "n ke",
      "r ị",
      "t u",
      "b a",
      "kw a",
      "o nye",
      "na- a",
      "na- e",
      "gh ị",
      "t ụ",
      "d ụ",
      "t i",
      "ga -",
      "t e",
      "gb a",
      "o tu",
      "l e",
      "b e",
      "b i",
      "z i",
      "any ị",
      "s ị",
      "m ma",
      "p ụ",
      "k ọ",
      "m ụ",
      "a n",
      "ch i",
      "ch ị",
      "  \"",
      "ch e",
      "nw e",
      "z ọ",
      "a ka",
      "l ọ",
      "r ọ",
      "k ụ",
      "d o",
      "ụ lọ",
      "w e",
      "n e",
      "kw ụ",
      "a la",
      "nw a",
      "g o",
      "f ọ",
      "gb u",
      "i si",
      "r a",
      "mma dụ",
      "l i",
      "gb e",
      "e be",
      "i ke",
      "ọ rọ",
      "i ri",
      "kwu ru",
      "w a",
      "d e",
      "ch a",
      "r o",
      "ma ka",
      "b u",
      "m gbe",
      "t ọ",
      "ga- e",
      "m ere",
      "s o",
      "t ara",
      "n i",
      "gb o",
      "ụ mụ",
      "rị a",
      "ọ ọ",
      "gw u",
      "ị a",
      "ọ rụ",
      "e ti",
      "nw ere",
      "ga- a",
      "  :",
      "n ụ",
      "s a",
      "g e",
      "ọ chị",
      "any a",
      "a fọ",
      "m ba",
      "b o",
      "i me",
      "o kwu",
      "nw ụ",
      "a bụ",
      "kw e",
      "a kụ",
      "ọ zọ",
      "g ị",
      "a kwụ",
      "l u",
      "ị ji",
      "na ịji",
      "naịji rịa",
      "n ọ",
      "   \"",
      "o bi",
      "kw ọ",
      "s e",
      "kp e",
      "z u",
      "d i",
      "e zi",
      "s te",
      "ne ke",
      "ste eti",
      "chi neke",
      "i che",
      "akwụ kwọ",
      "  \"  ",
      "kp a",
      "ny ere",
      "d a",
      "  ?",
      "i le",
      "n t",
      "n u",
      "dị ka",
      "pụ ta",
      "o ke",
      "r e",
      "ni ile",
      "o ge",
      "j e",
      "g ụ",
      "a gh",
      "tụ tụ",
      "  )",
      "w u",
      "k u",
      "ya  .",
      "abụ ọ",
      "akụ kọ",
      "ị bụ",
      "na-e me",
      "ar ị",
      "er i",
      "m p",
      "k o",
      "a  .",
      "a ma",
      "onye isi",
      "an ọ",
      "i gbo",
      "ọ tụtụ",
      "“  ",
      "o n",
      "  ”",
      "bụ rụ",
      "s ọ",
      "kp ọ",
      "b ịa",
      "nwa anyị",
      "kw ara",
      "bo do",
      "p u",
      "ịbụ l",
      "ba ịbụl",
      "m i",
      "ọ nụ",
      "bụ la",
      "m me",
      "d u",
      "o bodo",
      "a na",
      "e gwu",
      "2 0",
      "gb ọ",
      "i ji",
      "ch ọ",
      "f e",
      "ụ wa",
      "h i",
      "a ga",
      "gw a",
      "pụ tara",
      "i wu",
      "si ri",
      "i kpe",
      "t o",
      "ụ b",
      "z e",
      "e go",
      "e me",
      "m b",
      "a z",
      "u ru",
      "g ọ",
      "ụb ọchị",
      "nt ị",
      "a gba",
      "o nwe",
      "t ere",
      "a  ,",
      "h o",
      "ụ rụ",
      "s t",
      "ar i",
      "ih i",
      "n dụ",
      "ahụ  .",
      "o zi",
      "o ji",
      "u we",
      "ma na",
      "sị rị",
      "g ara",
      "ọchị chị",
      "a ha",
      "l ụ",
      "a tọ",
      "a h",
      "ụ zọ",
      "u kwu",
      "g ọọ",
      "m m",
      "gọọ me",
      "B u",
      "hụ rụ",
      "kp ọrọ",
      "e lu",
      "fọ dụ",
      "kwu o",
      "oji i",
      "ọ ka",
      "ya  ,",
      "nw oke",
      "j ụ",
      "ụ fọdụ",
      "ha  .",
      "kp o",
      "n d",
      "20 1",
      "ụ gbọ",
      "s ụ",
      "ọ ma",
      "s ara",
      "ahụ  ,",
      "n so",
      "e ze",
      "agh a",
      "o me",
      "me e",
      "w ere",
      "m er",
      "gb ara",
      " .  ”",
      "o r",
      "nwe ghị",
      "a sa",
      "ch ara",
      "ho v",
      "ih u",
      "h ari",
      "je hov",
      "Bu hari",
      "ga-e me",
      "ma ra",
      "gh arị",
      "ọ bụla",
      "g i",
      "u gbu",
      "ọ kụ",
      "(  ",
      "na kwa",
      "o lu",
      "gw ụ",
      "n na",
      "ny o",
      "ụ ka",
      "gba sara",
      "gw ara",
      "li te",
      "uwe ojii",
      "e l",
      "ma  ,",
      "onyeisi ala",
      "ch ọrọ",
      "o le",
      "ọ nwa",
      "e la",
      "nw u",
      "we e",
      "na-e kwu",
      "n ga",
      "m kpa",
      "jehov a",
      "zọ s",
      "a ba",
      "ji zọs",
      "n ta",
      "ji ri",
      "p a",
      "ar ụ",
      "a tụ",
      "gw e",
      "m bụ",
      "mm iri",
      "gọọme ntị",
      "n tụ",
      "an ụ",
      "gbu ru",
      "na-a gba",
      "v anọ",
      "mp i",
      "gọ vanọ",
      "pụ rụ",
      "kp ụ",
      "m o",
      "j ọ",
      "d ọ",
      "si te",
      "e kwe",
      "j a",
      "n ne",
      "  ;",
      "i we",
      "a nwụ",
      "ga-a ma",
      "a l",
      "n ị",
      "p e",
      "d ere",
      "l ị",
      "J o",
      "m gba",
      "g u",
      "i n",
      "j u",
      "ah ịa",
      "gw ọ",
      "a dị",
      "i se",
      "bi do",
      "kwa do",
      "k ị",
      "nd ọrọ",
      "o ko",
      "ezi okwu",
      "B B",
      "a sọ",
      "ny i",
      "any ere",
      "m u",
      "ntụ li",
      "ka rị",
      "gh ọ",
      "tu pu",
      "t h",
      "ọ nwụ",
      "az ụ",
      "i gwe",
      "m kp",
      "na- ahụ",
      "c e",
      "BB C",
      "z ị",
      "ọ la",
      "z ụ",
      "mb ra",
      "n ri",
      "ana mbra",
      "agh ara",
      "b ere",
      "ọ gwụ",
      "e bu",
      "ntụli aka",
      "asọ mpi",
      "o kp",
      "b ara",
      "ọ gba",
      "az ị",
      "nso gbu",
      "ru o",
      "ọ kwa",
      "f u",
      "e ji",
      "b ọọ",
      "ọ j",
      "gh ara",
      "n che",
      "e tu",
      "gh a",
      "b ị",
      "e nu",
      "nwu nye",
      "bọọ lụ",
      "re gwu",
      "egwu regwu",
      "k iri",
      "rị ka",
      "ta a",
      " .   \" ",
      "l o",
      "m mụ",
      "na-a ga",
      "ch ụ",
      "chi e",
      "o la",
      "i g",
      "y i",
      "ọ hụrụ",
      "u nu",
      "ma azị",
      "e bi",
      "ga-ama sị",
      "ka cha",
      "an ị",
      "nwe e",
      "na anị",
      "a f",
      "eti ti",
      "zi e",
      "w ara",
      "nwe ta",
      "i be",
      "o u",
      "enu gwu",
      "ny a",
      "a mer",
      "ezi gbo",
      "b anyere",
      "a kwa",
      "M a",
      "A P",
      "le e",
      "ch ukwu",
      "sị  :",
      "ọ bụ",
      "zi ri",
      "ọj ọọ",
      "s u",
      "ụlọ ọrụ",
      "ụmụ nwaanyị",
      "er u",
      "kwụ sị",
      "ụ tọ",
      "aga ghị",
      "a gụ",
      "n ti",
      "ra ị",
      "M u",
      "ị ka",
      "bu ru",
      "wa kpo",
      "gh i",
      "n de",
      "ụlọ ikpe",
      "aba lị",
      "s ta",
      "go si",
      "na rị",
      "e nye",
      "a da",
      "e n",
      "kwe sịrị",
      "ị gba",
      "ke mgbe",
      "201 9",
      "ana ghị",
      "kp ere",
      "o l",
      "go olu",
      "Ch i",
      "chi ri",
      "gị nị",
      "ti nye",
      "n gwa",
      "N ig",
      "amer ịka",
      "nọ dụ",
      "ga a",
      "ha  ,",
      "e kwuo",
      "a jụ",
      "z o",
      "0 0",
      "mb ọ",
      "ụ gwọ",
      "i l",
      "nwụ rụ",
      "na l",
      "nke ji",
      "af rịka",
      "z a",
      "ọ rịa",
      "k ere",
      "ru ru",
      "ọ nọdụ",
      "ga-e si",
      "che ta",
      "la ba",
      "kọ ta",
      "ti on",
      "ekwuo la",
      "go siri",
      "m eri",
      "bị ara",
      "R o",
      "ụ dị",
      "ba ta",
      "nyo cha",
      "ṅ ụ",
      "mp aghara",
      "nche kwa",
      "li tere",
      "v i",
      "ụgbọ elu",
      "be ghị",
      "n g",
      "n ụlọ",
      "ezi nụlọ",
      "ọ dị",
      "gị  :",
      "Nig eri",
      "na-a kpọ",
      "AP C",
      "n je",
      "nga laba",
      "kọ rọ",
      "so ro",
      "a sụ",
      "o si",
      "u gwu",
      "pu ku",
      "gọọme nti",
      "i t",
      "i zu",
      "ke e",
      "ome iwu",
      "okp uru",
      "isi i",
      "gbo ro",
      "n o",
      "bụ kwa",
      "e hi",
      "1 9",
      "i mo",
      "i ko",
      "na-a chị",
      "e nweghị",
      "bụ ghị",
      "e kpere",
      "a mụ",
      "n kiri",
      "bi ri",
      "na-e che",
      "o h",
      "m  ,",
      "k i",
      "m  .",
      "kọ wa",
      "M an",
      "n ku",
      "u che",
      "ọ sọ",
      "n zu",
      "ụgbọ ala",
      "kw ere",
      "ajụ jụ",
      "o zu",
      "ọ gụ",
      "v er",
      "dị rị",
      "ị ma",
      "abụ ghị",
      "raị st",
      "t er",
      "nye ghị",
      "ga-e ji",
      "S u",
      "asụ sụ",
      "k raịst",
      "e le",
      "e chi",
      "e nwe",
      "mmụ ọ",
      "R e",
      "mu me",
      "na- arụ",
      "na-a chọ",
      "atụ ma",
      "a bịa",
      "n nu",
      "atụma tụ",
      "-  ",
      "n sọ",
      "ole e",
      "asa a",
      "L i",
      "o ro",
      "mme mme",
      "a gwa",
      "ma ọbụ",
      "na-e nye",
      "gbu o",
      "Jo se",
      "na-a dị",
      "ụ kwụ",
      "o bere",
      "an o",
      "nga gharị",
      "kp ara",
      "a m",
      "n kwa",
      "gi de",
      "ọzọ  .",
      "a chọ",
      "karị rị",
      "tụ rụ",
      "t ọrọ",
      "adị ghị",
      "D a",
      "M o",
      "mkp ụrụ",
      "ụmụ aka",
      "anya  .",
      "a kpa",
      "e ke",
      "le s",
      "kwu kwara",
      "kọ wara",
      "ha pụ",
      "r an",
      "e nyi",
      "e gbe",
      "ọgba kọ",
      "na la",
      "asa tọ",
      "be kee",
      "B oko",
      "o f",
      "rị ta",
      "nwa ta",
      "à m",
      "H ara",
      "ma nụ",
      "ugbu a",
      "àm à",
      "p er",
      "Nigeri a",
      "C o",
      "h ịa",
      "ti nyere",
      "u gboro",
      "L a",
      "D P",
      "ch ere",
      "v e",
      "o fe",
      "ebu bo",
      "anụ manụ",
      "ụ kọ",
      "o kpo",
      "nje m",
      "h ọ",
      "na i",
      "o ri",
      "ma litere",
      "i to",
      "f ụ",
      "n ka",
      "na-a kpa",
      "kị ta",
      "k ike",
      "N a",
      "bido ro",
      "p o",
      "o gi",
      "ghọ ta",
      "nku zi",
      "mụ rụ",
      "U ni",
      "nnu kwu",
      "e zu",
      "ga-a bụ",
      "nta akụkọ",
      "Hara m",
      "P DP",
      "u do",
      "me chara",
      "na-a tụ",
      "hi e",
      "ka ma",
      "ka rịa",
      "agba nyeghị",
      "c a",
      "nai ra",
      "y e",
      "aka  .",
      "ọ kpụ",
      "d ara",
      "Jose f",
      "i bu",
      "m kpe",
      "L e",
      "ọ cha",
      "zu ru",
      "anya nwụ",
      "oh ere",
      "pa ti",
      "du m",
      "chọ pụta",
      "gọ s",
      "P e",
      "naịjirịa  .",
      "i kike",
      "ị hụ",
      "le gọs",
      "okpo ro",
      "gụ nyere",
      "e gbu",
      "t ị",
      "a u",
      "o go",
      "kwuru  ,",
      "ka nu",
      "ndị àmà",
      "ndọrọ ndọrọ",
      "Mu ha",
      "  !",
      "m di",
      "a bu",
      "ito olu",
      "A l",
      "u s",
      "O B",
      "mma nụ",
      "ahụ hụ",
      "I P",
      "Muha mma",
      "E C",
      "e kwu",
      "ch ọọ",
      "ma lite",
      "oko ro",
      "na-a kụ",
      "ike  .",
      "cha a",
      "kacha sị",
      "w o",
      "na-e le",
      "o che",
      "ụkọ chukwu",
      "n ọrọ",
      "i de",
      "steeti  .",
      "na-a bịa",
      "mm eri",
      "chi ela",
      "E a",
      "ma ta",
      "na-e ji",
      " .  \"",
      "ofe si",
      "Muhamma du",
      "sịrị  :",
      "o p",
      "ị dị",
      "mi ni",
      "ri s",
      "IP OB",
      "gha chi",
      "ụlọ omeiwu",
      "a chị",
      "F a",
      "u go",
      "li e",
      "sa ụ",
      "kwe siri",
      "st er",
      "ma ha",
      "niile  .",
      "p ọ",
      "mma  .",
      "ar ịa",
      "ti ku",
      "i a",
      "ụmụ akwụkwọ",
      "mụ ta",
      "so te",
      "n kwado",
      "e si",
      "gba a",
      "ụ tụtụ",
      "kọ rịta",
      "A tiku",
      "ụ ba",
      "a gb",
      "i nye",
      "re l",
      "o chie",
      "ogi ge",
      "b ọ",
      "anya  ,",
      "ikpe azụ",
      "o nal",
      "ọ dụ",
      "okp u",
      "I n",
      "mmụ ta",
      "n tọ",
      "ama ghị",
      "nzu kọ",
      "h e",
      "ọ ha",
      "ala eze",
      "ị rị",
      "osi si",
      "Su per",
      "c k",
      "ba nye",
      "ọzọ  ,",
      "họ pụta",
      "mgba sa",
      "o sote",
      "na-a ma",
      "ka tọ",
      "A da",
      "ga-a dị",
      "bụrụ kwa",
      "anyị  .",
      "a lụ",
      "maha dum",
      "a sị",
      "di a",
      "ah ọ",
      "m kpọrọ",
      "mini sta",
      "saụ t",
      "e  ,",
      "sh ịa",
      "A r",
      "te d",
      "nwe kwara",
      "mer iri",
      "ị rụ",
      "T ru",
      "na ghị",
      "aka ra",
      "ọ tọ",
      "na-e fe",
      "a ja",
      "obi ano",
      "O ko",
      "na-e nwe",
      "na- eru",
      "na-a gụ",
      "a jọ",
      "si e",
      "elu igwe",
      "dọ kịta",
      "f i",
      "ọ na",
      "o ku",
      "amụ ma",
      "ome nala",
      "ị ga",
      "kpa tara",
      "pụta la",
      "ga ghị",
      "ọ dọ",
      "S o",
      "e che",
      "t y",
      "kọ mi",
      "bụ  ,",
      "okwu kwe",
      "ọma  .",
      "nt oro",
      "a d",
      "A b",
      "ọ ba",
      "anyị  ,",
      "ọka cha",
      "ntoro bịa",
      "I N",
      "na-e bu",
      "W il",
      "c o",
      "i kwu",
      "Ea g",
      "e s",
      "ta n",
      "ga wa",
      "IN EC",
      "F C",
      "ga-e nye",
      "j ụrụ",
      "Tru mp",
      "rụ rụ",
      "nwe tara",
      "a kpụ",
      "m wakpo",
      "vi d",
      "ọ hịa",
      "A f",
      "  \"  . \"",
      "ebi ghị",
      "Uni ted",
      "nw an",
      "o mume",
      "ike  ,",
      "u soro",
      "it y",
      "ngagharị iwe",
      " \"  \"",
      "baịbụl  .",
      "K a",
      "S a",
      "onwe ghị",
      "N e",
      "A de",
      "nọ chi",
      "kpọ ku",
      "ihe  .",
      "n jọ",
      "S e",
      "do ro",
      "ga-a gba",
      "Eag les",
      "s s",
      "te n",
      "i z",
      "go ro",
      "o d",
      "ba ka",
      "echi che",
      "nna mdi",
      "v o",
      "R i",
      "ọ w",
      "M i",
      "me tụ",
      "akụ kụ",
      "obi  .",
      "ọ gọ",
      "ụlọ ụka",
      "ke dụ",
      "O bi",
      "an i",
      "li k",
      "chineke  ,",
      "arị ta",
      "u r",
      "f o",
      "u me",
      "tu ru",
      "ị tụ",
      "a  :",
      "wakpo ro",
      "an d",
      "ọw ụwa",
      "B a",
      "p t",
      "n da",
      "el se",
      "i r",
      "na-e gosi",
      "ọ fụ",
      "pọ l",
      "f ere",
      "e bo",
      "c on",
      "chọ pụtara",
      "i yi",
      "meri e",
      "na-e si",
      "Ch else",
      "w ụ",
      "di o",
      "o hi",
      "C ity",
      "i ne",
      "na-e so",
      "ọ gbọ",
      "iz rel",
      "katọ lik",
      "so n",
      "chineke  .",
      "la nd",
      "kwa lite",
      "o nyi",
      "enye maka",
      "e mume",
      "ta ghị",
      "n ihu",
      "ụ nya",
      "abu ja",
      "i nwe",
      "eziokwu  .",
      "Mo ha",
      "po ol",
      "ti onal",
      "20 0",
      "na-a kwado",
      "Li ver",
      "ori ri",
      "Liver pool",
      "o li",
      "shịa l",
      "isi okwu",
      "f ada",
      "na-adị ghị",
      "D e",
      "c i",
      "n ji",
      "pụ la",
      "e we",
      "a kị",
      "a chụ",
      "S ou",
      "so shịal",
      "na-e kpe",
      "gụ ọ",
      "o gbu",
      "z de",
      "Af ri",
      "C a",
      "'  .",
      "j eri",
      "a gu",
      "ọ mụ",
      "j uru",
      "ọka iwu",
      "Chelse a",
      "onyi nye",
      "t ri",
      "o yi",
      "kp ọọ",
      "a kpọ",
      "na-a gwa",
      "in g",
      "o de",
      "ụlọ akwụkwọ",
      "e  .",
      "isi  .",
      "mmadụ  .",
      "iche  .",
      "o nyo",
      "2019  .",
      " \" \"  ",
      "ar c",
      "sị ghị",
      "aka  ,",
      "e kpe",
      "ọgba aghara",
      "onyo nyo",
      "ch u",
      "T o",
      "ha m",
      "me nt",
      "ugbu a ,",
      "na- ere",
      "rị ọ",
      "sị  ,",
      "ne t",
      "a gbọ",
      "m gb",
      "na-e we",
      "ọ bara",
      "Man che",
      "Manche ster",
      "kwuru  .",
      "mme d",
      "w it",
      "gh arịa",
      "nwan ne",
      "ma ma",
      "ọ  \"",
      "ụwa  .",
      "or t",
      "Sou th",
      "i te",
      "ma du",
      "201 8",
      "dị ghị",
      "bi e",
      "ge e",
      "abụọ  .",
      "ala  .",
      "ụ ra",
      "okoro cha",
      "okpu kpe",
      "a k",
      "E l",
      "J a",
      "l y",
      "go dị",
      "ọ gbu",
      "r y",
      "Nw o",
      "S ta",
      "cha s",
      "mb ere",
      "kpọrọ   \" ",
      "ome ka",
      "ọ nị",
      "vo otu",
      "Ro chas",
      "ọnị cha",
      "na-e kwuru",
      "f or",
      "nye la",
      "ya  ?",
      "aga  .",
      "o pe",
      "ọchị ehi",
      "F ran",
      "Ar se",
      "v a",
      "B i",
      "na-a ta",
      "e de",
      "mbere de",
      "kp u",
      "d er",
      "b ri",
      "n le",
      "ga-a ga",
      "aga  ,",
      "agbọ ghọ",
      "Arse nal",
      "F e",
      "nụ rụ",
      "akị rịka",
      "Moha mmed",
      "nwụ ọ",
      "“  ọ",
      "eme ela",
      "Pe ter",
      "iji pt",
      "'  ,",
      "gba ta",
      "n ọọ",
      "ju u",
      "se tan",
      "kọ tara",
      "gharị rị",
      "k y",
      "1 0",
      "s  ,",
      "ọka mmụta",
      "ta la",
      "ba tara",
      "ị kpa",
      "on g",
      "atụ  ,",
      "00 0",
      "E kwere",
      "wit ter",
      "Ekwere madu",
      "K e",
      "b er",
      "P re",
      "na- eri",
      "ta a .",
      "anwụ ọla",
      "eke le",
      "n họpụta",
      "kọmi sh",
      "omeka ome",
      "w i",
      "s  .",
      "ala  ,",
      "A bu",
      "ụwa  ,",
      "E ze",
      "gi dere",
      "u ju",
      "ou r",
      "mkp arịta",
      "c y",
      "ar u",
      "m pụ",
      "ọrụ  .",
      "ozu gbo",
      "kọmish ọna",
      "e h",
      "j o",
      "na-a bụ",
      "a  ?",
      "ị lụ",
      "na eze",
      "eziokwu  ,",
      "mkp u",
      "1  ,",
      "rụ ọ",
      "kwa sị",
      "nwere ike",
      " )  .",
      "ị kpọ",
      "zị rị",
      "n  ,",
      "i ro",
      "ọka ikpe",
      "ni gwe",
      "ọgụ gụ",
      "ogbu nigwe",
      "i m",
      "w arị",
      "ọha naeze",
      "e do",
      "kwụ rụ",
      "ahụ ike",
      "ga-e nwe",
      "i je",
      " . ”  )",
      "n kị",
      "mme hie",
      "n  .",
      "w er",
      "ihe  ,",
      "we pụtara",
      "me gide",
      "1 4",
      "s si",
      "ọrụ  ,",
      "Jo h",
      "egbu ola",
      "ọdị nihu",
      "ha pụrụ",
      "mi dia",
      "ma ara",
      "ha zi",
      "baịbụl  ,",
      "gh e",
      "i gbu",
      "maka na",
      " )  ,",
      "e wu",
      "ndị igbo",
      "enye la",
      "Chi na",
      "mkpe bi",
      "1 5",
      "ta  .",
      "mma  ,",
      "f ra",
      "i re",
      "mp e",
      "atụ rụ",
      "ịma ta",
      "nọchi te",
      "E me",
      "n kwe",
      "ndị agha",
      "W e",
      "M ar",
      "O ke",
      "ru e",
      "mmadụ  ,",
      "niile  ,",
      "na- arị",
      "ụ jọ",
      "ụlọ ọgwụ",
      "de vid",
      "bịa fra",
      "B e",
      "p h",
      "_ _",
      "na-a mụ",
      "nwa y",
      "achọ ghị",
      "metụ tara",
      "nway ọọ",
      "a ta",
      "sa tọ",
      "ga- anọ",
      "agba ta",
      "N or",
      "na-e nweghị",
      "ama lite",
      "gburu gburu",
      "n gw",
      "gị  ,",
      "ga-e nyere",
      "c tion",
      "satọ de",
      "Z i",
      "S S",
      "S ara",
      "nt er",
      "fe e",
      "ụtọ  .",
      "Ch ris",
      "sh i",
      "m ị",
      "N na",
      "z ara",
      "kwa ghị",
      "du na",
      "R a",
      "ri d",
      "i ru",
      "ụlọ akụ",
      "egwuregwu  ,",
      "ọdị nala",
      "ti us",
      "Le agu",
      "m ọ",
      "na-e gbu",
      "obi  ,",
      "ị gụ",
      "ele kere",
      "S er",
      "la ta",
      "cha pụ",
      "201 7",
      "na-a zụ",
      "fu fe",
      "na ụba",
      "sh a",
      "t ha",
      "ka ta",
      "li c",
      "gị  .",
      "j a .",
      "na bata",
      "nzu zo",
      "La go",
      "ọfụ ma",
      "la ị",
      "O si",
      "na-e bi",
      "na-a tọ",
      "na   \" ",
      "uru  .",
      "Ch ukwu",
      "a kpọrọ",
      "a gwọ",
      "ọgbu gbu",
      "akụ naụba",
      "ka n",
      "abụ rụ",
      "pu tara",
      "ugbu a .",
      "ekwe ntị",
      "P au",
      "tius de",
      "J u",
      "kw o",
      "O r",
      "ị chị",
      "igbo  ,",
      "ọnụ  .",
      "na-a lụ",
      "Wil lie",
      "FC C",
      "nkị tị",
      "p ị",
      "l ere",
      "ri e",
      "na-a kwụ",
      "gbo chi",
      "naịjirịa  ,",
      "ụ da",
      "gụ rụ",
      "wu te",
      "ụmụ nne",
      "ọdọ ụgbọelu",
      "ọgọ st",
      "s onye",
      "na-a nọ",
      "iche iche",
      "abụọ  ,",
      "to r",
      "chi tere",
      "kp ụrụ",
      "agụ mba",
      "n chọpụta",
      "y o",
      "ar d",
      "dị kwa",
      "cha ghị",
      "m fe",
      "i tinye",
      "n nyocha",
      "baka r",
      "i jeri",
      "U ma",
      "we pụ",
      "we ere",
      "U de",
      "P ro",
      "1  )",
      "mba ụwa",
      "mkpe sa",
      "Ada m",
      "oli le",
      "n nọọ",
      "T witter",
      "ma n",
      "zu te",
      "e fu",
      "lo go",
      "bụkwa nụ",
      "mme kọrịta",
      "bri ten",
      "Abu bakar",
      "ogo logo",
      "G u",
      "M e",
      "k  ,",
      "ga- ahụ",
      "u ro",
      "mere  .",
      "gba sa",
      "i di",
      "si tere",
      "chọọ chị",
      "ebo nyi",
      "ọmụ mụ",
      "Pau l",
      "G A",
      "na-a zọ",
      "li ri",
      "ga-e bi",
      "bu tere",
      "atọ  .",
      "201 5",
      "ezu m",
      "E FCC",
      "N A",
      "le ba",
      "o gbe",
      "ndị  )",
      "l ụrụ",
      "th er",
      "Sta te",
      "gw o",
      "ri a",
      "kọ ọ",
      "mer ụrụ",
      "y in",
      "a kwado",
      "f raị",
      "sta te",
      "I he",
      "la tri",
      "fraị de",
      "2 3",
      "G o",
      "nye ere",
      "ti c",
      "na-e nyere",
      "ga-a kpọ",
      "pa pa",
      "kị rị",
      "mma nya",
      "I nter",
      "p i",
      "2  ,",
      "s an",
      "nwụ chi",
      "iche  ,",
      "ọ da",
      "ofesi  ,",
      "Ne w",
      "se net",
      "F u",
      "f a",
      "pụ ọ",
      "ị kwụ",
      "d ebe",
      "ga chara",
      "ọ ṅụ",
      "n kịta",
      "okoro bịa",
      "El -",
      "B o",
      "I ke",
      "ha b",
      "b ra",
      "a wa",
      "m bu",
      "nwa afọ",
      "t on",
      "Z ak",
      "za ky",
      "Zak zaky",
      ". .",
      "A u",
      "1 7",
      "ga be",
      "m bi",
      "y iri",
      "na-e kwe",
      "nu e",
      "m pụtara",
      "dọ la",
      "e bere",
      "  - ",
      "ọ kpara",
      "Sara ki",
      "Mu gabe",
      "na-a ka",
      "gbo o",
      "zu o",
      "kw anyere",
      "gu zo",
      "o fufe",
      "fọ rọ",
      "mụ tara",
      "okwu  .",
      "jehov a .",
      "gbu ola",
      "anwụ chiela",
      "m ọdụ",
      "Lago s",
      "P a",
      "D i",
      "dị  ,",
      "kwa a",
      "i ku",
      "e fe",
      "ọma  ,",
      "ndụ mọdụ",
      "1 8",
      "n'  \"",
      "n rọ",
      "bụ bu",
      "na-a da",
      "ama ta",
      "e nweta",
      "agụ ụ",
      "nka ta",
      "fo to",
      "be nue",
      "Ch a",
      "ụmụ afọ",
      "i fe",
      "e to",
      "zu tere",
      "Afri ca",
      "AP GA",
      "ezum ike",
      "ba ara",
      "a zọ",
      " ?  ”",
      "pu ta",
      "ego si",
      "mme pe",
      "agb ụrụ",
      "ka duna",
      "T a",
      "N o",
      "ị ny",
      "E le",
      "anyị  \"",
      "e so",
      "ga-a kwụ",
      "akwụkwọ  .",
      "a pụta",
      "agh ọ",
      "Ma d",
      "oh u",
      "latri k",
      "Mad rid",
      "B ri",
      "kwa la",
      "m iri",
      "mgbe de",
      "mba  .",
      "oke nye",
      "ama okwu",
      "ndụ  .",
      "ọkụ kọ",
      "e nyo",
      "ị ṅụ",
      "our t",
      "1 3",
      "d an",
      "ị zọ",
      "kwụ ọ",
      "na ra",
      "akụ rụ",
      "na-eme  .",
      "okporo ụzọ",
      "ọkacha mara",
      "nji kere",
      "mkparịta ụka",
      "o wer",
      "R u",
      "o na",
      "A ma",
      "ị ba",
      "ne ti",
      "e nyere",
      "ị nta",
      "na-e tinye",
      "19 9",
      "wo re",
      "ịnta neti",
      "So wore",
      "j ị",
      "V i",
      "ụ tụ",
      "ah ị",
      "pụrụ iche",
      "ị kwụsị",
      "enwe ghi",
      "olile anya",
      "ọda chi",
      "sa a",
      "steeti  ,",
      "agh a .",
      "th e",
      "ọdị da",
      "ị kwalite",
      "na-ekwu chitere",
      "Ihe dio",
      "ọba san",
      "I bra",
      "ọbasan jọ",
      "A S",
      "l d",
      "ji ji",
      "na ta",
      "e se",
      "gu n",
      "bụ zị",
      "i nweta",
      "na-akụ zi",
      "mgb ere",
      "Nw a",
      "T e",
      "G e",
      "chị rị",
      "we ne",
      "ji de",
      "s pe",
      "be ghi",
      "G a",
      "any i",
      "a pụ",
      "na-a cha",
      "arị rị",
      "onye ozi",
      "mer ụ",
      "kwa zie",
      "ị ghọta",
      "na-akụ ziri",
      "na-arị ọ",
      "wene zde",
      "q u",
      "ọ kọ",
      "n chị",
      "ị kụ",
      "na-e de",
      "obi bi",
      "Gh ana",
      "st ra",
      "na-a sụ",
      "n gwụ",
      "e bido",
      "ị chụ",
      "Ibra hi",
      "u p",
      "F A",
      "1 6",
      "s ti",
      "ga-e bu",
      "ọọ la",
      "bo ro",
      "igbo  .",
      "ọ kpọ",
      "I fe",
      "ọka ra",
      "pa se",
      "ọj ị",
      "a ṅụ",
      "osi miri",
      "ahị hịa",
      "ọ k",
      "I s",
      "a gw",
      "sị ga",
      "aka rị",
      "i so",
      "ge n",
      "ezi e",
      "i nyere",
      "m kpọ",
      "o mi",
      "mbụ  .",
      "anwụ rụ",
      "F al",
      "na-a kọwa",
      "ọkacha sị",
      "Nwo su",
      "akụrụ ngwa",
      "ma s",
      "ga ara",
      "na-a kwa",
      "i bi",
      "ndị  \"",
      "ga-a chị",
      "O lu",
      "se na",
      "m gbọ",
      "ar ụrụ",
      "ebu m",
      "na tional",
      "Na tional",
      "mọ nde",
      "T i",
      "U S",
      "W a",
      "4  .",
      "ri ri",
      "bi a",
      "b we",
      "la ni",
      "na-e bo",
      "akwụ sị",
      "na-e to",
      "na-e nyo",
      "ga-a bara",
      "kpe biri",
      "n rụrụ",
      "nkwe kọrịta",
      "Zi mba",
      "Ihedio ha",
      "Ibrahi m",
      "Zimba bwe",
      "A h",
      "b y",
      "ar e",
      "me ere",
      "P la",
      "kụ zi",
      "ra l",
      "ka ra",
      "p ịa",
      "kwuo  ,",
      "na-a jụ",
      "ọkụ  .",
      "e jiri",
      "anambra  ,",
      "gba nwee",
      "Ma du",
      "Pre mi",
      "El- Zakzaky",
      "sena tọ",
      "O N",
      "te la",
      "u bi",
      "mụ ọ",
      "n go",
      "ị cha",
      "nwe tere",
      "ọka fọ",
      "ụfọdụ  ,",
      "asa tara",
      "ọnwụ  .",
      "ọ zụ",
      "ị nya",
      "izu ụka",
      "Na i",
      "Leagu e",
      "ope kata",
      "3 0",
      "na-e ti",
      "u te",
      "u le",
      "E mma",
      "ga-e we",
      "egwu  .",
      "agba ala",
      "ọchịchị  .",
      "ekwe ghị",
      "ga-a kwụsị",
      "na-ele kọta",
      "ma achị",
      "H arc"
    ]
  }
}