{
  "<unk>": 0,
  "<s>": 1,
  "</s>": 2,
  "<pad>": 3,
  "<mask morph>": 4,
  " ": 5,
  "!": 6,
  "\"": 7,
  "#": 8,
  "$": 9,
  "%": 10,
  "&": 11,
  "'": 12,
  "(": 13,
  ")": 14,
  "*": 15,
  ",": 16,
  "-": 17,
  ".": 18,
  "/": 19,
  "0": 20,
  "1": 21,
  "2": 22,
  "3": 23,
  "4": 24,
  "5": 25,
  "6": 26,
  "7": 27,
  "8": 28,
  "9": 29,
  ":": 30,
  ";": 31,
  "<": 32,
  "=": 33,
  ">": 34,
  "?": 35,
  "@": 36,
  "A": 37,
  "B": 38,
  "C": 39,
  "CH": 40,
  "Ch": 41,
  "D": 42,
  "E": 43,
  "F": 44,
  "G": 45,
  "GB": 46,
  "Gb": 47,
  "Gh": 48,
  "Gw": 49,
  "H": 50,
  "I": 51,
  "J": 52,
  "K": 53,
  "KP": 54,
  "Kp": 55,
  "Kw": 56,
  "L": 57,
  "M": 58,
  "N": 59,
  "NW": 60,
  "NY": 61,
  "Nw": 62,
  "Ny": 63,
  "O": 64,
  "P": 65,
  "Q": 66,
  "R": 67,
  "S": 68,
  "SH": 69,
  "Sh": 70,
  "T": 71,
  "U": 72,
  "V": 73,
  "W": 74,
  "X": 75,
  "Y": 76,
  "Z": 77,
  "[": 78,
  "]": 79,
  "^": 80,
  "_": 81,
  "`": 82,
  "a": 83,
  "b": 84,
  "c": 85,
  "ch": 86,
  "d": 87,
  "e": 88,
  "f": 89,
  "g": 90,
  "gb": 91,
  "gh": 92,
  "gw": 93,
  "h": 94,
  "i": 95,
  "j": 96,
  "k": 97,
  "kp": 98,
  "kw": 99,
  "l": 100,
  "m": 101,
  "n": 102,
  "nw": 103,
  "ny": 104,
  "o": 105,
  "p": 106,
  "q": 107,
  "r": 108,
  "s": 109,
  "sh": 110,
  "t": 111,
  "u": 112,
  "v": 113,
  "w": 114,
  "x": 115,
  "y": 116,
  "z": 117,
  "{": 118,
  "|": 119,
  "}": 120,
  "£": 121,
  "®": 122,
  "·": 123,
  "É": 124,
  "Ö": 125,
  "×": 126,
  "à": 127,
  "á": 128,
  "ã": 129,
  "ä": 130,
  "å": 131,
  "æ": 132,
  "ç": 133,
  "è": 134,
  "é": 135,
  "ì": 136,
  "í": 137,
  "ï": 138,
  "ñ": 139,
  "ó": 140,
  "ô": 141,
  "ö": 142,
  "ø": 143,
  "ù": 144,
  "ú": 145,
  "ü": 146,
  "ć": 147,
  "č": 148,
  "ğ": 149,
  "ń": 150,
  "ş": 151,
  "š": 152,
  "ż": 153,
  "ž": 154,
  "̀": 155,
  "́": 156,
  "ׁ": 157,
  "ה": 158,
  "נ": 159,
  "פ": 160,
  "ש": 161,
  "ṅ": 162,
  "ạ": 163,
  "ẹ": 164,
  "Ị": 165,
  "ị": 166,
  "Ọ": 167,
  "ọ": 168,
  "Ụ": 169,
  "ụ": 170,
  "–": 171,
  "—": 172,
  "‘": 173,
  "’": 174,
  "“": 175,
  "”": 176,
  "•": 177,
  "₦": 178,
  "€": 179,
  "■": 180,
  "●": 181,
  "": 182,
  "na": 183,
  "dị": 184,
  "ka": 185,
  "ma": 186,
  " .": 187,
  "n'": 188,
  "bụ": 189,
  " ,": 190,
  "ndị": 191,
  "ke": 192,
  "ra": 193,
  "me": 194,
  "ha": 195,
  "re": 196,
  "na-": 197,
  "ta": 198,
  "nye": 199,
  "ya": 200,
  "ga": 201,
  "la": 202,
  "ri": 203,
  "ih": 204,
  "si": 205,
  "ji": 206,
  "hụ": 207,
  "rụ": 208,
  "ihe": 209,
  "kwu": 210,
  "rị": 211,
  "ru": 212,
  "ba": 213,
  "kwa": 214,
  "any": 215,
  "te": 216,
  "na-a": 217,
  "nke": 218,
  "ahụ": 219,
  "tu": 220,
  "nwe": 221,
  "na-e": 222,
  "gba": 223,
  "onye": 224,
  "ghị": 225,
  "be": 226,
  "tụ": 227,
  "dụ": 228,
  "ti": 229,
  "ga-": 230,
  "le": 231,
  "otu": 232,
  "bi": 233,
  "zi": 234,
  "anyị": 235,
  "sị": 236,
  "pụ": 237,
  "mma": 238,
  "kọ": 239,
  "mụ": 240,
  "chi": 241,
  "che": 242,
  "we": 243,
  "chị": 244,
  " \"": 245,
  "zọ": 246,
  "aka": 247,
  "lọ": 248,
  "rọ": 249,
  "cha": 250,
  "nọ": 251,
  "de": 252,
  "kụ": 253,
  "ne": 254,
  "do": 255,
  "nwa": 256,
  "wa": 257,
  "ụlọ": 258,
  "kwụ": 259,
  "go": 260,
  "fọ": 261,
  "gbu": 262,
  "isi": 263,
  "gha": 264,
  "mmadụ": 265,
  "sa": 266,
  "li": 267,
  "gbe": 268,
  "ebe": 269,
  "ike": 270,
  "nụ": 271,
  "ro": 272,
  "tọ": 273,
  "ni": 274,
  "mgbe": 275,
  "maka": 276,
  "ge": 277,
  "bu": 278,
  "so": 279,
  "ala": 280,
  "ịa": 281,
  "ga-e": 282,
  "gbo": 283,
  "ụmụ": 284,
  "ga-a": 285,
  "gwu": 286,
  "iri": 287,
  "ọrụ": 288,
  "rịa": 289,
  " :": 290,
  "kwe": 291,
  "kpe": 292,
  "ọchị": 293,
  "kpọ": 294,
  "eti": 295,
  "kpa": 296,
  "anya": 297,
  "afọ": 298,
  "mba": 299,
  "bo": 300,
  "okwu": 301,
  "nwụ": 302,
  "da": 303,
  "ọzọ": 304,
  "ste": 305,
  "gị": 306,
  "se": 307,
  "akụ": 308,
  "lu": 309,
  "chọ": 310,
  "gọ": 311,
  "naị": 312,
  "naịji": 313,
  "naịjirịa": 314,
  "kwọ": 315,
  "  \"": 316,
  "obi": 317,
  "zu": 318,
  "gwa": 319,
  "di": 320,
  "akwụ": 321,
  "neke": 322,
  "steeti": 323,
  "chineke": 324,
  "an": 325,
  "akwụkwọ": 326,
  "  \" ": 327,
  "je": 328,
  " ?": 329,
  "ezi": 330,
  "iche": 331,
  "abụ": 332,
  "nu": 333,
  "bịa": 334,
  "ile": 335,
  "oke": 336,
  "nt": 337,
  "oge": 338,
  "niile": 339,
  "gụ": 340,
  "tụtụ": 341,
  " )": 342,
  "va": 343,
  "wu": 344,
  "ku": 345,
  "ya .": 346,
  "abụọ": 347,
  "akụkọ": 348,
  "dịka": 349,
  "ko": 350,
  "mp": 351,
  "sọ": 352,
  "fe": 353,
  "mme": 354,
  "ọtụtụ": 355,
  "“ ": 356,
  "igbo": 357,
  " ”": 358,
  "on": 359,
  "nwaanyị": 360,
  "bodo": 361,
  "pu": 362,
  "bụl": 363,
  "ịbụl": 364,
  "dọ": 365,
  "baịbụl": 366,
  "mi": 367,
  "a .": 368,
  "gbọ": 369,
  "ọnụ": 370,
  "obodo": 371,
  "du": 372,
  "20": 373,
  "egwu": 374,
  "hi": 375,
  "ụwa": 376,
  "ze": 377,
  "ikpe": 378,
  "to": 379,
  "iwu": 380,
  "ụb": 381,
  "ụbọchị": 382,
  "ntị": 383,
  "zụ": 384,
  "lụ": 385,
  "jọ": 386,
  "ho": 387,
  "bọ": 388,
  "jụ": 389,
  "ndụ": 390,
  "ahụ .": 391,
  "ego": 392,
  "zị": 393,
  "ozi": 394,
  "ihi": 395,
  "mana": 396,
  "oji": 397,
  "uwe": 398,
  "uha": 399,
  "ọchịchị": 400,
  "a ,": 401,
  "ụzọ": 402,
  "er": 403,
  "ukwu": 404,
  "ọme": 405,
  "kpụ": 406,
  "gọọme": 407,
  "elu": 408,
  "aha": 409,
  "onyeisi": 410,
  "ojii": 411,
  "onwe": 412,
  "atọ": 413,
  "ya ,": 414,
  "fọdụ": 415,
  "nwoke": 416,
  "ụfọdụ": 417,
  "kpo": 418,
  "sụ": 419,
  "ha .": 420,
  "st": 421,
  "201": 422,
  "ụgbọ": 423,
  "ọka": 424,
  "ọma": 425,
  "ahụ ,": 426,
  "bụla": 427,
  "nso": 428,
  "eze": 429,
  "rịka": 430,
  " . ”": 431,
  "hịa": 432,
  "or": 433,
  "hova": 434,
  "ihu": 435,
  "jehova": 436,
  "agha": 437,
  "uhari": 438,
  "Buhari": 439,
  "gwụ": 440,
  "ọbụla": 441,
  "nna": 442,
  "gi": 443,
  "ọkụ": 444,
  "pa": 445,
  "( ": 446,
  "ugbu": 447,
  "olu": 448,
  "ome": 449,
  "nyo": 450,
  "uru": 451,
  "ma ,": 452,
  "mkpa": 453,
  "ụka": 454,
  "mm": 455,
  "ghọ": 456,
  "nne": 457,
  "el": 458,
  "nwu": 459,
  "ọnwa": 460,
  "ana": 461,
  "ole": 462,
  "nga": 463,
  "ju": 464,
  "ja": 465,
  "nta": 466,
  "asa": 467,
  "zọs": 468,
  "jizọs": 469,
  "gwe": 470,
  "pe": 471,
  "mbụ": 472,
  "mmiri": 473,
  "gọọmentị": 474,
  "lị": 475,
  "yi": 476,
  "vanọ": 477,
  "mpi": 478,
  "gọvanọ": 479,
  "gwọ": 480,
  "bra": 481,
  "Ma": 482,
  " ;": 483,
  "ntụ": 484,
  "ara": 485,
  "nị": 486,
  "maa": 487,
  "gu": 488,
  "Jo": 489,
  "za": 490,
  "aba": 491,
  "ise": 492,
  "mo": 493,
  "ndọ": 494,
  "ahịa": 495,
  "nk": 496,
  "fu": 497,
  "ndọrọ": 498,
  "oko": 499,
  "eziokwu": 500,
  "BB": 501,
  "nyi": 502,
  "he": 503,
  "ce": 504,
  "mu": 505,
  "anụ": 506,
  "tupu": 507,
  "igwe": 508,
  "ọnwụ": 509,
  "BBC": 510,
  "mbra": 511,
  "asọ": 512,
  "lo": 513,
  "nri": 514,
  "anambra": 515,
  "azụ": 516,
  "ntụli": 517,
  "ntụliaka": 518,
  "asọmpi": 519,
  "ọgba": 520,
  "iwe": 521,
  "chụ": 522,
  "atụ": 523,
  "okp": 524,
  "ọgwụ": 525,
  "nsogbu": 526,
  "in": 527,
  "ame": 528,
  "nya": 529,
  "nkwa": 530,
  "bọọ": 531,
  "nche": 532,
  "mgba": 533,
  "nwunye": 534,
  "bọọlụ": 535,
  "regwu": 536,
  "egwuregwu": 537,
  "enu": 538,
  "aghara": 539,
  " .  \" ": 540,
  "ibe": 541,
  "ar": 542,
  "ria": 543,
  "mmụ": 544,
  "họ": 545,
  "etu": 546,
  "ọhụ": 547,
  "ọhụrụ": 548,
  "unu": 549,
  "ọkwa": 550,
  "maazị": 551,
  "th": 552,
  "anị": 553,
  "naanị": 554,
  "su": 555,
  "etiti": 556,
  "enugwu": 557,
  "ezigbo": 558,
  "ngwa": 559,
  "sị :": 560,
  "ama": 561,
  "af": 562,
  "AP": 563,
  "Ni": 564,
  "chukwu": 565,
  "al": 566,
  "ọjọ": 567,
  "ọjọọ": 568,
  "ou": 569,
  "nde": 570,
  "ụtọ": 571,
  "abalị": 572,
  "raị": 573,
  "nti": 574,
  "ghi": 575,
  "sta": 576,
  "Chi": 577,
  "ekpe": 578,
  "bere": 579,
  "kemgbe": 580,
  "2019": 581,
  "goolu": 582,
  "narị": 583,
  "gịnị": 584,
  "ol": 585,
  "ter": 586,
  "ụgwọ": 587,
  "Nige": 588,
  "amerịka": 589,
  "ṅụ": 590,
  "kị": 591,
  "ha ,": 592,
  "gide": 593,
  "zo": 594,
  "mbọ": 595,
  "00": 596,
  "nkeji": 597,
  "nal": 598,
  "afrịka": 599,
  "ọrịa": 600,
  "il": 601,
  "akwa": 602,
  "ọnọ": 603,
  "ọnọdụ": 604,
  "agba": 605,
  "tion": 606,
  "ozu": 607,
  "ụdị": 608,
  "mpaghara": 609,
  "no": 610,
  "nchekwa": 611,
  "ọsọ": 612,
  "nje": 613,
  "vi": 614,
  "ngala": 615,
  "nụlọ": 616,
  "ezinụlọ": 617,
  "Ro": 618,
  "gị :": 619,
  "ki": 620,
  "APC": 621,
  "ngalaba": 622,
  "ng": 623,
  "ugwu": 624,
  "puku": 625,
  "gọọmenti": 626,
  "Da": 627,
  "omeiwu": 628,
  "okpuru": 629,
  "it": 630,
  "ebu": 631,
  "ra ,": 632,
  "19": 633,
  "isii": 634,
  "osi": 635,
  "iko": 636,
  "ekpere": 637,
  "ve": 638,
  "ọdị": 639,
  "ugbo": 640,
  "nkiri": 641,
  "nd": 642,
  "kpụrụ": 643,
  "ụlọikpe": 644,
  "m ,": 645,
  "izu": 646,
  "gharị": 647,
  "imo": 648,
  "uche": 649,
  "m .": 650,
  "nku": 651,
  "ajụ": 652,
  "ụgbọala": 653,
  "nzu": 654,
  "ọgụ": 655,
  "ye": 656,
  "ajụjụ": 657,
  "pụta": 658,
  "asụ": 659,
  "raịst": 660,
  "olee": 661,
  "Re": 662,
  "asụsụ": 663,
  "ver": 664,
  "karị": 665,
  "kraịst": 666,
  "Man": 667,
  "ehi": 668,
  "Su": 669,
  "mmụọ": 670,
  "ada": 671,
  "mume": 672,
  "echi": 673,
  "e .": 674,
  "atụma": 675,
  "atụmatụ": 676,
  "Li": 677,
  "- ": 678,
  "nnu": 679,
  "nsọ": 680,
  "mmemme": 681,
  "asaa": 682,
  "ọba": 683,
  "Mo": 684,
  "Jose": 685,
  "ụkwụ": 686,
  "obere": 687,
  "ngagharị": 688,
  "ano": 689,
  "ru ,": 690,
  "rịọ": 691,
  "e ,": 692,
  "ọzọ .": 693,
  "les": 694,
  "ik": 695,
  "ekwe": 696,
  "mkpụrụ": 697,
  "nka": 698,
  "ụmụaka": 699,
  "anya .": 700,
  "In": 701,
  "re .": 702,
  "enyi": 703,
  "egbe": 704,
  "agụ": 705,
  "ra .": 706,
  "ọgbakọ": 707,
  "La": 708,
  "nala": 709,
  "fụ": 710,
  "beke": 711,
  "asatọ": 712,
  "Hara": 713,
  "Co": 714,
  "Boko": 715,
  "àm": 716,
  "àmà": 717,
  "manụ": 718,
  "Se": 719,
  "Nigeria": 720,
  "of": 721,
  "nwata": 722,
  "kpu": 723,
  "ugboro": 724,
  "nai": 725,
  "DP": 726,
  "ofe": 727,
  "ebubo": 728,
  "anụmanụ": 729,
  "re ,": 730,
  "okpo": 731,
  "njem": 732,
  "ime": 733,
  "ụkọ": 734,
  "ris": 735,
  "po": 736,
  "here": 737,
  "Sa": 738,
  "robịa": 739,
  "ogi": 740,
  "nkuzi": 741,
  "Pe": 742,
  "nnukwu": 743,
  "Uni": 744,
  "ntaakụkọ": 745,
  "PDP": 746,
  "Haram": 747,
  "ca": 748,
  "Na": 749,
  "per": 750,
  "ito": 751,
  "ta .": 752,
  "kama": 753,
  "Le": 754,
  "hu": 755,
  "udo": 756,
  "ọkpụ": 757,
  "aka .": 758,
  "Josef": 759,
  "ikike": 760,
  "eke": 761,
  "abịa": 762,
  "ọcha": 763,
  "ori": 764,
  "anyanwụ": 765,
  "pati": 766,
  "ran": 767,
  "naira": 768,
  "gọs": 769,
  "dum": 770,
  "naịjirịa .": 771,
  "legọs": 772,
  "njọ": 773,
  "tị": 774,
  "okporo": 775,
  "ohere": 776,
  "rịta": 777,
  "mkpọ": 778,
  "ogo": 779,
  "wo": 780,
  "ndịàmà": 781,
  "kanu": 782,
  "Fa": 783,
  "ndọrọndọrọ": 784,
  "hie": 785,
  "akpa": 786,
  "Muha": 787,
  "karịa": 788,
  " !": 789,
  "mkpe": 790,
  "itoolu": 791,
  "abu": 792,
  "Al": 793,
  "bekee": 794,
  "mmanụ": 795,
  "OB": 796,
  "ahụhụ": 797,
  "us": 798,
  "IP": 799,
  "Muhamma": 800,
  "EC": 801,
  "ike .": 802,
  "en": 803,
  "ụkọchukwu": 804,
  "steeti .": 805,
  "oche": 806,
  "mmeri": 807,
  "rị :": 808,
  "a :": 809,
  "Ea": 810,
  "ofesi": 811,
  "Muhammadu": 812,
  "ry": 813,
  "mini": 814,
  " . \"": 815,
  "IPOB": 816,
  "ije": 817,
  "Mu": 818,
  "saụ": 819,
  "mdi": 820,
  "Pa": 821,
  "ru .": 822,
  "niile .": 823,
  "maha": 824,
  "ugo": 825,
  "pọ": 826,
  "mma .": 827,
  "ster": 828,
  "ochi": 829,
  "Ati": 830,
  "ụtụtụ": 831,
  "Atiku": 832,
  "ogige": 833,
  "rel": 834,
  "onal": 835,
  "ikpeazụ": 836,
  "anya ,": 837,
  "ọdụ": 838,
  "okpu": 839,
  "amụ": 840,
  "Ba": 841,
  "ụba": 842,
  "nkwado": 843,
  "nzukọ": 844,
  "nkị": 845,
  "ci": 846,
  "nto": 847,
  "ọha": 848,
  "oso": 849,
  "osisi": 850,
  "Super": 851,
  "ọzọ ,": 852,
  "am": 853,
  "uso": 854,
  "rt": 855,
  "mmụta": 856,
  "fi": 857,
  "osote": 858,
  "co": 859,
  "kere": 860,
  "mgbasa": 861,
  "ga ,": 862,
  "Ada": 863,
  "ck": 864,
  "ga .": 865,
  "nji": 866,
  "mahadum": 867,
  "anyị .": 868,
  "saụt": 869,
  "mkpọrọ": 870,
  "minista": 871,
  "ted": 872,
  "shịa": 873,
  "pị": 874,
  "Tru": 875,
  "Ka": 876,
  "obiano": 877,
  "ọtọ": 878,
  "dia": 879,
  "Oko": 880,
  "dọkị": 881,
  "aja": 882,
  "So": 883,
  "omenala": 884,
  "oku": 885,
  "nda": 886,
  "eluigwe": 887,
  "ele": 888,
  "bụ ,": 889,
  "amụma": 890,
  "ajọ": 891,
  "shọ": 892,
  "gburu": 893,
  "Bi": 894,
  "ọdọ": 895,
  "me .": 896,
  "dọkịta": 897,
  "kọmi": 898,
  "illi": 899,
  "ọma .": 900,
  "okwukwe": 901,
  "Ar": 902,
  "wụ": 903,
  "ur": 904,
  "ntorobịa": 905,
  "gbụ": 906,
  "anyị ,": 907,
  "ty": 908,
  "IN": 909,
  "op": 910,
  "Eag": 911,
  "ọhịa": 912,
  "INEC": 913,
  "fo": 914,
  "Trump": 915,
  "FC": 916,
  "vid": 917,
  "ike ,": 918,
  "  \" . \"": 919,
  "United": 920,
  "omume": 921,
  "Ne": 922,
  "usoro": 923,
  "rocha": 924,
  "lite": 925,
  "ity": 926,
  "baịbụl .": 927,
  "De": 928,
  " \" \"": 929,
  "akara": 930,
  "Af": 931,
  "Ade": 932,
  "ihe .": 933,
  "land": 934,
  "Eagles": 935,
  "ten": 936,
  "Mi": 937,
  "nnamdi": 938,
  "mị": 939,
  "echiche": 940,
  "vo": 941,
  "tan": 942,
  "rụ .": 943,
  "ment": 944,
  "baka": 945,
  "Willi": 946,
  "sị ,": 947,
  "nnọ": 948,
  "iz": 949,
  "Ri": 950,
  "ụlọụka": 951,
  "ọgọ": 952,
  "obi .": 953,
  "akụkụ": 954,
  "Obi": 955,
  "lik": 956,
  "kedụ": 957,
  "chineke ,": 958,
  "od": 959,
  "o ,": 960,
  "ọw": 961,
  "yọ": 962,
  "ọwụwa": 963,
  "dio": 964,
  "pt": 965,
  "jị": 966,
  "else": 967,
  "ede": 968,
  "ọfụ": 969,
  "pọl": 970,
  "mara": 971,
  "ghe": 972,
  "con": 973,
  "ọkacha": 974,
  "ta ,": 975,
  "Chelse": 976,
  "ọgbọ": 977,
  "ohi": 978,
  "ah": 979,
  "City": 980,
  "tọlik": 981,
  "kọrịta": 982,
  "katọlik": 983,
  "izrel": 984,
  "son": 985,
  "enye": 986,
  "chineke .": 987,
  "Ca": 988,
  "onyi": 989,
  "iyi": 990,
  "emume": 991,
  "ss": 992,
  "ochie": 993,
  "ụnya": 994,
  "nihu": 995,
  "ine": 996,
  "ide": 997,
  "abuja": 998,
  "a ?": 999,
  "tional": 1000,
  "pool": 1001,
  "ir": 1002,
  "eziokwu .": 1003,
  "enyemaka": 1004,
  "Moha": 1005,
  "verpool": 1006,
  "oriri": 1007,
  "Liverpool": 1008,
  "200": 1009,
  "shịal": 1010,
  "ssi": 1011,
  "iji": 1012,
  "Me": 1013,
  "soshịal": 1014,
  "fada": 1015,
  "akị": 1016,
  "To": 1017,
  "Sou": 1018,
  "ogbu": 1019,
  "ụgbọelu": 1020,
  "ọla": 1021,
  "zde": 1022,
  "oyi": 1023,
  "ntu": 1024,
  "chu": 1025,
  "Afri": 1026,
  "ul": 1027,
  "' .": 1028,
  "ọkaiwu": 1029,
  "onyinye": 1030,
  "oli": 1031,
  "agu": 1032,
  "Chelsea": 1033,
  "ọmụ": 1034,
  "tri": 1035,
  "okpukpe": 1036,
  "isi .": 1037,
  "and": 1038,
  "onyo": 1039,
  "ntọ": 1040,
  "mmadụ .": 1041,
  "iche .": 1042,
  "ala .": 1043,
  "2019 .": 1044,
  " \" \" ": 1045,
  "ọgbaaghara": 1046,
  "onyonyo": 1047,
  "net": 1048,
  "akpụ": 1049,
  "ham": 1050,
  "ọ \"": 1051,
  "ume": 1052,
  "chester": 1053,
  "Manchester": 1054,
  "wit": 1055,
  "nwanne": 1056,
  "mmed": 1057,
  "godị": 1058,
  "eji": 1059,
  "aka ,": 1060,
  "ụwa .": 1061,
  "ụlọakwụkwọ": 1062,
  "ort": 1063,
  "mama": 1064,
  "madu": 1065,
  "agwa": 1066,
  "South": 1067,
  "Eme": 1068,
  "bri": 1069,
  "Sta": 1070,
  "2018": 1071,
  "ode": 1072,
  "n ,": 1073,
  "abụọ .": 1074,
  "okorocha": 1075,
  "eme": 1076,
  "Ja": 1077,
  "rọ  \" ": 1078,
  "la .": 1079,
  "Nwo": 1080,
  "El": 1081,
  "ọnị": 1082,
  "ọnịcha": 1083,
  "vootu": 1084,
  "nyụ": 1085,
  "mbere": 1086,
  "chas": 1087,
  "Rochas": 1088,
  "ite": 1089,
  "for": 1090,
  "arc": 1091,
  "ọchịehi": 1092,
  "ya ?": 1093,
  "ral": 1094,
  "ia": 1095,
  "agbọ": 1096,
  "Arse": 1097,
  "omeka": 1098,
  "n .": 1099,
  "mberede": 1100,
  "agbọghọ": 1101,
  "Arsenal": 1102,
  "Aba": 1103,
  "ọgbu": 1104,
  "akịrịka": 1105,
  "Mohammed": 1106,
  "Ekwe": 1107,
  "“ ọ": 1108,
  "rụ ,": 1109,
  "mbi": 1110,
  "ijipt": 1111,
  "Peter": 1112,
  "wi": 1113,
  "setan": 1114,
  "juu": 1115,
  "anọ": 1116,
  "' ,": 1117,
  "kwado": 1118,
  "ok": 1119,
  "o .": 1120,
  "nhọ": 1121,
  "ky": 1122,
  "ing": 1123,
  "ala ,": 1124,
  "10": 1125,
  "witter": 1126,
  "remadu": 1127,
  "Ke": 1128,
  "Ekweremadu": 1129,
  "000": 1130,
  "ọkammụta": 1131,
  "taa .": 1132,
  "s .": 1133,
  "omekaome": 1134,
  "nhọpụta": 1135,
  "kọmishọ": 1136,
  "atụ ,": 1137,
  "asị": 1138,
  "Pre": 1139,
  "ọrụ .": 1140,
  "uju": 1141,
  "Eze": 1142,
  "Abu": 1143,
  "ụwa ,": 1144,
  "s ,": 1145,
  "ozugbo": 1146,
  "kọmishọna": 1147,
  "im": 1148,
  "cy": 1149,
  "Bo": 1150,
  "ọbara": 1151,
  "ong": 1152,
  "naeze": 1153,
  "mkpu": 1154,
  "kele": 1155,
  "jo": 1156,
  "eziokwu ,": 1157,
  "ope": 1158,
  "ly": 1159,
  "1 ,": 1160,
  " ) .": 1161,
  "ọrụ ,": 1162,
  "ọkaikpe": 1163,
  "ọgụgụ": 1164,
  "ọ ,": 1165,
  "ogbuni": 1166,
  "ogbunigwe": 1167,
  "nle": 1168,
  "ọhanaeze": 1169,
  "iro": 1170,
  "She": 1171,
  "mpe": 1172,
  "mpụ": 1173,
  "bonyi": 1174,
  "Za": 1175,
  "We": 1176,
  " . ” )": 1177,
  "ọkpa": 1178,
  "ihe ,": 1179,
  "alụ": 1180,
  "ọdịnihu": 1181,
  "warị": 1182,
  "Joh": 1183,
  "Cha": 1184,
  "Bu": 1185,
  "14": 1186,
  "nyocha": 1187,
  "gwo": 1188,
  "ekele": 1189,
  "Ra": 1190,
  "baịbụl ,": 1191,
  "nchọ": 1192,
  "mkpebi": 1193,
  "China": 1194,
  " ) ,": 1195,
  "ọ .": 1196,
  "mma ,": 1197,
  "midia": 1198,
  "15": 1199,
  "ụlọọgwụ": 1200,
  "ụjọ": 1201,
  "niile ,": 1202,
  "nkwe": 1203,
  "mmadụ ,": 1204,
  "devid": 1205,
  "bịaf": 1206,
  "Oke": 1207,
  "Ge": 1208,
  "Be": 1209,
  "nwayọ": 1210,
  "__": 1211,
  "satọ": 1212,
  "Nor": 1213,
  "ụda": 1214,
  "satọde": 1215,
  "gị ,": 1216,
  "ction": 1217,
  "bi .": 1218,
  "arị": 1219,
  "ụtọ .": 1220,
  "shi": 1221,
  "malite": 1222,
  "ghị .": 1223,
  "ezu": 1224,
  "Sara": 1225,
  "SS": 1226,
  "Ha": 1227,
  "Chris": 1228,
  "sha": 1229,
  "duna": 1230,
  "bịa .": 1231,
  "ahị": 1232,
  "Nna": 1233,
  "ụlọakụ": 1234,
  "ọdịnala": 1235,
  "tius": 1236,
  "mọ": 1237,
  "egwuregwu ,": 1238,
  "Leagu": 1239,
  "obi ,": 1240,
  "dị ,": 1241,
  "laị": 1242,
  "elekere": 1243,
  "2017": 1244,
  "ọfụma": 1245,
  "ri .": 1246,
  "ph": 1247,
  "nzuzo": 1248,
  "na  \" ": 1249,
  "ja .": 1250,
  "gị .": 1251,
  "fufe": 1252,
  "fa": 1253,
  "Osi": 1254,
  "Mar": 1255,
  "Lago": 1256,
  "ọgbugbu": 1257,
  "tha": 1258,
  "Chukwu": 1259,
  "wer": 1260,
  "tiusde": 1261,
  "rị .": 1262,
  "kan": 1263,
  "ekwentị": 1264,
  "Zi": 1265,
  "ọnụ .": 1266,
  "nkịtị": 1267,
  "igbo ,": 1268,
  "Willie": 1269,
  "FCC": 1270,
  "ụmụnne": 1271,
  "ụgha": 1272,
  "ọgọst": 1273,
  "naịjirịa ,": 1274,
  "can": 1275,
  "Bri": 1276,
  "tor": 1277,
  "nchọpụta": 1278,
  "man": 1279,
  "icheiche": 1280,
  "ewu": 1281,
  "agụmba": 1282,
  "abụọ ,": 1283,
  "Ihe": 1284,
  "Fran": 1285,
  "nnyocha": 1286,
  "ijeri": 1287,
  "bia": 1288,
  "bakar": 1289,
  "Or": 1290,
  "Di": 1291,
  "pụrụ": 1292,
  "olile": 1293,
  "nrụ": 1294,
  "mkpesa": 1295,
  "mfe": 1296,
  "Uma": 1297,
  "Ude": 1298,
  "Twitter": 1299,
  "Pro": 1300,
  "Je": 1301,
  "Adam": 1302,
  "1 )": 1303,
  "uru .": 1304,
  "ogolo": 1305,
  "ogologo": 1306,
  "briten": 1307,
  "Paul": 1308,
  "Ju": 1309,
  "Gu": 1310,
  "Abubakar": 1311,
  "ọmụmụ": 1312,
  "uro": 1313,
  "mmehie": 1314,
  "kọta": 1315,
  "isiokwu": 1316,
  "gbi": 1317,
  "ebonyi": 1318,
  "dị .": 1319,
  "chọọchị": 1320,
  "trik": 1321,
  "rọ .": 1322,
  "nnọọ": 1323,
  "kwo": 1324,
  "ezum": 1325,
  "atọ .": 1326,
  "GA": 1327,
  "EFCC": 1328,
  "2015": 1329,
  "ogbe": 1330,
  "ndị )": 1331,
  "State": 1332,
  "NA": 1333,
  "ther": 1334,
  "state": 1335,
  "raịde": 1336,
  "ngo": 1337,
  "latrik": 1338,
  "fraịde": 1339,
  "Go": 1340,
  "ọga": 1341,
  "papa": 1342,
  "mmanya": 1343,
  "Nigeri": 1344,
  "Inter": 1345,
  "Ab": 1346,
  "23": 1347,
  "senet": 1348,
  "ofesi ,": 1349,
  "nyị": 1350,
  "nwayọọ": 1351,
  "iche ,": 1352,
  "dri": 1353,
  "atụrụ": 1354,
  "New": 1355,
  "2 ,": 1356,
  "okorobịa": 1357,
  "meri": 1358,
  "gbidi": 1359,
  "El-": 1360,
  "“ a": 1361,
  "ọṅụ": 1362,
  "zaky": 1363,
  "pi": 1364,
  "nwaafọ": 1365,
  "mgbọ": 1366,
  "mbe": 1367,
  "kzaky": 1368,
  "hab": 1369,
  "Zakzaky": 1370,
  "Ike": 1371,
  "Fe": 1372,
  "yo": 1373,
  "nue": 1374,
  "gabe": 1375,
  "agbụ": 1376,
  "Saraki": 1377,
  "Mugabe": 1378,
  "Ga": 1379,
  "Au": 1380,
  "17": 1381,
  "..": 1382,
  " - ": 1383,
  "ọda": 1384,
  "taa": 1385,
  "ton": 1386,
  "rịtaụka": 1387,
  "rị ,": 1388,
  "ofufe": 1389,
  "okwu .": 1390,
  "nwụ .": 1391,
  "nsị": 1392,
  "mọdụ": 1393,
  "Ta": 1394,
  "Lagos": 1395,
  "ọma ,": 1396,
  "ndụmọdụ": 1397,
  "akwụkwọ .": 1398,
  "the": 1399,
  "ration": 1400,
  "n' \"": 1401,
  "foto": 1402,
  "efu": 1403,
  "bịafra": 1404,
  "benue": 1405,
  "agụụ": 1406,
  "18": 1407,
  "ụra": 1408,
  "tic": 1409,
  "nia": 1410,
  "mmekọrịta": 1411,
  "ezumike": 1412,
  "Africa": 1413,
  "APGA": 1414,
  "ọkpara": 1415,
  "mmepe": 1416,
  "kaduna": 1417,
  "He": 1418,
  "Fu": 1419,
  "ribe": 1420,
  "jehova .": 1421,
  "drid": 1422,
  "anyị \"": 1423,
  "Madrid": 1424,
  "Ele": 1425,
  " ? ”": 1426,
  "ọkụkọ": 1427,
  "rs": 1428,
  "ourt": 1429,
  "okenye": 1430,
  "ndụ .": 1431,
  "mgbede": 1432,
  "mba .": 1433,
  "iru": 1434,
  "dọla": 1435,
  "ower": 1436,
  "njikere": 1437,
  "au": 1438,
  "anwụ": 1439,
  "No": 1440,
  "13": 1441,
  "ọkachamara": 1442,
  "ọkpọ": 1443,
  "ịnta": 1444,
  "ịntane": 1445,
  "ịntaneti": 1446,
  "ohu": 1447,
  "igbo .": 1448,
  "Sowo": 1449,
  "Ru": 1450,
  "Ama": 1451,
  "199": 1452,
  "ọdachi": 1453,
  "olileanya": 1454,
  "nkata": 1455,
  "me ,": 1456,
  "ife": 1457,
  "Wa": 1458,
  "Te": 1459,
  "ụtụ": 1460,
  "ọdịda": 1461,
  "ọbasa": 1462,
  "ọbasanjọ": 1463,
  "ọkọ": 1464,
  "steeti ,": 1465,
  "miri": 1466,
  "mbu": 1467,
  "ld": 1468,
  "kịrị": 1469,
  "Ihedio": 1470,
  "Ibra": 1471,
  "spe": 1472,
  "nwaanyị .": 1473,
  "jiji": 1474,
  "edo": 1475,
  "Vi": 1476,
  "AS": 1477,
  "wene": 1478,
  "gun": 1479,
  "agbụrụ": 1480,
  "wenezde": 1481,
  "omi": 1482,
  "k ,": 1483,
  "gburugburu": 1484,
  "anyi": 1485,
  "sị .": 1486,
  "ri ,": 1487,
  "qu": 1488,
  "nrọ": 1489,
  "ngwụ": 1490,
  "late": 1491,
  "lla": 1492,
  "agha .": 1493,
  "Ibrahi": 1494,
  "Ghana": 1495,
  "up": 1496,
  "pase": 1497,
  "osimiri": 1498,
  "na ,": 1499,
  "mgbere": 1500,
  "bi ,": 1501,
  "ahịhịa": 1502,
  "Sowore": 1503,
  "Ife": 1504,
  "FA": 1505,
  "16": 1506,
  "ọk": 1507,
  "ọjị": 1508,
  "rụngwa": 1509,
  "mbụ .": 1510,
  "akụrụngwa": 1511,
  "ad": 1512,
  "Ti": 1513,
  "Nwosu": 1514,
  "Is": 1515,
  "Fal": 1516,
  "ụbụ": 1517,
  "ọkachasị": 1518,
  "sena": 1519,
  "s :": 1520,
  "pụrụiche": 1521,
  "nkịta": 1522,
  "ndị \"": 1523,
  "national": 1524,
  "ndo": 1525,
  "mọnde": 1526,
  "mas": 1527,
  "kwa ,": 1528,
  "guzo": 1529,
  "Olu": 1530,
  "National": 1531,
  "“ onye": 1532,
  "ịnyị": 1533,
  "nrụrụ": 1534,
  "mbab": 1535,
  "mbabwe": 1536,
  "lani": 1537,
  "elo": 1538,
  "Zimbabwe": 1539,
  "US": 1540,
  "Ihedioha": 1541,
  "Ibrahim": 1542,
  "4 .": 1543,
  "ọkụ .": 1544,
  "zie": 1545,
  "ute": 1546,
  "senatọ": 1547,
  "rom": 1548,
  "mkparịtaụka": 1549,
  "by": 1550,
  "anambra ,": 1551,
  "arụ": 1552,
  "Premi": 1553,
  "Madu": 1554,
  "El-Zakzaky": 1555,
  "Ah": 1556,
  "ụfọdụ ,": 1557,
  "ọnwụ .": 1558,
  "ọkafọ": 1559,
  "ọzụ": 1560,
  "ule": 1561,
  "toba": 1562,
  "izuụka": 1563,
  "gen": 1564,
  "ON": 1565,
  "Nai": 1566,
  "League": 1567,
  "ụta": 1568,
  "ọchịchị .": 1569,
  "maachị": 1570,
  "lic": 1571,
  "kata": 1572,
  "egwu .": 1573,
  "arcourt": 1574,
  "achị": 1575,
  "Port": 1576,
  "International": 1577,
  "Harcourt": 1578,
  "Emma": 1579,
  "30": 1580,
  "  \" ọ \"": 1581,
  "ọktoba": 1582,
  "tọzde": 1583,
  "bụ  \" ": 1584,
  "Ale": 1585,
  "12": 1586,
  "taa ,": 1587,
  "sti": 1588,
  "ssa": 1589,
  "otu .": 1590,
  "otu ,": 1591,
  "oriakụ": 1592,
  "nchị": 1593,
  "nba": 1594,
  "mita": 1595,
  "chite": 1596,
  "cho": 1597,
  "bị": 1598,
  "Premier": 1599,
  "Jona": 1600,
  "Comm": 1601,
  "ụnyaahụ": 1602,
  "stra": 1603,
  "nkwekọrịta": 1604,
  "kiri": 1605,
  "gboro": 1606,
  "Falcon": 1607,
  "Bra": 1608,
  "ọzụzụ": 1609,
  "ya . ”": 1610,
  "nturu": 1611,
  "ncheta": 1612,
  "ndi": 1613,
  "med": 1614,
  "la ,": 1615,
  "ise .": 1616,
  "afọ .": 1617,
  "Osinba": 1618,
  "Onye": 1619,
  "Mbaka": 1620,
  "1 .": 1621,
  "ụma": 1622,
  "ọkara": 1623,
  "ka \"": 1624,
  "ihe \"": 1625,
  "ctor": 1626,
  "atọ ,": 1627,
  "Nwa": 1628,
  "Bro": 1629,
  "Alex": 1630,
  "ịnyịnya": 1631,
  "rama": 1632,
  "rd": 1633,
  "na \"": 1634,
  "mpion": 1635,
  "mkpamkpa": 1636,
  "kuku": 1637,
  "achịcha": 1638,
  "Yo": 1639,
  "John": 1640,
  "Face": 1641,
  "Emeka": 1642,
  "David": 1643,
  "Air": 1644,
  "2016": 1645,
  "ọgwụgwụ": 1646,
  "te ,": 1647,
  "obodo .": 1648,
  "nnewi": 1649,
  "mgbanwe": 1650,
  "isi ,": 1651,
  "efe": 1652,
  "amero": 1653,
  "agbidi": 1654,
  "William": 1655,
  "Wor": 1656,
  "MA": 1657,
  "Ko": 1658,
  "Jonatha": 1659,
  "Camero": 1660,
  "ọbụla .": 1661,
  "re :": 1662,
  "niel": 1663,
  "nha": 1664,
  "mgbo": 1665,
  "idemmiri": 1666,
  "ikuku": 1667,
  "ego .": 1668,
  "ekwu": 1669,
  "agụma": 1670,
  "adị": 1671,
  "Mba": 1672,
  "DSS": 1673,
  "Con": 1674,
  "Bor": 1675,
  "Ana": 1676,
  "o \"": 1677,
  "mmi": 1678,
  "ebere": 1679,
  "bert": 1680,
  "alth": 1681,
  "St": 1682,
  "Fulani": 1683,
  "Abdu": 1684,
  "Ai": 1685,
  " , \"": 1686,
  "ren": 1687,
  "obibi": 1688,
  "kwu .": 1689,
  "kansa": 1690,
  "julaị": 1691,
  "eh": 1692,
  "bụ .": 1693,
  "Riva": 1694,
  "Osinbajo": 1695,
  "Naija": 1696,
  "Ger": 1697,
  "Fede": 1698,
  "Euro": 1699,
  "Champion": 1700,
  "Abaribe": 1701,
  "Adi": 1702,
  "“ ndị": 1703,
  "ves": 1704,
  "ngwụcha": 1705,
  "nzụ": 1706,
  "mmasị": 1707,
  "kọmiti": 1708,
  "ime .": 1709,
  "bre": 1710,
  "Timo": 1711,
  "Do": 1712,
  "Del": 1713,
  "ubi": 1714,
  "rie": 1715,
  "pte": 1716,
  "opekata": 1717,
  "okwu ,": 1718,
  "nsogbu .": 1719,
  "ndị ,": 1720,
  "nkọ": 1721,
  "ghụ": 1722,
  "anwụrụ": 1723,
  "Ut": 1724,
  "Falcons": 1725,
  "Barc": 1726,
  "Ara": 1727,
  "2 )": 1728,
  "ụnyaahụ .": 1729,
  "ụbụrụ": 1730,
  "tti": 1731,
  "saye": 1732,
  "pan": 1733,
  "nke \"": 1734,
  "nchịkọta": 1735,
  "nsu": 1736,
  "mbụ ,": 1737,
  "hoo": 1738,
  "ejije": 1739,
  "aga": 1740,
  "Umu": 1741,
  "Jonathan": 1742,
  "Igbo": 1743,
  "Eng": 1744,
  "Barcelo": 1745,
  "Ben": 1746,
  "“ ihe": 1747,
  "ukwu .": 1748,
  "pita": 1749,
  "onald": 1750,
  "odeakwụkwọ": 1751,
  "nzụkọ": 1752,
  "mpu": 1753,
  "mgbakọ": 1754,
  "lateau": 1755,
  "bishọ": 1756,
  "West": 1757,
  "Plateau": 1758,
  "North": 1759,
  "Donald": 1760,
  "3 ,": 1761,
  "“ m": 1762,
  "ọjọọ .": 1763,
  "ọgwụgwọ": 1764,
  "ọbụladị": 1765,
  "wa ,": 1766,
  "taa :": 1767,
  "sia": 1768,
  "rọ ,": 1769,
  "ondo": 1770,
  "inọ": 1771,
  "ghị ,": 1772,
  "gbata": 1773,
  "gra": 1774,
  "chafụ": 1775,
  "car": 1776,
  "anu": 1777,
  "Ye": 1778,
  "World": 1779,
  "Umahi": 1780,
  "The": 1781,
  "Iv": 1782,
  "France": 1783,
  "Cameroon": 1784,
  "“ n'": 1785,
  "yin": 1786,
  "septe": 1787,
  "mbodo": 1788,
  "gboo": 1789,
  "ehihi": 1790,
  "echichi": 1791,
  "asambodo": 1792,
  "Utd": 1793,
  "Ser": 1794,
  "Robert": 1795,
  "Ce": 1796,
  "Barcelona": 1797,
  "Bay": 1798,
  "2 .": 1799,
  "ọna": 1800,
  "tara": 1801,
  "opekatampe": 1802,
  "nọ .": 1803,
  "ll": 1804,
  "kraịst ,": 1805,
  "kama ,": 1806,
  "akwụkwọ ,": 1807,
  "Shi": 1808,
  "Rivas": 1809,
  "Oba": 1810,
  "Londo": 1811,
  "IM": 1812,
  "Gra": 1813,
  "Aisha": 1814,
  "25": 1815,
  "100": 1816,
  "  \" a": 1817,
  "ọnụ ,": 1818,
  "ịchafụ": 1819,
  "thi": 1820,
  "sho": 1821,
  "sayensị": 1822,
  "ogbenye": 1823,
  "nghọ": 1824,
  "ncha": 1825,
  "mbido": 1826,
  "kwụkwọ": 1827,
  "agụmakwụkwọ": 1828,
  "UK": 1829,
  "Fo": 1830,
  "yinbo": 1831,
  "toyinbo": 1832,
  "tten": 1833,
  "nson": 1834,
  "manị": 1835,
  "jamanị": 1836,
  "ja ,": 1837,
  "inọk": 1838,
  "cu": 1839,
  "cra": 1840,
  "ber": 1841,
  "amerịka .": 1842,
  "adịgboro": 1843,
  "Tu": 1844,
  "Ibi": 1845,
  "Hu": 1846,
  "Christi": 1847,
  "ụzọ ,": 1848,
  "tum": 1849,
  "ssion": 1850,
  "rimara": 1851,
  "mkpa .": 1852,
  "min": 1853,
  "mgbochi": 1854,
  "mwu": 1855,
  "ley": 1856,
  "afrịka .": 1857,
  "____": 1858,
  "Totten": 1859,
  "Real": 1860,
  "Niger": 1861,
  "Daniel": 1862,
  "AFC": 1863,
  "2019 :": 1864,
  "ọnụọgụgụ": 1865,
  "ịhụ": 1866,
  "ịhụna": 1867,
  "oge ,": 1868,
  "oma": 1869,
  "nuel": 1870,
  "nturuugo": 1871,
  "nri ,": 1872,
  "ndịda": 1873,
  "ndu": 1874,
  "mbịa": 1875,
  "jizọs ,": 1876,
  "ghụghọ": 1877,
  "ese": 1878,
  "ep": 1879,
  "dike": 1880,
  "chie": 1881,
  "book": 1882,
  "biko": 1883,
  "Shehu": 1884,
  "Facebook": 1885,
  "Fatoyinbo": 1886,
  "Delta": 1887,
  "Demo": 1888,
  "Commi": 1889,
  "AFCON": 1890,
  "Abi": 1891,
  "6 ,": 1892,
  "2019 ,": 1893,
  "28": 1894,
  "ụmụnna": 1895,
  "vs": 1896,
  "pp": 1897,
  "osika": 1898,
  "nkụ": 1899,
  "ina": 1900,
  "gri": 1901,
  "ekpere ,": 1902,
  "egwu ,": 1903,
  "der": 1904,
  "arịrịọ": 1905,
  "aghụghọ": 1906,
  "Timoti": 1907,
  "Lu": 1908,
  " .  \" ọ \"": 1909,
  "ụzọ .": 1910,
  "ịdị": 1911,
  "si ,": 1912,
  "nwaada": 1913,
  "njirimara": 1914,
  "kra": 1915,
  "gal": 1916,
  "amadi": 1917,
  "agha ,": 1918,
  "Sam": 1919,
  "Nigerian": 1920,
  "AC": 1921,
  "4 )": 1922,
  "ụdịrị": 1923,
  "ụbọchị ,": 1924,
  "ọlaedo": 1925,
  "muel": 1926,
  "mmalite": 1927,
  "mba ,": 1928,
  "lia": 1929,
  "kola": 1930,
  "elu .": 1931,
  "dan": 1932,
  "Tottenham": 1933,
  "Samuel": 1934,
  "Peop": 1935,
  "Ebre": 1936,
  "Agu": 1937,
  "( n": 1938,
  "ọkụ ,": 1939,
  "ọhụrụ .": 1940,
  "zịza": 1941,
  "z .": 1942,
  "sịga": 1943,
  "sina": 1944,
  "rena": 1945,
  "nọve": 1946,
  "nrụrụaka": 1947,
  "mwute": 1948,
  "lement": 1949,
  "jizọs .": 1950,
  "jehova ,": 1951,
  "ise ,": 1952,
  "ekwensu": 1953,
  "chi ,": 1954,
  "bịa ,": 1955,
  "ama .": 1956,
  "are": 1957,
  "Ste": 1958,
  "Si": 1959,
  "Japan": 1960,
  "Emmanuel": 1961,
  "Election": 1962,
  "Dan": 1963,
  "Champions": 1964,
  "Ahmed": 1965,
  "AN": 1966,
  "ọnatara": 1967,
  "ọdịmma": 1968,
  "ress": 1969,
  "rea": 1970,
  "para": 1971,
  "onyeàmà": 1972,
  "okwute": 1973,
  "odo": 1974,
  "nkume": 1975,
  "juun": 1976,
  "cia": 1977,
  "bishọp": 1978,
  "arịrị": 1979,
  "ahụ ?": 1980,
  "Okon": 1981,
  "Ola": 1982,
  "Ifeanyi": 1983,
  "Brother": 1984,
  "African": 1985,
  "3 .": 1986,
  "ụtọ ,": 1987,
  "ụlọ ,": 1988,
  "ọnatarachi": 1989,
  "wa .": 1990,
  "re ?": 1991,
  "okiri": 1992,
  "ose": 1993,
  "nụwarị": 1994,
  "nụ .": 1995,
  "nọ ,": 1996,
  "noa": 1997,
  "kana": 1998,
  "gwon": 1999
}