{
  "<unk>": 0,
  "<s>": 1,
  "</s>": 2,
  "<pad>": 3,
  "<mask morph>": 4,
  "!": 5,
  "\"": 6,
  "#": 7,
  "$": 8,
  "%": 9,
  "&": 10,
  "'": 11,
  "(": 12,
  ")": 13,
  "*": 14,
  ",": 15,
  "-": 16,
  ".": 17,
  "/": 18,
  "0": 19,
  "1": 20,
  "2": 21,
  "3": 22,
  "4": 23,
  "5": 24,
  "6": 25,
  "7": 26,
  "8": 27,
  "9": 28,
  ":": 29,
  ";": 30,
  "<": 31,
  "=": 32,
  ">": 33,
  "?": 34,
  "@": 35,
  "A": 36,
  "B": 37,
  "C": 38,
  "CH": 39,
  "Ch": 40,
  "D": 41,
  "E": 42,
  "F": 43,
  "G": 44,
  "GB": 45,
  "Gb": 46,
  "Gh": 47,
  "Gw": 48,
  "H": 49,
  "I": 50,
  "J": 51,
  "K": 52,
  "KP": 53,
  "Kp": 54,
  "Kw": 55,
  "L": 56,
  "M": 57,
  "N": 58,
  "NW": 59,
  "NY": 60,
  "Nw": 61,
  "Ny": 62,
  "O": 63,
  "P": 64,
  "Q": 65,
  "R": 66,
  "S": 67,
  "SH": 68,
  "Sh": 69,
  "T": 70,
  "U": 71,
  "V": 72,
  "W": 73,
  "X": 74,
  "Y": 75,
  "Z": 76,
  "[": 77,
  "]": 78,
  "^": 79,
  "_": 80,
  "`": 81,
  "a": 82,
  "b": 83,
  "c": 84,
  "ch": 85,
  "d": 86,
  "e": 87,
  "f": 88,
  "g": 89,
  "gb": 90,
  "gh": 91,
  "gw": 92,
  "h": 93,
  "i": 94,
  "j": 95,
  "k": 96,
  "kp": 97,
  "kw": 98,
  "l": 99,
  "m": 100,
  "n": 101,
  "nw": 102,
  "ny": 103,
  "o": 104,
  "p": 105,
  "q": 106,
  "r": 107,
  "s": 108,
  "sh": 109,
  "t": 110,
  "u": 111,
  "v": 112,
  "w": 113,
  "x": 114,
  "y": 115,
  "z": 116,
  "{": 117,
  "|": 118,
  "}": 119,
  "£": 120,
  "®": 121,
  "·": 122,
  "É": 123,
  "Ö": 124,
  "×": 125,
  "à": 126,
  "á": 127,
  "ã": 128,
  "ä": 129,
  "å": 130,
  "æ": 131,
  "ç": 132,
  "è": 133,
  "é": 134,
  "ì": 135,
  "í": 136,
  "ï": 137,
  "ñ": 138,
  "ó": 139,
  "ô": 140,
  "ö": 141,
  "ø": 142,
  "ù": 143,
  "ú": 144,
  "ü": 145,
  "ć": 146,
  "č": 147,
  "ğ": 148,
  "ń": 149,
  "ş": 150,
  "š": 151,
  "ż": 152,
  "ž": 153,
  "̀": 154,
  "́": 155,
  "ׁ": 156,
  "ה": 157,
  "נ": 158,
  "פ": 159,
  "ש": 160,
  "ṅ": 161,
  "ạ": 162,
  "ẹ": 163,
  "Ị": 164,
  "ị": 165,
  "Ọ": 166,
  "ọ": 167,
  "Ụ": 168,
  "ụ": 169,
  "–": 170,
  "—": 171,
  "‘": 172,
  "’": 173,
  "“": 174,
  "”": 175,
  "•": 176,
  "₦": 177,
  "€": 178,
  "■": 179,
  "●": 180,
  "": 181,
  "na": 182,
  "dị": 183,
  "ka": 184,
  "ma": 185,
  "n'": 186,
  "bụ": 187,
  "ndị": 188,
  "ke": 189,
  "ra": 190,
  "me": 191,
  "ha": 192,
  "re": 193,
  "na-": 194,
  "ta": 195,
  "nye": 196,
  "ya": 197,
  "ga": 198,
  "la": 199,
  "ri": 200,
  "ih": 201,
  "si": 202,
  "ji": 203,
  "hụ": 204,
  "rụ": 205,
  "ihe": 206,
  "kwu": 207,
  "rị": 208,
  "ru": 209,
  "ba": 210,
  "kwa": 211,
  "any": 212,
  "te": 213,
  "na-a": 214,
  "nke": 215,
  "ahụ": 216,
  "tu": 217,
  "nwe": 218,
  "na-e": 219,
  "gba": 220,
  "onye": 221,
  "ghị": 222,
  "be": 223,
  "tụ": 224,
  "dụ": 225,
  "ti": 226,
  "ga-": 227,
  "le": 228,
  "otu": 229,
  "bi": 230,
  "zi": 231,
  "anyị": 232,
  "sị": 233,
  "pụ": 234,
  "mma": 235,
  "kọ": 236,
  "mụ": 237,
  "chi": 238,
  "che": 239,
  "we": 240,
  "chị": 241,
  "zọ": 242,
  "aka": 243,
  "lọ": 244,
  "rọ": 245,
  "cha": 246,
  "nọ": 247,
  "de": 248,
  "kụ": 249,
  "ne": 250,
  "do": 251,
  "nwa": 252,
  "wa": 253,
  "ụlọ": 254,
  "kwụ": 255,
  "go": 256,
  "fọ": 257,
  "gbu": 258,
  "isi": 259,
  "gha": 260,
  "mmadụ": 261,
  "sa": 262,
  "li": 263,
  "gbe": 264,
  "ebe": 265,
  "ike": 266,
  "nụ": 267,
  "ro": 268,
  "tọ": 269,
  "ni": 270,
  "mgbe": 271,
  "maka": 272,
  "ge": 273,
  "bu": 274,
  "so": 275,
  "ala": 276,
  "ịa": 277,
  "ga-e": 278,
  "gbo": 279,
  "ụmụ": 280,
  "ga-a": 281,
  "gwu": 282,
  "iri": 283,
  "ọrụ": 284,
  "rịa": 285,
  "kwe": 286,
  "kpe": 287,
  "ọchị": 288,
  "kpọ": 289,
  "eti": 290,
  "kpa": 291,
  "anya": 292,
  "afọ": 293,
  "mba": 294,
  "bo": 295,
  "okwu": 296,
  "nwụ": 297,
  "da": 298,
  "ọzọ": 299,
  "ste": 300,
  "gị": 301,
  "se": 302,
  "akụ": 303,
  "lu": 304,
  "chọ": 305,
  "gọ": 306,
  "naị": 307,
  "naịji": 308,
  "naịjirịa": 309,
  "kwọ": 310,
  "obi": 311,
  "zu": 312,
  "gwa": 313,
  "di": 314,
  "akwụ": 315,
  "neke": 316,
  "steeti": 317,
  "chineke": 318,
  "an": 319,
  "akwụkwọ": 320,
  "je": 321,
  "ezi": 322,
  "iche": 323,
  "abụ": 324,
  "nu": 325,
  "bịa": 326,
  "ile": 327,
  "oke": 328,
  "nt": 329,
  "oge": 330,
  "niile": 331,
  "gụ": 332,
  "tụtụ": 333,
  "va": 334,
  "wu": 335,
  "ku": 336,
  "ya.": 337,
  "abụọ": 338,
  "akụkọ": 339,
  "dịka": 340,
  "ko": 341,
  "mp": 342,
  "sọ": 343,
  "fe": 344,
  "mme": 345,
  "ọtụtụ": 346,
  "igbo": 347,
  "on": 348,
  "nwaanyị": 349,
  "bodo": 350,
  "pu": 351,
  "bụl": 352,
  "ịbụl": 353,
  "dọ": 354,
  "baịbụl": 355,
  "mi": 356,
  "a.": 357,
  "gbọ": 358,
  "ọnụ": 359,
  "obodo": 360,
  "du": 361,
  "20": 362,
  "egwu": 363,
  "hi": 364,
  "ụwa": 365,
  "ze": 366,
  "ikpe": 367,
  "to": 368,
  "iwu": 369,
  "ụb": 370,
  "ụbọchị": 371,
  "ntị": 372,
  "zụ": 373,
  "lụ": 374,
  "jọ": 375,
  "ho": 376,
  "bọ": 377,
  "jụ": 378,
  "ndụ": 379,
  "ahụ.": 380,
  "ego": 381,
  "zị": 382,
  "ozi": 383,
  "ihi": 384,
  "mana": 385,
  "oji": 386,
  "uwe": 387,
  "uha": 388,
  "ọchịchị": 389,
  "a,": 390,
  "ụzọ": 391,
  "er": 392,
  "ukwu": 393,
  "ọme": 394,
  "kpụ": 395,
  "gọọme": 396,
  "elu": 397,
  "aha": 398,
  "onyeisi": 399,
  "ojii": 400,
  "onwe": 401,
  "atọ": 402,
  "ya,": 403,
  "fọdụ": 404,
  "nwoke": 405,
  "ụfọdụ": 406,
  "kpo": 407,
  "sụ": 408,
  "ha.": 409,
  "st": 410,
  "201": 411,
  "ụgbọ": 412,
  "ọka": 413,
  "ọma": 414,
  "ahụ,": 415,
  "bụla": 416,
  "nso": 417,
  "eze": 418,
  "rịka": 419,
  ".”": 420,
  "hịa": 421,
  "or": 422,
  "hova": 423,
  "ihu": 424,
  "jehova": 425,
  "agha": 426,
  "uhari": 427,
  "Buhari": 428,
  "gwụ": 429,
  "ọbụla": 430,
  "nna": 431,
  "gi": 432,
  "ọkụ": 433,
  "pa": 434,
  "ugbu": 435,
  "olu": 436,
  "ome": 437,
  "nyo": 438,
  "uru": 439,
  "ma,": 440,
  "mkpa": 441,
  "ụka": 442,
  "mm": 443,
  "ghọ": 444,
  "nne": 445,
  "el": 446,
  "nwu": 447,
  "ọnwa": 448,
  "ana": 449,
  "ole": 450,
  "nga": 451,
  "ju": 452,
  "ja": 453,
  "nta": 454,
  "asa": 455,
  "zọs": 456,
  "jizọs": 457,
  "gwe": 458,
  ".\"": 459,
  "pe": 460,
  "mbụ": 461,
  "mmiri": 462,
  "gọọmentị": 463,
  "lị": 464,
  "yi": 465,
  "vanọ": 466,
  "mpi": 467,
  "gọvanọ": 468,
  "gwọ": 469,
  "bra": 470,
  "Ma": 471,
  "ntụ": 472,
  "ara": 473,
  "nị": 474,
  "maa": 475,
  "gu": 476,
  "Jo": 477,
  "za": 478,
  "aba": 479,
  "ise": 480,
  "mo": 481,
  "ndọ": 482,
  "ahịa": 483,
  "nk": 484,
  "fu": 485,
  "ndọrọ": 486,
  "oko": 487,
  "eziokwu": 488,
  "BB": 489,
  "nyi": 490,
  "he": 491,
  "ce": 492,
  "mu": 493,
  "anụ": 494,
  "tupu": 495,
  "igwe": 496,
  "ọnwụ": 497,
  "BBC": 498,
  "mbra": 499,
  "asọ": 500,
  "lo": 501,
  "nri": 502,
  "anambra": 503,
  "azụ": 504,
  "ntụli": 505,
  "ntụliaka": 506,
  "asọmpi": 507,
  "ọgba": 508,
  "iwe": 509,
  "chụ": 510,
  "atụ": 511,
  "okp": 512,
  "ọgwụ": 513,
  "nsogbu": 514,
  "in": 515,
  "ame": 516,
  "nya": 517,
  "nkwa": 518,
  "bọọ": 519,
  "nche": 520,
  "mgba": 521,
  "nwunye": 522,
  "bọọlụ": 523,
  "regwu": 524,
  "egwuregwu": 525,
  "enu": 526,
  "aghara": 527,
  "ibe": 528,
  "ria": 529,
  "ar": 530,
  "mmụ": 531,
  "họ": 532,
  "etu": 533,
  "ọhụ": 534,
  "ọhụrụ": 535,
  "unu": 536,
  "ọkwa": 537,
  "maazị": 538,
  "th": 539,
  "anị": 540,
  "naanị": 541,
  "su": 542,
  "etiti": 543,
  "enugwu": 544,
  "ezigbo": 545,
  "ngwa": 546,
  "sị:": 547,
  "ama": 548,
  "af": 549,
  "AP": 550,
  "Ni": 551,
  "chukwu": 552,
  "al": 553,
  "ọjọ": 554,
  "ọjọọ": 555,
  "ou": 556,
  "nde": 557,
  "ụtọ": 558,
  "abalị": 559,
  "raị": 560,
  "nti": 561,
  "ghi": 562,
  "sta": 563,
  "Chi": 564,
  "ekpe": 565,
  "bere": 566,
  "kemgbe": 567,
  "2019": 568,
  "goolu": 569,
  "narị": 570,
  "gịnị": 571,
  "ol": 572,
  "ter": 573,
  "ụgwọ": 574,
  "Nige": 575,
  "amerịka": 576,
  "ṅụ": 577,
  "kị": 578,
  "ha,": 579,
  "gide": 580,
  "zo": 581,
  "mbọ": 582,
  "00": 583,
  "nkeji": 584,
  "nal": 585,
  "afrịka": 586,
  "ọrịa": 587,
  "il": 588,
  "akwa": 589,
  "ọnọ": 590,
  "ọnọdụ": 591,
  "agba": 592,
  "tion": 593,
  "ozu": 594,
  "ụdị": 595,
  "mpaghara": 596,
  "no": 597,
  "nchekwa": 598,
  "ọsọ": 599,
  "nje": 600,
  "vi": 601,
  "ngala": 602,
  "nụlọ": 603,
  "ezinụlọ": 604,
  "Ro": 605,
  "gị:": 606,
  "ki": 607,
  "APC": 608,
  "ngalaba": 609,
  "ng": 610,
  "ugwu": 611,
  "puku": 612,
  "gọọmenti": 613,
  "Da": 614,
  "omeiwu": 615,
  "okpuru": 616,
  "it": 617,
  "ebu": 618,
  "ra,": 619,
  "19": 620,
  "isii": 621,
  "osi": 622,
  "iko": 623,
  "ekpere": 624,
  "ve": 625,
  "ọdị": 626,
  "ugbo": 627,
  "nkiri": 628,
  "nd": 629,
  "kpụrụ": 630,
  "ụlọikpe": 631,
  "m,": 632,
  "izu": 633,
  "gharị": 634,
  "imo": 635,
  "uche": 636,
  "m.": 637,
  "nku": 638,
  "ajụ": 639,
  "ụgbọala": 640,
  "nzu": 641,
  "ọgụ": 642,
  "ye": 643,
  "ajụjụ": 644,
  "pụta": 645,
  "asụ": 646,
  "raịst": 647,
  "olee": 648,
  "Re": 649,
  "asụsụ": 650,
  "ver": 651,
  "karị": 652,
  "kraịst": 653,
  "Man": 654,
  "ehi": 655,
  "Su": 656,
  "mmụọ": 657,
  "ada": 658,
  "mume": 659,
  "echi": 660,
  "e.": 661,
  "atụma": 662,
  "atụmatụ": 663,
  "Li": 664,
  "nnu": 665,
  "nsọ": 666,
  "mmemme": 667,
  "asaa": 668,
  "ọba": 669,
  "Mo": 670,
  "Jose": 671,
  "ụkwụ": 672,
  "obere": 673,
  "ngagharị": 674,
  "ano": 675,
  "ru,": 676,
  "rịọ": 677,
  "e,": 678,
  "ọzọ.": 679,
  "les": 680,
  "ik": 681,
  "ekwe": 682,
  "mkpụrụ": 683,
  "nka": 684,
  "ụmụaka": 685,
  "anya.": 686,
  "In": 687,
  "enyi": 688,
  "re.": 689,
  "egbe": 690,
  "agụ": 691,
  "ọgbakọ": 692,
  "La": 693,
  "ra.": 694,
  "nala": 695,
  "fụ": 696,
  "beke": 697,
  "asatọ": 698,
  "Hara": 699,
  "Co": 700,
  "Boko": 701,
  "àm": 702,
  "àmà": 703,
  "manụ": 704,
  "Se": 705,
  "Nigeria": 706,
  "of": 707,
  "nwata": 708,
  "kpu": 709,
  "ugboro": 710,
  "nai": 711,
  "DP": 712,
  "ofe": 713,
  "ebubo": 714,
  "anụmanụ": 715,
  "re,": 716,
  "okpo": 717,
  "njem": 718,
  "ime": 719,
  "ụkọ": 720,
  "ris": 721,
  "po": 722,
  "here": 723,
  "Sa": 724,
  "robịa": 725,
  "ogi": 726,
  "nkuzi": 727,
  "Pe": 728,
  "nnukwu": 729,
  "Uni": 730,
  "ntaakụkọ": 731,
  "PDP": 732,
  "Haram": 733,
  "ca": 734,
  "Na": 735,
  "per": 736,
  "ito": 737,
  "ta.": 738,
  "kama": 739,
  "Le": 740,
  "hu": 741,
  "udo": 742,
  "ọkpụ": 743,
  "aka.": 744,
  "Josef": 745,
  "ikike": 746,
  "eke": 747,
  "abịa": 748,
  "ọcha": 749,
  "ori": 750,
  "anyanwụ": 751,
  "pati": 752,
  "ran": 753,
  "naira": 754,
  "gọs": 755,
  "dum": 756,
  "naịjirịa.": 757,
  "legọs": 758,
  "njọ": 759,
  "tị": 760,
  "okporo": 761,
  "ohere": 762,
  "rịta": 763,
  "mkpọ": 764,
  "ogo": 765,
  "wo": 766,
  "ndịàmà": 767,
  "kanu": 768,
  "Fa": 769,
  "ndọrọndọrọ": 770,
  "hie": 771,
  "akpa": 772,
  "Muha": 773,
  "karịa": 774,
  "mkpe": 775,
  "itoolu": 776,
  "abu": 777,
  "Al": 778,
  "bekee": 779,
  "mmanụ": 780,
  "OB": 781,
  "ahụhụ": 782,
  "us": 783,
  "IP": 784,
  "Muhamma": 785,
  "EC": 786,
  "ike.": 787,
  "en": 788,
  "ụkọchukwu": 789,
  "steeti.": 790,
  "oche": 791,
  "mmeri": 792,
  "rị:": 793,
  "a:": 794,
  "Ea": 795,
  "ofesi": 796,
  "Muhammadu": 797,
  "ry": 798,
  "mini": 799,
  "IPOB": 800,
  "ije": 801,
  "Mu": 802,
  "saụ": 803,
  "mdi": 804,
  "Pa": 805,
  "ru.": 806,
  "niile.": 807,
  "maha": 808,
  "ugo": 809,
  "pọ": 810,
  "mma.": 811,
  "ster": 812,
  "ochi": 813,
  "Ati": 814,
  "ụtụtụ": 815,
  "Atiku": 816,
  "ogige": 817,
  "rel": 818,
  "onal": 819,
  "ikpeazụ": 820,
  "anya,": 821,
  "ọdụ": 822,
  "okpu": 823,
  "amụ": 824,
  "Ba": 825,
  "ụba": 826,
  "nkwado": 827,
  "nzukọ": 828,
  "nkị": 829,
  "ci": 830,
  "nto": 831,
  "ọha": 832,
  "oso": 833,
  "osisi": 834,
  "Super": 835,
  "ọzọ,": 836,
  "uso": 837,
  "rt": 838,
  "mmụta": 839,
  "fi": 840,
  "am": 841,
  "osote": 842,
  "co": 843,
  "kere": 844,
  "mgbasa": 845,
  "ga,": 846,
  "Ada": 847,
  "ck": 848,
  "ga.": 849,
  "nji": 850,
  "mahadum": 851,
  "anyị.": 852,
  "saụt": 853,
  "mkpọrọ": 854,
  "minista": 855,
  "\".\"": 856,
  "ted": 857,
  "shịa": 858,
  "pị": 859,
  "Tru": 860,
  "Ka": 861,
  "obiano": 862,
  "ọtọ": 863,
  "dia": 864,
  "Oko": 865,
  "dọkị": 866,
  "aja": 867,
  "So": 868,
  "omenala": 869,
  "oku": 870,
  "nda": 871,
  "eluigwe": 872,
  "ele": 873,
  "bụ,": 874,
  "amụma": 875,
  "ajọ": 876,
  "shọ": 877,
  "gburu": 878,
  "Bi": 879,
  "ọdọ": 880,
  "me.": 881,
  "dọkịta": 882,
  "kọmi": 883,
  "illi": 884,
  "ọma.": 885,
  "okwukwe": 886,
  "Ar": 887,
  "wụ": 888,
  "ur": 889,
  "ntorobịa": 890,
  "gbụ": 891,
  "anyị,": 892,
  "ty": 893,
  "IN": 894,
  "op": 895,
  "Eag": 896,
  "ọhịa": 897,
  "INEC": 898,
  "fo": 899,
  "Trump": 900,
  "FC": 901,
  "vid": 902,
  "ike,": 903,
  "United": 904,
  "omume": 905,
  "Ne": 906,
  "usoro": 907,
  "rocha": 908,
  "lite": 909,
  "ity": 910,
  "baịbụl.": 911,
  "De": 912,
  "akara": 913,
  "Af": 914,
  "na\"": 915,
  "Ade": 916,
  "ihe.": 917,
  "land": 918,
  "Eagles": 919,
  "ten": 920,
  "Mi": 921,
  "nnamdi": 922,
  "mị": 923,
  "echiche": 924,
  "vo": 925,
  "tan": 926,
  "rụ.": 927,
  "ment": 928,
  "baka": 929,
  "Willi": 930,
  "sị,": 931,
  "nnọ": 932,
  "iz": 933,
  "Ri": 934,
  "ụlọụka": 935,
  "ọgọ": 936,
  "obi.": 937,
  "akụkụ": 938,
  "Obi": 939,
  "lik": 940,
  "kedụ": 941,
  "chineke,": 942,
  "od": 943,
  "o,": 944,
  "ọw": 945,
  "yọ": 946,
  "ọwụwa": 947,
  "dio": 948,
  "pt": 949,
  "jị": 950,
  "else": 951,
  "ede": 952,
  "ọfụ": 953,
  "pọl": 954,
  "mara": 955,
  "ghe": 956,
  "con": 957,
  "ọkacha": 958,
  "ta,": 959,
  "Chelse": 960,
  "ọgbọ": 961,
  "ohi": 962,
  "ah": 963,
  "City": 964,
  "tọlik": 965,
  "kọrịta": 966,
  "katọlik": 967,
  "izrel": 968,
  "son": 969,
  "enye": 970,
  "chineke.": 971,
  "Ca": 972,
  "onyi": 973,
  "iyi": 974,
  "emume": 975,
  "ss": 976,
  "ochie": 977,
  "ụnya": 978,
  "nihu": 979,
  "ine": 980,
  "ide": 981,
  "abuja": 982,
  "a?": 983,
  "tional": 984,
  "pool": 985,
  "ir": 986,
  "eziokwu.": 987,
  "enyemaka": 988,
  "Moha": 989,
  "\"\"": 990,
  "verpool": 991,
  "oriri": 992,
  "Liverpool": 993,
  "200": 994,
  "shịal": 995,
  "ssi": 996,
  "iji": 997,
  "Me": 998,
  "soshịal": 999,
  "fada": 1000,
  "akị": 1001,
  "To": 1002,
  "Sou": 1003,
  "ogbu": 1004,
  "ụgbọelu": 1005,
  "ọla": 1006,
  "ọ\"": 1007,
  "zde": 1008,
  "oyi": 1009,
  "ntu": 1010,
  "chu": 1011,
  "Afri": 1012,
  "ul": 1013,
  "'.": 1014,
  "ọkaiwu": 1015,
  "onyinye": 1016,
  "oli": 1017,
  "agu": 1018,
  "Chelsea": 1019,
  "ọmụ": 1020,
  "tri": 1021,
  "..": 1022,
  "okpukpe": 1023,
  "isi.": 1024,
  "and": 1025,
  "onyo": 1026,
  "ntọ": 1027,
  "iche.": 1028,
  "ala.": 1029,
  "ọgbaaghara": 1030,
  "onyonyo": 1031,
  "net": 1032,
  "mmadụ.": 1033,
  "akpụ": 1034,
  "2019.": 1035,
  "ham": 1036,
  "ume": 1037,
  "chester": 1038,
  "Manchester": 1039,
  "wit": 1040,
  "nwanne": 1041,
  "mmed": 1042,
  "godị": 1043,
  "eji": 1044,
  "aka,": 1045,
  "ụwa.": 1046,
  "ụlọakwụkwọ": 1047,
  "rọ\"": 1048,
  "ort": 1049,
  "mama": 1050,
  "madu": 1051,
  "agwa": 1052,
  "South": 1053,
  "Eme": 1054,
  "bri": 1055,
  "Sta": 1056,
  "2018": 1057,
  "ode": 1058,
  "n,": 1059,
  "abụọ.": 1060,
  "okorocha": 1061,
  "eme": 1062,
  "Ja": 1063,
  "la.": 1064,
  "Nwo": 1065,
  "El": 1066,
  "ọnị": 1067,
  "ọnịcha": 1068,
  "vootu": 1069,
  "nyụ": 1070,
  "mbere": 1071,
  "chas": 1072,
  "Rochas": 1073,
  "ite": 1074,
  "for": 1075,
  "arc": 1076,
  "ọchịehi": 1077,
  "ya?": 1078,
  "ral": 1079,
  "ia": 1080,
  "agbọ": 1081,
  "Arse": 1082,
  "omeka": 1083,
  "n.": 1084,
  "mberede": 1085,
  "agbọghọ": 1086,
  "Arsenal": 1087,
  "Aba": 1088,
  "ọgbu": 1089,
  "akịrịka": 1090,
  "Mohammed": 1091,
  "Ekwe": 1092,
  "“ọ": 1093,
  "rụ,": 1094,
  "mbi": 1095,
  "ijipt": 1096,
  "Peter": 1097,
  "wi": 1098,
  "setan": 1099,
  "juu": 1100,
  "anọ": 1101,
  "',": 1102,
  "kwado": 1103,
  "ok": 1104,
  "o.": 1105,
  "nhọ": 1106,
  "ky": 1107,
  "ing": 1108,
  "ala,": 1109,
  "10": 1110,
  "witter": 1111,
  "remadu": 1112,
  "Ke": 1113,
  "Ekweremadu": 1114,
  "000": 1115,
  "ọkammụta": 1116,
  "taa.": 1117,
  "s.": 1118,
  "omekaome": 1119,
  "nhọpụta": 1120,
  "kọmishọ": 1121,
  "atụ,": 1122,
  "asị": 1123,
  "Pre": 1124,
  "ọrụ.": 1125,
  "uju": 1126,
  "Eze": 1127,
  "Abu": 1128,
  "ụwa,": 1129,
  "s,": 1130,
  "ozugbo": 1131,
  "im": 1132,
  "cy": 1133,
  "Bo": 1134,
  "ọbara": 1135,
  "ong": 1136,
  "naeze": 1137,
  "mkpu": 1138,
  "kọmishọna": 1139,
  "kele": 1140,
  "jo": 1141,
  "eziokwu,": 1142,
  "ope": 1143,
  "ly": 1144,
  "1,": 1145,
  "ọrụ,": 1146,
  "ọkaikpe": 1147,
  "ọgụgụ": 1148,
  "ọ,": 1149,
  "ogbuni": 1150,
  "ogbunigwe": 1151,
  "nle": 1152,
  ").": 1153,
  "ọhanaeze": 1154,
  "iro": 1155,
  "She": 1156,
  ".”)": 1157,
  "mpe": 1158,
  "mpụ": 1159,
  "bonyi": 1160,
  "Za": 1161,
  "We": 1162,
  "ọkpa": 1163,
  "ihe,": 1164,
  "alụ": 1165,
  "ọdịnihu": 1166,
  "warị": 1167,
  "Joh": 1168,
  "Cha": 1169,
  "Bu": 1170,
  "14": 1171,
  "nyocha": 1172,
  "gwo": 1173,
  "ekele": 1174,
  "Ra": 1175,
  "baịbụl,": 1176,
  "),": 1177,
  "nchọ": 1178,
  "mkpebi": 1179,
  "China": 1180,
  "ọ.": 1181,
  "mma,": 1182,
  "midia": 1183,
  "15": 1184,
  "ụlọọgwụ": 1185,
  "ụjọ": 1186,
  "niile,": 1187,
  "nkwe": 1188,
  "mmadụ,": 1189,
  "devid": 1190,
  "bịaf": 1191,
  "Oke": 1192,
  "Ge": 1193,
  "Be": 1194,
  "nwayọ": 1195,
  "__": 1196,
  "satọ": 1197,
  "Nor": 1198,
  "ụda": 1199,
  "satọde": 1200,
  "gị,": 1201,
  "ction": 1202,
  "bi.": 1203,
  "arị": 1204,
  "ụtọ.": 1205,
  "shi": 1206,
  "malite": 1207,
  "ghị.": 1208,
  "ezu": 1209,
  "Sara": 1210,
  "SS": 1211,
  "Ha": 1212,
  "Chris": 1213,
  "sha": 1214,
  "duna": 1215,
  "ahị": 1216,
  "Nna": 1217,
  "ụlọakụ": 1218,
  "ọdịnala": 1219,
  "tius": 1220,
  "mọ": 1221,
  "egwuregwu,": 1222,
  "Leagu": 1223,
  "obi,": 1224,
  "dị,": 1225,
  "laị": 1226,
  "elekere": 1227,
  "bịa.": 1228,
  "2017": 1229,
  "ọfụma": 1230,
  "ri.": 1231,
  "ph": 1232,
  "nzuzo": 1233,
  "ja.": 1234,
  "fufe": 1235,
  "fa": 1236,
  "Osi": 1237,
  "Mar": 1238,
  "Lago": 1239,
  "ọgbugbu": 1240,
  "tha": 1241,
  "gị.": 1242,
  "Chukwu": 1243,
  "wer": 1244,
  "tiusde": 1245,
  "rị.": 1246,
  "kan": 1247,
  "ekwentị": 1248,
  "Zi": 1249,
  "ọnụ.": 1250,
  "nkịtị": 1251,
  "igbo,": 1252,
  "Willie": 1253,
  "FCC": 1254,
  "ụmụnne": 1255,
  "ụgha": 1256,
  "ọgọst": 1257,
  "naịjirịa,": 1258,
  "can": 1259,
  "bụ\"": 1260,
  "Bri": 1261,
  "tor": 1262,
  "nchọpụta": 1263,
  "man": 1264,
  "icheiche": 1265,
  "ewu": 1266,
  "agụmba": 1267,
  "abụọ,": 1268,
  "Ihe": 1269,
  "Fran": 1270,
  "nnyocha": 1271,
  "ijeri": 1272,
  "bia": 1273,
  "bakar": 1274,
  "Or": 1275,
  "Di": 1276,
  "pụrụ": 1277,
  "olile": 1278,
  "nrụ": 1279,
  "mkpesa": 1280,
  "mfe": 1281,
  "Uma": 1282,
  "Ude": 1283,
  "Twitter": 1284,
  "Pro": 1285,
  "Je": 1286,
  "Adam": 1287,
  "1)": 1288,
  "uru.": 1289,
  "ogolo": 1290,
  "ogologo": 1291,
  "briten": 1292,
  "Paul": 1293,
  "Ju": 1294,
  "Gu": 1295,
  "Abubakar": 1296,
  "ọmụmụ": 1297,
  "uro": 1298,
  "mmehie": 1299,
  "kọta": 1300,
  "isiokwu": 1301,
  "gbi": 1302,
  "ebonyi": 1303,
  "dị.": 1304,
  "chọọchị": 1305,
  ",\"": 1306,
  "trik": 1307,
  "rọ.": 1308,
  "nnọọ": 1309,
  "kwo": 1310,
  "ezum": 1311,
  "GA": 1312,
  "EFCC": 1313,
  "2015": 1314,
  "ogbe": 1315,
  "ndị)": 1316,
  "atọ.": 1317,
  "State": 1318,
  "NA": 1319,
  "ther": 1320,
  "state": 1321,
  "raịde": 1322,
  "ngo": 1323,
  "latrik": 1324,
  "fraịde": 1325,
  "Go": 1326,
  "ọga": 1327,
  "papa": 1328,
  "mmanya": 1329,
  "Nigeri": 1330,
  "Inter": 1331,
  "Ab": 1332,
  "23": 1333,
  "senet": 1334,
  "ofesi,": 1335,
  "nyị": 1336,
  "nwayọọ": 1337,
  "dri": 1338,
  "atụrụ": 1339,
  "New": 1340,
  "okorobịa": 1341,
  "meri": 1342,
  "gbidi": 1343,
  "El-": 1344,
  "2,": 1345,
  "“a": 1346,
  "ọṅụ": 1347,
  "zaky": 1348,
  "pi": 1349,
  "nwaafọ": 1350,
  "ndị\"": 1351,
  "mgbọ": 1352,
  "mbe": 1353,
  "kzaky": 1354,
  "iche,": 1355,
  "hab": 1356,
  "Zakzaky": 1357,
  "Ike": 1358,
  "Fe": 1359,
  "yo": 1360,
  "nue": 1361,
  "gabe": 1362,
  "agbụ": 1363,
  "Saraki": 1364,
  "Mugabe": 1365,
  "Ga": 1366,
  "Au": 1367,
  "17": 1368,
  "ọda": 1369,
  "taa": 1370,
  "ton": 1371,
  "rịtaụka": 1372,
  "ofufe": 1373,
  "okwu.": 1374,
  "nwụ.": 1375,
  "nsị": 1376,
  "mọdụ": 1377,
  "Ta": 1378,
  "Lagos": 1379,
  "rị,": 1380,
  "ndụmọdụ": 1381,
  "n'\"": 1382,
  "akwụkwọ.": 1383,
  "ọma,": 1384,
  "the": 1385,
  "ration": 1386,
  "foto": 1387,
  "efu": 1388,
  "bịafra": 1389,
  "benue": 1390,
  "agụụ": 1391,
  "18": 1392,
  "ụra": 1393,
  "tic": 1394,
  "nia": 1395,
  "mmekọrịta": 1396,
  "ezumike": 1397,
  "Africa": 1398,
  "APGA": 1399,
  "ọkpara": 1400,
  "mmepe": 1401,
  "kaduna": 1402,
  "He": 1403,
  "Fu": 1404,
  "ribe": 1405,
  "jehova.": 1406,
  "drid": 1407,
  "anyị\"": 1408,
  "Madrid": 1409,
  "Ele": 1410,
  "?”": 1411,
  "ọkụkọ": 1412,
  "rs": 1413,
  "ourt": 1414,
  "okenye": 1415,
  "ndụ.": 1416,
  "mgbede": 1417,
  "ka\"": 1418,
  "iru": 1419,
  "dọla": 1420,
  "1.": 1421,
  "ower": 1422,
  "njikere": 1423,
  "mba.": 1424,
  "au": 1425,
  "anwụ": 1426,
  "No": 1427,
  "13": 1428,
  "ọkachamara": 1429,
  "ọkpọ": 1430,
  "ịnta": 1431,
  "ịntane": 1432,
  "ịntaneti": 1433,
  "ohu": 1434,
  "igbo.": 1435,
  "a\"": 1436,
  "Sowo": 1437,
  "Ru": 1438,
  "Ama": 1439,
  "199": 1440,
  "ọdachi": 1441,
  "olileanya": 1442,
  "nkata": 1443,
  "me,": 1444,
  "ife": 1445,
  "Wa": 1446,
  "Te": 1447,
  "ụtụ": 1448,
  "ọdịda": 1449,
  "ọbasa": 1450,
  "ọbasanjọ": 1451,
  "ọkọ": 1452,
  "steeti,": 1453,
  "miri": 1454,
  "mbu": 1455,
  "ld": 1456,
  "kịrị": 1457,
  "Ihedio": 1458,
  "Ibra": 1459,
  "spe": 1460,
  "nwaanyị.": 1461,
  "jiji": 1462,
  "edo": 1463,
  "Vi": 1464,
  "AS": 1465,
  "wene": 1466,
  "gun": 1467,
  "agbụrụ": 1468,
  "wenezde": 1469,
  "omi": 1470,
  "k,": 1471,
  "gburugburu": 1472,
  "anyi": 1473,
  "ri,": 1474,
  "qu": 1475,
  "nrọ": 1476,
  "ngwụ": 1477,
  "late": 1478,
  "lla": 1479,
  "Ibrahi": 1480,
  "Ghana": 1481,
  "up": 1482,
  "sị.": 1483,
  "pase": 1484,
  "osimiri": 1485,
  "mgbere": 1486,
  "bi,": 1487,
  "ahịhịa": 1488,
  "agha.": 1489,
  "Sowore": 1490,
  "Ife": 1491,
  "FA": 1492,
  "4.": 1493,
  "16": 1494,
  "ọk": 1495,
  "ọjị": 1496,
  "rụngwa": 1497,
  "pụrụiche": 1498,
  "mbụ.": 1499,
  "akụrụngwa": 1500,
  "ad": 1501,
  "Ti": 1502,
  "Nwosu": 1503,
  "Is": 1504,
  "Fal": 1505,
  "ụbụ": 1506,
  "ọkachasị": 1507,
  "sena": 1508,
  "s:": 1509,
  "ona": 1510,
  "nkịta": 1511,
  "national": 1512,
  "ndo": 1513,
  "mọnde": 1514,
  "mas": 1515,
  "guzo": 1516,
  "Olu": 1517,
  "National": 1518,
  "“onye": 1519,
  "ịnyị": 1520,
  "nrụrụ": 1521,
  "mbab": 1522,
  "mbabwe": 1523,
  "lani": 1524,
  "kwa,": 1525,
  "Zimbabwe": 1526,
  "US": 1527,
  "Ihedioha": 1528,
  "Ibrahim": 1529,
  "ọkụ.": 1530,
  "zie": 1531,
  "ute": 1532,
  "senatọ": 1533,
  "rom": 1534,
  "mkparịtaụka": 1535,
  "by": 1536,
  "anambra,": 1537,
  "arụ": 1538,
  "Premi": 1539,
  "Madu": 1540,
  "El-Zakzaky": 1541,
  "Ah": 1542,
  "ọnwụ.": 1543,
  "ọkafọ": 1544,
  "ọzụ": 1545,
  "ule": 1546,
  "toba": 1547,
  "izuụka": 1548,
  "gen": 1549,
  "ON": 1550,
  "Nai": 1551,
  "League": 1552,
  "ụfọdụ,": 1553,
  "ụta": 1554,
  "maachị": 1555,
  "lic": 1556,
  "kata": 1557,
  "egwu.": 1558,
  "arcourt": 1559,
  "achị": 1560,
  "Port": 1561,
  "International": 1562,
  "Harcourt": 1563,
  "Emma": 1564,
  "30": 1565,
  "ọktoba": 1566,
  "ọchịchị.": 1567,
  "tọzde": 1568,
  "Ale": 1569,
  "2.": 1570,
  "taa,": 1571,
  "sti": 1572,
  "ssa": 1573,
  "otu,": 1574,
  "oriakụ": 1575,
  "nchị": 1576,
  "nba": 1577,
  "mita": 1578,
  "chite": 1579,
  "cho": 1580,
  "bị": 1581,
  "Premier": 1582,
  "Jona": 1583,
  "Comm": 1584,
  "2)": 1585,
  "ụnyaahụ": 1586,
  "stra": 1587,
  "otu.": 1588,
  "nkwekọrịta": 1589,
  "kiri": 1590,
  "gboro": 1591,
  "Falcon": 1592,
  "Bra": 1593,
  "ọzụzụ": 1594,
  "ya.”": 1595,
  "nturu": 1596,
  "nke\"": 1597,
  "ncheta": 1598,
  "na,": 1599,
  "ndi": 1600,
  "med": 1601,
  "la,": 1602,
  "ise.": 1603,
  "ihe\"": 1604,
  "Osinba": 1605,
  "Onye": 1606,
  "Mbaka": 1607,
  "\"ọ\"": 1608,
  "ụma": 1609,
  "ọkara": 1610,
  "ctor": 1611,
  "atọ,": 1612,
  "afọ.": 1613,
  "Nwa": 1614,
  "Bro": 1615,
  "Alex": 1616,
  "ịnyịnya": 1617,
  "rama": 1618,
  "rd": 1619,
  "o\"": 1620,
  "mpion": 1621,
  "mkpamkpa": 1622,
  "kuku": 1623,
  "achịcha": 1624,
  "Yo": 1625,
  "John": 1626,
  "Face": 1627,
  "Emeka": 1628,
  "David": 1629,
  "Air": 1630,
  "2016": 1631,
  "ọgwụgwụ": 1632,
  "te,": 1633,
  "obodo.": 1634,
  "nnewi": 1635,
  "mgbanwe": 1636,
  "isi,": 1637,
  "efe": 1638,
  "amero": 1639,
  "agbidi": 1640,
  "William": 1641,
  "Wor": 1642,
  "MA": 1643,
  "Ko": 1644,
  "Jonatha": 1645,
  "Camero": 1646,
  "ọbụla.": 1647,
  "re:": 1648,
  "niel": 1649,
  "nha": 1650,
  "mgbo": 1651,
  "idemmiri": 1652,
  "ikuku": 1653,
  "ego.": 1654,
  "ekwu": 1655,
  "agụma": 1656,
  "adị": 1657,
  "Mba": 1658,
  "DSS": 1659,
  "Con": 1660,
  "Bor": 1661,
  "Ana": 1662,
  "mmi": 1663,
  "ebere": 1664,
  "bert": 1665,
  "alth": 1666,
  "St": 1667,
  "Fulani": 1668,
  "Abdu": 1669,
  "Ai": 1670,
  "ren": 1671,
  "obibi": 1672,
  "kansa": 1673,
  "julaị": 1674,
  "eh": 1675,
  "Riva": 1676,
  "Osinbajo": 1677,
  "Naija": 1678,
  "Ger": 1679,
  "Fede": 1680,
  "Euro": 1681,
  "Champion": 1682,
  "Abaribe": 1683,
  "Adi": 1684,
  "“ndị": 1685,
  "ves": 1686,
  "ngwụcha": 1687,
  "nzụ": 1688,
  "mmasị": 1689,
  "kọmiti": 1690,
  "kwu.": 1691,
  "bre": 1692,
  "Timo": 1693,
  "Del": 1694,
  "ubi": 1695,
  "rie": 1696,
  "pte": 1697,
  "opekata": 1698,
  "okwu,": 1699,
  "nsogbu.": 1700,
  "ndị,": 1701,
  "nkọ": 1702,
  "ime.": 1703,
  "ghụ": 1704,
  "anwụrụ": 1705,
  "Ut": 1706,
  "Falcons": 1707,
  "Barc": 1708,
  "Ara": 1709,
  "ụnyaahụ.": 1710,
  "ụbụrụ": 1711,
  "tti": 1712,
  "saye": 1713,
  "pan": 1714,
  "nchịkọta": 1715,
  "nsu": 1716,
  "hoo": 1717,
  "elona": 1718,
  "ejije": 1719,
  "aga": 1720,
  "Umu": 1721,
  "Jonathan": 1722,
  "Igbo": 1723,
  "Eng": 1724,
  "Barcelona": 1725,
  "Ben": 1726,
  "“ihe": 1727,
  "ukwu.": 1728,
  "pita": 1729,
  "onald": 1730,
  "odeakwụkwọ": 1731,
  "nzụkọ": 1732,
  "mpu": 1733,
  "mgbakọ": 1734,
  "mbụ,": 1735,
  "lateau": 1736,
  "bishọ": 1737,
  "West": 1738,
  "Plateau": 1739,
  "North": 1740,
  "Donald": 1741,
  "3,": 1742,
  "“m": 1743,
  "ọgwụgwọ": 1744,
  "ọbụladị": 1745,
  "wa,": 1746,
  "taa:": 1747,
  "sia": 1748,
  "ondo": 1749,
  "inọ": 1750,
  "gbata": 1751,
  "gra": 1752,
  "chafụ": 1753,
  "car": 1754,
  "anu": 1755,
  "Ye": 1756,
  "World": 1757,
  "Umahi": 1758,
  "The": 1759,
  "Iv": 1760,
  "France": 1761,
  "Cameroon": 1762,
  "25": 1763,
  "“n'": 1764,
  "ọjọọ.": 1765,
  "yin": 1766,
  "septe": 1767,
  "mbodo": 1768,
  "ghị,": 1769,
  "ehihi": 1770,
  "echichi": 1771,
  "asambodo": 1772,
  "Utd": 1773,
  "Ser": 1774,
  "Robert": 1775,
  "Ce": 1776,
  "Bay": 1777,
  "ọna": 1778,
  "tara": 1779,
  "rọ,": 1780,
  "opekatampe": 1781,
  "nọ.": 1782,
  "ll": 1783,
  "kraịst,": 1784,
  "kama,": 1785,
  "gboo": 1786,
  "bụ.": 1787,
  "akwụkwọ,": 1788,
  "Shi": 1789,
  "Rivas": 1790,
  "Oba": 1791,
  "Londo": 1792,
  "IM": 1793,
  "Gra": 1794,
  "Aisha": 1795,
  "100": 1796,
  "ọnụ,": 1797,
  "ịchafụ": 1798,
  "thi": 1799,
  "sho": 1800,
  "sayensị": 1801,
  "ogbenye": 1802,
  "nghọ": 1803,
  "ncha": 1804,
  "mbido": 1805,
  "kwụkwọ": 1806,
  "e\"": 1807,
  "agụmakwụkwọ": 1808,
  "UK": 1809,
  "Fo": 1810,
  "12": 1811,
  "yinbo": 1812,
  "toyinbo": 1813,
  "tten": 1814,
  "nson": 1815,
  "manị": 1816,
  "jamanị": 1817,
  "ja,": 1818,
  "inọk": 1819,
  "cu": 1820,
  "cra": 1821,
  "ber": 1822,
  "amerịka.": 1823,
  "adịgboro": 1824,
  "Tu": 1825,
  "Ibi": 1826,
  "Hu": 1827,
  "Do": 1828,
  "Christi": 1829,
  "ụzọ,": 1830,
  "tum": 1831,
  "ssion": 1832,
  "rimara": 1833,
  "mkpa.": 1834,
  "min": 1835,
  "mgbochi": 1836,
  "mwu": 1837,
  "ley": 1838,
  "afrịka.": 1839,
  "____": 1840,
  "Totten": 1841,
  "Real": 1842,
  "Niger": 1843,
  "Daniel": 1844,
  "AFC": 1845,
  "3.": 1846,
  "2019:": 1847,
  "ọnụọgụgụ": 1848,
  "ịhụ": 1849,
  "ịhụna": 1850,
  "oge,": 1851,
  "oma": 1852,
  "nuel": 1853,
  "nturuugo": 1854,
  "nri,": 1855,
  "ndịda": 1856,
  "ndu": 1857,
  "mbịa": 1858,
  "jizọs,": 1859,
  "ghụghọ": 1860,
  "ese": 1861,
  "ep": 1862,
  "dike": 1863,
  "chie": 1864,
  "book": 1865,
  "biko": 1866,
  "aghụghọ": 1867,
  "Shehu": 1868,
  "Facebook": 1869,
  "Fatoyinbo": 1870,
  "Delta": 1871,
  "Demo": 1872,
  "Commi": 1873,
  "AFCON": 1874,
  "Abi": 1875,
  "9.": 1876,
  "6,": 1877,
  "2019,": 1878,
  "28": 1879,
  "ụmụnna": 1880,
  "vs": 1881,
  "pp": 1882,
  "osika": 1883,
  "nkụ": 1884,
  "ina": 1885,
  "gri": 1886,
  "ekpere,": 1887,
  "egwu,": 1888,
  "der": 1889,
  "arịrịọ": 1890,
  "Timoti": 1891,
  "Lu": 1892,
  "5.": 1893,
  ".\"ọ\"": 1894,
  "ụzọ.": 1895,
  "ịdị": 1896,
  "nwaada": 1897,
  "njirimara": 1898,
  "kra": 1899,
  "gal": 1900,
  "amadi": 1901,
  "agha,": 1902,
  "Sam": 1903,
  "Nigerian": 1904,
  "AC": 1905,
  "4)": 1906,
  "ụdịrị": 1907,
  "ụbọchị,": 1908,
  "ọlaedo": 1909,
  "si,": 1910,
  "muel": 1911,
  "mmalite": 1912,
  "mba,": 1913,
  "lia": 1914,
  "kola": 1915,
  "elu.": 1916,
  "dan": 1917,
  "Tottenham": 1918,
  "Samuel": 1919,
  "Peop": 1920,
  "Ebre": 1921,
  "Agu": 1922,
  "(n": 1923,
  "ọkụ,": 1924,
  "zịza": 1925,
  "z.": 1926,
  "sịga": 1927,
  "sina": 1928,
  "rena": 1929,
  "nọve": 1930,
  "nrụrụaka": 1931,
  "mwute": 1932,
  "lement": 1933,
  "jizọs.": 1934,
  "jehova,": 1935,
  "ise,": 1936,
  "ekwensu": 1937,
  "chi,": 1938,
  "bịa,": 1939,
  "ama.": 1940,
  "are": 1941,
  "Ste": 1942,
  "Si": 1943,
  "Japan": 1944,
  "Emmanuel": 1945,
  "Election": 1946,
  "Dan": 1947,
  "Champions": 1948,
  "Ahmed": 1949,
  "AN": 1950,
  "ọnatara": 1951,
  "ọhụrụ.": 1952,
  "ọdịmma": 1953,
  "ress": 1954,
  "rea": 1955,
  "para": 1956,
  "onyeàmà": 1957,
  "okwute": 1958,
  "odo": 1959,
  "nkume": 1960,
  "juun": 1961,
  "cia": 1962,
  "bishọp": 1963,
  "arịrị": 1964,
  "ahụ?": 1965,
  "Okon": 1966,
  "Ola": 1967,
  "Ifeanyi": 1968,
  "Brother": 1969,
  "African": 1970,
  "...": 1971,
  "ụtọ,": 1972,
  "ụlọ,": 1973,
  "ọnatarachi": 1974,
  "ya\"": 1975,
  "wa.": 1976,
  "re?": 1977,
  "okiri": 1978,
  "ose": 1979,
  "nụwarị": 1980,
  "nọ,": 1981,
  "noa": 1982,
  "kana": 1983,
  "gwon": 1984,
  "ghara": 1985,
  "ba,": 1986,
  "azu": 1987,
  "Par": 1988,
  "Adamu": 1989,
  "“chineke": 1990,
  "tin": 1991,
  "spen": 1992,
  "pti": 1993,
  "nụ.": 1994,
  "nrite": 1995,
  "mbo": 1996,
  "ls": 1997,
  "kpị": 1998,
  "kilo": 1999,
  "ka,": 2000,
  "gwongwo": 2001,
  "eprel": 2002,
  "debe": 2003,
  "afọ,": 2004,
  "Osu": 2005,
  "Kano": 2006,
  "Joe": 2007,
  "Europe": 2008,
  "Ali": 2009,
  ".”,": 2010,
  "ọmarị": 2011,
  "ọmarịcha": 2012,
  "zil": 2013,
  "ya.\"": 2014,
  "sele": 2015,
  "ptizi": 2016,
  "nge": 2017,
  "mili": 2018,
  "koria": 2019,
  "jọn": 2020,
  "ihu.": 2021,
  "is": 2022,
  "gana": 2023,
  "gy": 2024,
  "den": 2025,
  "daị": 2026,
  "baptizi": 2027,
  "ba.": 2028,
  "azịza": 2029,
  "Williams": 2030,
  "Wol": 2031,
  "Tho": 2032,
  "Shia": 2033,
  "Pri": 2034,
  "Onwu": 2035,
  "Ogbo": 2036,
  "Mike": 2037,
  "Ikpe": 2038,
  "England": 2039,
  "CO": 2040,
  "ụka.": 2041,
  "ụkwa": 2042,
  "ọgara": 2043,
  "ọgbụ": 2044,
  "ọgbụgba": 2045,
  "ugwu.": 2046,
  "um": 2047,
  "shop": 2048,
  "s\"": 2049,
  "rọshịa": 2050,
  "ra?": 2051,
  "paradaị": 2052,
  "port": 2053,
  "nnọchite": 2054,
  "mmegbu": 2055,
  "mmechi": 2056,
  "h,": 2057,
  "ehihie": 2058,
  "Sala": 2059,
  "River": 2060,
  "Obiano": 2061,
  "Job": 2062,
  "Id": 2063,
  "Democra": 2064,
  "Borno": 2065,
  "Baba": 2066,
  "And": 2067,
  "24": 2068,
  "“e": 2069,
  "ọwa": 2070,
  "win": 2071,
  "ukwu,": 2072,
  "ude": 2073,
  "tho": 2074,
  "nụ,": 2075,
  "ndụ,": 2076,
  "nze": 2077,
  "nsi": 2078,
  "my": 2079,
  "lian": 2080,
  "ememme": 2081,
  "bọje": 2082,
  "ble": 2083,
  "anọ.": 2084,
  "amadị": 2085,
  "ahịa.": 2086,
  "aku": 2087,
  "Yemi": 2088,
  "Bel": 2089,
  "50": 2090,
  "zor": 2091,
  "ya:": 2092,
  "uni": 2093,
  "tom": 2094,
  "rusele": 2095,
  "ree": 2096,
  "r.": 2097,
  "ongress": 2098,
  "ogogo": 2099,
  "nkwụ": 2100,
  "lin": 2101,
  "jerusele": 2102,
  "igbe": 2103,
  "ice": 2104,
  "bụ:": 2105,
  "arba": 2106,
  "Serena": 2107,
  "Rev": 2108,
  "Okezie": 2109,
  "Ikpeazu": 2110,
  "Idris": 2111,
  "Congress": 2112,
  "Clement": 2113,
  "As": 2114,
  "9,": 2115,
  "7,": 2116,
  "udu": 2117,
  "obodo,": 2118,
  "nso.": 2119,
  "kọmpu": 2120,
  "fran": 2121,
  "eri": 2122,
  "dy": 2123,
  "agbata": 2124,
  "abụbụ": 2125,
  "ahu": 2126,
  "Victor": 2127,
  "Sera": 2128,
  "Sy": 2129,
  "Lib": 2130,
  "Igbokwe": 2131,
  "God": 2132,
  "Cou": 2133,
  "Brazil": 2134,
  "11": 2135,
  "-3": 2136,
  "ụlọ.": 2137,
  "ọchịchị,": 2138,
  "ịhụnanya": 2139,
  "w.": 2140,
  "vel": 2141,
  "uhie": 2142,
  "r,": 2143,
  "mmanwụ": 2144,
  "ji,": 2145,
  "ha?": 2146,
  "ha\"": 2147,
  "ghị\"": 2148,
  "febụ": 2149,
  "febụwarị": 2150,
  "ebube": 2151,
  "dun": 2152,
  "deine": 2153,
  "asaa.": 2154,
  "abuja.": 2155,
  "Sha": 2156,
  "Nnamdi": 2157,
  "Kenya": 2158,
  "Em": 2159,
  "Commission": 2160,
  "Chibo": 2161,
  "AR": 2162,
  "198": 2163,
  "“o": 2164,
  "ụka,": 2165,
  "ọkpọka": 2166,
  "ọdịnihu.": 2167,
  "ron": 2168,
  "pasentị": 2169,
  "nwaanyị,": 2170,
  "nri.": 2171,
  "kiti": 2172,
  "kepu": 2173,
  "igbo?": 2174,
  "ght": 2175,
  "eju": 2176,
  "azụ.": 2177,
  "adịgboroja": 2178,
  "UN": 2179,
  "Rehab": 2180,
  "Okorocha": 2181,
  "Oj": 2182,
  "Johnson": 2183,
  "Ibiam": 2184,
  "Garba": 2185,
  "Cos": 2186,
  "Cor": 2187,
  "Big": 2188,
  "6.": 2189,
  "2014": 2190,
  "\"anyị\"": 2191,
  "ọsọ.": 2192,
  "praị": 2193,
  "ozi.": 2194,
  "owerri": 2195,
  "osikapa": 2196,
  "ntị.": 2197,
  "nhazi": 2198,
  "ji.": 2199,
  "illa": 2200,
  "imi": 2201,
  "gency": 2202,
  "ford": 2203,
  "ezi.": 2204,
  "ekpere.": 2205,
  "ee": 2206,
  "day": 2207,
  "aṅụ": 2208,
  "Ume": 2209,
  "Ugwu": 2210,
  "Spa": 2211,
  "Ope": 2212,
  "NL": 2213,
  "Ku": 2214,
  "FF": 2215,
  "Davi": 2216,
  "Ban": 2217,
  "Alla": 2218,
  "2023": 2219,
  "196": 2220,
  "ọjọọ,": 2221,
  "te.": 2222,
  "sọọsọ": 2223,
  "oke.": 2224,
  "one": 2225,
  "nọvemba": 2226,
  "nya.": 2227,
  "nwo": 2228,
  "nsonso": 2229,
  "nghọta": 2230,
  "nzọ": 2231,
  "kọb": 2232,
  "kraịst.": 2233,
  "jekọb": 2234,
  "cial": 2235,
  "Okoye": 2236,
  "Omo": 2237,
  "India": 2238,
  "Char": 2239,
  "Bukola": 2240,
  "7.": 2241,
  "5)": 2242,
  "ọbụla,": 2243,
  "ọsị": 2244,
  "ịlaị": 2245,
  "ogbo": 2246,
  "nleta": 2247,
  "na.": 2248,
  "kraine": 2249,
  "ff": 2250,
  "ako": 2251,
  "Union": 2252,
  "Udemba": 2253,
  "Ukraine": 2254,
  "Uche": 2255,
  "Tim": 2256,
  "NLC": 2257,
  "Mer": 2258,
  "Inno": 2259,
  "Ebreham": 2260,
  "DC": 2261,
  "Cent": 2262,
  "Ang": 2263,
  "8,": 2264,
  "197": 2265,
  "0.": 2266,
  "ụlọọrụ": 2267,
  "ọọ": 2268,
  "wood": 2269,
  "vice": 2270,
  "udi": 2271,
  "tus": 2272,
  "sili": 2273,
  "olly": 2274,
  "ollywood": 2275,
  "mgbu": 2276,
  "gị?": 2277,
  "fero": 2278,
  "ffi": 2279,
  "esem": 2280,
  "dise": 2281,
  "cis": 2282,
  "anọ,": 2283,
  "ames": 2284,
  "Wolves": 2285,
  "San": 2286,
  "Nation": 2287,
  "London": 2288,
  "Bio": 2289,
  "Allah": 2290,
  "All": 2291,
  "9)": 2292,
  "7)": 2293,
  "26": 2294,
  "\"n'\"": 2295,
  "ọkaibe": 2296,
  "ọgaranya": 2297,
  "tta": 2298,
  "som": 2299,
  "siria": 2300,
  "septemba": 2301,
  "ot": 2302,
  "mmiri.": 2303,
  "midi": 2304,
  "hib": 2305,
  "ehab": 2306,
  "bụla.": 2307,
  "bụla,": 2308,
  "ahụhụ.": 2309,
  "ace": 2310,
  "Party": 2311,
  "Okonkwo": 2312,
  "Joseph": 2313,
  "Day": 2314,
  "3)": 2315,
  "2020": 2316,
  "\",\"": 2317,
  "ọnwụ,": 2318,
  "ọganihu": 2319,
  "ọcha.": 2320,
  "ọcha,": 2321,
  "ra\"": 2322,
  "okirikiri": 2323,
  "nwere": 2324,
  "negal": 2325,
  "mmepụta": 2326,
  "lan": 2327,
  "kris": 2328,
  "iwe.": 2329,
  "ikpeazụ,": 2330,
  "ihere": 2331,
  "ilu": 2332,
  "gazi": 2333,
  "eze,": 2334,
  "ego,": 2335,
  "egbu": 2336,
  "bekee.": 2337,
  "aị": 2338,
  "Zam": 2339,
  "Senegal": 2340,
  "Roh": 2341,
  "Ogbu": 2342,
  "Mini": 2343,
  "IS": 2344,
  "Guine": 2345,
  "Femi": 2346,
  "Eji": 2347,
  "Ed": 2348,
  "Democratic": 2349,
  "Dap": 2350,
  "Akanu": 2351,
  "8.": 2352,
  "0,": 2353,
  "ọt": 2354,
  "ṅomi": 2355,
  "pho": 2356,
  "onwealth": 2357,
  "ngwaahịa": 2358,
  "nno": 2359,
  "nchụ": 2360,
  "legọs.": 2361,
  "izugbe": 2362,
  "gre": 2363,
  "chael": 2364,
  "anyị?": 2365,
  "abụ,": 2366,
  "a.\"": 2367,
  "ZA": 2368,
  "Va": 2369,
  "Univer": 2370,
  "Uzo": 2371,
  "Ribe": 2372,
  "Onu": 2373,
  "Maduka": 2374,
  "Kanu": 2375,
  "IV": 2376,
  "Davido": 2377,
  "Commonwealth": 2378,
  "Chibok": 2379,
  "COZA": 2380,
  "Cup": 2381,
  "Cro": 2382,
  "ọka,": 2383,
  "ọpụ": 2384,
  "ọbọ": 2385,
  "urch": 2386,
  "udo.": 2387,
  "tain": 2388,
  "stle": 2389,
  "pụ.": 2390,
  "oti": 2391,
  "ntụnye": 2392,
  "not": 2393,
  "nce": 2394,
  "mbara": 2395,
  "mar": 2396,
  "kọmputa": 2397,
  "kwesili": 2398,
  "idemili": 2399,
  "elu,": 2400,
  "dimkpa": 2401,
  "chool": 2402,
  "bọọlụ.": 2403,
  "amerịka,": 2404,
  "akọ": 2405,
  "Tra": 2406,
  "Rohr": 2407,
  "Ribeka": 2408,
  "PortHarcourt": 2409,
  "Ogu": 2410,
  "Nọt": 2411,
  "Mor": 2412,
  "Indi": 2413,
  "Francis": 2414,
  "Cana": 2415,
  "Adichie": 2416,
  "ASU": 2417,
  "!”": 2418,
  "“mgbe": 2419,
  "ọbụ": 2420,
  "yetti": 2421,
  "si.": 2422,
  "pasent": 2423,
  "ntụliaka.": 2424,
  "njọ.": 2425,
  "nali": 2426,
  "mbịara": 2427,
  "l.": 2428,
  "icester": 2429,
  "hia": 2430,
  "grik": 2431,
  "gige": 2432,
  "fara": 2433,
  "eze.": 2434,
  "esemokwu": 2435,
  "enyo": 2436,
  "do,": 2437,
  "del": 2438,
  "chị.": 2439,
  "ct": 2440,
  "blic": 2441,
  "aṅụrị": 2442,
  "Ngige": 2443,
  "Miyetti": 2444,
  "May": 2445,
  "Leicester": 2446,
  "Ezekwesili": 2447,
  "East": 2448,
  "Ethi": 2449,
  "Christian": 2450,
  "Col": 2451,
  "Bre": 2452,
  "Ani": 2453,
  "Aku": 2454,
  "Ad": 2455,
  "21": 2456,
  "(N": 2457,
  "ụlọahịa": 2458,
  "ọtụ": 2459,
  "tek": 2460,
  "tt": 2461,
  "rin": 2462,
  "rank": 2463,
  "ozigbo": 2464,
  "oge.": 2465,
  "nkwu": 2466,
  "mkpọrọ.": 2467,
  "mic": 2468,
  "mgbaghara": 2469,
  "len": 2470,
  "kla": 2471,
  "eluigwe,": 2472,
  "asị.": 2473,
  "Ojukwu": 2474,
  "Mercy": 2475,
  "Mai": 2476,
  "Iran": 2477,
  "Imo": 2478,
  "Ebo": 2479,
  "Cy": 2480,
  ".\"anyị\"": 2481,
  "(A": 2482,
  "\"nke\"": 2483,
  "“ị": 2484,
  "ọṅụṅụ": 2485,
  "ọtọ.": 2486,
  "ọhụrụ,": 2487,
  "ọfọ": 2488,
  "ọbịa": 2489,
  "yinka": 2490,
  "way": 2491,
  "ugwu,": 2492,
  "teknụ": 2493,
  "teknụzụ": 2494,
  "shu": 2495,
  "ro,": 2496,
  "ring": 2497,
  "ozi,": 2498,
  "onye\"": 2499,
  "og": 2500,
  "nsọ.": 2501,
  "nlekọta": 2502,
  "njedebe": 2503,
  "nsụ": 2504,
  "leke": 2505,
  "kpamkpa": 2506,
  "kolo": 2507,
  "gburugbu": 2508,
  "ganị": 2509,
  "dge": 2510,
  "bu.": 2511,
  "akpụkpọ": 2512,
  "abụ)": 2513,
  "Shiite": 2514,
  "Service": 2515,
  "SAR": 2516,
  "SARS": 2517,
  "King": 2518,
  "IMN": 2519,
  "ID": 2520,
  "HIV": 2521,
  "Ethiop": 2522,
  "Dapchi": 2523,
  "Bishop": 2524,
  "Aja": 2525,
  "AF": 2526,
  "2017.": 2527,
  "zik": 2528,
  "umeala": 2529,
  "u,": 2530,
  "sị\"": 2531,
  "side": 2532,
  "ru?": 2533,
  "pha": 2534,
  "oly": 2535,
  "ochie.": 2536,
  "owu": 2537,
  "nkọwa": 2538,
  "nkwarị": 2539,
  "nin": 2540,
  "nnwere": 2541,
  "magazi": 2542,
  "mon": 2543,
  "mkwe": 2544,
  "m.”": 2545,
  "lle": 2546,
  "kwaghị": 2547,
  "ikiri": 2548,
  "ihu,": 2549,
  "gressi": 2550,
  "gola": 2551,
  "eziokwu?": 2552,
  "eluigwe.": 2553,
  "es": 2554,
  "disemba": 2555,
  "Orji": 2556,
  "Nwachukwu": 2557,
  "Nwan": 2558,
  "Mikel": 2559,
  "Kogi": 2560,
  "Ikechukwu": 2561,
  "Ita": 2562,
  "Frank": 2563,
  "Eli": 2564,
  "Dakolo": 2565,
  "Church": 2566,
  "Britain": 2567,
  "Biodun": 2568,
  "Benja": 2569,
  "ASUU": 2570,
  "Agency": 2571,
  "22": 2572,
  "“ka": 2573,
  "ọnwụnwa": 2574,
  "ọfụma.": 2575,
  "yat": 2576,
  "scar": 2577,
  "re\"": 2578,
  "penali": 2579,
  "penaliti": 2580,
  "pro": 2581,
  "phe": 2582,
  "obiọma": 2583,
  "ote": 2584,
  "nwatakịrị": 2585,
  "nkwenye": 2586,
  "njikọ": 2587,
  "ngwongwo": 2588,
  "nc": 2589,
  "mana\"": 2590,
  "magazin": 2591,
  "ma.": 2592,
  "mne": 2593,
  "kanada": 2594,
  "ifo": 2595,
  "gram": 2596,
  "golayat": 2597,
  "fre": 2598,
  "enugwu.": 2599,
  "ef": 2600,
  "ard": 2601,
  "ahụ.”": 2602,
  "ahịa,": 2603,
  "Umar": 2604,
  "SC": 2605,
  "People": 2606,
  "Peace": 2607,
  "Pu": 2608,
  "Nigeria,": 2609,
  "Michael": 2610,
  "Kim": 2611,
  "James": 2612,
  "Gernot": 2613,
  "Fi": 2614,
  "En": 2615,
  ".\"ndị\"": 2616,
  "-E": 2617,
  "'?": 2618,
  "\"na\"": 2619,
  "ụlọikpe.": 2620,
  "velop": 2621,
  "velopment": 2622,
  "tanka": 2623,
  "socia": 2624,
  "sociation": 2625,
  "oke,": 2626,
  "nsọ,": 2627,
  "nnaya": 2628,
  "lu,": 2629,
  "kwu,": 2630,
  "jijiji": 2631,
  "fraịde.": 2632,
  "di,": 2633,
  "chineke?": 2634,
  "ata": 2635,
  "aja.": 2636,
  "Zamfara": 2637,
  "Universi": 2638,
  "Soyinka": 2639,
  "Secon": 2640,
  "Progressi": 2641,
  "Pi": 2642,
  "Ndu": 2643,
  "Geor": 2644,
  "Ex": 2645,
  "Bur": 2646,
  "Association": 2647,
  "Abdul": 2648,
  "500": 2649,
  "5,": 2650,
  "4,": 2651,
  "2018.": 2652,
  "\"ihe\"": 2653,
  "ọkọlọ": 2654,
  "ọkọlọtọ": 2655,
  "ọkpụkpụ": 2656,
  "ịgba": 2657,
  "uru,": 2658,
  "tive": 2659,
  "tholic": 2660,
  "sime": 2661,
  "sse": 2662,
  "ru:": 2663,
  "roup": 2664,
  "rist": 2665,
  "nesi": 2666,
  "mmiri,": 2667,
  "mkpagbu": 2668,
  "lican": 2669,
  "lli": 2670,
  "isii,": 2671,
  "hole": 2672,
  "gbatagbata": 2673,
  "elsa": 2674,
  "eld": 2675,
  "edeme": 2676,
  "castle": 2677,
  "cto": 2678,
  "alụm": 2679,
  "Sheka": 2680,
  "Po": 2681,
  "Oluse": 2682,
  "Odu": 2683,
  "Nji": 2684,
  "Musa": 2685,
  "Mz.": 2686,
  "Mala": 2687,
  "League.": 2688,
  "FI": 2689,
  "Ethiopia": 2690,
  "Development": 2691,
  "Catholic": 2692,
  "Bayelsa": 2693,
  "Bank": 2694,
  "Anaje": 2695,
  "Aw": 2696,
  "ụzụ": 2697,
  "ụfụ": 2698,
  "ọpị": 2699,
  "taata": 2700,
  "rish": 2701,
  "rael": 2702,
  "paradaịs.": 2703,
  "ozugbo.": 2704,
  "om": 2705,
  "mbuli": 2706,
  "mwe": 2707,
  "kpụrụkpụ": 2708,
  "kpọmkwe": 2709,
  "jeruselem": 2710,
  "jenụwarị": 2711,
  "iwu.": 2712,
  "iteghe": 2713,
  "ime,": 2714,
  "ikpe.": 2715,
  "edemede": 2716,
  "cent": 2717,
  "anambra.": 2718,
  "Yoru": 2719,
  "Thomas": 2720,
  "Tan": 2721,
  "Olusegun": 2722,
  "Nwodo": 2723,
  "Libya": 2724,
  "Kalu": 2725,
  "Israel": 2726,
  "Good": 2727,
  "Gene": 2728,
  "Charles": 2729,
  "Chan": 2730,
  "Canada": 2731,
  "Buso": 2732,
  ".\"o\"": 2733,
  "’)": 2734,
  "ụbọchị.": 2735,
  "ọgụ.": 2736,
  "ọkwụ": 2737,
  "xi": 2738,
  "ukwa": 2739,
  "tiusde.": 2740,
  "stan": 2741,
  "siriak": 2742,
  "shiom": 2743,
  "shiomhole": 2744,
  "rọs": 2745,
  "rus": 2746,
  "praịm": 2747,
  "ochie,": 2748,
  "okwe": 2749,
  "nnọchiteanya": 2750,
  "nnụ": 2751,
  "mkpa:": 2752,
  "mbuze": 2753,
  "m:": 2754,
  "ka.": 2755,
  "isii.": 2756,
  "ino": 2757,
  "hụhụ": 2758,
  "gaasị": 2759,
  "ern": 2760,
  "dibia": 2761,
  "chi.": 2762,
  "alụkwaghị": 2763,
  "Yu": 2764,
  "Wike": 2765,
  "Ugwuanyi": 2766,
  "TV": 2767,
  "Ronal": 2768,
  "PC": 2769,
  "Oshiomhole": 2770,
  "Nnabu": 2771,
  "Newcastle": 2772,
  "Germa": 2773,
  "Busola": 2774,
  "Bar": 2775,
  "Austra": 2776,
  "Airport": 2777,
  "Awa": 2778,
  "6)": 2779,
  "2015.": 2780,
  "-\"": 2781,
  "“unu": 2782,
  "ụkpa": 2783,
  "ọkwọ": 2784,
  "ọchụ": 2785,
  "to,": 2786,
  "twitter": 2787,
  "sị:\"": 2788,
  "ro.": 2789,
  "rest": 2790,
  "ramahụhụ": 2791,
  "oziọma": 2792,
  "oyibo": 2793,
  "obo": 2794,
  "nya,": 2795,
  "nwoke.": 2796,
  "nwoke,": 2797,
  "nwaagbọghọ": 2798,
  "ntaramahụhụ": 2799,
  "ntakịrị": 2800,
  "mahịa": 2801,
  "mgbidi": 2802,
  "laza": 2803,
  "l,": 2804,
  "kọpa": 2805,
  "ke,": 2806,
  "iri.": 2807,
  "ikpere": 2808,
  "ijipt.": 2809,
  "int": 2810,
  "hibru": 2811,
  "hị": 2812,
  "gypt": 2813,
  "gad": 2814,
  "enugwu,": 2815,
  "echiche.": 2816,
  "ek": 2817,
  "dugu": 2818,
  "biko,": 2819,
  "azụmahịa": 2820,
  "asatọ,": 2821,
  "anya.”": 2822,
  "akwa.": 2823,
  "agadi": 2824,
  "________": 2825,
  "Tara": 2826,
  "Stephe": 2827,
  "Shekau": 2828,
  "School": 2829,
  "Rivers": 2830,
  "Oye": 2831,
  "Nations": 2832,
  "Nollywood": 2833,
  "NFF": 2834,
  "Maidugu": 2835,
  "Haru": 2836,
  "Federal": 2837,
  "For": 2838,
  "Egypt": 2839,
  "Communi": 2840,
  "Chioma": 2841,
  "Chad": 2842,
  "Central": 2843,
  "Benjamin": 2844,
  "Benu": 2845,
  "Agule": 2846,
  "Abdulla": 2847,
  "Ameri": 2848,
  "29": 2849,
  "1914": 2850,
  "ịlaịja": 2851,
  "ịdịna": 2852,
  "ya;": 2853,
  "van": 2854,
  "sọnde": 2855,
  "sekọ": 2856,
  "sto": 2857,
  "public": 2858,
  "our": 2859,
  "ojii,": 2860,
  "ohi,": 2861,
  "nwụ,": 2862,
  "nuche": 2863,
  "nkwanye": 2864,
  "ndị;": 2865,
  "ncil": 2866,
  "mma?": 2867,
  "maahịa": 2868,
  "mkpị": 2869,
  "liance": 2870,
  "li.": 2871,
  "lack": 2872,
  "ezina": 2873,
  "ding": 2874,
  "din": 2875,
  "dne": 2876,
  "conomi": 2877,
  "chebe": 2878,
  "bulu": 2879,
  "bon": 2880,
  "azụmaahịa": 2881,
  "azụ,": 2882,
  "asatọ.": 2883,
  "arebia": 2884,
  "ahia": 2885,
  "University": 2886,
  "Timgad": 2887,
  "Saudi": 2888,
  "PS": 2889,
  "Nyako": 2890,
  "Mou": 2891,
  "Lai": 2892,
  "Innoson": 2893,
  "Isa": 2894,
  "Ibo": 2895,
  "Group": 2896,
  "CB": 2897,
  "Alliance": 2898,
  "Abdullahi": 2899,
  "Abra": 2900,
  "400": 2901,
  ")\"": 2902,
  "“i": 2903,
  "ụkwara": 2904,
  "ụra.": 2905,
  "ọpụpụ": 2906,
  "ọlị": 2907,
  "ọkpụrụkpụ": 2908,
  "xico": 2909,
  "sty": 2910,
  "ston": 2911,
  "ship": 2912,
  "ser": 2913,
  "sa,": 2914,
  "stus": 2915,
  "rụwarị": 2916,
  "rity": 2917,
  "rite": 2918,
  "rans": 2919,
  "rg": 2920,
  "phobi": 2921,
  "ogoogo": 2922,
  "nophobi": 2923,
  "ngwọ": 2924,
  "mesa": 2925,
  "mana,": 2926,
  "kno": 2927,
  "izrel.": 2928,
  "iwe,": 2929,
  "inji": 2930,
  "ille": 2931,
  "ill": 2932,
  "ikpeazụ.": 2933,
  "ig": 2934,
  "ha.”": 2935,
  "feb": 2936,
  "febrụwarị": 2937,
  "emeka": 2938,
  "ebum": 2939,
  "enophobi": 2940,
  "chel": 2941,
  "cha,": 2942,
  "asaa,": 2943,
  "akparama": 2944,
  "afrịka,": 2945,
  "You": 2946,
  "There": 2947,
  "Qu": 2948,
  "P)": 2949,
  "Obama": 2950,
  "Mexico": 2951,
  "Mbaise": 2952,
  "Mah": 2953,
  "Mada": 2954,
  "Mana": 2955,
  "Kha": 2956,
  "Insta": 2957,
  "IC": 2958,
  "Hi": 2959,
  "Har": 2960,
  "Guinea": 2961,
  "George": 2962,
  "Economi": 2963,
  "Council": 2964,
  "Benin": 2965,
  "Bayern": 2966,
  "ụra,": 2967,
  "ọrịa.": 2968,
  "ọnịcha,": 2969,
  "yọsi": 2970,
  "visa": 2971,
  "ventu": 2972,
  "vin": 2973,
  "t.": 2974,
  "stal": 2975,
  "rou": 2976,
  "otele": 2977,
  "ork": 2978,
  "olution": 2979,
  "ntutu": 2980,
  "ne,": 2981,
  "nz": 2982,
  "mkpọtụ": 2983,
  "mamanda": 2984,
  "list": 2985,
  "lege": 2986,
  "latị": 2987,
  "kwasị": 2988,
  "ks": 2989,
  "ger": 2990,
  "gar": 2991,
  "gani": 2992,
  "ell": 2993,
  "echiche,": 2994,
  "e?": 2995,
  "di.": 2996,
  "dayọsi": 2997,
  "bi.”": 2998,
  "alakụ": 2999,
  "akụkọ\"": 3000,
  "ahịrị": 3001,
  "ac": 3002,
  "Xenophobi": 3003,
  "Uwa": 3004,
  "Theresa": 3005,
  "Tekno": 3006,
  "Sunda": 3007,
  "Stephen": 3008,
  "Sal": 3009,
  "Revolution": 3010,
  "Ran": 3011,
  "Power": 3012,
  "Pope": 3013,
  "Ortom": 3014,
  "Ogun": 3015,
  "Odi": 3016,
  "Isla": 3017,
  "Haruna": 3018,
  "FIFA": 3019,
  "European": 3020,
  "Chimamanda": 3021,
  "Christ": 3022,
  "Cri": 3023,
  "CN": 3024,
  "Boris": 3025,
  "Bala": 3026,
  "Alge": 3027,
  "At": 3028,
  "Ant": 3029,
  "Ala": 3030,
  "AM": 3031,
  "8)": 3032,
  "2013": 3033,
  "’”": 3034,
  "ụwa?": 3035,
  "ụnyaahụ,": 3036,
  "ụmụada": 3037,
  "ọkwa.": 3038,
  "ọchịchọ": 3039,
  "uchu": 3040,
  "tụma": 3041,
  "to.": 3042,
  "tiu,": 3043,
  "ta\"": 3044,
  "saị": 3045,
  "org": 3046,
  "os": 3047,
  "olo": 3048,
  "oghe": 3049,
  "ntụkwasị": 3050,
  "mmefu": 3051,
  "mak,": 3052,
  "luck": 3053,
  "let": 3054,
  "kpam": 3055,
  "ket": 3056,
  "iwu,": 3057,
  "id": 3058,
  "gwuru": 3059,
  "ganda": 3060,
  "da,": 3061,
  "codeine": 3062,
  "cha.": 3063,
  "cal": 3064,
  "bọọlụ,": 3065,
  "biri": 3066,
  "baptizim": 3067,
  "anya?": 3068,
  "abụbọ": 3069,
  "ama,": 3070,
  "Zara": 3071,
  "WAS": 3072,
  "Sunday": 3073,
  "St.": 3074,
  "Ruga": 3075,
  "Preside": 3076,
  "PSG": 3077,
  "Obio": 3078,
  "Oha": 3079,
  "Ode": 3080,
  "OWAS": 3081,
  "Njikọ": 3082,
  "Nu": 3083,
  "Nsu": 3084,
  "Nnia": 3085,
  "Nke": 3086,
  "Ndi": 3087,
  "NB": 3088,
  "Messi": 3089,
  "Kenne": 3090,
  "Emlin": 3091,
  "ECOWAS": 3092,
  "Enyi": 3093,
  "EMA": 3094,
  "Chief": 3095,
  "Black": 3096,
  "2018,": 3097,
  "2000": 3098,
  "\"ndị\"": 3099,
  "ụgwọ.": 3100,
  "ọsịsọ": 3101,
  "ọnya": 3102,
  "wich": 3103,
  "stri": 3104,
  "sing": 3105,
  "satọde.": 3106,
  "sley": 3107,
  "rial": 3108,
  "riko": 3109,
  "pou": 3110,
  "ous": 3111,
  "otu\"": 3112,
  "omen": 3113,
  "olulu": 3114,
  "ojii.": 3115,
  "ofor": 3116,
  "nzagha": 3117,
  "nyahụ": 3118,
  "nnogh": 3119,
  "nnoghen": 3120,
  "nkeji:": 3121,
  "nish": 3122,
  "nis": 3123,
  "naịjirịa?": 3124,
  "mfe.": 3125,
  "me?": 3126,
  "matiu,": 3127,
  "laye": 3128,
  "jairo": 3129,
  "ingland": 3130,
  "ejiji": 3131,
  "do.": 3132,
  "dinma": 3133,
  "dayọsiisi": 3134,
  "dada": 3135,
  "cese": 3136,
  "cer": 3137,
  "bọjetị": 3138,
  "bi?": 3139,
  "Ze": 3140,
  "Uganda": 3141,
  "UE": 3142,
  "UEFA": 3143,
  "Tanza": 3144,
  "Tur": 3145,
  "Sudan": 3146,
  "Salah": 3147,
  "Solu": 3148,
  "Rama": 3149,
  "Osun": 3150,
  "Ono": 3151,
  "Onnoghen": 3152,
  "Maiduguri": 3153,
  "Kenneth": 3154,
  "Juventu": 3155,
  "Islamic": 3156,
  "II": 3157,
  "Goodluck": 3158,
  "Ezi": 3159,
  "Chine": 3160,
  "Chike": 3161,
  "Cali": 3162,
  "CBN": 3163,
  "Car": 3164,
  "Augu": 3165,
  "Anglican": 3166,
  "Algeria": 3167,
  "Adeleke": 3168,
  "App": 3169,
  "Aka": 3170,
  ":\"": 3171,
  "37": 3172,
  "ụgha.": 3173,
  "ụfọdụ.": 3174,
  "ụnyahụ": 3175,
  "ọsọ,": 3176,
  "ọmụgwọ": 3177,
  "ọs": 3178,
  "zu.": 3179,
  "yahoo": 3180,
  "yode": 3181,
  "ura": 3182,
  "res": 3183,
  "rah": 3184,
  "phosa": 3185,
  "nwanna": 3186,
  "nwa.": 3187,
  "ngosi": 3188,
  "mmehi": 3189,
  "midia.": 3190,
  "lịkan": 3191,
  "jeriko": 3192,
  "goolu.": 3193,
  "chị,": 3194,
  "ban": 3195,
  "ang": 3196,
  "amaw": 3197,
  "akwa,": 3198,
  "akparamagwa": 3199,
  "aka?": 3200,
  "ahụ.\"": 3201,
  "ajị": 3202,
  "Yusu": 3203,
  "Yoruba": 3204,
  "WA": 3205,
  "WAEC": 3206,
  "Soko": 3207,
  "Ramaphosa": 3208,
  "Rus": 3209,
  "Progressive": 3210,
  "Poli": 3211,
  "NAF": 3212,
  "Melaye": 3213,
  "Kaduna": 3214,
  "Josef.": 3215,
  "Jong": 3216,
  "Ji": 3217,
  "Instagram": 3218,
  "Ibom": 3219,
  "Health": 3220,
  "Grand": 3221,
  "Ebonyi": 3222,
  "College": 3223,
  "Buhari,": 3224,
  "Bello": 3225,
  "Bru": 3226,
  "Alexand": 3227,
  "Amara": 3228,
  "Achebe": 3229,
  "-O": 3230,
  "\"-\"": 3231,
  "ụgbọmmiri": 3232,
  "ọzọ?": 3233,
  "ọhịa.": 3234,
  "ọbụna": 3235,
  "zuru": 3236,
  "yele": 3237,
  "yuro": 3238,
  "yurop": 3239,
  "xit": 3240,
  "vie": 3241,
  "unu.": 3242,
  "uba": 3243,
  "tụmadị": 3244,
  "stry": 3245,
  "rer": 3246,
  "poli": 3247,
  "py": 3248,
  "nzọpụta": 3249,
  "ntị,": 3250,
  "nsibi": 3251,
  "nnụnụ": 3252,
  "nchekwa,": 3253,
  "nkwọ": 3254,
  "mọnde.": 3255,
  "mmụọ.": 3256,
  "mmer": 3257,
  "mahadu": 3258,
  "mah": 3259,
  "leagu": 3260,
  "lazarọs": 3261,
  "las": 3262,
  "kwa.": 3263,
  "izi": 3264,
  "hony": 3265,
  "gers": 3266,
  "gba.": 3267,
  "fim": 3268,
  "fị": 3269,
  "ezie,": 3270,
  "ebumnuche": 3271,
  "ctu": 3272,
  "bụ?": 3273,
  "bekee,": 3274,
  "arụsị": 3275,
  "akụnụ": 3276,
  "aro": 3277,
  "Yobe": 3278,
  "Villa": 3279,
  "Taraba": 3280,
  "Ronaldo": 3281,
  "Paris": 3282,
  "Onwuama": 3283,
  "Omoyele": 3284,
  "Oscar": 3285,
  "Norwich": 3286,
  "Madaga": 3287,
  "Italy": 3288,
  "Idi": 3289,
  "Ekiti": 3290,
  "Dabiri": 3291,
  "Dino": 3292,
  "DAC": 3293,
  "Cross": 3294,
  "Chido": 3295,
  "Che": 3296,
  "Can": 3297,
  "Brexit": 3298,
  "Anthony": 3299,
  "Adesina": 3300,
  "Azik": 3301,
  "An": 3302,
  "Ami": 3303,
  "30,": 3304,
  "-4": 3305,
  "\"\"n'\"": 3306,
  "\"ka\"": 3307,
  "ụlọmkpọrọ": 3308,
  "ya,\"": 3309,
  "wenezde.": 3310,
  "uju.": 3311,
  "udo,": 3312,
  "ume.": 3313,
  "tọzde.": 3314,
  "tine": 3315,
  "sị,\"": 3316,
  "so.": 3317,
  "ru\"": 3318,
  "part": 3319,
  "on,": 3320,
  "ohi.": 3321,
  "ogu": 3322,
  "nwe.": 3323,
  "nka,": 3324,
  "niile.”": 3325,
  "nor": 3326,
  "ngụ": 3327,
  "mma.”": 3328,
  "kame": 3329,
  "kah": 3330,
  "janụwarị": 3331,
  "iri,": 3332,
  "injin": 3333,
  "ghalo": 3334,
  "gbu.": 3335,
  "enyi,": 3336,
  "ejima": 3337,
  "dị?": 3338,
  "bọjet": 3339,
  "buka": 3340,
  "baịbụl?": 3341,
  "agbara": 3342,
  "a.”": 3343,
  "awa": 3344,
  "aja,": 3345,
  "Uzodinma": 3346,
  "Togo": 3347,
  "Republic": 3348,
  "Peoples": 3349,
  "Operation": 3350,
  "Osa": 3351,
  "Ondo": 3352,
  "Norway": 3353,
  "Njikọka": 3354,
  "NAFDAC": 3355,
  "Mon": 3356,
  "Ighalo": 3357,
  "Iba": 3358,
  "Germany": 3359,
  "General": 3360,
  "Ezeife": 3361,
  "Economic": 3362,
  "Dave": 3363,
  "Don": 3364,
  "Congo": 3365,
  "Chukwuemeka": 3366,
  "Channe": 3367,
  "Bles": 3368,
  "Anajemba": 3369,
  "Amaechi": 3370,
  "Adama": 3371,
  "Abraham": 3372,
  "Action": 3373,
  "2016.": 3374,
  "20,": 3375,
  "15,": 3376,
  ".\"n'\"": 3377,
  ".\"ihe\"": 3378,
  "-A": 3379,
  "“ma": 3380,
  "ụtụtụ,": 3381,
  "ụlọọgwụ.": 3382,
  "ọgọst,": 3383,
  "ọchị.": 3384,
  "ịntaneti.": 3385,
  "ịkpe": 3386,
  "ziaka": 3387,
  "yị": 3388,
  "y,": 3389,
  "ww.": 3390,
  "www.": 3391,
  "wn": 3392,
  "verton": 3393,
  "vre": 3394,
  "ustom": 3395,
  "strị": 3396,
  "spen.": 3397,
  "saụdi": 3398,
  "sy": 3399,
  "rụ\"": 3400,
  "por": 3401,
  "onyinye,": 3402,
  "osu": 3403,
  "nịstrị": 3404,
  "mịnịstrị": 3405,
  "luk": 3406,
  "le,": 3407,
  "krismas": 3408,
  "jụụ": 3409,
  "jw.": 3410,
  "iko.": 3411,
  "icheiche.": 3412,
  "iberibe": 3413,
  "fai": 3414,
  "ezigbote": 3415,
  "ezi,": 3416,
  "esom": 3417,
  "buike": 3418,
  "bour": 3419,
  "bedel": 3420,
  "anụrị": 3421,
  "all": 3422,
  "abalị,": 3423,
  "awụ": 3424,
  "arọ": 3425,
  "York": 3426,
  "Wat": 3427,
  "Women": 3428,
  "Ve": 3429,
  "Turke": 3430,
  "Trans": 3431,
  "Spanish": 3432,
  "Samson": 3433,
  "Rufai": 3434,
  "Road": 3435,
  "Osita": 3436,
  "Organi": 3437,
  "Oli": 3438,
  "Nyesom": 3439,
  "Now": 3440,
  "Kayode": 3441,
  "JAM": 3442,
  "JAMB": 3443,
  "IMF": 3444,
  "Hope": 3445,
  "Gol": 3446,
  "Foot": 3447,
  "Flo": 3448,
  "FB": 3449,
  "FBI": 3450,
  "Enyinnaya": 3451,
  "Everton": 3452,
  "EU": 3453,
  "Cosmas": 3454,
  "Community": 3455,
  "Codeine": 3456,
  "Chidi": 3457,
  "Channels": 3458,
  "Custom": 3459,
  "Cla": 3460,
  "America": 3461,
  "Abike": 3462,
  "APC.": 3463,
  "Are": 3464,
  "AT": 3465,
  "A)": 3466,
  "60": 3467,
  "33": 3468,
  "194": 3469,
  "ụmụaka.": 3470,
  "ụlọelu": 3471,
  "ọnụahịa": 3472,
  "èvre": 3473,
  "wenezde,": 3474,
  "ward": 3475,
  "wanda": 3476,
  "uteeze": 3477,
  "ustin": 3478,
  "urundi": 3479,
  "tical": 3480,
  "tanya": 3481,
  "tanyahu": 3482,
  "taa?": 3483,
  "ta?": 3484,
  "rystal": 3485,
  "pende": 3486,
  "ogle": 3487,
  "ofesi.": 3488,
  "obi?": 3489,
  "nụ!": 3490,
  "nzukọ.": 3491,
  "nwa,": 3492,
  "ntuziaka": 3493,
  "nso,": 3494,
  "nich": 3495,
  "ni,": 3496,
  "ngagwa": 3497,
  "nes": 3498,
  "nangagwa": 3499,
  "mọnde,": 3500,
  "mnesty": 3501,
  "maka\"": 3502,
  "ma\"": 3503,
  "mb": 3504,
  "lint": 3505,
  "kwu?": 3506,
  "klaasị": 3507,
  "keke": 3508,
  "kali": 3509,
  "jeria": 3510,
  "isiala": 3511,
  "injinịa": 3512,
  "ikpe,": 3513,
  "ikwu": 3514,
  "ibu.": 3515,
  "ghton": 3516,
  "gara": 3517,
  "gan": 3518,
  "fèvre": 3519,
  "ezinaụlọ": 3520,
  "ence": 3521,
  "egbe.": 3522,
  "ders": 3523,
  "bịlọ": 3524,
  "bel": 3525,
  "babịlọ": 3526,
  "bn": 3527,
  "alakụba": 3528,
  "alace": 3529,
  "aljeria": 3530,
  "akwụna": 3531,
  "aha.": 3532,
  "abacha": 3533,
  "Udo": 3534,
  "Turkey": 3535,
  "Tha": 3536,
  "Spain": 3537,
  "Solo": 3538,
  "Sia": 3539,
  "Regi": 3540,
  "Rwanda": 3541,
  "Roge": 3542,
  "Prima": 3543,
  "Phi": 3544,
  "Okechukwu": 3545,
  "Obo": 3546,
  "Netanyahu": 3547,
  "NYSC": 3548,
  "Musta": 3549,
  "Munich": 3550,
  "Mnangagwa": 3551,
  "Lefèvre": 3552,
  "Lan": 3553,
  "Keshi": 3554,
  "Kat": 3555,
  "Juventus": 3556,
  "Inde": 3557,
  "Ibe": 3558,
  "Grace": 3559,
  "Google": 3560,
  "Gi": 3561,
  "Federation": 3562,
  "Ebola": 3563,
  "Equ": 3564,
  "Ekwu": 3565,
  "Boy": 3566,
  "Burundi": 3567,
  "Ber": 3568,
  "Azikiwe": 3569,
  "Awgu": 3570,
  "Australia": 3571,
  "Andre": 3572,
  "Aso": 3573,
  "Ash": 3574,
  "Asa": 3575,
  "Amnesty": 3576,
  "27": 3577,
  "--": 3578,
  "“otu": 3579,
  "“obi": 3580,
  "“anyị": 3581,
  "’,": 3582,
  "ụmụahịa": 3583,
  "ọrụ)": 3584,
  "ọka.": 3585,
  "ychel": 3586,
  "ychelles": 3587,
  "vement": 3588,
  "ugbo,": 3589,
  "tics": 3590,
  "te\"": 3591,
  "tte": 3592,
  "ses": 3593,
  "satọdee": 3594,
  "sa.": 3595,
  "rinho": 3596,
  "ril": 3597,
  "rench": 3598,
  "red": 3599,
  "pyrus": 3600,
  "papyrus": 3601,
  "ozuzo": 3602,
  "ohu.": 3603,
  "ogidi": 3604,
  "nwayọọ,": 3605,
  "ntọala": 3606,
  "nsogbu,": 3607,
  "nsibidi": 3608,
  "nnwereonwe": 3609,
  "nchụaja": 3610,
  "nisi": 3611,
  "mkpa,": 3612,
  "mgbe\"": 3613,
  "mesaya": 3614,
  "mbize": 3615,
  "ms": 3616,
  "m?": 3617,
  "luk,": 3618,
  "lestine": 3619,
  "la\"": 3620,
  "kọp": 3621,
  "kpọmkwem": 3622,
  "kpọ\"": 3623,
  "kamel": 3624,
  "kin": 3625,
  "ha.\"": 3626,
  "fraịde,": 3627,
  "fransị": 3628,
  "ekere": 3629,
  "dary": 3630,
  "dg": 3631,
  "baptizim,": 3632,
  "asị,": 3633,
  "akpị": 3634,
  "Yusuf": 3635,
  "Yaku": 3636,
  "Watford": 3637,
  "Udemba.": 3638,
  "Tunisi": 3639,
  "Tanzania": 3640,
  "Tacha": 3641,
  "Seychelles": 3642,
  "Que": 3643,
  "Osho": 3644,
  "Ngo": 3645,
  "Mourinho": 3646,
  "Maina": 3647,
  "Magu": 3648,
  "Korea": 3649,
  "Kon": 3650,
  "Jong-": 3651,
  "Jane": 3652,
  "Jor": 3653,
  "Independe": 3654,
  "High": 3655,
  "Hou": 3656,
  "Federer": 3657,
  "French": 3658,
  "Edo": 3659,
  "Crystal": 3660,
  "Brighton": 3661,
  "Blessing": 3662,
  "Arabi": 3663,
  "Anya": 3664,
  "Ange": 3665,
  ";)": 3666,
  "2018:": 3667,
  "2017,": 3668,
  "2014.": 3669,
  "10,": 3670,
  "\"\"na\"": 3671,
  "\"\".\"": 3672,
  "“mkpụrụ": 3673,
  "“ha": 3674,
  "ụkwụ.": 3675,
  "ọtọ,": 3676,
  "ọstra": 3677,
  "ọghọ": 3678,
  "ṅa": 3679,
  "zu,": 3680,
  "zi.": 3681,
  "uri": 3682,
  "un": 3683,
  "ube": 3684,
  "tia": 3685,
  "tary": 3686,
  "tra": 3687,
  "shola": 3688,
  "sekọnd": 3689,
  "riri": 3690,
  "rima": 3691,
  "que": 3692,
  "pito": 3693,
  "osisi,": 3694,
  "ord": 3695,
  "oloko": 3696,
  "okwuchukwu": 3697,
  "obiano,": 3698,
  "obere.": 3699,
  "ogwu": 3700,
  "nye.": 3701,
  "nic": 3702,
  "ngwa,": 3703,
  "nebọ": 3704,
  "ndina": 3705,
  "ndagwuru": 3706,
  "ndagwurugwu": 3707,
  "nan": 3708,
  "ngwe": 3709,
  "mou": 3710,
  "mmy": 3711,
  "mi,": 3712,
  "mgbọrọ": 3713,
  "mgbe,": 3714,
  "mbụ:": 3715,
  "mkpụ": 3716,
  "lari": 3717,
  "jenesi": 3718,
  "izu,": 3719,
  "izrel,": 3720,
  "imiri": 3721,
  "iberi": 3722,
  "hooha": 3723,
  "ha:": 3724,
  "gwongworo": 3725,
  "gburugburu,": 3726,
  "gboo,": 3727,
  "gba,": 3728,
  "ful": 3729,
  "ffield": 3730,
  "etiti.": 3731,
  "ebe,": 3732,
  "e!": 3733,
  "dgz.": 3734,
  "dah": 3735,
  "da.": 3736,
  "ctoral": 3737,
  "chineke.”": 3738,
  "bu,": 3739,
  "be.": 3740,
  "ball": 3741,
  "bal": 3742,
  "arụrụ": 3743,
  "anusi": 3744,
  "ahụike,": 3745,
  "abuja,": 3746,
  "abalị.": 3747,
  "Whi": 3748,
  "Wal": 3749,
  "VC": 3750,
  "Umeh": 3751,
  "Tiwa": 3752,
  "Sheffield": 3753,
  "SSOB": 3754,
  "Rangers": 3755,
  "Queen": 3756,
  "Patri": 3757,
  "Oki": 3758,
  "Nigeria:": 3759,
  "Ndubu": 3760,
  "Nan": 3761,
  "Mohamed": 3762,
  "Ministry": 3763,
  "Martin": 3764,
  "MASSOB": 3765,
  "Law": 3766,
  "Lo": 3767,
  "Katsina": 3768,
  "Jide": 3769,
  "Isaac": 3770,
  "Ire": 3771,
  "Hen": 3772,
  "Gabon": 3773,
  "Forest": 3774,
  "Festus": 3775,
  "Fri": 3776,
  "Electoral": 3777,
  "Customs": 3778,
  "Camp": 3779,
  "BBNaija": 3780,
  "Aguleri": 3781,
  "Anti": 3782,
  "Amu": 3783,
  "AI": 3784,
  "45": 3785,
  "40": 3786,
  "2020.": 3787,
  "2015,": 3788,
  "195": 3789,
  "11,": 3790,
  "(S": 3791,
  "“na-": 3792,
  "ọrịa,": 3793,
  "ọnwa.": 3794,
  "ọktoba.": 3795,
  "ọchịagha": 3796,
  "ọsụ": 3797,
  "ugboro.": 3798,
  "uke": 3799,
  "soja": 3800,
  "sion": 3801,
  "shua": 3802,
  "rumba": 3803,
  "rance": 3804,
  "pọtị": 3805,
  "pas": 3806,
  "omume.": 3807,
  "omume,": 3808,
  "oge\"": 3809,
  "ost": 3810,
  "oo": 3811,
  "nye,": 3812,
  "nwunye.": 3813,
  "nsọpụrụ": 3814,
  "nka.": 3815,
  "nie": 3816,
  "neu": 3817,
  "mmụọ,": 3818,
  "mmekọ": 3819,
  "mmebi": 3820,
  "mmadụ?": 3821,
  "meya": 3822,
  "lius": 3823,
  "li,": 3824,
  "lation": 3825,
  "iteghete,": 3826,
  "inab": 3827,
  "imirikiti": 3828,
  "hoohaa": 3829,
  "gọọmentị,": 3830,
  "gịnị?": 3831,
  "gua": 3832,
  "gement": 3833,
  "gburugburu.": 3834,
  "gboo.": 3835,
  "emeodo": 3836,
  "ekpenta": 3837,
  "ekeresime": 3838,
  "ee,": 3839,
  "col": 3840,
  "briel": 3841,
  "asara": 3842,
  "aland": 3843,
  "aka.”": 3844,
  "ato": 3845,
  "Zealand": 3846,
  "Zainab": 3847,
  "Yakubu": 3848,
  "War": 3849,
  "Uba": 3850,
  "Tech": 3851,
  "Syria": 3852,
  "Osuji": 3853,
  "Onyema": 3854,
  "Onwuemeodo": 3855,
  "Okeke": 3856,
  "Oyo": 3857,
  "Ojo": 3858,
  "Nwankwo": 3859,
  "Nnabuihe": 3860,
  "Ney": 3861,
  "Movement": 3862,
  "Moses": 3863,
  "Kukah": 3864,
  "Khafi": 3865,
  "Jideọfọ": 3866,
  "Jere": 3867,
  "Indo": 3868,
  "Isi": 3869,
  "Ilo": 3870,
  "IA": 3871,
  "Gover": 3872,
  "Gabriel": 3873,
  "Fre": 3874,
  "Ejike": 3875,
  "Dru": 3876,
  "Dike": 3877,
  "Cyril": 3878,
  "Arabia": 3879,
  "Andrew": 3880,
  "Abacha": 3881,
  "Amo": 3882,
  "Agba": 3883,
  "Achu": 3884,
  ";,": 3885,
  "2007": 3886,
  "2-": 3887,
  "14)": 3888,
  "“dị": 3889,
  "ụjọ.": 3890,
  "ụgbọala.": 3891,
  "ụdọ": 3892,
  "ọzọ.”": 3893,
  "ọsịsa": 3894,
  "ọgụ,": 3895,
  "ọghọm": 3896,
  "ọrumba": 3897,
  "ị\"": 3898,
  "yu": 3899,
  "wan": 3900,
  "ugbog": 3901,
  "udele": 3902,
  "thy": 3903,
  "t,": 3904,
  "sịga,": 3905,
  "shing": 3906,
  "ska": 3907,
  "rụ?": 3908,
  "pital": 3909,
  "penal": 3910,
  "penalty": 3911,
  "paradaịs": 3912,
  "pre": 3913,
  "ozizi": 3914,
  "onel": 3915,
  "oju": 3916,
  "ojuju": 3917,
  "nubu": 3918,
  "nkịtị.": 3919,
  "njọ,": 3920,
  "njem.": 3921,
  "niile?": 3922,
  "ngwa.": 3923,
  "nghọtahie": 3924,
  "neumo": 3925,
  "nder": 3926,
  "nchekwu": 3927,
  "mọn": 3928,
  "mpị": 3929,
  "mpanọ": 3930,
  "mmerson": 3931,
  "mmerụ": 3932,
  "mmanya.": 3933,
  "mkpụrụ.": 3934,
  "mkparị": 3935,
  "mgbọrọgwụ": 3936,
  "mgbali": 3937,
  "meyang": 3938,
  "melu": 3939,
  "maachị.": 3940,
  "m)": 3941,
  "loma": 3942,
  "lip": 3943,
  "lia.": 3944,
  "koro": 3945,
  "kemgbe.": 3946,
  "kampanọ": 3947,
  "iyi.": 3948,
  "itoolu,": 3949,
  "ifufe": 3950,
  "har": 3951,
  "ha;": 3952,
  "huru": 3953,
  "ge:": 3954,
  "fiele": 3955,
  "eziokwu.”": 3956,
  "enyi.": 3957,
  "elị": 3958,
  "ebe\"": 3959,
  "et": 3960,
  "bịbịa": 3961,
  "burg": 3962,
  "bar": 3963,
  "bameyang": 3964,
  "asaba": 3965,
  "anyị.”": 3966,
  "ahụhụ,": 3967,
  "alo": 3968,
  "Zida": 3969,
  "Xenophobia": 3970,
  "Wole": 3971,
  "Wil": 3972,
  "UT": 3973,
  "Tinubu": 3974,
  "Solomon": 3975,
  "Siasia": 3976,
  "Secondary": 3977,
  "Russia": 3978,
  "Rock": 3979,
  "Rabi": 3980,
  "Powerful": 3981,
  "Per": 3982,
  "Palace": 3983,
  "Onwuamaegbu": 3984,
  "Obiora": 3985,
  "Otti": 3986,
  "Okwu": 3987,
  "Ngozi": 3988,
  "Neymar": 3989,
  "Nasara": 3990,
  "NPC": 3991,
  "NNPC": 3992,
  "Morsi": 3993,
  "Management": 3994,
  "Mc": 3995,
  "Lionel": 3996,
  "Kabi": 3997,
  "Ireland": 3998,
  "Haram.": 3999,
  "Hau": 4000,
  "HO": 4001,
  "Gan": 4002,
  "Emefiele": 4003,
  "Emmerson": 4004,
  "Chukwuma": 4005,
  "Chile": 4006,
  "Bridge": 4007,
  "Bale": 4008,
  "Bebe": 4009,
  "Aubameyang": 4010,
  "Anglịkan": 4011,
  "Alha": 4012,
  "Al-": 4013,
  "Abang": 4014,
  "Asi": 4015,
  "Akpa": 4016,
  "Agbo": 4017,
  "Abe": 4018,
  "2012": 4019,
  "14,": 4020,
  ".\"mana\"": 4021,
  "(gba": 4022,
  "(APC": 4023,
  "”.": 4024,
  "“na-e": 4025,
  "“mmadụ": 4026,
  "“le": 4027,
  "ụlọikwu": 4028,
  "ụlọikwuu": 4029,
  "ụkwụ,": 4030,
  "ọrụ?": 4031,
  "ọnịcha.": 4032,
  "ọdụm": 4033,
  "ọchịchịrị": 4034,
  "ọbịbịa": 4035,
  "ịba": 4036,
  "zon": 4037,
  "zbọ": 4038,
  "yemi": 4039,
  "we,": 4040,
  "wal": 4041,
  "utu": 4042,
  "thur": 4043,
  "sọl": 4044,
  "sul": 4045,
  "siriri": 4046,
  "sir": 4047,
  "sin": 4048,
  "shington": 4049,
  "shia": 4050,
  "sanya": 4051,
  "ructu": 4052,
  "roc": 4053,
  "ribu": 4054,
  "reen": 4055,
  "re;": 4056,
  "pastọ": 4057,
  "oriri.": 4058,
  "ogene": 4059,
  "odee": 4060,
  "odi": 4061,
  "nsụgharị": 4062,
  "nnupụ": 4063,
  "nna,": 4064,
  "nkịrị": 4065,
  "ngwangwa": 4066,
  "neumonia": 4067,
  "nebuka": 4068,
  "nebukadne": 4069,
  "nchekwube": 4070,
  "nant": 4071,
  "nmi": 4072,
  "nja": 4073,
  "mad": 4074,
  "mson": 4075,
  "llion": 4076,
  "line": 4077,
  "life": 4078,
  "latịn": 4079,
  "la:": 4080,
  "kpando": 4081,
  "kpakpando": 4082,
  "kpi": 4083,
  "kedụ\"": 4084,
  "ker": 4085,
  "kara": 4086,
  "kapito": 4087,
  "ijipt,": 4088,
  "ihe.”": 4089,
  "igwe,": 4090,
  "ire": 4091,
  "gọọmentị.": 4092,
  "frey": 4093,
  "fer": 4094,
  "enyemaka.": 4095,
  "election": 4096,
  "ekike": 4097,
  "ehi,": 4098,
  "ekwo": 4099,
  "ebi": 4100,
  "diocese": 4101,
  "cie": 4102,
  "card": 4103,
  "bezbọ": 4104,
  "babịlọn": 4105,
  "awụsa": 4106,
  "asịrị": 4107,
  "arch": 4108,
  "anụmanụ.": 4109,
  "ala?": 4110,
  "akwara": 4111,
  "Ya": 4112,
  "Weah": 4113,
  "Washington": 4114,
  "Thomson": 4115,
  "Thi": 4116,
  "Sule": 4117,
  "Sokoto": 4118,
  "Sla": 4119,
  "Regina": 4120,
  "Rede": 4121,
  "Radio": 4122,
  "Pneumonia": 4123,
  "Odume": 4124,
  "Oga": 4125,
  "Nsuk": 4126,
  "Mustapha": 4127,
  "Mat": 4128,
  "Leah": 4129,
  "Lassa": 4130,
  "Kingsley": 4131,
  "Kanu:": 4132,
  "Independent": 4133,
  "Hos": 4134,
  "Golden": 4135,
  "Emzor": 4136,
  "Eliza": 4137,
  "Election:": 4138,
  "El-Rufai": 4139,
  "Ejiofor": 4140,
  "China.": 4141,
  "CC": 4142,
  "Buhari.": 4143,
  "Bob": 4144,
  "Arthur": 4145,
  "Allen": 4146,
  "Adinu": 4147,
  "90": 4148,
  "2023.": 4149,
  "13)": 4150,
  "11)": 4151,
  ".\"nke\"": 4152,
  "($": 4153,
  "“nke": 4154,
  "“na-a": 4155,
  "ụtọ.”": 4156,
  "ụgbọala,": 4157,
  "ọkọchị": 4158,
  "ọta": 4159,
  "ọ?": 4160,
  "Ọka": 4161,
  "Ọkafọ": 4162,
  "ịtụ": 4163,
  "ịtụna": 4164,
  "zara": 4165,
  "windo": 4166,
  "uru?": 4167,
  "ultu": 4168,
  "uche.": 4169,
  "ut": 4170,
  "umu": 4171,
  "toma": 4172,
  "tiusde,": 4173,
  "timi": 4174,
  "tico": 4175,
  "therland": 4176,
  "tel": 4177,
  "te:": 4178,
  "sus": 4179,
  "stant": 4180,
  "sman": 4181,
  "s)": 4182,
  "ructuring": 4183,
  "rocco": 4184,
  "ria.": 4185,
  "ria,": 4186,
  "rate": 4187,
  "pụl": 4188,
  "pọtịfa": 4189,
  "praịma": 4190,
  "pse": 4191,
  "pper": 4192,
  "ory": 4193,
  "ole.": 4194,
  "obi.”": 4195,
  "oba": 4196,
  "nzuzo,": 4197,
  "nzuzu": 4198,
  "nwamkpị": 4199,
  "nuk": 4200,
  "nnupụisi": 4201,
  "nebọt": 4202,
  "ndụ.”": 4203,
  "ndịisi": 4204,
  "naịjirịa\"": 4205,
  "nte": 4206,
  "mwere": 4207,
  "mpton": 4208,
  "mmehie.": 4209,
  "mkpọrọ,": 4210,
  "mgbago": 4211,
  "men": 4212,
  "media": 4213,
  "mberede.": 4214,
  "mahadum,": 4215,
  "los": 4216,
  "listra": 4217,
  "lebe": 4218,
  "lass": 4219,
  "kuzi": 4220,
  "kraịst.”": 4221,
  "kenan": 4222,
  "kaliki": 4223,
  "ision": 4224,
  "ilding": 4225,
  "ikom": 4226,
  "iberiibe": 4227,
  "gọọmentị\"": 4228,
  "ghani": 4229,
  "gboo?": 4230,
  "frans": 4231,
  "ezie.": 4232,
  "eriri": 4233,
  "eprel,": 4234,
  "elle": 4235,
  "ekperima": 4236,
  "efu.": 4237,
  "ed": 4238,
  "dibịa": 4239,
  "curity": 4240,
  "che,": 4241,
  "cou": 4242,
  "bịafra.": 4243,
  "bio": 4244,
  "atụ.": 4245,
  "anyanwụ,": 4246,
  "amaokwu": 4247,
  "ahụ;": 4248,
  "abakaliki": 4249,
  "at": 4250,
  "agwọ": 4251,
  "WHO": 4252,
  "Vene": 4253,
  "Vir": 4254,
  "Uloma": 4255,
  "Ter": 4256,
  "South,": 4257,
  "Soludo": 4258,
  "Swe": 4259,
  "Sanusi": 4260,
  "Rotimi": 4261,
  "Roma": 4262,
  "Red": 4263,
  "PDP.": 4264,
  "Open": 4265,
  "Onyebu": 4266,
  "Odumegwu": 4267,
  "Oma": 4268,
  "Of": 4269,
  "Odo": 4270,
  "Nwoko": 4271,
  "Nigeria\"": 4272,
  "Mur": 4273,
  "Morocco": 4274,
  "Mogha": 4275,
  "Milan": 4276,
  "Mary": 4277,
  "Libe": 4278,
  "Joshua": 4279,
  "Innocent": 4280,
  "Idigo": 4281,
  "Ibadan": 4282,
  "Ije": 4283,
  "Ide": 4284,
  "Highlife": 4285,
  "Henry": 4286,
  "Harry": 4287,
  "Godwin": 4288,
  "Fashola": 4289,
  "Fani": 4290,
  "FAAN": 4291,
  "Elkana": 4292,
  "Emi": 4293,
  "Day:": 4294,
  "Den": 4295,
  "Coa": 4296,
  "Chisom": 4297,
  "Chinu": 4298,
  "Cathe": 4299,
  "CAF": 4300,
  "Border": 4301,
  "Binta": 4302,
  "Bol": 4303,
  "Alhaji": 4304,
  "Adams": 4305,
  "Achuzi": 4306,
  "Aya": 4307,
  "Ari": 4308,
  "Ango": 4309,
  "5:": 4310,
  "47": 4311,
  "44": 4312,
  "39": 4313,
  "2:": 4314,
  "10)": 4315,
  ".\"akụkọ\"": 4316,
  ".\"a\"": 4317,
  "'\"": 4318,
  "\"bụ\"": 4319,
  "“okwu": 4320,
  "“nna": 4321,
  "ụwa.”": 4322,
  "ụmụaka,": 4323,
  "ụgwọ,": 4324,
  "ọrụ\"": 4325,
  "ọhịa,": 4326,
  "ọgọst.": 4327,
  "ọgwụ,": 4328,
  "ọha.": 4329,
  "ị,": 4330,
  "zị,": 4331,
  "ying": 4332,
  "unu.”": 4333,
  "unu,": 4334,
  "umengwụ": 4335,
  "ulga": 4336,
  "ugbo.": 4337,
  "unyi": 4338,
  "uhi": 4339,
  "tunde": 4340,
  "ters": 4341,
  "tebụl": 4342,
  "tter": 4343,
  "stitu": 4344,
  "sation": 4345,
  "rison": 4346,
  "ri\"": 4347,
  "rence": 4348,
  "refe": 4349,
  "praịmarị": 4350,
  "pound": 4351,
  "ozugbo,": 4352,
  "ozubulu": 4353,
  "owerri,": 4354,
  "otuto": 4355,
  "ogiri": 4356,
  "oye": 4357,
  "obu": 4358,
  "nụ?": 4359,
  "nwe,": 4360,
  "ntụliaka,": 4361,
  "ntial": 4362,
  "nnochite": 4363,
  "nnes": 4364,
  "nley": 4365,
  "nkewa": 4366,
  "ning": 4367,
  "ndụ?": 4368,
  "ndidi": 4369,
  "nchekwa.": 4370,
  "nkarị": 4371,
  "ngọ": 4372,
  "ngwu": 4373,
  "mola": 4374,
  "mbịarambịara": 4375,
  "mamị": 4376,
  "lụ.": 4377,
  "lịka": 4378,
  "lue": 4379,
  "legọs,": 4380,
  "league": 4381,
  "la?": 4382,
  "lying": 4383,
  "kwara": 4384,
  "kunle": 4385,
  "kanda": 4386,
  "jizọs?": 4387,
  "izuu": 4388,
  "izu.": 4389,
  "izizi": 4390,
  "imon": 4391,
  "ig.": 4392,
  "ham,": 4393,
  "gbu,": 4394,
  "gbo,": 4395,
  "ggi": 4396,
  "fia": 4397,
  "fe.": 4398,
  "face": 4399,
  "etiti,": 4400,
  "ekeresimesi": 4401,
  "ebere.": 4402,
  "ebere,": 4403,
  "ebee": 4404,
  "ebe.": 4405,
  "ex": 4406,
  "em": 4407,
  "dor": 4408,
  "dral": 4409,
  "dd": 4410,
  "chez": 4411,
  "city": 4412,
  "ca.": 4413,
  "blọ": 4414,
  "arack": 4415,
  "ase": 4416,
  "arụ.": 4417,
  "agboro": 4418,
  "________________": 4419,
  "Van": 4420,
  "Uchendu": 4421,
  "Tunisia": 4422,
  "Thai": 4423,
  "Security": 4424,
  "Sanchez": 4425,
  "Sadio": 4426,
  "Simon": 4427,
  "Presidential": 4428,
  "Police": 4429,
  "Poly": 4430,
  "Pan": 4431,
  "PVC": 4432,
  "PP": 4433,
  "Onyeama": 4434,
  "Ogbonna": 4435,
  "Ogbodo": 4436,
  "Oby": 4437,
  "Nimo": 4438,
  "Netherland": 4439,
  "Ndidi": 4440,
  "Mali": 4441,
  "Mozi": 4442,
  "Mma": 4443,
  "Labour": 4444,
  "Ly": 4445,
  "Kore": 4446,
  "Klint": 4447,
  "Josef,": 4448,
  "Iya": 4449,
  "Hong": 4450,
  "Holy": 4451,
  "Gea": 4452,
  "Gandu": 4453,
  "Gana": 4454,
  "Friday": 4455,
  "FaceApp": 4456,
  "Flying": 4457,
  "Ekweremadu:": 4458,
  "Evan": 4459,
  "Eri": 4460,
  "Eke": 4461,
  "Ebe": 4462,
  "ER": 4463,
  "Cathedral": 4464,
  "Ci": 4465,
  "Burnley": 4466,
  "Bau": 4467,
  "Barack": 4468,
  "Ahmad": 4469,
  "Afghani": 4470,
  "Adinuba": 4471,
  "AIT": 4472,
  "Azu": 4473,
  "Awo": 4474,
  "Achi": 4475,
  "88": 4476,
  "77": 4477,
  "19)": 4478,
  "187": 4479,
  "17)": 4480,
  "15)": 4481,
  "-Olu": 4482,
  "-5": 4483,
  "\"a\"": 4484,
  "“si": 4485,
  "“mụ": 4486,
  "ụgụ": 4487,
  "ọmụma": 4488,
  "ọchị,": 4489,
  "ọbọgwụ": 4490,
  "zuruike": 4491,
  "zation": 4492,
  "ya.,": 4493,
  "ven": 4494,
  "vage": 4495,
  "vision": 4496,
  "ugbua": 4497,
  "tọzde,": 4498,
  "tors": 4499,
  "thle": 4500,
  "tebulu": 4501,
  "sị;": 4502,
  "surance": 4503,
  "stone": 4504,
  "ssey": 4505,
  "social": 4506,
  "shir": 4507,
  "sekọndrị": 4508,
  "rant": 4509,
  "pụ,": 4510,
  "partment": 4511,
  "patị": 4512,
  "pa,": 4513,
  "oyi,": 4514,
  "okwu?": 4515,
  "ogologo.": 4516,
  "ogidi,": 4517,
  "ojo": 4518,
  "nwunye,": 4519,
  "ntọrọ": 4520,
  "ntanet": 4521,
  "nnekwu": 4522,
  "nne,": 4523,
  "nkwupụta": 4524,
  "nkuzi,": 4525,
  "nkesa": 4526,
  "ngwere": 4527,
  "ngozi": 4528,
  "ndị.": 4529,
  "nche,": 4530,
  "na-i": 4531,
  "mpard": 4532,
  "mood": 4533,
  "mmekọahụ": 4534,
  "mgbe.": 4535,
  "mgbagha": 4536,
  "mber": 4537,
  "lity": 4538,
  "letico": 4539,
  "land.": 4540,
  "lapse": 4541,
  "lag": 4542,
  "kọpta": 4543,
  "kwụ.": 4544,
  "kwaraji": 4545,
  "kwa\"": 4546,
  "kpa.": 4547,
  "kirie": 4548,
  "kepukepu": 4549,
  "kampanọs": 4550,
  "ka-": 4551,
  "jụ,": 4552,
  "jenesis": 4553,
  "jamanị.": 4554,
  "jani": 4555,
  "ike?": 4556,
  "ike.”": 4557,
  "isu": 4558,
  "intanet": 4559,
  "huabu": 4560,
  "gị.”": 4561,
  "ghe,": 4562,
  "garde": 4563,
  "gawa": 4564,
  "fịọ": 4565,
  "fu.": 4566,
  "fred": 4567,
  "fety": 4568,
  "esere": 4569,
  "ekwentị,": 4570,
  "ero": 4571,
  "deau": 4572,
  "daura": 4573,
  "cation": 4574,
  "bịafra,": 4575,
  "berg": 4576,
  "beth": 4577,
  "be,": 4578,
  "bank": 4579,
  "aịza": 4580,
  "atụrụ,": 4581,
  "asọmpi.": 4582,
  "anụmanụ,": 4583,
  "anyanwụ.": 4584,
  "anyasị": 4585,
  "an,": 4586,
  "alụkwaghịm.": 4587,
  "akpati": 4588,
  "as": 4589,
  "apa": 4590,
  "a;": 4591,
  "Zidane": 4592,
  "Usman": 4593,
  "Ugo": 4594,
  "Techno": 4595,
  "TA": 4596,
  "Social": 4597,
  "Secondu": 4598,
  "Selari": 4599,
  "Savage": 4600,
  "Stan": 4601,
  "Romne": 4602,
  "Paki": 4603,
  "Por": 4604,
  "Oscars": 4605,
  "Okorie": 4606,
  "Okwaraji": 4607,
  "Okpa": 4608,
  "Ohuabu": 4609,
  "Nasarawa": 4610,
  "Nasir": 4611,
  "NC": 4612,
  "NAP": 4613,
  "Morrison": 4614,
  "Mark": 4615,
  "Malay": 4616,
  "Mahmood": 4617,
  "Maria": 4618,
  "MM": 4619,
  "London.": 4620,
  "Leban": 4621,
  "Lampard": 4622,
  "Lagarde": 4623,
  "Kwara": 4624,
  "Jeremy": 4625,
  "Indigen": 4626,
  "Iko": 4627,
  "Hollywood": 4628,
  "Ganduje": 4629,
  "Gir": 4630,
  "Fund": 4631,
  "Football": 4632,
  "Fai": 4633,
  "Fir": 4634,
  "FR": 4635,
  "England.": 4636,
  "Edward": 4637,
  "Eid": 4638,
  "Dick": 4639,
  "Department": 4640,
  "Dandaura": 4641,
  "Dr": 4642,
  "Cyber": 4643,
  "Crime": 4644,
  "Corpo": 4645,
  "Califor": 4646,
  "Court": 4647,
  "Benue,": 4648,
  "Belgi": 4649,
  "Bill": 4650,
  "Ball": 4651,
  "Atletico": 4652,
  "Asse": 4653,
  "Aminu": 4654,
  "Ajayi": 4655,
  "Adesanya": 4656,
  "Austin": 4657,
  "Akwu": 4658,
  "Ac": 4659,
  "?\"": 4660,
  "43": 4661,
  "20)": 4662,
  "1-": 4663,
  "-N": 4664,
  "(APC)": 4665,
  "\"a": 4666,
  "\"(": 4667,
  "“abụ": 4668,
  "ụtụtụ.": 4669,
  "ụlọụka.": 4670,
  "ụlọikpe,": 4671,
  "ụsa": 4672,
  "ụbịa": 4673,
  "ụbịam": 4674,
  "ọnụnụ": 4675,
  "ọnụma": 4676,
  "ọdịnihu?": 4677,
  "ọnyụ": 4678,
  "ọmị": 4679,
  "zue": 4680,
  "yan": 4681,
  "welle": 4682,
  "urta": 4683,
  "urtado": 4684,
  "ubi,": 4685,
  "ts": 4686,
  "tle": 4687,
  "sic": 4688,
  "septemba.": 4689,
  "saịt": 4690,
  "satọdee.": 4691,
  "sal": 4692,
  "sk": 4693,
  "ru,\"": 4694,
  "rum": 4695,
  "rom.": 4696,
  "risti": 4697,
  "ries:": 4698,
  "reth": 4699,
  "raq": 4700,
  "rac": 4701,
  "puku,": 4702,
  "prote": 4703,
  "pal": 4704,
  "ozu,": 4705,
  "ozie": 4706,
  "okwukwe.": 4707,
  "obere,": 4708,
  "onu": 4709,
  "nwaanyị?": 4710,
  "nnọchi": 4711,
  "nnaba": 4712,
  "nite": 4713,
  "ngụkọ": 4714,
  "nger": 4715,
  "ng:": 4716,
  "nebukadneza": 4717,
  "nment": 4718,
  "nko": 4719,
  "nike": 4720,
  "mpa": 4721,
  "mouth": 4722,
  "mmeri.": 4723,
  "midia,": 4724,
  "mise": 4725,
  "mamịrị": 4726,
  "maị": 4727,
  "mpụta": 4728,
  "ling": 4729,
  "llo": 4730,
  "kọrị": 4731,
  "kpamkpam.": 4732,
  "kpamkpam": 4733,
  "julaị.": 4734,
  "ji\"": 4735,
  "inọk.": 4736,
  "iko,": 4737,
  "ijere": 4738,
  "igbo:": 4739,
  "ila": 4740,
  "gịnị\"": 4741,
  "gu,": 4742,
  "gidi": 4743,
  "ghts": 4744,
  "egwuregwu.": 4745,
  "dium": 4746,
  "dian": 4747,
  "ckle": 4748,
  "cience": 4749,
  "chukwu,": 4750,
  "ctri": 4751,
  "cel": 4752,
  "baịbụl.”": 4753,
  "bsi": 4754,
  "aịzik": 4755,
  "atorial": 4756,
  "anti": 4757,
  "ant": 4758,
  "akpụ.": 4759,
  "akpịrị": 4760,
  "akari": 4761,
  "ahụhụ?": 4762,
  "aha,": 4763,
  "adịgboroja.": 4764,
  "abụ;": 4765,
  "anwa": 4766,
  "ani": 4767,
  "aa": 4768,
  "YouTu": 4769,
  "Wo": 4770,
  "Virgi": 4771,
  "Valen": 4772,
  "Twitter.": 4773,
  "Tijani": 4774,
  "Tammy": 4775,
  "Tai": 4776,
  "Tar": 4777,
  "TIP": 4778,
  "Sweden": 4779,
  "Sickle": 4780,
  "Safety": 4781,
  "Sky": 4782,
  "Sco": 4783,
  "Science": 4784,
  "Rita": 4785,
  "Ray": 4786,
  "Queens": 4787,
  "Promise": 4788,
  "President": 4789,
  "Philip": 4790,
  "Patrick": 4791,
  "PDP,": 4792,
  "Organisation": 4793,
  "Onyebuchi": 4794,
  "Onumah": 4795,
  "Okeke,": 4796,
  "Ohuabunwa": 4797,
  "Odekpe": 4798,
  "Obama,": 4799,
  "Okpo": 4800,
  "Oka": 4801,
  "Ok": 4802,
  "OG": 4803,
  "Nwagbara": 4804,
  "Nsukka": 4805,
  "Nigeria.": 4806,
  "News": 4807,
  "NBC": 4808,
  "NAPTIP": 4809,
  "NEMA": 4810,
  "Moghalu": 4811,
  "Madagaska": 4812,
  "Liberia": 4813,
  "Light": 4814,
  "Lig": 4815,
  "Laf": 4816,
  "Ken": 4817,
  "Julius": 4818,
  "Jordan": 4819,
  "Jong-un": 4820,
  "Jessi": 4821,
  "Indigenous": 4822,
  "Iraq": 4823,
  "House": 4824,
  "Hospital": 4825,
  "Fire": 4826,
  "Fr.": 4827,
  "Fou": 4828,
  "Fin": 4829,
  "Evans": 4830,
  "Equatorial": 4831,
  "Ekweremadu.": 4832,
  "EF": 4833,
  "EE": 4834,
  "Chukwudi": 4835,
  "Chu": 4836,
  "Centre": 4837,
  "Cal": 4838,
  "Buhari\"": 4839,
  "Building": 4840,
  "Boston": 4841,
  "Boni": 4842,
  "Bible": 4843,
  "Babatunde": 4844,
  "Bassey": 4845,
  "Bashir": 4846,
  "BS": 4847,
  "Augusti": 4848,
  "Angola": 4849,
  "Anao": 4850,
  "Amaraizu": 4851,
  "Amazon": 4852,
  "Alexandra": 4853,
  "Akpabio": 4854,
  "Ajax": 4855,
  "Afghanistan": 4856,
  "Adeye": 4857,
  "Adamawa": 4858,
  "Adam.": 4859,
  "Ayo": 4860,
  "Aston": 4861,
  "Akwa": 4862,
  "Aki": 4863,
  "85": 4864,
  "80": 4865,
  "35": 4866,
  "2013.": 4867,
  "2011": 4868,
  "1;": 4869,
  ".\"a": 4870,
  "\"\",\"": 4871,
  "“oge": 4872,
  "“gịnị": 4873,
  "“ezi": 4874,
  "ụtọ?": 4875,
  "ụtarị": 4876,
  "ụbọ": 4877,
  "ụkpụrụ": 4878,
  "ọma?": 4879,
  "ọlị.": 4880,
  "ọktoba,": 4881,
  "ọjọọ?": 4882,
  "ọgwụgwọ.": 4883,
  "ọgbata": 4884,
  "ọchụchụ": 4885,
  "ọchanja": 4886,
  "ọf": 4887,
  "ịs": 4888,
  "zo.": 4889,
  "zi,": 4890,
  "zer": 4891,
  "za.": 4892,
  "webụ": 4893,
  "webụsaịt": 4894,
  "via": 4895,
  "venant": 4896,
  "uru.”": 4897,
  "ure": 4898,
  "ukpo": 4899,
  "uhuru": 4900,
  "tọ,": 4901,
  "ttack": 4902,
  "tomato": 4903,
  "tlehe": 4904,
  "thaniel": 4905,
  "tenis": 4906,
  "te?": 4907,
  "sọlọ": 4908,
  "sị:\"anyị\"": 4909,
  "sịga.": 4910,
  "sts": 4911,
  "ssy": 4912,
  "sola": 4913,
  "sista": 4914,
  "server": 4915,
  "sara": 4916,
  "scu": 4917,
  "rọd": 4918,
  "ristiano": 4919,
  "ries": 4920,
  "ret": 4921,
  "rector": 4922,
  "plo": 4923,
  "owuwe": 4924,
  "osikapa,": 4925,
  "onye.": 4926,
  "olili": 4927,
  "okike": 4928,
  "oghere": 4929,
  "offrey": 4930,
  "obosi": 4931,
  "oka": 4932,
  "nzuzo.": 4933,
  "nzere": 4934,
  "nwata,": 4935,
  "nwaanyị\"": 4936,
  "nwaa": 4937,
  "nuklia": 4938,
  "nta,": 4939,
  "nton": 4940,
  "nnewi,": 4941,
  "nke,": 4942,
  "nica": 4943,
  "nhata": 4944,
  "ngapo": 4945,
  "na\"ọ\"": 4946,
  "nse": 4947,
  "nrọ.": 4948,
  "mwereonwe": 4949,
  "mum": 4950,
  "mpụ,": 4951,
  "mpany": 4952,
  "mmemme.": 4953,
  "mmemme,": 4954,
  "mmezu": 4955,
  "mmadụ.”": 4956,
  "mmanya,": 4957,
  "mer": 4958,
  "mbọmbọ": 4959,
  "mbode": 4960,
  "m!": 4961,
  "lụ,": 4962,
  "lum": 4963,
  "lub": 4964,
  "listi": 4965,
  "lim": 4966,
  "latrik,": 4967,
  "kọ.": 4968,
  "kpo,": 4969,
  "ke.": 4970,
  "katọlik,": 4971,
  "itoolu.": 4972,
  "isisi": 4973,
  "isi\"": 4974,
  "inde": 4975,
  "igwe.": 4976,
  "ichi": 4977,
  "hannes": 4978,
  "hong": 4979,
  "gue": 4980,
  "gramme": 4981,
  "gbụrụ": 4982,
  "ga?": 4983,
  "field": 4984,
  "fe,": 4985,
  "eserese": 4986,
  "emene": 4987,
  "ekpere?": 4988,
  "ehi.": 4989,
  "egbe,": 4990,
  "echi.": 4991,
  "echi,": 4992,
  "ege": 4993,
  "ebo": 4994,
  "dom": 4995,
  "deji": 4996,
  "d,": 4997,
  "collapse": 4998,
  "charis": 4999,
  "cement": 5000,
  "briten,": 5001,
  "bor": 5002,
  "blọk": 5003,
  "bishop": 5004,
  "aịzaya": 5005,
  "arụrụala": 5006,
  "anca": 5007,
  "amawbịa,": 5008,
  "amam": 5009,
  "akịrịka.": 5010,
  "akum": 5011,
  "ahụike": 5012,
  "ada.": 5013,
  "ale": 5014,
  "acha": 5015,
  "Zu": 5016,
  "Yoakum": 5017,
  "Unilag": 5018,
  "USS": 5019,
  "USSD": 5020,
  "Twitter,": 5021,
  "Tony": 5022,
  "Thailand": 5023,
  "Stanley": 5024,
  "Singapo": 5025,
  "Sharibu": 5026,
  "Selariọs": 5027,
  "Seme": 5028,
  "Sri": 5029,
  "Primaries:": 5030,
  "Okorocha:": 5031,
  "Obina": 5032,
  "Ozo": 5033,
  "Ori": 5034,
  "Ona": 5035,
  "Old": 5036,
  "Offi": 5037,
  "Nwabu": 5038,
  "Nathaniel": 5039,
  "N)": 5040,
  "Muelle": 5041,
  "Monday": 5042,
  "Mmaku": 5043,
  "Minimum": 5044,
  "March": 5045,
  "Madagascar": 5046,
  "Mata": 5047,
  "Mal": 5048,
  "Maku": 5049,
  "Luka": 5050,
  "Lagos,": 5051,
  "Lin": 5052,
  "Kano,": 5053,
  "Job,": 5054,
  "Johannes": 5055,
  "Jehova": 5056,
  "Insurance": 5057,
  "Iheana": 5058,
  "Izu": 5059,
  "Hunt": 5060,
  "Herọd": 5061,
  "Guar": 5062,
  "Girls": 5063,
  "Ghost": 5064,
  "Geoffrey": 5065,
  "Furtado": 5066,
  "Fina": 5067,
  "Fer": 5068,
  "Emema": 5069,
  "Elizabeth": 5070,
  "EEDC": 5071,
  "Ekpe": 5072,
  "Coscharis": 5073,
  "Corporation": 5074,
  "Corne": 5075,
  "Confe": 5076,
  "Covenant": 5077,
  "Code": 5078,
  "Chika": 5079,
  "Chieji": 5080,
  "Championship": 5081,
  "Cristiano": 5082,
  "Cole": 5083,
  "Cala": 5084,
  "CAN": 5085,
  "Buhari:": 5086,
  "Bianca": 5087,
  "Benson": 5088,
  "Augustine": 5089,
  "August": 5090,
  "Assemb": 5091,
  "Amuneke": 5092,
  "Aliyu": 5093,
  "Ata": 5094,
  "Anne": 5095,
  "Ambode": 5096,
  "Agwu": 5097,
  "95": 5098,
  "55": 5099,
  "46": 5100,
  "32": 5101,
  "1999": 5102,
  "000)": 5103,
  ".\"e\"": 5104,
  "-6": 5105,
  "-2": 5106,
  "-19": 5107,
  "(nke": 5108,
  "(IPOB": 5109,
  "''": 5110,
  "\"e": 5111,
  "“ụmụ": 5112,
  "“nwa": 5113,
  "“ga-": 5114,
  "ụlọọgwụ,": 5115,
  "ụsọ": 5116,
  "ụmị": 5117,
  "ọzọ.\"": 5118,
  "ọtụtụ.": 5119,
  "ọhanaeze,": 5120,
  "ọgọdọ": 5121,
  "ọgbatauhie": 5122,
  "ọgbakọ.": 5123,
  "ọfụma,": 5124,
  "ọbara.": 5125,
  "ọzara": 5126,
  "ịị": 5127,
  "ị.": 5128,
  "za,": 5129,
  "ya.)": 5130,
  "ya\".\"": 5131,
  "witzer": 5132,
  "wọ": 5133,
  "vootu.": 5134,
  "vere": 5135,
  "uhie,": 5136,
  "ugboguru.": 5137,
  "use": 5138,
  "ud": 5139,
  "tịnkọ": 5140,
  "tumtum": 5141,
  "toph": 5142,
  "topher": 5143,
  "tis": 5144,
  "tice": 5145,
  "thew": 5146,
  "thampton": 5147,
  "sting": 5148,
  "ssan": 5149,
  "so,": 5150,
  "septemba,": 5151,
  "sekọndị": 5152,
  "sekọndịrị": 5153,
  "satọde,": 5154,
  "risky": 5155,
  "rency": 5156,
  "redio": 5157,
  "rechi": 5158,
  "real": 5159,
  "re.”": 5160,
  "re-": 5161,
  "ranozie": 5162,
  "rto": 5163,
  "rgency": 5164,
  "pope": 5165,
  "paị": 5166,
  "pịa": 5167,
  "pri": 5168,
  "phi": 5169,
  "ozuzu": 5170,
  "ourne": 5171,
  "ournemouth": 5172,
  "otuto.": 5173,
  "okpukperechi": 5174,
  "okpokoro": 5175,
  "ojoro": 5176,
  "ogbenye.": 5177,
  "obiọma.": 5178,
  "oro": 5179,
  "nzukọ,": 5180,
  "nzaghachi,": 5181,
  "nzaghachi": 5182,
  "nwịị": 5183,
  "ntina": 5184,
  "ntaakụkọ.": 5185,
  "now": 5186,
  "nnabata": 5187,
  "nkịta.": 5188,
  "nkwụsị": 5189,
  "nkuzi.": 5190,
  "njedebe.": 5191,
  "niu": 5192,
  "nia.": 5193,
  "ndapụta": 5194,
  "ntụtụ": 5195,
  "ns": 5196,
  "mwepụ": 5197,
  "musu": 5198,
  "mited": 5199,
  "mgba.": 5200,
  "mberg": 5201,
  "mba!": 5202,
  "maatụ": 5203,
  "mani": 5204,
  "maja": 5205,
  "mkp": 5206,
  "lọt": 5207,
  "listia": 5208,
  "lish": 5209,
  "kwo,": 5210,
  "krisma": 5211,
  "jekwu": 5212,
  "ject": 5213,
  "izuuka.": 5214,
  "ihe?": 5215,
  "iza": 5216,
  "iman": 5217,
  "hụ.": 5218,
  "hụ,": 5219,
  "her": 5220,
  "gụ.": 5221,
  "gọvanọ\"": 5222,
  "gịnwa": 5223,
  "gwụ.": 5224,
  "gine": 5225,
  "gege": 5226,
  "fite": 5227,
  "filistia": 5228,
  "emed": 5229,
  "ekwentị.": 5230,
  "ekele,": 5231,
  "ekene": 5232,
  "eke,": 5233,
  "efu,": 5234,
  "ewo": 5235,
  "ee.": 5236,
  "e:": 5237,
  "e-": 5238,
  "dị\"": 5239,
  "dum.": 5240,
  "devid.": 5241,
  "devid,": 5242,
  "de,": 5243,
  "daalụ": 5244,
  "cking": 5245,
  "ciety": 5246,
  "chọ.": 5247,
  "cade": 5248,
  "cord": 5249,
  "clo": 5250,
  "briten.": 5251,
  "bishọọpụ": 5252,
  "bisi": 5253,
  "bas": 5254,
  "alert": 5255,
  "akụkọ,": 5256,
  "akịrịka,": 5257,
  "agụ,": 5258,
  "agwaetiti": 5259,
  "afụ": 5260,
  "afana": 5261,
  "adres": 5262,
  "abụba": 5263,
  "ane": 5264,
  "York.": 5265,
  "Walter": 5266,
  "Vin": 5267,
  "VAR": 5268,
  "UNI": 5269,
  "Trudeau": 5270,
  "Traffi": 5271,
  "Tarrant": 5272,
  "Southampton": 5273,
  "Society": 5274,
  "Sambi": 5275,
  "Squ": 5276,
  "Sp": 5277,
  "Son": 5278,
  "Sime": 5279,
  "Rogers": 5280,
  "Rev.": 5281,
  "Redeemed": 5282,
  "Rabiu": 5283,
  "Ral": 5284,
  "Programme": 5285,
  "Plateau:": 5286,
  "Papa": 5287,
  "Py": 5288,
  "PF": 5289,
  "Oyede": 5290,
  "Ogbonnaya": 5291,
  "Ower": 5292,
  "Opa": 5293,
  "Ome": 5294,
  "Oji": 5295,
  "Netherlands": 5296,
  "Ndubuaku": 5297,
  "NBS": 5298,
  "Nze": 5299,
  "Nne": 5300,
  "Nike": 5301,
  "Muhammad": 5302,
  "Muhammed": 5303,
  "Mozis": 5304,
  "Motors": 5305,
  "Most": 5306,
  "Mone": 5307,
  "Matthew": 5308,
  "Madume": 5309,
  "Mane": 5310,
  "Lukaku": 5311,
  "Limited": 5312,
  "Lady": 5313,
  "LE": 5314,
  "Kongo": 5315,
  "Kanu.": 5316,
  "Kachi": 5317,
  "Kan": 5318,
  "Janet": 5319,
  "INEC,": 5320,
  "Iwe": 5321,
  "Hadi": 5322,
  "Gareth": 5323,
  "Gree": 5324,
  "Gala": 5325,
  "Flori": 5326,
  "Faith": 5327,
  "Fiji": 5328,
  "Engine": 5329,
  "Ememanka": 5330,
  "Electri": 5331,
  "Ebreham,": 5332,
  "Easter": 5333,
  "Danju": 5334,
  "Dou": 5335,
  "Committe": 5336,
  "Christine": 5337,
  "Christopher": 5338,
  "Chinua": 5339,
  "Chinwe": 5340,
  "Child": 5341,
  "Cheri": 5342,
  "Celestine": 5343,
  "Bruce": 5344,
  "Broad": 5345,
  "Boniface": 5346,
  "Bobrisky": 5347,
  "Black\"": 5348,
  "Bauchi": 5349,
  "Balo": 5350,
  "Bournemouth": 5351,
  "Baka": 5352,
  "Bafana": 5353,
  "Ayamelu": 5354,
  "Assembly": 5355,
  "Arge": 5356,
  "Adam,": 5357,
  "Am": 5358,
  "Ak": 5359,
  "Ado": 5360,
  "Acade": 5361,
  "ADC": 5362,
  "97": 5363,
  "84": 5364,
  "31": 5365,
  "28,": 5366,
  "25,": 5367,
  "2014,": 5368,
  "2013,": 5369,
  "2010.": 5370,
  "2010": 5371,
  "200,": 5372,
  "27,": 5373,
  "1970": 5374,
  "1914.": 5375,
  "16,": 5376,
  "16)": 5377,
  "1000": 5378,
  ".\"dị": 5379,
  "-Ob": 5380,
  "(IPOB)": 5381,
  "(ma": 5382,
  "(bụ": 5383,
  "(APGA": 5384,
  "”,": 5385,
  "“ụwa": 5386,
  "“ya": 5387,
  "ụtazị": 5388,
  "ụlọakụ,": 5389,
  "ụkp": 5390,
  "ọṅụ.": 5391,
  "ọnwụ?": 5392,
  "ọma.”": 5393,
  "ọlaọcha": 5394,
  "ọkụkọ,": 5395,
  "ọdịnihu,": 5396,
  "ọdachi.": 5397,
  "ọbara,": 5398,
  "ọha,": 5399,
  "ịtụnanya": 5400,
  "ịchafụ.": 5401,
  "zọma": 5402,
  "zị.": 5403,
  "yurop.": 5404,
  "ya.”)": 5405,
  "ya”": 5406,
  "yamo": 5407,
  "you": 5408,
  "wei": 5409,
  "will": 5410,
  "visa\"\"": 5411,
  "viso": 5412,
  "visory": 5413,
  "verend": 5414,
  "vaị": 5415,
  "vation": 5416,
  "ving": 5417,
  "vil": 5418,
  "utical": 5419,
  "tutu": 5420,
  "ttah": 5421,
  "tock": 5422,
  "tiative": 5423,
  "tiu": 5424,
  "ting": 5425,
  "tere": 5426,
  "tech": 5427,
  "tar": 5428,
  "tal": 5429,
  "tro": 5430,
  "sị?": 5431,
  "sult": 5432,
  "super": 5433,
  "sun": 5434,
  "structuring": 5435,
  "shuga": 5436,
  "setan.": 5437,
  "sper": 5438,
  "sle": 5439,
  "school": 5440,
  "rish.": 5441,
  "risi": 5442,
  "rick": 5443,
  "ri?": 5444,
  "reescu": 5445,
  "paịlet": 5446,
  "pla": 5447,
  "oyi.": 5448,
  "osisi.": 5449,
  "or,": 5450,
  "onye,": 5451,
  "omimi": 5452,
  "okpom": 5453,
  "okoro": 5454,
  "ogbugbu": 5455,
  "odibo": 5456,
  "oni": 5457,
  "ogba": 5458,
  "ogbaru": 5459,
  "ocese": 5460,
  "nọ.”": 5461,
  "nzute": 5462,
  "nwo-Olu": 5463,
  "nus": 5464,
  "nta.": 5465,
  "nrụrụaka.": 5466,
  "nrụrịtaụka": 5467,
  "nkịta,": 5468,
  "nkwalite": 5469,
  "nkey": 5470,
  "nkatọ": 5471,
  "njem,": 5472,
  "nitiative": 5473,
  "nio": 5474,
  "ngwọrọ": 5475,
  "nghọta.": 5476,
  "ney": 5477,
  "nduru": 5478,
  "ndaba": 5479,
  "nchara": 5480,
  "naira.": 5481,
  "nator": 5482,
  "nza": 5483,
  "ngi": 5484,
  "mus": 5485,
  "mpụ.": 5486,
  "mmehie,": 5487,
  "mmanụ.": 5488,
  "mkpughe": 5489,
  "mgba,": 5490,
  "medi": 5491,
  "mbụ?": 5492,
  "maọbụ": 5493,
  "mace": 5494,
  "maceutical": 5495,
  "lobe": 5496,
  "llam": 5497,
  "latrik.": 5498,
  "kọ,": 5499,
  "kwete": 5500,
  "kristi": 5501,
  "kpo.": 5502,
  "kpam.": 5503,
  "ko,": 5504,
  "katọlik.": 5505,
  "kh": 5506,
  "jeruselem.": 5507,
  "ime?": 5508,
  "heli": 5509,
  "harmaceutical": 5510,
  "gịga": 5511,
  "gugu": 5512,
  "gozie": 5513,
  "gbị": 5514,
  "ewu.": 5515,
  "elịiza": 5516,
  "ejula": 5517,
  "ejije.": 5518,
  "ego\"": 5519,
  "ebili": 5520,
  "enwe": 5521,
  "ekpi": 5522,
  "du,": 5523,
  "de.": 5524,
  "dan.": 5525,
  "cious": 5526,
  "chaị,": 5527,
  "casting": 5528,
  "c.": 5529,
  "baby": 5530,
  "aịrish.": 5531,
  "ara,": 5532,
  "art": 5533,
  "alụkwaghịm,": 5534,
  "ala.”": 5535,
  "alla": 5536,
  "al-": 5537,
  "akụnụba.": 5538,
  "akpụ,": 5539,
  "aka:": 5540,
  "agụ.": 5541,
  "aghụghọ.": 5542,
  "adal": 5543,
  "abụọ)": 5544,
  "abụ.": 5545,
  "aba,": 5546,
  "amaka": 5547,
  "akpụrụ": 5548,
  "agwu": 5549,
  "achi": 5550,
  "abọ": 5551,
  "Zuba": 5552,
  "YouTube": 5553,
  "Wi": 5554,
  "Vincent": 5555,
  "Visa": 5556,
  "Valencia": 5557,
  "Vale": 5558,
  "Uchenna": 5559,
  "Uzọma": 5560,
  "Uzor": 5561,
  "Toro": 5562,
  "Timothy": 5563,
  "Tele": 5564,
  "Syria.": 5565,
  "Suleiman": 5566,
  "Shiites": 5567,
  "Serge": 5568,
  "Secondus": 5569,
  "Sanwo-Olu": 5570,
  "Sali": 5571,
  "Sadi": 5572,
  "Switzer": 5573,
  "Spe": 5574,
  "Sil": 5575,
  "Romney": 5576,
  "RevolutionNow": 5577,
  "Reverend": 5578,
  "Restructuring": 5579,
  "Rome": 5580,
  "Pun": 5581,
  "Progressives": 5582,
  "Press": 5583,
  "Precious": 5584,
  "Portu": 5585,
  "Pier": 5586,
  "Pep": 5587,
  "Papado": 5588,
  "Palestine": 5589,
  "Pin": 5590,
  "Pharmaceutical": 5591,
  "Oyedepo": 5592,
  "Oshodi": 5593,
  "Oshoala": 5594,
  "Organization": 5595,
  "Oparanozie": 5596,
  "Onoja": 5597,
  "Onaga": 5598,
  "Okoye,": 5599,
  "Okorocha,": 5600,
  "Okoro": 5601,
  "Ogunye": 5602,
  "Ogbuata": 5603,
  "Obidi": 5604,
  "Ote": 5605,
  "Ora": 5606,
  "Olo": 5607,
  "Nwosu,": 5608,
  "Nwachukwu,": 5609,
  "Nweke": 5610,
  "NoBra": 5611,
  "Nnaji": 5612,
  "Niger,": 5613,
  "National\"": 5614,
  "Nel": 5615,
  "Nadal": 5616,
  "Mohammed,": 5617,
  "Mexico.": 5618,
  "Market": 5619,
  "Malaysia": 5620,
  "Mahre": 5621,
  "Mauri": 5622,
  "Mac": 5623,
  "Mbo": 5624,
  "MT": 5625,
  "Live": 5626,
  "Lion": 5627,
  "Lafia": 5628,
  "Kondu": 5629,
  "Keyamo": 5630,
  "Kya": 5631,
  "Johannesburg": 5632,
  "Jehovah": 5633,
  "Jesus": 5634,
  "Jim": 5635,
  "Ivory": 5636,
  "Italy.": 5637,
  "Institu": 5638,
  "Imohi": 5639,
  "Iheanacho": 5640,
  "Iw": 5641,
  "Ichi": 5642,
  "Heran": 5643,
  "Hausa": 5644,
  "Haram,": 5645,
  "Her": 5646,
  "Han": 5647,
  "Government": 5648,
  "Freedo": 5649,
  "Force": 5650,
  "Forum": 5651,
  "Feli": 5652,
  "Father": 5653,
  "Farou": 5654,
  "FRSC": 5655,
  "FFK": 5656,
  "Fala": 5657,
  "Ezenwa": 5658,
  "Europa": 5659,
  "English": 5660,
  "Emergency": 5661,
  "Elisha": 5662,
  "Evo": 5663,
  "Eu": 5664,
  "Er": 5665,
  "E)": 5666,
  "Drunk": 5667,
  "Dogara": 5668,
  "Dickson": 5669,
  "Director": 5670,
  "Diocese": 5671,
  "Danjuma": 5672,
  "Du": 5673,
  "Dana": 5674,
  "DR": 5675,
  "Courto": 5676,
  "Cosby": 5677,
  "Company": 5678,
  "City.": 5679,
  "Chinedu": 5680,
  "Cata": 5681,
  "Club": 5682,
  "Cam": 5683,
  "CS": 5684,
  "CON": 5685,
  "Buhari?": 5686,
  "Broadcasting": 5687,
  "Belgium": 5688,
  "Ballon": 5689,
  "Bulga": 5690,
  "Azubuike": 5691,
  "Andreescu": 5692,
  "Alade": 5693,
  "Akwuke": 5694,
  "Aguata": 5695,
  "Africa.": 5696,
  "Adeyeye": 5697,
  "Ademola": 5698,
  "Adebo": 5699,
  "Adazi": 5700,
  "Achuzia": 5701,
  "Abubakar,": 5702,
  "Abaribe,": 5703,
  "Abate": 5704,
  "Abagana": 5705,
  "Abdel": 5706,
  "Abba": 5707,
  "Athle": 5708,
  "Anto": 5709,
  "Amaka": 5710,
  "Akwete": 5711,
  "Aa": 5712,
  "AK": 5713,
  "ABS": 5714,
  "AAC": 5715,
  ";;": 5716,
  "800": 5717,
  "70": 5718,
  "50,": 5719,
  "4:": 5720,
  "30)": 5721,
  "38": 5722,
  "36": 5723,
  "300": 5724,
  "2019?": 5725,
  "2009.": 5726,
  "2009": 5727,
  "29)": 5728,
  "19,": 5729,
  "180": 5730,
  "10.": 5731,
  "12,": 5732,
  "12)": 5733,
  ".\"onye\"": 5734,
  ".\"che": 5735,
  ".)": 5736,
  "-35": 5737,
  "(ya": 5738,
  "(U": 5739,
  "(PDP": 5740,
  "(P": 5741,
  "';": 5742,
  "\"o\"": 5743,
  "\"kwu": 5744,
  "!!": 5745,
  "”?": 5746,
  "“ugbu": 5747,
  "“mba": 5748,
  "“ebe": 5749,
  "“bi": 5750,
  "“agha": 5751,
  "“[": 5752,
  "ụtara": 5753,
  "ụgha,": 5754,
  "ụbụrụ.": 5755,
  "ụsụ": 5756,
  "ụrọ": 5757,
  "ọstralia.": 5758,
  "ọstralia": 5759,
  "ọrụ;": 5760,
  "ọnyụpa": 5761,
  "ọnwụ.”": 5762,
  "ọnwa,": 5763,
  "ọmụmaatụ": 5764,
  "ọmajiji": 5765,
  "ọkai": 5766,
  "ọgbaaghara.": 5767,
  "ọgbaa": 5768,
  "ọgbaatumtum": 5769,
  "ọdụ.": 5770,
  "ọdịnala,": 5771,
  "ọyị": 5772,
  "ọpụrụiche": 5773,
  "ọn": 5774,
  "ịntaneti,": 5775,
  "ịlaịsha": 5776,
  "ígw": 5777,
  "ígwé": 5778,
  "za?": 5779,
  "ya.\"ọ\"": 5780,
  "yne": 5781,
  "wuji": 5782,
  "venti": 5783,
  "vention": 5784,
  "uruagụ": 5785,
  "ukwu.”": 5786,
  "ugboro,": 5787,
  "ugba": 5788,
  "tụ,": 5789,
  "tịnkọm": 5790,
  "tory": 5791,
  "tican": 5792,
  "tala": 5793,
  "strike": 5794,
  "steeti?": 5795,
  "standa": 5796,
  "standadị": 5797,
  "stịs": 5798,
  "sion:": 5799,
  "sive": 5800,
  "shles": 5801,
  "shless": 5802,
  "shee": 5803,
  "setan,": 5804,
  "satọdee,": 5805,
  "san": 5806,
  "sale": 5807,
  "swi": 5808,
  "sso": 5809,
  "sli": 5810,
  "sla": 5811,
  "rusale": 5812,
  "ro\"": 5813,
  "re-Eme": 5814,
  "re-Emerick": 5815,
  "rey": 5816,
  "rewa": 5817,
  "remberg": 5818,
  "ration\"": 5819,
  "rable": 5820,
  "rby": 5821,
  "pịm": 5822,
  "poulos": 5823,
  "peeji": 5824,
  "pe,": 5825,
  "ps": 5826,
  "otutu": 5827,
  "otu?": 5828,
  "onyinyo": 5829,
  "olileanya.": 5830,
  "okpomọkụ": 5831,
  "okooko": 5832,
  "ohu,": 5833,
  "ogbugbo": 5834,
  "obiano.": 5835,
  "obibi.": 5836,
  "ore": 5837,
  "onwu": 5838,
  "ola": 5839,
  "oh": 5840,
  "obe": 5841,
  "nye\"": 5842,
  "nyu": 5843,
  "nwụ?": 5844,
  "nugwu": 5845,
  "ntaakụkọ,": 5846,
  "nkwa.": 5847,
  "nkiri:": 5848,
  "njinji": 5849,
  "njeri": 5850,
  "njehie": 5851,
  "niile;": 5852,
  "nian": 5853,
  "ngalaba\"": 5854,
  "ng-": 5855,
  "ndọrịtaụka": 5856,
  "ndeewo": 5857,
  "ncha.": 5858,
  "nate": 5859,
  "nachukwu": 5860,
  "mund": 5861,
  "mpio": 5862,
  "mpe,": 5863,
  "mmegide": 5864,
  "mmalite,": 5865,
  "mmadụ\"": 5866,
  "mkpu,": 5867,
  "mgbu.": 5868,
  "mbọ.": 5869,
  "mbibi": 5870,
  "mbele": 5871,
  "mahadum.": 5872,
  "maachị,": 5873,
  "m\"": 5874,
  "loja": 5875,
  "logy": 5876,
  "lo,": 5877,
  "llof": 5878,
  "lins": 5879,
  "lition": 5880,
  "lie": 5881,
  "lebe\"": 5882,
  "latịn.": 5883,
  "kọm": 5884,
  "kwelu": 5885,
  "kun": 5886,
  "krat": 5887,
  "kporo": 5888,
  "keredo": 5889,
  "karat": 5890,
  "kansa.": 5891,
  "kaadị": 5892,
  "ka:": 5893,
  "kki": 5894,
  "jọstịs": 5895,
  "jọn,": 5896,
  "jiofor": 5897,
  "jeruselem,": 5898,
  "jems": 5899,
  "izito": 5900,
  "iteghete.": 5901,
  "irika": 5902,
  "in,": 5903,
  "ily": 5904,
  "ikpeazụ.”": 5905,
  "ikenga": 5906,
  "ifo.": 5907,
  "ibe,": 5908,
  "ibu,": 5909,
  "hara": 5910,
  "gụ,": 5911,
  "gọvanọ.": 5912,
  "gọvanọ,": 5913,
  "gwụ,": 5914,
  "goo": 5915,
  "godi": 5916,
  "ghe.": 5917,
  "gene": 5918,
  "gbere": 5919,
  "gba\"": 5920,
  "gration": 5921,
  "frans.": 5922,
  "febụwarị.": 5923,
  "femi": 5924,
  "fat": 5925,
  "fair": 5926,
  "ezie": 5927,
  "ewu,": 5928,
  "erry": 5929,
  "elelebe\"": 5930,
  "ekpili": 5931,
  "egwuri": 5932,
  "ede,": 5933,
  "eshia": 5934,
  "ecu": 5935,
  "dị.”": 5936,
  "dola": 5937,
  "dimkpa,": 5938,
  "dine": 5939,
  "dget": 5940,
  "dro": 5941,
  "dra": 5942,
  "ctober": 5943,
  "conc": 5944,
  "collapse:": 5945,
  "coal": 5946,
  "che.": 5947,
  "challa": 5948,
  "ca,": 5949,
  "bịa?": 5950,
  "bsidy": 5951,
  "bridge": 5952,
  "boolu": 5953,
  "belụ": 5954,
  "amawbịa": 5955,
  "alaka": 5956,
  "akụnụba,": 5957,
  "akụ,": 5958,
  "akpa.": 5959,
  "ajụjụọnụ": 5960,
  "ajụjụ.": 5961,
  "ahụ:": 5962,
  "agwa.": 5963,
  "aghara.": 5964,
  "agba.": 5965,
  "afor": 5966,
  "afa": 5967,
  "achara": 5968,
  "abụọ;": 5969,
  "abụọ:": 5970,
  "atị": 5971,
  "amusu": 5972,
  "agọ": 5973,
  "Zimbabwe.": 5974,
  "Zine": 5975,
  "Young": 5976,
  "Wis": 5977,
  "Venezue": 5978,
  "Vatican": 5979,
  "Vo": 5980,
  "VAT": 5981,
  "United,": 5982,
  "Umeh,": 5983,
  "Udeogu": 5984,
  "Udemba,": 5985,
  "Uchechi": 5986,
  "Ubani": 5987,
  "Ute:": 5988,
  "Trump,": 5989,
  "Transfor": 5990,
  "Toronto": 5991,
  "Tochukwu": 5992,
  "Timi": 5993,
  "Tex": 5994,
  "Teodo": 5995,
  "Switzerland": 5996,
  "Sun": 5997,
  "Slam": 5998,
  "Singapore": 5999,
  "Sergi": 6000,
  "Sex": 6001,
  "School,": 6002,
  "Saraki,": 6003,
  "Sarah": 6004,
  "Saint": 6005,
  "SARS:": 6006,
  "Sport": 6007,
  "Sand": 6008,
  "Sama": 6009,
  "Qata": 6010,
  "Pyrite": 6011,
  "Project": 6012,
  "PortHarcourt.": 6013,
  "Pierre-Emerick": 6014,
  "Panther": 6015,
  "PFN": 6016,
  "Ph": 6017,
  "Otedola": 6018,
  "Omo-A": 6019,
  "Omo-Agege": 6020,
  "Omamba": 6021,
  "Oliver": 6022,
  "Okpoko": 6023,
  "Okigwe": 6024,
  "Ojoto": 6025,
  "Ogunyemi": 6026,
  "Ogbuokiri": 6027,
  "Obiang": 6028,
  "Oy": 6029,
  "Otu": 6030,
  "Olani": 6031,
  "October": 6032,
  "Obu": 6033,
  "OP": 6034,
  "Nwabia": 6035,
  "Nuremberg": 6036,
  "Nsugbe": 6037,
  "Not": 6038,
  "Noa.": 6039,
  "Nkechi": 6040,
  "Nico": 6041,
  "Nicho": 6042,
  "Ndubuisi": 6043,
  "ND": 6044,
  "Mueller": 6045,
  "Monetary": 6046,
  "Mayor": 6047,
  "Matiu": 6048,
  "Main": 6049,
  "MTN": 6050,
  "My": 6051,
  "Mit": 6052,
  "MS": 6053,
  "M.": 6054,
  "Lyon": 6055,
  "Love": 6056,
  "Lanka": 6057,
  "Lambo": 6058,
  "Lake": 6059,
  "Kola": 6060,
  "Kabir": 6061,
  "Kate": 6062,
  "Kizito": 6063,
  "Ki": 6064,
  "Kele": 6065,
  "Kara": 6066,
  "June": 6067,
  "Jude": 6068,
  "Jud": 6069,
  "Juan": 6070,
  "Jos": 6071,
  "Jones": 6072,
  "Jollof": 6073,
  "Jerusale": 6074,
  "Jus": 6075,
  "Iv,": 6076,
  "Institute": 6077,
  "India,": 6078,
  "Inf": 6079,
  "Ikeokwu": 6080,
  "Ijeoma": 6081,
  "IAAF": 6082,
  "Isha": 6083,
  "Iron": 6084,
  "Ifite": 6085,
  "Hassan": 6086,
  "Governor": 6087,
  "Gombe": 6088,
  "Gassa": 6089,
  "Glo": 6090,
  "Games": 6091,
  "Felix": 6092,
  "Fani-": 6093,
  "Fani-Kayode": 6094,
  "Fr": 6095,
  "Execu": 6096,
  "Ekwueme": 6097,
  "Ebonyi,": 6098,
  "Eaglet": 6099,
  "Eti": 6100,
  "Ese": 6101,
  "Eno": 6102,
  "Ehab": 6103,
  "Efe": 6104,
  "EP": 6105,
  "Drug": 6106,
  "Domini": 6107,
  "Distri": 6108,
  "Dij": 6109,
  "Demokrat": 6110,
  "Dango": 6111,
  "Dar": 6112,
  "DJ": 6113,
  "DA": 6114,
  "Collins": 6115,
  "Coalition": 6116,
  "Colo": 6117,
  "City,": 6118,
  "Church,": 6119,
  "Chukwulobe": 6120,
  "Chime": 6121,
  "Charly": 6122,
  "Catalo": 6123,
  "Cultu": 6124,
  "Cell": 6125,
  "Burna": 6126,
  "Bulgaria": 6127,
  "Brenton": 6128,
  "Bebel": 6129,
  "Barwin": 6130,
  "Basin": 6131,
  "Bad": 6132,
  "Awada": 6133,
  "Audu": 6134,
  "Argentina": 6135,
  "Anyaoku": 6136,
  "Amaju": 6137,
  "Ahmadu": 6138,
  "Agbogugu": 6139,
  "Adele": 6140,
  "Advisory": 6141,
  "Abiy": 6142,
  "Abdulra": 6143,
  "Aaron": 6144,
  "ATM": 6145,
  "Aro": 6146,
  "Amy": 6147,
  "Agri": 6148,
  "Ag": 6149,
  "Abo": 6150,
  "700": 6151,
  "600": 6152,
  "34": 6153,
  "25)": 6154,
  "23)": 6155,
  "2012,": 6156,
  "20;": 6157,
  "22,": 6158,
  "1967": 6159,
  "190": 6160,
  "18)": 6161,
  "17:": 6162,
  "160": 6163,
  "13,": 6164,
  "....": 6165,
  ".\"ya\"": 6166,
  "-U": 6167,
  "-14": 6168,
  "(onye": 6169,
  "(dị": 6170,
  "(C": 6171,
  "\"\"bụ\"": 6172,
  "\"onye\"": 6173,
  "“ụkwụ": 6174,
  "“ụbọchị": 6175,
  "“ọtụtụ": 6176,
  "“ọnwụ": 6177,
  "“we": 6178,
  "“olee": 6179,
  "“oke": 6180,
  "“na": 6181,
  "“hụ": 6182,
  "“bịa": 6183,
  "“anụ": 6184,
  "ụtalị": 6185,
  "ụkọchukwu.": 6186,
  "ụdara": 6187,
  "ụbụbọ": 6188,
  "ụja": 6189,
  "ọtụtụ\"": 6190,
  "ọtọ.”": 6191,
  "ọrụ.\"": 6192,
  "ọnọdụ.": 6193,
  "ọkọrọ": 6194,
  "ọkọrọtọ": 6195,
  "ọkwụrụ": 6196,
  "ọkwa,": 6197,
  "ọkpọka:": 6198,
  "ọfala": 6199,
  "ọdụ,": 6200,
  "ọm": 6201,
  "ọlụ": 6202,
  "ịgba.": 6203,
  "ịrish": 6204,
  "zi?": 6205,
  "z,": 6206,
  "ya?”": 6207,
  "yuni": 6208,
  "yke": 6209,
  "wuru": 6210,
  "well": 6211,
  "we?": 6212,
  "wale": 6213,
  "vootu,": 6214,
  "vomi": 6215,
  "vince": 6216,
  "vieve": 6217,
  "ville": 6218,
  "villa": 6219,
  "v,": 6220,
  "unuko": 6221,
  "ugo.": 6222,
  "udah": 6223,
  "ubu": 6224,
  "tụta": 6225,
  "tọrọ": 6226,
  "tọn": 6227,
  "ton,": 6228,
  "toye": 6229,
  "tlehem.": 6230,
  "tish": 6231,
  "tience": 6232,
  "tie": 6233,
  "technic": 6234,
  "teria": 6235,
  "ta.”": 6236,
  "sọnde.": 6237,
  "sọlọmọn": 6238,
  "sị,\"ọ\"": 6239,
  "swidi": 6240,
  "swidin.": 6241,
  "sure:": 6242,
  "subsidy": 6243,
  "steeti:": 6244,
  "st:": 6245,
  "st,": 6246,
  "sleeti": 6247,
  "simentị": 6248,
  "sine": 6249,
  "sen": 6250,
  "search": 6251,
  "sam": 6252,
  "rụ\"elelebe\"": 6253,
  "rọshịa.": 6254,
  "rọs,": 6255,
  "rịpọ": 6256,
  "rịpọb": 6257,
  "rịpọblịkan": 6258,
  "ruwa": 6259,
  "rose": 6260,
  "rine": 6261,
  "rendum": 6262,
  "referendum": 6263,
  "reau": 6264,
  "re.\"": 6265,
  "rahman": 6266,
  "racle": 6267,
  "ray": 6268,
  "ra:": 6269,
  "rya": 6270,
  "rn": 6271,
  "rghi": 6272,
  "pọnd": 6273,
  "policy": 6274,
  "pox": 6275,
  "pota": 6276,
  "pedia": 6277,
  "peace": 6278,
  "opi": 6279,
  "omenala,": 6280,
  "ology": 6281,
  "olin": 6282,
  "ogbugbo:": 6283,
  "odogwu": 6284,
  "oche,": 6285,
  "obosi,": 6286,
  "obibi,": 6287,
  "nọọsụ": 6288,
  "nyocha.": 6289,
  "nwunmi": 6290,
  "nwamba": 6291,
  "nu,": 6292,
  "ntụgharị": 6293,
  "ntụ.": 6294,
  "ntule": 6295,
  "ntine": 6296,
  "ntakị": 6297,
  "nso.”": 6298,
  "nri?": 6299,
  "no-Ob": 6300,
  "nnerby": 6301,
  "nne.": 6302,
  "nkụ,": 6303,
  "nkịtị,": 6304,
  "nkwuchite": 6305,
  "nkwado,": 6306,
  "nkwarụ": 6307,
  "nkenke": 6308,
  "nki": 6309,
  "njide": 6310,
  "niile”": 6311,
  "niile.”)": 6312,
  "niesta": 6313,
  "nick": 6314,
  "nia,": 6315,
  "ngwaọrụ": 6316,
  "nesia": 6317,
  "ner": 6318,
  "ndekọ": 6319,
  "nche.": 6320,
  "naiye": 6321,
  "nhịa": 6322,
  "ncial": 6323,
  "mpempe": 6324,
  "mposi": 6325,
  "mpo": 6326,
  "mmụta.": 6327,
  "mmetụta": 6328,
  "mmanwụ,": 6329,
  "mkpịsị": 6330,
  "mkpuchi": 6331,
  "mkpiri": 6332,
  "million": 6333,
  "mgbọ.": 6334,
  "mgbaghara.": 6335,
  "mestone": 6336,
  "me.”": 6337,
  "mbipụta": 6338,
  "maịl": 6339,
  "mart": 6340,
  "m.\"": 6341,
  "lịn": 6342,
  "lusive": 6343,
  "lopp": 6344,
  "league.": 6345,
  "laterite": 6346,
  "lando": 6347,
  "kwe,": 6348,
  "kwas": 6349,
  "kpọ,": 6350,
  "kpamkpam,": 6351,
  "klas": 6352,
  "kina": 6353,
  "kim": 6354,
  "kal": 6355,
  "king": 6356,
  "jenụwarị,": 6357,
  "jeso": 6358,
  "je,": 6359,
  "joko": 6360,
  "jo,": 6361,
  "inter": 6362,
  "illing": 6363,
  "ikikere": 6364,
  "ikh": 6365,
  "ijing": 6366,
  "ije,": 6367,
  "ihere.": 6368,
  "igboukwu": 6369,
  "iti": 6370,
  "hibru.": 6371,
  "hen": 6372,
  "ha.,": 6373,
  "helị": 6374,
  "helịkọpta": 6375,
  "guage": 6376,
  "godu": 6377,
  "godo": 6378,
  "go,": 6379,
  "ghị?": 6380,
  "ghị.”": 6381,
  "ghu": 6382,
  "gedọ": 6383,
  "gbụgbọ": 6384,
  "garaaga": 6385,
  "ft": 6386,
  "fri": 6387,
  "fon": 6388,
  "ezumike.": 6389,
  "ezume": 6390,
  "enyo.": 6391,
  "eluigwe?": 6392,
  "ejije,": 6393,
  "ehihie.": 6394,
  "ego?": 6395,
  "egede": 6396,
  "egbuke": 6397,
  "ebule": 6398,
  "e-Osuji": 6399,
  "duka": 6400,
  "dozie": 6401,
  "dioka": 6402,
  "dili": 6403,
  "dic": 6404,
  "dent": 6405,
  "dan,": 6406,
  "cyclo": 6407,
  "cyclopedia": 6408,
  "cua": 6409,
  "count": 6410,
  "chard": 6411,
  "cus": 6412,
  "cca": 6413,
  "bụ\"a\"": 6414,
  "bụrụ\"elelebe\"": 6415,
  "bọọlu": 6416,
  "bn)": 6417,
  "bia.": 6418,
  "bezbọl": 6419,
  "berto": 6420,
  "bba": 6421,
  "azụmaahịa.": 6422,
  "atụmatụ\"": 6423,
  "atụrụ.": 6424,
  "archbishop": 6425,
  "ara.": 6426,
  "anụrị.": 6427,
  "anụ,": 6428,
  "anwansi": 6429,
  "ander": 6430,
  "alụkwaghịm": 6431,
  "akụkọ.": 6432,
  "akwụkwọ\"": 6433,
  "akwụna.": 6434,
  "akpa,": 6435,
  "aka\"": 6436,
  "ahịhịa,": 6437,
  "agụụ.": 6438,
  "agụmaakwụkwọ": 6439,
  "agha?": 6440,
  "agba,": 6441,
  "afi": 6442,
  "achịcha,": 6443,
  "abalị:": 6444,
  "awu": 6445,
  "avi": 6446,
  "atu": 6447,
  "ate": 6448,
  "arọ.": 6449,
  "apụl": 6450,
  "action": 6451,
  "Zakari": 6452,
  "ZI": 6453,
  "ZIK": 6454,
  "Xavi": 6455,
  "Water": 6456,
  "Valentine": 6457,
  "Ver": 6458,
  "Umuokpu": 6459,
  "Umuchu": 6460,
  "Ugochukwu": 6461,
  "UTH": 6462,
  "UNIZIK": 6463,
  "UNIC": 6464,
  "UNICEF": 6465,
  "Uber": 6466,
  "Transforma": 6467,
  "Trafficking": 6468,
  "Trade": 6469,
  "Town": 6470,
  "Toni": 6471,
  "Thiba": 6472,
  "Television": 6473,
  "Tro": 6474,
  "Time": 6475,
  "Tal": 6476,
  "Syl": 6477,
  "Standa": 6478,
  "Stra": 6479,
  "Soyinka:": 6480,
  "Soma": 6481,
  "Silva": 6482,
  "Sinai": 6483,
  "Sheikh": 6484,
  "Sharon": 6485,
  "Services": 6486,
  "Sergeant": 6487,
  "Saga": 6488,
  "Span": 6489,
  "Sirika": 6490,
  "Simo": 6491,
  "SP": 6492,
  "Ruff": 6493,
  "Rube": 6494,
  "Roger": 6495,
  "Rights": 6496,
  "Richard": 6497,
  "Rt.": 6498,
  "Punch": 6499,
  "Prote": 6500,
  "Primary": 6501,
  "Poland": 6502,
  "Pogba": 6503,
  "Pinnick": 6504,
  "Peters": 6505,
  "Pete": 6506,
  "Papadopoulos": 6507,
  "Pakistan": 6508,
  "Patience": 6509,
  "Parish": 6510,
  "Plan": 6511,
  "Osadebe": 6512,
  "Orlando": 6513,
  "Olaudah": 6514,
  "Okwudili": 6515,
  "Okiyi": 6516,
  "Okey": 6517,
  "Ogbunike": 6518,
  "Odion": 6519,
  "Obono-Ob": 6520,
  "Obinagu": 6521,
  "Obigwe": 6522,
  "Owelle": 6523,
  "Oti": 6524,
  "Os": 6525,
  "Ore": 6526,
  "Oni": 6527,
  "Onaiye": 6528,
  "Okere": 6529,
  "Ogo": 6530,
  "Ofu": 6531,
  "Nwafor": 6532,
  "Nnabuife": 6533,
  "Nigerian\"": 6534,
  "Nicholas": 6535,
  "Napoli": 6536,
  "NCDC": 6537,
  "Nj": 6538,
  "Murtala": 6539,
  "Music": 6540,
  "Metho": 6541,
  "Medi": 6542,
  "Marcel": 6543,
  "Man.": 6544,
  "Mahrez": 6545,
  "Madrid,": 6546,
  "Macron": 6547,
  "Mus": 6548,
  "MW": 6549,
  "London,": 6550,
  "Libya.": 6551,
  "Lilian": 6552,
  "Lent": 6553,
  "Lea": 6554,
  "Lamborghi": 6555,
  "Kyari": 6556,
  "Kelechi": 6557,
  "Kaduna.": 6558,
  "Kaolin": 6559,
  "Klopp": 6560,
  "Kel": 6561,
  "Josephi": 6562,
  "Jong-U": 6563,
  "Japan.": 6564,
  "Jairu": 6565,
  "Justin": 6566,
  "Iwobi": 6567,
  "Isiguzo": 6568,
  "Indonesia": 6569,
  "Indonesi": 6570,
  "India.": 6571,
  "Imoh": 6572,
  "Ikedi": 6573,
  "IPOB:": 6574,
  "IPOB,": 6575,
  "Iyke": 6576,
  "Ista": 6577,
  "Initiative": 6578,
  "Iniesta": 6579,
  "Ile": 6580,
  "His": 6581,
  "Ham": 6582,
  "Ghana.": 6583,
  "Germain": 6584,
  "Genevieve": 6585,
  "Get": 6586,
  "Gassama": 6587,
  "Gana,": 6588,
  "Gọ": 6589,
  "Green": 6590,
  "France.": 6591,
  "First": 6592,
  "Financial": 6593,
  "Farouq": 6594,
  "Facebook,": 6595,
  "Fattah": 6596,
  "Ful": 6597,
  "Free": 6598,
  "Executive": 6599,
  "Encyclopedia": 6600,
  "Edgal": 6601,
  "Eboe-Osuji": 6602,
  "Ebele": 6603,
  "Eye": 6604,
  "End": 6605,
  "Eje": 6606,
  "Ecua": 6607,
  "ES": 6608,
  "Dijk": 6609,
  "Dennerby": 6610,
  "Dapchi:": 6611,
  "Dabiri-E": 6612,
  "Dabiri-Erewa": 6613,
  "Daily": 6614,
  "Dunuko": 6615,
  "Dona": 6616,
  "Dole": 6617,
  "Dama": 6618,
  "Courtois": 6619,
  "Comma": 6620,
  "Com": 6621,
  "City:": 6622,
  "Chukwujekwu": 6623,
  "China,": 6624,
  "Chiejine": 6625,
  "Chibok,": 6626,
  "Chize": 6627,
  "Chima": 6628,
  "Chekwas": 6629,
  "Change": 6630,
  "Catalonia": 6631,
  "Carl": 6632,
  "Cancer": 6633,
  "Cameron": 6634,
  "Cambridge": 6635,
  "California": 6636,
  "Calabar": 6637,
  "Care": 6638,
  "CCTV": 6639,
  "Clo": 6640,
  "Cen": 6641,
  "C)": 6642,
  "Burkina": 6643,
  "Bureau": 6644,
  "Buck": 6645,
  "British": 6646,
  "Briga": 6647,
  "Brazil.": 6648,
  "Biden": 6649,
  "Berna": 6650,
  "Benue:": 6651,
  "Betlehem.": 6652,
  "Beijing": 6653,
  "Balogun": 6654,
  "Balara": 6655,
  "Bakare": 6656,
  "Bon": 6657,
  "Bil": 6658,
  "Ayogu": 6659,
  "Award": 6660,
  "Atiku,": 6661,
  "Arsenal.": 6662,
  "Arabik": 6663,
  "Arafat": 6664,
  "Arch": 6665,
  "Antonio": 6666,
  "Anichukwu": 6667,
  "Alexander": 6668,
  "Akinwunmi": 6669,
  "Adeosu": 6670,
  "Abeoku": 6671,
  "APC,": 6672,
  "AFCON:": 6673,
  "ABSUTH": 6674,
  "Aịrish": 6675,
  "Avomi": 6676,
  "Area": 6677,
  "Apo": 6678,
  "Alo": 6679,
  "Akeredo": 6680,
  "AA": 6681,
  "69": 6682,
  "66": 6683,
  "400,": 6684,
  "3:": 6685,
  "29;": 6686,
  "28)": 6687,
  "26)": 6688,
  "2012.": 6689,
  "2006.": 6690,
  "2004,": 6691,
  "26,": 6692,
  "1914,": 6693,
  "1879.": 6694,
  "18,": 6695,
  "17;": 6696,
  "110": 6697,
  "11.": 6698,
  "000.": 6699,
  "000,": 6700,
  ".\"ha\"": 6701,
  "-5)": 6702,
  "-0": 6703,
  "):": 6704,
  "(PDP)": 6705,
  "(APGA)": 6706,
  "(ọ": 6707,
  "(n'": 6708,
  "(IMN": 6709,
  "(G": 6710,
  "\".\"\"": 6711,
  "\"mgbe\"": 6712,
  "\"e\"": 6713,
  "“ụmụnna": 6714,
  "“ji": 6715,
  "“ga": 6716,
  "ụwa.,": 6717,
  "ụwa;": 6718,
  "ụmụada\"\"n'\"": 6719,
  "ụmụ,": 6720,
  "ụma.": 6721,
  "ụlọikpe?": 6722,
  "ụlọakụ.": 6723,
  "ụlọakwụkwọ.": 6724,
  "ụkọchukwu,": 6725,
  "ụka\"": 6726,
  "ụjọ,": 6727,
  "ụyọ": 6728,
  "ụyọkọ": 6729,
  "ụpa": 6730,
  "ụnwụ": 6731,
  "ụcha": 6732,
  "ọtọ?": 6733,
  "ọma.\"": 6734,
  "ọkụkọ.": 6735,
  "ọkpụtọrọ": 6736,
  "ọkpụtọrọkpụ": 6737,
  "ọjọọ.”": 6738,
  "ọjị.": 6739,
  "ọgụgụ.": 6740,
  "ọgụgụ,": 6741,
  "ọgwụ.": 6742,
  "ọgaranya.": 6743,
  "ọrọ": 6744,
  "ọlọ": 6745,
  "Ọzọ": 6746,
  "ịhụnanya,": 6747,
  "ịgba,": 6748,
  "ịchafụ:": 6749,
  "zuruoke": 6750,
  "zuzu": 6751,
  "zor,": 6752,
  "zone": 6753,
  "ze,": 6754,
  "zani": 6755,
  "zman": 6756,
  "yoyo": 6757,
  "yi.": 6758,
  "yer": 6759,
  "y.": 6760,
  "wu,": 6761,
  "wig": 6762,
  "wazuruike": 6763,
  "wayo": 6764,
  "wor": 6765,
  "vaịn": 6766,
  "urotoye": 6767,
  "urgen": 6768,
  "umudioka": 6769,
  "ugoeze": 6770,
  "udo?": 6771,
  "uwazuruike": 6772,
  "uf": 6773,
  "tumen": 6774,
  "ttacks:": 6775,
  "ttlement": 6776,
  "tiri": 6777,
  "tii": 6778,
  "terenian": 6779,
  "tel.": 6780,
  "taata.": 6781,
  "trou": 6782,
  "trea": 6783,
  "sị\"ọ\"": 6784,
  "sum": 6785,
  "sther": 6786,
  "sona": 6787,
  "siness": 6788,
  "sig": 6789,
  "si\"": 6790,
  "shoggi": 6791,
  "she": 6792,
  "service": 6793,
  "se,": 6794,
  "saịrọs": 6795,
  "sat": 6796,
  "sar": 6797,
  "sand": 6798,
  "sco": 6799,
  "rụ\"na\"": 6800,
  "rọfe": 6801,
  "rọba": 6802,
  "ruba": 6803,
  "referee": 6804,
  "rates": 6805,
  "rade": 6806,
  "ra.”": 6807,
  "ra.\"": 6808,
  "pọpụl": 6809,
  "pub": 6810,
  "publican": 6811,
  "preme": 6812,
  "pounds": 6813,
  "power": 6814,
  "pay": 6815,
  "parish": 6816,
  "par": 6817,
  "prọfe": 6818,
  "ppe": 6819,
  "pino": 6820,
  "ozigbo.": 6821,
  "ose,": 6822,
  "orie": 6823,
  "oney": 6824,
  "omekatara": 6825,
  "ole,": 6826,
  "okwute.": 6827,
  "okpoto": 6828,
  "okokporo": 6829,
  "okenye.": 6830,
  "ogologo,": 6831,
  "ogbenye,": 6832,
  "offi": 6833,
  "obi:": 6834,
  "obi\"": 6835,
  "ohe": 6836,
  "nọvemba.": 6837,
  "nọọ": 6838,
  "nwụ.”": 6839,
  "nwoke\"": 6840,
  "nwata.": 6841,
  "nwamkpị.": 6842,
  "nwaamadị": 6843,
  "nukwu": 6844,
  "ntorobịa.": 6845,
  "ntal": 6846,
  "nsụnsụ": 6847,
  "nsọpụ": 6848,
  "nnọkọ": 6849,
  "nledo": 6850,
  "nkụ.": 6851,
  "nkwafu": 6852,
  "nkwa,": 6853,
  "nkeypox": 6854,
  "nkata.": 6855,
  "nkata,": 6856,
  "ngwupụta": 6857,
  "ngarị": 6858,
  "ndokwa": 6859,
  "ndidi.": 6860,
  "ndation": 6861,
  "nchọnchọ": 6862,
  "nchegbu": 6863,
  "nchara.": 6864,
  "ncha,": 6865,
  "nce:": 6866,
  "naiji": 6867,
  "naijiria": 6868,
  "na\"ndị\"": 6869,
  "na,\"": 6870,
  "non": 6871,
  "nkpụ": 6872,
  "ngwuru": 6873,
  "mụrụ": 6874,
  "myr": 6875,
  "mpiks": 6876,
  "mpịa": 6877,
  "mpako": 6878,
  "mond": 6879,
  "mmeri,": 6880,
  "mmezu.": 6881,
  "mkpesa.": 6882,
  "minista.": 6883,
  "min).": 6884,
  "mina": 6885,
  "mily": 6886,
  "mgbede,": 6887,
  "mfe,": 6888,
  "mediterenian": 6889,
  "menta": 6890,
  "megbu": 6891,
  "megawa": 6892,
  "megawatt": 6893,
  "me.\"": 6894,
  "mbịambịa": 6895,
  "mbombo": 6896,
  "machukwu": 6897,
  "mole": 6898,
  "mford": 6899,
  "m?”": 6900,
  "lọf": 6901,
  "lọb": 6902,
  "lumma": 6903,
  "low": 6904,
  "lood": 6905,
  "llar": 6906,
  "listus": 6907,
  "liban": 6908,
  "legọs:": 6909,
  "language": 6910,
  "lay": 6911,
  "kọrịta.": 6912,
  "kọnkịrị": 6913,
  "kwụrụ\"na\"": 6914,
  "kwụ?": 6915,
  "kwụ,": 6916,
  "ku,": 6917,
  "krismas.": 6918,
  "kpọmkwem.": 6919,
  "kemgbe,": 6920,
  "kasị": 6921,
  "kadị": 6922,
  "kachi": 6923,
  "klọb": 6924,
  "jọlọf": 6925,
  "juun,": 6926,
  "jee": 6927,
  "jor": 6928,
  "jan": 6929,
  "iwu\"": 6930,
  "iro,": 6931,
  "iner": 6932,
  "ike\"": 6933,
  "ije.": 6934,
  "ihiala,": 6935,
  "ihiala": 6936,
  "iden.": 6937,
  "iche.”": 6938,
  "iberiibe.": 6939,
  "ip": 6940,
  "ichie": 6941,
  "ibu": 6942,
  "hood": 6943,
  "hiara": 6944,
  "heem": 6945,
  "han": 6946,
  "ha\".\"": 6947,
  "guema": 6948,
  "grik,": 6949,
  "goolụ": 6950,
  "gie": 6951,
  "gence": 6952,
  "gboruwa": 6953,
  "gbolu": 6954,
  "gbene": 6955,
  "gas": 6956,
  "glass": 6957,
  "furt": 6958,
  "friji": 6959,
  "ezumezu": 6960,
  "ezinụlọ.": 6961,
  "ezie?": 6962,
  "ezibel": 6963,
  "eprel.": 6964,
  "enugwu?": 6965,
  "eleke": 6966,
  "ekwe.": 6967,
  "ego:": 6968,
  "egedege": 6969,
  "ebube.": 6970,
  "ezani": 6971,
  "eing": 6972,
  "egbo": 6973,
  "e.”": 6974,
  "dọb": 6975,
  "dọblịn": 6976,
  "duct": 6977,
  "dollar": 6978,
  "dela": 6979,
  "ddle": 6980,
  "dale": 6981,
  "conclusive": 6982,
  "cob": 6983,
  "coa": 6984,
  "cine": 6985,
  "chineke:": 6986,
  "change": 6987,
  "cashless": 6988,
  "bụ\"ụmụada\"\"n'\"": 6989,
  "bọl": 6990,
  "bukola": 6991,
  "bezbọl.": 6992,
  "barrel": 6993,
  "baptizim.": 6994,
  "bale": 6995,
  "bro": 6996,
  "bbi": 6997,
  "bbe": 6998,
  "awara": 6999,
  "atụmatụ,": 7000,
  "arụsị,": 7001,
  "anya.\"": 7002,
  "anya\"": 7003,
  "anyụ": 7004,
  "anga": 7005,
  "amụma.": 7006,
  "amara,": 7007,
  "amagedọ": 7008,
  "ala\"": 7009,
  "akwụ,": 7010,
  "ahụ\"": 7011,
  "ahịa\"": 7012,
  "agadị": 7013,
  "afael": 7014,
  "a?”": 7015,
  "a.)": 7016,
  "atia": 7017,
  "ast": 7018,
  "arụ,": 7019,
  "afe": 7020,
  "a\".\"": 7021,
  "a!": 7022,
  "________________________________": 7023,
  "Zion": 7024,
  "Zik": 7025,
  "Youth": 7026,
  "Yaha": 7027,
  "Yaba": 7028,
  "Xenophobia:": 7029,
  "Wood": 7030,
  "Wisdom": 7031,
  "Wilfred": 7032,
  "Whit": 7033,
  "Wesley": 7034,
  "Weare": 7035,
  "Warri": 7036,
  "Voice": 7037,
  "Virgil": 7038,
  "Val": 7039,
  "Uwazuruike": 7040,
  "Universal": 7041,
  "Unity": 7042,
  "UNES": 7043,
  "UNESCO": 7044,
  "Uru": 7045,
  "Ulumma": 7046,
  "Uke": 7047,
  "Uju": 7048,
  "UJ": 7049,
  "UC": 7050,
  "Trust": 7051,
  "Transformation": 7052,
  "Tom": 7053,
  "Toky": 7054,
  "Timgad.": 7055,
  "Times": 7056,
  "Teodorin": 7057,
  "Technovation": 7058,
  "Team": 7059,
  "Taliban": 7060,
  "Tou": 7061,
  "Tonye": 7062,
  "Ten": 7063,
  "Tam": 7064,
  "TE": 7065,
  "TD": 7066,
  "Supreme": 7067,
  "Stella": 7068,
  "Standard": 7069,
  "Stamford": 7070,
  "Spanish.": 7071,
  "Spann": 7072,
  "Sowore:": 7073,
  "Simone": 7074,
  "Shehu,": 7075,
  "Segun": 7076,
  "Scot": 7077,
  "Salisu": 7078,
  "Sadiya": 7079,
  "Snow": 7080,
  "SER": 7081,
  "SA": 7082,
  "Ruben": 7083,
  "Rotary": 7084,
  "Roberto": 7085,
  "Republican": 7086,
  "Regu": 7087,
  "Record": 7088,
  "Ralph": 7089,
  "Rile": 7090,
  "Rebe": 7091,
  "Rafael": 7092,
  "Prince": 7093,
  "Prime": 7094,
  "Premiership": 7095,
  "Portugal": 7096,
  "Peshia": 7097,
  "Pho": 7098,
  "PP)": 7099,
  "Onoh": 7100,
  "Onaiyekan": 7101,
  "Olimpiks": 7102,
  "Okonjo": 7103,
  "Okoi": 7104,
  "Odinga": 7105,
  "Obi-": 7106,
  "OGM": 7107,
  "Ogbe": 7108,
  "OA": 7109,
  "Nnamu": 7110,
  "Nnamani": 7111,
  "Nnadozie": 7112,
  "Nelson": 7113,
  "Nebal": 7114,
  "Ndubisi": 7115,
  "Nmachukwu": 7116,
  "Nguema": 7117,
  "Momo": 7118,
  "Minister": 7119,
  "Mic": 7120,
  "Methodi": 7121,
  "Mbonu": 7122,
  "Mbakwe": 7123,
  "Martins": 7124,
  "Marble": 7125,
  "Madumere": 7126,
  "Maduagwu": 7127,
  "Madrid.": 7128,
  "Mali.": 7129,
  "MATA": 7130,
  "Mgbe": 7131,
  "Linda": 7132,
  "Living": 7133,
  "Lebanon": 7134,
  "League,": 7135,
  "Lekki": 7136,
  "Lamborghini": 7137,
  "Lagos.": 7138,
  "Lawal": 7139,
  "LEA": 7140,
  "Lille": 7141,
  "Korea.": 7142,
  "Konduga": 7143,
  "Khashoggi": 7144,
  "Kachikwu": 7145,
  "Kaori": 7146,
  "Justice": 7147,
  "Joy": 7148,
  "Jigawa": 7149,
  "Jessica": 7150,
  "Jerom": 7151,
  "Jef": 7152,
  "Jacob": 7153,
  "Jurgen": 7154,
  "Jezibel": 7155,
  "Jen": 7156,
  "Iv.": 7157,
  "Inve": 7158,
  "Indu": 7159,
  "Imohimi": 7160,
  "Imo,": 7161,
  "Ikeme": 7162,
  "Ikea": 7163,
  "Ifejiofor": 7164,
  "Ibikunle": 7165,
  "ISIS": 7166,
  "IPOB.": 7167,
  "ICPC": 7168,
  "Isu": 7169,
  "Iso": 7170,
  "Ida": 7171,
  "Hutter": 7172,
  "Hunga": 7173,
  "Human": 7174,
  "Heart": 7175,
  "Harcourt.": 7176,
  "Haw": 7177,
  "Hil": 7178,
  "Gọv": 7179,
  "Guardio": 7180,
  "Gui": 7181,
  "Godson": 7182,
  "Gy": 7183,
  "Gri": 7184,
  "Gon": 7185,
  "Gide": 7186,
  "Fulham": 7187,
  "Frankfurt": 7188,
  "Foundation": 7189,
  "Ferna": 7190,
  "Fayemi": 7191,
  "Faso": 7192,
  "Ezenne": 7193,
  "Europe.": 7194,
  "Electricity": 7195,
  "El-Zakzaky.": 7196,
  "Ecuador": 7197,
  "Eagles,": 7198,
  "Esther": 7199,
  "Enugwu": 7200,
  "Egwu": 7201,
  "Egbu": 7202,
  "Edu": 7203,
  "Dominic": 7204,
  "Diezani": 7205,
  "Daniel,": 7206,
  "Daura": 7207,
  "Dani": 7208,
  "Durotoye": 7209,
  "Dr.": 7210,
  "Dia": 7211,
  "DNA": 7212,
  "Cup:": 7213,
  "Crow": 7214,
  "Croatia": 7215,
  "Crimes": 7216,
  "Count": 7217,
  "Codeine:": 7218,
  "Coal": 7219,
  "Closure:": 7220,
  "Clay": 7221,
  "Civil": 7222,
  "Chukwueze": 7223,
  "Chuks": 7224,
  "Christie": 7225,
  "Chidiebere": 7226,
  "Chieme": 7227,
  "Chibuike": 7228,
  "Chibu": 7229,
  "Cameroon,": 7230,
  "Callistus": 7231,
  "Caro": 7232,
  "CHOGM": 7233,
  "Clint": 7234,
  "Bucknor": 7235,
  "Boeing": 7236,
  "Beni": 7237,
  "Bene": 7238,
  "Balarabe": 7239,
  "Bah": 7240,
  "Baby": 7241,
  "Bode": 7242,
  "Bana": 7243,
  "Bada": 7244,
  "BC": 7245,
  "Atiku:": 7246,
  "Asisat": 7247,
  "Asagwa": 7248,
  "Arochukwu": 7249,
  "Arewa": 7250,
  "Arab": 7251,
  "Andy": 7252,
  "Anaocha": 7253,
  "Alph": 7254,
  "Akure": 7255,
  "Airpeace": 7256,
  "Aguleri,": 7257,
  "Aguero": 7258,
  "Afara": 7259,
  "Adichi": 7260,
  "Adeboye": 7261,
  "Adegboruwa": 7262,
  "Adazi-N": 7263,
  "Admini": 7264,
  "Academy": 7265,
  "Abatete": 7266,
  "Abbo": 7267,
  "ANU": 7268,
  "Assi": 7269,
  "Asia": 7270,
  "Akin": 7271,
  "Aje": 7272,
  "Ahiara": 7273,
  "Afe": 7274,
  "Achalla": 7275,
  "Abia": 7276,
  "?”)": 7277,
  "607": 7278,
  "68": 7279,
  "49": 7280,
  "35)": 7281,
  "2000,": 7282,
  "2006,": 7283,
  "2006": 7284,
  "2005": 7285,
  "2004": 7286,
  "202": 7287,
  "22)": 7288,
  "1999.": 7289,
  "184": 7290,
  "170": 7291,
  "17.": 7292,
  "12:": 7293,
  "-West": 7294,
  "-8": 7295,
  "-16": 7296,
  "-14)": 7297,
  "-13": 7298,
  "(IMN)": 7299,
  "(£": 7300,
  "(R": 7301,
  "(INEC": 7302,
  "(D": 7303,
  "(AN": 7304,
  "(4": 7305,
  "(3": 7306,
  "%)": 7307,
  "\"ma": 7308,
  "\"i": 7309,
  "“mkpụrụ”": 7310,
  "“ozi": 7311,
  "“naanị": 7312,
  "“chineke,": 7313,
  "“biko,": 7314,
  "’.": 7315,
  "ụmụahịa,": 7316,
  "ụlọụka,": 7317,
  "ụfụ,": 7318,
  "ụfọdụ\"": 7319,
  "ụba.": 7320,
  "Ụmụ": 7321,
  "ọzọ\"": 7322,
  "ọnụ?": 7323,
  "ọnụ\"": 7324,
  "ọmịiko": 7325,
  "ọlaedo,": 7326,
  "ọkọchị,": 7327,
  "ọkpụkpọ": 7328,
  "ọgwụgwụ.": 7329,
  "ọgbara": 7330,
  "ọgbanje": 7331,
  "ọfọka": 7332,
  "ọtị": 7333,
  "Ọnwụ": 7334,
  "ịnyịnya.": 7335,
  "ịkpeazụ": 7336,
  "ịhụnanya.": 7337,
  "ịchafụ,": 7338,
  "ịdi": 7339,
  "án": 7340,
  "zụ.": 7341,
  "ziz": 7342,
  "zig": 7343,
  "zho": 7344,
  "yuniọn": 7345,
  "yota": 7346,
  "yede": 7347,
  "ya:\"": 7348,
  "ya.\"ihe\"": 7349,
  "ya.;": 7350,
  "ya)": 7351,
  "ya!": 7352,
  "xto": 7353,
  "xon": 7354,
  "work": 7355,
  "wka": 7356,
  "viet": 7357,
  "vita": 7358,
  "viron": 7359,
  "vez": 7360,
  "val": 7361,
  "vac": 7362,
  "vus": 7363,
  "vol": 7364,
  "urrency": 7365,
  "ult": 7366,
  "ukpor": 7367,
  "ugboguru": 7368,
  "udiri": 7369,
  "uta": 7370,
  "utazi": 7371,
  "um.": 7372,
  "um,": 7373,
  "uge": 7374,
  "ugegbe": 7375,
  "tịn": 7376,
  "tomi": 7377,
  "tola": 7378,
  "tion:": 7379,
  "tives": 7380,
  "tima": 7381,
  "ties": 7382,
  "thern": 7383,
  "thany": 7384,
  "tenaị": 7385,
  "telli": 7386,
  "telligence": 7387,
  "tele": 7388,
  "tatenaị": 7389,
  "tai": 7390,
  "ta!": 7391,
  "tz": 7392,
  "tn": 7393,
  "t:": 7394,
  "sọnde,": 7395,
  "sị,\"anyị\"": 7396,
  "syn": 7397,
  "strike:": 7398,
  "storation\"": 7399,
  "stique": 7400,
  "state:": 7401,
  "stan.": 7402,
  "stries": 7403,
  "ssor": 7404,
  "ssia": 7405,
  "ssport": 7406,
  "spen,": 7407,
  "sonal": 7408,
  "sia,": 7409,
  "shot": 7410,
  "sheed": 7411,
  "sha,": 7412,
  "sex": 7413,
  "seman": 7414,
  "swill": 7415,
  "spor": 7416,
  "rụ.”": 7417,
  "rọ?": 7418,
  "rịọrịọ": 7419,
  "rume": 7420,
  "roui": 7421,
  "rothy": 7422,
  "roke": 7423,
  "risii": 7424,
  "rizu": 7425,
  "restructuring": 7426,
  "republic": 7427,
  "ramado": 7428,
  "rald": 7429,
  "ramic": 7430,
  "rai": 7431,
  "rah,": 7432,
  "pụ\"": 7433,
  "pọnti": 7434,
  "pọntiọs": 7435,
  "pọint": 7436,
  "prọfesọ": 7437,
  "plosion:": 7438,
  "photo": 7439,
  "pers": 7440,
  "penti": 7441,
  "pentikọ": 7442,
  "papers": 7443,
  "psum": 7444,
  "ppa": 7445,
  "pel": 7446,
  "pa.": 7447,
  "ozu.": 7448,
  "otuto,": 7449,
  "osimiri.": 7450,
  "osebu": 7451,
  "oseburụ": 7452,
  "oroma": 7453,
  "onugbu": 7454,
  "omenala.": 7455,
  "omeiwu.": 7456,
  "olu.": 7457,
  "olu,": 7458,
  "ologbo": 7459,
  "oku,": 7460,
  "okorobịa.": 7461,
  "ofufe,": 7462,
  "odide": 7463,
  "ochie?": 7464,
  "obosara": 7465,
  "oki": 7466,
  "o?": 7467,
  "o!": 7468,
  "nzọụkwụ": 7469,
  "nze,": 7470,
  "nwunye?": 7471,
  "nwu,": 7472,
  "ntị?": 7473,
  "nting": 7474,
  "ntifi": 7475,
  "nteco": 7476,
  "ntamu": 7477,
  "ntozu": 7478,
  "nsọ?": 7479,
  "nsogbu?": 7480,
  "nrụrụaka,": 7481,
  "nrụpụta": 7482,
  "nofia": 7483,
  "nnyocha,": 7484,
  "nkwekọrịta.": 7485,
  "nkwado.": 7486,
  "nkeji.": 7487,
  "nker": 7488,
  "nkebi": 7489,
  "njedebe,": 7490,
  "nife": 7491,
  "nical": 7492,
  "nhọpụta,": 7493,
  "nghọta,": 7494,
  "nga.": 7495,
  "new": 7496,
  "nel": 7497,
  "ndesli": 7498,
  "ndede": 7499,
  "nds": 7500,
  "nchụaja,": 7501,
  "naịjirịa.\"": 7502,
  "nator,": 7503,
  "naly": 7504,
  "na\"ihe\"": 7505,
  "naza": 7506,
  "nam": 7507,
  "nru": 7508,
  "nobi": 7509,
  "nn": 7510,
  "nguzo": 7511,
  "nguzobe": 7512,
  "mọkpọ": 7513,
  "mị,": 7514,
  "msby": 7515,
  "mpic": 7516,
  "mpi.": 7517,
  "mont": 7518,
  "mmigration": 7519,
  "mmanụ,": 7520,
  "mmadụ.\"": 7521,
  "mmad": 7522,
  "mkpụrụ,": 7523,
  "minium": 7524,
  "miliano": 7525,
  "minal": 7526,
  "miah": 7527,
  "mgbochi.": 7528,
  "mgbada": 7529,
  "meri.": 7530,
  "mbịarambịa": 7531,
  "mbido.": 7532,
  "mbido,": 7533,
  "mbinye": 7534,
  "mbilite": 7535,
  "mbaza": 7536,
  "mark": 7537,
  "mass": 7538,
  "make": 7539,
  "main": 7540,
  "mago": 7541,
  "made": 7542,
  "m”": 7543,
  "mor": 7544,
  "mkpo": 7545,
  "m),": 7546,
  "lọọlọ": 7547,
  "lịkalịka": 7548,
  "lus": 7549,
  "luminium": 7550,
  "logi": 7551,
  "ller": 7552,
  "lima": 7553,
  "lia,": 7554,
  "lena": 7555,
  "lazarọs,": 7556,
  "lady": 7557,
  "kọrịnt": 7558,
  "kịrịkịrị": 7559,
  "kwu\"": 7560,
  "kwo.": 7561,
  "kulu": 7562,
  "kpọmkwem,": 7563,
  "kpe.": 7564,
  "koba": 7565,
  "kemgbe\"": 7566,
  "kedu": 7567,
  "kadịnal": 7568,
  "kil": 7569,
  "khi": 7570,
  "juun.": 7571,
  "juda": 7572,
  "izugbe.": 7573,
  "iyi,": 7574,
  "ipzig": 7575,
  "indy": 7576,
  "inconclusive": 7577,
  "imi,": 7578,
  "iller": 7579,
  "ilele": 7580,
  "ilead": 7581,
  "ike;": 7582,
  "idemmiri.": 7583,
  "iru.": 7584,
  "ire.": 7585,
  "ire,": 7586,
  "ilo": 7587,
  "ia,": 7588,
  "i.": 7589,
  "hode": 7590,
  "helikọpta": 7591,
  "ham.": 7592,
  "hel": 7593,
  "graph": 7594,
  "gide.": 7595,
  "ghiri": 7596,
  "gbụrụgbụrụ": 7597,
  "gbuo": 7598,
  "gbanụ": 7599,
  "gbinde": 7600,
  "gazine": 7601,
  "gard": 7602,
  "gna": 7603,
  "gge": 7604,
  "forcement": 7605,
  "fo-": 7606,
  "fo-Ad": 7607,
  "fite,": 7608,
  "farisii": 7609,
  "fort": 7610,
  "fford": 7611,
  "explosion:": 7612,
  "eting": 7613,
  "erimeri": 7614,
  "erra": 7615,
  "er,": 7616,
  "enyo,": 7617,
  "enyemaka,": 7618,
  "enue": 7619,
  "ella": 7620,
  "ekwulọ": 7621,
  "ekwensu,": 7622,
  "ekpe.": 7623,
  "ekpe,": 7624,
  "egwuregwu:": 7625,
  "ebelebe": 7626,
  "ez": 7627,
  "emo": 7628,
  "emi": 7629,
  "dow": 7630,
  "diora": 7631,
  "dith": 7632,
  "dis": 7633,
  "dimkpa.": 7634,
  "dim": 7635,
  "dier": 7636,
  "deration": 7637,
  "dera": 7638,
  "day.": 7639,
  "data": 7640,
  "dam": 7641,
  "copper": 7642,
  "coma": 7643,
  "com": 7644,
  "coin": 7645,
  "cha!": 7646,
  "ce,": 7647,
  "carpe": 7648,
  "cup": 7649,
  "cultu": 7650,
  "class": 7651,
  "c,": 7652,
  "bịa.”": 7653,
  "bution": 7654,
  "budget": 7655,
  "border": 7656,
  "bonch": 7657,
  "bin": 7658,
  "billion": 7659,
  "bill": 7660,
  "betel.": 7661,
  "bena": 7662,
  "bao": 7663,
  "bail": 7664,
  "azụmaahịa,": 7665,
  "arụma": 7666,
  "ary": 7667,
  "anụ.": 7668,
  "anyị;": 7669,
  "antino": 7670,
  "amala": 7671,
  "amadị,": 7672,
  "along": 7673,
  "akụnụba": 7674,
  "akụ.": 7675,
  "akara.": 7676,
  "ahụ.,": 7677,
  "ahịhịa.": 7678,
  "agụụ,": 7679,
  "agụmakwụkwọ.": 7680,
  "afikpo": 7681,
  "aching": 7682,
  "a”": 7683,
  "azi": 7684,
  "awa.": 7685,
  "ath": 7686,
  "akp": 7687,
  "a!”": 7688,
  "Zubair": 7689,
  "Zimbabwe,": 7690,
  "Zou": 7691,
  "Yahaya": 7692,
  "Yor": 7693,
  "YPP": 7694,
  "Wealth": 7695,
  "Wales": 7696,
  "Wage:": 7697,
  "Win": 7698,
  "Wike,": 7699,
  "Wha": 7700,
  "Version": 7701,
  "Venezuela": 7702,
  "Venerable": 7703,
  "Vol": 7704,
  "Visi": 7705,
  "Uzoho": 7706,
  "Uwaifo": 7707,
  "USA": 7708,
  "US.": 7709,
  "Uhuru": 7710,
  "Ugbo": 7711,
  "UA": 7712,
  "Trafford": 7713,
  "Toyota": 7714,
  "Texas": 7715,
  "Technology": 7716,
  "Taiwo": 7717,
  "Ty": 7718,
  "TUC": 7719,
  "TCN": 7720,
  "TB": 7721,
  "T.": 7722,
  "Super\"": 7723,
  "State:": 7724,
  "Staff": 7725,
  "Stadium": 7726,
  "Spring": 7727,
  "Soviet": 7728,
  "Snowden": 7729,
  "Simeon": 7730,
  "Sierra": 7731,
  "Service,": 7732,
  "Sergio": 7733,
  "Settlement": 7734,
  "Scott": 7735,
  "Sambisa": 7736,
  "Sani": 7737,
  "SERAP": 7738,
  "Swi": 7739,
  "Stock": 7740,
  "Sir": 7741,
  "Sar": 7742,
  "SU": 7743,
  "SON": 7744,
  "S.": 7745,
  "Ruffcoin": 7746,
  "Rooney": 7747,
  "Roch": 7748,
  "Riley": 7749,
  "Rehab.": 7750,
  "Rebecca": 7751,
  "Reube": 7752,
  "Result": 7753,
  "Restoration\"": 7754,
  "Rechel": 7755,
  "Raila": 7756,
  "Robi": 7757,
  "Rhode": 7758,
  "Ram": 7759,
  "RB": 7760,
  "Qa": 7761,
  "Public": 7762,
  "Province": 7763,
  "Polytechnic": 7764,
  "Plateau,": 7765,
  "Penteco": 7766,
  "Patricia": 7767,
  "Pat": 7768,
  "Pas": 7769,
  "Paci": 7770,
  "Prie": 7771,
  "Pra": 7772,
  "Oyo-": 7773,
  "Oyemade": 7774,
  "Osim": 7775,
  "Open.": 7776,
  "Onigbinde": 7777,
  "Omambala": 7778,
  "Okwuo": 7779,
  "Okpaleke": 7780,
  "Okoli": 7781,
  "Okezi": 7782,
  "Officer": 7783,
  "Odekpe,": 7784,
  "Odedeji": 7785,
  "Obono-Obla": 7786,
  "Out": 7787,
  "Our": 7788,
  "Ose": 7789,
  "Ole": 7790,
  "Oil": 7791,
  "Ogba": 7792,
  "Off": 7793,
  "OR": 7794,
  "Nzewuji": 7795,
  "Nyong": 7796,
  "Nwoye": 7797,
  "Nwodo,": 7798,
  "Nwabueze": 7799,
  "Nuella": 7800,
  "North.": 7801,
  "North,": 7802,
  "Northern": 7803,
  "Nove": 7804,
  "Nnamuoh": 7805,
  "Nnaemeka": 7806,
  "Nkemdi": 7807,
  "Nimo,": 7808,
  "Niger.": 7809,
  "Nicolas": 7810,
  "Ngige,": 7811,
  "Newspapers": 7812,
  "Naija.": 7813,
  "NDLEA": 7814,
  "Nno": 7815,
  "Nkwe": 7816,
  "Nki": 7817,
  "Ndo": 7818,
  "Mystique": 7819,
  "Muslim": 7820,
  "Mohammad": 7821,
  "Mona": 7822,
  "Miracle": 7823,
  "Mila": 7824,
  "Megan": 7825,
  "Media": 7826,
  "Marti": 7827,
  "Marco": 7828,
  "Mandela": 7829,
  "ManCity": 7830,
  "Malami": 7831,
  "Malta": 7832,
  "Mau": 7833,
  "Matịn": 7834,
  "Mari": 7835,
  "Mallam": 7836,
  "Mail": 7837,
  "Magazine": 7838,
  "Miche": 7839,
  "Maha": 7840,
  "Lupita": 7841,
  "Loveth": 7842,
  "Light,": 7843,
  "Libya,": 7844,
  "Leone": 7845,
  "Leipzig": 7846,
  "Lau": 7847,
  "Late": 7848,
  "Los": 7849,
  "Lord": 7850,
  "Lar": 7851,
  "Korea,": 7852,
  "Kelvin": 7853,
  "Kemi": 7854,
  "Kaduna,": 7855,
  "Karoui": 7856,
  "Kur": 7857,
  "Kong": 7858,
  "Josephine": 7859,
  "Jour": 7860,
  "Jessie": 7861,
  "Jero": 7862,
  "J.": 7863,
  "Iweka": 7864,
  "Issa": 7865,
  "Island": 7866,
  "Infantino": 7867,
  "Imo.": 7868,
  "Ikechukwu,": 7869,
  "Ikenna": 7870,
  "Ifeanyichukwu": 7871,
  "Idigo,": 7872,
  "Ish": 7873,
  "Immigration": 7874,
  "Imma": 7875,
  "Ik": 7876,
  "Igwe": 7877,
  "Ice": 7878,
  "Hungary": 7879,
  "Hud": 7880,
  "Hero": 7881,
  "Haram?": 7882,
  "Harper": 7883,
  "Hanna": 7884,
  "Hote": 7885,
  "Home": 7886,
  "Guinea,": 7887,
  "Guardiola": 7888,
  "Guma": 7889,
  "Grimsby": 7890,
  "Godswill": 7891,
  "Goddy": 7892,
  "Global": 7893,
  "Gideon": 7894,
  "Ghana,": 7895,
  "Gail": 7896,
  "Grea": 7897,
  "Gilead": 7898,
  "Gam": 7899,
  "Freedom": 7900,
  "Food": 7901,
  "Florida": 7902,
  "Fatoyinbo.": 7903,
  "Falana": 7904,
  "Fayo": 7905,
  "Family": 7906,
  "FM": 7907,
  "Ezeobi": 7908,
  "Ezeagu": 7909,
  "Euph": 7910,
  "Engineer": 7911,
  "Enforcement": 7912,
  "Ekweremadu,": 7913,
  "Ehab.": 7914,
  "Ebelechukwu": 7915,
  "Ebenator,": 7916,
  "Eaglets": 7917,
  "Eagles.": 7918,
  "Enwo": 7919,
  "Ene": 7920,
  "Elia": 7921,
  "Ef": 7922,
  "Ebuka": 7923,
  "Ebu": 7924,
  "Ebere": 7925,
  "Donatus": 7926,
  "Dorothy": 7927,
  "Dora": 7928,
  "Dixon": 7929,
  "David-West": 7930,
  "Dangote": 7931,
  "Danma": 7932,
  "Dambaza": 7933,
  "DP)": 7934,
  "Dy": 7935,
  "Duke": 7936,
  "Der": 7937,
  "Crowther": 7938,
  "Criminal": 7939,
  "Cornelius": 7940,
  "Corby": 7941,
  "Committee": 7942,
  "Common": 7943,
  "Codeine,": 7944,
  "Costa": 7945,
  "Cont": 7946,
  "Clinton": 7947,
  "Chukwulobelu": 7948,
  "Chukwuka": 7949,
  "Chizea": 7950,
  "Chimezie": 7951,
  "Chidoka": 7952,
  "Chikwelu": 7953,
  "Chidera": 7954,
  "Chia": 7955,
  "Chelsea.": 7956,
  "Chelsea,": 7957,
  "Chapo": 7958,
  "Cho": 7959,
  "Calixto": 7960,
  "CNM": 7961,
  "Cu": 7962,
  "Cindy": 7963,
  "Card": 7964,
  "Cara": 7965,
  "C.": 7966,
  "Bundesli": 7967,
  "Brigade": 7968,
  "Britan": 7969,
  "Bring": 7970,
  "Bodejo": 7971,
  "Bola": 7972,
  "Bissa": 7973,
  "Berger": 7974,
  "Benjami": 7975,
  "Bethany": 7976,
  "Best": 7977,
  "Bea": 7978,
  "Banabas": 7979,
  "Babangi": 7980,
  "Babandede": 7981,
  "Baịbụl": 7982,
  "Baga": 7983,
  "BBC\"": 7984,
  "BBOG": 7985,
  "Billi": 7986,
  "Ayamelum": 7987,
  "Avomimi": 7988,
  "Athletics": 7989,
  "Atani": 7990,
  "Atla": 7991,
  "Ashịdi": 7992,
  "Ararume": 7993,
  "Angeles": 7994,
  "Angel": 7995,
  "Anajemba,": 7996,
  "Amina": 7997,
  "Amarizu": 7998,
  "Amadi": 7999
}