{
  "<unk>": 0,
  "<s>": 1,
  "</s>": 2,
  "<pad>": 3,
  "<mask morph>": 4,
  " ": 5,
  "!": 6,
  "\"": 7,
  "#": 8,
  "$": 9,
  "%": 10,
  "&": 11,
  "'": 12,
  "(": 13,
  ")": 14,
  "*": 15,
  ",": 16,
  "-": 17,
  ".": 18,
  "/": 19,
  "0": 20,
  "1": 21,
  "2": 22,
  "3": 23,
  "4": 24,
  "5": 25,
  "6": 26,
  "7": 27,
  "8": 28,
  "9": 29,
  ":": 30,
  ";": 31,
  "<": 32,
  "=": 33,
  ">": 34,
  "?": 35,
  "@": 36,
  "A": 37,
  "B": 38,
  "C": 39,
  "CH": 40,
  "Ch": 41,
  "D": 42,
  "E": 43,
  "F": 44,
  "G": 45,
  "GB": 46,
  "Gb": 47,
  "Gh": 48,
  "Gw": 49,
  "H": 50,
  "I": 51,
  "J": 52,
  "K": 53,
  "KP": 54,
  "Kp": 55,
  "Kw": 56,
  "L": 57,
  "M": 58,
  "N": 59,
  "NW": 60,
  "NY": 61,
  "Nw": 62,
  "Ny": 63,
  "O": 64,
  "P": 65,
  "Q": 66,
  "R": 67,
  "S": 68,
  "SH": 69,
  "Sh": 70,
  "T": 71,
  "U": 72,
  "V": 73,
  "W": 74,
  "X": 75,
  "Y": 76,
  "Z": 77,
  "[": 78,
  "]": 79,
  "^": 80,
  "_": 81,
  "`": 82,
  "a": 83,
  "b": 84,
  "c": 85,
  "ch": 86,
  "d": 87,
  "e": 88,
  "f": 89,
  "g": 90,
  "gb": 91,
  "gh": 92,
  "gw": 93,
  "h": 94,
  "i": 95,
  "j": 96,
  "k": 97,
  "kp": 98,
  "kw": 99,
  "l": 100,
  "m": 101,
  "n": 102,
  "nw": 103,
  "ny": 104,
  "o": 105,
  "p": 106,
  "q": 107,
  "r": 108,
  "s": 109,
  "sh": 110,
  "t": 111,
  "u": 112,
  "v": 113,
  "w": 114,
  "x": 115,
  "y": 116,
  "z": 117,
  "{": 118,
  "|": 119,
  "}": 120,
  "£": 121,
  "®": 122,
  "·": 123,
  "É": 124,
  "Ö": 125,
  "×": 126,
  "à": 127,
  "á": 128,
  "ã": 129,
  "ä": 130,
  "å": 131,
  "æ": 132,
  "ç": 133,
  "è": 134,
  "é": 135,
  "ì": 136,
  "í": 137,
  "ï": 138,
  "ñ": 139,
  "ó": 140,
  "ô": 141,
  "ö": 142,
  "ø": 143,
  "ù": 144,
  "ú": 145,
  "ü": 146,
  "ć": 147,
  "č": 148,
  "ğ": 149,
  "ń": 150,
  "ş": 151,
  "š": 152,
  "ż": 153,
  "ž": 154,
  "̀": 155,
  "́": 156,
  "ׁ": 157,
  "ה": 158,
  "נ": 159,
  "פ": 160,
  "ש": 161,
  "ṅ": 162,
  "ạ": 163,
  "ẹ": 164,
  "Ị": 165,
  "ị": 166,
  "Ọ": 167,
  "ọ": 168,
  "Ụ": 169,
  "ụ": 170,
  "–": 171,
  "—": 172,
  "‘": 173,
  "’": 174,
  "“": 175,
  "”": 176,
  "•": 177,
  "₦": 178,
  "€": 179,
  "■": 180,
  "●": 181,
  "": 182,
  "na": 183,
  "dị": 184,
  "ka": 185,
  "ma": 186,
  " .": 187,
  "n'": 188,
  "bụ": 189,
  " ,": 190,
  "ndị": 191,
  "ke": 192,
  "ra": 193,
  "me": 194,
  "ha": 195,
  "re": 196,
  "na-": 197,
  "ta": 198,
  "nye": 199,
  "ya": 200,
  "ga": 201,
  "la": 202,
  "ri": 203,
  "ih": 204,
  "si": 205,
  "ji": 206,
  "hụ": 207,
  "rụ": 208,
  "ihe": 209,
  "kwu": 210,
  "rị": 211,
  "ru": 212,
  "ba": 213,
  "kwa": 214,
  "any": 215,
  "te": 216,
  "na-a": 217,
  "nke": 218,
  "ahụ": 219,
  "tu": 220,
  "nwe": 221,
  "na-e": 222,
  "gba": 223,
  "onye": 224,
  "ghị": 225,
  "be": 226,
  "tụ": 227,
  "dụ": 228,
  "ti": 229,
  "ga-": 230,
  "le": 231,
  "otu": 232,
  "bi": 233,
  "zi": 234,
  "anyị": 235,
  "sị": 236,
  "pụ": 237,
  "mma": 238,
  "kọ": 239,
  "mụ": 240,
  "chi": 241,
  "che": 242,
  "we": 243,
  "chị": 244,
  " \"": 245,
  "zọ": 246,
  "aka": 247,
  "lọ": 248,
  "rọ": 249,
  "cha": 250,
  "nọ": 251,
  "de": 252,
  "kụ": 253,
  "ne": 254,
  "do": 255,
  "nwa": 256,
  "wa": 257,
  "ụlọ": 258,
  "kwụ": 259,
  "go": 260,
  "fọ": 261,
  "gbu": 262,
  "isi": 263,
  "gha": 264,
  "mmadụ": 265,
  "sa": 266,
  "li": 267,
  "gbe": 268,
  "ebe": 269,
  "ike": 270,
  "nụ": 271,
  "ro": 272,
  "tọ": 273,
  "ni": 274,
  "mgbe": 275,
  "maka": 276,
  "ge": 277,
  "bu": 278,
  "so": 279,
  "ala": 280,
  "ịa": 281,
  "ga-e": 282,
  "gbo": 283,
  "ụmụ": 284,
  "ga-a": 285,
  "gwu": 286,
  "iri": 287,
  "ọrụ": 288,
  "rịa": 289,
  " :": 290,
  "kwe": 291,
  "kpe": 292,
  "ọchị": 293,
  "kpọ": 294,
  "eti": 295,
  "kpa": 296,
  "anya": 297,
  "afọ": 298,
  "mba": 299,
  "bo": 300,
  "okwu": 301,
  "nwụ": 302,
  "da": 303,
  "ọzọ": 304,
  "ste": 305,
  "gị": 306,
  "se": 307,
  "akụ": 308,
  "lu": 309,
  "chọ": 310,
  "gọ": 311,
  "naị": 312,
  "jirịa": 313,
  "naịjirịa": 314,
  "kwọ": 315,
  "  \"": 316,
  "obi": 317,
  "zu": 318,
  "gwa": 319,
  "di": 320,
  "akwụ": 321,
  "neke": 322,
  "steeti": 323,
  "chineke": 324,
  "an": 325,
  "akwụkwọ": 326,
  "  \" ": 327,
  "je": 328,
  " ?": 329,
  "ezi": 330,
  "iche": 331,
  "abụ": 332,
  "nu": 333,
  "bịa": 334,
  "ile": 335,
  "oke": 336,
  "nt": 337,
  "oge": 338,
  "niile": 339,
  "gụ": 340,
  "tụtụ": 341,
  " )": 342,
  "va": 343,
  "wu": 344,
  "ku": 345,
  "ya .": 346,
  "abụọ": 347,
  "akụkọ": 348,
  "dịka": 349,
  "ko": 350,
  "mp": 351,
  "sọ": 352,
  "fe": 353,
  "mme": 354,
  "ọtụtụ": 355,
  "“ ": 356,
  "igbo": 357,
  " ”": 358,
  "on": 359,
  "nwaanyị": 360,
  "bodo": 361,
  "pu": 362,
  "bụl": 363,
  "ịbụl": 364,
  "dọ": 365,
  "baịbụl": 366,
  "mi": 367,
  "a .": 368,
  "gbọ": 369,
  "ọnụ": 370,
  "du": 371,
  "obodo": 372,
  "20": 373,
  "egwu": 374,
  "hi": 375,
  "ụwa": 376,
  "ze": 377,
  "ikpe": 378,
  "to": 379,
  "iwu": 380,
  "ụb": 381,
  "ụbọchị": 382,
  "ntị": 383,
  "zụ": 384,
  "lụ": 385,
  "jọ": 386,
  "ho": 387,
  "bọ": 388,
  "jụ": 389,
  "ndụ": 390,
  "ahụ .": 391,
  "ego": 392,
  "zị": 393,
  "ozi": 394,
  "ihi": 395,
  "mana": 396,
  "oji": 397,
  "uwe": 398,
  "uha": 399,
  "ọchịchị": 400,
  "a ,": 401,
  "ụzọ": 402,
  "er": 403,
  "ukwu": 404,
  "kpụ": 405,
  "ọme": 406,
  "gọọme": 407,
  "elu": 408,
  "aha": 409,
  "onyeisi": 410,
  "ojii": 411,
  "onwe": 412,
  "atọ": 413,
  "ya ,": 414,
  "fọdụ": 415,
  "nwoke": 416,
  "ụfọdụ": 417,
  "kpo": 418,
  "sụ": 419,
  "ha .": 420,
  "st": 421,
  "201": 422,
  "ụgbọ": 423,
  "ọka": 424,
  "ọma": 425,
  "ahụ ,": 426,
  "bụla": 427,
  "nso": 428,
  "eze": 429,
  "rịka": 430,
  " . ”": 431,
  "hịa": 432,
  "or": 433,
  "hova": 434,
  "ihu": 435,
  "jehova": 436,
  "agha": 437,
  "Buha": 438,
  "Buhari": 439,
  "gwụ": 440,
  "ọbụla": 441,
  "nna": 442,
  "gi": 443,
  "ọkụ": 444,
  "pa": 445,
  "( ": 446,
  "ugbu": 447,
  "olu": 448,
  "ome": 449,
  "nyo": 450,
  "ma ,": 451,
  "uru": 452,
  "mkpa": 453,
  "ụka": 454,
  "mm": 455,
  "ghọ": 456,
  "nne": 457,
  "el": 458,
  "nwu": 459,
  "ọnwa": 460,
  "ana": 461,
  "ole": 462,
  "ju": 463,
  "nga": 464,
  "ja": 465,
  "nta": 466,
  "asa": 467,
  "zọs": 468,
  "jizọs": 469,
  "gwe": 470,
  "pe": 471,
  "mbụ": 472,
  "gọọmentị": 473,
  "mmiri": 474,
  "lị": 475,
  "yi": 476,
  "vanọ": 477,
  "mpi": 478,
  "gọvanọ": 479,
  "gwọ": 480,
  "bra": 481,
  "Ma": 482,
  " ;": 483,
  "ara": 484,
  "ntụ": 485,
  "nị": 486,
  "Jo": 487,
  "gu": 488,
  "maa": 489,
  "za": 490,
  "aba": 491,
  "ise": 492,
  "mo": 493,
  "ndọ": 494,
  "ahịa": 495,
  "nk": 496,
  "fu": 497,
  "ndọrọ": 498,
  "oko": 499,
  "eziokwu": 500,
  "BB": 501,
  "nyi": 502,
  "he": 503,
  "ce": 504,
  "mu": 505,
  "anụ": 506,
  "tupu": 507,
  "igwe": 508,
  "ọnwụ": 509,
  "BBC": 510,
  "asọ": 511,
  "mbra": 512,
  "lo": 513,
  "nri": 514,
  "anambra": 515,
  "azụ": 516,
  "liaka": 517,
  "ntụliaka": 518,
  "asọmpi": 519,
  "chụ": 520,
  "ọgba": 521,
  "atụ": 522,
  "iwe": 523,
  "okp": 524,
  "nsogbu": 525,
  "ọgwụ": 526,
  "in": 527,
  "ame": 528,
  "nya": 529,
  "nkwa": 530,
  "bọọ": 531,
  "nche": 532,
  "mgba": 533,
  "nwunye": 534,
  "bọọlụ": 535,
  "regwu": 536,
  "egwuregwu": 537,
  "enu": 538,
  "aghara": 539,
  " .  \" ": 540,
  "ar": 541,
  "ibe": 542,
  "ria": 543,
  "mmụ": 544,
  "họ": 545,
  "etu": 546,
  "ọhụ": 547,
  "ọhụrụ": 548,
  "unu": 549,
  "ọkwa": 550,
  "maazị": 551,
  "th": 552,
  "anị": 553,
  "naanị": 554,
  "su": 555,
  "etiti": 556,
  "enugwu": 557,
  "ezigbo": 558,
  "ngwa": 559,
  "sị :": 560,
  "ama": 561,
  "af": 562,
  "AP": 563,
  "Ni": 564,
  "chukwu": 565,
  "al": 566,
  "ou": 567,
  "ọjọ": 568,
  "ọjọọ": 569,
  "nde": 570,
  "ụtọ": 571,
  "abalị": 572,
  "raị": 573,
  "nti": 574,
  "ghi": 575,
  "sta": 576,
  "Chi": 577,
  "bere": 578,
  "ekpe": 579,
  "kemgbe": 580,
  "2019": 581,
  "goolu": 582,
  "narị": 583,
  "gịnị": 584,
  "ol": 585,
  "ter": 586,
  "ụgwọ": 587,
  "Nige": 588,
  "amerịka": 589,
  "ṅụ": 590,
  "kị": 591,
  "ha ,": 592,
  "gide": 593,
  "zo": 594,
  "00": 595,
  "mbọ": 596,
  "nal": 597,
  "nkeji": 598,
  "afrịka": 599,
  "ọrịa": 600,
  "il": 601,
  "akwa": 602,
  "ọnọ": 603,
  "ọnọdụ": 604,
  "agba": 605,
  "ozu": 606,
  "tion": 607,
  "ụdị": 608,
  "mpaghara": 609,
  "no": 610,
  "nchekwa": 611,
  "ọsọ": 612,
  "nje": 613,
  "vi": 614,
  "Ro": 615,
  "nụlọ": 616,
  "ngala": 617,
  "ezinụlọ": 618,
  "gị :": 619,
  "ki": 620,
  "APC": 621,
  "ngalaba": 622,
  "ng": 623,
  "ugwu": 624,
  "puku": 625,
  "gọọmenti": 626,
  "Da": 627,
  "omeiwu": 628,
  "okpuru": 629,
  "it": 630,
  "ebu": 631,
  "ra ,": 632,
  "19": 633,
  "isii": 634,
  "osi": 635,
  "iko": 636,
  "ekpere": 637,
  "ve": 638,
  "ọdị": 639,
  "ugbo": 640,
  "nkiri": 641,
  "nd": 642,
  "kpụrụ": 643,
  "ụlọikpe": 644,
  "m ,": 645,
  "gharị": 646,
  "izu": 647,
  "imo": 648,
  "m .": 649,
  "uche": 650,
  "nku": 651,
  "ajụ": 652,
  "nzu": 653,
  "ụgbọala": 654,
  "ye": 655,
  "ọgụ": 656,
  "ajụjụ": 657,
  "pụta": 658,
  "asụ": 659,
  "Re": 660,
  "olee": 661,
  "raịst": 662,
  "asụsụ": 663,
  "karị": 664,
  "Man": 665,
  "ver": 666,
  "kraịst": 667,
  "Su": 668,
  "ehi": 669,
  "mmụọ": 670,
  "ada": 671,
  "mume": 672,
  "echi": 673,
  "e .": 674,
  "atụma": 675,
  "atụmatụ": 676,
  "Li": 677,
  "- ": 678,
  "nnu": 679,
  "nsọ": 680,
  "mmemme": 681,
  "asaa": 682,
  "Mo": 683,
  "ọba": 684,
  "Jose": 685,
  "ụkwụ": 686,
  "obere": 687,
  "ngagharị": 688,
  "ano": 689,
  "ru ,": 690,
  "e ,": 691,
  "rịọ": 692,
  "les": 693,
  "ọzọ .": 694,
  "ik": 695,
  "ekwe": 696,
  "mkpụrụ": 697,
  "nka": 698,
  "ụmụaka": 699,
  "anya .": 700,
  "In": 701,
  "re .": 702,
  "enyi": 703,
  "egbe": 704,
  "agụ": 705,
  "ra .": 706,
  "La": 707,
  "ọgbakọ": 708,
  "fụ": 709,
  "Co": 710,
  "nala": 711,
  "beke": 712,
  "asatọ": 713,
  "Hara": 714,
  "Boko": 715,
  "àm": 716,
  "manụ": 717,
  "àmà": 718,
  "Se": 719,
  "Nigeria": 720,
  "of": 721,
  "kpu": 722,
  "nwata": 723,
  "ugboro": 724,
  "DP": 725,
  "nai": 726,
  "ofe": 727,
  "ebubo": 728,
  "anụmanụ": 729,
  "re ,": 730,
  "okpo": 731,
  "njem": 732,
  "ime": 733,
  "ụkọ": 734,
  "po": 735,
  "ris": 736,
  "here": 737,
  "Sa": 738,
  "robịa": 739,
  "ogi": 740,
  "nkuzi": 741,
  "Pe": 742,
  "Uni": 743,
  "nnukwu": 744,
  "ntaakụkọ": 745,
  "Haram": 746,
  "PDP": 747,
  "Na": 748,
  "ca": 749,
  "ito": 750,
  "per": 751,
  "Le": 752,
  "kama": 753,
  "ta .": 754,
  "hu": 755,
  "udo": 756,
  "aka .": 757,
  "ọkpụ": 758,
  "Josef": 759,
  "eke": 760,
  "ikike": 761,
  "abịa": 762,
  "ọcha": 763,
  "ori": 764,
  "anyanwụ": 765,
  "pati": 766,
  "ran": 767,
  "gọs": 768,
  "dum": 769,
  "naira": 770,
  "naịjirịa .": 771,
  "legọs": 772,
  "njọ": 773,
  "tị": 774,
  "okporo": 775,
  "ohere": 776,
  "rịta": 777,
  "mkpọ": 778,
  "ogo": 779,
  "wo": 780,
  "Fa": 781,
  "kanu": 782,
  "ndịàmà": 783,
  "akpa": 784,
  "hie": 785,
  "Muha": 786,
  "ndọrọndọrọ": 787,
  " !": 788,
  "karịa": 789,
  "mkpe": 790,
  "itoolu": 791,
  "abu": 792,
  "Al": 793,
  "bekee": 794,
  "OB": 795,
  "mmanụ": 796,
  "ahụhụ": 797,
  "us": 798,
  "IP": 799,
  "Muhamma": 800,
  "EC": 801,
  "en": 802,
  "ike .": 803,
  "ụkọchukwu": 804,
  "oche": 805,
  "steeti .": 806,
  "mmeri": 807,
  "rị :": 808,
  "Ea": 809,
  "a :": 810,
  "ofesi": 811,
  "Muhammadu": 812,
  "ry": 813,
  " . \"": 814,
  "mini": 815,
  "IPOB": 816,
  "Mu": 817,
  "ije": 818,
  "Pa": 819,
  "saụ": 820,
  "mdi": 821,
  "maha": 822,
  "ru .": 823,
  "niile .": 824,
  "pọ": 825,
  "mma .": 826,
  "ugo": 827,
  "ster": 828,
  "Ati": 829,
  "ochi": 830,
  "ụtụtụ": 831,
  "Atiku": 832,
  "ogige": 833,
  "rel": 834,
  "anya ,": 835,
  "ikpeazụ": 836,
  "onal": 837,
  "Ba": 838,
  "ọdụ": 839,
  "amụ": 840,
  "okpu": 841,
  "ụba": 842,
  "nkwado": 843,
  "nzukọ": 844,
  "ci": 845,
  "nkị": 846,
  "nto": 847,
  "ọha": 848,
  "oso": 849,
  "osisi": 850,
  "Super": 851,
  "am": 852,
  "ọzọ ,": 853,
  "rt": 854,
  "fi": 855,
  "uso": 856,
  "mmụta": 857,
  "co": 858,
  "osote": 859,
  "kere": 860,
  "ga ,": 861,
  "Ada": 862,
  "mgbasa": 863,
  "ck": 864,
  "ga .": 865,
  "nji": 866,
  "anyị .": 867,
  "mahadum": 868,
  "mkpọrọ": 869,
  "minista": 870,
  "saụt": 871,
  "pị": 872,
  "ted": 873,
  "shịa": 874,
  "Ka": 875,
  "Tru": 876,
  "obiano": 877,
  "ọtọ": 878,
  "dia": 879,
  "Oko": 880,
  "aja": 881,
  "dọkị": 882,
  "So": 883,
  "bụ ,": 884,
  "ele": 885,
  "nda": 886,
  "oku": 887,
  "ajọ": 888,
  "eluigwe": 889,
  "omenala": 890,
  "amụma": 891,
  "Bi": 892,
  "shọ": 893,
  "gburu": 894,
  "me .": 895,
  "ọdọ": 896,
  "dọkịta": 897,
  "kọmi": 898,
  "illi": 899,
  "Ar": 900,
  "okwukwe": 901,
  "ọma .": 902,
  "ur": 903,
  "wụ": 904,
  "gbụ": 905,
  "anyị ,": 906,
  "ntorobịa": 907,
  "IN": 908,
  "ty": 909,
  "op": 910,
  "Eag": 911,
  "ọhịa": 912,
  "INEC": 913,
  "fo": 914,
  "FC": 915,
  "Trump": 916,
  "vid": 917,
  "ike ,": 918,
  "  \" . \"": 919,
  "United": 920,
  "Ne": 921,
  "omume": 922,
  "lite": 923,
  "rocha": 924,
  "ity": 925,
  "usoro": 926,
  "De": 927,
  " \" \"": 928,
  "baịbụl .": 929,
  "Af": 930,
  "akara": 931,
  "Ade": 932,
  "ihe .": 933,
  "land": 934,
  "Eagles": 935,
  "ten": 936,
  "Mi": 937,
  "mị": 938,
  "echiche": 939,
  "nnamdi": 940,
  "vo": 941,
  "tan": 942,
  "rụ .": 943,
  "baka": 944,
  "ment": 945,
  "Willi": 946,
  "sị ,": 947,
  "iz": 948,
  "Ri": 949,
  "nnọ": 950,
  "Obi": 951,
  "akụkụ": 952,
  "ọgọ": 953,
  "obi .": 954,
  "ụlọụka": 955,
  "kedụ": 956,
  "lik": 957,
  "chineke ,": 958,
  "od": 959,
  "o ,": 960,
  "ọw": 961,
  "yọ": 962,
  "dio": 963,
  "ọwụwa": 964,
  "jị": 965,
  "pt": 966,
  "ede": 967,
  "else": 968,
  "mara": 969,
  "ọfụ": 970,
  "pọl": 971,
  "ghe": 972,
  "con": 973,
  "ta ,": 974,
  "ọkacha": 975,
  "Chelse": 976,
  "ah": 977,
  "ọgbọ": 978,
  "ohi": 979,
  "City": 980,
  "katọ": 981,
  "kọrịta": 982,
  "izrel": 983,
  "katọlik": 984,
  "Ca": 985,
  "enye": 986,
  "son": 987,
  "chineke .": 988,
  "iyi": 989,
  "onyi": 990,
  "emume": 991,
  "ss": 992,
  "ochie": 993,
  "ide": 994,
  "ine": 995,
  "a ?": 996,
  "nihu": 997,
  "ụnya": 998,
  "abuja": 999,
  "ir": 1000,
  "eziokwu .": 1001,
  "Moha": 1002,
  "pool": 1003,
  "tional": 1004,
  "enyemaka": 1005,
  "200": 1006,
  "Liver": 1007,
  "oriri": 1008,
  "Liverpool": 1009,
  "ssi": 1010,
  "iji": 1011,
  "shịal": 1012,
  "Me": 1013,
  "To": 1014,
  "Sou": 1015,
  "akị": 1016,
  "fada": 1017,
  "soshịal": 1018,
  "ogbu": 1019,
  "chu": 1020,
  "ọla": 1021,
  "ntu": 1022,
  "zde": 1023,
  "ụgbọelu": 1024,
  "oyi": 1025,
  "Afri": 1026,
  "ul": 1027,
  "' .": 1028,
  "oli": 1029,
  "ọkaiwu": 1030,
  "agu": 1031,
  "Chelsea": 1032,
  "onyinye": 1033,
  "tri": 1034,
  "ọmụ": 1035,
  "okpukpe": 1036,
  "isi .": 1037,
  "and": 1038,
  "mmadụ .": 1039,
  "ntọ": 1040,
  "ala .": 1041,
  "iche .": 1042,
  "onyo": 1043,
  "2019 .": 1044,
  " \" \" ": 1045,
  "net": 1046,
  "akpụ": 1047,
  "ọgbaaghara": 1048,
  "onyonyo": 1049,
  "ham": 1050,
  "ume": 1051,
  "ọ \"": 1052,
  "Manche": 1053,
  "Manchester": 1054,
  "eji": 1055,
  "aka ,": 1056,
  "godị": 1057,
  "mmed": 1058,
  "nwanne": 1059,
  "wit": 1060,
  "mama": 1061,
  "Eme": 1062,
  "agwa": 1063,
  "ụlọakwụkwọ": 1064,
  "madu": 1065,
  "ụwa .": 1066,
  "ort": 1067,
  "South": 1068,
  "Sta": 1069,
  "bri": 1070,
  "2018": 1071,
  "Nwo": 1072,
  "n ,": 1073,
  "abụọ .": 1074,
  "Ja": 1075,
  "eme": 1076,
  "okorocha": 1077,
  "El": 1078,
  "la .": 1079,
  "ode": 1080,
  "rọ  \" ": 1081,
  "nyụ": 1082,
  "chas": 1083,
  "ọnị": 1084,
  "mbere": 1085,
  "vootu": 1086,
  "Rochas": 1087,
  "ọnịcha": 1088,
  "ite": 1089,
  "for": 1090,
  "arc": 1091,
  "ia": 1092,
  "ral": 1093,
  "ya ?": 1094,
  "agbọ": 1095,
  "ọchịehi": 1096,
  "Arse": 1097,
  "n .": 1098,
  "omeka": 1099,
  "mberede": 1100,
  "Aba": 1101,
  "agbọghọ": 1102,
  "Arsenal": 1103,
  "ọgbu": 1104,
  "Ekwe": 1105,
  "akịrịka": 1106,
  "Mohammed": 1107,
  "rụ ,": 1108,
  "mbi": 1109,
  "“ ọ": 1110,
  "Peter": 1111,
  "ijipt": 1112,
  "wi": 1113,
  "' ,": 1114,
  "anọ": 1115,
  "juu": 1116,
  "setan": 1117,
  "kwado": 1118,
  "ok": 1119,
  "ky": 1120,
  "10": 1121,
  "o .": 1122,
  "ala ,": 1123,
  "ing": 1124,
  "nhọ": 1125,
  "Ke": 1126,
  "000": 1127,
  "witter": 1128,
  "remadu": 1129,
  "Ekweremadu": 1130,
  "s .": 1131,
  "Pre": 1132,
  "asị": 1133,
  "taa .": 1134,
  "atụ ,": 1135,
  "ọkammụta": 1136,
  "kọmishọ": 1137,
  "omekaome": 1138,
  "nhọpụta": 1139,
  "Abu": 1140,
  "ọrụ .": 1141,
  "Eze": 1142,
  "uju": 1143,
  "im": 1144,
  "Bo": 1145,
  "cy": 1146,
  "s ,": 1147,
  "ụwa ,": 1148,
  "ozugbo": 1149,
  "kọmishọna": 1150,
  "jo": 1151,
  "kele": 1152,
  "ong": 1153,
  "naeze": 1154,
  "eziokwu ,": 1155,
  "ọbara": 1156,
  "mkpu": 1157,
  "ly": 1158,
  "1 ,": 1159,
  " ) .": 1160,
  "ope": 1161,
  "ọ ,": 1162,
  "nle": 1163,
  "ọrụ ,": 1164,
  "ọkaikpe": 1165,
  "nigwe": 1166,
  "ọgụgụ": 1167,
  "ogbunigwe": 1168,
  "She": 1169,
  "iro": 1170,
  "ọhanaeze": 1171,
  "We": 1172,
  "Za": 1173,
  "mpụ": 1174,
  "mpe": 1175,
  " . ” )": 1176,
  "bonyi": 1177,
  "ihe ,": 1178,
  "ọkpa": 1179,
  "alụ": 1180,
  "Bu": 1181,
  "14": 1182,
  "Cha": 1183,
  "warị": 1184,
  "Joh": 1185,
  "ọdịnihu": 1186,
  "gwo": 1187,
  "Ra": 1188,
  "nyocha": 1189,
  "ekele": 1190,
  "baịbụl ,": 1191,
  "nchọ": 1192,
  " ) ,": 1193,
  "China": 1194,
  "mkpebi": 1195,
  "15": 1196,
  "ọ .": 1197,
  "mma ,": 1198,
  "midia": 1199,
  "Be": 1200,
  "Ge": 1201,
  "Oke": 1202,
  "mmadụ ,": 1203,
  "nkwe": 1204,
  "bịaf": 1205,
  "niile ,": 1206,
  "ụjọ": 1207,
  "ụlọọgwụ": 1208,
  "devid": 1209,
  "__": 1210,
  "nwayọ": 1211,
  "satọ": 1212,
  "Nor": 1213,
  "arị": 1214,
  "bi .": 1215,
  "ụda": 1216,
  "gị ,": 1217,
  "ction": 1218,
  "satọde": 1219,
  "Ha": 1220,
  "shi": 1221,
  "SS": 1222,
  "ghị .": 1223,
  "ezu": 1224,
  "Sara": 1225,
  "ụtọ .": 1226,
  "Chris": 1227,
  "malite": 1228,
  "sha": 1229,
  "Nna": 1230,
  "bịa .": 1231,
  "duna": 1232,
  "ahị": 1233,
  "mọ": 1234,
  "ụlọakụ": 1235,
  "egwuregwu ,": 1236,
  "ọdịnala": 1237,
  "tius": 1238,
  "Leagu": 1239,
  "dị ,": 1240,
  "obi ,": 1241,
  "laị": 1242,
  "2017": 1243,
  "elekere": 1244,
  "fa": 1245,
  "ph": 1246,
  "ri .": 1247,
  "Osi": 1248,
  "gị .": 1249,
  "na  \" ": 1250,
  "ja .": 1251,
  "Mar": 1252,
  "fufe": 1253,
  "nzuzo": 1254,
  "Lago": 1255,
  "ọfụma": 1256,
  "tha": 1257,
  "Chukwu": 1258,
  "ọgbugbu": 1259,
  "rs": 1260,
  "Zi": 1261,
  "kan": 1262,
  "rị .": 1263,
  "ekwentị": 1264,
  "tiusde": 1265,
  "igbo ,": 1266,
  "ọnụ .": 1267,
  "nkịtị": 1268,
  "FCC": 1269,
  "Willie": 1270,
  "Bri": 1271,
  "ụgha": 1272,
  "naịjirịa ,": 1273,
  "can": 1274,
  "ụmụnne": 1275,
  "ọgọst": 1276,
  "man": 1277,
  "wer": 1278,
  "icheiche": 1279,
  "ewu": 1280,
  "abụọ ,": 1281,
  "Ihe": 1282,
  "agụmba": 1283,
  "Fran": 1284,
  "nchọpụta": 1285,
  "Di": 1286,
  "bia": 1287,
  "ijeri": 1288,
  "bakar": 1289,
  "nnyocha": 1290,
  "Je": 1291,
  "Or": 1292,
  "Uma": 1293,
  "nrụ": 1294,
  "pụrụ": 1295,
  "Ude": 1296,
  "Pro": 1297,
  "1 )": 1298,
  "mfe": 1299,
  "mkpesa": 1300,
  "Adam": 1301,
  "olile": 1302,
  "Twitter": 1303,
  "Ju": 1304,
  "Gu": 1305,
  "uru .": 1306,
  "logo": 1307,
  "Paul": 1308,
  "briten": 1309,
  "Abubakar": 1310,
  "ogologo": 1311,
  "gbi": 1312,
  "dị .": 1313,
  "kọta": 1314,
  "uro": 1315,
  "isiokwu": 1316,
  "chọọchị": 1317,
  "mmehie": 1318,
  "ọmụmụ": 1319,
  "ebonyi": 1320,
  "kwo": 1321,
  "GA": 1322,
  "rọ .": 1323,
  "cto": 1324,
  "atọ .": 1325,
  "2015": 1326,
  "nnọọ": 1327,
  "trik": 1328,
  "ezum": 1329,
  "EFCC": 1330,
  "NA": 1331,
  "ogbe": 1332,
  "ndị )": 1333,
  "State": 1334,
  "Go": 1335,
  "ngo": 1336,
  "ther": 1337,
  "fraị": 1338,
  "state": 1339,
  "latrik": 1340,
  "fraịde": 1341,
  "Ab": 1342,
  "23": 1343,
  "ọga": 1344,
  "papa": 1345,
  "mmanya": 1346,
  "Nigeri": 1347,
  "Inter": 1348,
  "nyị": 1349,
  "2 ,": 1350,
  "dri": 1351,
  "iche ,": 1352,
  "atụrụ": 1353,
  "ofesi ,": 1354,
  "New": 1355,
  "senet": 1356,
  "nwayọọ": 1357,
  "meri": 1358,
  "okorobịa": 1359,
  "El-": 1360,
  "gbidi": 1361,
  "pi": 1362,
  "Fe": 1363,
  "Ike": 1364,
  "hab": 1365,
  "mbe": 1366,
  "nwaafọ": 1367,
  "“ a": 1368,
  "mgbọ": 1369,
  "kza": 1370,
  "ọṅụ": 1371,
  "Zakza": 1372,
  "Zakzaky": 1373,
  "..": 1374,
  "yo": 1375,
  "Au": 1376,
  "Ga": 1377,
  "17": 1378,
  "gabe": 1379,
  "nue": 1380,
  " - ": 1381,
  "agbụ": 1382,
  "Saraki": 1383,
  "Mugabe": 1384,
  "taa": 1385,
  "rị ,": 1386,
  "ọda": 1387,
  "ton": 1388,
  "rịtaụka": 1389,
  "ofufe": 1390,
  "Ta": 1391,
  "nsị": 1392,
  "okwu .": 1393,
  "nwụ .": 1394,
  "mọdụ": 1395,
  "Lagos": 1396,
  "akwụkwọ .": 1397,
  "ọma ,": 1398,
  "ndụmọdụ": 1399,
  "18": 1400,
  "n' \"": 1401,
  "efu": 1402,
  "the": 1403,
  "ration": 1404,
  "agụụ": 1405,
  "foto": 1406,
  "bịafra": 1407,
  "benue": 1408,
  "ụra": 1409,
  "tic": 1410,
  "nia": 1411,
  "mmekọrịta": 1412,
  "Africa": 1413,
  "APGA": 1414,
  "ezumike": 1415,
  "Fu": 1416,
  "He": 1417,
  "mmepe": 1418,
  "ọkpara": 1419,
  "kaduna": 1420,
  "ribe": 1421,
  "Ele": 1422,
  "anyị \"": 1423,
  " ? ”": 1424,
  "jehova .": 1425,
  "Madri": 1426,
  "Madrid": 1427,
  "iru": 1428,
  "mgbede": 1429,
  "mba .": 1430,
  "okenye": 1431,
  "dọla": 1432,
  "ndụ .": 1433,
  "ọkụkọ": 1434,
  "ourt": 1435,
  "au": 1436,
  "No": 1437,
  "13": 1438,
  "anwụ": 1439,
  "njikere": 1440,
  "ower": 1441,
  "Ru": 1442,
  "Ama": 1443,
  "neti": 1444,
  "ọkpọ": 1445,
  "igbo .": 1446,
  "ịnta": 1447,
  "199": 1448,
  "ohu": 1449,
  "Sowo": 1450,
  "ọkachamara": 1451,
  "ịntaneti": 1452,
  "Te": 1453,
  "Wa": 1454,
  "me ,": 1455,
  "ife": 1456,
  "nkata": 1457,
  "olileanya": 1458,
  "ọdachi": 1459,
  "ld": 1460,
  "ụtụ": 1461,
  "ọkọ": 1462,
  "mbu": 1463,
  "miri": 1464,
  "steeti ,": 1465,
  "Ibra": 1466,
  "kịrị": 1467,
  "ọdịda": 1468,
  "ọbasa": 1469,
  "Ihedio": 1470,
  "ọbasanjọ": 1471,
  "AS": 1472,
  "Vi": 1473,
  "jiji": 1474,
  "edo": 1475,
  "nwaanyị .": 1476,
  "spe": 1477,
  "wene": 1478,
  "gun": 1479,
  "agbụrụ": 1480,
  "k ,": 1481,
  "anyi": 1482,
  "omi": 1483,
  "gburugburu": 1484,
  "wenezde": 1485,
  "qu": 1486,
  "lla": 1487,
  "ri ,": 1488,
  "late": 1489,
  "sị .": 1490,
  "nrọ": 1491,
  "agha .": 1492,
  "ngwụ": 1493,
  "Ghana": 1494,
  "Ibrahi": 1495,
  "up": 1496,
  "FA": 1497,
  "16": 1498,
  "na ,": 1499,
  "bi ,": 1500,
  "mgbere": 1501,
  "Ife": 1502,
  "pase": 1503,
  "ahịhịa": 1504,
  "Sowore": 1505,
  "osimiri": 1506,
  "ad": 1507,
  "Ti": 1508,
  "ọk": 1509,
  "Is": 1510,
  "akụrụ": 1511,
  "mbụ .": 1512,
  "Fal": 1513,
  "ọjị": 1514,
  "Nwosu": 1515,
  "akụrụngwa": 1516,
  "mas": 1517,
  "ụbụ": 1518,
  "kwa ,": 1519,
  "ndị \"": 1520,
  "ndo": 1521,
  "sena": 1522,
  "Olu": 1523,
  "guzo": 1524,
  "nkịta": 1525,
  "ọkachasị": 1526,
  "National": 1527,
  "national": 1528,
  "mọnde": 1529,
  "pụrụiche": 1530,
  "US": 1531,
  "4 .": 1532,
  "bwe": 1533,
  "lani": 1534,
  "“ onye": 1535,
  "elo": 1536,
  "Zimba": 1537,
  "nrụrụ": 1538,
  "ịnyị": 1539,
  "Ihedioha": 1540,
  "Ibrahim": 1541,
  "Zimbabwe": 1542,
  "Ah": 1543,
  "by": 1544,
  "arụ": 1545,
  "ute": 1546,
  "zie": 1547,
  "rom": 1548,
  "s :": 1549,
  "ọkụ .": 1550,
  "Madu": 1551,
  "anambra ,": 1552,
  "Premi": 1553,
  "El-Zakzaky": 1554,
  "mkparịtaụka": 1555,
  "senatọ": 1556,
  "ON": 1557,
  "ule": 1558,
  "gen": 1559,
  "toba": 1560,
  "ọzụ": 1561,
  "ụfọdụ ,": 1562,
  "ọkafọ": 1563,
  "ọnwụ .": 1564,
  "izuụka": 1565,
  "Nai": 1566,
  "League": 1567,
  "30": 1568,
  "ụta": 1569,
  "kata": 1570,
  "Emma": 1571,
  "achị": 1572,
  "lic": 1573,
  "egwu .": 1574,
  "ọchịchị .": 1575,
  "maachị": 1576,
  "  \" ọ \"": 1577,
  "Port": 1578,
  "Harc": 1579,
  "International": 1580,
  "Harcourt": 1581,
  "12": 1582,
  "Ale": 1583,
  "bụ  \" ": 1584,
  "tọzde": 1585,
  "ọktoba": 1586,
  "bị": 1587,
  "cho": 1588,
  "nba": 1589,
  "sti": 1590,
  "otu ,": 1591,
  "otu .": 1592,
  "chite": 1593,
  "nchị": 1594,
  "ssa": 1595,
  "mita": 1596,
  "taa ,": 1597,
  "Jona": 1598,
  "Comm": 1599,
  "oriakụ": 1600,
  "Premier": 1601,
  "Bra": 1602,
  "gboro": 1603,
  "kiri": 1604,
  "stra": 1605,
  "ụnyaahụ": 1606,
  "nkwekọrịta": 1607,
  "Falcon": 1608,
  "1 .": 1609,
  "med": 1610,
  "Onye": 1611,
  "la ,": 1612,
  "afọ .": 1613,
  "ndi": 1614,
  "ya . ”": 1615,
  "ise .": 1616,
  "ncheta": 1617,
  "Mbaka": 1618,
  "nturu": 1619,
  "ọzụzụ": 1620,
  "Osinba": 1621,
  "Nwa": 1622,
  "ụma": 1623,
  "ihe \"": 1624,
  "ka \"": 1625,
  "Bro": 1626,
  "atọ ,": 1627,
  "ọkara": 1628,
  "Alex": 1629,
  "rd": 1630,
  "Yo": 1631,
  "rama": 1632,
  "na \"": 1633,
  "kuku": 1634,
  "2016": 1635,
  "mkpamkpa": 1636,
  "mpion": 1637,
  "Face": 1638,
  "David": 1639,
  "Air": 1640,
  "Emeka": 1641,
  "John": 1642,
  "ịnyịnya": 1643,
  "achịcha": 1644,
  "Ko": 1645,
  "MA": 1646,
  "te ,": 1647,
  "isi ,": 1648,
  "efe": 1649,
  "obodo .": 1650,
  "Wor": 1651,
  "ọgwụgwụ": 1652,
  "Came": 1653,
  "mgbanwe": 1654,
  "William": 1655,
  "nnewi": 1656,
  "agbidi": 1657,
  "Jonatha": 1658,
  "Camero": 1659,
  "Ana": 1660,
  "adị": 1661,
  "nha": 1662,
  "ekwu": 1663,
  "Mba": 1664,
  "mgbo": 1665,
  "re :": 1666,
  "Con": 1667,
  "ego .": 1668,
  "Bor": 1669,
  "ọbụla .": 1670,
  "niel": 1671,
  "agụma": 1672,
  "idemmiri": 1673,
  "DSS": 1674,
  "ikuku": 1675,
  "St": 1676,
  "Ai": 1677,
  "o \"": 1678,
  " , \"": 1679,
  "ebere": 1680,
  "mmi": 1681,
  "alth": 1682,
  "Robe": 1683,
  "ctor": 1684,
  "Abdu": 1685,
  "Fulani": 1686,
  "eh": 1687,
  "bụ .": 1688,
  "ren": 1689,
  "kwu .": 1690,
  "obibi": 1691,
  "Adi": 1692,
  "Ger": 1693,
  "Riva": 1694,
  "Fede": 1695,
  "julaị": 1696,
  "kansa": 1697,
  "Euro": 1698,
  "Abaribe": 1699,
  "Naija": 1700,
  "Osinbajo": 1701,
  "Champion": 1702,
  "Do": 1703,
  "bre": 1704,
  "mmasị": 1705,
  "“ ndị": 1706,
  "nzụ": 1707,
  "Del": 1708,
  "ves": 1709,
  "Timo": 1710,
  "ime .": 1711,
  "kọmiti": 1712,
  "ngwụcha": 1713,
  "ghụ": 1714,
  "Ut": 1715,
  "ndị ,": 1716,
  "Ara": 1717,
  "rie": 1718,
  "pte": 1719,
  "ubi": 1720,
  "nkọ": 1721,
  "okwu ,": 1722,
  "2 )": 1723,
  "nsogbu .": 1724,
  "Barc": 1725,
  "anwụrụ": 1726,
  "opekata": 1727,
  "Falcons": 1728,
  "aga": 1729,
  "tti": 1730,
  "nke \"": 1731,
  "Igbo": 1732,
  "pan": 1733,
  "hoo": 1734,
  "mbụ ,": 1735,
  "Umu": 1736,
  "nsu": 1737,
  "Eng": 1738,
  "saye": 1739,
  "Ben": 1740,
  "ụnyaahụ .": 1741,
  "ejije": 1742,
  "ụbụrụ": 1743,
  "nchịkọta": 1744,
  "Jonathan": 1745,
  "Barcelo": 1746,
  "3 ,": 1747,
  "mpu": 1748,
  "“ ihe": 1749,
  "ukwu .": 1750,
  "mgbakọ": 1751,
  "Donal": 1752,
  "bishọ": 1753,
  "odeakwụkwọ": 1754,
  "West": 1755,
  "North": 1756,
  "pita": 1757,
  "Plate": 1758,
  "nzụkọ": 1759,
  "Donald": 1760,
  "Plateau": 1761,
  "Iv": 1762,
  "Ye": 1763,
  "gra": 1764,
  "sia": 1765,
  "gbata": 1766,
  "ghị ,": 1767,
  "rọ ,": 1768,
  "inọ": 1769,
  "wa ,": 1770,
  "anu": 1771,
  "“ m": 1772,
  "Lon": 1773,
  "ọbụladị": 1774,
  "The": 1775,
  "ọgwụgwọ": 1776,
  "car": 1777,
  "ọjọọ .": 1778,
  "chafụ": 1779,
  "taa :": 1780,
  "France": 1781,
  "Umahi": 1782,
  "World": 1783,
  "Cameroon": 1784,
  "Ce": 1785,
  "2 .": 1786,
  "gboo": 1787,
  "“ n'": 1788,
  "mbodo": 1789,
  "Ser": 1790,
  "yin": 1791,
  "echichi": 1792,
  "Bay": 1793,
  "Robert": 1794,
  "ehihi": 1795,
  "Utd": 1796,
  "septe": 1797,
  "Barcelona": 1798,
  "asambodo": 1799,
  "IM": 1800,
  "ll": 1801,
  "Shi": 1802,
  "25": 1803,
  "ọna": 1804,
  "Gra": 1805,
  "tara": 1806,
  "Oba": 1807,
  "nọ .": 1808,
  "akwụkwọ ,": 1809,
  "  \" a": 1810,
  "kama ,": 1811,
  "100": 1812,
  "kraịst ,": 1813,
  "Aisha": 1814,
  "Rivas": 1815,
  "opekatampe": 1816,
  "Londo": 1817,
  "sho": 1818,
  "UK": 1819,
  "Fo": 1820,
  "r ,": 1821,
  "ncha": 1822,
  "kwụkwọ": 1823,
  "ọnụ ,": 1824,
  "thi": 1825,
  "nghọ": 1826,
  "mbido": 1827,
  "ogbenye": 1828,
  "sayensị": 1829,
  "ịchafụ": 1830,
  "agụmakwụkwọ": 1831,
  "cu": 1832,
  "Hu": 1833,
  "Tu": 1834,
  "cra": 1835,
  "Ibi": 1836,
  "ja ,": 1837,
  "nson": 1838,
  "jama": 1839,
  "amerịka .": 1840,
  "tten": 1841,
  "Christi": 1842,
  "adịgboro": 1843,
  "inọk": 1844,
  "toyin": 1845,
  "jamanị": 1846,
  "toyinbo": 1847,
  "tum": 1848,
  "ley": 1849,
  "mwu": 1850,
  "min": 1851,
  "ụzọ ,": 1852,
  "mkpa .": 1853,
  "2019 :": 1854,
  "afrịka .": 1855,
  "Real": 1856,
  "AFC": 1857,
  "rimara": 1858,
  "ssion": 1859,
  "____": 1860,
  "mgbochi": 1861,
  "Daniel": 1862,
  "Totten": 1863,
  "ep": 1864,
  "28": 1865,
  "oma": 1866,
  "6 ,": 1867,
  "ịhụ": 1868,
  "Abi": 1869,
  "chie": 1870,
  "dike": 1871,
  "ndịda": 1872,
  "ese": 1873,
  "mbịa": 1874,
  "oge ,": 1875,
  "biko": 1876,
  "ndu": 1877,
  "nuel": 1878,
  "jizọs ,": 1879,
  "nri ,": 1880,
  "2019 ,": 1881,
  "Demo": 1882,
  "book": 1883,
  "ọnụọgụgụ": 1884,
  "Shehu": 1885,
  "nturuugo": 1886,
  "Commi": 1887,
  "Delta": 1888,
  "ghụghọ": 1889,
  "Fatoyinbo": 1890,
  "AFCON": 1891,
  "ịhụna": 1892,
  "Facebook": 1893,
  "pp": 1894,
  "Lu": 1895,
  "vs": 1896,
  "ina": 1897,
  "r .": 1898,
  "gri": 1899,
  "nkụ": 1900,
  "egwu ,": 1901,
  "ụmụnna": 1902,
  "osika": 1903,
  "ekpere ,": 1904,
  " .  \" ọ \"": 1905,
  "arịrịọ": 1906,
  "Timoti": 1907,
  "aghụghọ": 1908,
  "AC": 1909,
  "ịdị": 1910,
  "kra": 1911,
  "gal": 1912,
  "si ,": 1913,
  "4 )": 1914,
  "ụzọ .": 1915,
  "agha ,": 1916,
  "amadi": 1917,
  "nwaada": 1918,
  "Sam": 1919,
  "Nigerian": 1920,
  "njirimara": 1921,
  "der": 1922,
  "lia": 1923,
  "mba ,": 1924,
  "dan": 1925,
  "kola": 1926,
  "ụbọchị ,": 1927,
  "elu .": 1928,
  "( n": 1929,
  "Agu": 1930,
  "muel": 1931,
  "ụdịrị": 1932,
  "Peop": 1933,
  "mmalite": 1934,
  "ọlaedo": 1935,
  "Ebre": 1936,
  "Tottenham": 1937,
  "Samuel": 1938,
  "AN": 1939,
  "Si": 1940,
  "z .": 1941,
  "are": 1942,
  "rena": 1943,
  "sina": 1944,
  "Ste": 1945,
  "sịga": 1946,
  "chi ,": 1947,
  "Dan": 1948,
  "bịa ,": 1949,
  "jehova ,": 1950,
  "ọkụ ,": 1951,
  "jizọs .": 1952,
  "zịza": 1953,
  "ise ,": 1954,
  "ọhụrụ .": 1955,
  "ama .": 1956,
  "nọve": 1957,
  "lement": 1958,
  "Election": 1959,
  "nrụrụaka": 1960,
  "Ahmed": 1961,
  "Champions": 1962,
  "Japan": 1963,
  "ekwensu": 1964,
  "mwute": 1965,
  "Emmanuel": 1966,
  "3 .": 1967,
  "rea": 1968,
  "Ola": 1969,
  "odo": 1970,
  "okwute": 1971,
  "ahụ ?": 1972,
  "para": 1973,
  "ọdịmma": 1974,
  "nkume": 1975,
  "onyeàmà": 1976,
  "cia": 1977,
  "Okon": 1978,
  "ress": 1979,
  "juun": 1980,
  "arịrị": 1981,
  "African": 1982,
  "Ifeanyi": 1983,
  "Brother": 1984,
  "bishọp": 1985,
  "ọnatara": 1986,
  "kana": 1987,
  "ba ,": 1988,
  "nọ ,": 1989,
  "wa .": 1990,
  "ụlọ ,": 1991,
  "ghara": 1992,
  "nụ .": 1993,
  "ose": 1994,
  "azu": 1995,
  "re ?": 1996,
  "gwon": 1997,
  "Joe": 1998,
  "Par": 1999,
  "ụtọ ,": 2000,
  "noa": 2001,
  "Adamu": 2002,
  "okiri": 2003,
  "nụwarị": 2004,
  "ọnatarachi": 2005,
  "Am": 2006,
  "ls": 2007,
  "kpị": 2008,
  "5 .": 2009,
  "ka ,": 2010,
  "ree": 2011,
  "ber": 2012,
  "tin": 2013,
  "pti": 2014,
  "debe": 2015,
  "Ali": 2016,
  "afọ ,": 2017,
  "“ chineke": 2018,
  " . ” ,": 2019,
  "nrite": 2020,
  "Osu": 2021,
  "kilo": 2022,
  "Kano": 2023,
  "spen": 2024,
  "Europe": 2025,
  "eprel": 2026,
  "gwongwo": 2027,
  "um": 2028,
  "is": 2029,
  "gy": 2030,
  "CO": 2031,
  "gana": 2032,
  "Pri": 2033,
  "ba .": 2034,
  "zil": 2035,
  "den": 2036,
  "Mike": 2037,
  "nge": 2038,
  "Ogbo": 2039,
  "Ikpe": 2040,
  "daị": 2041,
  "sele": 2042,
  "mili": 2043,
  "jọn": 2044,
  "Tho": 2045,
  "ọmarị": 2046,
  "ihu .": 2047,
  "Onwu": 2048,
  "koria": 2049,
  "Wol": 2050,
  "Shia": 2051,
  "  \" anyị \"": 2052,
  "Williams": 2053,
  "England": 2054,
  "ehihie": 2055,
  "azịza": 2056,
  "bapti": 2057,
  "ọmarịcha": 2058,
  "baptizi": 2059,
  "11": 2060,
  "Id": 2061,
  "24": 2062,
  "h ,": 2063,
  "ụkwa": 2064,
  "Sala": 2065,
  "ra ?": 2066,
  "mmechi": 2067,
  "mmegbu": 2068,
  "ụka .": 2069,
  "Job": 2070,
  "Baba": 2071,
  "ugwu .": 2072,
  "And": 2073,
  "rọshịa": 2074,
  "ọgbụ": 2075,
  "shop": 2076,
  "River": 2077,
  "Obiano": 2078,
  "port": 2079,
  "ọgara": 2080,
  "  \" n' \"": 2081,
  "nnọchite": 2082,
  "Borno": 2083,
  "Democra": 2084,
  "paradaị": 2085,
  "ọgbụgba": 2086,
  "50": 2087,
  "nsi": 2088,
  "ble": 2089,
  "ude": 2090,
  "ọwa": 2091,
  "nụ ,": 2092,
  "lian": 2093,
  "aku": 2094,
  "“ e": 2095,
  "nze": 2096,
  "tho": 2097,
  "bọje": 2098,
  "ndụ ,": 2099,
  "ukwu ,": 2100,
  "ahịa .": 2101,
  "win": 2102,
  "amadị": 2103,
  "ememme": 2104,
  "anọ .": 2105,
  "Yemi": 2106,
  "As": 2107,
  "29": 2108,
  "7 ,": 2109,
  "nkwụ": 2110,
  "lin": 2111,
  "igbe": 2112,
  "uni": 2113,
  "bụ :": 2114,
  "ya :": 2115,
  "jeru": 2116,
  "obodo ,": 2117,
  "tom": 2118,
  "zor": 2119,
  "ice": 2120,
  "Gar": 2121,
  "Rev": 2122,
  "ogogo": 2123,
  "Cong": 2124,
  "Okezie": 2125,
  "Serena": 2126,
  "Clement": 2127,
  "Ikpeazu": 2128,
  "Idris": 2129,
  "jerusele": 2130,
  "Congress": 2131,
  "Sy": 2132,
  "dy": 2133,
  "eri": 2134,
  "e \"": 2135,
  "abụbụ": 2136,
  "udu": 2137,
  "nso .": 2138,
  "Cou": 2139,
  "agbata": 2140,
  "Lib": 2141,
  "Sera": 2142,
  "ahu": 2143,
  "fran": 2144,
  "God": 2145,
  "Victor": 2146,
  "Igbokwe": 2147,
  "kọmpu": 2148,
  "Brazil": 2149,
  "Em": 2150,
  "Sha": 2151,
  "AR": 2152,
  "w .": 2153,
  "ji ,": 2154,
  "ụlọ .": 2155,
  "mmanwụ": 2156,
  "ha ?": 2157,
  "febụ": 2158,
  "dun": 2159,
  "ọchịchị ,": 2160,
  "asaa .": 2161,
  "Chibo": 2162,
  "ebube": 2163,
  "198": 2164,
  "uhie": 2165,
  "deine": 2166,
  "Kenya": 2167,
  "Nnamdi": 2168,
  "abuja .": 2169,
  "Commission": 2170,
  "ịhụnanya": 2171,
  "febụwarị": 2172,
  "Oj": 2173,
  "ght": 2174,
  "UN": 2175,
  "ron": 2176,
  "3 )": 2177,
  "“ o": 2178,
  "igbo ?": 2179,
  "nwaanyị ,": 2180,
  "kepu": 2181,
  "2014": 2182,
  "Cor": 2183,
  "ụka ,": 2184,
  "Bel": 2185,
  "eju": 2186,
  "nri .": 2187,
  "azụ .": 2188,
  "kiti": 2189,
  "ekpere .": 2190,
  "Cos": 2191,
  "Big": 2192,
  "Okorocha": 2193,
  "ọdịnihu .": 2194,
  "Rehab": 2195,
  "ọkpọka": 2196,
  "pasentị": 2197,
  "  \" , \"": 2198,
  "Ibiam": 2199,
  "Johnson": 2200,
  "adịgboroja": 2201,
  "Garba": 2202,
  "ee": 2203,
  "NL": 2204,
  "Ku": 2205,
  "FF": 2206,
  "6 .": 2207,
  "Ume": 2208,
  "ji .": 2209,
  "Ugwu": 2210,
  "day": 2211,
  "Ban": 2212,
  "ezi .": 2213,
  "oke .": 2214,
  "imi": 2215,
  "ntị .": 2216,
  "ozi .": 2217,
  "Spa": 2218,
  "Ope": 2219,
  "praị": 2220,
  "Niger": 2221,
  "aṅụ": 2222,
  "illa": 2223,
  "ọsọ .": 2224,
  "Davi": 2225,
  "196": 2226,
  "Alla": 2227,
  "ford": 2228,
  "2023": 2229,
  "owerri": 2230,
  "gency": 2231,
  "nhazi": 2232,
  "osikapa": 2233,
  "nwo": 2234,
  "na .": 2235,
  "te .": 2236,
  "kọb": 2237,
  "nzọ": 2238,
  "one": 2239,
  "5 )": 2240,
  "ya .  \" ": 2241,
  "nya .": 2242,
  "nsonso": 2243,
  "vel": 2244,
  "Omo": 2245,
  "Char": 2246,
  "ọjọọ ,": 2247,
  "sọọsọ": 2248,
  "kraịst .": 2249,
  "cial": 2250,
  "India": 2251,
  "Okoye": 2252,
  "nghọta": 2253,
  "Bukola": 2254,
  "nọvemba": 2255,
  "jekọb": 2256,
  "ff": 2257,
  "DC": 2258,
  "9 .": 2259,
  "8 ,": 2260,
  "9 ,": 2261,
  "ọsị": 2262,
  "Uche": 2263,
  "ogbo": 2264,
  "ako": 2265,
  "Mer": 2266,
  "ọbụla ,": 2267,
  "ames": 2268,
  "Ang": 2269,
  "197": 2270,
  "Inno": 2271,
  "Union": 2272,
  "Tim": 2273,
  "nleta": 2274,
  "ịlaị": 2275,
  "Udemba": 2276,
  "Cent": 2277,
  "Ukra": 2278,
  "Ebreham": 2279,
  "NLC": 2280,
  "Ukraine": 2281,
  "ọọ": 2282,
  "26": 2283,
  "0 .": 2284,
  "tus": 2285,
  "ghị \"": 2286,
  "mgbu": 2287,
  "sili": 2288,
  "ụlọọrụ": 2289,
  "udi": 2290,
  "dise": 2291,
  "San": 2292,
  "gị ?": 2293,
  "7 )": 2294,
  "fero": 2295,
  "vice": 2296,
  "Nation": 2297,
  "All": 2298,
  "cis": 2299,
  "ffi": 2300,
  "Bio": 2301,
  "wood": 2302,
  "anọ ,": 2303,
  "olly": 2304,
  "London": 2305,
  "esem": 2306,
  "Wolves": 2307,
  "Allah": 2308,
  "ollywood": 2309,
  "ot": 2310,
  "my": 2311,
  "tta": 2312,
  "som": 2313,
  "midi": 2314,
  "2020": 2315,
  "hib": 2316,
  "bụla .": 2317,
  "bụla ,": 2318,
  "mmiri .": 2319,
  "ace": 2320,
  "ọkaibe": 2321,
  "siria": 2322,
  "Day": 2323,
  "ahụhụ .": 2324,
  "Joseph": 2325,
  "ehab": 2326,
  "  \" nke \"": 2327,
  "septemba": 2328,
  "Okonkwo": 2329,
  "Party": 2330,
  "ọgaranya": 2331,
  "aị": 2332,
  "Ed": 2333,
  "IS": 2334,
  "0 ,": 2335,
  "lan": 2336,
  "Eji": 2337,
  "ihere": 2338,
  "nwere": 2339,
  "gazi": 2340,
  "Ogbu": 2341,
  "egbu": 2342,
  "mbo": 2343,
  "ilu": 2344,
  "ego ,": 2345,
  "eze ,": 2346,
  "ọnwụ ,": 2347,
  "iwe .": 2348,
  "Roh": 2349,
  "Dap": 2350,
  "mmepụta": 2351,
  "bekee .": 2352,
  "Sene": 2353,
  "kris": 2354,
  "ọcha ,": 2355,
  "ọcha .": 2356,
  "Akanu": 2357,
  "ikpeazụ ,": 2358,
  "Zam": 2359,
  "Mini": 2360,
  "Guine": 2361,
  "ọganihu": 2362,
  "Femi": 2363,
  "okirikiri": 2364,
  "Democratic": 2365,
  "Senegal": 2366,
  "ọt": 2367,
  "Va": 2368,
  "ZA": 2369,
  "IV": 2370,
  "gre": 2371,
  "Cro": 2372,
  "anyị ?": 2373,
  "abụ ,": 2374,
  "Onu": 2375,
  "pho": 2376,
  "ọka ,": 2377,
  "chael": 2378,
  "nchụ": 2379,
  "Ribe": 2380,
  "ngwaahịa": 2381,
  "Uzo": 2382,
  "nno": 2383,
  "izugbe": 2384,
  "- 3": 2385,
  "Univer": 2386,
  "udo .": 2387,
  "legọs .": 2388,
  "ṅomi": 2389,
  "Cup": 2390,
  "Maduka": 2391,
  "Commonwe": 2392,
  "Kanu": 2393,
  "Chibok": 2394,
  "Davido": 2395,
  "COZA": 2396,
  "Commonwealth": 2397,
  "es": 2398,
  "mar": 2399,
  "Tra": 2400,
  "oti": 2401,
  "len": 2402,
  "ọpụ": 2403,
  "pụ .": 2404,
  "akọ": 2405,
  "chị .": 2406,
  "do ,": 2407,
  "mbara": 2408,
  "ọbọ": 2409,
  "elu ,": 2410,
  "stle": 2411,
  "eze .": 2412,
  "Mor": 2413,
  "dimkpa": 2414,
  "Cana": 2415,
  "ntụnye": 2416,
  "Ogu": 2417,
  "tain": 2418,
  "bọọlụ .": 2419,
  "amerịka ,": 2420,
  "not": 2421,
  "Indi": 2422,
  " ! ”": 2423,
  "urch": 2424,
  "Ezekwe": 2425,
  "ASU": 2426,
  "Port ": 2427,
  "chool": 2428,
  "Adichie": 2429,
  "idemili": 2430,
  "kọmputa": 2431,
  "Francis": 2432,
  "Rohr": 2433,
  "Nọt": 2434,
  "Ribeka": 2435,
  "Port Harcourt": 2436,
  "21": 2437,
  "ct": 2438,
  "Ad": 2439,
  "l .": 2440,
  "Bre": 2441,
  "rin": 2442,
  "si .": 2443,
  "del": 2444,
  "nali": 2445,
  "Ani": 2446,
  "Aku": 2447,
  "“ mgbe": 2448,
  "hia": 2449,
  "gige": 2450,
  "( N": 2451,
  "enyo": 2452,
  "May": 2453,
  "fara": 2454,
  "ntụliaka .": 2455,
  "Col": 2456,
  "njọ .": 2457,
  "East": 2458,
  "Miye": 2459,
  "asị .": 2460,
  "pasent": 2461,
  "  \" ndị \"": 2462,
  "blic": 2463,
  "  \" ihe \"": 2464,
  "Ethi": 2465,
  "Christian": 2466,
  "mbịara": 2467,
  "grik": 2468,
  "Leice": 2469,
  "aṅụrị": 2470,
  "esemokwu": 2471,
  "Ezekwesili": 2472,
  "Ngige": 2473,
  "Miyetti": 2474,
  "Leicester": 2475,
  "Cy": 2476,
  "tt": 2477,
  "Fra": 2478,
  "kla": 2479,
  "nkwu": 2480,
  "tek": 2481,
  "ọtụ": 2482,
  "Ebo": 2483,
  "oge .": 2484,
  "mic": 2485,
  "ozigbo": 2486,
  "( A": 2487,
  "Mai": 2488,
  "Imo": 2489,
  "ụlọahịa": 2490,
  "Iran": 2491,
  "mkpọrọ .": 2492,
  "eluigwe ,": 2493,
  " .  \" anyị \"": 2494,
  "mgbaghara": 2495,
  "Ojukwu": 2496,
  "Mercy": 2497,
  "og": 2498,
  "ID": 2499,
  "AF": 2500,
  "shu": 2501,
  "7 .": 2502,
  "leke": 2503,
  "way": 2504,
  "ọfọ": 2505,
  "ro ,": 2506,
  "dge": 2507,
  "bu .": 2508,
  "ọbịa": 2509,
  "abụ )": 2510,
  "“ ị": 2511,
  "nụzụ": 2512,
  "ozi ,": 2513,
  "nsụ": 2514,
  "kpamkpa": 2515,
  "Aja": 2516,
  "ganị": 2517,
  "nce": 2518,
  "kolo": 2519,
  "ọhụrụ ,": 2520,
  "ring": 2521,
  "ugwu ,": 2522,
  "nsọ .": 2523,
  "yinka": 2524,
  "ọtọ .": 2525,
  "gburugbu": 2526,
  "akpụkpọ": 2527,
  "King": 2528,
  "2017 .": 2529,
  "nlekọta": 2530,
  "ọṅụṅụ": 2531,
  "  \" na \"": 2532,
  "IMN": 2533,
  "Shiite": 2534,
  "njedebe": 2535,
  "Bishop": 2536,
  "SAR": 2537,
  "Service": 2538,
  "Dapchi": 2539,
  "HIV": 2540,
  "Ethiop": 2541,
  "teknụzụ": 2542,
  "SARS": 2543,
  "ọbụ": 2544,
  "u ,": 2545,
  "5 ,": 2546,
  "pha": 2547,
  "Ita": 2548,
  "kwaghị": 2549,
  "lle": 2550,
  "zik": 2551,
  "side": 2552,
  "gola": 2553,
  "Eli": 2554,
  "nin": 2555,
  "mkwe": 2556,
  "Nwan": 2557,
  "ru ?": 2558,
  "owu": 2559,
  "mon": 2560,
  "m . ”": 2561,
  "ihu ,": 2562,
  "eziokwu ?": 2563,
  "nkwarị": 2564,
  "oly": 2565,
  "ikiri": 2566,
  "Kogi": 2567,
  "ochie .": 2568,
  "eluigwe .": 2569,
  "umeala": 2570,
  "Orji": 2571,
  "Ikechukwu": 2572,
  " ...": 2573,
  "Nwachukwu": 2574,
  "nkọwa": 2575,
  "Benja": 2576,
  "Mikel": 2577,
  "Agency": 2578,
  "James": 2579,
  "disemba": 2580,
  "Biodun": 2581,
  "nnwere": 2582,
  "magazi": 2583,
  "gressi": 2584,
  "Britain": 2585,
  "Church": 2586,
  "ASUU": 2587,
  "Frank": 2588,
  "Dakolo": 2589,
  "-E": 2590,
  "Fi": 2591,
  "En": 2592,
  "ef": 2593,
  "nc": 2594,
  "22": 2595,
  "Pu": 2596,
  "SC": 2597,
  "ma .": 2598,
  "fre": 2599,
  "yat": 2600,
  "kwu ,": 2601,
  "ote": 2602,
  "a \"": 2603,
  "pro": 2604,
  "' ?": 2605,
  "“ ka": 2606,
  "ahụ . ”": 2607,
  "obiọma": 2608,
  "ahịa ,": 2609,
  "hen": 2610,
  "ọnwụnwa": 2611,
  "ard": 2612,
  "enugwu .": 2613,
  "njikọ": 2614,
  "ifo": 2615,
  "Kim": 2616,
  "nkwenye": 2617,
  "ọfụma .": 2618,
  "Umar": 2619,
  "Nigeria ,": 2620,
  "nwatakịrị": 2621,
  " .  \" ndị \"": 2622,
  "  \" ka \"": 2623,
  "gram": 2624,
  "scar": 2625,
  "People": 2626,
  "kanada": 2627,
  "ngwongwo": 2628,
  "Peace": 2629,
  "Michael": 2630,
  "Gernot": 2631,
  "penali": 2632,
  "magazin": 2633,
  "golayat": 2634,
  "penaliti": 2635,
  "Pi": 2636,
  "Ex": 2637,
  "4 ,": 2638,
  "ata": 2639,
  "onye \"": 2640,
  "lu ,": 2641,
  "di ,": 2642,
  "chineke ?": 2643,
  "oke ,": 2644,
  "Ndu": 2645,
  "nnaya": 2646,
  "Bar": 2647,
  "500": 2648,
  "ụlọikpe .": 2649,
  "nsọ ,": 2650,
  "tanka": 2651,
  "Bur": 2652,
  "opment": 2653,
  "Secon": 2654,
  "2018 .": 2655,
  "Geor": 2656,
  "aja .": 2657,
  "fraịde .": 2658,
  "jijiji": 2659,
  "Abdul": 2660,
  "socia": 2661,
  "Universi": 2662,
  "Zamfara": 2663,
  "Soyinka": 2664,
  "Progressi": 2665,
  "velopment": 2666,
  "Associa": 2667,
  "Association": 2668,
  "Po": 2669,
  "FI": 2670,
  "Aw": 2671,
  "sime": 2672,
  "Nji": 2673,
  "rus": 2674,
  "ịgba": 2675,
  "bụ \"": 2676,
  "nesi": 2677,
  "lli": 2678,
  "lọtọ": 2679,
  "Mala": 2680,
  "ru :": 2681,
  "9 )": 2682,
  "Odu": 2683,
  "hole": 2684,
  "mana \"": 2685,
  "rist": 2686,
  "uru ,": 2687,
  "mkpagbu": 2688,
  "elsa": 2689,
  "eld": 2690,
  "mmiri ,": 2691,
  "isii ,": 2692,
  "tive": 2693,
  "ọkpụkpụ": 2694,
  "Musa": 2695,
  "edeme": 2696,
  "Sheka": 2697,
  "alụm": 2698,
  "League .": 2699,
  "lican": 2700,
  "roup": 2701,
  "Oluse": 2702,
  "Anaje": 2703,
  "gbatagbata": 2704,
  "Mz .": 2705,
  "Catho": 2706,
  "Bank": 2707,
  "castle": 2708,
  "Ethiopia": 2709,
  "Development": 2710,
  "ọkọlọtọ": 2711,
  "Bayelsa": 2712,
  "Catholic": 2713,
  "om": 2714,
  "rish": 2715,
  "mwe": 2716,
  "Tan": 2717,
  "Chan": 2718,
  "ikpe .": 2719,
  "sto": 2720,
  "iwu .": 2721,
  "ụzụ": 2722,
  "rael": 2723,
  "cent": 2724,
  "anambra .": 2725,
  "kpụrụkpụ": 2726,
  "ụfụ": 2727,
  "ime ,": 2728,
  "Buso": 2729,
  "ọpị": 2730,
  "Kalu": 2731,
  "Nwodo": 2732,
  "iteghe": 2733,
  "ozugbo .": 2734,
  "Gene": 2735,
  "Good": 2736,
  "taata": 2737,
  "mbuli": 2738,
  "Yoru": 2739,
  " .  \" o \"": 2740,
  "jenụwarị": 2741,
  "Thomas": 2742,
  "paradaịs .": 2743,
  "jeruselem": 2744,
  "Libya": 2745,
  "Charles": 2746,
  "Nations": 2747,
  "Canada": 2748,
  "kpọmkwe": 2749,
  "edemede": 2750,
  "Olusegun": 2751,
  "Israel": 2752,
  "PC": 2753,
  "TV": 2754,
  "Yu": 2755,
  "xi": 2756,
  "ka .": 2757,
  "l ,": 2758,
  "hụhụ": 2759,
  "ukwa": 2760,
  "chi .": 2761,
  "rọs": 2762,
  "Awa": 2763,
  "ọkwụ": 2764,
  "Wike": 2765,
  "nnụ": 2766,
  "m :": 2767,
  "okwe": 2768,
  "sse": 2769,
  "6 )": 2770,
  "’ )": 2771,
  "a .  \" ": 2772,
  "ụbọchị .": 2773,
  "ern": 2774,
  "mkpa :": 2775,
  "ino": 2776,
  "stan": 2777,
  "Ronal": 2778,
  "isii .": 2779,
  "ọgụ .": 2780,
  "ochie ,": 2781,
  "gaasị": 2782,
  "Oshi": 2783,
  "Nnabu": 2784,
  "tiusde .": 2785,
  "dibia": 2786,
  "2015 .": 2787,
  "mbuze": 2788,
  "Austra": 2789,
  "Germa": 2790,
  "Airport": 2791,
  "nnọchiteanya": 2792,
  "Ugwuanyi": 2793,
  "praịm": 2794,
  "siriak": 2795,
  "alụkwaghị": 2796,
  "Newcastle": 2797,
  "omhole": 2798,
  "Busola": 2799,
  "Oshiomhole": 2800,
  "ek": 2801,
  "hị": 2802,
  "8 .": 2803,
  "ke ,": 2804,
  "gad": 2805,
  "ha \"": 2806,
  "- \"": 2807,
  "ro .": 2808,
  "iri .": 2809,
  "ụkpa": 2810,
  "obo": 2811,
  "ọkwọ": 2812,
  "int": 2813,
  "ikpere": 2814,
  "otuto": 2815,
  "nya ,": 2816,
  "nwoke .": 2817,
  "nwoke ,": 2818,
  "rest": 2819,
  "oziọma": 2820,
  "anya . ”": 2821,
  "For": 2822,
  "kọpa": 2823,
  "Tara": 2824,
  "dugu": 2825,
  "laza": 2826,
  "azụma": 2827,
  "ọchụ": 2828,
  "Benu": 2829,
  "“ unu": 2830,
  "enugwu ,": 2831,
  "akwa .": 2832,
  "Oye": 2833,
  "asatọ ,": 2834,
  "echiche .": 2835,
  "oyibo": 2836,
  "nwaagbọghọ": 2837,
  "ijipt .": 2838,
  "twitter": 2839,
  "1914": 2840,
  "Chad": 2841,
  "Haru": 2842,
  "Ameri": 2843,
  "mgbidi": 2844,
  "ntakịrị": 2845,
  "Abdulla": 2846,
  "Federal": 2847,
  "agadi": 2848,
  "________": 2849,
  "Chioma": 2850,
  "biko ,": 2851,
  "Agule": 2852,
  "Step": 2853,
  "Egy": 2854,
  "Rivers": 2855,
  "Communi": 2856,
  "NFF": 2857,
  "Central": 2858,
  "Nollywood": 2859,
  "hibru": 2860,
  "School": 2861,
  "Benjamin": 2862,
  "Shekau": 2863,
  "ntarama": 2864,
  "Maidugu": 2865,
  "azụmahịa": 2866,
  "Egypt": 2867,
  "ntaramahụhụ": 2868,
  "PS": 2869,
  "CB": 2870,
  "Bla": 2871,
  "chebe": 2872,
  "dne": 2873,
  "Isa": 2874,
  "li .": 2875,
  "bon": 2876,
  "Ibo": 2877,
  "nwụ ,": 2878,
  "sekọ": 2879,
  "bulu": 2880,
  "din": 2881,
  "van": 2882,
  "ya  \" ": 2883,
  "sị  \" ": 2884,
  "mma ?": 2885,
  "ezina": 2886,
  "nuche": 2887,
  "ojii ,": 2888,
  "Abra": 2889,
  "ya ;": 2890,
  "ndị ;": 2891,
  "maahịa": 2892,
  "azụ ,": 2893,
  "nkwanye": 2894,
  "our": 2895,
  "Mou": 2896,
  "sọnde": 2897,
  "400": 2898,
  "afrịka ,": 2899,
  "ding": 2900,
  "Repu": 2901,
  "Lai": 2902,
  "asatọ .": 2903,
  "rans": 2904,
  "Econ": 2905,
  "ohi ,": 2906,
  "ịdịna": 2907,
  "arebia": 2908,
  "mkpị": 2909,
  "Allian": 2910,
  "Nyako": 2911,
  "Innoson": 2912,
  "ịlaịja": 2913,
  "Saudi": 2914,
  "ahia": 2915,
  "ncil": 2916,
  "University": 2917,
  "Group": 2918,
  "Timgad": 2919,
  "Abdullahi": 2920,
  "azụmaahịa": 2921,
  "Alliance": 2922,
  "ig": 2923,
  "rg": 2924,
  "Hi": 2925,
  "Qu": 2926,
  "IC": 2927,
  "Kha": 2928,
  "brụ": 2929,
  "rite": 2930,
  "chel": 2931,
  "cha ,": 2932,
  "sa ,": 2933,
  "mesa": 2934,
  "ser": 2935,
  "P )": 2936,
  "“ i": 2937,
  "mana ,": 2938,
  "ha . ”": 2939,
  "ston": 2940,
  "sty": 2941,
  "ell": 2942,
  "Mana": 2943,
  "asaa ,": 2944,
  "ọlị": 2945,
  "ngwọ": 2946,
  "Mada": 2947,
  "Mah": 2948,
  "iwe ,": 2949,
  "inji": 2950,
  "Har": 2951,
  "You": 2952,
  "ille": 2953,
  "ill": 2954,
  "eno": 2955,
  "kno": 2956,
  "ebum": 2957,
  "Insta": 2958,
  "ụra .": 2959,
  "There": 2960,
  "ogoogo": 2961,
  "ikpeazụ .": 2962,
  "rity": 2963,
  "izrel .": 2964,
  "emeka": 2965,
  "ship": 2966,
  "phobi": 2967,
  "akparama": 2968,
  "Mbaise": 2969,
  "Obama": 2970,
  "  \" a \"": 2971,
  "ụkwara": 2972,
  "stus": 2973,
  "Guinea": 2974,
  "ọpụpụ": 2975,
  "Benin": 2976,
  "George": 2977,
  "ọkpụrụkpụ": 2978,
  "Mexi": 2979,
  "Bayern": 2980,
  "  \" - \"": 2981,
  "Economi": 2982,
  "Council": 2983,
  "febrụ": 2984,
  "enophobi": 2985,
  "Mexico": 2986,
  "febrụwarị": 2987,
  "nz": 2988,
  "At": 2989,
  "ac": 2990,
  "AM": 2991,
  "ks": 2992,
  "CN": 2993,
  "t .": 2994,
  "gar": 2995,
  "Ala": 2996,
  "Cri": 2997,
  "kwasị": 2998,
  "ne ,": 2999,
  "Uwa": 3000,
  "rou": 3001,
  "gani": 3002,
  "ger": 3003,
  "lege": 3004,
  "alakụ": 3005,
  "Bala": 3006,
  "di .": 3007,
  "Odi": 3008,
  "Ran": 3009,
  "e ?": 3010,
  "Ant": 3011,
  "8 )": 3012,
  "list": 3013,
  "2013": 3014,
  "bi . ”": 3015,
  "Yor": 3016,
  "vin": 3017,
  "Sal": 3018,
  "stal": 3019,
  "ọrịa .": 3020,
  "olution": 3021,
  "visa": 3022,
  "ụra ,": 3023,
  "latị": 3024,
  "mkpọtụ": 3025,
  "Alge": 3026,
  "Sunda": 3027,
  "echiche ,": 3028,
  "dayọ": 3029,
  "ntutu": 3030,
  "ventu": 3031,
  "Chimama": 3032,
  "ọnịcha ,": 3033,
  "Boris": 3034,
  "Pope": 3035,
  "ahịrị": 3036,
  "Power": 3037,
  "Ogun": 3038,
  "Isla": 3039,
  "European": 3040,
  "Ortom": 3041,
  "otele": 3042,
  "FIFA": 3043,
  "Christ": 3044,
  "Haruna": 3045,
  "Stephen": 3046,
  "Tekno": 3047,
  "Theresa": 3048,
  "Xenophobi": 3049,
  "Revolution": 3050,
  "dayọsi": 3051,
  "Chimamanda": 3052,
  "id": 3053,
  "Nu": 3054,
  "NB": 3055,
  "OW": 3056,
  "madị": 3057,
  "ket": 3058,
  "Nke": 3059,
  "Oha": 3060,
  "let": 3061,
  "biri": 3062,
  "cha .": 3063,
  "Ode": 3064,
  "saị": 3065,
  "gwuru": 3066,
  "kpam": 3067,
  "da ,": 3068,
  "ọchịchọ": 3069,
  "Ndi": 3070,
  "anya ?": 3071,
  "akụkọ \"": 3072,
  "’ ”": 3073,
  "ụwa ?": 3074,
  "iwu ,": 3075,
  "abụbọ": 3076,
  "org": 3077,
  "ama ,": 3078,
  "Zara": 3079,
  "mmefu": 3080,
  "Enyi": 3081,
  "olo": 3082,
  "bọọlụ ,": 3083,
  "ọkwa .": 3084,
  "Nsu": 3085,
  "sị :  \" ": 3086,
  "cal": 3087,
  "ous": 3088,
  "2000": 3089,
  "ụmụada": 3090,
  "luck": 3091,
  "ganda": 3092,
  "Obio": 3093,
  "oghe": 3094,
  "ụnyaahụ ,": 3095,
  "Messi": 3096,
  "uchu": 3097,
  "2018 ,": 3098,
  "Kenne": 3099,
  "Nnia": 3100,
  "Ruga": 3101,
  "mak ,": 3102,
  "EMA": 3103,
  "St .": 3104,
  "baptizim": 3105,
  "Emlin": 3106,
  "codeine": 3107,
  "tiu ,": 3108,
  "Preside": 3109,
  "Chief": 3110,
  "Njikọ": 3111,
  "PSG": 3112,
  "Black": 3113,
  "ntụkwasị": 3114,
  "Sunday": 3115,
  "ECOW": 3116,
  "ECOWAS": 3117,
  "37": 3118,
  "os": 3119,
  "Ze": 3120,
  "UE": 3121,
  "II": 3122,
  "Aka": 3123,
  "nyahụ": 3124,
  "Ezi": 3125,
  "do .": 3126,
  "Chike": 3127,
  "nis": 3128,
  "nish": 3129,
  "dada": 3130,
  "bi ?": 3131,
  "me ?": 3132,
  "naịjirịa ?": 3133,
  "riko": 3134,
  "cer": 3135,
  "ojii .": 3136,
  "stri": 3137,
  "olulu": 3138,
  "Solu": 3139,
  "omen": 3140,
  "cese": 3141,
  "ọnya": 3142,
  "Car": 3143,
  "rial": 3144,
  "Rama": 3145,
  "pou": 3146,
  "Chine": 3147,
  "ụgwọ .": 3148,
  "nkeji :": 3149,
  "Ono": 3150,
  "sing": 3151,
  "laye": 3152,
  "ofor": 3153,
  "ghen": 3154,
  "Tur": 3155,
  "Cali": 3156,
  "ejiji": 3157,
  "wich": 3158,
  "ingland": 3159,
  "jairo": 3160,
  "satọde .": 3161,
  "mfe .": 3162,
  "Augu": 3163,
  "sley": 3164,
  "App": 3165,
  "Sudan": 3166,
  "Osun": 3167,
  "Salah": 3168,
  "bọjetị": 3169,
  "ọsịsọ": 3170,
  "Onno": 3171,
  "Adeleke": 3172,
  "Anglican": 3173,
  "Tanza": 3174,
  "Maiduguri": 3175,
  "CBN": 3176,
  "dinma": 3177,
  "nzagha": 3178,
  "Algeria": 3179,
  "Juventu": 3180,
  "Islamic": 3181,
  "dayọsiisi": 3182,
  "Goodluck": 3183,
  "Uganda": 3184,
  "Kenneth": 3185,
  "matiu ,": 3186,
  "UEFA": 3187,
  "Onnoghen": 3188,
  "ọs": 3189,
  "Ji": 3190,
  "33": 3191,
  "WA": 3192,
  "-O": 3193,
  "FD": 3194,
  "ura": 3195,
  "rah": 3196,
  "res": 3197,
  "ban": 3198,
  "chị ,": 3199,
  "ra \"": 3200,
  "nwa .": 3201,
  "zu .": 3202,
  "Lan": 3203,
  "aka ?": 3204,
  "mmehi": 3205,
  "ụfọdụ .": 3206,
  "Buhari ,": 3207,
  "nwanna": 3208,
  "Soko": 3209,
  "amaw": 3210,
  "goolu .": 3211,
  "akwa ,": 3212,
  "ọsọ ,": 3213,
  "Josef .": 3214,
  "Rus": 3215,
  "ajị": 3216,
  "Amara": 3217,
  "Poli": 3218,
  "ọmụgwọ": 3219,
  "yode": 3220,
  "Jong": 3221,
  "Ebonyi": 3222,
  "Kaduna": 3223,
  "lịkan": 3224,
  "ụgha .": 3225,
  "ngosi": 3226,
  "Alexand": 3227,
  "Health": 3228,
  "yahoo": 3229,
  "Grand": 3230,
  "Bello": 3231,
  "midia .": 3232,
  "phosa": 3233,
  "Progressive": 3234,
  "Yoruba": 3235,
  "Yusu": 3236,
  "Achebe": 3237,
  "Ibom": 3238,
  "Instagram": 3239,
  "akparamagwa": 3240,
  "College": 3241,
  "ụnyahụ": 3242,
  "jeriko": 3243,
  "Melaye": 3244,
  "WAEC": 3245,
  "Ramaphosa": 3246,
  "An": 3247,
  "Che": 3248,
  "fị": 3249,
  "py": 3250,
  "mah": 3251,
  "rer": 3252,
  "las": 3253,
  "uba": 3254,
  "kwa .": 3255,
  "ctu": 3256,
  "gba .": 3257,
  "izi": 3258,
  "aro": 3259,
  "akụnụ": 3260,
  "nkwọ": 3261,
  "zuru": 3262,
  "Idi": 3263,
  "Can": 3264,
  "  \" ma": 3265,
  "ọzọ ?": 3266,
  "bụ ?": 3267,
  "A )": 3268,
  "mmer": 3269,
  "Ami": 3270,
  "to ,": 3271,
  "ntị ,": 3272,
  "hony": 3273,
  "ụgbọmmiri": 3274,
  "unu .": 3275,
  "Chido": 3276,
  "nchekwa ,": 3277,
  "vie": 3278,
  "xit": 3279,
  "mmụọ .": 3280,
  "ezie ,": 3281,
  "bekee ,": 3282,
  "poli": 3283,
  "stry": 3284,
  "Paris": 3285,
  "mahadu": 3286,
  "fim": 3287,
  "ọhịa .": 3288,
  "leagu": 3289,
  "gers": 3290,
  "urop": 3291,
  " \" \" n' \"": 3292,
  "mọnde .": 3293,
  "arụsị": 3294,
  "30 ,": 3295,
  "Yobe": 3296,
  "Adesina": 3297,
  "Onwuama": 3298,
  "nsibi": 3299,
  "Ekiti": 3300,
  "Villa": 3301,
  "nzọpụta": 3302,
  "Omoye": 3303,
  "Cross": 3304,
  "ọbụna": 3305,
  "Italy": 3306,
  "Azik": 3307,
  "Oscar": 3308,
  "nnụnụ": 3309,
  "Dino": 3310,
  "Ronaldo": 3311,
  "Taraba": 3312,
  "lazarọs": 3313,
  "Madaga": 3314,
  "ebumnuche": 3315,
  "tụmadị": 3316,
  "Dabiri": 3317,
  "Norwich": 3318,
  "Anthony": 3319,
  "Brexit": 3320,
  "yurop": 3321,
  "Omoyele": 3322,
  "-A": 3323,
  "40": 3324,
  "kah": 3325,
  "kame": 3326,
  "Bru": 3327,
  "Iba": 3328,
  "nwe .": 3329,
  "tine": 3330,
  "ney": 3331,
  "awa": 3332,
  "gbu .": 3333,
  "Igha": 3334,
  "Osa": 3335,
  "buka": 3336,
  "so .": 3337,
  "iri ,": 3338,
  "dị ?": 3339,
  "ngụ": 3340,
  "Don": 3341,
  "on ,": 3342,
  "Mon": 3343,
  "baịbụl ?": 3344,
  "a . ”": 3345,
  "20 ,": 3346,
  "mma . ”": 3347,
  "niile . ”": 3348,
  "nor": 3349,
  "ogu": 3350,
  "agbara": 3351,
  "Dave": 3352,
  "Bles": 3353,
  "nka ,": 3354,
  "enyi ,": 3355,
  "udo ,": 3356,
  "Togo": 3357,
  "part": 3358,
  "Adama": 3359,
  "ụlọmkpọrọ": 3360,
  "ume .": 3361,
  "ohi .": 3362,
  "ejima": 3363,
  "uju .": 3364,
  "15 ,": 3365,
  "Action": 3366,
  " .  \" n' \"": 3367,
  "tics": 3368,
  "Amaechi": 3369,
  "Ezeife": 3370,
  "wenezde .": 3371,
  "Ondo": 3372,
  "tọzde .": 3373,
  " .  \" ihe \"": 3374,
  "2016 .": 3375,
  "Congo": 3376,
  "aja ,": 3377,
  "Peoples": 3378,
  "janụwarị": 3379,
  "bọjet": 3380,
  "Operation": 3381,
  "Norway": 3382,
  "Anajemba": 3383,
  "Channe": 3384,
  "General": 3385,
  "Germany": 3386,
  "Abraham": 3387,
  "Republic": 3388,
  "nesty": 3389,
  "injin": 3390,
  "Chukwuemeka": 3391,
  "Economic": 3392,
  "Njikọka": 3393,
  "Uzodinma": 3394,
  "NAFD": 3395,
  "Ighalo": 3396,
  "NAFDAC": 3397,
  "sy": 3398,
  "60": 3399,
  "EU": 3400,
  "AT": 3401,
  "wn": 3402,
  "FB": 3403,
  "Ve": 3404,
  "yị": 3405,
  "key": 3406,
  "Are": 3407,
  "vre": 3408,
  "Cla": 3409,
  "le ,": 3410,
  "re \"": 3411,
  "ziaka": 3412,
  "arọ": 3413,
  "Oli": 3414,
  "buike": 3415,
  "ịkpe": 3416,
  "ọchị .": 3417,
  "luk": 3418,
  "ezi ,": 3419,
  "“ ma": 3420,
  "jụụ": 3421,
  "ya ,  \" ": 3422,
  "por": 3423,
  "anụrị": 3424,
  "Flo": 3425,
  "osu": 3426,
  "ezigbote": 3427,
  "all": 3428,
  "abalị ,": 3429,
  "Chidi": 3430,
  "Gol": 3431,
  "APC .": 3432,
  "194": 3433,
  "iko .": 3434,
  "Ever": 3435,
  "Cus": 3436,
  "saụdi": 3437,
  "ụtụtụ ,": 3438,
  "bour": 3439,
  "awụ": 3440,
  " \" \" . \"": 3441,
  "mịnị": 3442,
  "onyinye ,": 3443,
  "icheiche .": 3444,
  "Boy": 3445,
  "Hope": 3446,
  "ụlọọgwụ .": 3447,
  "fai": 3448,
  "Osita": 3449,
  "ọgọst ,": 3450,
  "iberibe": 3451,
  "Now": 3452,
  "ịntaneti .": 3453,
  "Wat": 3454,
  "spen .": 3455,
  "Road": 3456,
  "IMF": 3457,
  "Abike": 3458,
  "Samson": 3459,
  "ww": 3460,
  "jw .": 3461,
  "Codeine": 3462,
  "Cosmas": 3463,
  "Foot": 3464,
  "Nye": 3465,
  "krismas": 3466,
  "bedel": 3467,
  "America": 3468,
  "Community": 3469,
  "Trans": 3470,
  "JAM": 3471,
  "Organi": 3472,
  "York": 3473,
  "Enyinnaya": 3474,
  "Spanish": 3475,
  "Women": 3476,
  "Kayode": 3477,
  "Channels": 3478,
  "FBI": 3479,
  "Turkey": 3480,
  "Everton": 3481,
  "Custom": 3482,
  "mịnịst": 3483,
  "Rufai": 3484,
  "www .": 3485,
  "Nyesom": 3486,
  "JAMB": 3487,
  "mịnịstrị": 3488,
  "bn": 3489,
  "Ash": 3490,
  "Gi": 3491,
  "27": 3492,
  "--": 3493,
  "Mna": 3494,
  "keke": 3495,
  "Tha": 3496,
  "gan": 3497,
  "gara": 3498,
  "ikwu": 3499,
  "Ekwu": 3500,
  "bel": 3501,
  "Ibe": 3502,
  "Udo": 3503,
  "nwa ,": 3504,
  "Rwa": 3505,
  "Asa": 3506,
  "kali": 3507,
  "ni ,": 3508,
  "nich": 3509,
  "Aso": 3510,
  "isiala": 3511,
  "Obo": 3512,
  "ses": 3513,
  "akwụna": 3514,
  "ang": 3515,
  " :  \" ": 3516,
  "ta ?": 3517,
  "kwu ?": 3518,
  "obi ?": 3519,
  "lint": 3520,
  "Roge": 3521,
  "Phi": 3522,
  "ikpe ,": 3523,
  "ato": 3524,
  "ahụ .  \" ": 3525,
  "Ber": 3526,
  "ụlọelu": 3527,
  "aha .": 3528,
  "nso ,": 3529,
  "Buru": 3530,
  "mkpa ,": 3531,
  "ngagwa": 3532,
  "abacha": 3533,
  "ọnụahịa": 3534,
  "alace": 3535,
  "tanya": 3536,
  "alje": 3537,
  "Inde": 3538,
  "pende": 3539,
  "Regi": 3540,
  "ụmụaka .": 3541,
  "egbe .": 3542,
  "nụ !": 3543,
  "ence": 3544,
  "ofesi .": 3545,
  "Cry": 3546,
  "Musta": 3547,
  "nzukọ .": 3548,
  "Kat": 3549,
  "Solo": 3550,
  "taa ?": 3551,
  "Sia": 3552,
  "Okechukwu": 3553,
  "Keshi": 3554,
  "ders": 3555,
  "ghton": 3556,
  "tical": 3557,
  "wenezde ,": 3558,
  "Equ": 3559,
  "mọnde ,": 3560,
  "uteeze": 3561,
  "babị": 3562,
  "ward": 3563,
  "Federation": 3564,
  "Grace": 3565,
  "ustin": 3566,
  "Prima": 3567,
  "Andre": 3568,
  "Spain": 3569,
  "klaasị": 3570,
  "Ebola": 3571,
  "Goog": 3572,
  "ibu .": 3573,
  "NYSC": 3574,
  "Awgu": 3575,
  "Australia": 3576,
  "ezinaụlọ": 3577,
  "alakụba": 3578,
  "Juventus": 3579,
  "Azikiwe": 3580,
  "Amnesty": 3581,
  "injinịa": 3582,
  "Lef": 3583,
  "ntuziaka": 3584,
  "Rwanda": 3585,
  "Munich": 3586,
  "Burundi": 3587,
  "Mnangagwa": 3588,
  "Netanya": 3589,
  "aljeria": 3590,
  "babịlọ": 3591,
  "Google": 3592,
  "Lefè": 3593,
  "Netanyahu": 3594,
  "Lefèvre": 3595,
  "ms": 3596,
  "dg": 3597,
  "45": 3598,
  "’ ,": 3599,
  "red": 3600,
  "nye .": 3601,
  "ril": 3602,
  "tte": 3603,
  "kọp": 3604,
  "ya \"": 3605,
  "nes": 3606,
  "Edo": 3607,
  "Ngo": 3608,
  "nisi": 3609,
  "sa .": 3610,
  "mgbe \"": 3611,
  "zu ,": 3612,
  "m ?": 3613,
  "ọrụ )": 3614,
  "“ obi": 3615,
  "“ anyị": 3616,
  "“ otu": 3617,
  "Kon": 3618,
  "ọka .": 3619,
  "Jor": 3620,
  "mmy": 3621,
  " ; )": 3622,
  "Magu": 3623,
  "ụmụahịa": 3624,
  "nsogbu ,": 3625,
  "kin": 3626,
  "Anya": 3627,
  "Hou": 3628,
  "ozuzo": 3629,
  "ugbo ,": 3630,
  "Sey": 3631,
  "ogidi": 3632,
  "ekere": 3633,
  "dary": 3634,
  "vement": 3635,
  "asị ,": 3636,
  "ntọala": 3637,
  "2018 :": 3638,
  "Jane": 3639,
  "mbize": 3640,
  "10 ,": 3641,
  "nwayọọ ,": 3642,
  "satọdee": 3643,
  "2017 ,": 3644,
  "fraịde ,": 3645,
  "Tacha": 3646,
  "Udemba .": 3647,
  "ohu .": 3648,
  "luk ,": 3649,
  "2014 .": 3650,
  "Fren": 3651,
  "Arabi": 3652,
  "Osho": 3653,
  "Maina": 3654,
  "Korea": 3655,
  "akpị": 3656,
  "Ange": 3657,
  "baptizim ,": 3658,
  "Yaku": 3659,
  "fransị": 3660,
  "nchụaja": 3661,
  "rinho": 3662,
  "nnwereonwe": 3663,
  "  \" bụ \"": 3664,
  "kpọmkwem": 3665,
  "High": 3666,
  "Que": 3667,
  "chelles": 3668,
  "mesaya": 3669,
  "Tanzania": 3670,
  "Jong-": 3671,
  "Yusuf": 3672,
  "papy": 3673,
  "Federer": 3674,
  "nsibidi": 3675,
  "kamel": 3676,
  "lestine": 3677,
  "Blessing": 3678,
  "Watford": 3679,
  "Independe": 3680,
  "Crystal": 3681,
  "Brighton": 3682,
  "Tunisi": 3683,
  "French": 3684,
  "Mourinho": 3685,
  "Seychelles": 3686,
  "papyrus": 3687,
  "un": 3688,
  "44": 3689,
  "Lo": 3690,
  "VC": 3691,
  "AI": 3692,
  "ṅa": 3693,
  "nan": 3694,
  "tra": 3695,
  "haa": 3696,
  "Ire": 3697,
  "uri": 3698,
  "lari": 3699,
  "rima": 3700,
  "riri": 3701,
  "Fri": 3702,
  "bal": 3703,
  "gba ,": 3704,
  "ube": 3705,
  "be .": 3706,
  "tia": 3707,
  "zi .": 3708,
  " \" ": 3709,
  "ru \"": 3710,
  "ta \"": 3711,
  "ebe ,": 3712,
  "nic": 3713,
  "mgbe ,": 3714,
  "bu ,": 3715,
  "ogwu": 3716,
  "ha :": 3717,
  "dah": 3718,
  "da .": 3719,
  "Nan": 3720,
  "  \" dị": 3721,
  "kpọ  \" ": 3722,
  " ) \"": 3723,
  "“ ha": 3724,
  "mi ,": 3725,
  "Whi": 3726,
  "nebọ": 3727,
  "mkpụ": 3728,
  "chineke . ”": 3729,
  "ord": 3730,
  "( S": 3731,
  "  \" ( ": 3732,
  "ọghọ": 3733,
  "ngwe": 3734,
  "mbụ :": 3735,
  "mou": 3736,
  "ful": 3737,
  "Amu": 3738,
  "iberi": 3739,
  "thy": 3740,
  "etiti .": 3741,
  "ngwa ,": 3742,
  "okwuchukwu": 3743,
  "Wal": 3744,
  "abalị .": 3745,
  "Anti": 3746,
  "oloko": 3747,
  "Oki": 3748,
  "195": 3749,
  "izu ,": 3750,
  "ụkwụ .": 3751,
  "obere .": 3752,
  "“ mkpụrụ": 3753,
  "Law": 3754,
  "Nigeria :": 3755,
  "pito": 3756,
  "e !": 3757,
  "Hen": 3758,
  "tary": 3759,
  "osisi ,": 3760,
  "obiano ,": 3761,
  "ọtọ ,": 3762,
  "ahụike ,": 3763,
  "gboo ,": 3764,
  "izrel ,": 3765,
  "Camp": 3766,
  "Jide": 3767,
  "Patri": 3768,
  "imiri": 3769,
  "11 ,": 3770,
  "SSOB": 3771,
  "ctoral": 3772,
  "2015 ,": 3773,
  "mgbọrọ": 3774,
  "que": 3775,
  "Tiwa": 3776,
  "arụrụ": 3777,
  "ọstra": 3778,
  "Mohamed": 3779,
  "ndina": 3780,
  "BBNaija": 3781,
  "anusi": 3782,
  "ball": 3783,
  "shola": 3784,
  "abuja ,": 3785,
  "Martin": 3786,
  "gwongworo": 3787,
  "Umeh": 3788,
  "2020 .": 3789,
  "gburugburu ,": 3790,
  "Ndubu": 3791,
  "jenesi": 3792,
  "Sheffi": 3793,
  "Forest": 3794,
  "Aguleri": 3795,
  "Gabon": 3796,
  "sekọnd": 3797,
  "Festus": 3798,
  "Isaac": 3799,
  "ndagwuru": 3800,
  "Sokoto": 3801,
  "Ministry": 3802,
  "Rangers": 3803,
  "Customs": 3804,
  "Katsina": 3805,
  "dgz .": 3806,
  "Queen": 3807,
  "MASSOB": 3808,
  "Electoral": 3809,
  "Sheffield": 3810,
  "ndagwurugwu": 3811,
  "mb": 3812,
  "oo": 3813,
  "IA": 3814,
  "uke": 3815,
  "nye ,": 3816,
  "meya": 3817,
  "Isi": 3818,
  "Dru": 3819,
  "Uba": 3820,
  "Agba": 3821,
  "la \"": 3822,
  "neu": 3823,
  "li ,": 3824,
  "Dike": 3825,
  "nie": 3826,
  "rumba": 3827,
  "ndị  \" ": 3828,
  "a  \" ": 3829,
  "mmadụ ?": 3830,
  "mmekọ": 3831,
  "mmebi": 3832,
  "“ na-": 3833,
  "sion": 3834,
  "ọsụ": 3835,
  "ost": 3836,
  "aka . ”": 3837,
  "ọchịagha": 3838,
  "ọnwa .": 3839,
  "soja": 3840,
  "asara": 3841,
  "gọọmentị ,": 3842,
  " ; ,": 3843,
  "gua": 3844,
  "Amo": 3845,
  "Ilo": 3846,
  "nwunye .": 3847,
  "War": 3848,
  "ekpenta": 3849,
  "gịnị ?": 3850,
  "col": 3851,
  "ọrịa ,": 3852,
  "lation": 3853,
  "aland": 3854,
  "mmụọ ,": 3855,
  "ee ,": 3856,
  "nka .": 3857,
  "Indo": 3858,
  "ugboro .": 3859,
  "rance": 3860,
  "lius": 3861,
  "pọtị": 3862,
  "Ney": 3863,
  "omume .": 3864,
  "omume ,": 3865,
  "gement": 3866,
  "2007": 3867,
  "Achu": 3868,
  "briel": 3869,
  "Abacha": 3870,
  "gboo .": 3871,
  "Ojo": 3872,
  "14 )": 3873,
  "Okeke": 3874,
  "Jere": 3875,
  "nsọpụrụ": 3876,
  "Gover": 3877,
  "Oyo": 3878,
  "Tech": 3879,
  "ọktoba .": 3880,
  "Onyema": 3881,
  " \" \" na \"": 3882,
  "  \" o \"": 3883,
  "Arabia": 3884,
  "Zaina": 3885,
  "emeodo": 3886,
  "Osuji": 3887,
  "Syria": 3888,
  "Ejike": 3889,
  "shua": 3890,
  "gburugburu .": 3891,
  "Nwankwo": 3892,
  "iteghete ,": 3893,
  "Nnabuihe": 3894,
  "Khafi": 3895,
  "Kukah": 3896,
  "Moses": 3897,
  "Andrew": 3898,
  "Cyril": 3899,
  "ekeresime": 3900,
  "Movement": 3901,
  "Yakubu": 3902,
  "hoohaa": 3903,
  "Jideọfọ": 3904,
  "imirikiti": 3905,
  "Zealand": 3906,
  "Gabriel": 3907,
  "Zainab": 3908,
  "Onwuemeodo": 3909,
  "et": 3910,
  "lt": 3911,
  "yu": 3912,
  "HO": 3913,
  "UT": 3914,
  "Mc": 3915,
  "47": 3916,
  "NN": 3917,
  "ska": 3918,
  "har": 3919,
  "pre": 3920,
  "Asi": 3921,
  "Okwu": 3922,
  "bar": 3923,
  "Abe": 3924,
  "te \"": 3925,
  "wan": 3926,
  "lip": 3927,
  "Bebe": 3928,
  "stọ": 3929,
  "Agbo": 3930,
  "ge :": 3931,
  "Akpa": 3932,
  "melu": 3933,
  "Gan": 3934,
  "ka  \" ": 3935,
  "rụ ?": 3936,
  "nubu": 3937,
  "Chile": 3938,
  "niile ?": 3939,
  "m )": 3940,
  "koro": 3941,
  "kamp": 3942,
  "mpị": 3943,
  "mmerụ": 3944,
  "“ dị": 3945,
  "ụdọ": 3946,
  "lia .": 3947,
  "tor": 3948,
  "rto": 3949,
  "ozizi": 3950,
  "Per": 3951,
  "ọha .": 3952,
  "2012": 3953,
  "anyị . ”": 3954,
  "ọzọ . ”": 3955,
  "( gba": 3956,
  "huru": 3957,
  "mkparị": 3958,
  "elị": 3959,
  "Wole": 3960,
  "oju": 3961,
  "asaba": 3962,
  "ha ;": 3963,
  "eziokwu . ”": 3964,
  "alo": 3965,
  "loma": 3966,
  "nchekwu": 3967,
  "mgbali": 3968,
  "ngwa .": 3969,
  "nder": 3970,
  "kemgbe .": 3971,
  "ters": 3972,
  "penal": 3973,
  "Wil": 3974,
  "( APC": 3975,
  "ugbog": 3976,
  "njem .": 3977,
  "ụgbọala .": 3978,
  "ọgụ ,": 3979,
  "mkpụrụ .": 3980,
  "enyi .": 3981,
  "Haram .": 3982,
  "njọ ,": 3983,
  "itoolu ,": 3984,
  "Al-": 3985,
  "Alha": 3986,
  "ahụhụ ,": 3987,
  "Bale": 3988,
  "sịga ,": 3989,
  "Rock": 3990,
  "Kabi": 3991,
  "fiele": 3992,
  "iyi .": 3993,
  "Abang": 3994,
  "shing": 3995,
  "14 ,": 3996,
  "Rabi": 3997,
  "ụjọ .": 3998,
  "Hau": 3999,
  "mọn": 4000,
  "ifufe": 4001,
  "Chukwuma": 4002,
  "Zida": 4003,
  "nkịtị .": 4004,
  "Auba": 4005,
  "maachị .": 4006,
  "bịbịa": 4007,
  "Otti": 4008,
  "pital": 4009,
  "paradaịs": 4010,
  "udele": 4011,
  "Lione": 4012,
  "mmanya .": 4013,
  "nghọtahie": 4014,
  "ọsịsa": 4015,
  "Morsi": 4016,
  "Bridge": 4017,
  " .  \" mana \"": 4018,
  "burg": 4019,
  "Xenophobia": 4020,
  "Obiora": 4021,
  "Russia": 4022,
  "Anglịkan": 4023,
  "Emmer": 4024,
  "Onwuamaegbu": 4025,
  "Palace": 4026,
  "Solomon": 4027,
  "Siasia": 4028,
  "Ngozi": 4029,
  "Secondary": 4030,
  "Ireland": 4031,
  "ọghọm": 4032,
  "Powerful": 4033,
  "mgbọrọgwụ": 4034,
  "meyang": 4035,
  "neumo": 4036,
  "ọrumba": 4037,
  "Nasara": 4038,
  "Neymar": 4039,
  "Management": 4040,
  "NNPC": 4041,
  "Tinubu": 4042,
  "kampanọ": 4043,
  "ojuju": 4044,
  "penalty": 4045,
  "Emefiele": 4046,
  "Lionel": 4047,
  "Emmerson": 4048,
  "Aubameyang": 4049,
  "Ya": 4050,
  "CC": 4051,
  "35": 4052,
  "90": 4053,
  "kpi": 4054,
  "mad": 4055,
  "t ,": 4056,
  "ker": 4057,
  "kara": 4058,
  "ire": 4059,
  "Fre": 4060,
  "Oga": 4061,
  "Sla": 4062,
  "sin": 4063,
  "sir": 4064,
  "ịba": 4065,
  "utu": 4066,
  "bez": 4067,
  "ebi": 4068,
  "we ,": 4069,
  "ị \"": 4070,
  "wal": 4071,
  "line": 4072,
  "roc": 4073,
  "ribu": 4074,
  "la :": 4075,
  "kpakpa": 4076,
  "sanya": 4077,
  "odi": 4078,
  "  \" e": 4079,
  "ọrụ ?": 4080,
  "ala ?": 4081,
  "nant": 4082,
  "ogene": 4083,
  "sọl": 4084,
  "fer": 4085,
  "fe .": 4086,
  "“ na-e": 4087,
  "“ le": 4088,
  "“ mmadụ": 4089,
  " ” .": 4090,
  "zon": 4091,
  "nmi": 4092,
  "Thi": 4093,
  "ọchịchịrị": 4094,
  "ihe . ”": 4095,
  "Buhari .": 4096,
  "nna ,": 4097,
  "( $": 4098,
  "nja": 4099,
  "gọọmentị .": 4100,
  "Mat": 4101,
  "re ;": 4102,
  "igwe ,": 4103,
  "arch": 4104,
  "ngwangwa": 4105,
  "akwara": 4106,
  "yemi": 4107,
  "Rede": 4108,
  "Sule": 4109,
  "ehi ,": 4110,
  "nnupụ": 4111,
  "ụkwụ ,": 4112,
  "anụmanụ .": 4113,
  "reen": 4114,
  "ọdụm": 4115,
  "cie": 4116,
  "nkịrị": 4117,
  "Arth": 4118,
  "kedụ \"": 4119,
  "Leah": 4120,
  "mson": 4121,
  "enyemaka .": 4122,
  "oriri .": 4123,
  "odee": 4124,
  "ọnịcha .": 4125,
  "shia": 4126,
  "ijipt ,": 4127,
  "asịrị": 4128,
  "Bob": 4129,
  "Weah": 4130,
  "Radio": 4131,
  "China .": 4132,
  "election": 4133,
  "11 )": 4134,
  "ekwo": 4135,
  "2 - ": 4136,
  "13 )": 4137,
  "Lassa": 4138,
  "Adinu": 4139,
  " .  \" nke \"": 4140,
  "card": 4141,
  "Election :": 4142,
  "Emzor": 4143,
  "2023 .": 4144,
  "Kanu :": 4145,
  "Allen": 4146,
  "nsụgharị": 4147,
  "Eliza": 4148,
  "frey": 4149,
  "llion": 4150,
  "Odume": 4151,
  "ekike": 4152,
  "latịn": 4153,
  "Nsuk": 4154,
  "Hos": 4155,
  "diocese": 4156,
  "Ejiofor": 4157,
  "Kingsley": 4158,
  "ructu": 4159,
  "nebuka": 4160,
  "Golden": 4161,
  "awụsa": 4162,
  "El-Rufai": 4163,
  "ụlọikwu": 4164,
  "Regina": 4165,
  "Mustapha": 4166,
  "babịlọn": 4167,
  "Highli": 4168,
  "Independent": 4169,
  "siriri": 4170,
  "kapito": 4171,
  "pastọ": 4172,
  "nchekwube": 4173,
  "Washing": 4174,
  "ọbịbịa": 4175,
  "Pneumo": 4176,
  "bezbọ": 4177,
  "kpakpando": 4178,
  "Arthur": 4179,
  "Thomson": 4180,
  "nebukadne": 4181,
  "ụlọikwuu": 4182,
  "Washington": 4183,
  "Pneumonia": 4184,
  "at": 4185,
  "ed": 4186,
  "ut": 4187,
  "43": 4188,
  "39": 4189,
  "Of": 4190,
  "1.": 4191,
  "Oma": 4192,
  "men": 4193,
  "ọta": 4194,
  "Aya": 4195,
  "lap": 4196,
  "Ari": 4197,
  "marị": 4198,
  "oba": 4199,
  "nte": 4200,
  "rate": 4201,
  "tel": 4202,
  "ịtụ": 4203,
  "lebe": 4204,
  "bio": 4205,
  "pụl": 4206,
  "che ,": 4207,
  "Swe": 4208,
  "Ide": 4209,
  "Odo": 4210,
  "kafọ": 4211,
  "ndịisi": 4212,
  "ebe \"": 4213,
  "ghani": 4214,
  "2 :": 4215,
  "te :": 4216,
  "lue": 4217,
  "Ije": 4218,
  "ọ ?": 4219,
  "nuk": 4220,
  "dibịa": 4221,
  "oge \"": 4222,
  "s )": 4223,
  "kuzi": 4224,
  "“ na-a": 4225,
  "“ nke": 4226,
  "ision": 4227,
  "Emi": 4228,
  "ria .": 4229,
  "ca .": 4230,
  "toma": 4231,
  "jụ ,": 4232,
  "ria ,": 4233,
  "Ter": 4234,
  "ndụ . ”": 4235,
  "obi . ”": 4236,
  "ory": 4237,
  "uru ?": 4238,
  "ole .": 4239,
  "gọọmentị \"": 4240,
  "agwọ": 4241,
  "ahụ ;": 4242,
  "zara": 4243,
  "Nwoko": 4244,
  "umu": 4245,
  "los": 4246,
  "atụ .": 4247,
  "mgbago": 4248,
  "Libe": 4249,
  "sus": 4250,
  "amaokwu": 4251,
  "cou": 4252,
  "ụtọ . ”": 4253,
  "stant": 4254,
  "Chinu": 4255,
  "Bol": 4256,
  "Roma": 4257,
  "Roti": 4258,
  "ikom": 4259,
  "uche .": 4260,
  "nzuzu": 4261,
  "ụgbọala ,": 4262,
  "Red": 4263,
  "kraịst . ”": 4264,
  "ezie .": 4265,
  "Mogha": 4266,
  "Coa": 4267,
  "PDP .": 4268,
  "pper": 4269,
  "anyanwụ ,": 4270,
  "Fani": 4271,
  "Den": 4272,
  "Mary": 4273,
  "Mur": 4274,
  "tico": 4275,
  "mkpọrọ ,": 4276,
  "media": 4277,
  "Binta": 4278,
  "lass": 4279,
  "Vir": 4280,
  "ultu": 4281,
  "South ,": 4282,
  "mberede .": 4283,
  "10 )": 4284,
  "bịafra .": 4285,
  "nzuzo ,": 4286,
  "tiusde ,": 4287,
  "sman": 4288,
  "Adams": 4289,
  "Ango": 4290,
  "therland": 4291,
  "mpton": 4292,
  "efu .": 4293,
  "Cathe": 4294,
  "ọkọchị": 4295,
  "listra": 4296,
  "Onyebu": 4297,
  "gboo ?": 4298,
  "Border": 4299,
  "FAAN": 4300,
  "Elkana": 4301,
  "eprel ,": 4302,
  "windo": 4303,
  "eriri": 4304,
  "frans": 4305,
  "Godwin": 4306,
  "Open": 4307,
  "Chisom": 4308,
  "Day :": 4309,
  "Milan": 4310,
  "CAF": 4311,
  " .  \" a \"": 4312,
  "mwere": 4313,
  "Innocent": 4314,
  "ilding": 4315,
  "nwamkpị": 4316,
  "Harry": 4317,
  "curity": 4318,
  " .  \" akụkọ \"": 4319,
  "Soludo": 4320,
  "mmehie .": 4321,
  "Idigo": 4322,
  "mahadum ,": 4323,
  "Ibadan": 4324,
  "Vene": 4325,
  "abakali": 4326,
  "kenan": 4327,
  "ekperima": 4328,
  "nebọt": 4329,
  "iberiibe": 4330,
  "Henry": 4331,
  "Sanusi": 4332,
  "Fashola": 4333,
  "pọtịfa": 4334,
  "Achuzi": 4335,
  "Joshua": 4336,
  "WHO": 4337,
  "Uloma": 4338,
  "Alhaji": 4339,
  "Moroc": 4340,
  "nnupụisi": 4341,
  "Odumegwu": 4342,
  "ructuring": 4343,
  "ịtụna": 4344,
  "Ọkafọ": 4345,
  "Rotimi": 4346,
  "abakaliki": 4347,
  "Morocco": 4348,
  "em": 4349,
  "ex": 4350,
  "Ci": 4351,
  "dd": 4352,
  "ER": 4353,
  "88": 4354,
  "77": 4355,
  "PP": 4356,
  "Ly": 4357,
  "Mma": 4358,
  "ị ,": 4359,
  "Eke": 4360,
  "Iya": 4361,
  "Eri": 4362,
  "kwara": 4363,
  "nwe ,": 4364,
  "Ebe": 4365,
  "Achi": 4366,
  "s \"": 4367,
  "blọ": 4368,
  "dor": 4369,
  "nkewa": 4370,
  "gbu ,": 4371,
  "ebe .": 4372,
  "ebee": 4373,
  "maka \"": 4374,
  "obu": 4375,
  "gbo ,": 4376,
  "ngwu": 4377,
  "ase": 4378,
  "ngọ": 4379,
  "Azu": 4380,
  "Van": 4381,
  "Pan": 4382,
  "otu  \" ": 4383,
  "la ?": 4384,
  "nụ ?": 4385,
  "refe": 4386,
  "“ okwu": 4387,
  "tebụl": 4388,
  "uhi": 4389,
  "lụ .": 4390,
  "ndụ ?": 4391,
  "zị ,": 4392,
  "Mozi": 4393,
  "ha .  \" ": 4394,
  "ụwa . ”": 4395,
  "“ nna": 4396,
  "ggi": 4397,
  "nnes": 4398,
  "Gana": 4399,
  "jizọs ?": 4400,
  "lịka": 4401,
  "Mali": 4402,
  "mola": 4403,
  "unyi": 4404,
  "ntụliaka ,": 4405,
  "ọgwụ ,": 4406,
  "unu . ”": 4407,
  "unu ,": 4408,
  "etiti ,": 4409,
  "Nimo": 4410,
  "tunde": 4411,
  "ntial": 4412,
  "tter": 4413,
  "ụgwọ ,": 4414,
  "sation": 4415,
  "nchekwa .": 4416,
  "ng :": 4417,
  "Fl": 4418,
  "19 )": 4419,
  "ugbo .": 4420,
  "ham ,": 4421,
  "izu .": 4422,
  "izuu": 4423,
  "oye": 4424,
  "nkarị": 4425,
  "ụmụaka ,": 4426,
  "ebere .": 4427,
  "ebere ,": 4428,
  "Josef ,": 4429,
  "legọs ,": 4430,
  "Awo": 4431,
  "Bau": 4432,
  "fia": 4433,
  "Bara": 4434,
  "kanda": 4435,
  "ọhịa ,": 4436,
  "city": 4437,
  "mamị": 4438,
  "arụ .": 4439,
  "sị ,  \" ": 4440,
  "Sadio": 4441,
  "rison": 4442,
  "ulga": 4443,
  "ọmụma": 4444,
  "dral": 4445,
  "Ekweremadu :": 4446,
  "imon": 4447,
  "ozugbo ,": 4448,
  "Hong": 4449,
  "kunle": 4450,
  "15 )": 4451,
  "Gea": 4452,
  "face": 4453,
  "ọgọst .": 4454,
  "...": 4455,
  "17 )": 4456,
  "1 - ": 4457,
  "187": 4458,
  "owerri ,": 4459,
  "umengwụ": 4460,
  "-Olu": 4461,
  "Oby": 4462,
  "stitu": 4463,
  "agboro": 4464,
  "Onyeama": 4465,
  "ndidi": 4466,
  "Kore": 4467,
  "rence": 4468,
  "Ogbodo": 4469,
  "Ogbonna": 4470,
  "Uchendu": 4471,
  "Sanche": 4472,
  "nnochite": 4473,
  "mbịarambịara": 4474,
  "ogiri": 4475,
  "Poly": 4476,
  "Holy": 4477,
  "Burnle": 4478,
  "________________": 4479,
  "ozubulu": 4480,
  "Evan": 4481,
  "ig .": 4482,
  "Ndidi": 4483,
  "pound": 4484,
  "FaceApp": 4485,
  "Police": 4486,
  "izizi": 4487,
  "league": 4488,
  "Labour": 4489,
  "Thai": 4490,
  "Klint": 4491,
  "Tunisia": 4492,
  "PVC": 4493,
  "AIT": 4494,
  "Friday": 4495,
  "ekeresimesi": 4496,
  "Gandu": 4497,
  "Ahmad": 4498,
  "Adinuba": 4499,
  "praịmarị": 4500,
  "Afghani": 4501,
  "Netherland": 4502,
  "Security": 4503,
  "Presidential": 4504,
  "Flyi": 4505,
  "Barack": 4506,
  "Cathedral": 4507,
  "Simon": 4508,
  "Sanchez": 4509,
  "Burnley": 4510,
  "Flying": 4511,
  "as": 4512,
  "ns": 4513,
  "Dr": 4514,
  "''": 4515,
  "NC": 4516,
  "9.": 4517,
  "MM": 4518,
  "Ac": 4519,
  "55": 4520,
  "TA": 4521,
  "FR": 4522,
  "-N": 4523,
  "ka-": 4524,
  "y ,": 4525,
  "ndị .": 4526,
  "na-i": 4527,
  "lag": 4528,
  "Akwu": 4529,
  "be ,": 4530,
  "ler": 4531,
  "pụ ,": 4532,
  "de ,": 4533,
  "gawa": 4534,
  "kwụ .": 4535,
  "Ugo": 4536,
  "nkesa": 4537,
  "ero": 4538,
  "ani": 4539,
  "mgbe .": 4540,
  "ọchị ,": 4541,
  "kpa .": 4542,
  "Okpa": 4543,
  "anyasị": 4544,
  "an ,": 4545,
  "okwu ?": 4546,
  "ike ?": 4547,
  "rant": 4548,
  "ụgụ": 4549,
  "ya . ,": 4550,
  "Iko": 4551,
  "fe ,": 4552,
  "“ mụ": 4553,
  "“ si": 4554,
  "20 )": 4555,
  "pa ,": 4556,
  "ike . ”": 4557,
  "gị . ”": 4558,
  "Por": 4559,
  "apa": 4560,
  "ugbua": 4561,
  "nne ,": 4562,
  "nnekwu": 4563,
  "jani": 4564,
  "sị ;": 4565,
  "a ;": 4566,
  "Kwara": 4567,
  "bank": 4568,
  "fu .": 4569,
  "lehe": 4570,
  "asọmpi .": 4571,
  "nche ,": 4572,
  "mgbagha": 4573,
  "nwunye ,": 4574,
  "Maria": 4575,
  "beth": 4576,
  "isu": 4577,
  "NAP": 4578,
  "zation": 4579,
  "Rom": 4580,
  "ghe ,": 4581,
  "Lamp": 4582,
  "anụmanụ ,": 4583,
  "Sava": 4584,
  "Safe": 4585,
  "nkuzi ,": 4586,
  "cation": 4587,
  "Ohu": 4588,
  "anyanwụ .": 4589,
  "patị": 4590,
  "Fai": 4591,
  "akpati": 4592,
  "Paki": 4593,
  "Bash": 4594,
  "lity": 4595,
  "land .": 4596,
  "Stan": 4597,
  "mood": 4598,
  "Fir": 4599,
  "Gir": 4600,
  "oyi ,": 4601,
  "ntọrọ": 4602,
  "inta": 4603,
  "atụrụ ,": 4604,
  "ojo": 4605,
  "bịafra ,": 4606,
  "Mark": 4607,
  "tors": 4608,
  "ekwentị ,": 4609,
  "Dick": 4610,
  "ogologo .": 4611,
  "ngozi": 4612,
  "mber": 4613,
  "Fund": 4614,
  "Court": 4615,
  "deau": 4616,
  "tọzde ,": 4617,
  "kirie": 4618,
  "Okorie": 4619,
  "London .": 4620,
  "jamanị .": 4621,
  "esere": 4622,
  "berg": 4623,
  "England .": 4624,
  "Asse": 4625,
  "ghts": 4626,
  "kepukepu": 4627,
  "Corpo": 4628,
  "Belgi": 4629,
  "social": 4630,
  "Social": 4631,
  "Hollywood": 4632,
  "aịza": 4633,
  "ọbọgwụ": 4634,
  "Indigen": 4635,
  "Cyber": 4636,
  "nkwupụta": 4637,
  "Ajayi": 4638,
  "fred": 4639,
  "ogidi ,": 4640,
  "Secondu": 4641,
  "Malay": 4642,
  "stone": 4643,
  "ssey": 4644,
  "alụkwaghịm .": 4645,
  "Benue ,": 4646,
  "tebulu": 4647,
  "Bill": 4648,
  "Atle": 4649,
  "Lagar": 4650,
  "Crime": 4651,
  "Eid": 4652,
  "Califor": 4653,
  "Danda": 4654,
  "Leban": 4655,
  "fịọ": 4656,
  "zuruike": 4657,
  "Aminu": 4658,
  "Oscars": 4659,
  "Depart": 4660,
  "Ball": 4661,
  "Edward": 4662,
  "Austin": 4663,
  "kọpta": 4664,
  "Selari": 4665,
  "  \" . \" \" ": 4666,
  "ngwere": 4667,
  "Football": 4668,
  "jenesis": 4669,
  "sekọndrị": 4670,
  "mmekọahụ": 4671,
  "surance": 4672,
  "Jeremy": 4673,
  "Techno": 4674,
  "( APC )": 4675,
  "Zidane": 4676,
  "Nasarawa": 4677,
  "kampanọs": 4678,
  "Nasir": 4679,
  "Adesanya": 4680,
  "lapse": 4681,
  "vision": 4682,
  "Usman": 4683,
  "Okwara": 4684,
  "Morrison": 4685,
  "Ganduje": 4686,
  "Romney": 4687,
  "Lampard": 4688,
  "Savage": 4689,
  "Ohuabu": 4690,
  "Mahmood": 4691,
  "intanet": 4692,
  "Indigenous": 4693,
  "Atletico": 4694,
  "Dandaura": 4695,
  "Department": 4696,
  "Okwaraji": 4697,
  "aa": 4698,
  "Wo": 4699,
  "EF": 4700,
  "Ok": 4701,
  "Chu": 4702,
  "AB": 4703,
  "80": 4704,
  "85": 4705,
  "OG": 4706,
  "EE": 4707,
  "46": 4708,
  "Oka": 4709,
  "maị": 4710,
  "Ira": 4711,
  "rac": 4712,
  "yan": 4713,
  "ila": 4714,
  "sic": 4715,
  "bsi": 4716,
  "rum": 4717,
  "bata": 4718,
  "Akwa": 4719,
  "kọrị": 4720,
  "akari": 4721,
  "tado": 4722,
  "anwa": 4723,
  "ụsa": 4724,
  "nike": 4725,
  "nite": 4726,
  "bode": 4727,
  "zue": 4728,
  "Kan": 4729,
  "dian": 4730,
  "anti": 4731,
  "  \" kwu": 4732,
  "rụ  \" ": 4733,
  "ha  \" ": 4734,
  "onu": 4735,
  "bịam": 4736,
  "nko": 4737,
  "mpa": 4738,
  "“ abụ": 4739,
  "igbo :": 4740,
  "nwaanyị ?": 4741,
  "mise": 4742,
  "ọnụma": 4743,
  "ọnụnụ": 4744,
  "ozie": 4745,
  "aha ,": 4746,
  "Okpo": 4747,
  "2011": 4748,
  "baịbụl . ”": 4749,
  "wor": 4750,
  "gidi": 4751,
  "pal": 4752,
  "1 ;": 4753,
  "abụ ;": 4754,
  "gu ,": 4755,
  "llo": 4756,
  "Fin": 4757,
  "egwuregwu .": 4758,
  " .  \" a": 4759,
  "Tar": 4760,
  "reth": 4761,
  "Laf": 4762,
  "chukwu ,": 4763,
  "Cal": 4764,
  "Fou": 4765,
  "gịnị \"": 4766,
  "ozu ,": 4767,
  "Aki": 4768,
  "ning": 4769,
  "ling": 4770,
  "puku ,": 4771,
  "iko ,": 4772,
  "ụlọikpe ,": 4773,
  "rom .": 4774,
  "mpụta": 4775,
  "Lig": 4776,
  "- 5": 4777,
  "obere ,": 4778,
  "Cris": 4779,
  "PDP ,": 4780,
  "ahụhụ ?": 4781,
  "TIP": 4782,
  "Ken": 4783,
  "mmeri .": 4784,
  "ijere": 4785,
  "ụtụtụ .": 4786,
  "Sci": 4787,
  "Sco": 4788,
  "Adam .": 4789,
  "okwukwe .": 4790,
  "Adeye": 4791,
  "ọmị": 4792,
  "nment": 4793,
  "Rita": 4794,
  "nnọchi": 4795,
  "ụlọụka .": 4796,
  "ctri": 4797,
  "akpụ .": 4798,
  "ọnyụ": 4799,
  "Sky": 4800,
  "Ekweremadu .": 4801,
  "Boni": 4802,
  "ọdịnihu ?": 4803,
  "Ray": 4804,
  "satọdee .": 4805,
  "Chukwudi": 4806,
  "Jessi": 4807,
  "Twitter .": 4808,
  "Nigeria .": 4809,
  "News": 4810,
  "Ayo": 4811,
  "Tai": 4812,
  "ubi ,": 4813,
  "Anao": 4814,
  " \" \" , \"": 4815,
  "julaị .": 4816,
  "ries :": 4817,
  "ries": 4818,
  "septemba .": 4819,
  "Obama ,": 4820,
  "adịgboroja .": 4821,
  "inọk .": 4822,
  "Fr .": 4823,
  "Sick": 4824,
  "2013 .": 4825,
  "dium": 4826,
  "nger": 4827,
  "Bible": 4828,
  "nzere": 4829,
  "Light": 4830,
  "Centre": 4831,
  "midia ,": 4832,
  "Valen": 4833,
  "kpamkpam": 4834,
  "kpamkpam .": 4835,
  "Ajax": 4836,
  "welle": 4837,
  "aịzik": 4838,
  "Fire": 4839,
  "prote": 4840,
  "Okeke ,": 4841,
  "Boston": 4842,
  "Aston": 4843,
  "YouTu": 4844,
  "NBC": 4845,
  "Odekpe": 4846,
  "saịt": 4847,
  "NEMA": 4848,
  "President": 4849,
  "Augusti": 4850,
  "Amaraizu": 4851,
  "Alexandra": 4852,
  "Onumah": 4853,
  "  \" ma \"": 4854,
  "ngụkọ": 4855,
  "Nwagbara": 4856,
  "Adamawa": 4857,
  "Equato": 4858,
  "Jordan": 4859,
  "Tammy": 4860,
  "House": 4861,
  "akpịrị": 4862,
  "Jong-un": 4863,
  "mouth": 4864,
  "Patrick": 4865,
  "Queens": 4866,
  "Julius": 4867,
  "Madagaska": 4868,
  "Philip": 4869,
  "Amazon": 4870,
  "Nsukka": 4871,
  "Hospital": 4872,
  "nebukadneza": 4873,
  "Akpabio": 4874,
  "Sweden": 4875,
  "Liberia": 4876,
  "Moghalu": 4877,
  "Virgi": 4878,
  "Angola": 4879,
  "Onyebuchi": 4880,
  "Building": 4881,
  "Babatunde": 4882,
  "Organisation": 4883,
  "mamịrị": 4884,
  "Evans": 4885,
  "Afghanistan": 4886,
  "Tijani": 4887,
  "Safety": 4888,
  "Bashir": 4889,
  "Bassey": 4890,
  "Ohuabunwa": 4891,
  "Iraq": 4892,
  "urtado": 4893,
  "ụbịam": 4894,
  "Promise": 4895,
  "NAPTIP": 4896,
  "Science": 4897,
  "Sickle": 4898,
  "Equatorial": 4899,
  "ọf": 4900,
  "ịs": 4901,
  "32": 4902,
  "ts": 4903,
  "sk": 4904,
  "Zu": 4905,
  "8.": 4906,
  "95": 4907,
  "wọ": 4908,
  "Ona": 4909,
  "d ,": 4910,
  "ke .": 4911,
  "mer": 4912,
  "ure": 4913,
  "ret": 4914,
  "lta": 4915,
  "Ata": 4916,
  "Sri": 4917,
  "Ori": 4918,
  "nke ,": 4919,
  "onye .": 4920,
  "ale": 4921,
  "zi ,": 4922,
  "kọ .": 4923,
  "ichi": 4924,
  "otu \"": 4925,
  "acha": 4926,
  "deji": 4927,
  "dom": 4928,
  "nwaa": 4929,
  "isisi": 4930,
  "sara": 4931,
  "lim": 4932,
  "ahụike": 4933,
  "tọ ,": 4934,
  "ege": 4935,
  "sola": 4936,
  "Cala": 4937,
  "Agwu": 4938,
  "Ekpe": 4939,
  "ebo": 4940,
  "bor": 4941,
  "nse": 4942,
  "lum": 4943,
  "lub": 4944,
  "Izu": 4945,
  "te ?": 4946,
  "ga ?": 4947,
  "ihe ?": 4948,
  "N )": 4949,
  "mpany": 4950,
  "sọlọ": 4951,
  "“ ezi": 4952,
  "“ oge": 4953,
  "nton": 4954,
  "za .": 4955,
  "zer": 4956,
  "ụbọ": 4957,
  "lụ ,": 4958,
  "Fer": 4959,
  "ukpo": 4960,
  "kpo ,": 4961,
  "sts": 4962,
  "ọma ?": 4963,
  "mmadụ . ”": 4964,
  "Buhari :": 4965,
  "( nke": 4966,
  "uru . ”": 4967,
  "Anne": 4968,
  "Cole": 4969,
  "nta ,": 4970,
  "Mata": 4971,
  "Maku": 4972,
  "Joha": 4973,
  "gue": 4974,
  "igwe .": 4975,
  "plo": 4976,
  "ọgbata": 4977,
  "Lin": 4978,
  "thle": 4979,
  "amam": 4980,
  "ọjọọ ?": 4981,
  "ụtọ ?": 4982,
  "sista": 4983,
  "Chika": 4984,
  "“ gịnị": 4985,
  "zo .": 4986,
  "Ozo": 4987,
  "mbọmbọ": 4988,
  "via": 4989,
  "ekpere ?": 4990,
  "ven": 4991,
  "ụkpụrụ": 4992,
  "ehi .": 4993,
  "ada .": 4994,
  "echi .": 4995,
  "echi ,": 4996,
  "mmemme .": 4997,
  "mmemme ,": 4998,
  "ru ,  \" ": 4999,
  "egbe ,": 5000,
  "Code": 5001,
  "Cove": 5002,
  "Seme": 5003,
  "nwata ,": 5004,
  "ngapo": 5005,
  "charis": 5006,
  "nica": 5007,
  "anca": 5008,
  "m !": 5009,
  "itoolu .": 5010,
  "Nwabu": 5011,
  "( IPOB": 5012,
  "Muel": 5013,
  "sịga .": 5014,
  "gbụrụ": 5015,
  "cement": 5016,
  "Obina": 5017,
  "katọlik ,": 5018,
  "ssy": 5019,
  "Tony": 5020,
  "olili": 5021,
  "Chieji": 5022,
  "Emema": 5023,
  "emene": 5024,
  "akịrịka .": 5025,
  "okike": 5026,
  "000 )": 5027,
  "hong": 5028,
  "mpụ ,": 5029,
  "ụlọọgwụ ,": 5030,
  "USS": 5031,
  "na  \" ọ \"": 5032,
  "March": 5033,
  "nzuzo .": 5034,
  "Lagos ,": 5035,
  "Natha": 5036,
  "Iheana": 5037,
  "Jehova": 5038,
  "Twitter ,": 5039,
  "Guar": 5040,
  "briten ,": 5041,
  "nrọ .": 5042,
  "latrik ,": 5043,
  "Herọ": 5044,
  "1999": 5045,
  "Old": 5046,
  "ụtarị": 5047,
  "ọktoba ,": 5048,
  "listi": 5049,
  "nnewi ,": 5050,
  "nhata": 5051,
  "Confe": 5052,
  "rector": 5053,
  "gramme": 5054,
  "ọgwụgwọ .": 5055,
  "scu": 5056,
  "Hunt": 5057,
  "Benson": 5058,
  "Luka": 5059,
  "Fina": 5060,
  "CAN": 5061,
  "Kano ,": 5062,
  "sị :  \" anyị \"": 5063,
  "Job ,": 5064,
  "bishop": 5065,
  "Yoaku": 5066,
  " .  \" e \"": 5067,
  "Corne": 5068,
  "Okorocha :": 5069,
  "Offi": 5070,
  "ttack": 5071,
  "Minimu": 5072,
  "owuwe": 5073,
  "field": 5074,
  "obosi": 5075,
  "mmanya ,": 5076,
  "ọchụchụ": 5077,
  "server": 5078,
  "ọlị .": 5079,
  "Championship": 5080,
  "oghere": 5081,
  "tenis": 5082,
  "August": 5083,
  "amawbịa ,": 5084,
  "Madagascar": 5085,
  "Monday": 5086,
  "Amuneke": 5087,
  "arụrụala": 5088,
  "Ghost": 5089,
  "sult": 5090,
  "Aliyu": 5091,
  "uhuru": 5092,
  "Sharibu": 5093,
  "ọchanja": 5094,
  "Geof": 5095,
  "Highlife": 5096,
  "nuklia": 5097,
  "tomato": 5098,
  "mwereonwe": 5099,
  "Mmaku": 5100,
  "blọk": 5101,
  "Thailand": 5102,
  "Unilag": 5103,
  "osikapa ,": 5104,
  "tlehe": 5105,
  "Elizabeth": 5106,
  "Stanley": 5107,
  "Girls": 5108,
  "eserese": 5109,
  "Assemb": 5110,
  "Corporation": 5111,
  "aịzaya": 5112,
  "Lagarde": 5113,
  "Selariọs": 5114,
  "Insurance": 5115,
  "collapse": 5116,
  "EEDC": 5117,
  "Ambode": 5118,
  "Cristi": 5119,
  "Primaries :": 5120,
  "webụ": 5121,
  "Augustine": 5122,
  "Furtado": 5123,
  "Johannes": 5124,
  "Covenant": 5125,
  "Singapo": 5126,
  "Coscharis": 5127,
  "Bianca": 5128,
  "USSD": 5129,
  "Nathaniel": 5130,
  "Herọd": 5131,
  "Yoakum": 5132,
  "Minimum": 5133,
  "Geoffrey": 5134,
  "Cristiano": 5135,
  "webụsaịt": 5136,
  "Ak": 5137,
  "70": 5138,
  "mkp": 5139,
  "ud": 5140,
  "Wi": 5141,
  "Sp": 5142,
  "31": 5143,
  "ịị": 5144,
  "PF": 5145,
  "e-": 5146,
  "38": 5147,
  "Py": 5148,
  "84": 5149,
  "97": 5150,
  "LE": 5151,
  "oka": 5152,
  "ị .": 5153,
  "Ome": 5154,
  "re-": 5155,
  "Oji": 5156,
  "hụ .": 5157,
  "hụ ,": 5158,
  "bas": 5159,
  "tis": 5160,
  "bisi": 5161,
  "kọ ,": 5162,
  "Iwe": 5163,
  "Baka": 5164,
  "lọt": 5165,
  "ane": 5166,
  "Nne": 5167,
  "Ado": 5168,
  "lish": 5169,
  "Nike": 5170,
  "oro": 5171,
  "mani": 5172,
  "niu": 5173,
  "gege": 5174,
  "so ,": 5175,
  "Gala": 5176,
  "pịa": 5177,
  "e :": 5178,
  "gịnwa": 5179,
  "use": 5180,
  "chọ .": 5181,
  "ant": 5182,
  "re  \" ": 5183,
  "ra  \" ": 5184,
  "jekwu": 5185,
  "ri ?": 5186,
  "abụba": 5187,
  "gụ .": 5188,
  "ntụtụ": 5189,
  "ya . )": 5190,
  "akụkọ ,": 5191,
  "ụsọ": 5192,
  "mmezu": 5193,
  "ọtụtụ .": 5194,
  "“ nwa": 5195,
  "“ ụmụ": 5196,
  "“ ga-": 5197,
  "Son": 5198,
  "nwaanyị \"": 5199,
  "nia .": 5200,
  "phi": 5201,
  "Nze": 5202,
  "to .": 5203,
  "za ,": 5204,
  "her": 5205,
  "2010": 5206,
  "re . ”": 5207,
  "Buhari \"": 5208,
  "gwụ .": 5209,
  "gine": 5210,
  "paị": 5211,
  "Opa": 5212,
  "( 3": 5213,
  "( ma": 5214,
  "( bụ": 5215,
  "maja": 5216,
  "gọvanọ \"": 5217,
  "Mane": 5218,
  "maatụ": 5219,
  "tice": 5220,
  "clo": 5221,
  "Vin": 5222,
  "inde": 5223,
  "mgba .": 5224,
  "ọzọ .  \" ": 5225,
  " .  \" dị": 5226,
  "musu": 5227,
  "afụ": 5228,
  "Baf": 5229,
  "real": 5230,
  "Ral": 5231,
  "Dou": 5232,
  "ntina": 5233,
  "Chinwe": 5234,
  "ozuzu": 5235,
  "now": 5236,
  "19 ,": 5237,
  "vere": 5238,
  "dum .": 5239,
  "ee .": 5240,
  "Limi": 5241,
  "Mone": 5242,
  "Most": 5243,
  "agụ ,": 5244,
  "ọbara .": 5245,
  "ọgbakọ .": 5246,
  "Sime": 5247,
  "pope": 5248,
  "nkuzi .": 5249,
  "ntaakụkọ .": 5250,
  "Aca": 5251,
  "Nweke": 5252,
  "ekene": 5253,
  "ewo": 5254,
  "mba !": 5255,
  "Muhammad": 5256,
  "Papa": 5257,
  "Easter": 5258,
  "Balo": 5259,
  "nzukọ ,": 5260,
  "nkịta .": 5261,
  "fite": 5262,
  "Adam ,": 5263,
  "Kachi": 5264,
  "ndapụta": 5265,
  "Arge": 5266,
  "obiọma .": 5267,
  "INEC ,": 5268,
  "ụmị": 5269,
  "ọgọdọ": 5270,
  "kwo ,": 5271,
  "redio": 5272,
  "ọfụma ,": 5273,
  "200 ,": 5274,
  "Fiji": 5275,
  "okpukpere": 5276,
  "Muhammed": 5277,
  "Emer": 5278,
  "agwaetiti": 5279,
  "Janet": 5280,
  "vootu .": 5281,
  "akịrịka ,": 5282,
  "Sambi": 5283,
  "risky": 5284,
  "cking": 5285,
  "1000": 5286,
  "ọhanaeze ,": 5287,
  "daalụ": 5288,
  "ekele ,": 5289,
  "devid .": 5290,
  "devid ,": 5291,
  "satọde ,": 5292,
  "Hadi": 5293,
  "Christo": 5294,
  "Marc": 5295,
  "Southa": 5296,
  "ekwentị .": 5297,
  "iman": 5298,
  "Ower": 5299,
  "briten .": 5300,
  "efu ,": 5301,
  "( APGA": 5302,
  "Child": 5303,
  "Squ": 5304,
  "16 )": 5305,
  "16 ,": 5306,
  "Madume": 5307,
  "sting": 5308,
  "ssan": 5309,
  "Broad": 5310,
  "rency": 5311,
  "tịnkọ": 5312,
  "2013 ,": 5313,
  "Plateau :": 5314,
  "ogbenye .": 5315,
  "Christine": 5316,
  "tumtum": 5317,
  "28 ,": 5318,
  "septemba ,": 5319,
  "Danju": 5320,
  "Gree": 5321,
  "29 )": 5322,
  "27 ,": 5323,
  "nkwụsị": 5324,
  "Rev .": 5325,
  "Lady": 5326,
  "Cheri": 5327,
  "VAR": 5328,
  "UNI": 5329,
  "2014 ,": 5330,
  "ADC": 5331,
  "1970": 5332,
  "2010 .": 5333,
  "krisma": 5334,
  "Kanu .": 5335,
  "Traffi": 5336,
  "bishọọpụ": 5337,
  "ject": 5338,
  "njedebe .": 5339,
  "Ogbonnaya": 5340,
  "mwepụ": 5341,
  "otuto .": 5342,
  "Oyede": 5343,
  "1914 .": 5344,
  "sekọndị": 5345,
  "Bour": 5346,
  "mberg": 5347,
  "NBS": 5348,
  "Black \"": 5349,
  "nzaghachi ,": 5350,
  "nzaghachi": 5351,
  "-Ob": 5352,
  "adres": 5353,
  "Bruce": 5354,
  "Flori": 5355,
  "York .": 5356,
  "Rogers": 5357,
  "ttee": 5358,
  "  \" mgbe \"": 5359,
  "Kongo": 5360,
  "Celestine": 5361,
  "cord": 5362,
  "Timothy": 5363,
  "Walter": 5364,
  "Ndubuaku": 5365,
  "okpokoro": 5366,
  "ugboguru .": 5367,
  "Rabiu": 5368,
  "Matthe": 5369,
  "Redeeme": 5370,
  "Socie": 5371,
  "Ayamelu": 5372,
  "ọzara": 5373,
  "Chinua": 5374,
  "uhie ,": 5375,
  "Mozis": 5376,
  "Ebreham ,": 5377,
  "izuuka .": 5378,
  "Bauchi": 5379,
  "Netherlands": 5380,
  "Faith": 5381,
  "ojoro": 5382,
  "Motors": 5383,
  "Trudeau": 5384,
  "nnabata": 5385,
  "ranozie": 5386,
  "Tarrant": 5387,
  "Gareth": 5388,
  "Electri": 5389,
  "Boniface": 5390,
  "nemouth": 5391,
  "alert": 5392,
  "witzer": 5393,
  "ọgbatauhie": 5394,
  "( IPOB )": 5395,
  "Ememanka": 5396,
  "filisti": 5397,
  "Programme": 5398,
  "Lukaku": 5399,
  "Assembly": 5400,
  "nwịị": 5401,
  "Engine": 5402,
  "Bafana": 5403,
  "Limited": 5404,
  "Acade": 5405,
  "okpukperechi": 5406,
  "Bobrisky": 5407,
  "Christoph": 5408,
  "Southampton": 5409,
  "sekọndịrị": 5410,
  "Matthew": 5411,
  "Redeemed": 5412,
  "Society": 5413,
  "Bournemouth": 5414,
  "filistia": 5415,
  "Christopher": 5416,
  "agb": 5417,
  "ụkp": 5418,
  "Aa": 5419,
  "kh": 5420,
  "Er": 5421,
  "Du": 5422,
  "36": 5423,
  "Eu": 5424,
  "AK": 5425,
  "Iw": 5426,
  "CS": 5427,
  "DR": 5428,
  "2.": 5429,
  "MT": 5430,
  "h .": 5431,
  "c .": 5432,
  "Ora": 5433,
  "Kya": 5434,
  "lay": 5435,
  "pri": 5436,
  "risi": 5437,
  "tech": 5438,
  "tere": 5439,
  "Ote": 5440,
  "nkey": 5441,
  "tutu": 5442,
  "enwe": 5443,
  "ogba": 5444,
  "onye ,": 5445,
  "tiu": 5446,
  "sle": 5447,
  "achi": 5448,
  "Ichi": 5449,
  "wei": 5450,
  "kwa \"": 5451,
  "Uzọ": 5452,
  "de .": 5453,
  "sal": 5454,
  "tro": 5455,
  "bro": 5456,
  "oni": 5457,
  "nio": 5458,
  "Amaka": 5459,
  "amaka": 5460,
  "Fala": 5461,
  "agwu": 5462,
  "aka :": 5463,
  "Akwe": 5464,
  "Mbo": 5465,
  "gịga": 5466,
  "naịjirịa \"": 5467,
  "medi": 5468,
  "Han": 5469,
  "ọrụ  \" ": 5470,
  "sị ?": 5471,
  "abụ .": 5472,
  "nus": 5473,
  "E )": 5474,
  "vaị": 5475,
  "wuji": 5476,
  "abụọ )": 5477,
  "ko ,": 5478,
  "“ ya": 5479,
  " ” ,": 5480,
  "ya ”": 5481,
  "du ,": 5482,
  "“ ụwa": 5483,
  "abọ": 5484,
  "zị .": 5485,
  "Her": 5486,
  "kpo .": 5487,
  "nọ . ”": 5488,
  "ọma . ”": 5489,
  "ala . ”": 5490,
  "or ,": 5491,
  "Buhari ?": 5492,
  "ngi": 5493,
  "( U": 5494,
  "( ya": 5495,
  "Rome": 5496,
  "Nel": 5497,
  "Dana": 5498,
  "nta .": 5499,
  "Spe": 5500,
  "mbụ ?": 5501,
  "Mac": 5502,
  " ; ;": 5503,
  "' ;": 5504,
  "ara ,": 5505,
  "gugu": 5506,
  "nza": 5507,
  "iza": 5508,
  "Yaba": 5509,
  "okoro": 5510,
  "heli": 5511,
  "mace": 5512,
  "mus": 5513,
  "ọnwụ ?": 5514,
  "Glo": 5515,
  "Olo": 5516,
  "Pin": 5517,
  "mgba ,": 5518,
  " .  \" che": 5519,
  "Dar": 5520,
  "art": 5521,
  "sun": 5522,
  "alla": 5523,
  "al-": 5524,
  "2019 ?": 5525,
  "ọha ,": 5526,
  "800": 5527,
  "vil": 5528,
  "Sil": 5529,
  "vation": 5530,
  "viso": 5531,
  "ting": 5532,
  "akpụrụ": 5533,
  "njem ,": 5534,
  "kpam .": 5535,
  "nzute": 5536,
  "Rest": 5537,
  "Nada": 5538,
  "Live": 5539,
  "Lion": 5540,
  "ọbara ,": 5541,
  "nkatọ": 5542,
  "agụ .": 5543,
  "Haram ,": 5544,
  "naira .": 5545,
  "okpom": 5546,
  "ime ?": 5547,
  "Sali": 5548,
  "Sadi": 5549,
  "Pep": 5550,
  "( PDP": 5551,
  "sper": 5552,
  "super": 5553,
  "eke ,": 5554,
  " ! !": 5555,
  "mmanụ .": 5556,
  "Anto": 5557,
  "osisi .": 5558,
  "Cam": 5559,
  "Adazi": 5560,
  "rick": 5561,
  "tock": 5562,
  "Okoro": 5563,
  "Tele": 5564,
  "ndaba": 5565,
  "ya  \" . \"": 5566,
  "nkwalite": 5567,
  "Adebo": 5568,
  "Evo": 5569,
  "Obidi": 5570,
  "nkịta ,": 5571,
  "City .": 5572,
  "katọlik .": 5573,
  "Cata": 5574,
  "2009": 5575,
  "Toro": 5576,
  "ogbugbu": 5577,
  "ọlaọcha": 5578,
  "oyi .": 5579,
  "akpụ ,": 5580,
  "dan .": 5581,
  "Abate": 5582,
  "Mohammed ,": 5583,
  "setan .": 5584,
  "10 .": 5585,
  "ving": 5586,
  "Keya": 5587,
  "Press": 5588,
  "Preci": 5589,
  "Ezenwa": 5590,
  "Jim": 5591,
  "mkpughe": 5592,
  "mpụ .": 5593,
  "ọdịnihu ,": 5594,
  "Nnaji": 5595,
  "ụlọakụ ,": 5596,
  "ewu .": 5597,
  "Dio": 5598,
  "Abubakar ,": 5599,
  "Father": 5600,
  "latrik .": 5601,
  "Abba": 5602,
  "22 ,": 5603,
  "12 ,": 5604,
  "Feli": 5605,
  "ọṅụ .": 5606,
  "nrụrịtaụka": 5607,
  "180": 5608,
  "Heran": 5609,
  "ọkụkọ ,": 5610,
  "ọdachi .": 5611,
  "Visa": 5612,
  "omimi": 5613,
  "llam": 5614,
  "Nwosu ,": 5615,
  "National \"": 5616,
  "nrụrụaka .": 5617,
  "baby": 5618,
  "gozie": 5619,
  "CON": 5620,
  "30 )": 5621,
  "ụtazị": 5622,
  "12 )": 5623,
  "NoBra": 5624,
  "ya . ” )": 5625,
  "Europa": 5626,
  "Abaribe ,": 5627,
  "ejije .": 5628,
  "Serge": 5629,
  "25 ,": 5630,
  "Niger ,": 5631,
  "nchara": 5632,
  "nghọta .": 5633,
  "ịchafụ .": 5634,
  "nduru": 5635,
  "aghụghọ .": 5636,
  "AAC": 5637,
  "Free": 5638,
  "Abagana": 5639,
  "Andree": 5640,
  "50 ,": 5641,
  "Uzor": 5642,
  "jeruselem .": 5643,
  "ejula": 5644,
  "Cosby": 5645,
  "Okorocha ,": 5646,
  "FFK": 5647,
  "Okoye ,": 5648,
  "2009 .": 5649,
  "Uchenna": 5650,
  "kristi": 5651,
  "Vale": 5652,
  "- 35": 5653,
  "Ogunye": 5654,
  "school": 5655,
  "Abdel": 5656,
  "Imohi": 5657,
  "shuga": 5658,
  "Shiites": 5659,
  "Elisha": 5660,
  "Nwachukwu ,": 5661,
  "Pun": 5662,
  "Pier": 5663,
  "Aguata": 5664,
  "Ogbuata": 5665,
  " .  \" onye \"": 5666,
  "  \" onye \"": 5667,
  "Progressives": 5668,
  "aịrish": 5669,
  "alụkwaghịm ,": 5670,
  "Force": 5671,
  "ngwọrọ": 5672,
  "Mahre": 5673,
  "will": 5674,
  "Mexico .": 5675,
  "Alade": 5676,
  "Farou": 5677,
  "visa \" \" ": 5678,
  "Market": 5679,
  "Chinedu": 5680,
  "Onoja": 5681,
  "mmehie ,": 5682,
  "Zuba": 5683,
  "akụnụba .": 5684,
  "Italy .": 5685,
  "yurop .": 5686,
  "RevolutionNow": 5687,
  "Dogara": 5688,
  "utical": 5689,
  "Kondu": 5690,
  "Oshodi": 5691,
  "Oshoala": 5692,
  "Palestine": 5693,
  "Mauri": 5694,
  "nitia": 5695,
  "Drunk": 5696,
  "Phar": 5697,
  "Courto": 5698,
  "Hausa": 5699,
  "ekpi": 5700,
  "Freedo": 5701,
  "ebili": 5702,
  "odibo": 5703,
  "Syria .": 5704,
  "Africa .": 5705,
  "Ivory": 5706,
  "Jesus": 5707,
  "Achuzia": 5708,
  "ịtụnanya": 5709,
  "chaị ,": 5710,
  "Azubuike": 5711,
  "Ademola": 5712,
  "Bulga": 5713,
  "Sanwo": 5714,
  "Institu": 5715,
  "FRSC": 5716,
  "Akwuke": 5717,
  "Portu": 5718,
  "Organization": 5719,
  "Dickson": 5720,
  "Belgium": 5721,
  "Secondus": 5722,
  "Malaysia": 5723,
  "Ballon": 5724,
  "ABS": 5725,
  "Forum": 5726,
  "Lafia": 5727,
  "Adeyeye": 5728,
  "Government": 5729,
  "Valencia": 5730,
  "YouTube": 5731,
  "Onaga": 5732,
  "Club": 5733,
  "Company": 5734,
  "Athle": 5735,
  "Iheanacho": 5736,
  "Director": 5737,
  "Johannesburg": 5738,
  "English": 5739,
  "paịlet": 5740,
  "Vincent": 5741,
  "Revere": 5742,
  "Papado": 5743,
  "Emergency": 5744,
  "Suleiman": 5745,
  "Broadca": 5746,
  "Danjuma": 5747,
  "Oyedepo": 5748,
  "Committee": 5749,
  "Oparanozie": 5750,
  "Switzer": 5751,
  "ogbaru": 5752,
  "Uzọma": 5753,
  "Akwete": 5754,
  "elịiza": 5755,
  "visory": 5756,
  "Restructuring": 5757,
  "Nadal": 5758,
  "Keyamo": 5759,
  "Precious": 5760,
  "Diocese": 5761,
  "Andreescu": 5762,
  "aịrish .": 5763,
  "maceutical": 5764,
  "nitiative": 5765,
  "Sanwo-Olu": 5766,
  "Reverend": 5767,
  "Broadcasting": 5768,
  "Pharmaceutical": 5769,
  "oh": 5770,
  "ọn": 5771,
  "Ag": 5772,
  "-U": 5773,
  "ps": 5774,
  "Oy": 5775,
  "Ph": 5776,
  "Vo": 5777,
  "Fr": 5778,
  "OP": 5779,
  "Ki": 5780,
  "DJ": 5781,
  "nyu": 5782,
  "DA": 5783,
  "EP": 5784,
  "My": 5785,
  "ND": 5786,
  "MS": 5787,
  "ígw": 5788,
  "ona": 5789,
  "M .": 5790,
  "dra": 5791,
  "hara": 5792,
  "ore": 5793,
  "rey": 5794,
  "tal": 5795,
  "tar": 5796,
  "ola": 5797,
  "sla": 5798,
  "tala": 5799,
  "nate": 5800,
  "Otu": 5801,
  "ugba": 5802,
  "obe": 5803,
  "tụ ,": 5804,
  "Eti": 5805,
  "otutu": 5806,
  "kọm": 5807,
  "che .": 5808,
  "ụrọ": 5809,
  "Acha": 5810,
  "yne": 5811,
  "rewa": 5812,
  "goo": 5813,
  "rusa": 5814,
  "san": 5815,
  "sli": 5816,
  "lie": 5817,
  "gbere": 5818,
  "Aro": 5819,
  "dro": 5820,
  "gene": 5821,
  "Obu": 5822,
  "sso": 5823,
  "alaka": 5824,
  "Siri": 5825,
  "5 :": 5826,
  "ka :": 5827,
  "4 :": 5828,
  "gbo :": 5829,
  "ahụ :": 5830,
  "Ese": 5831,
  "akụ ,": 5832,
  "clu": 5833,
  "agọ": 5834,
  "dine": 5835,
  "godi": 5836,
  "nian": 5837,
  "nke  \" ": 5838,
  "otu ?": 5839,
  "nwụ ?": 5840,
  "steeti ?": 5841,
  "ezie": 5842,
  "Enu": 5843,
  "bịa ?": 5844,
  "gụ ,": 5845,
  "C )": 5846,
  " . )": 5847,
  "kun": 5848,
  "abụọ :": 5849,
  "Efe": 5850,
  "“ mba": 5851,
  "“ bi": 5852,
  "“ [": 5853,
  "“ ebe": 5854,
  "niile ”": 5855,
  "femi": 5856,
  "egwuri": 5857,
  "belụ": 5858,
  "ca ,": 5859,
  "kporo": 5860,
  "ụsụ": 5861,
  "ọkai": 5862,
  "dị . ”": 5863,
  "ukwu . ”": 5864,
  "“ agha": 5865,
  "gwụ ,": 5866,
  "( dị": 5867,
  "( onye": 5868,
  "( C": 5869,
  "“ ugbu": 5870,
  "boolu": 5871,
  "Kel": 5872,
  "onwu": 5873,
  "ọnwa ,": 5874,
  "ikenga": 5875,
  "pe ,": 5876,
  "mpio": 5877,
  "gọvanọ .": 5878,
  "gọvanọ ,": 5879,
  "20 ;": 5880,
  "niile ;": 5881,
  "abụọ ;": 5882,
  "ọrụ ;": 5883,
  "Kara": 5884,
  "Jos": 5885,
  "za ?": 5886,
  "okooko": 5887,
  "ọnwụ . ”": 5888,
  "lo ,": 5889,
  "lobe": 5890,
  "loja": 5891,
  "in ,": 5892,
  "Main": 5893,
  "nkwa .": 5894,
  "aghara .": 5895,
  "ibe ,": 5896,
  "Sama": 5897,
  "afa": 5898,
  "Nwaf": 5899,
  "nachukwu": 5900,
  "you": 5901,
  "ntion": 5902,
  "Chime": 5903,
  "Chikwe": 5904,
  "mmegide": 5905,
  "600": 5906,
  "300": 5907,
  "700": 5908,
  "mbọ .": 5909,
  "ily": 5910,
  "agba .": 5911,
  "lition": 5912,
  "Eno": 5913,
  "njeri": 5914,
  "kki": 5915,
  "ng-": 5916,
  "Mit": 5917,
  "190": 5918,
  "sive": 5919,
  "nkiri :": 5920,
  "mund": 5921,
  "ajụjụ .": 5922,
  "ajụjụọnụ": 5923,
  "Sun": 5924,
  "ghe .": 5925,
  "- 6": 5926,
  "mpe ,": 5927,
  "less": 5928,
  "Inf": 5929,
  "uruagụ": 5930,
  "Lake": 5931,
  "Colo": 5932,
  "Sex": 5933,
  "ugboro ,": 5934,
  "ntaakụkọ ,": 5935,
  "atị": 5936,
  "akpa .": 5937,
  "njehie": 5938,
  "Jus": 5939,
  "tory": 5940,
  "erry": 5941,
  "ikpeazụ . ”": 5942,
  "Bad": 5943,
  "ọdụ .": 5944,
  "ọdụ ,": 5945,
  "coal": 5946,
  "Nico": 5947,
  "keredo": 5948,
  "njinji": 5949,
  "pịm": 5950,
  "Kate": 5951,
  "obiano .": 5952,
  "Kele": 5953,
  "standa": 5954,
  "Trump ,": 5955,
  "United ,": 5956,
  "Adele": 5957,
  "ede ,": 5958,
  "City ,": 5959,
  "onyinyo": 5960,
  "Zine": 5961,
  "Tochukwu": 5962,
  "Sand": 5963,
  "ọgbaaghara .": 5964,
  "peeji": 5965,
  "agwa .": 5966,
  "jọn ,": 5967,
  "mbibi": 5968,
  "swi": 5969,
  "setan ,": 5970,
  "king": 5971,
  "mkpu ,": 5972,
  "obibi .": 5973,
  "satọdee ,": 5974,
  "Isha": 5975,
  "ọdịnala ,": 5976,
  "fat": 5977,
  "fair": 5978,
  "ụgha ,": 5979,
  "tican": 5980,
  "ewu ,": 5981,
  "Dij": 5982,
  "olileanya .": 5983,
  "June": 5984,
  "Juan": 5985,
  "Jud": 5986,
  "Jude": 5987,
  "Octo": 5988,
  "23 )": 5989,
  "2012 ,": 5990,
  "Ikeokwu": 5991,
  "Ehab": 5992,
  "Gombe": 5993,
  "mbele": 5994,
  "Audu": 5995,
  "17 :": 5996,
  "Saraki ,": 5997,
  "ndọrịtaụka": 5998,
  "18 )": 5999,
  "gration": 6000,
  "Not": 6001,
  "Noa .": 6002,
  "13 ,": 6003,
  "Amaju": 6004,
  "ohu ,": 6005,
  "ịntaneti ,": 6006,
  "Tex": 6007,
  "ọmajiji": 6008,
  "160": 6009,
  "Timi": 6010,
  "ụbụrụ .": 6011,
  "ọpụrụiche": 6012,
  "Olani": 6013,
  "Zimbabwe .": 6014,
  "Ahmadu": 6015,
  "rby": 6016,
  "ụtara": 6017,
  "maachị ,": 6018,
  "ya .  \" ọ \"": 6019,
  "Nicho": 6020,
  "Gassa": 6021,
  "Nwabia": 6022,
  "Kola": 6023,
  "kaadị": 6024,
  "kansa .": 6025,
  "Domini": 6026,
  "Iv ,": 6027,
  "Sergi": 6028,
  "25 )": 6029,
  "ncha .": 6030,
  "ecu": 6031,
  "26 ,": 6032,
  "Abiy": 6033,
  "Agri": 6034,
  "Demokra": 6035,
  "Udemba ,": 6036,
  "mmalite ,": 6037,
  "Dango": 6038,
  "Teodo": 6039,
  "Amy": 6040,
  "Wis": 6041,
  "logy": 6042,
  "Sport": 6043,
  "rable": 6044,
  "lins": 6045,
  "jeruselem ,": 6046,
  "  \" e \"": 6047,
  "frans .": 6048,
  "febụwarị .": 6049,
  "Iron": 6050,
  "shee": 6051,
  "Umeh ,": 6052,
  "1967": 6053,
  "Charly": 6054,
  "Uchechi": 6055,
  "Games": 6056,
  "ịlaịsha": 6057,
  "mgbu .": 6058,
  "ttah": 6059,
  "Ogbuokiri": 6060,
  "Lambo": 6061,
  "ties": 6062,
  "dimkpa ,": 6063,
  "India .": 6064,
  "India ,": 6065,
  "Port Harcourt .": 6066,
  "Mayor": 6067,
  "bridge": 6068,
  "dget": 6069,
  "Services": 6070,
  "SARS :": 6071,
  "Church ,": 6072,
  "ifo .": 6073,
  "Qata": 6074,
  "Barwin": 6075,
  "Burna": 6076,
  "Abdulra": 6077,
  " \" \" bụ \"": 6078,
  "iteghete .": 6079,
  "Awada": 6080,
  "Saint": 6081,
  "School ,": 6082,
  "Cell": 6083,
  "Young": 6084,
  "latịn .": 6085,
  "Nure": 6086,
  "Nkechi": 6087,
  "Eaglet": 6088,
  "Nsugbe": 6089,
  "strike": 6090,
  "Distri": 6091,
  "jiofor": 6092,
  "Lanka": 6093,
  "amawbịa": 6094,
  "Ebonyi ,": 6095,
  "Kizi": 6096,
  "akụnụba ,": 6097,
  "mahadum .": 6098,
  "Udeogu": 6099,
  "ATM": 6100,
  "VAT": 6101,
  "ọyị": 6102,
  "Oliver": 6103,
  "Transfor": 6104,
  "Ekwueme": 6105,
  "Obiang": 6106,
  "jems": 6107,
  " .  \" ya \"": 6108,
  "Jones": 6109,
  "Anyaoku": 6110,
  "Love": 6111,
  "ibu ,": 6112,
  "  \" dị \"": 6113,
  "ọstralia": 6114,
  "Ndubuisi": 6115,
  "IAAF": 6116,
  "Drug": 6117,
  "Ubani": 6118,
  "sion :": 6119,
  "Ojoto": 6120,
  "Governor": 6121,
  "Bebel": 6122,
  "ọstralia .": 6123,
  "Kabir": 6124,
  "karat": 6125,
  "Slam": 6126,
  "Basin": 6127,
  "eshia": 6128,
  "Omamba": 6129,
  "elelebe": 6130,
  "Ute :": 6131,
  "Ijeoma": 6132,
  "poulos": 6133,
  "Fani-": 6134,
  "Cultu": 6135,
  "Lyon": 6136,
  "Panther": 6137,
  "Okigwe": 6138,
  "bsidy": 6139,
  "Venezue": 6140,
  "Okpoko": 6141,
  "Jollo": 6142,
  "ọnyụpa": 6143,
  "jọst": 6144,
  "achara": 6145,
  "Brenton": 6146,
  "Mueller": 6147,
  "collapse :": 6148,
  "Singapore": 6149,
  "PFN": 6150,
  "Pyrite": 6151,
  "Omo-A": 6152,
  "ọmụmaatụ": 6153,
  "amusu": 6154,
  "Monetary": 6155,
  "ndeewo": 6156,
  "Ifite": 6157,
  "Argentina": 6158,
  "Hassan": 6159,
  "tịnkọm": 6160,
  "ọgbaa": 6161,
  "Project": 6162,
  "Aaron": 6163,
  "MTN": 6164,
  "Otedo": 6165,
  "Matiu": 6166,
  "Agbogugu": 6167,
  "okpomọkụ": 6168,
  "Catalo": 6169,
  "Toronto": 6170,
  "Felix": 6171,
  "Ogunyemi": 6172,
  "Pierre-": 6173,
  "ekpili": 6174,
  "Freedom": 6175,
  "Bulgaria": 6176,
  "Institute": 6177,
  "Switzerland": 6178,
  "Advisory": 6179,
  "ígwé": 6180,
  "Jerusa": 6181,
  "Chukwulobe": 6182,
  "vention": 6183,
  "Coalition": 6184,
  "shless": 6185,
  "standadị": 6186,
  "Vatican": 6187,
  "Gassama": 6188,
  "Execu": 6189,
  "Demokrat": 6190,
  "Collins": 6191,
  "Nuremberg": 6192,
  "Kizito": 6193,
  "elelebe \"": 6194,
  "Fani-Kayode": 6195,
  "Jollof": 6196,
  "jọstịs": 6197,
  "Omo-Agege": 6198,
  "ọgbaatumtum": 6199,
  "Otedola": 6200,
  "Pierre-Eme": 6201,
  "Jerusale": 6202,
  "Pierre-Emerick": 6203,
  "ọm": 6204,
  "rn": 6205,
  "AA": 6206,
  "Os": 6207,
  "ft": 6208,
  "Xa": 6209,
  "Nj": 6210,
  "69": 6211,
  "Iy": 6212,
  "ES": 6213,
  "7.": 6214,
  "MW": 6215,
  "ZI": 6216,
  "Aị": 6217,
  "SP": 6218,
  "66": 6219,
  "ghu": 6220,
  "Gọ": 6221,
  "kal": 6222,
  "Sma": 6223,
  "z ,": 6224,
  "v ,": 6225,
  "ray": 6226,
  "Ore": 6227,
  "rya": 6228,
  "pla": 6229,
  "fri": 6230,
  "ịrị": 6231,
  "bba": 6232,
  "kwas": 6233,
  "ate": 6234,
  "nkenke": 6235,
  "atu": 6236,
  "iti": 6237,
  "Oti": 6238,
  "tish": 6239,
  "Ile": 6240,
  "rụ \"": 6241,
  "nye \"": 6242,
  "' \"": 6243,
  "sine": 6244,
  "ner": 6245,
  "rine": 6246,
  "ruwa": 6247,
  "wale": 6248,
  "Ogo": 6249,
  "go ,": 6250,
  "godo": 6251,
  "isi \"": 6252,
  "sam": 6253,
  "Tro": 6254,
  "tọrọ": 6255,
  "tọn": 6256,
  "Oni": 6257,
  "ge .": 6258,
  "ubu": 6259,
  "ra :": 6260,
  "3 :": 6261,
  "kwe ,": 6262,
  "kpọ ,": 6263,
  "nwamba": 6264,
  "Abo": 6265,
  "sen": 6266,
  "dic": 6267,
  "steeti :": 6268,
  "  \" si": 6269,
  "  \" na": 6270,
  "gba  \" ": 6271,
  "je ,": 6272,
  "Eje": 6273,
  "jeso": 6274,
  "ghị ?": 6275,
  "zi ?": 6276,
  "we ?": 6277,
  "nu ,": 6278,
  "dent": 6279,
  " ) :": 6280,
  "awu": 6281,
  "wuru": 6282,
  "akụkọ .": 6283,
  "mpo": 6284,
  "mmetụ": 6285,
  "ọtụtụ \"": 6286,
  "“ bịa": 6287,
  "“ na": 6288,
  "“ oke": 6289,
  "“ we": 6290,
  "“ ọtụtụ": 6291,
  "“ hụ": 6292,
  " ” ?": 6293,
  "Bon": 6294,
  "fon": 6295,
  "gedọ": 6296,
  "mina": 6297,
  "bia .": 6298,
  "godu": 6299,
  "duka": 6300,
  "nato": 6301,
  "“ ụbọchị": 6302,
  "ọlụ": 6303,
  "ego ?": 6304,
  "nia ,": 6305,
  "Ver": 6306,
  "igboukwu": 6307,
  "ha . ,": 6308,
  "st ,": 6309,
  "st :": 6310,
  "ta . ”": 6311,
  "ghị . ”": 6312,
  "me . ”": 6313,
  "nso . ”": 6314,
  "nhịa": 6315,
  "agha ?": 6316,
  "( 4": 6317,
  "( D": 6318,
  "( ọ": 6319,
  "( P": 6320,
  "( G": 6321,
  "( n'": 6322,
  "nne .": 6323,
  "Dole": 6324,
  "ụja": 6325,
  "lịn": 6326,
  " ) ;": 6327,
  "ara .": 6328,
  "ntụ .": 6329,
  "nki": 6330,
  "Ofu": 6331,
  "joko": 6332,
  "anụ ,": 6333,
  "“ anụ": 6334,
  "“ ọnwụ": 6335,
  "Alo": 6336,
  "Clo": 6337,
  "nri ?": 6338,
  "nkwarụ": 6339,
  "bọọlu": 6340,
  "nche .": 6341,
  "ọrụ .  \" ": 6342,
  "teria": 6343,
  "Dunu": 6344,
  "ọkwa ,": 6345,
  "ngwaọrụ": 6346,
  "Dama": 6347,
  "afi": 6348,
  "Tal": 6349,
  "ndekọ": 6350,
  "abalị :": 6351,
  "rghi": 6352,
  "Ista": 6353,
  "Chize": 6354,
  "Chima": 6355,
  "inter": 6356,
  "ntakị": 6357,
  "Bil": 6358,
  "ọnọdụ .": 6359,
  "agba ,": 6360,
  "kim": 6361,
  "kina": 6362,
  "APC ,": 6363,
  "ngalaba  \" ": 6364,
  "ebule": 6365,
  "mposi": 6366,
  "End": 6367,
  "ntụgharị": 6368,
  "Simo": 6369,
  "Eye": 6370,
  "toye": 6371,
  "“ olee": 6372,
  "Man .": 6373,
  "- 4": 6374,
  "“ ụkwụ": 6375,
  "ihere .": 6376,
  "Com": 6377,
  "Comma": 6378,
  "Nigeria \"": 6379,
  "Onai": 6380,
  "Time": 6381,
  "pota": 6382,
  "Apo": 6383,
  "pox": 6384,
  "Saga": 6385,
  "Pete": 6386,
  "cca": 6387,
  "Lea": 6388,
  "Lent": 6389,
  "mmụta .": 6390,
  "ikikere": 6391,
  "akpa ,": 6392,
  "Mus": 6393,
  "Cen": 6394,
  "ụkọchukwu .": 6395,
  "oche ,": 6396,
  "IPOB ,": 6397,
  "IPOB :": 6398,
  "ije ,": 6399,
  "pọnd": 6400,
  "ugo .": 6401,
  "Atiku ,": 6402,
  "nkwado ,": 6403,
  "Ham": 6404,
  "Okere": 6405,
  "njide": 6406,
  "ọtọ . ”": 6407,
  "Soma": 6408,
  "eluigwe ?": 6409,
  "omenala ,": 6410,
  "illing": 6411,
  "Arch": 6412,
  "opi": 6413,
  "Denne": 6414,
  "Avo": 6415,
  "atụrụ .": 6416,
  "Richa": 6417,
  "Obigwe": 6418,
  "jo ,": 6419,
  "dioka": 6420,
  "City :": 6421,
  "Care": 6422,
  "ijing": 6423,
  "Medi": 6424,
  "Toni": 6425,
  "ntule": 6426,
  "Ful": 6427,
  "Kaoli": 6428,
  "Standa": 6429,
  "dan ,": 6430,
  "vootu ,": 6431,
  "ya ? ”": 6432,
  "Arsenal .": 6433,
  "mbipụta": 6434,
  "Peters": 6435,
  "110": 6436,
  "000 .": 6437,
  "000 ,": 6438,
  "rọs ,": 6439,
  "mkpuchi": 6440,
  "Sheik": 6441,
  "mpempe": 6442,
  "niile . ” )": 6443,
  "Buck": 6444,
  "nyocha .": 6445,
  "China ,": 6446,
  "Get": 6447,
  "Okey": 6448,
  "ụdara": 6449,
  "action": 6450,
  "ezume": 6451,
  "Sarah": 6452,
  "anụrị .": 6453,
  "nkịtị ,": 6454,
  "Briga": 6455,
  "Prote": 6456,
  "21 )": 6457,
  "arọ .": 6458,
  "ezumike .": 6459,
  "Ikedi": 6460,
  "mgbọ .": 6461,
  "- 17": 6462,
  " - 0": 6463,
  "ton ,": 6464,
  "18 ,": 6465,
  "ration \"": 6466,
  "agụụ .": 6467,
  "Madrid ,": 6468,
  "Jairu": 6469,
  "Bure": 6470,
  "Rube": 6471,
  "Water": 6472,
  "ọkọrọ": 6473,
  "Ghana .": 6474,
  "obibi ,": 6475,
  "ahịhịa ,": 6476,
  "ụbụbọ": 6477,
  "Orla": 6478,
  "dozie": 6479,
  "ụtalị": 6480,
  "sị ,  \" ọ \"": 6481,
  "Alexan": 6482,
  "achịcha ,": 6483,
  "Cameron": 6484,
  "sure :": 6485,
  "agụmaakwụkwọ": 6486,
  "Stra": 6487,
  "Dona": 6488,
  "22 )": 6489,
  "Span": 6490,
  "Umuchu": 6491,
  "Umuokpu": 6492,
  "ejije ,": 6493,
  "France .": 6494,
  "2012 .": 6495,
  "ehihie .": 6496,
  "well": 6497,
  "London ,": 6498,
  "Ecu": 6499,
  "28 )": 6500,
  "AFCON :": 6501,
  "Facebook ,": 6502,
  "Klo": 6503,
  "nkụ ,": 6504,
  "Nigerian \"": 6505,
  "Sinai": 6506,
  "Japan .": 6507,
  "Area": 6508,
  "Olau": 6509,
  "odogwu": 6510,
  "Uber": 6511,
  "His": 6512,
  "Biden": 6513,
  "rọshịa .": 6514,
  "Lilian": 6515,
  "Metho": 6516,
  "29 ;": 6517,
  "yuni": 6518,
  "Syl": 6519,
  "Libya .": 6520,
  "Brazil .": 6521,
  "mmanwụ ,": 6522,
  "Chibok ,": 6523,
  "Sharon": 6524,
  "ọkpọka :": 6525,
  "2006 .": 6526,
  "villa": 6527,
  "akwụna .": 6528,
  "ncial": 6529,
  "Ruff": 6530,
  "26 )": 6531,
  "hibru .": 6532,
  "peace": 6533,
  "Edgal": 6534,
  "Plan": 6535,
  "egbuke": 6536,
  "Trade": 6537,
  "Anichukwu": 6538,
  "enyo .": 6539,
  "klas": 6540,
  "nkwuchite": 6541,
  "Imoh": 6542,
  "kpamkpam ,": 6543,
  "Dapchi :": 6544,
  "bụ  \" a \"": 6545,
  "2004 ,": 6546,
  "Soyinka :": 6547,
  "Poland": 6548,
  "Pogba": 6549,
  "simentị": 6550,
  "ịgba .": 6551,
  "  \" mana \"": 6552,
  "Parish": 6553,
  "jenụwarị ,": 6554,
  "Award": 6555,
  "ọkwụrụ": 6556,
  "Nnabuife": 6557,
  "Germain": 6558,
  "alụkwaghịm": 6559,
  " .  \" ha \"": 6560,
  "obosi ,": 6561,
  "1914 ,": 6562,
  "sọnde .": 6563,
  "400 ,": 6564,
  "mkpịsị": 6565,
  "azụmaahịa .": 6566,
  "UNIC": 6567,
  "laterite": 6568,
  "ville": 6569,
  "Rt .": 6570,
  "Balara": 6571,
  "Odion": 6572,
  "vince": 6573,
  "ology": 6574,
  "Carl": 6575,
  "rahman": 6576,
  "Kaduna .": 6577,
  "rịpọ": 6578,
  "Cancer": 6579,
  "Genevie": 6580,
  "Napoli": 6581,
  "policy": 6582,
  "league .": 6583,
  "Dabiri-E": 6584,
  "Osadebe": 6585,
  "Town": 6586,
  "Adeosu": 6587,
  "garaaga": 6588,
  "Obono": 6589,
  "Roger": 6590,
  "Berna": 6591,
  "Pati": 6592,
  "Justin": 6593,
  "Primary": 6594,
  "Arabik": 6595,
  "Jong-U": 6596,
  "Okiyi": 6597,
  "Isiguzo": 6598,
  "Inie": 6599,
  "nọọsụ": 6600,
  "Indonesi": 6601,
  "Indone": 6602,
  "Okwudi": 6603,
  "Abeoku": 6604,
  "helị": 6605,
  "CCTV": 6606,
  "  \" ị \"": 6607,
  "Thiba": 6608,
  "search": 6609,
  "Green": 6610,
  "million": 6611,
  "bezbọl": 6612,
  "rates": 6613,
  "apụl": 6614,
  "count": 6615,
  "Ebele": 6616,
  "referen": 6617,
  "Gana ,": 6618,
  "1879 .": 6619,
  "NCDC": 6620,
  "Ugochukwu": 6621,
  "mgbaghara .": 6622,
  "Pakistan": 6623,
  "First": 6624,
  "Rights": 6625,
  "mestone": 6626,
  "California": 6627,
  "maịl": 6628,
  "racle": 6629,
  "Music": 6630,
  "Zakari": 6631,
  "anwansi": 6632,
  "Ogbunike": 6633,
  "Akinwu": 6634,
  "Ayogu": 6635,
  "Owelle": 6636,
  "ọfala": 6637,
  "egede": 6638,
  "Calabar": 6639,
  "sọlọmọn": 6640,
  "Obinagu": 6641,
  "Chiejine": 6642,
  "Jehovah": 6643,
  "archbishop": 6644,
  "Betlehe": 6645,
  "mkpiri": 6646,
  "Eboe-": 6647,
  "Bakare": 6648,
  "Benue :": 6649,
  "Chukwujekwu": 6650,
  "Josephi": 6651,
  "Ency": 6652,
  "Balogun": 6653,
  "Marcel": 6654,
  "( APGA )": 6655,
  "Trafficking": 6656,
  "Iwobi": 6657,
  "Kyari": 6658,
  "technic": 6659,
  "sleeti": 6660,
  "Macron": 6661,
  "Pinni": 6662,
  "Silva": 6663,
  "( PDP )": 6664,
  "Antonio": 6665,
  "Television": 6666,
  "Sergeant": 6667,
  "Valenti": 6668,
  "Punch": 6669,
  "Mahrez": 6670,
  "Farouq": 6671,
  "Courtois": 6672,
  "ABSUT": 6673,
  "Initiative": 6674,
  "Murtala": 6675,
  "Sirika": 6676,
  "ogbugbo :": 6677,
  "Nwafor": 6678,
  "Daily": 6679,
  "clusive": 6680,
  "Akeredo": 6681,
  "Kelechi": 6682,
  "swidi": 6683,
  "Arafat": 6684,
  "Dijk": 6685,
  "Nicholas": 6686,
  "Fattah": 6687,
  "Cambridge": 6688,
  "Transforma": 6689,
  "Papadopoulos": 6690,
  "subsidy": 6691,
  "Catalonia": 6692,
  "Executive": 6693,
  "bụrụ  \" ": 6694,
  "Xavi": 6695,
  "Iyke": 6696,
  "UNIZI": 6697,
  "Aịrish": 6698,
  "Chekwas": 6699,
  "British": 6700,
  "mmetụta": 6701,
  "Dunuko": 6702,
  "Lamborghi": 6703,
  "Burkina": 6704,
  "Onaiye": 6705,
  "Dennerby": 6706,
  "Avomi": 6707,
  "Richard": 6708,
  "Beijing": 6709,
  "Kaolin": 6710,
  "Sheikh": 6711,
  "Bureau": 6712,
  "ọkọrọtọ": 6713,
  "Orlando": 6714,
  "Alexander": 6715,
  "Ecua": 6716,
  "Klopp": 6717,
  "Olaudah": 6718,
  "Financial": 6719,
  "UNICEF": 6720,
  "rịpọb": 6721,
  "Genevieve": 6722,
  "Dabiri-Erewa": 6723,
  "Obono-Ob": 6724,
  "Patience": 6725,
  "Iniesta": 6726,
  "Indonesia": 6727,
  "Okwudili": 6728,
  "helịkọpta": 6729,
  "referendum": 6730,
  "Akinwunmi": 6731,
  "Betlehem .": 6732,
  "Eboe-Osuji": 6733,
  "Encyclo": 6734,
  "Pinnick": 6735,
  "Valentine": 6736,
  "ABSUTH": 6737,
  "swidin .": 6738,
  "bụrụ  \" elelebe \"": 6739,
  "UNIZIK": 6740,
  "rịpọblịkan": 6741,
  "Encyclope": 6742,
  "Encyclopedia": 6743,
  "uf": 6744,
  "UC": 6745,
  "ip": 6746,
  "Om": 6747,
  "SA": 6748,
  "68": 6749,
  "49": 6750,
  "NU": 6751,
  "TD": 6752,
  "she": 6753,
  "34": 6754,
  "91": 6755,
  "TE": 6756,
  "Gy": 6757,
  "OA": 6758,
  "kadị": 6759,
  "y .": 6760,
  "Uke": 6761,
  "Pra": 6762,
  "han": 6763,
  "gas": 6764,
  "Gri": 6765,
  "sig": 6766,
  "Uru": 6767,
  "ruba": 6768,
  "anyụ": 6769,
  "Tonye": 6770,
  "bbe": 6771,
  "tii": 6772,
  "tiri": 6773,
  "bale": 6774,
  "bbi": 6775,
  "kasị": 6776,
  "mụrụ": 6777,
  "kachi": 6778,
  "ma \"": 6779,
  "Ọzọ": 6780,
  "aka \"": 6781,
  "ọlọ": 6782,
  "klọ": 6783,
  "ọrọ": 6784,
  "rọba": 6785,
  "prọ": 6786,
  "ụcha": 6787,
  "nọọ": 6788,
  "dela": 6789,
  "kwụ ,": 6790,
  "kwụrụ": 6791,
  "megbu": 6792,
  "Egbu": 6793,
  "sar": 6794,
  "Mgbe": 6795,
  "gbene": 6796,
  "Ogbe": 6797,
  "Rebe": 6798,
  "ro \"": 6799,
  "ibu": 6800,
  "Iso": 6801,
  "sona": 6802,
  "egbo": 6803,
  "ụmụ ,": 6804,
  "Egwu": 6805,
  "ụnwụ": 6806,
  "dale": 6807,
  "data": 6808,
  "Ida": 6809,
  "se ,": 6810,
  "Ulu": 6811,
  "gbolu": 6812,
  "obi :": 6813,
  "obi \"": 6814,
  "zuzu": 6815,
  "dis": 6816,
  "akwụ ,": 6817,
  "chineke :": 6818,
  "anga": 6819,
  "jan": 6820,
  "ta  \" ": 6821,
  "  \" i": 6822,
  "maka  \" ": 6823,
  "ji  \" ": 6824,
  "Aje": 6825,
  "jee": 6826,
  "kwụ ?": 6827,
  "nukwu": 6828,
  "Rile": 6829,
  "% )": 6830,
  "wu ,": 6831,
  "ku ,": 6832,
  "mpịa": 6833,
  "afe": 6834,
  "Afe": 6835,
  "“ ga": 6836,
  "“ ji": 6837,
  "Gon": 6838,
  "non": 6839,
  "a . )": 6840,
  "Edu": 6841,
  "202": 6842,
  "ze ,": 6843,
  "jọlọ": 6844,
  "Pho": 6845,
  "bọl": 6846,
  "ego :": 6847,
  "ihiala": 6848,
  "ers": 6849,
  "nkpụ": 6850,
  "Yaha": 6851,
  "nwoke \"": 6852,
  "ast": 6853,
  "Est": 6854,
  "ra . ”": 6855,
  "iche . ”": 6856,
  "e . ”": 6857,
  "nwụ . ”": 6858,
  "jor": 6859,
  "gie": 6860,
  "par": 6861,
  "pay": 6862,
  "ụpa": 6863,
  "( R": 6864,
  "( £": 6865,
  "pel": 6866,
  "Bana": 6867,
  "ole ,": 6868,
  "Uju": 6869,
  "ngarị": 6870,
  "menta": 6871,
  "ntal": 6872,
  "ppe": 6873,
  "yi .": 6874,
  "ụwa ;": 6875,
  "Ahi": 6876,
  "Joy": 6877,
  "zani": 6878,
  "aba ,": 6879,
  "ohe": 6880,
  "low": 6881,
  "ọgwụ .": 6882,
  "nkwa ,": 6883,
  "nkwafu": 6884,
  "nchegbu": 6885,
  "ọma .  \" ": 6886,
  "re .  \" ": 6887,
  "m .  \" ": 6888,
  "me .  \" ": 6889,
  "anya .  \" ": 6890,
  "Isu": 6891,
  "sum": 6892,
  "enugwu ?": 6893,
  "Nma": 6894,
  "Val": 6895,
  "Tou": 6896,
  "ọjọọ . ”": 6897,
  "Chibu": 6898,
  "kemgbe ,": 6899,
  "zone": 6900,
  "Hil": 6901,
  "ezinụlọ .": 6902,
  "Dani": 6903,
  "amara ,": 6904,
  "sand": 6905,
  "ụlọikpe ?": 6906,
  "Regu": 6907,
  "Man ": 6908,
  "Bada": 6909,
  "atụmatụ  \" ": 6910,
  "atụmatụ ,": 6911,
  "- 8": 6912,
  "nsọpụ": 6913,
  "Momo": 6914,
  "Zik": 6915,
  "ekwe .": 6916,
  "Inve": 6917,
  "Indu": 6918,
  "Coal": 6919,
  "nwata .": 6920,
  "naiji": 6921,
  "okpoto": 6922,
  "nkata .": 6923,
  "udo ?": 6924,
  "orie": 6925,
  "legọs :": 6926,
  "Faso": 6927,
  "a !": 6928,
  "Jen": 6929,
  "Ten": 6930,
  "ụkọchukwu ,": 6931,
  "mmeri ,": 6932,
  "IPOB .": 6933,
  "ije .": 6934,
  "ugoeze": 6935,
  "Atiku :": 6936,
  "Bah": 6937,
  "cine": 6938,
  "Tam": 6939,
  "bert": 6940,
  "furt": 6941,
  "offi": 6942,
  "cob": 6943,
  "coa": 6944,
  "minista .": 6945,
  "Kaori": 6946,
  "Trust": 6947,
  "ọtọ ?": 6948,
  "Okoi": 6949,
  "eleke": 6950,
  "amụma .": 6951,
  "ntorobịa .": 6952,
  "Unity": 6953,
  "( INEC": 6954,
  "a  \" . \"": 6955,
  "ha  \" . \"": 6956,
  "Afara": 6957,
  "Adegbo": 6958,
  "Eagles ,": 6959,
  "Mic": 6960,
  "nnọkọ": 6961,
  "Obi-": 6962,
  "lood": 6963,
  "hood": 6964,
  "ụyọ": 6965,
  "nkata ,": 6966,
  "Caro": 6967,
  "Gide": 6968,
  "iner": 6969,
  "a ? ”": 6970,
  "2005": 6971,
  "2004": 6972,
  "2006": 6973,
  "Assi": 6974,
  "Tom": 6975,
  "ụlọakwụkwọ .": 6976,
  "ụwa . ,": 6977,
  "Stam": 6978,
  "Chieme": 6979,
  "Bode": 6980,
  "Dia": 6981,
  "iden .": 6982,
  "arụ ,": 6983,
  "wig": 6984,
  "juun ,": 6985,
  "Toky": 6986,
  "ihiala ,": 6987,
  "Ezenne": 6988,
  "Boe": 6989,
  "mily": 6990,
  "nledo": 6991,
  "ọgụgụ .": 6992,
  "ọgụgụ ,": 6993,
  "Cairo": 6994,
  "nchọnchọ": 6995,
  "Bene": 6996,
  "Beni": 6997,
  "ụjọ ,": 6998,
  "Haw": 6999,
  "Nnamu": 7000,
  "ụlọakụ .": 7001,
  "League ,": 7002,
  "Alph": 7003,
  "Lagos .": 7004,
  "Chukwueze": 7005,
  "Zion": 7006,
  "zman": 7007,
  "power": 7008,
  "Abia": 7009,
  "Jef": 7010,
  "mfe ,": 7011,
  "mkpesa .": 7012,
  "Gui": 7013,
  "ogologo ,": 7014,
  "Duro": 7015,
  "DNA": 7016,
  "Abbo": 7017,
  "Ikea": 7018,
  "Ikeme": 7019,
  "yoyo": 7020,
  "wayo": 7021,
  "170": 7022,
  "taata .": 7023,
  "184": 7024,
  " ? ” )": 7025,
  "m ? ”": 7026,
  "Madrid .": 7027,
  "mgbede ,": 7028,
  "okenye .": 7029,
  "ọkụkọ .": 7030,
  "Team": 7031,
  "Segun": 7032,
  "dolla": 7033,
  "Sowore :": 7034,
  "ọjị .": 7035,
  "na  \" ndị \"": 7036,
  "ndokwa": 7037,
  "Baby": 7038,
  "arụsị ,": 7039,
  "Jerom": 7040,
  "El-Zakzaky .": 7041,
  "gence": 7042,
  "Jur": 7043,
  "sị  \" ọ \"": 7044,
  "Harcourt .": 7045,
  "12 :": 7046,
  "ụma .": 7047,
  "Mbakwe": 7048,
  "bụ ...": 7049,
  "Adichi": 7050,
  "Arab": 7051,
  "agadị": 7052,
  "-West": 7053,
  "Iv .": 7054,
  "Asia": 7055,
  "Cameroon ,": 7056,
  "omekatara": 7057,
  "nchara .": 7058,
  "ncha ,": 7059,
  "ogbenye ,": 7060,
  "ịchafụ :": 7061,
  "Hunga": 7062,
  "Human": 7063,
  "Christie": 7064,
  "min ) .": 7065,
  "Daniel ,": 7066,
  "2006 ,": 7067,
  "ichie": 7068,
  "mbịambịa": 7069,
  "Shehu ,": 7070,
  "Dr .": 7071,
  "grik ,": 7072,
  "nkụ .": 7073,
  "“ ụmụnna": 7074,
  "bukola": 7075,
  "ANU": 7076,
  "( AN": 7077,
  "Weare": 7078,
  "Stella": 7079,
  "nọvemba .": 7080,
  "trea": 7081,
  "okwute .": 7082,
  "Okonjo": 7083,
  "ose ,": 7084,
  "Europe .": 7085,
  "eprel .": 7086,
  "Prime": 7087,
  "change": 7088,
  "baptizim .": 7089,
  "Andy": 7090,
  "Marble": 7091,
  "nwaamadị": 7092,
  "zor ,": 7093,
  "Count": 7094,
  "Godson": 7095,
  "ebube .": 7096,
  "oney": 7097,
  "35 )": 7098,
  "- 5 )": 7099,
  "ọgaranya .": 7100,
  "1999 .": 7101,
  "mpako": 7102,
  "27 )": 7103,
  "myr": 7104,
  "ISIS": 7105,
  "mbombo": 7106,
  "Minister": 7107,
  "Crow": 7108,
  "Cup :": 7109,
  "duct": 7110,
  "Admini": 7111,
  "tel .": 7112,
  "Akure": 7113,
  "public": 7114,
  "ttlement": 7115,
  "ozigbo .": 7116,
  "Imo ,": 7117,
  "nsụnsụ": 7118,
  "nce :": 7119,
  "Prince": 7120,
  "( IMN": 7121,
  "mond": 7122,
  "ịgba ,": 7123,
  "blican": 7124,
  "parish": 7125,
  "Change": 7126,
  "kpọmkwem .": 7127,
  "pino": 7128,
  "ịhụnanya ,": 7129,
  "Aguleri ,": 7130,
  "Mali .": 7131,
  "Timgad .": 7132,
  "ICPC": 7133,
  "Khasho": 7134,
  "service": 7135,
  "PP )": 7136,
  "Youth": 7137,
  "Lille": 7138,
  "Premiership": 7139,
  "trou": 7140,
  "ndidi .": 7141,
  "Odinga": 7142,
  "ezie ?": 7143,
  "Xenophobia :": 7144,
  "saịrọs": 7145,
  "ngwuru": 7146,
  "2000 ,": 7147,
  "Wesley": 7148,
  "Daura": 7149,
  "Tali": 7150,
  "mmezu .": 7151,
  "zuruoke": 7152,
  "bụ  \" ụmụada": 7153,
  "awara": 7154,
  "607": 7155,
  "Arewa": 7156,
  "Clay": 7157,
  "Olimpi": 7158,
  "Chibuike": 7159,
  "Chidiebere": 7160,
  "Codeine :": 7161,
  "Spanish .": 7162,
  "Jezi": 7163,
  "Asagwa": 7164,
  "Clint": 7165,
  "Akin": 7166,
  "Nebal": 7167,
  "Croa": 7168,
  "Whit": 7169,
  "Rotary": 7170,
  "Martins": 7171,
  "langua": 7172,
  "Warri": 7173,
  "- 14 )": 7174,
  "Supre": 7175,
  "Asisa": 7176,
  "barrel": 7177,
  "Roberto": 7178,
  "Lawal": 7179,
  "Fayemi": 7180,
  "kọnkịrị": 7181,
  "Peshia": 7182,
  "bezbọl .": 7183,
  "tumen": 7184,
  "pọpụl": 7185,
  "glass": 7186,
  "nwamkpị .": 7187,
  "iberiibe .": 7188,
  "heem": 7189,
  "ddle": 7190,
  "ERAP": 7191,
  "ngwupụta": 7192,
  "referee": 7193,
  "Hutter": 7194,
  "Ibikunle": 7195,
  "Korea .": 7196,
  "________________________________": 7197,
  "pounds": 7198,
  "MATA": 7199,
  "megawa": 7200,
  "Jigawa": 7201,
  "Aguero": 7202,
  "Wilfred": 7203,
  "Crimes": 7204,
  "Lebanon": 7205,
  "Uwazuruike": 7206,
  "uwa": 7207,
  "Wood": 7208,
  "Chuks": 7209,
  "CHOG": 7210,
  "kọrịta .": 7211,
  "Calli": 7212,
  "Founda": 7213,
  "Scot": 7214,
  "Jessica": 7215,
  "Anaocha": 7216,
  "Virgil": 7217,
  "Ferna": 7218,
  "Ngue": 7219,
  "Linda": 7220,
  "Guardio": 7221,
  "attack": 7222,
  "Result": 7223,
  "LEA": 7224,
  "Ndubisi": 7225,
  "Nnamani": 7226,
  "Ralph": 7227,
  "Snow": 7228,
  "Kachikwu": 7229,
  "Madumere": 7230,
  "krismas .": 7231,
  "Record": 7232,
  "Electricity": 7233,
  "Academy": 7234,
  "Universal": 7235,
  "Maduagwu": 7236,
  "Mbonu": 7237,
  "meditere": 7238,
  "vaịn": 7239,
  "Nzewuji": 7240,
  "Nelson": 7241,
  "Heart": 7242,
  "Civil": 7243,
  "Technovation": 7244,
  "Salisu": 7245,
  "Sadiya": 7246,
  "Adazi-N": 7247,
  "Adeboye": 7248,
  "Abatete": 7249,
  "Living": 7250,
  "Imohimi": 7251,
  "Konduga": 7252,
  "Portugal": 7253,
  "Athletics": 7254,
  "Voice": 7255,
  "Achalla": 7256,
  "goolụ": 7257,
  "Arochukwu": 7258,
  "Enugwu": 7259,
  "okokporo": 7260,
  "Rafa": 7261,
  "Lekki": 7262,
  "Justice": 7263,
  "October": 7264,
  "Dominic": 7265,
  "Teodorin": 7266,
  "Wisdom": 7267,
  "Ifejiofor": 7268,
  "Omambala": 7269,
  "cashless": 7270,
  "UNES": 7271,
  "Gọv": 7272,
  "friji": 7273,
  "siness": 7274,
  "ọkpụtọrọ": 7275,
  "amagedọ": 7276,
  "dọb": 7277,
  "Simone": 7278,
  "Times": 7279,
  "nkeypox": 7280,
  "umudioka": 7281,
  "Fulham": 7282,
  "Standard": 7283,
  "Bucknor": 7284,
  "ezumezu": 7285,
  "Ruben": 7286,
  "Nnadozie": 7287,
  "Closure :": 7288,
  "Spann": 7289,
  "Methodi": 7290,
  "Airpeace": 7291,
  "Balarabe": 7292,
  "egedege": 7293,
  "conclusive": 7294,
  "Transformation": 7295,
  "Lamborghini": 7296,
  "Onaiyekan": 7297,
  "Ecuador": 7298,
  "klọb": 7299,
  "prọfe": 7300,
  "kwụrụ  \" na \"": 7301,
  "Ulumma": 7302,
  "jọlọf": 7303,
  "Esther": 7304,
  "Ahiara": 7305,
  "Die": 7306,
  "Nmachukwu": 7307,
  "naijiria": 7308,
  "Frankfurt": 7309,
  "Jacob": 7310,
  "Adegboruwa": 7311,
  "ụyọkọ": 7312,
  "Stamford": 7313,
  "Boeing": 7314,
  "Durotoye": 7315,
  "dollar": 7316,
  "Jurgen": 7317,
  "( IMN )": 7318,
  "Republican": 7319,
  "Khashoggi": 7320,
  "Taliban": 7321,
  "bụ  \" ụmụada \" \" n' \"": 7322,
  "Olimpiks": 7323,
  "Jezibel": 7324,
  "Croatia": 7325,
  "Supreme": 7326,
  "Asisat": 7327,
  "megawatt": 7328,
  "uwazuruike": 7329,
  "CHOGM": 7330,
  "Callistus": 7331,
  "Foundation": 7332,
  "Nguema": 7333,
  "mediterenian": 7334,
  "Rafael": 7335,
  "UNESCO": 7336,
  "ọkpụtọrọkpụ": 7337,
  "dọblịn": 7338,
  "Diezani": 7339,
  "BC": 7340,
  "ez": 7341,
  "nn": 7342,
  "akp": 7343,
  "SU": 7344,
  "Ik": 7345,
  "73": 7346,
  "56": 7347,
  "83": 7348,
  "Gbe": 7349,
  "Cu": 7350,
  "FM": 7351,
  "Qa": 7352,
  "72": 7353,
  "tn": 7354,
  "Ish": 7355,
  "-P": 7356,
  "Ef": 7357,
  "Cho": 7358,
  "Dy": 7359,
  "AZ": 7360,
  "74": 7361,
  "OR": 7362,
  "Ty": 7363,
  "án": 7364,
  "UA": 7365,
  "TB": 7366,
  "RB": 7367,
  "nam": 7368,
  "gna": 7369,
  "wka": 7370,
  "maọ": 7371,
  "i .": 7372,
  "C .": 7373,
  "S .": 7374,
  "T .": 7375,
  "’ .": 7376,
  "J .": 7377,
  " . ,": 7378,
  "c ,": 7379,
  "make": 7380,
  "rai": 7381,
  "Aha": 7382,
  "Wha": 7383,
  "cre": 7384,
  "tai": 7385,
  "uta": 7386,
  "Aga": 7387,
  "rume": 7388,
  "nru": 7389,
  "bao": 7390,
  "tes": 7391,
  "tate": 7392,
  "nker": 7393,
  "Ogba": 7394,
  "bena": 7395,
  "tima": 7396,
  "lena": 7397,
  "tele": 7398,
  "Ole": 7399,
  "bin": 7400,
  "nkebi": 7401,
  "azi": 7402,
  "zig": 7403,
  "ziz": 7404,
  "Imma": 7405,
  "Ụmụ": 7406,
  "ri \"": 7407,
  "? \"": 7408,
  "dera": 7409,
  "des": 7410,
  "rade": 7411,
  "Ene": 7412,
  "nel": 7413,
  "new": 7414,
  "Ane": 7415,
  "dow": 7416,
  "Ndo": 7417,
  "mago": 7418,
  "gbuo": 7419,
  "Visi": 7420,
  "lima": 7421,
  "ike \"": 7422,
  "gbanụ": 7423,
  "roke": 7424,
  "uge": 7425,
  "gge": 7426,
  "Ebu": 7427,
  "burụ": 7428,
  "ala \"": 7429,
  "Ugbo": 7430,
  "ghiri": 7431,
  "t :": 7432,
  "6 :": 7433,
  "Nkwe": 7434,
  "kpe .": 7435,
  "Ọnwụ": 7436,
  "dam": 7437,
  "sex": 7438,
  "Ose": 7439,
  "akụ .": 7440,
  "lus": 7441,
  "alu": 7442,
  "Robi": 7443,
  "nobi": 7444,
  "rizu": 7445,
  "ịdi": 7446,
  "dim": 7447,
  "ri  \" ": 7448,
  "ọ  \" ": 7449,
  "rọ ?": 7450,
  "o ?": 7451,
  "isi ?": 7452,
  "Miche": 7453,
  "ilele": 7454,
  "Gile": 7455,
  "Agụ": 7456,
  "val": 7457,
  "vac": 7458,
  "kulu": 7459,
  "Ako": 7460,
  "nife": 7461,
  " , ”": 7462,
  "m ”": 7463,
  "a ”": 7464,
  "pa .": 7465,
  "ọnụ ?": 7466,
  "Adu": 7467,
  "kedu": 7468,
  "120": 7469,
  "khi": 7470,
  "tomi": 7471,
  "tola": 7472,
  "ntị ?": 7473,
  "zụ .": 7474,
  "Rho": 7475,
  "zho": 7476,
  "ahụ . ,": 7477,
  "ego \"": 7478,
  "“ ozi": 7479,
  "sia ,": 7480,
  "ia ,": 7481,
  "lia ,": 7482,
  "sha ,": 7483,
  "er ,": 7484,
  "erra": 7485,
  "dier": 7486,
  "Der": 7487,
  "Maha": 7488,
  "ụfọdụ \"": 7489,
  "mkpo": 7490,
  "rụ . ”": 7491,
  "bịa . ”": 7492,
  "Apa": 7493,
  "ppa": 7494,
  "( ga": 7495,
  "( 5": 7496,
  "( 7": 7497,
  "olu .": 7498,
  "olu ,": 7499,
  "Home": 7500,
  "ụka  \" ": 7501,
  "hel": 7502,
  "nwu ,": 7503,
  "juda": 7504,
  "nga .": 7505,
  "Igwe": 7506,
  "mpic": 7507,
  "mpi .": 7508,
  "Mau": 7509,
  "Mari": 7510,
  "ya . ;": 7511,
  "ike ;": 7512,
  "anyị ;": 7513,
  "Cara": 7514,
  "naza": 7515,
  "mbaza": 7516,
  "emo": 7517,
  "mont": 7518,
  "ce ,": 7519,
  "Ice": 7520,
  "ntamu": 7521,
  "anụ .": 7522,
  "BBC \"": 7523,
  "logi": 7524,
  "ilo": 7525,
  "ọgbara": 7526,
  "nsogbu ?": 7527,
  "main": 7528,
  "Win": 7529,
  "Cin": 7530,
  "mgbada": 7531,
  "nwunye ?": 7532,
  "egwuregwu :": 7533,
  "enue": 7534,
  "mmadụ .  \" ": 7535,
  "naịjirịa .  \" ": 7536,
  "Sar": 7537,
  "Lar": 7538,
  "dith": 7539,
  "ath": 7540,
  "“ naanị": 7541,
  "amala": 7542,
  "out": 7543,
  "Zou": 7544,
  "penti": 7545,
  "Chia": 7546,
  "Ebere": 7547,
  "ekpe ,": 7548,
  "ekpe .": 7549,
  "kemgbe \"": 7550,
  "Vol": 7551,
  "vol": 7552,
  "gide .": 7553,
  "Anal": 7554,
  "sonal": 7555,
  "nkeji .": 7556,
  "kil": 7557,
  "Oil": 7558,
  "Mail": 7559,
  "bail": 7560,
  "ntozu": 7561,
  "ozu .": 7562,
  "tion :": 7563,
  "bution": 7564,
  "Nno": 7565,
  "ọgbanje": 7566,
  "vita": 7567,
  "Roch": 7568,
  "Nki": 7569,
  "oki": 7570,
  "APC :": 7571,
  "nting": 7572,
  "eting": 7573,
  "omeiwu .": 7574,
  "vez": 7575,
  "nds": 7576,
  "um ,": 7577,
  "um .": 7578,
  "ham .": 7579,
  "yede": 7580,
  "- 19": 7581,
  "nsọ ?": 7582,
  "Mos": 7583,
  "Mona": 7584,
  "rịọrịọ": 7585,
  "mkpụrụ ,": 7586,
  "ire .": 7587,
  "akara .": 7588,
  "Lau": 7589,
  "Late": 7590,
  "Cont": 7591,
  "Costa": 7592,
  "DP )": 7593,
  "ire ,": 7594,
  "Say": 7595,
  "Sani": 7596,
  "Haram ?": 7597,
  "ọkpụkpọ": 7598,
  "ọtị": 7599,
  "tịn": 7600,
  "ya !": 7601,
  "o !": 7602,
  "cha !": 7603,
  "ta !": 7604,
  "mmanụ ,": 7605,
  "vus": 7606,
  "Pat": 7607,
  "iru .": 7608,
  "Baịbụl": 7609,
  "Baga": 7610,
  "ụba .": 7611,
  "nkwado .": 7612,
  "Paci": 7613,
  "Super \"": 7614,
  "Gam": 7615,
  "Ram": 7616,
  "ntifi": 7617,
  "coin": 7618,
  "com": 7619,
  "coma": 7620,
  "Okoli": 7621,
  "oku ,": 7622,
  "omenala .": 7623,
  "Billi": 7624,
  "Kur": 7625,
  "Jour": 7626,
  "Our": 7627,
  "fo-": 7628,
  "Wike ,": 7629,
  "Eagles .": 7630,
  "Mila": 7631,
  "mị ,": 7632,
  "ụlọụka ,": 7633,
  "“ chineke ,": 7634,
  "diora": 7635,
  "Chelsea .": 7636,
  "Chelsea ,": 7637,
  "miah": 7638,
  "iyi ,": 7639,
  "pass": 7640,
  "mass": 7641,
  "ochie ?": 7642,
  "Sir": 7643,
  "Mohamma": 7644,
  "enyemaka ,": 7645,
  "2003": 7646,
  "ssia": 7647,
  "Media": 7648,
  "ult": 7649,
  " , \" \" ": 7650,
  "fort": 7651,
  "Nwora": 7652,
  "Nwoye": 7653,
  "rald": 7654,
  "stan .": 7655,
  "mbinye": 7656,
  "mbilite": 7657,
  "Swi": 7658,
  "juun .": 7659,
  "kwo .": 7660,
  "Kemi": 7661,
  "Ekweremadu ,": 7662,
  "nhọpụta ,": 7663,
  "Abule": 7664,
  "Ezeagu": 7665,
  "Ezeobi": 7666,
  "Bola": 7667,
  "Kong": 7668,
  "along": 7669,
  "Nyong": 7670,
  "( 1 ,": 7671,
  "2011 ,": 7672,
  "000 ) .": 7673,
  "Bunde": 7674,
  "Chapo": 7675,
  "m ) ,": 7676,
  "150": 7677,
  "Bea": 7678,
  "Best": 7679,
  "Okezi": 7680,
  "mọkpọ": 7681,
  "amadị ,": 7682,
  "meri .": 7683,
  "Osim": 7684,
  "Marco": 7685,
  "Marti": 7686,
  "Betha": 7687,
  "Chukwuka": 7688,
  "Bring": 7689,
  "Britan": 7690,
  "seman": 7691,
  "Dix": 7692,
  "nnyocha ,": 7693,
  "Jero": 7694,
  "nrụpụta": 7695,
  "Guma": 7696,
  "State :": 7697,
  "Norther": 7698,
  "state :": 7699,
  "23 ,": 7700,
  "okorobịa .": 7701,
  "Ikenna": 7702,
  "Fayo": 7703,
  "Toyo": 7704,
  "Gail": 7705,
  "17 ;": 7706,
  "17 ,": 7707,
  "ofufe ,": 7708,
  "stration": 7709,
  "deration": 7710,
  "agụụ ,": 7711,
  "Africa :": 7712,
  "Hero": 7713,
  "Nove": 7714,
  "- 13": 7715,
  "113": 7716,
  "Amadi": 7717,
  "Wales": 7718,
  "kịrịkịrị": 7719,
  "spen ,": 7720,
  "Ghana ,": 7721,
  "cup": 7722,
  "- 16": 7723,
  "ahịhịa .": 7724,
  "Island": 7725,
  "Issa": 7726,
  "nguzo": 7727,
  "USA": 7728,
  "US .": 7729,
  "nrụrụaka ,": 7730,
  "Zimbabwe ,": 7731,
  "arụma": 7732,
  "SON": 7733,
  "Naija .": 7734,
  "12 - ": 7735,
  "Bissa": 7736,
  "Common": 7737,
  "na  \" ihe \"": 7738,
  "gard": 7739,
  "ramado": 7740,
  "2016 ,": 7741,
  "fite ,": 7742,
  "ọgwụgwụ .": 7743,
  "ekwulọ": 7744,
  "idemmiri .": 7745,
  "( DSS": 7746,
  "Wealth": 7747,
  "Abdula": 7748,
  "Dora": 7749,
  "tives": 7750,
  "Prie": 7751,
  "33 ,": 7752,
  "North .": 7753,
  "North ,": 7754,
  "Plateau ,": 7755,
  "graph": 7756,
  "carpe": 7757,
  "bill": 7758,
  "shot": 7759,
  "Food": 7760,
  "nghọta ,": 7761,
  "mbido ,": 7762,
  "mbido .": 7763,
  "ịchafụ ,": 7764,
  "agụmakwụkwọ .": 7765,
  "Hud": 7766,
  "dimkpa .": 7767,
  "mgbochi .": 7768,
  "28 :": 7769,
  "Abid": 7770,
  "Fatoyinbo .": 7771,
  "Lupita": 7772,
  "Niger .": 7773,
  "AC )": 7774,
  "Elia": 7775,
  "ọlaedo ,": 7776,
  "Danma": 7777,
  "ekwensu ,": 7778,
  "Grea": 7779,
  "Ifeanyichukwu": 7780,
  "awa .": 7781,
  "Adamu ,": 7782,
  "minium": 7783,
  "miliano": 7784,
  "sị ,  \" anyị \"": 7785,
  "24 ,": 7786,
  "Babande": 7787,
  "nze ,": 7788,
  "29 ,": 7789,
  "ya :  \" ": 7790,
  "lady": 7791,
  "erimeri": 7792,
  "Libya ,": 7793,
  "Goddy": 7794,
  "viron": 7795,
  "Corby": 7796,
  "Rehab .": 7797,
  "day .": 7798,
  "imi ,": 7799,
  "Open .": 7800,
  "fford": 7801,
  "Enwo": 7802,
  "nzọụkwụ": 7803,
  "Leone": 7804,
  "ya .  \" ihe \"": 7805,
  "ịhụnanya .": 7806,
  "ịnyịnya .": 7807,
  "Off": 7808,
  "Staff": 7809,
  "2010 ,": 7810,
  "40 ,": 7811,
  "Magazi": 7812,
  "Guinea ,": 7813,
  "photo": 7814,
  "Uzoho": 7815,
  "izugbe .": 7816,
  "Kanu ,": 7817,
  "mark": 7818,
  "Nwodo ,": 7819,
  "a ! ”": 7820,
  "enyo ,": 7821,
  "mbịarambịa": 7822,
  "Ngige ,": 7823,
  "ramic": 7824,
  "Imo .": 7825,
  "ọfọka": 7826,
  "njedebe ,": 7827,
  "Service ,": 7828,
  "ller": 7829,
  "Ikechukwu ,": 7830,
  "Benjami": 7831,
  "Public": 7832,
  "Hote": 7833,
  "ụmụahịa ,": 7834,
  "Card": 7835,
  "500 .": 7836,
  "500 ,": 7837,
  "telli": 7838,
  "Malami": 7839,
  "Anajemba ,": 7840,
  "Resto": 7841,
  "ụfụ ,": 7842,
  "kpọmkwem ,": 7843,
  "Airport :": 7844,
  "2008 .": 7845,
  "pọint": 7846,
  "otuto ,": 7847,
  "Oyema": 7848,
  "“ biko ,": 7849,
  "bonch": 7850,
  "sọnde ,": 7851,
  "azụmaahịa ,": 7852,
  "Rechel": 7853,
  "Harper": 7854,
  "iller": 7855,
  "Nnaemeka": 7856,
  "Atla": 7857,
  "TCN": 7858,
  "CNM": 7859,
  "Crimi": 7860,
  "Uwaifo": 7861,
  "Karou": 7862,
  "Nuel": 7863,
  "Nkemdi": 7864,
  "ologbo": 7865,
  "nical": 7866,
  "2000 .": 7867,
  "370": 7868,
  "Los": 7869,
  "Akase": 7870,
  "Onoh": 7871,
  "Calix": 7872,
  "pọnti": 7873,
  "ọkọchị ,": 7874,
  "Kaduna ,": 7875,
  "akụnụba": 7876,
  "Canc": 7877,
  "Amina": 7878,
  "Chidoka": 7879,
  "Sovie": 7880,
  "Ebuka": 7881,
  "nchụaja ,": 7882,
  "syn": 7883,
  "ịkpeazụ": 7884,
  "spor": 7885,
  "Codeine ,": 7886,
  "bn )": 7887,
  "Megan": 7888,
  "Berger": 7889,
  "msby": 7890,
  "Angel": 7891,
  "Angeles": 7892,
  "Reube": 7893,
  "Lord": 7894,
  "Doro": 7895,
  "“ mkpụrụ ”": 7896,
  "Patricia": 7897,
  "Duke": 7898,
  "Agbako": 7899,
  "Oyo-": 7900,
  "Okwuo": 7901,
  "Wage :": 7902,
  "Uhuru": 7903,
  "ugboguru": 7904,
  "Ogakwu": 7905,
  "odide": 7906,
  "billion": 7907,
  "Out": 7908,
  "Pente": 7909,
  "ebelebe": 7910,
  "copper": 7911,
  "class": 7912,
  "cultu": 7913,
  "Idigo ,": 7914,
  "restructuring": 7915,
  "YPP": 7916,
  "lịkalịka": 7917,
  "Nimo ,": 7918,
  "nofia": 7919,
  "Korea ,": 7920,
  "Okpaleke": 7921,
  "BBOG": 7922,
  "Raila": 7923,
  "Akwa ": 7924,
  "kọrịnt": 7925,
  "antino": 7926,
  "onugbu": 7927,
  "Scott": 7928,
  "ọmịiko": 7929,
  "Jessie": 7930,
  "Newspa": 7931,
  "Taiwo": 7932,
  "stries": 7933,
  "Stadium": 7934,
  "Light ,": 7935,
  "Odekpe ,": 7936,
  "awọ": 7937,
  "Malta": 7938,
  "Atani": 7939,
  "Odedeji": 7940,
  "obosara": 7941,
  "border": 7942,
  "ukpor": 7943,
  "Nwabueze": 7944,
  "gbụrụgbụrụ": 7945,
  "Enfor": 7946,
  "Cornelius": 7947,
  "Officer": 7948,
  "udiri": 7949,
  "Spring": 7950,
  "Iweka": 7951,
  "Adoration": 7952,
  "oroma": 7953,
  "Simeon": 7954,
  "Sambisa": 7955,
  "urrency": 7956,
  "Florida": 7957,
  "Ayamelum": 7958,
  "Euph": 7959,
  "farisi": 7960,
  "aching": 7961,
  "Falana": 7962,
  "  \" naịjirịa \"": 7963,
  "Hanna": 7964,
  "Babangi": 7965,
  "helikọpta": 7966,
  "Global": 7967,
  "Stock": 7968,
  "Mallam": 7969,
  "Gods": 7970,
  "Zubair": 7971,
  "Mysti": 7972,
  "ssor": 7973,
  "Kelvin": 7974,
  "Chimezie": 7975,
  "Chikwelu": 7976,
  "Nicolas": 7977,
  "Ehab .": 7978,
  "Immi": 7979,
  "Texas": 7980,
  "Sergio": 7981,
  "Dangote": 7982,
  "Technology": 7983,
  "Venerable": 7984,
  "budget": 7985,
  "Abdulrashee": 7986,
  "Eaglets": 7987,
  "strike :": 7988,
  "Loveth": 7989,
  "explo": 7990,
  "Venezuela": 7991,
  "Chukwulobelu": 7992,
  "Onigb": 7993,
  "Ebenato": 7994,
  "Version": 7995,
  "afikpo": 7996,
  "Chizea": 7997,
  "Muslim": 7998,
  "lazarọs ,": 7999,
  "Brigade": 8000,
  "Donatus": 8001,
  "yuniọn": 8002,
  "Province": 8003,
  "Abdulrahman": 8004,
  "Adeosun": 8005,
  "Abeokuta": 8006,
  "Ebelechukwu": 8007,
  "Miracle": 8008,
  "Josephine": 8009,
  "Polytechnic": 8010,
  "Avomimi": 8011,
  "Obono-Obla": 8012,
  "TUC": 8013,
  "Leip": 8014,
  "kadịnal": 8015,
  "lọọlọ": 8016,
  "Mandela": 8017,
  "Rebecca": 8018,
  "Riley": 8019,
  "Yahaya": 8020,
  "Banabas": 8021,
  "psum": 8022,
  "Man City": 8023,
  "Gideon": 8024,
  "Bodejo": 8025,
  "Family": 8026,
  "Nnamuoh": 8027,
  "David-West": 8028,
  "Hungary": 8029,
  "Adebukola": 8030,
  "Rooney": 8031,
  "Crowther": 8032,
  "betel .": 8033,
  "republic": 8034,
  "Settlement": 8035,
  "Clinton": 8036,
  "SERAP": 8037,
  "nkwekọrịta .": 8038,
  "Guardiola": 8039,
  "NDLEA": 8040,
  "Snowden": 8041,
  "inconclusive": 8042,
  "prọfesọ": 8043,
  "utazi": 8044,
  "Ararume": 8045,
  "tatenaị": 8046,
  "Chidera": 8047,
  "ugegbe": 8048,
  "oseburụ": 8049,
  "Amarizu": 8050,
  "Ashịdi": 8051,
  "Gilead": 8052,
  "Sierra": 8053,
  "Dambaza": 8054,
  "Cindy": 8055,
  "pentikọ": 8056,
  "Analy": 8057,
  "Matịn": 8058,
  "Ruffcoin": 8059,
  "Akufo-": 8060,
  "Mohammad": 8061,
  "Bundesli": 8062,
  "Bethany": 8063,
  "Dixon": 8064,
  "Northern": 8065,
  "Toyota": 8066,
  "nguzobe": 8067,
  "Babandede": 8068,
  "Trafford": 8069,
  "Magazine": 8070,
  "telligence": 8071,
  "Restoration \"": 8072,
  "Oyemade": 8073,
  "Criminal": 8074,
  "Karoui": 8075,
  "Nuella": 8076,
  "Calixto": 8077,
  "pọntiọs": 8078,
  "Soviet": 8079,
  "Grimsby": 8080,
  "Dorothy": 8081,
  "Agbakoba": 8082,
  "Penteco": 8083,
  "Infantino": 8084,
  "Newspaper": 8085,
  "Enforcement": 8086,
  "farisii": 8087,
  "Godswill": 8088,
  "Mystique": 8089,
  "Immigration": 8090,
  "Abdulrasheed": 8091,
  "explosion :": 8092,
  "Ebenator ,": 8093,
  "Leipzig": 8094,
  "Akufo-Ad": 8095,
  "Newspapers": 8096,
  "ob": 8097,
  "mgb": 8098,
  "sc": 8099,
  "igh": 8100,
  "nny": 8101,
  "shị": 8102,
  "On": 8103,
  "fy": 8104,
  "ME": 8105,
  "TH": 8106,
  "Ky": 8107,
  "MH": 8108,
  "tz": 8109,
  "AW": 8110,
  "53": 8111,
  "cht": 8112,
  "52": 8113,
  "81": 8114,
  "42": 8115,
  "jj": 8116,
  "86": 8117,
  "NG": 8118,
  "dh": 8119,
  "62": 8120,
  "IL": 8121,
  "51": 8122,
  "Mr": 8123,
  "VI": 8124,
  "82": 8125,
  "nyọ": 8126,
  "uka": 8127,
  "naka": 8128,
  "Ima": 8129,
  "d .": 8130,
  "B .": 8131,
  "G .": 8132,
  "D .": 8133,
  "i ,": 8134,
  "b ,": 8135,
  "rat": 8136,
  "ira": 8137,
  "Ame": 8138,
  "kha": 8139,
  "hama": 8140,
  "Gre": 8141,
  "tau": 8142,
  "Iga": 8143,
  "fla": 8144,
  "Pla": 8145,
  "lam": 8146,
  "mala": 8147,
  "Ula": 8148,
  "kala": 8149,
  "lata": 8150,
  "rike": 8151,
  "tsi": 8152,
  "sio": 8153,
  "tarị": 8154,
  "Cru": 8155,
  "oru": 8156,
  "yaba": 8157,
  "Ute": 8158,
  "Nte": 8159,
  "Etu": 8160,
  "turu": 8161,
  "stu": 8162,
  "Atu": 8163,
  "Enwe": 8164,
  "Igba": 8165,
  "Mgba": 8166,
  "Egba": 8167,
  "adụ": 8168,
  "tie": 8169,
  "cle": 8170,
  "otute": 8171,
  "bit": 8172,
  "labi": 8173,
  "kọle": 8174,
  "Ọkọ": 8175,
  "wele": 8176,
  "we .": 8177,
  "m \"": 8178,
  "ji \"": 8179,
  "ahụ \"": 8180,
  "zọ ,": 8181,
  "nlọ": 8182,
  "nọ \"": 8183,
  "Nde": 8184,
  "Ede": 8185,
  "nei": 8186,
  "neme": 8187,
  "dodo": 8188,
  "war": 8189,
  "Swa": 8190,
  "ụlọ \"": 8191,
  "go .": 8192,
  "gon": 8193,
  "Sisi": 8194,
  "ghachi": 8195,
  "mmadụ \"": 8196,
  "sau": 8197,
  "liya": 8198,
  "lis": 8199,
  "Egbe": 8200,
  "Shike": 8201,
  "kero": 8202,
  "gro": 8203,
  "ror": 8204,
  "Eni": 8205,
  "Age": 8206,
  "kpala": 8207,
  "nigbo": 8208,
  "ụmụụmụ": 8209,
  "9 :": 8210,
  "kpara": 8211,
  "mamba": 8212,
  "nọmba": 8213,
  "boy": 8214,
  "okwu \"": 8215,
  "nnwụ": 8216,
  "ọzọ \"": 8217,
  "se .": 8218,
  "sene": 8219,
  "sed": 8220,
  "sey": 8221,
  "Nse": 8222,
  "lobi": 8223,
  "Ezu": 8224,
  "die": 8225,
  "akwụkwụ": 8226,
  "rian": 8227,
  "Fan": 8228,
  "Kwan": 8229,
  "anni": 8230,
  "s  \" ": 8231,
  "anya  \" ": 8232,
  "  \" we": 8233,
  "  \" na-a": 8234,
  "si  \" ": 8235,
  "  \" )": 8236,
  "je .": 8237,
  "Nje": 8238,
  "si ?": 8239,
  "nọ ?": 8240,
  "afọ ?": 8241,
  "ezi ?": 8242,
  "Nile": 8243,
  "oge ?": 8244,
  "ya )": 8245,
  "otu )": 8246,
  "Iwu": 8247,
  "Uko": 8248,
  "uko": 8249,
  "Eko": 8250,
  "kode": 8251,
  "ufe": 8252,
  "“ chọ": 8253,
  "“ gba": 8254,
  "“ bụ": 8255,
  "“ anya": 8256,
  "“ ụlọ": 8257,
  "“ nwe": 8258,
  "ahụ ”": 8259,
  "ihe ”": 8260,
  "bi ”": 8261,
  "Hon": 8262,
  "emi": 8263,
  "mian": 8264,
  "obodo ?": 8265,
  "hiti": 8266,
  "toro": 8267,
  "iwu \"": 8268,
  "ụbọchị ?": 8269,
  "ịzụ": 8270,
  "ụlụ": 8271,
  "“ mana": 8272,
  "oji ,": 8273,
  "ọchịchị ?": 8274,
  "Saha": 8275,
  "ojii :": 8276,
  "sụ .": 8277,
  "ha . )": 8278,
  "stru": 8279,
  "st .": 8280,
  "ọma ”": 8281,
  "okwu . ”": 8282,
  "] . ”": 8283,
  "ru . ”": 8284,
  "ga . ”": 8285,
  "otu . ”": 8286,
  "ụbọchị . ”": 8287,
  "ụlọ . ”": 8288,
  "oke . ”": 8289,
  "nior": 8290,
  "vor": 8291,
  "Tor": 8292,
  "jehova ?": 8293,
  "jehova . ”": 8294,
  "nna .": 8295,
  "nnanna": 8296,
  "( 2": 8297,
  "( F": 8298,
  "( ndị": 8299,
  "( otu": 8300,
  "( gụ": 8301,
  "inyo": 8302,
  "mkpara": 8303,
  "Wel": 8304,
  "Pel": 8305,
  "nwu .": 8306,
  "Pana": 8307,
  "mpana": 8308,
  "mole": 8309,
  "bọmbụ": 8310,
  "yi ,": 8311,
  "Mado": 8312,
  "Maga": 8313,
  "Mal": 8314,
  "Max": 8315,
  "Mako": 8316,
  "9 ;": 8317,
  "ọzọ ;": 8318,
  "7 ;": 8319,
  "rụ ;": 8320,
  "ala ;": 8321,
  "m ;": 8322,
  "bụ ;": 8323,
  "Para": 8324,
  "Shara": 8325,
  "Joel": 8326,
  "egu": 8327,
  "gui": 8328,
  "kmaa": 8329,
  "zza": 8330,
  "funa": 8331,
  "okomo": 8332,
  "menyi": 8333,
  "phe": 8334,
  "ces": 8335,
  "emu": 8336,
  "asọ .": 8337,
  "asọm": 8338,
  "lom": 8339,
  "asọmpi  \" ": 8340,
  "iwe ?": 8341,
  "nsogbu . ”": 8342,
  "inf": 8343,
  "Sin": 8344,
  "mgbaaka": 8345,
  "mgbam": 8346,
  "Venu": 8347,
  "ra .  \" ": 8348,
  "ọbụla .  \" ": 8349,
  "ary": 8350,
  "Kar": 8351,
  "ibe .": 8352,
  "beria": 8353,
  "etu \"": 8354,
  "Betu": 8355,
  "ọhụrụ ”": 8356,
  "th .": 8357,
  "sur": 8358,
  "afị": 8359,
  "AP )": 8360,
  "chukwu .": 8361,
  "menti": 8362,
  "Chiji": 8363,
  "“ kemgbe": 8364,
  "goolu ,": 8365,
  "narị ,": 8366,
  "pol": 8367,
  "Hol": 8368,
  "Sol": 8369,
  "pter": 8370,
  "“ ụgwọ": 8371,
  "ụgwọ ?": 8372,
  "ozizo": 8373,
  "nal :": 8374,
  "mail": 8375,
  "gation": 8376,
  "uno": 8377,
  "vic": 8378,
  "suki": 8379,
  "kid": 8380,
  "kibo": 8381,
  "ng ,": 8382,
  "omeiwu ,": 8383,
  "okpuru .": 8384,
  "Tosi": 8385,
  "osise": 8386,
  "dum ,": 8387,
  "tum ,": 8388,
  "tum .": 8389,
  "ye .": 8390,
  "yech": 8391,
  "Rea": 8392,
  "asụsụ .": 8393,
  "vers": 8394,
  "fever": 8395,
  "mpe .": 8396,
  "atụmatụ .": 8397,
  "Lice": 8398,
  "Life": 8399,
  "Lie": 8400,
  "nnu ,": 8401,
  "nsọtụ": 8402,
  "Moni": 8403,
  "Mont": 8404,
  "Ọm": 8405,
  "iano": 8406,
  "cano": 8407,
  "Mora": 8408,
  "mkpụrụokwu": 8409,
  "nkakwụ": 8410,
  "ndịagụ": 8411,
  "ọgbakọ ,": 8412,
  "Okpu": 8413,
  "Akpu": 8414,
  "ihere ,": 8415,
  "spo": 8416,
  "Opo": 8417,
  "post": 8418,
  "risc": 8419,
  "Sale": 8420,
  "Sabo": 8421,
  "Sabi": 8422,
  "ọkankuzi": 8423,
  "Pepe": 8424,
  "Naw": 8425,
  "Nas": 8426,
  "Nazi": 8427,
  "cas": 8428,
  "Laca": 8429,
  "Leme": 8430,
  "ụta .": 8431,
  "Josef ?": 8432,
  "ikike .": 8433,
  "abịa ,": 8434,
  "orie ,": 8435,
  "lowo": 8436,
  "Owo": 8437,
  "la !": 8438,
  "Alle": 8439,
  "bekee :": 8440,
  "us ,": 8441,
  "Wen": 8442,
  "dike .": 8443,
  "gry": 8444,
  "Muf": 8445,
  "Pau": 8446,
  "Pas": 8447,
  "ntụpọ": 8448,
  "ugo ,": 8449,
  "Atiku .": 8450,
  "amụ .": 8451,
  "okpueze": 8452,
  "ụba ,": 8453,
  "fim ,": 8454,
  "mmụta ,": 8455,
  "Eco": 8456,
  "cky": 8457,
  "kick": 8458,
  "apị": 8459,
  "Jaja": 8460,
  "dọkịta .": 8461,
  "eluigwe . ”": 8462,
  "ọdọgwụ": 8463,
  "dọkịta ,": 8464,
  "okwukwe ,": 8465,
  "ntorobịa ,": 8466,
  "Shop": 8467,
  "ophi": 8468,
  "Eagle": 8469,
  "Afo": 8470,
  "nefo": 8471,
  "UFC": 8472,
  "United .": 8473,
  "United :": 8474,
  "Adesi": 8475,
  "tenni": 8476,
  "tan ,": 8477,
  "akụkụ .": 8478,
  "yọs": 8479,
  "dioha": 8480,
  "secon": 8481,
  "ụta ,": 8482,
  "Josi": 8483,
  "sson": 8484,
  "Mason": 8485,
  "chineke . ,": 8486,
  "chineke . )": 8487,
  "ssment": 8488,
  "Pass": 8489,
  "cess": 8490,
  "Vide": 8491,
  "Caine": 8492,
  "Kir": 8493,
  "2008": 8494,
  "Megha": 8495,
  "Too": 8496,
  "achu": 8497,
  "oyiyi": 8498,
  "onyinye .": 8499,
  "okpukpe ,": 8500,
  "ala . ,": 8501,
  "ọgbaaghara ,": 8502,
  "onyonyo .": 8503,
  "godị ,": 8504,
  "agwa ,": 8505,
  "ụlọakwụkwọ ,": 8506,
  "Dort": 8507,
  "Fort": 8508,
  "Nwogu": 8509,
  "sin ,": 8510,
  "Jair": 8511,
  "Jali": 8512,
  "Jac": 8513,
  "ite ,": 8514,
  "nwafor": 8515,
  "ọchịehi .": 8516,
  "Cook": 8517,
  "- 10": 8518,
  "ping": 8519,
  "Sing": 8520,
  "5000": 8521,
  "Preto": 8522,
  "omekaome .": 8523,
  "Abuja": 8524,
  "Ezeh": 8525,
  "uju :": 8526,
  "ency": 8527,
  "lyn": 8528,
  "Oly": 8529,
  "ly :": 8530,
  "iro .": 8531,
  "ọhanaeze .": 8532,
  "ụwa . ” )": 8533,
  "alụmdi": 8534,
  "Bura": 8535,
  "Buda": 8536,
  "Johnso": 8537,
  "Rash": 8538,
  "ụda ,": 8539,
  "ụda .": 8540,
  "Ishi": 8541,
  "SSS": 8542,
  "ọbịa .": 8543,
  "ọdịnala .": 8544,
  "Osigwe": 8545,
  "that": 8546,
  "rs :": 8547,
  "ụgha ?": 8548,
  "icheiche ,": 8549,
  "ewume": 8550,
  "agụmba .": 8551,
  "Dina": 8552,
  "Jez": 8553,
  "Umaru": 8554,
  "Produ": 8555,
  "( 1 )": 8556,
  "Jubri": 8557,
  "euro": 8558,
  "ọmụmụ ,": 8559,
  "ngo ,": 8560,
  "123": 8561,
  "papaị": 8562,
  "senet ,": 8563,
  "Chukwumeri": 8564,
  "pita ,": 8565,
  "Ikem": 8566,
  "mbem": 8567,
  "17 .": 8568,
  "3 - ": 8569,
  "7 - ": 8570,
  "agbụrụ .": 8571,
  "Mugabe ,": 8572,
  "anụrị ,": 8573,
  "Tasha": 8574,
  "Lagos ?": 8575,
  "obiọma ,": 8576,
  "bịafra :": 8577,
  "APGA ,": 8578,
  "APGA .": 8579,
  "Hea": 8580,
  "Heu": 8581,
  "gị ? ”": 8582,
  "okenye ,": 8583,
  "Rumu": 8584,
  "ọkpọrọ": 8585,
  "ọkpọkọ": 8586,
  "1991 ,": 8587,
  "ọdachi ,": 8588,
  "( AS": 8589,
  "Victo": 8590,
  "Viole": 8591,
  "edo ,": 8592,
  "quin": 8593,
  "lla ,": 8594,
  "Ghana :": 8595,
  "osimiri .": 8596,
  "head": 8597,
  "road": 8598,
  "Fall": 8599,
  "ọjị ,": 8600,
  "ndo .": 8601,
  "1994 .": 8602,
  "Maduabu": 8603,
  "ọkafọ ,": 8604,
  "League :": 8605,
  "30 .": 8606,
  "Harcourt :": 8607,
  "choco": 8608,
  "Massa": 8609,
  "senti": 8610,
  "21 .": 8611,
  "2011 .": 8612,
  "Mbaka ,": 8613,
  "Mbaka :": 8614,
  " \" \" ka \"": 8615,
  "karama": 8616,
  "Kobe": 8617,
  "Jonathan ,": 8618,
  "Anazo": 8619,
  "idemmiri ,": 8620,
  "spector": 8621,
  "Delta ,": 8622,
  "Lives": 8623,
  "Orie": 8624,
  " \" \" nke \"": 8625,
  "Plateau .": 8626,
  "Ceci": 8627,
  "ehihie ,": 8628,
  "Shinto": 8629,
  "Umar ,": 8630,
  "nchatan": 8631,
  "cury": 8632,
  "Ibida": 8633,
  "Naija ,": 8634,
  "jamanị ,": 8635,
  "Marley": 8636,
  "66 ,": 8637,
  "nduhie": 8638,
  "napp": 8639,
  "Luther": 8640,
  "arịrịọ ,": 8641,
  "nsi ,": 8642,
  "Nigerians": 8643,
  "CHAN": 8644,
  "quare": 8645,
  "Ifesina": 8646,
  "nọvemba ,": 8647,
  "Elections": 8648,
  "Ahmed ,": 8649,
  "Japan ,": 8650,
  "Olade": 8651,
  "ọkpọka ,": 8652,
  "Latin": 8653,
  "niko": 8654,
  "nkwadebe": 8655,
  "Cis": 8656,
  "Alexis": 8657,
  "Ogbomo": 8658,
  "ya .  \" anyị \"": 8659,
  "11 ;": 8660,
  "Babaji": 8661,
  "rọshịa ,": 8662,
  "River ,": 8663,
  "ọwara": 8664,
  "nkwụ ,": 8665,
  "Umueri": 8666,
  "God ,": 8667,
  "kọmputa ,": 8668,
  "kọmputa .": 8669,
  "Commission ,": 8670,
  "Bright": 8671,
  "Dis": 8672,
  "jijiji .": 8673,
  "Hilla": 8674,
  "1960": 8675,
  "Jeff": 8676,
  "2008 ,": 8677,
  "2009 ,": 8678,
  "Timber": 8679,
  "ịlaịja .": 8680,
  "90 .": 8681,
  "- 7 )": 8682,
  "Kenyatta": 8683,
  "hibru ,": 8684,
  "udummiri .": 8685,
  "Party ,": 8686,
  "Edwin": 8687,
  "Ogbun": 8688,
  "amaegbu": 8689,
  "Dapchi ,": 8690,
  "Zambia": 8691,
  "Guinea :": 8692,
  "okirikiri ,": 8693,
  "Onuma": 8694,
  "nchụpụ": 8695,
  "marble": 8696,
  "ọbọ ,": 8697,
  "Oguta": 8698,
  "Port Harcourt ,": 8699,
  "Anidi": 8700,
  "Anioma": 8701,
  "( ND": 8702,
  "-East": 8703,
  "grik .": 8704,
  "ozigbo ,": 8705,
  "AFP": 8706,
  "pensụ": 8707,
  "ganịganị": 8708,
  "nance": 8709,
  "phat": 8710,
  "arụkwaghị": 8711,
  "onowu": 8712,
  "Franklin": 8713,
  "-Ezu": 8714,
  "- 22": 8715,
  "22 :": 8716,
  "ahụ . ” )": 8717,
  "Guard": 8718,
  "kanada .": 8719,
  "na  \" onye \"": 8720,
  "Georgi": 8721,
  "nchụaja .": 8722,
  "milli": 8723,
  "Posi": 8724,
  "Anajemba .": 8725,
  "Tanko": 8726,
  "iteghete": 8727,
  "Yoruba ,": 8728,
  "Canada ,": 8729,
  "Istan": 8730,
  "Australian": 8731,
  "siriak .": 8732,
  "Chek": 8733,
  "  \" ha \"": 8734,
  "point": 8735,
  "Taraba ,": 8736,
  "Benue .": 8737,
  "oyibo ,": 8738,
  "Chad .": 8739,
  "Chad ,": 8740,
  "Wedne": 8741,
  "ezinaụlọ ,": 8742,
  "Mount": 8743,
  "trans": 8744,
  "Qua": 8745,
  "ICG": 8746,
  "Pell": 8747,
  "Shell": 8748,
  "Manase": 8749,
  "ọlị . ”": 8750,
  "ọlị ,": 8751,
  "Kainji": 8752,
  "Hille": 8753,
  "Purity": 8754,
  "Autho": 8755,
  "anụ  \" - \"": 8756,
  "Economist": 8757,
  "febrụwarị ,": 8758,
  "CNN": 8759,
  "garri": 8760,
  "Alabi": 8761,
  "Uwaleke": 8762,
  "alakụba .": 8763,
  "Odionye": 8764,
  "York ,": 8765,
  "Mavin": 8766,
  "Kevin": 8767,
  "Ortom :": 8768,
  "Tekno ?": 8769,
  "Kid": 8770,
  "Nkem": 8771,
  "Enyimba": 8772,
  "SEMA": 8773,
  "737": 8774,
  "Ezio": 8775,
  "tennis": 8776,
  "cancer": 8777,
  "Austri": 8778,
  "Soluyi": 8779,
  "Soludo ,": 8780,
  "Chinenye": 8781,
  "Chineche": 8782,
  "Jọs": 8783,
  "Nworah": 8784,
  "amawbịa .": 8785,
  "Amarachi": 8786,
  "Alexandria": 8787,
  "yahoo-": 8788,
  "jeriko ,": 8789,
  "Ann": 8790,
  "Check": 8791,
  "saịlas": 8792,
  "Nwaji": 8793,
  "Chidoka ,": 8794,
  "view": 8795,
  "police": 8796,
  "Paris ,": 8797,
  "Tigers": 8798,
  "Village": 8799,
  "Apart": 8800,
  "Adamawa ,": 8801,
  "1315 ,": 8802,
  "Congo ,": 8803,
  "Norway :": 8804,
  "Forsy": 8805,
  "psy": 8806,
  "Aregbe": 8807,
  "Clau": 8808,
  "Olisa": 8809,
  "Repor": 8810,
  "Chidimma": 8811,
  "Transpa": 8812,
  "Morgan": 8813,
  "Nobel": 8814,
  "Udoma": 8815,
  "na :  \" ": 8816,
  "Traders": 8817,
  "Political": 8818,
  "Awgu ,": 8819,
  "Anyako": 8820,
  "Arabia .": 8821,
  "Angela": 8822,
  "Tunisia .": 8823,
  "Odah": 8824,
  "mkpụmkpụ": 8825,
  "ngwere ,": 8826,
  "Amuche": 8827,
  "Anti-": 8828,
  "Antiọk": 8829,
  "Viet": 8830,
  "McG": 8831,
  "pression": 8832,
  "Serwan": 8833,
  "riage :": 8834,
  "faị": 8835,
  "sinamọn": 8836,
  "Capital": 8837,
  "cker": 8838,
  "Maguire": 8839,
  "Tribu": 8840,
  "Doreen": 8841,
  "  \" kedụ \"": 8842,
  "odeeakwụkwọ": 8843,
  "- 13 )": 8844,
  "ụlọikwuu .": 8845,
  "Hame": 8846,
  "392": 8847,
  "tellite": 8848,
  "  \" ebe \"": 8849,
  "Emir": 8850,
  "Syria ,": 8851,
  "agwọ ,": 8852,
  "Nwokolo": 8853,
  "umunne": 8854,
  "Blos": 8855,
  "Chinua ,": 8856,
  "Wolver": 8857,
  "ịtụnanya .": 8858,
  "Ekechi": 8859,
  "Iyabo": 8860,
  "gging": 8861,
  "Gana .": 8862,
  "illing :": 8863,
  "Ikanda": 8864,
  "Vulga": 8865,
  "Adekunle": 8866,
  "Lawrence": 8867,
  "nnochiteanya": 8868,
  "Police :": 8869,
  "AIT ,": 8870,
  "Zele": 8871,
  "MMM": 8872,
  "Ezeani": 8873,
  "Ikoyi": 8874,
  "tility": 8875,
  "Firmi": 8876,
  "Alfred": 8877,
  "aaaa": 8878,
  "Okafor": 8879,
  "zakari": 8880,
  "Ashanti": 8881,
  "work": 8882,
  "Nepal": 8883,
  "Ster": 8884,
  "Lignite": 8885,
  "Anaocha ,": 8886,
  "Laure": 8887,
  "Origi": 8888,
  " .  \" otu \"": 8889,
  "Zulum": 8890,
  "Izuchukwu": 8891,
  "ukpor ,": 8892,
  "Explo": 8893,
  "amamihe ,": 8894,
  "Steven": 8895,
  "Codex": 8896,
  "Monica": 8897,
  "Guardian": 8898,
  "Conference": 8899,
  "Attack": 8900,
  "maọlị .": 8901,
  "result": 8902,
  "uhuruchi": 8903,
  "uhuruchi ,": 8904,
  "basket": 8905,
  "Statis": 8906,
  "Simeu": 8907,
  "Square": 8908,
  "Squad": 8909,
  "  \" Black \"": 8910,
  "Ayamelum ,": 8911,
  "Engineer": 8912,
  "Engineeri": 8913,
  "ụkpaka ,": 8914,
  "Erne": 8915,
  "Erdo": 8916,
  "Special": 8917,
  "Sudan .": 8918,
  "Chigozie": 8919,
  "NoBraDay": 8920,
  "NoBraDay :": 8921,
  "Maurita": 8922,
  "Corps": 8923,
  "OPEC": 8924,
  "EPL": 8925,
  "Senate": 8926,
  "gberegbe": 8927,
  "Esege": 8928,
  "Obafemi": 8929,
  "Africa ,": 8930,
  "gboloja": 8931,
  "Unachukwu": 8932,
  "Enoch": 8933,
  "Badmus": 8934,
  "Zinedine": 8935,
  "Affair": 8936,
  "ajambele": 8937,
  "Sports": 8938,
  "Qatar": 8939,
  "Jerusalem": 8940,
  "DSP": 8941,
  "kemi": 8942,
  "Smart": 8943,
  "Brya": 8944,
  "plasti": 8945,
  "Guate": 8946,
  "igodo": 8947,
  "balsam": 8948,
  "Troost": 8949,
  "Kure": 8950,
  "Tadic": 8951,
  "cident": 8952,
  "awulu ,": 8953,
  "Arebia .": 8954,
  "tanki": 8955,
  "Ofumelu": 8956,
  "terials": 8957,
  "Ohakim": 8958,
  "Command": 8959,
  "bụ  \" Nigeria \"": 8960,
  "Apostle": 8961,
  "Archdiocese": 8962,
  "Medical": 8963,
  "Protestant": 8964,
  "-Germain": 8965,
  "gba  \" alụkwaghịm": 8966,
  "Jong-Un": 8967,
  "Indonesia .": 8968,
  "Emirates": 8969,
  "Limestone": 8970,
  "mkpirisi": 8971,
  "Trafficking :": 8972,
  "Akeredolu": 8973,
  "NUJ": 8974,
  "OAU": 8975,
  "Garuba": 8976,
  "Amokachi": 8977,
  "Igbene": 8978,
  "Bolsona": 8979,
  "Nijee": 8980,
  "Major": 8981,
  "instant": 8982,
  "Chapel": 8983,
  "mentalist": 8984,
  "ellow": 8985,
  "Toure": 8986,
  "Chibuzor": 8987,
  "okpotokpo": 8988,
  "Tambu": 8989,
  "Albert": 8990,
  "Micro": 8991,
  "Brotherhood": 8992,
  "tainer": 8993,
  "Guzman": 8994,
  "Ikeazor": 8995,
  "Adichie .": 8996,
  "Volo": 8997,
  "trouse": 8998,
  "language .": 8999,
  "bitumen": 9000,
  "Woodward": 9001,
  "Scotland": 9002,
  "Business": 9003,
  "amagedọn": 9004,
  "akpakara": 9005,
  "Al-Qa": 9006,
  "CONUA": 9007,
  "Igna": 9008,
  "maọbụ ...": 9009,
  "Ts": 9010,
  "Again": 9011,
  "nrube": 9012,
  "Galena": 9013,
  "Comrade": 9014,
  "Anen": 9015,
  "irighiri": 9016,
  "Nkwelle": 9017,
  "Ọnwụzu": 9018,
  "ebumnobi": 9019,
  "Michel": 9020,
  "Oyetola": 9021,
  "Rhode": 9022,
  "Iceland": 9023,
  "Larry": 9024,
  "Chiagozie": 9025,
  "Distribution": 9026,
  "vitamin": 9027,
  "Rochdale": 9028,
  "Nkiru": 9029,
  "Printing": 9030,
  "Meeting": 9031,
  "Chavez": 9032,
  "Oloyede": 9033,
  "Monaco": 9034,
  "Contro": 9035,
  "Ifediora": 9036,
  "Jeremiah": 9037,
  "Boru": 9038,
  "  \" , \" \" ": 9039,
  "Gerald": 9040,
  "mbinyeaka": 9041,
  "Lalong": 9042,
  "otụ": 9043,
  "Osimhen": 9044,
  "Britannica": 9045,
  "Fayose": 9046,
  "Administration": 9047,
  "Confederation": 9048,
  "November": 9049,
  "arụmarụ": 9050,
  "12 - 14": 9051,
  "Bissau": 9052,
  "ramadol": 9053,
  "( DSS )": 9054,
  "Abdulaziz": 9055,
  "Hudders": 9056,
  "Abidjan": 9057,
  "Elias": 9058,
  "ịhụnanya . ”": 9059,
  "ramics": 9060,
  "udubonch": 9061,
  "Nkemdilim": 9062,
  "Technical": 9063,
  "Tosyn": 9064,
  "Reuben": 9065,
  "Oyo-Ita": 9066,
  "Akwa Ibom": 9067,
  "Teaching": 9068,
  "Onigbinde": 9069,
  "Gypsum": 9070,
  "oseburụwa": 9071,
  "pentikọst": 9072,
  "Analyti": 9073,
  "Intelligence": 9074,
  "Pentecostal": 9075,
  "Akufo-Addo": 9076,
  "mgbịrị": 9077,
  "Hajj": 9078,
  "Riya": 9079,
  "ISIL": 9080,
  "reira": 9081,
  "kubit": 9082,
  "nlọta": 9083,
  "kerosene": 9084,
  "Kwankwa": 9085,
  "Njeman": 9086,
  "Tahiti": 9087,
  "mpanaka": 9088,
  "Madonna": 9089,
  "Alkmaa": 9090,
  "Osumenyi": 9091,
  "Shalom": 9092,
  "Betuel": 9093,
  "Solsk": 9094,
  "Dasuki": 9095,
  "Sekibo": 9096,
  "Tosin": 9097,
  "Ziyech": 9098,
  "Lieute": 9099,
  "Ọmọba": 9100,
  "Equiano": 9101,
  "Morales": 9102,
  "Diaspo": 9103,
  "Opobo": 9104,
  "Prisc": 9105,
  "Nasr": 9106,
  "Lacaze": 9107,
  "Lemek": 9108,
  "Awolowo": 9109,
  "Badagry": 9110,
  "Muftau": 9111,
  "Theophi": 9112,
  "Mbanefo": 9113,
  "Josiah": 9114,
  "Onuachu": 9115,
  "Dortmund": 9116,
  "Buratai": 9117,
  "Rashford": 9118,
  "ewumewu": 9119,
  "Chukwumerije": 9120,
  "Heung-": 9121,
  "chocolate": 9122,
  "sentimita": 9123,
  "nchatancha": 9124,
  "nikotin": 9125,
  "Cisse": 9126,
  "Ogbomoso": 9127,
  "Babajide": 9128,
  "DisCos": 9129,
  "Hillary": 9130,
  "ọnwụamaegbu": 9131,
  "Positive": 9132,
  "Istanbu": 9133,
  "Wednes": 9134,
  "Authority": 9135,
  "Eziowelle": 9136,
  "Chinechere": 9137,
  "yahoo-yahoo": 9138,
  "Nwajiuba": 9139,
  "Forsyth": 9140,
  "Transparency": 9141,
  "faịli": 9142,
  "Hameed": 9143,
  "Blossom": 9144,
  "Wolverha": 9145,
  "Zelens": 9146,
  "Firmino": 9147,
  "zakariya": 9148,
  "Sterling": 9149,
  "Statistics": 9150,
  "kemikal": 9151,
  "Bryant": 9152,
  "plastik": 9153,
  "Kuretọn": 9154,
  "gba  \" alụkwaghịm \" \" ": 9155,
  "instantpay": 9156,
  "vironmentalist": 9157,
  "Volody": 9158,
  "trousers": 9159,
  "Al-Qae": 9160,
  "Ignatius": 9161,
  "Tsvan": 9162,
  "Anenih": 9163,
  "Ọnwụzurike": 9164,
  "Rhodesia": 9165,
  "Borussia": 9166,
  "otụmọkpọ": 9167,
  "Huddersfield": 9168,
  "Analytica": 9169,
  "Riyadh": 9170,
  "Lieutenant": 9171,
  "Diaspora": 9172,
  "Chinecherem": 9173,
  "faịlimọn": 9174,
  "Wolverhampton": 9175,
  "Zelensky": 9176,
  "instantpaypal": 9177,
  "Volodymyr": 9178,
  "Al-Qaeda": 9179,
  "Tsvangi": 9180,
  "Tsvangirai": 9181,
  "ọb": 9182,
  "t-": 9183,
  "Ox": 9184,
  "aṅ": 9185,
  "och": 9186,
  "ụa": 9187,
  "Ay": 9188,
  "MB": 9189,
  "79": 9190,
  "sp": 9191,
  "ogh": 9192,
  "Ol": 9193,
  "It": 9194,
  "yn": 9195,
  "64": 9196,
  "Ot": 9197,
  "Wu": 9198,
  "sm": 9199,
  "ds": 9200,
  "Up": 9201,
  "Kwa": 9202,
  "Sch": 9203,
  "chy": 9204,
  "HS": 9205,
  "AD": 9206,
  "76": 9207,
  "hy": 9208,
  "94": 9209,
  "Sc": 9210,
  "57": 9211,
  "Gwa": 9212,
  "zz": 9213,
  "LA": 9214,
  "RT": 9215,
  "48": 9216,
  "Sho": 9217,
  "נפ": 9218,
  "שׁ": 9219,
  "E-": 9220,
  "nas": 9221,
  "nae": 9222,
  "Ena": 9223,
  "Uka": 9224,
  "map": 9225,
  "k .": 9226,
  "g .": 9227,
  "P .": 9228,
  "b .": 9229,
  "x .": 9230,
  "E .": 9231,
  "x ,": 9232,
  "CH ,": 9233,
  "sh ,": 9234,
  "é ,": 9235,
  "B ,": 9236,
  "kel": 9237,
  "kes": 9238,
  "fra": 9239,
  "nra": 9240,
  "mena": 9241,
  "bha": 9242,
  "tre": 9243,
  "ota": 9244,
  "rta": 9245,
  "nyere": 9246,
  "taya": 9247,
  "game": 9248,
  "lau": 9249,
  "gla": 9250,
  "ụla": 9251,
  "Tri": 9252,
  "siu": 9253,
  "ysi": 9254,
  "Chihe": 9255,
  "ọrị": 9256,
  "rịrị": 9257,
  "dru": 9258,
  "bama": 9259,
  "bala": 9260,
  "bac": 9261,
  "gate": 9262,
  "tena": 9263,
  "tez": 9264,
  "ahụma": 9265,
  "ture": 9266,
  "Stu": 9267,
  "Ugba": 9268,
  "aghị": 9269,
  "Mbe": 9270,
  "bes": 9271,
  "tụ .": 9272,
  "etụ": 9273,
  "madụ": 9274,
  "ti ,": 9275,
  "cti": 9276,
  "ibi": 9277,
  "bis": 9278,
  "rizi": 9279,
  "nzi": 9280,
  "mụ .": 9281,
  "ewe": 9282,
  "Uwe": 9283,
  "le \"": 9284,
  "zọ .": 9285,
  "Saka": 9286,
  "Kaka": 9287,
  "rọ \"": 9288,
  "chal": 9289,
  "cham": 9290,
  "ụnọ": 9291,
  "desh": 9292,
  "kụ .": 9293,
  "neka": 9294,
  "One": 9295,
  "bado": 9296,
  "nwale": 9297,
  "Ọfọ": 9298,
  "ngha": 9299,
  "gham": 9300,
  "Tsa": 9301,
  "say": 9302,
  "lina": 9303,
  "lit": 9304,
  "ikeli": 9305,
  "Ọnụ": 9306,
  "row": 9307,
  "ges": 9308,
  "gee": 9309,
  "bur": 9310,
  "bigbo": 9311,
  "ụmụ \"": 9312,
  "ọrụ \"": 9313,
  "le :": 9314,
  "ta :": 9315,
  "na :": 9316,
  "me :": 9317,
  "kwu :": 9318,
  "si :": 9319,
  "anyị :": 9320,
  "ukwe": 9321,
  "Akpe": 9322,
  "Okpe": 9323,
  "kpọkpọ": 9324,
  "kpa ,": 9325,
  "nebo": 9326,
  "mabo": 9327,
  "dal": 9328,
  "dara": 9329,
  "step": 9330,
  "Tse": 9331,
  "chọ ,": 9332,
  "naịjirịa :": 9333,
  "ụkwọ": 9334,
  "kadi": 9335,
  "dimma": 9336,
  "kedi": 9337,
  "ans": 9338,
  "Gwan": 9339,
  "ango": 9340,
  "Wan": 9341,
  "akwụkwọ \"": 9342,
  "mmadụ  \" ": 9343,
  "kwa  \" ": 9344,
  "naịjirịa  \" ": 9345,
  "  \" me": 9346,
  "isi  \" ": 9347,
  "akwụkwọ  \" ": 9348,
  "ghị  \" ": 9349,
  " ? ?": 9350,
  "do ?": 9351,
  "di ?": 9352,
  "ụlọ ?": 9353,
  "nut": 9354,
  "iles": 9355,
  "mile": 9356,
  "rent": 9357,
  "R )": 9358,
  "tiva": 9359,
  "dova": 9360,
  "Eva": 9361,
  "ụlọakụkọ": 9362,
  "ko .": 9363,
  "kos": 9364,
  "Emp": 9365,
  "defe": 9366,
  "mmezi": 9367,
  "“ gị": 9368,
  "“ isi": 9369,
  "“ nọ": 9370,
  "“ ike": 9371,
  "“ akwụkwọ": 9372,
  "“ che": 9373,
  "“ kwụ": 9374,
  "igbo \"": 9375,
  "ọzọ ”": 9376,
  "mmadụ ”": 9377,
  "chineke ”": 9378,
  "mma ”": 9379,
  "onta": 9380,
  "Ton": 9381,
  "won": 9382,
  "Non": 9383,
  "pur": 9384,
  "Opu": 9385,
  "mie": 9386,
  "mia": 9387,
  "mit": 9388,
  "mine": 9389,
  "sia .": 9390,
  "ọnụ \"": 9391,
  "ọnụ )": 9392,
  "adu": 9393,
  "odu": 9394,
  "gbudu": 9395,
  "dume": 9396,
  "20 .": 9397,
  "20 :": 9398,
  "Aze": 9399,
  "zech": 9400,
  "tize": 9401,
  "mto": 9402,
  "uto": 9403,
  "tole": 9404,
  "kato": 9405,
  "who": 9406,
  "bọlụ": 9407,
  "jụ ?": 9408,
  "bia ,": 9409,
  "“ ụzọ": 9410,
  "Jer": 9411,
  "onwe .": 9412,
  "atọ :": 9413,
  "ọfọdụ": 9414,
  "nwoke ?": 9415,
  "kpor": 9416,
  "nha .": 9417,
  "west": 9418,
  "gbụgbọ": 9419,
  "ụgbọ .": 9420,
  "ọkada": 9421,
  "ahụ , ”": 9422,
  "nsogbo": 9423,
  "alaeze": 9424,
  "“ eze": 9425,
  "obieze": 9426,
  "ọrụ . ”": 9427,
  "bụ . ”": 9428,
  "afọ . ”": 9429,
  "nwe . ”": 9430,
  "bu . ”": 9431,
  "la . ”": 9432,
  "bụla . ”": 9433,
  "gin": 9434,
  "digi": 9435,
  "regi": 9436,
  "( 1": 9437,
  "( I": 9438,
  "( di": 9439,
  "( J": 9440,
  "( ihe": 9441,
  "omena": 9442,
  "Nome": 9443,
  "uru :": 9444,
  "hmm": 9445,
  "reel": 9446,
  "-el": 9447,
  "jana": 9448,
  "wole": 9449,
  "ole ?": 9450,
  "Nju": 9451,
  "gbenga": 9452,
  "Onga": 9453,
  "jah": 9454,
  "Onta": 9455,
  "ntachi": 9456,
  "ogwe": 9457,
  "pe .": 9458,
  "mbụ . ”": 9459,
  "Ayi": 9460,
  "2 ;": 9461,
  "6 ;": 9462,
  "ru ;": 9463,
  "gị ;": 9464,
  "dị ;": 9465,
  "bi ;": 9466,
  "anya ;": 9467,
  "ntụ ,": 9468,
  "nịka": 9469,
  "Josh": 9470,
  "Joa": 9471,
  "Oza": 9472,
  "monu": 9473,
  "lumo": 9474,
  "ifu": 9475,
  "fuel": 9476,
  "Yoko": 9477,
  "eziokwu :": 9478,
  "Onyi": 9479,
  "ece": 9480,
  "ce :": 9481,
  "BBC ,": 9482,
  "Elo": 9483,
  "Slo": 9484,
  "blo": 9485,
  "lola": 9486,
  "nri :": 9487,
  "nri . ”": 9488,
  "asọmpi ,": 9489,
  "ụchụ": 9490,
  "stein": 9491,
  "Bin": 9492,
  "mgbaka": 9493,
  "dimgba": 9494,
  "bọọlụ ?": 9495,
  "enu ,": 9496,
  "aghara ,": 9497,
  "o .  \" ": 9498,
  " .  \" ọ": 9499,
  "rị .  \" ": 9500,
  "obodo .  \" ": 9501,
  "ri .  \" ": 9502,
  " .  \" e": 9503,
  "ru .  \" ": 9504,
  "e .  \" ": 9505,
  "la .  \" ": 9506,
  "ars": 9507,
  "Sibe": 9508,
  "stria": 9509,
  "same": 9510,
  "Metu": 9511,
  "ọhụrụ . ”": 9512,
  "ọhụrụ ?": 9513,
  "unu \"": 9514,
  "maazị \"": 9515,
  "misu": 9516,
  "“ ama": 9517,
  "Jama": 9518,
  "baama": 9519,
  "nyeama": 9520,
  "( AP": 9521,
  "Nic": 9522,
  "Nine": 9523,
  "Bal": 9524,
  "Kal": 9525,
  "ual": 9526,
  "alti": 9527,
  "Chal": 9528,
  "ụtọ ;": 9529,
  "ghie": 9530,
  "ekperi": 9531,
  "Mol": 9532,
  "wol": 9533,
  "Mater": 9534,
  "meter": 9535,
  "ụgwọ . ”": 9536,
  "amerịka ?": 9537,
  "ṅụ .": 9538,
  "nha ,": 9539,
  "zo ,": 9540,
  "mbọ ,": 9541,
  "ption": 9542,
  "ọsọ . ”": 9543,
  "Evi": 9544,
  "vine": 9545,
  "Roy": 9546,
  "Roc": 9547,
  "Roya": 9548,
  "ezinụlọ ,": 9549,
  "ki ,": 9550,
  "ngs": 9551,
  "omeiwu \"": 9552,
  "ọkara ,": 9553,
  "19 :": 9554,
  "ved": 9555,
  "ọdịbe": 9556,
  "nkiri .": 9557,
  "Jimo": 9558,
  "ajụ .": 9559,
  "Aye": 9560,
  "ajụjụ ,": 9561,
  "mgbapụta": 9562,
  "ndepụta": 9563,
  "Reso": 9564,
  "over": 9565,
  "lover": 9566,
  "naver": 9567,
  "kraịst ?": 9568,
  "Sur": 9569,
  "Kehi": 9570,
  "echi ?": 9571,
  "Libra": 9572,
  "Liga": 9573,
  "Lia": 9574,
  "nnu .": 9575,
  "nsọ . ”": 9576,
  "nkasi": 9577,
  "enyi ?": 9578,
  "Lami": 9579,
  "fụ .": 9580,
  "Copa": 9581,
  "Coro": 9582,
  "Seba": 9583,
  "Semi": 9584,
  "ofeke": 9585,
  "Sagi": 9586,
  "Haram :": 9587,
  "PDP :": 9588,
  "Nata": 9589,
  "Naoko": 9590,
  "Naza": 9591,
  "lica": 9592,
  "Oca": 9593,
  "( per": 9594,
  "kama \"": 9595,
  "ehu": 9596,
  "Thu": 9597,
  "Ihu": 9598,
  "“ udo": 9599,
  "egwueke": 9600,
  "ikike ,": 9601,
  "pati .": 9602,
  "randa": 9603,
  "naira ?": 9604,
  "ndọtị": 9605,
  "dọtị": 9606,
  "unu !": 9607,
  "Kabu": 9608,
  "Albi": 9609,
  "Alfọ": 9610,
  "rius": 9611,
  "Hus": 9612,
  "ahụike .": 9613,
  "oche .": 9614,
  "ry ,": 9615,
  "4 . \"": 9616,
  "Mul": 9617,
  "mma . ,": 9618,
  "Hugo": 9619,
  "vester": 9620,
  "Bas": 9621,
  "Baru": 9622,
  "okpukpu": 9623,
  "fim .": 9624,
  "Afi": 9625,
  "Back": 9626,
  "anyị . )": 9627,
  "Adia": 9628,
  "Soci": 9629,
  "Dele": 9630,
  "elele": 9631,
  "Mele": 9632,
  "ndan": 9633,
  "ndale": 9634,
  "oku .": 9635,
  "Biokpo": 9636,
  "me . )": 9637,
  "dọkịta \"": 9638,
  "ọhịa ?": 9639,
  "dike ,": 9640,
  "m  \" . \"": 9641,
  "anyị  \" . \"": 9642,
  "naịjirịa  \" . \"": 9643,
  "Dege": 9644,
  "Dede": 9645,
  "Desi": 9646,
  "Adeda": 9647,
  "Michi": 9648,
  "echiche :": 9649,
  "vote": 9650,
  "ọtan": 9651,
  "Obie": 9652,
  "Obinna": 9653,
  "“ kedụ": 9654,
  "chineke , ”": 9655,
  "Ndio": 9656,
  "vidio": 9657,
  "Bede": 9658,
  "pọl .": 9659,
  "kọta ,": 9660,
  "ọgbọsọ": 9661,
  "ọgbọ ,": 9662,
  "ohi ?": 9663,
  "katọlik )": 9664,
  "Cape": 9665,
  "Obienye": 9666,
  "emume .": 9667,
  "nness": 9668,
  "Fide": 9669,
  "ider": 9670,
  "caine": 9671,
  "ines": 9672,
  "200 .": 9673,
  "2001": 9674,
  "oriri ,": 9675,
  "Liverpool .": 9676,
  "Liverpool ,": 9677,
  "ssien": 9678,
  "Mee": 9679,
  "Tomo": 9680,
  "akịdị": 9681,
  "chuse": 9682,
  "oyii": 9683,
  "Bul": 9684,
  "ọkaiwu .": 9685,
  "andro": 9686,
  "mmadụ . ,": 9687,
  "ntọrị": 9688,
  "net .": 9689,
  "akpụ . ”": 9690,
  "ume ,": 9691,
  "ejide": 9692,
  "“ agwa": 9693,
  "men ,": 9694,
  "hen ,": 9695,
  "man ,": 9696,
  "Jack": 9697,
  "naeme": 9698,
  "emena": 9699,
  "Rochas ,": 9700,
  "ites": 9701,
  "Maite": 9702,
  "amen .": 9703,
  "mberede ,": 9704,
  "Abakpa": 9705,
  "Abaga": 9706,
  "ụmụagbọghọ": 9707,
  "Arsenal ,": 9708,
  "ọgbugba": 9709,
  "ewi": 9710,
  "juu ,": 9711,
  "103": 9712,
  "101": 9713,
  "10 :": 9714,
  "000 ?": 9715,
  "rus .": 9716,
  "omekaome ,": 9717,
  "nhọpụta .": 9718,
  "uju ,": 9719,
  "Shim": 9720,
  "Boro": 9721,
  "Book": 9722,
  "21 ,": 9723,
  "81 ,": 9724,
  "00 ) .": 9725,
  "% ) .": 9726,
  "m ) .": 9727,
  "open": 9728,
  "gunle": 9729,
  "iro ,": 9730,
  "iro . ”": 9731,
  "Empe": 9732,
  "bịa . ” )": 9733,
  "bi . ” )": 9734,
  "ihe . ” )": 9735,
  "unu . ” )": 9736,
  "nọ . ” )": 9737,
  "gị . ” )": 9738,
  "ọzọ . ” )": 9739,
  "Bula": 9740,
  "- 14": 9741,
  "314": 9742,
  "mgbagwo": 9743,
  "ngwo": 9744,
  "Rache": 9745,
  "Raw": 9746,
  "15 .": 9747,
  "115": 9748,
  "nkwenkwe": 9749,
  "Rashi": 9750,
  "Hito": 9751,
  "shale": 9752,
  "Nnama": 9753,
  "Abuja .": 9754,
  "akaja .": 9755,
  "nkịtị ”": 9756,
  "Brian": 9757,
  "( ọgọst": 9758,
  "man :": 9759,
  "Norman": 9760,
  "Roman": 9761,
  "agụmba ,": 9762,
  "Orlu": 9763,
  "Udeze": 9764,
  "Udechukwu": 9765,
  "Prof": 9766,
  "41 )": 9767,
  "Twitter :": 9768,
  "Juli": 9769,
  "Gunna": 9770,
  "Paul .": 9771,
  "Abubakar .": 9772,
  "ogbi": 9773,
  "ezumike ,": 9774,
  "( NA": 9775,
  "States": 9776,
  "Goma": 9777,
  "23 .": 9778,
  "Ọnyị": 9779,
  "Fela": 9780,
  "Ikeji": 9781,
  "nwaafọ ,": 9782,
  "mgbọ ,": 9783,
  "kayo": 9784,
  "Gali": 9785,
  "176": 9786,
  "conti": 9787,
  "15 - ": 9788,
  "4 - ": 9789,
  "5 - ": 9790,
  "agbụsị": 9791,
  "Saraki :": 9792,
  "ọdaala": 9793,
  "ofufe .": 9794,
  "Tay": 9795,
  "nwụ . ,": 9796,
  "Lagos :": 9797,
  "18 .": 9798,
  "18 - ": 9799,
  "- 18": 9800,
  "Athe": 9801,
  "ration :": 9802,
  "Henri": 9803,
  "ọkparaeze": 9804,
  "chineke ? ”": 9805,
  "Noa ,": 9806,
  "13 .": 9807,
  "136": 9808,
  "13 ;": 9809,
  "anwụrụ .": 9810,
  "Amake": 9811,
  "Amaku": 9812,
  "ọkpọ .": 9813,
  "ọkpọ ,": 9814,
  "1991": 9815,
  "Sowore .": 9816,
  "ịntaneti ?": 9817,
  "Ted": 9818,
  "nkume ,": 9819,
  "Ihedioha .": 9820,
  "Ihedioha ,": 9821,
  "qui": 9822,
  "Raqu": 9823,
  "Mambi": 9824,
  "164": 9825,
  "akwụna ,": 9826,
  "ọna ,": 9827,
  "-Ife": 9828,
  "Head": 9829,
  "Isse": 9830,
  "ụkwa ,": 9831,
  "Oluehi": 9832,
  "Oluka": 9833,
  "Belo": 9834,
  "arụsị .": 9835,
  "ute ,": 9836,
  "ziem": 9837,
  "Madubu": 9838,
  "ule .": 9839,
  "ule ,": 9840,
  "ọkafọ .": 9841,
  "ọnwụ . ,": 9842,
  "ụtaba": 9843,
  "flic": 9844,
  "sị :  \" ọ \"": 9845,
  "ha .  \" ọ \"": 9846,
  "ya ,  \" ọ \"": 9847,
  "ahụ .  \" ọ \"": 9848,
  "International \"": 9849,
  "- 12": 9850,
  "12 .": 9851,
  "abị": 9852,
  "Nassa": 9853,
  "Brass": 9854,
  "11 .": 9855,
  "ya . ” ,": 9856,
  "nard": 9857,
  "mkpamkpa .": 9858,
  "champion": 9859,
  "Kom": 9860,
  "Kolo": 9861,
  "MAT": 9862,
  "efesọ": 9863,
  "Work": 9864,
  "ọgwụgwụ ,": 9865,
  "“ ọgwụgwụ": 9866,
  "agbidi .": 9867,
  "Anam ,": 9868,
  "Mbana": 9869,
  "Mbano": 9870,
  "Consu": 9871,
  "Conte": 9872,
  "DSS ?": 9873,
  "Karen": 9874,
  "Rivas .": 9875,
  "julaị ,": 9876,
  "kansa ,": 9877,
  "Abaribe :": 9878,
  "Abaribe .": 9879,
  "Dola": 9880,
  "fibre": 9881,
  "Delhi": 9882,
  "ngwụcha ,": 9883,
  "Septe": 9884,
  "agadị ,": 9885,
  "agadị .": 9886,
  "Igboeze": 9887,
  "nsugbe": 9888,
  "Yeki": 9889,
  "Yeong": 9890,
  "inọk ,": 9891,
  "The \"": 9892,
  "Theo": 9893,
  "ọgwụgwọ ,": 9894,
  "France :": 9895,
  "Umahi ,": 9896,
  "Umahi :": 9897,
  "Cameroon .": 9898,
  "echichi ,": 9899,
  "Barcelona .": 9900,
  "sell": 9901,
  "ll ,": 9902,
  "100 .": 9903,
  "100 ,": 9904,
  "kraịst , ”": 9905,
  "Mosho": 9906,
  "ger ,": 9907,
  "ler ,": 9908,
  "this": 9909,
  "Gothi": 9910,
  "agụmakwụkwọ ,": 9911,
  "ọgbatum": 9912,
  "28 ;": 9913,
  "Umuoma": 9914,
  "Ifeoma": 9915,
  "1996 ,": 9916,
  "Abio": 9917,
  "ọkwadike": 9918,
  "Supp": 9919,
  "Luke": 9920,
  "Gina": 9921,
  "Feina": 9922,
  "ịdịn": 9923,
  "24 )": 9924,
  "- 4 )": 9925,
  "Samuel ,": 9926,
  "Steve": 9927,
  "reader": 9928,
  "Olamma": 9929,
  "“ okwute": 9930,
  "Park": 9931,
  "Amster": 9932,
  "reet": 9933,
  "Alison": 9934,
  "Europe ,": 9935,
  "Dum": 9936,
  "Prize": 9937,
  "asaba .": 9938,
  "ịba .": 9939,
  "Ozil": 9940,
  "11 :": 9941,
  "1924": 9942,
  "ụkwara ,": 9943,
  "Salah ,": 9944,
  "Salaam": 9945,
  "Job .": 9946,
  "Obiano ,": 9947,
  "Democrat": 9948,
  "ọgbụgba ,": 9949,
  "50 )": 9950,
  "sensi": 9951,
  "1997 ,": 9952,
  "Euni": 9953,
  "Libya :": 9954,
  "frans ,": 9955,
  "Odun": 9956,
  "1985 .": 9957,
  "febụwarị ,": 9958,
  "Ojukwu ,": 9959,
  "UNGA": 9960,
  "( 3 )": 9961,
  "-Cor": 9962,
  "ejula ,": 9963,
  "Kuma": 9964,
  "Kuti": 9965,
  "FF )": 9966,
  "56 .": 9967,
  "ejiji .": 9968,
  "day :": 9969,
  "nsonso ,": 9970,
  "jekọb .": 9971,
  "diff": 9972,
  "1975": 9973,
  "1976 ,": 9974,
  "Ukraine .": 9975,
  "60 .": 9976,
  "1980 .": 9977,
  "1990 .": 9978,
  "disemba ,": 9979,
  "fero .": 9980,
  "riot": 9981,
  "foot": 9982,
  "Hot": 9983,
  "omy": 9984,
  "ọkaibe .": 9985,
  "Joseph ,": 9986,
  "DIS": 9987,
  "CIS": 9988,
  "Enwere": 9989,
  "Umumbo": 9990,
  "Onuo": 9991,
  "Onu ,": 9992,
  "nchụtu": 9993,
  "- 31": 9994,
  "- 33 )": 9995,
  "nṅomi": 9996,
  "Commonwealth .": 9997,
  "Davies": 9998,
  "dies": 9999,
  "Ves": 10000,
  "otiti": 10001,
  "ọkọchị .": 10002,
  "Edo ,": 10003,
  "Ogun ,": 10004,
  "Ogunwu": 10005,
  "Indian": 10006,
  "ya ! ”": 10007,
  "church": 10008,
  "ASUP": 10009,
  "Ribeka .": 10010,
  "21 :": 10011,
  "Act": 10012,
  "Model": 10013,
  "Akun": 10014,
  "Akume": 10015,
  "( NC": 10016,
  "Adefara": 10017,
  "Biblic": 10018,
  "2007 .": 10019,
  "fence": 10020,
  "ọṅụṅụ .": 10021,
  "Shiites :": 10022,
  "( SARS": 10023,
  "maọbụ": 10024,
  "sident": 10025,
  "kpomkwe": 10026,
  "biowu": 10027,
  "Demon": 10028,
  "Emz": 10029,
  "Dakolo ,": 10030,
  "2022": 10031,
  "Ifre": 10032,
  "ọnwụnwa ,": 10033,
  "golayat ,": 10034,
  "golayat .": 10035,
  "Pilate": 10036,
  "Pie": 10037,
  "Expe": 10038,
  "Bark": 10039,
  "Second": 10040,
  "aja . ”": 10041,
  "FIB": 10042,
  "Awka": 10043,
  "simenti": 10044,
  "Njima": 10045,
  "Malawi": 10046,
  "( 9 )": 10047,
  "- 9 )": 10048,
  "Odudu": 10049,
  "krist": 10050,
  "ọkpụkpụ .": 10051,
  "group": 10052,
  "ụzụ ,": 10053,
  "okpụrụkpụ": 10054,
  "Canada .": 10055,
  "Israel .": 10056,
  "tal ,": 10057,
  "Awara": 10058,
  "Bumbu": 10059,
  "- 6 )": 10060,
  "Ronaldo ,": 10061,
  "Airport ?": 10062,
  "Week": 10063,
  "ya .  \" ha \"": 10064,
  "1914 ?": 10065,
  "Chioma !": 10066,
  "Nollywood .": 10067,
  "Shekau .": 10068,
  "Sydne": 10069,
  "Sabon": 10070,
  "ya  \" o \"": 10071,
  "ezinaụlọ .": 10072,
  "Abraka ,": 10073,
  "ndị ; )": 10074,
  "vour": 10075,
  "eding": 10076,
  "Timgad ,": 10077,
  "Abdullahi ,": 10078,
  "aig": 10079,
  "ig ,": 10080,
  "write": 10081,
  "abacha ,": 10082,
  "mesaya .": 10083,
  "ha . ” )": 10084,
  "Misty": 10085,
  "cell": 10086,
  "Instagra": 10087,
  "Guinea-": 10088,
  "Africa  \" - \"": 10089,
  "Council :": 10090,
  "Cric": 10091,
  "Uwakola": 10092,
  "rough": 10093,
  "Rans": 10094,
  "eee ?": 10095,
  "- 8 )": 10096,
  "listra .": 10097,
  "Salwa": 10098,
  "Christmas": 10099,
  "Christ ,": 10100,
  "Nkenu": 10101,
  "Ohao": 10102,
  "Ndiego": 10103,
  "( NEMA": 10104,
  "Njikọka ,": 10105,
  "ntụkwasịobi": 10106,
  "37 :": 10107,
  "Ezini": 10108,
  "Chikere": 10109,
  "Finish": 10110,
  "Chinese": 10111,
  "Calista": 10112,
  "nzaghachị": 10113,
  "Onnoghen ,": 10114,
  "Jibri": 10115,
  "Jiha": 10116,
  "Lang": 10117,
  "ngosipụta": 10118,
  "Yusuph": 10119,
  "Achebe ,": 10120,
  "jeriko .": 10121,
  "ọfị": 10122,
  "Sokoto ,": 10123,
  "Ovie": 10124,
  "Ekiti ,": 10125,
  "Chinwe .": 10126,
  "Taf": 10127,
  "C-": 10128,
  "Donny": 10129,
  "120 ,": 10130,
  "janụwarị ,": 10131,
  "Germany .": 10132,
  "Economic \"": 10133,
  "jụụ .": 10134,
  "Lapor": 10135,
  "sbour": 10136,
  "Cosmas \"": 10137,
  "bn ) ,": 10138,
  "bn ) .": 10139,
  "Ashley": 10140,
  "- 27": 10141,
  "---": 10142,
  "Alkali": 10143,
  "Obowo": 10144,
  "akwụnakwụ": 10145,
  "palace": 10146,
  "Burundi .": 10147,
  "babịlọn .": 10148,
  "Netanyahu ,": 10149,
  "kọpa ,": 10150,
  "Edochie": 10151,
  "abụ ; )": 10152,
  "kins": 10153,
  "Anyachebe": 10154,
  "ozuzo ,": 10155,
  "klaasị ,": 10156,
  "Arabik ,": 10157,
  "akpịrị ,": 10158,
  "Angels": 10159,
  "344": 10160,
  "- 44": 10161,
  "Extra": 10162,
  "ugba ,": 10163,
  "ube ,": 10164,
  " . \" \" ": 10165,
  "chanic": 10166,
  "Nancy": 10167,
  "Malami ,": 10168,
  "White": 10169,
  "nebọt .": 10170,
  "Mahmou": 10171,
  "Okika": 10172,
  "Okija": 10173,
  "Amaraizu ,": 10174,
  "Moza": 10175,
  "arụrụala .": 10176,
  "jenesis ,": 10177,
  "CIA": 10178,
  "ili ,": 10179,
  "Langua": 10180,
  "Amos": 10181,
  "Ilorin": 10182,
  "pụ  \" ": 10183,
  "Jideọfọ ,": 10184,
  "Onwuemeodo ,": 10185,
  "weet": 10186,
  "UTA )": 10187,
  "Lawan": 10188,
  "Filip": 10189,
  "Chile .": 10190,
  "Ikoro": 10191,
  "Perpe": 10192,
  "Obialo": 10193,
  "Reu": 10194,
  "Wilf": 10195,
  "Wilder": 10196,
  "Kabiru": 10197,
  "Hauwa": 10198,
  "Zidane ,": 10199,
  "Bridget": 10200,
  "Salz": 10201,
  "kampanọs .": 10202,
  "Frede": 10203,
  "ebighị": 10204,
  "njakịrị": 10205,
  "Oyeyemi": 10206,
  " .  \" kedụ \"": 10207,
  "election :": 10208,
  "ekworo": 10209,
  "Godfrey": 10210,
  "Hospita": 10211,
  "Raed": 10212,
  "Offa": 10213,
  "( 1.": 10214,
  "Arimah": 10215,
  "Umuoba": 10216,
  "Iden ,": 10217,
  "Odozi": 10218,
  " .  \" ebe \"": 10219,
  "Value": 10220,
  "Ijegun": 10221,
  "nuklia .": 10222,
  " .  \" oge \"": 10223,
  "  \" oge \"": 10224,
  "tomato ,": 10225,
  "Alexandria ,": 10226,
  "na  \" gọọmentị \"": 10227,
  "Nwokocha": 10228,
  "Bolton": 10229,
  "Coast": 10230,
  "Denja": 10231,
  "Redeem": 10232,
  "UPP": 10233,
  "Achike": 10234,
  "Obra": 10235,
  "akaebe .": 10236,
  "  \" maka \"": 10237,
  "ngwugwu": 10238,
  "lease": 10239,
  "uhie .": 10240,
  "ọkazị ,": 10241,
  "Mozis ,": 10242,
  "Dara": 10243,
  "Gboye": 10244,
  "Hong .": 10245,
  "- 15 )": 10246,
  "- 17 )": 10247,
  "umengwụ .": 10248,
  "Constitu": 10249,
  "Matthi": 10250,
  "FRCN": 10251,
  "Okpatu": 10252,
  "ụgụrụ": 10253,
  "ụgụ ,": 10254,
  "sị ;  \" ": 10255,
  "eghe ,": 10256,
  "oghe ,": 10257,
  "Poland .": 10258,
  "Cyber \"": 10259,
  "Division": 10260,
  "Romney ,": 10261,
  "Okagba": 10262,
  "yanju": 10263,
  "Suha": 10264,
  "Emenike": 10265,
  "Canadian": 10266,
  "Group  \" kwu": 10267,
  "Finland": 10268,
  "Taiwan": 10269,
  "Hunger": 10270,
  "protein": 10271,
  "Sciences": 10272,
  "former": 10273,
  "Oringo": 10274,
  "Kingdom": 10275,
  "Calaba": 10276,
  "Runse": 10277,
  "Callum": 10278,
  "PN )": 10279,
  "sọlọmọ": 10280,
  "Slavia": 10281,
  "kwem !": 10282,
  "mbassy": 10283,
  "Chiejine ,": 10284,
  "betlehe": 10285,
  "Akihi": 10286,
  "Winne": 10287,
  "Omebe": 10288,
  "Adebisi": 10289,
  "-Iwe": 10290,
  "Christiane": 10291,
  "California .": 10292,
  "Olase": 10293,
  "Villar": 10294,
  "Okonkwo ,": 10295,
  "Sambisa .": 10296,
  "Owerre": 10297,
  "- 16 )": 10298,
  "Greek": 10299,
  "( VAR": 10300,
  "krismas ,": 10301,
  "Accord": 10302,
  "Tarrant ,": 10303,
  "Academic": 10304,
  "agbị": 10305,
  "agbụgbọ": 10306,
  "ASCS": 10307,
  "2.5": 10308,
  "weight": 10309,
  "Zioni": 10310,
  "Uzoamaka": 10311,
  "Chiamaka": 10312,
  "ọgịga": 10313,
  "Mag": 10314,
  "Specia": 10315,
  "helico": 10316,
  "Olusho": 10317,
  "800 ,": 10318,
  "porting": 10319,
  "( sper": 10320,
  "Obidigbo": 10321,
  "- 12 )": 10322,
  "visa \" \" amerịka": 10323,
  "Maurice": 10324,
  "Pharmaceuticals": 10325,
  "Agnes": 10326,
  "Igbo-U": 10327,
  "dragọ": 10328,
  "Hump": 10329,
  "Total": 10330,
  "Otukpo": 10331,
  "kọm-": 10332,
  "Bruyne": 10333,
  "Wayne": 10334,
  "egbugbere": 10335,
  "Chikun": 10336,
  "Olufemi": 10337,
  "America ,": 10338,
  "ọkaipe ,": 10339,
  "protein ,": 10340,
  "Ezenachukwu": 10341,
  "Layou": 10342,
  "Enoide": 10343,
  "Mitt": 10344,
  "Edmund": 10345,
  "mkpughe .": 10346,
  "atịtị": 10347,
  "Jerry": 10348,
  "Kolasina": 10349,
  "Universities": 10350,
  "Qatar .": 10351,
  "District": 10352,
  "Cultural": 10353,
  "ndeewo .": 10354,
  "Toronto .": 10355,
  "aịko": 10356,
  "Osaka": 10357,
  "Sabba": 10358,
  "Haiti": 10359,
  "Adewale": 10360,
  "wuruwuru": 10361,
  "Bonny": 10362,
  "dukaduka": 10363,
  "protest :": 10364,
  "ojoko": 10365,
  "Alona": 10366,
  "ntakịrị ,": 10367,
  "ntakịrị .": 10368,
  "potassi": 10369,
  "sopota": 10370,
  "Sagagi": 10371,
  "Leave": 10372,
  "Center": 10373,
  "illings :": 10374,
  "Osinbajo ,": 10375,
  "Ikedife": 10376,
  "Umuchu ,": 10377,
  "Sevilla": 10378,
  "Planning": 10379,
  "Osadebe ,": 10380,
  "Bernar": 10381,
  "Thibaut": 10382,
  "Account": 10383,
  "Dunukofi": 10384,
  "Dunukofia": 10385,
  "  \" UNIZIK": 10386,
  "Rauf": 10387,
  "PTD": 10388,
  "TEM": 10389,
  "Monsig": 10390,
  "Urugua": 10391,
  "Robbe": 10392,
  "tiivi": 10393,
  "Fintiri": 10394,
  "Egbunuche": 10395,
  "Ogbeh": 10396,
  "Isong": 10397,
  "uzuzu": 10398,
  "Addis": 10399,
  "Janga": 10400,
  "mbenukwu": 10401,
  "Education": 10402,
  "Lawy": 10403,
  "ohere .": 10404,
  "zone \"": 10405,
  "Regulation": 10406,
  "nsọpụrụ ,": 10407,
  "Momodu": 10408,
  "Investi": 10409,
  "Jenkọ": 10410,
  "Tennis": 10411,
  "cocoa": 10412,
  "Assistant": 10413,
  "Chiemela": 10414,
  "Tokyo": 10415,
  "Ezenneka": 10416,
  "Benin ,": 10417,
  "Alphon": 10418,
  "Raypower": 10419,
  "Jeffe": 10420,
  "ZANU": 10421,
  "Eritrea": 10422,
  "mpako ,": 10423,
  "Rapino": 10424,
  "Premiership .": 10425,
  "Asagwara": 10426,
  "Whitney": 10427,
  "Ibraheem": 10428,
  "middle": 10429,
  "attacks :": 10430,
  "Records": 10431,
  "Technovation :": 10432,
  "Adazi-Nnu": 10433,
  "Enugwu-A": 10434,
  "Gọv .": 10435,
  "Monkeypox": 10436,
  "Methodist": 10437,
  "mediterenian .": 10438,
  "Gbenga": 10439,
  "( Awka": 10440,
  "Whale": 10441,
  "Bilbao": 10442,
  "tanker": 10443,
  "Ogbaru ,": 10444,
  "Nabena": 10445,
  "Fatima": 10446,
  "Oleka": 10447,
  "  \" ? \"": 10448,
  "Colonel": 10449,
  "Visigo": 10450,
  "Rugge": 10451,
  "Ugboaja": 10452,
  "stival": 10453,
  "Kovac": 10454,
  "Afenife": 10455,
  "Mkhi": 10456,
  "Utomi": 10457,
  "Dzho": 10458,
  "Derby": 10459,
  "Agrippa": 10460,
  "mpics": 10461,
  "Caraba": 10462,
  "nazaret": 10463,
  "logist": 10464,
  "Ezeilo": 10465,
  "remain": 10466,
  "Zouma": 10467,
  "Wakil": 10468,
  "Nutri": 10469,
  "Belgium .": 10470,
  "Laurie": 10471,
  "Laterite": 10472,
  "ọtịta": 10473,
  "Pacifi": 10474,
  "ntification": 10475,
  "Billie": 10476,
  "Kurd": 10477,
  "Thibault": 10478,
  "Pakistan .": 10479,
  "Beatri": 10480,
  "Martial": 10481,
  "Jerome": 10482,
  "Herod": 10483,
  "Lugard": 10484,
  "carpet": 10485,
  "Danmallam": 10486,
  "aluminium": 10487,
  "Emiliano": 10488,
  "Corbyn": 10489,
  "Enwonwu": 10490,
  "Denmark": 10491,
  "Benjamin .": 10492,
  "Hotel": 10493,
  "Atlanti": 10494,
  "Cancelo": 10495,
  "Angeles .": 10496,
  "Okwuosa": 10497,
  "Agricultu": 10498,
  "Currency": 10499,
  "Euphrate": 10500,
  "Babangida": 10501,
  "fessor": 10502,
  "Hungary .": 10503,
  "Dambazau": 10504,
  "Bundesliga": 10505,
  "ndị  \" Restoration \"": 10506,
  "AWCON": 10507,
  "Immacu": 10508,
  "Etuhu": 10509,
  "Damaturu": 10510,
  "Igbaria": 10511,
  "adụ ,": 10512,
  "awele": 10513,
  "Ndefo": 10514,
  "Snei": 10515,
  "Ladodo": 10516,
  "Gusau": 10517,
  "Iliya": 10518,
  "nnwụchi": 10519,
  "Ekwulobi": 10520,
  "Sandie": 10521,
  "Iwuno": 10522,
  "Damian": 10523,
  "Sahara": 10524,
  "Wells": 10525,
  "olemole": 10526,
  "Lope": 10527,
  "inflation": 10528,
  "afịọlụ": 10529,
  "Dementi": 10530,
  "Djoko": 10531,
  "Montreal": 10532,
  "Wenger": 10533,
  "Passport": 10534,
  "Video": 10535,
  "NotToo": 10536,
  "Jalingo": 10537,
  "Jacqu": 10538,
  "Akunwafor": 10539,
  "Rally :": 10540,
  "ọkpọkọrọ ,": 10541,
  "Violet": 10542,
  "Maduabuchi": 10543,
  "Anazodo": 10544,
  "Inspector": 10545,
  "Livestock": 10546,
  "Oriental": 10547,
  "napping": 10548,
  "Timbersha": 10549,
  "Ogbunike ,": 10550,
  "Anidiobi": 10551,
  "finance": 10552,
  "arụkwaghịm .": 10553,
  "Odionyen": 10554,
  "Austria .": 10555,
  "Review": 10556,
  "Aregbesola": 10557,
  "Claudia": 10558,
  "Reporters": 10559,
  "Anyakora": 10560,
  "Vietnam": 10561,
  "McGin": 10562,
  "Serwanj": 10563,
  "Zucker": 10564,
  "Tribunal :": 10565,
  "Satellite": 10566,
  "Jogging": 10567,
  "Killing :": 10568,
  "Simeulue": 10569,
  "Erdogan": 10570,
  "Mauritania": 10571,
  "Troost-E": 10572,
  "umuawulu ,": 10573,
  "St-Germain": 10574,
  "Igbeneghu": 10575,
  "Bolsonaro": 10576,
  "Tambuwal": 10577,
  "Against": 10578,
  "Control": 10579,
  "tramadol": 10580,
  "mgbịrịgba": 10581,
  "Pereira": 10582,
  "Njemanze": 10583,
  "Alkmaar": 10584,
  "Solskja": 10585,
  "Priscilla": 10586,
  "Lacazette": 10587,
  "Theophilus": 10588,
  "Heung-min": 10589,
  "ọbạ": 10590,
  "Antioch": 10591,
  "נפשׁ": 10592,
  "Chinyere": 10593,
  "Wasiu": 10594,
  "iribama": 10595,
  "Gerizi": 10596,
  "Refu": 10597,
  "Tsh": 10598,
  "Miango": 10599,
  "Czech": 10600,
  "Citize": 10601,
  "Somto": 10602,
  "katolik": 10603,
  "ahọ": 10604,
  "Jezreel": 10605,
  "Eid-el": 10606,
  "Njubigbo": 10607,
  "Olugbenga": 10608,
  "Ontari": 10609,
  "Chinualumo": 10610,
  "chiifu": 10611,
  "Reece": 10612,
  "Austria": 10613,
  "sameria": 10614,
  "Hamisu": 10615,
  "Enyeama": 10616,
  "Nineve": 10617,
  "Moldova": 10618,
  "Royal": 10619,
  "Things": 10620,
  "Jimoh": 10621,
  "Kehinde": 10622,
  "Sebasti": 10623,
  "Sagir": 10624,
  "Ocasio": 10625,
  "Alfọnso": 10626,
  "Sylvester": 10627,
  "Basket": 10628,
  "Biokpomabo": 10629,
  "Desire": 10630,
  "ọtanisi": 10631,
  "Guinness": 10632,
  "Tomori": 10633,
  "Massachuse": 10634,
  "Alej": 10635,
  "Atuejide": 10636,
  "900 ) .": 10637,
  "Ajegunle": 10638,
  "Emperor": 10639,
  "mgbagwoju": 10640,
  "Hitoshi": 10641,
  "Ọnyịdọ": 10642,
  "continue": 10643,
  "Amakeze": 10644,
  "Raquel": 10645,
  "Mambilla": 10646,
  "Beloved": 10647,
  "Komla": 10648,
  "efesọs": 10649,
  "Dolapo": 10650,
  "Yekini": 10651,
  "Russell": 10652,
  "Moshood": 10653,
  "Abiodun": 10654,
  "Dumor": 10655,
  "-Cortez": 10656,
  "Cardiff": 10657,
  "DISCO": 10658,
  "Vesnaver": 10659,
  "Ogunwusi": 10660,
  "Biblical": 10661,
  "Emzoly": 10662,
  "Ifrem": 10663,
  "Barkley": 10664,
  "Bumbum :": 10665,
  "Campaig": 10666,
  "Cricket": 10667,
  "Uwakolam": 10668,
  "Ransford": 10669,
  "Ohaozara": 10670,
  "Finishia": 10671,
  "ọfịs": 10672,
  "Tafawa": 10673,
  "C-Don": 10674,
  "Laporte": 10675,
  "Strasbour": 10676,
  "akwụnakwụna": 10677,
  "Mozambi": 10678,
  "pụ  \" International": 10679,
  "Ikorodu": 10680,
  "Perpetu": 10681,
  "Reuters": 10682,
  "Wilfrie": 10683,
  "Salzburg": 10684,
  "Hospital ,": 10685,
  "Obrador": 10686,
  "Daramola": 10687,
  "Gboyega": 10688,
  "Constituency": 10689,
  "Matthias": 10690,
  "Suhaila": 10691,
  "Group  \" kwuru \"": 10692,
  "Runsewe": 10693,
  "sọlọmọn ,": 10694,
  "betlehem": 10695,
  "Akihito": 10696,
  "Winners": 10697,
  "Okonjo-Iwe": 10698,
  "Olaseinde": 10699,
  "Villarreal": 10700,
  "( VAR )": 10701,
  "ASCSDA": 10702,
  "Zionists": 10703,
  "Magnus": 10704,
  "Specialist": 10705,
  "helicopter": 10706,
  "Olushosun": 10707,
  "dragọn": 10708,
  "Humph": 10709,
  "Kolasinac": 10710,
  "aịkoni": 10711,
  "Sabbatical": 10712,
  "Bernardo": 10713,
  "  \" UNIZIK \"": 10714,
  "PTDF": 10715,
  "Monsignor": 10716,
  "Uruguay": 10717,
  "Robbery": 10718,
  "Lawyers": 10719,
  "Investigation": 10720,
  "Alphonsus": 10721,
  "Jeffery": 10722,
  "Rapinoe": 10723,
  "middleweight": 10724,
  "Adazi-Nnukwu ,": 10725,
  "Mkhitar": 10726,
  "Dzhok": 10727,
  "Carabao .": 10728,
  "Nutrition :": 10729,
  "Beatrice": 10730,
  "Immaculata": 10731,
  "Sneij": 10732,
  "Iliyasu": 10733,
  "Lopete": 10734,
  "Djokovic": 10735,
  "NotTooYoung": 10736,
  "Jacques": 10737,
  "Timbershade": 10738,
  "Serwanjja": 10739,
  "Zuckerberg": 10740,
  "Troost-Eko": 10741,
  "Solskjaer": 10742,
  "ọbạsị": 10743,
  "Refugee": 10744,
  "Tshise": 10745,
  "Massachusett": 10746,
  "Alejandro": 10747,
  "Ocasio-Cortez": 10748,
  "Emzolyn": 10749,
  "Mozambique": 10750,
  "pụ  \" International \" \" na \"": 10751,
  "Perpetual": 10752,
  "Wilfried": 10753,
  "Humphrey": 10754,
  "aịkoniọm": 10755,
  "Mkhitaryan": 10756,
  "Dzhokhar": 10757,
  "Sneijder": 10758,
  "Lopetegui": 10759,
  "NotTooYoungTo": 10760,
  "Troost-Ekong": 10761,
  "Tshisekedi": 10762,
  "NotTooYoungToRu": 10763,
  "NotTooYoungToRun": 10764,
  "Nn": 10765,
  "ak": 10766,
  "ai": 10767,
  "ii": 10768,
  "Lt": 10769,
  "ua": 10770,
  "54": 10771,
  "aw": 10772,
  "Th": 10773,
  "xt": 10774,
  "r-": 10775,
  "ic": 10776,
  "IF": 10777,
  "78": 10778,
  "rl": 10779,
  "uny": 10780,
  "kt": 10781,
  "75": 10782,
  "BS": 10783,
  "08": 10784,
  ".2": 10785,
  "Sọ": 10786,
  "vá": 10787,
  "ía": 10788,
  "IT": 10789,
  "RA": 10790,
  "Uy": 10791,
  "z-": 10792,
  "Ul": 10793,
  "58": 10794,
  "Okw": 10795,
  "92": 10796,
  "SI": 10797,
  "GO": 10798,
  "PA": 10799,
  "TO": 10800,
  "xy": 10801,
  "TC": 10802,
  ".8": 10803,
  "ón": 10804,
  "ão": 10805,
  "y-": 10806,
  "CR": 10807,
  "DG": 10808,
  "Xi": 10809,
  "Ụka": 10810,
  "mag": 10811,
  "mak": 10812,
  "may": 10813,
  "u .": 10814,
  "H .": 10815,
  "O .": 10816,
  "g ,": 10817,
  "O ,": 10818,
  "j ,": 10819,
  "E ,": 10820,
  "ram": 10821,
  "pra": 10822,
  "ere": 10823,
  "pta": 10824,
  "tya": 10825,
  "mega": 10826,
  "gama": 10827,
  "Fla": 10828,
  "bla": 10829,
  "lak": 10830,
  "cla": 10831,
  "lake": 10832,
  "rika": 10833,
  "ric": 10834,
  "rim": 10835,
  "riga": 10836,
  "kri": 10837,
  "sis": 10838,
  "sim": 10839,
  "sil": 10840,
  "sike": 10841,
  "jim": 10842,
  "ụrị": 10843,
  "bau": 10844,
  "bay": 10845,
  "haba": 10846,
  "hate": 10847,
  "Ete": 10848,
  "tera": 10849,
  "nketa": 10850,
  "tu .": 10851,
  "Utu": 10852,
  "tuna": 10853,
  "ụgba": 10854,
  "bem": 10855,
  "Uti": 10856,
  "Cle": 10857,
  "lere": 10858,
  "otus": 10859,
  "ziri": 10860,
  "zzi": 10861,
  "hapụ": 10862,
  "mman": 10863,
  "mmai": 10864,
  "mụ ,": 10865,
  "tche": 10866,
  "Sche": 10867,
  "Owe": 10868,
  "were": 10869,
  "kwu \"": 10870,
  "i \"": 10871,
  "nwe \"": 10872,
  "hụ \"": 10873,
  "A \"": 10874,
  "Nwaka": 10875,
  "rọn": 10876,
  "chai": 10877,
  "rede": 10878,
  "dev": 10879,
  "kụ ,": 10880,
  "Ọkụ": 10881,
  "une": 10882,
  "Ido": 10883,
  "nwa \"": 10884,
  "mwa": 10885,
  "wara": 10886,
  "waya": 10887,
  "swa": 10888,
  "Bisi": 10889,
  "ogha": 10890,
  "ọgha": 10891,
  "ghai": 10892,
  "Agha": 10893,
  "sala": 10894,
  "lio": 10895,
  "ebele": 10896,
  "ebeebe": 10897,
  "Dro": 10898,
  "role": 10899,
  "Fro": 10900,
  "Kro": 10901,
  "roy": 10902,
  "Oro": 10903,
  "kọtọ": 10904,
  "roni": 10905,
  "nit": 10906,
  "maka ,": 10907,
  "age": 10908,
  "Oge": 10909,
  "wage": 10910,
  "bus": 10911,
  "Oso": 10912,
  "so \"": 10913,
  "fịa": 10914,
  "gbo .": 10915,
  "ụmụ .": 10916,
  "gwu \"": 10917,
  "rugwu": 10918,
  "Diri": 10919,
  "ụgbo": 10920,
  "1 :": 10921,
  "7 :": 10922,
  "ba :": 10923,
  "sh :": 10924,
  " : \"": 10925,
  "ihe :": 10926,
  "kwer": 10927,
  "okpe": 10928,
  "akpọ": 10929,
  "Nyanya": 10930,
  "emba": 10931,
  "abo": 10932,
  "bou": 10933,
  "bbo": 10934,
  "dama": 10935,
  "mbada": 10936,
  "da \"": 10937,
  "sted": 10938,
  "Este": 10939,
  "gịrị": 10940,
  "sea": 10941,
  "sel": 10942,
  "seme": 10943,
  "jiakụ": 10944,
  "Alu": 10945,
  "Blu": 10946,
  "flu": 10947,
  "nyelu": 10948,
  "Elu": 10949,
  "kwọt": 10950,
  "Lobi": 10951,
  "zuo": 10952,
  "edi": 10953,
  "rdi": 10954,
  "dire": 10955,
  "Udi": 10956,
  "dish": 10957,
  "chineke \"": 10958,
  "Ian": 10959,
  "onye  \" ": 10960,
  "  \" che": 10961,
  "  \" ị": 10962,
  "  \" de": 10963,
  "gị  \" ": 10964,
  "  \" ga-": 10965,
  "  \" go": 10966,
  "  \" gwa": 10967,
  "jen": 10968,
  "che ?": 10969,
  "li ?": 10970,
  "onye ?": 10971,
  "chị ?": 10972,
  "nwa ?": 10973,
  "akwụkwọ ?": 10974,
  "gba ?": 10975,
  "iche ?": 10976,
  "Anu": 10977,
  "oke ?": 10978,
  "oke \"": 10979,
  "nts": 10980,
  "want": 10981,
  "Goge": 10982,
  "x )": 10983,
  "D )": 10984,
  "t )": 10985,
  "M )": 10986,
  "ra )": 10987,
  "riva": 10988,
  "Iva": 10989,
  "Ewu": 10990,
  "ku .": 10991,
  "Eku": 10992,
  "kur": 10993,
  "abụọ ?": 10994,
  "kom": 10995,
  "eko": 10996,
  "sọ .": 10997,
  "safe": 10998,
  "“ ahụ": 10999,
  "“ me": 11000,
  "“ so": 11001,
  "“ tụ": 11002,
  "“ ‘": 11003,
  " ” )": 11004,
  "ta ”": 11005,
  "ha ”": 11006,
  "ra ”": 11007,
  "anya ”": 11008,
  "obi ”": 11009,
  "anyị ”": 11010,
  "ond": 11011,
  "ono": 11012,
  "lon": 11013,
  "sọdọ": 11014,
  "ami": 11015,
  "mila": 11016,
  "miro": 11017,
  "minu": 11018,
  "mir": 11019,
  "Smi": 11020,
  "mia .": 11021,
  "abụm": 11022,
  "ọnụnọ": 11023,
  "edu": 11024,
  "Idu": 11025,
  "obodo :": 11026,
  "egwu \"": 11027,
  "him": 11028,
[...]
