{
  "<unk>": 0,
  "<s>": 1,
  "</s>": 2,
  "<pad>": 3,
  "<mask morph>": 4,
  "!": 5,
  "\"": 6,
  "#": 7,
  "$": 8,
  "%": 9,
  "&": 10,
  "'": 11,
  "(": 12,
  ")": 13,
  "*": 14,
  ",": 15,
  "-": 16,
  ".": 17,
  "/": 18,
  "0": 19,
  "1": 20,
  "2": 21,
  "3": 22,
  "4": 23,
  "5": 24,
  "6": 25,
  "7": 26,
  "8": 27,
  "9": 28,
  ":": 29,
  ";": 30,
  "<": 31,
  "=": 32,
  ">": 33,
  "?": 34,
  "@": 35,
  "A": 36,
  "B": 37,
  "C": 38,
  "CH": 39,
  "Ch": 40,
  "D": 41,
  "E": 42,
  "F": 43,
  "G": 44,
  "GB": 45,
  "Gb": 46,
  "Gh": 47,
  "Gw": 48,
  "H": 49,
  "I": 50,
  "J": 51,
  "K": 52,
  "KP": 53,
  "Kp": 54,
  "Kw": 55,
  "L": 56,
  "M": 57,
  "N": 58,
  "NW": 59,
  "NY": 60,
  "Nw": 61,
  "Ny": 62,
  "O": 63,
  "P": 64,
  "Q": 65,
  "R": 66,
  "S": 67,
  "SH": 68,
  "Sh": 69,
  "T": 70,
  "U": 71,
  "V": 72,
  "W": 73,
  "X": 74,
  "Y": 75,
  "Z": 76,
  "[": 77,
  "]": 78,
  "^": 79,
  "_": 80,
  "`": 81,
  "a": 82,
  "b": 83,
  "c": 84,
  "ch": 85,
  "d": 86,
  "e": 87,
  "f": 88,
  "g": 89,
  "gb": 90,
  "gh": 91,
  "gw": 92,
  "h": 93,
  "i": 94,
  "j": 95,
  "k": 96,
  "kp": 97,
  "kw": 98,
  "l": 99,
  "m": 100,
  "n": 101,
  "nw": 102,
  "ny": 103,
  "o": 104,
  "p": 105,
  "q": 106,
  "r": 107,
  "s": 108,
  "sh": 109,
  "t": 110,
  "u": 111,
  "v": 112,
  "w": 113,
  "x": 114,
  "y": 115,
  "z": 116,
  "{": 117,
  "|": 118,
  "}": 119,
  "£": 120,
  "®": 121,
  "·": 122,
  "É": 123,
  "Ö": 124,
  "×": 125,
  "à": 126,
  "á": 127,
  "ã": 128,
  "ä": 129,
  "å": 130,
  "æ": 131,
  "ç": 132,
  "è": 133,
  "é": 134,
  "ì": 135,
  "í": 136,
  "ï": 137,
  "ñ": 138,
  "ó": 139,
  "ô": 140,
  "ö": 141,
  "ø": 142,
  "ù": 143,
  "ú": 144,
  "ü": 145,
  "ć": 146,
  "č": 147,
  "ğ": 148,
  "ń": 149,
  "ş": 150,
  "š": 151,
  "ż": 152,
  "ž": 153,
  "̀": 154,
  "́": 155,
  "ׁ": 156,
  "ה": 157,
  "נ": 158,
  "פ": 159,
  "ש": 160,
  "ṅ": 161,
  "ạ": 162,
  "ẹ": 163,
  "Ị": 164,
  "ị": 165,
  "Ọ": 166,
  "ọ": 167,
  "Ụ": 168,
  "ụ": 169,
  "–": 170,
  "—": 171,
  "‘": 172,
  "’": 173,
  "“": 174,
  "”": 175,
  "•": 176,
  "₦": 177,
  "€": 178,
  "■": 179,
  "●": 180,
  "": 181,
  "na": 182,
  "dị": 183,
  "ka": 184,
  "ma": 185,
  "n'": 186,
  "bụ": 187,
  "er": 188,
  "ar": 189,
  "ndị": 190,
  "ke": 191,
  "ha": 192,
  "na-": 193,
  "ere": 194,
  "ara": 195,
  "ya": 196,
  "me": 197,
  "ih": 198,
  "la": 199,
  "ga": 200,
  "si": 201,
  "nye": 202,
  "ji": 203,
  "hụ": 204,
  "ta": 205,
  "ihe": 206,
  "kwu": 207,
  "rụ": 208,
  "ri": 209,
  "any": 210,
  "ahụ": 211,
  "ru": 212,
  "nke": 213,
  "rị": 214,
  "tu": 215,
  "ba": 216,
  "kwa": 217,
  "onye": 218,
  "na-a": 219,
  "na-e": 220,
  "ghị": 221,
  "tụ": 222,
  "dụ": 223,
  "ti": 224,
  "ga-": 225,
  "te": 226,
  "gba": 227,
  "otu": 228,
  "le": 229,
  "be": 230,
  "bi": 231,
  "zi": 232,
  "anyị": 233,
  "sị": 234,
  "mma": 235,
  "pụ": 236,
  "kọ": 237,
  "mụ": 238,
  "an": 239,
  "chi": 240,
  "chị": 241,
  "che": 242,
  "nwe": 243,
  "zọ": 244,
  "aka": 245,
  "lọ": 246,
  "rọ": 247,
  "kụ": 248,
  "do": 249,
  "ụlọ": 250,
  "we": 251,
  "ne": 252,
  "kwụ": 253,
  "ala": 254,
  "nwa": 255,
  "go": 256,
  "fọ": 257,
  "gbu": 258,
  "isi": 259,
  "ra": 260,
  "mmadụ": 261,
  "li": 262,
  "gbe": 263,
  "ebe": 264,
  "ike": 265,
  "ọrọ": 266,
  "iri": 267,
  "kwuru": 268,
  "wa": 269,
  "de": 270,
  "cha": 271,
  "ro": 272,
  "maka": 273,
  "bu": 274,
  "mgbe": 275,
  "tọ": 276,
  "ga-e": 277,
  "mere": 278,
  "so": 279,
  "tara": 280,
  "ni": 281,
  "gbo": 282,
  "ụmụ": 283,
  "rịa": 284,
  "ọọ": 285,
  "gwu": 286,
  "ịa": 287,
  "ọrụ": 288,
  "eti": 289,
  "nwere": 290,
  "ga-a": 291,
  "nụ": 292,
  "sa": 293,
  "ge": 294,
  "ọchị": 295,
  "anya": 296,
  "afọ": 297,
  "mba": 298,
  "bo": 299,
  "ime": 300,
  "okwu": 301,
  "nwụ": 302,
  "abụ": 303,
  "kwe": 304,
  "akụ": 305,
  "ọzọ": 306,
  "gị": 307,
  "akwụ": 308,
  "lu": 309,
  "ịji": 310,
  "ịjirịa": 311,
  "naịjirịa": 312,
  "nọ": 313,
  "obi": 314,
  "kwọ": 315,
  "se": 316,
  "kpe": 317,
  "zu": 318,
  "di": 319,
  "ezi": 320,
  "ste": 321,
  "neke": 322,
  "steeti": 323,
  "chineke": 324,
  "iche": 325,
  "akwụkwọ": 326,
  "kpa": 327,
  "nyere": 328,
  "da": 329,
  "ile": 330,
  "nt": 331,
  "nu": 332,
  "dịka": 333,
  "pụta": 334,
  "oke": 335,
  "re": 336,
  "niile": 337,
  "oge": 338,
  "je": 339,
  "gụ": 340,
  "agh": 341,
  "tụtụ": 342,
  "wu": 343,
  "ku": 344,
  "ya.": 345,
  "abụọ": 346,
  "akụkọ": 347,
  "ịbụ": 348,
  "na-eme": 349,
  "arị": 350,
  "eri": 351,
  "mp": 352,
  "ko": 353,
  "a.": 354,
  "ama": 355,
  "onyeisi": 356,
  "anọ": 357,
  "igbo": 358,
  "ọtụtụ": 359,
  "on": 360,
  "bụrụ": 361,
  "sọ": 362,
  "kpọ": 363,
  "bịa": 364,
  "nwaanyị": 365,
  "kwara": 366,
  "bodo": 367,
  "pu": 368,
  "ịbụl": 369,
  "baịbụl": 370,
  "mi": 371,
  "ọnụ": 372,
  "bụla": 373,
  "mme": 374,
  "obodo": 375,
  "du": 376,
  "ana": 377,
  "egwu": 378,
  "20": 379,
  "iji": 380,
  "gbọ": 381,
  "chọ": 382,
  "fe": 383,
  "ụwa": 384,
  "hi": 385,
  "aga": 386,
  "gwa": 387,
  "pụtara": 388,
  "iwu": 389,
  "siri": 390,
  "ikpe": 391,
  "to": 392,
  "ụb": 393,
  "ze": 394,
  "ego": 395,
  "eme": 396,
  "mb": 397,
  "uru": 398,
  "az": 399,
  "gọ": 400,
  "ụbọchị": 401,
  "ntị": 402,
  "agba": 403,
  "onwe": 404,
  "tere": 405,
  "a,": 406,
  "ho": 407,
  "ụrụ": 408,
  "st": 409,
  "ari": 410,
  "ihi": 411,
  "ndụ": 412,
  "ahụ.": 413,
  "ozi": 414,
  "oji": 415,
  "uwe": 416,
  "mana": 417,
  "sịrị": 418,
  "gara": 419,
  "ọchịchị": 420,
  "aha": 421,
  "lụ": 422,
  "atọ": 423,
  "ah": 424,
  "ụzọ": 425,
  "ukwu": 426,
  "gọọ": 427,
  "mm": 428,
  "gọọme": 429,
  "Bu": 430,
  "kpọrọ": 431,
  "hụrụ": 432,
  "elu": 433,
  "fọdụ": 434,
  "kwuo": 435,
  "ojii": 436,
  "ọka": 437,
  "ya,": 438,
  "nwoke": 439,
  "jụ": 440,
  "ụfọdụ": 441,
  "ha.": 442,
  "kpo": 443,
  "nd": 444,
  "201": 445,
  "ụgbọ": 446,
  "sụ": 447,
  "ọma": 448,
  "sara": 449,
  "ahụ,": 450,
  "nso": 451,
  "eze": 452,
  "agha": 453,
  "ome": 454,
  "mee": 455,
  "were": 456,
  "mer": 457,
  ".”": 458,
  "gbara": 459,
  "or": 460,
  "nweghị": 461,
  "asa": 462,
  "chara": 463,
  "hov": 464,
  "ihu": 465,
  "jehov": 466,
  "hari": 467,
  "Buhari": 468,
  "ga-eme": 469,
  "mara": 470,
  "gharị": 471,
  "ọbụla": 472,
  "gi": 473,
  "ugbu": 474,
  "ọkụ": 475,
  "nakwa": 476,
  "olu": 477,
  "gwụ": 478,
  "nna": 479,
  "nyo": 480,
  "ụka": 481,
  "gbasara": 482,
  "gwara": 483,
  "lite": 484,
  "uweojii": 485,
  "el": 486,
  "ma,": 487,
  "onyeisiala": 488,
  "chọrọ": 489,
  "ole": 490,
  "ọnwa": 491,
  "ela": 492,
  "nwu": 493,
  "wee": 494,
  "na-ekwu": 495,
  "nga": 496,
  "mkpa": 497,
  "jehova": 498,
  "zọs": 499,
  "aba": 500,
  "jizọs": 501,
  "nta": 502,
  "jiri": 503,
  ".\"": 504,
  "pa": 505,
  "arụ": 506,
  "atụ": 507,
  "mbụ": 508,
  "gwe": 509,
  "mmiri": 510,
  "gọọmentị": 511,
  "ntụ": 512,
  "anụ": 513,
  "gburu": 514,
  "na-agba": 515,
  "vanọ": 516,
  "mpi": 517,
  "gọvanọ": 518,
  "pụrụ": 519,
  "kpụ": 520,
  "mo": 521,
  "jọ": 522,
  "dọ": 523,
  "site": 524,
  "ekwe": 525,
  "ja": 526,
  "nne": 527,
  "iwe": 528,
  "anwụ": 529,
  "ga-ama": 530,
  "al": 531,
  "nị": 532,
  "pe": 533,
  "dere": 534,
  "lị": 535,
  "mgba": 536,
  "Jo": 537,
  "gu": 538,
  "in": 539,
  "ju": 540,
  "ahịa": 541,
  "ise": 542,
  "gwọ": 543,
  "adị": 544,
  "bido": 545,
  "kwado": 546,
  "kị": 547,
  "ndọrọ": 548,
  "oko": 549,
  "eziokwu": 550,
  "BB": 551,
  "asọ": 552,
  "nyi": 553,
  "anyere": 554,
  "mu": 555,
  "ntụli": 556,
  "karị": 557,
  "ghọ": 558,
  "tupu": 559,
  "th": 560,
  "ọnwụ": 561,
  "azụ": 562,
  "igwe": 563,
  "mkp": 564,
  "na-ahụ": 565,
  "ce": 566,
  "BBC": 567,
  "ọla": 568,
  "zị": 569,
  "zụ": 570,
  "mbra": 571,
  "nri": 572,
  "anambra": 573,
  "aghara": 574,
  "ọgwụ": 575,
  "bere": 576,
  "ntụliaka": 577,
  "ebu": 578,
  "asọmpi": 579,
  "okp": 580,
  "bara": 581,
  "ọgba": 582,
  "azị": 583,
  "nsogbu": 584,
  "ruo": 585,
  "ọkwa": 586,
  "fu": 587,
  "eji": 588,
  "bọọ": 589,
  "ọj": 590,
  "ghara": 591,
  "nche": 592,
  "etu": 593,
  "nwunye": 594,
  "gha": 595,
  "enu": 596,
  "bọọlụ": 597,
  "bị": 598,
  "regwu": 599,
  "egwuregwu": 600,
  "kiri": 601,
  "rịka": 602,
  "taa": 603,
  "mmụ": 604,
  "lo": 605,
  "na-aga": 606,
  "chụ": 607,
  "chie": 608,
  "ola": 609,
  "ig": 610,
  "ọhụrụ": 611,
  "yi": 612,
  "unu": 613,
  "maazị": 614,
  "ebi": 615,
  "ga-amasị": 616,
  "kacha": 617,
  "nwee": 618,
  "anị": 619,
  "naanị": 620,
  "af": 621,
  "etiti": 622,
  "zie": 623,
  "wara": 624,
  "nweta": 625,
  "ibe": 626,
  "ou": 627,
  "enugwu": 628,
  "nya": 629,
  "amer": 630,
  "ezigbo": 631,
  "banyere": 632,
  "akwa": 633,
  "Ma": 634,
  "AP": 635,
  "lee": 636,
  "chukwu": 637,
  "sị:": 638,
  "ọjọọ": 639,
  "ọbụ": 640,
  "ziri": 641,
  "su": 642,
  "ụlọọrụ": 643,
  "ụmụnwaanyị": 644,
  "wakpo": 645,
  "kwụsị": 646,
  "eru": 647,
  "ụtọ": 648,
  "agaghị": 649,
  "agụ": 650,
  "raị": 651,
  "nti": 652,
  "Mu": 653,
  "ịka": 654,
  "buru": 655,
  "ụlọikpe": 656,
  "nde": 657,
  "ghi": 658,
  "abalị": 659,
  "sta": 660,
  "gosi": 661,
  "narị": 662,
  "enye": 663,
  "ada": 664,
  "en": 665,
  "kwesịrị": 666,
  "ịgba": 667,
  "kemgbe": 668,
  "2019": 669,
  "anaghị": 670,
  "kpere": 671,
  "ol": 672,
  "goolu": 673,
  "Chi": 674,
  "chiri": 675,
  "gịnị": 676,
  "tinye": 677,
  "ngwa": 678,
  "Nig": 679,
  "amerịka": 680,
  "nọdụ": 681,
  "gaa": 682,
  "ha,": 683,
  "ekwuo": 684,
  "ajụ": 685,
  "zo": 686,
  "mbọ": 687,
  "00": 688,
  "ụgwọ": 689,
  "nwụrụ": 690,
  "il": 691,
  "nkeji": 692,
  "nal": 693,
  "afrịka": 694,
  "ọrịa": 695,
  "za": 696,
  "kere": 697,
  "ruru": 698,
  "ọnọdụ": 699,
  "ga-esi": 700,
  "cheta": 701,
  "tion": 702,
  "laba": 703,
  "kọta": 704,
  "ekwuola": 705,
  "gosiri": 706,
  "meri": 707,
  "bịara": 708,
  "ụdị": 709,
  "nyocha": 710,
  "bata": 711,
  "Ro": 712,
  "ṅụ": 713,
  "mpaghara": 714,
  "nchekwa": 715,
  "litere": 716,
  "vi": 717,
  "ụgbọelu": 718,
  "beghị": 719,
  "nụlọ": 720,
  "ng": 721,
  "ezinụlọ": 722,
  "ọdị": 723,
  "gị:": 724,
  "Nigeri": 725,
  "na-akpọ": 726,
  "APC": 727,
  "nje": 728,
  "ngalaba": 729,
  "kọrọ": 730,
  "soro": 731,
  "asụ": 732,
  "osi": 733,
  "ugwu": 734,
  "puku": 735,
  "gọọmenti": 736,
  "izu": 737,
  "it": 738,
  "omeiwu": 739,
  "kee": 740,
  "okpuru": 741,
  "isii": 742,
  "gboro": 743,
  "no": 744,
  "ehi": 745,
  "bụkwa": 746,
  "imo": 747,
  "19": 748,
  "iko": 749,
  "na-achị": 750,
  "enweghị": 751,
  "ekpere": 752,
  "bụghị": 753,
  "amụ": 754,
  "nkiri": 755,
  "biri": 756,
  "na-eche": 757,
  "oh": 758,
  "m,": 759,
  "kọwa": 760,
  "ki": 761,
  "m.": 762,
  "Man": 763,
  "nku": 764,
  "uche": 765,
  "ọsọ": 766,
  "ụgbọala": 767,
  "nzu": 768,
  "kwere": 769,
  "ajụjụ": 770,
  "ọgụ": 771,
  "ozu": 772,
  "ver": 773,
  "dịrị": 774,
  "ịma": 775,
  "raịst": 776,
  "abụghị": 777,
  "ter": 778,
  "nyeghị": 779,
  "ga-eji": 780,
  "asụsụ": 781,
  "Su": 782,
  "kraịst": 783,
  "enwe": 784,
  "ele": 785,
  "echi": 786,
  "mmụọ": 787,
  "Re": 788,
  "mume": 789,
  "na-arụ": 790,
  "na-achọ": 791,
  "atụma": 792,
  "abịa": 793,
  "nnu": 794,
  "atụmatụ": 795,
  "olee": 796,
  "nsọ": 797,
  "asaa": 798,
  "oro": 799,
  "mmemme": 800,
  "agwa": 801,
  "Li": 802,
  "maọbụ": 803,
  "na-enye": 804,
  "gbuo": 805,
  "Jose": 806,
  "ụkwụ": 807,
  "na-adị": 808,
  "obere": 809,
  "ngagharị": 810,
  "ano": 811,
  "kpara": 812,
  "nkwa": 813,
  "gide": 814,
  "am": 815,
  "ọzọ.": 816,
  "achọ": 817,
  "karịrị": 818,
  "tụrụ": 819,
  "tọrọ": 820,
  "adịghị": 821,
  "mkpụrụ": 822,
  "Mo": 823,
  "Da": 824,
  "ụmụaka": 825,
  "anya.": 826,
  "akpa": 827,
  "eke": 828,
  "les": 829,
  "kọwara": 830,
  "kwukwara": 831,
  "ran": 832,
  "hapụ": 833,
  "enyi": 834,
  "egbe": 835,
  "ọgbakọ": 836,
  "nala": 837,
  "bekee": 838,
  "asatọ": 839,
  "Boko": 840,
  "rịta": 841,
  "of": 842,
  "nwata": 843,
  "àm": 844,
  "àmà": 845,
  "ugbua": 846,
  "manụ": 847,
  "Hara": 848,
  "per": 849,
  "Nigeria": 850,
  "hịa": 851,
  "Co": 852,
  "ugboro": 853,
  "tinyere": 854,
  "La": 855,
  "chere": 856,
  "DP": 857,
  "ve": 858,
  "ofe": 859,
  "ebubo": 860,
  "anụmanụ": 861,
  "ụkọ": 862,
  "okpo": 863,
  "njem": 864,
  "nai": 865,
  "họ": 866,
  "ori": 867,
  "malitere": 868,
  "ito": 869,
  "fụ": 870,
  "na-akpa": 871,
  "nka": 872,
  "kịta": 873,
  "kike": 874,
  "Na": 875,
  "bidoro": 876,
  "po": 877,
  "ogi": 878,
  "nkuzi": 879,
  "ghọta": 880,
  "nnukwu": 881,
  "mụrụ": 882,
  "Uni": 883,
  "ezu": 884,
  "ga-abụ": 885,
  "ntaakụkọ": 886,
  "PDP": 887,
  "Haram": 888,
  "udo": 889,
  "mechara": 890,
  "na-atụ": 891,
  "hie": 892,
  "karịa": 893,
  "kama": 894,
  "agbanyeghị": 895,
  "naira": 896,
  "ca": 897,
  "ọkpụ": 898,
  "ye": 899,
  "aka.": 900,
  "dara": 901,
  "Josef": 902,
  "mkpe": 903,
  "ibu": 904,
  "ọcha": 905,
  "Le": 906,
  "zuru": 907,
  "ohere": 908,
  "anyanwụ": 909,
  "pati": 910,
  "gọs": 911,
  "dum": 912,
  "chọpụta": 913,
  "naịjirịa.": 914,
  "ikike": 915,
  "Pe": 916,
  "ịhụ": 917,
  "legọs": 918,
  "okporo": 919,
  "gụnyere": 920,
  "egbu": 921,
  "tị": 922,
  "ogo": 923,
  "au": 924,
  "ndịàmà": 925,
  "kwuru,": 926,
  "kanu": 927,
  "ndọrọndọrọ": 928,
  "Muha": 929,
  "mdi": 930,
  "itoolu": 931,
  "abu": 932,
  "Al": 933,
  "us": 934,
  "mmanụ": 935,
  "OB": 936,
  "ahụhụ": 937,
  "IP": 938,
  "Muhamma": 939,
  "ekwu": 940,
  "EC": 941,
  "okoro": 942,
  "malite": 943,
  "chọọ": 944,
  "na-akụ": 945,
  "kachasị": 946,
  "ike.": 947,
  "chaa": 948,
  "ụkọchukwu": 949,
  "wo": 950,
  "oche": 951,
  "na-ele": 952,
  "steeti.": 953,
  "na-abịa": 954,
  "nọrọ": 955,
  "mmeri": 956,
  "ide": 957,
  "chiela": 958,
  "mata": 959,
  "Ea": 960,
  "sịrị:": 961,
  "ofesi": 962,
  "na-eji": 963,
  "Muhammadu": 964,
  "ịdị": 965,
  "op": 966,
  "mini": 967,
  "ris": 968,
  "IPOB": 969,
  "ụlọomeiwu": 970,
  "ghachi": 971,
  "achị": 972,
  "ugo": 973,
  "ster": 974,
  "saụ": 975,
  "lie": 976,
  "kwesiri": 977,
  "Fa": 978,
  "niile.": 979,
  "maha": 980,
  "tiku": 981,
  "pọ": 982,
  "mma.": 983,
  "arịa": 984,
  "ụmụakwụkwọ": 985,
  "ia": 986,
  "sote": 987,
  "nkwado": 988,
  "mụta": 989,
  "ụtụtụ": 990,
  "kọrịta": 991,
  "gbaa": 992,
  "esi": 993,
  "Atiku": 994,
  "ụba": 995,
  "rel": 996,
  "ogige": 997,
  "ochie": 998,
  "inye": 999,
  "agb": 1000,
  "bọ": 1001,
  "anya,": 1002,
  "onal": 1003,
  "ikpeazụ": 1004,
  "ọdụ": 1005,
  "okpu": 1006,
  "mmụta": 1007,
  "In": 1008,
  "nzukọ": 1009,
  "ntọ": 1010,
  "amaghị": 1011,
  "he": 1012,
  "ọha": 1013,
  "alaeze": 1014,
  "ịrị": 1015,
  "osisi": 1016,
  "Super": 1017,
  "ọzọ,": 1018,
  "ck": 1019,
  "banye": 1020,
  "họpụta": 1021,
  "osote": 1022,
  "mgbasa": 1023,
  "na-ama": 1024,
  "katọ": 1025,
  "Ada": 1026,
  "ga-adị": 1027,
  "bụrụkwa": 1028,
  "mahadum": 1029,
  "anyị.": 1030,
  "alụ": 1031,
  "saụt": 1032,
  "minista": 1033,
  "mkpọrọ": 1034,
  "dia": 1035,
  "ahọ": 1036,
  "asị": 1037,
  "\".\"": 1038,
  "ted": 1039,
  "shịa": 1040,
  "e,": 1041,
  "nwekwara": 1042,
  "meriri": 1043,
  "Ar": 1044,
  "ịrụ": 1045,
  "Tru": 1046,
  "ọtọ": 1047,
  "obiano": 1048,
  "na-efe": 1049,
  "naghị": 1050,
  "akara": 1051,
  "aja": 1052,
  "Oko": 1053,
  "na-enwe": 1054,
  "na-eru": 1055,
  "na-agụ": 1056,
  "ajọ": 1057,
  "sie": 1058,
  "eluigwe": 1059,
  "dọkịta": 1060,
  "fi": 1061,
  "ọna": 1062,
  "omenala": 1063,
  "oku": 1064,
  "amụma": 1065,
  "ịga": 1066,
  "pụtala": 1067,
  "kpatara": 1068,
  "ọdọ": 1069,
  "gaghị": 1070,
  "eche": 1071,
  "So": 1072,
  "ty": 1073,
  "kọmi": 1074,
  "ọma.": 1075,
  "okwukwe": 1076,
  "ntoro": 1077,
  "bụ,": 1078,
  "ọkacha": 1079,
  "ọba": 1080,
  "ntorobịa": 1081,
  "anyị,": 1082,
  "ad": 1083,
  "Ab": 1084,
  "na-ebu": 1085,
  "Wil": 1086,
  "IN": 1087,
  "ikwu": 1088,
  "co": 1089,
  "Eag": 1090,
  "tan": 1091,
  "gawa": 1092,
  "es": 1093,
  "INEC": 1094,
  "jụrụ": 1095,
  "ga-enye": 1096,
  "Trump": 1097,
  "FC": 1098,
  "ọhịa": 1099,
  "vid": 1100,
  "rụrụ": 1101,
  "nwetara": 1102,
  "mwakpo": 1103,
  "akpụ": 1104,
  "Af": 1105,
  "ebighị": 1106,
  "United": 1107,
  "omume": 1108,
  "nwan": 1109,
  "usoro": 1110,
  "ngagharịiwe": 1111,
  "ity": 1112,
  "ike,": 1113,
  "baịbụl.": 1114,
  "Ka": 1115,
  "onweghị": 1116,
  "Sa": 1117,
  "nọchi": 1118,
  "kpọku": 1119,
  "Ne": 1120,
  "Ade": 1121,
  "njọ": 1122,
  "ihe.": 1123,
  "ga-agba": 1124,
  "doro": 1125,
  "Se": 1126,
  "Eagles": 1127,
  "ten": 1128,
  "ss": 1129,
  "na\"": 1130,
  "iz": 1131,
  "goro": 1132,
  "od": 1133,
  "nnamdi": 1134,
  "echiche": 1135,
  "baka": 1136,
  "vo": 1137,
  "ọw": 1138,
  "Ri": 1139,
  "Mi": 1140,
  "ụlọụka": 1141,
  "ọgọ": 1142,
  "obi.": 1143,
  "metụ": 1144,
  "akụkụ": 1145,
  "lik": 1146,
  "kedụ": 1147,
  "chineke,": 1148,
  "arịta": 1149,
  "ani": 1150,
  "Obi": 1151,
  "ịtụ": 1152,
  "wakporo": 1153,
  "ur": 1154,
  "ume": 1155,
  "turu": 1156,
  "fo": 1157,
  "a:": 1158,
  "ọwụwa": 1159,
  "and": 1160,
  "pt": 1161,
  "nda": 1162,
  "else": 1163,
  "Ba": 1164,
  "ọfụ": 1165,
  "pọl": 1166,
  "na-egosi": 1167,
  "ir": 1168,
  "merie": 1169,
  "iyi": 1170,
  "fere": 1171,
  "ebo": 1172,
  "chọpụtara": 1173,
  "con": 1174,
  "na-esi": 1175,
  "Chelse": 1176,
  "wụ": 1177,
  "ohi": 1178,
  "dio": 1179,
  "City": 1180,
  ",\"": 1181,
  "ọgbọ": 1182,
  "na-eso": 1183,
  "katọlik": 1184,
  "izrel": 1185,
  "ine": 1186,
  "son": 1187,
  "land": 1188,
  "kwalite": 1189,
  "chineke.": 1190,
  "onyi": 1191,
  "enyemaka": 1192,
  "emume": 1193,
  "ụnya": 1194,
  "taghị": 1195,
  "nihu": 1196,
  "abuja": 1197,
  "tional": 1198,
  "pool": 1199,
  "inwe": 1200,
  "eziokwu.": 1201,
  "Moha": 1202,
  "verpool": 1203,
  "oriri": 1204,
  "na-akwado": 1205,
  "Liverpool": 1206,
  "200": 1207,
  "shịal": 1208,
  "oli": 1209,
  "na-adịghị": 1210,
  "isiokwu": 1211,
  "fada": 1212,
  "soshịal": 1213,
  "pụla": 1214,
  "nji": 1215,
  "ewe": 1216,
  "ci": 1217,
  "akị": 1218,
  "achụ": 1219,
  "Sou": 1220,
  "De": 1221,
  "na-ekpe": 1222,
  "gụọ": 1223,
  "..": 1224,
  "zde": 1225,
  "ogbu": 1226,
  "Afri": 1227,
  "\"\"": 1228,
  "jeri": 1229,
  "agu": 1230,
  "Ca": 1231,
  "'.": 1232,
  "ọkaiwu": 1233,
  "ọmụ": 1234,
  "onyinye": 1235,
  "juru": 1236,
  "Chelsea": 1237,
  "tri": 1238,
  "oyi": 1239,
  "ọ\"": 1240,
  "na-agwa": 1241,
  "kpọọ": 1242,
  "ing": 1243,
  "akpọ": 1244,
  "ụlọakwụkwọ": 1245,
  "ode": 1246,
  "onyo": 1247,
  "isi.": 1248,
  "iche.": 1249,
  "ọgbaaghara": 1250,
  "sịghị": 1251,
  "onyonyo": 1252,
  "mmadụ.": 1253,
  "ekpe": 1254,
  "e.": 1255,
  "arc": 1256,
  "aka,": 1257,
  "2019.": 1258,
  "ugbua,": 1259,
  "ment": 1260,
  "ham": 1261,
  "chu": 1262,
  "To": 1263,
  "rịọ": 1264,
  "net": 1265,
  "na-ere": 1266,
  "agbọ": 1267,
  "ọbara": 1268,
  "na-ewe": 1269,
  "mgb": 1270,
  "chester": 1271,
  "Manchester": 1272,
  "wit": 1273,
  "nwanne": 1274,
  "mmed": 1275,
  "gharịa": 1276,
  "ụwa.": 1277,
  "ort": 1278,
  "mama": 1279,
  "kwuru.": 1280,
  "South": 1281,
  "madu": 1282,
  "ite": 1283,
  "bie": 1284,
  "2018": 1285,
  "gee": 1286,
  "dịghị": 1287,
  "abụọ.": 1288,
  "ụra": 1289,
  "okpukpe": 1290,
  "okorocha": 1291,
  "ala.": 1292,
  "ọgbu": 1293,
  "ly": 1294,
  "godị": 1295,
  "ak": 1296,
  "Ja": 1297,
  "El": 1298,
  "ọnị": 1299,
  "ọnịcha": 1300,
  "vootu": 1301,
  "ry": 1302,
  "omeka": 1303,
  "mbere": 1304,
  "kpọrọ\"": 1305,
  "chas": 1306,
  "Sta": 1307,
  "Rochas": 1308,
  "Nwo": 1309,
  "na-ekwuru": 1310,
  "for": 1311,
  "ọchịehi": 1312,
  "ya?": 1313,
  "ope": 1314,
  "nyela": 1315,
  "aga.": 1316,
  "Fran": 1317,
  "Arse": 1318,
  "va": 1319,
  "na-ata": 1320,
  "mberede": 1321,
  "ede": 1322,
  "Bi": 1323,
  "nle": 1324,
  "kpu": 1325,
  "ga-aga": 1326,
  "der": 1327,
  "bri": 1328,
  "agbọghọ": 1329,
  "aga,": 1330,
  "Arsenal": 1331,
  "nụrụ": 1332,
  "akịrịka": 1333,
  "Mohammed": 1334,
  "Fe": 1335,
  "“ọ": 1336,
  "nwụọ": 1337,
  "ijipt": 1338,
  "emeela": 1339,
  "Peter": 1340,
  "setan": 1341,
  "nọọ": 1342,
  "juu": 1343,
  "gbata": 1344,
  "',": 1345,
  "kọtara": 1346,
  "gharịrị": 1347,
  "ọkammụta": 1348,
  "ky": 1349,
  "10": 1350,
  "ịkpa": 1351,
  "witter": 1352,
  "tala": 1353,
  "s,": 1354,
  "ong": 1355,
  "kweremadu": 1356,
  "batara": 1357,
  "atụ,": 1358,
  "Ekweremadu": 1359,
  "000": 1360,
  "taa.": 1361,
  "omekaome": 1362,
  "na-eri": 1363,
  "nhọpụta": 1364,
  "kọmish": 1365,
  "ekele": 1366,
  "ber": 1367,
  "anwụọla": 1368,
  "Pre": 1369,
  "Ke": 1370,
  "ụwa,": 1371,
  "wi": 1372,
  "uju": 1373,
  "s.": 1374,
  "our": 1375,
  "mkparịta": 1376,
  "gidere": 1377,
  "Eze": 1378,
  "Abu": 1379,
  "ọrụ.": 1380,
  "ozugbo": 1381,
  "mpụ": 1382,
  "kọmishọna": 1383,
  "cy": 1384,
  "aru": 1385,
  "ala,": 1386,
  "ịlụ": 1387,
  "na-abụ": 1388,
  "naeze": 1389,
  "mkpu": 1390,
  "jo": 1391,
  "eziokwu,": 1392,
  "eh": 1393,
  "a?": 1394,
  "ịkpọ": 1395,
  "zịrị": 1396,
  "nwereike": 1397,
  "kwasị": 1398,
  "1,": 1399,
  "ọkaikpe": 1400,
  "ọgụgụ": 1401,
  "rụọ": 1402,
  "ogbuni": 1403,
  "ogbunigwe": 1404,
  "n,": 1405,
  "iro": 1406,
  ").": 1407,
  "ọhanaeze": 1408,
  "warị": 1409,
  "im": 1410,
  ".”)": 1411,
  "nkị": 1412,
  "mmehie": 1413,
  "kwụrụ": 1414,
  "ije": 1415,
  "ga-enwe": 1416,
  "edo": 1417,
  "ahụike": 1418,
  "wepụtara": 1419,
  "wer": 1420,
  "n.": 1421,
  "megide": 1422,
  "ihe,": 1423,
  "ọrụ,": 1424,
  "ọdịnihu": 1425,
  "ssi": 1426,
  "egbuola": 1427,
  "Joh": 1428,
  "14": 1429,
  "midia": 1430,
  "hapụrụ": 1431,
  "maara": 1432,
  "hazi": 1433,
  "baịbụl,": 1434,
  "ndịigbo": 1435,
  "mkpebi": 1436,
  "igbu": 1437,
  "ghe": 1438,
  "enyela": 1439,
  "ewu": 1440,
  "China": 1441,
  "ịmata": 1442,
  "ta.": 1443,
  "nọchite": 1444,
  "mpe": 1445,
  "mma,": 1446,
  "ire": 1447,
  "fra": 1448,
  "atụrụ": 1449,
  "15": 1450,
  "),": 1451,
  "ndịagha": 1452,
  "nkwe": 1453,
  "makana": 1454,
  "Eme": 1455,
  "ụlọọgwụ": 1456,
  "ụjọ": 1457,
  "rue": 1458,
  "niile,": 1459,
  "na-arị": 1460,
  "devid": 1461,
  "bịafra": 1462,
  "We": 1463,
  "Oke": 1464,
  "Mar": 1465,
  "yọọ": 1466,
  "ph": 1467,
  "nwayọọ": 1468,
  "na-amụ": 1469,
  "mmadụ,": 1470,
  "metụtara": 1471,
  "achọghị": 1472,
  "__": 1473,
  "Be": 1474,
  "satọ": 1475,
  "na-enweghị": 1476,
  "gburugburu": 1477,
  "ga-anọ": 1478,
  "amalite": 1479,
  "agbata": 1480,
  "ata": 1481,
  "Nor": 1482,
  "satọde": 1483,
  "ngw": 1484,
  "gị,": 1485,
  "ga-enyere": 1486,
  "ction": 1487,
  "ụtọ.": 1488,
  "sị,": 1489,
  "nter": 1490,
  "fee": 1491,
  "Zi": 1492,
  "Sara": 1493,
  "SS": 1494,
  "Chris": 1495,
  "zara": 1496,
  "shi": 1497,
  "mị": 1498,
  "kwaghị": 1499,
  "duna": 1500,
  "Nna": 1501,
  "ụlọakụ": 1502,
  "ọdịnala": 1503,
  "tius": 1504,
  "rid": 1505,
  "iru": 1506,
  "Ra": 1507,
  "Leagu": 1508,
  "ịgụ": 1509,
  "obi,": 1510,
  "na-egbu": 1511,
  "mọ": 1512,
  "elekere": 1513,
  "egwuregwu,": 1514,
  "na-azụ": 1515,
  "naụba": 1516,
  "lata": 1517,
  "fufe": 1518,
  "chapụ": 1519,
  "Ser": 1520,
  "2017": 1521,
  "ọfụma": 1522,
  "tha": 1523,
  "sha": 1524,
  "nzuzo": 1525,
  "nabata": 1526,
  "lic": 1527,
  "kata": 1528,
  "ja.": 1529,
  "Lago": 1530,
  "ọgbugbu": 1531,
  "uru.": 1532,
  "na-ebi": 1533,
  "na-atọ": 1534,
  "laị": 1535,
  "gị.": 1536,
  "akụnaụba": 1537,
  "akpọrọ": 1538,
  "agwọ": 1539,
  "Osi": 1540,
  "Chukwu": 1541,
  "ugbua.": 1542,
  "tiusde": 1543,
  "putara": 1544,
  "kan": 1545,
  "ekwentị": 1546,
  "abụrụ": 1547,
  "Pau": 1548,
  "ọnụ.": 1549,
  "ịchị": 1550,
  "nkịtị": 1551,
  "na-alụ": 1552,
  "kwo": 1553,
  "Willie": 1554,
  "Or": 1555,
  "Ju": 1556,
  "FCC": 1557,
  "ụmụnne": 1558,
  "ụda": 1559,
  "ọgọst": 1560,
  "ọdọụgbọelu": 1561,
  "wute": 1562,
  "rie": 1563,
  "pị": 1564,
  "naịjirịa,": 1565,
  "na-akwụ": 1566,
  "lere": 1567,
  "gụrụ": 1568,
  "gbochi": 1569,
  "tor": 1570,
  "sonye": 1571,
  "na-anọ": 1572,
  "nchọpụta": 1573,
  "kpụrụ": 1574,
  "icheiche": 1575,
  "chitere": 1576,
  "agụmba": 1577,
  "abụọ,": 1578,
  "yo": 1579,
  "wepụ": 1580,
  "nnyocha": 1581,
  "mfe": 1582,
  "igbo,": 1583,
  "itinye": 1584,
  "ijeri": 1585,
  "dịkwa": 1586,
  "chaghị": 1587,
  "bakar": 1588,
  "ard": 1589,
  "weere": 1590,
  "olile": 1591,
  "nnọọ": 1592,
  "mkpesa": 1593,
  "mbaụwa": 1594,
  "Uma": 1595,
  "Ude": 1596,
  "Twitter": 1597,
  "Pro": 1598,
  "Adam": 1599,
  "1)": 1600,
  "zute": 1601,
  "ogolo": 1602,
  "ogologo": 1603,
  "mmekọrịta": 1604,
  "man": 1605,
  "efu": 1606,
  "bụkwanụ": 1607,
  "briten": 1608,
  "Abubakar": 1609,
  "ọmụmụ": 1610,
  "uro": 1611,
  "sitere": 1612,
  "mere.": 1613,
  "k,": 1614,
  "idi": 1615,
  "gbasa": 1616,
  "ga-ahụ": 1617,
  "ebonyi": 1618,
  "chọọchị": 1619,
  "Paul": 1620,
  "Me": 1621,
  "Gu": 1622,
  "na-azọ": 1623,
  "liri": 1624,
  "ga-ebi": 1625,
  "ezum": 1626,
  "butere": 1627,
  "GA": 1628,
  "EFCC": 1629,
  "2015": 1630,
  "ther": 1631,
  "ogbe": 1632,
  "ndị)": 1633,
  "leba": 1634,
  "lụrụ": 1635,
  "atọ.": 1636,
  "State": 1637,
  "NA": 1638,
  "yin": 1639,
  "state": 1640,
  "ria": 1641,
  "raịde": 1642,
  "merụrụ": 1643,
  "latri": 1644,
  "kọọ": 1645,
  "gwo": 1646,
  "fraịde": 1647,
  "akwado": 1648,
  "Ihe": 1649,
  "tic": 1650,
  "papa": 1651,
  "nyeere": 1652,
  "na-enyere": 1653,
  "mmanya": 1654,
  "kịrị": 1655,
  "ga-akpọ": 1656,
  "Inter": 1657,
  "Go": 1658,
  "23": 1659,
  "ọda": 1660,
  "senet": 1661,
  "san": 1662,
  "pi": 1663,
  "ofesi,": 1664,
  "nwụchi": 1665,
  "New": 1666,
  "ọṅụ": 1667,
  "ịkwụ": 1668,
  "okorobịa": 1669,
  "nkịta": 1670,
  "gachara": 1671,
  "fa": 1672,
  "debe": 1673,
  "bụ\"": 1674,
  "Fu": 1675,
  "El-": 1676,
  "2,": 1677,
  "zaky": 1678,
  "ton": 1679,
  "nwaafọ": 1680,
  "ndị\"": 1681,
  "mbu": 1682,
  "iche,": 1683,
  "hab": 1684,
  "bra": 1685,
  "akzaky": 1686,
  "awa": 1687,
  "Zakzaky": 1688,
  "Ike": 1689,
  "Bo": 1690,
  "ọkpara": 1691,
  "yiri": 1692,
  "nue": 1693,
  "na-ekwe": 1694,
  "mpụtara": 1695,
  "mbi": 1696,
  "gabe": 1697,
  "ebere": 1698,
  "dọla": 1699,
  "Saraki": 1700,
  "Mugabe": 1701,
  "Au": 1702,
  "17": 1703,
  "zuo": 1704,
  "pụọ": 1705,
  "ofufe": 1706,
  "na-aka": 1707,
  "kwanyere": 1708,
  "guzo": 1709,
  "gboo": 1710,
  "okwu.": 1711,
  "mụtara": 1712,
  "mọdụ": 1713,
  "jehova.": 1714,
  "gbuola": 1715,
  "fọrọ": 1716,
  "anwụchiela": 1717,
  "Lagos": 1718,
  "ndụmọdụ": 1719,
  "n'\"": 1720,
  "kwaa": 1721,
  "iku": 1722,
  "efe": 1723,
  "dị,": 1724,
  "Pa": 1725,
  "Di": 1726,
  "ọma,": 1727,
  "nkata": 1728,
  "na-ada": 1729,
  "nrọ": 1730,
  "foto": 1731,
  "enweta": 1732,
  "bụbu": 1733,
  "benue": 1734,
  "amata": 1735,
  "agụụ": 1736,
  "18": 1737,
  "ụmụafọ": 1738,
  "zutere": 1739,
  "ife": 1740,
  "ezumike": 1741,
  "eto": 1742,
  "Cha": 1743,
  "Africa": 1744,
  "APGA": 1745,
  "puta": 1746,
  "mmepe": 1747,
  "kaduna": 1748,
  "egosi": 1749,
  "baara": 1750,
  "agbụrụ": 1751,
  "azọ": 1752,
  "?”": 1753,
  "ịny": 1754,
  "ohu": 1755,
  "latrik": 1756,
  "ga-akwụ": 1757,
  "eso": 1758,
  "drid": 1759,
  "anyị\"": 1760,
  "akwụkwọ.": 1761,
  "aghọ": 1762,
  "apụta": 1763,
  "Ta": 1764,
  "No": 1765,
  "Madrid": 1766,
  "Ele": 1767,
  "ọkụkọ": 1768,
  "ịṅụ": 1769,
  "ourt": 1770,
  "okenye": 1771,
  "ndụ.": 1772,
  "mgbede": 1773,
  "miri": 1774,
  "kwala": 1775,
  "enyo": 1776,
  "amaokwu": 1777,
  "Bri": 1778,
  "1.": 1779,
  "ọkachamara": 1780,
  "ịzọ": 1781,
  "okporoụzọ": 1782,
  "ower": 1783,
  "njikere": 1784,
  "nara": 1785,
  "mkparịtaụka": 1786,
  "mba.": 1787,
  "kwụọ": 1788,
  "dan": 1789,
  "akụrụ": 1790,
  "13": 1791,
  "ịnta": 1792,
  "ịntane": 1793,
  "ịntaneti": 1794,
  "ịba": 1795,
  "wore": 1796,
  "pụrụiche": 1797,
  "ona": 1798,
  "na-eme.": 1799,
  "na-etinye": 1800,
  "enyere": 1801,
  "Sowore": 1802,
  "Ru": 1803,
  "Ama": 1804,
  "199": 1805,
  "ụtụ": 1806,
  "ọdachi": 1807,
  "ịkwụsị": 1808,
  "olileanya": 1809,
  "jị": 1810,
  "enweghi": 1811,
  "ahị": 1812,
  "Vi": 1813,
  "ọdịda": 1814,
  "ọbasan": 1815,
  "ọbasanjọ": 1816,
  "ịkwalite": 1817,
  "the": 1818,
  "steeti,": 1819,
  "saa": 1820,
  "na-ekwuchitere": 1821,
  "agha.": 1822,
  "Ihedio": 1823,
  "Ibra": 1824,
  "na-akụzi": 1825,
  "nata": 1826,
  "mgbere": 1827,
  "ld": 1828,
  "jiji": 1829,
  "inweta": 1830,
  "gun": 1831,
  "ese": 1832,
  "bụzị": 1833,
  "AS": 1834,
  "wene": 1835,
  "spe": 1836,
  "jide": 1837,
  "chịrị": 1838,
  "beghi": 1839,
  "Te": 1840,
  "Nwa": 1841,
  "Ge": 1842,
  "ịghọta": 1843,
  "wenezde": 1844,
  "onyeozi": 1845,
  "na-arịọ": 1846,
  "na-akụziri": 1847,
  "na-acha": 1848,
  "merụ": 1849,
  "kwazie": 1850,
  "arịrị": 1851,
  "anyi": 1852,
  "apụ": 1853,
  "Ga": 1854,
  "ọkọ": 1855,
  "ịkụ": 1856,
  "ịchụ": 1857,
  "stra": 1858,
  "qu": 1859,
  "obibi": 1860,
  "na-ede": 1861,
  "na-asụ": 1862,
  "ngwụ": 1863,
  "nchị": 1864,
  "ebido": 1865,
  "Ibrahi": 1866,
  "Ghana": 1867,
  "ọọla": 1868,
  "ọkara": 1869,
  "ọjị": 1870,
  "ọkpọ": 1871,
  "up": 1872,
  "sti": 1873,
  "pase": 1874,
  "osimiri": 1875,
  "igbo.": 1876,
  "ga-ebu": 1877,
  "boro": 1878,
  "ahịhịa": 1879,
  "aṅụ": 1880,
  "Ife": 1881,
  "FA": 1882,
  "4.": 1883,
  "16": 1884,
  "ọkachasị": 1885,
  "ọk": 1886,
  "sịga": 1887,
  "omi": 1888,
  "na-akọwa": 1889,
  "mbụ.": 1890,
  "mkpọ": 1891,
  "iso": 1892,
  "inyere": 1893,
  "gen": 1894,
  "ezie": 1895,
  "anwụrụ": 1896,
  "akụrụngwa": 1897,
  "akarị": 1898,
  "agw": 1899,
  "Nwosu": 1900,
  "Is": 1901,
  "Fal": 1902,
  "sena": 1903,
  "na-akwa": 1904,
  "national": 1905,
  "mọnde": 1906,
  "mas": 1907,
  "mgbọ": 1908,
  "ibi": 1909,
  "ga-achị": 1910,
  "gaara": 1911,
  "ebum": 1912,
  "arụrụ": 1913,
  "Olu": 1914,
  "National": 1915,
  "riri": 1916,
  "nkwekọrịta": 1917,
  "na-eto": 1918,
  "na-enyo": 1919,
  "na-ebo": 1920,
  "nrụrụ": 1921,
  "mbab": 1922,
  "mbabwe": 1923,
  "lani": 1924,
  "kpebiri": 1925,
  "ga-abara": 1926,
  "bia": 1927,
  "akwụsị": 1928,
  "Zimbabwe": 1929,
  "Wa": 1930,
  "US": 1931,
  "Ti": 1932,
  "Ihedioha": 1933,
  "Ibrahim": 1934,
  "ọkụ.": 1935,
  "senatọ": 1936,
  "ral": 1937,
  "pịa": 1938,
  "na-ajụ": 1939,
  "meere": 1940,
  "kụzi": 1941,
  "kara": 1942,
  "gbanwee": 1943,
  "ejiri": 1944,
  "by": 1945,
  "are": 1946,
  "anambra,": 1947,
  "Premi": 1948,
  "Pla": 1949,
  "Madu": 1950,
  "El-Zakzaky": 1951,
  "Ah": 1952,
  "ọnwụ.": 1953,
  "ọkafọ": 1954,
  "ọzụ": 1955,
  "ịnya": 1956,
  "ịcha": 1957,
  "ubi": 1958,
  "tela": 1959,
  "opekata": 1960,
  "nwetere": 1961,
  "ngo": 1962,
  "izuụka": 1963,
  "asatara": 1964,
  "ON": 1965,
  "Nai": 1966,
  "League": 1967,
  "ụfọdụ,": 1968,
  "ute": 1969,
  "ule": 1970,
  "na-elekọta": 1971,
  "na-eti": 1972,
  "mụọ": 1973,
  "maachị": 1974,
  "ga-ewe": 1975,
  "ga-akwụsị": 1976,
  "ekweghị": 1977,
  "egwu.": 1978,
  "arcourt": 1979,
  "agbaala": 1980,
  "Port": 1981,
  "International": 1982,
  "Harcourt": 1983,
  "Emma": 1984,
  "30": 1985,
  "“onye": 1986,
  "ọkto": 1987,
  "ọktoba": 1988,
  "ọchịchị.": 1989,
  "ịzụ": 1990,
  "ịmụ": 1991,
  "tọzde": 1992,
  "tuo": 1993,
  "sịa": 1994,
  "na-eke": 1995,
  "mita": 1996,
  "makwụ": 1997,
  "ll": 1998,
  "ero": 1999,
  "dee": 2000,
  "bish": 2001,
  "a\"": 2002,
  "Comm": 2003,
  "Ale": 2004,
  "2.": 2005,
  "ụgha": 2006,
  "taa,": 2007,
  "otu,": 2008,
  "oriakụ": 2009,
  "mere,": 2010,
  "makwụkwọ": 2011,
  "kwanụ": 2012,
  "ga-achọ": 2013,
  "Premier": 2014,
  "Jona": 2015,
  "2)": 2016,
  "ụnyaahụ": 2017,
  "otu.": 2018,
  "nba": 2019,
  "lọta": 2020,
  "kụrụ": 2021,
  "kweere": 2022,
  "kwa,": 2023,
  "furu": 2024,
  "ekwesịghị": 2025,
  "akọ": 2026,
  "Falcon": 2027,
  "ụmụnwoke": 2028,
  "ụbụrụ": 2029,
  "ọzụzụ": 2030,
  "ya.”": 2031,
  "rịọrọ": 2032,
  "omebe": 2033,
  "nke\"": 2034,
  "ncheta": 2035,
  "nbajo": 2036,
  "nturu": 2037,
  "ndi": 2038,
  "med": 2039,
  "jụọ": 2040,
  "ise.": 2041,
  "ihe\"": 2042,
  "biga": 2043,
  "achịcha": 2044,
  "Osinbajo": 2045,
  "Mbaka": 2046,
  "Ger": 2047,
  "Bra": 2048,
  "ụma": 2049,
  "na-enyocha": 2050,
  "na-akọ": 2051,
  "ctor": 2052,
  "atọ,": 2053,
  "arcel": 2054,
  "afọ.": 2055,
  "agwụ": 2056,
  "St": 2057,
  "Bro": 2058,
  "Alex": 2059,
  "Aba": 2060,
  "ịnyịnya": 2061,
  "ore": 2062,
  "nsu": 2063,
  "mpion": 2064,
  "mkpamkpa": 2065,
  "mbe": 2066,
  "kwuo,": 2067,
  "họpụtara": 2068,
  "ghọọ": 2069,
  "emi": 2070,
  "emere": 2071,
  "can": 2072,
  "akpara": 2073,
  "Willi": 2074,
  "Onye": 2075,
  "John": 2076,
  "Face": 2077,
  "Emeka": 2078,
  "David": 2079,
  "Air": 2080,
  "2016": 2081,
  "ọgwụgwụ": 2082,
  "ugbo": 2083,
  "obodo.": 2084,
  "nyụ": 2085,
  "ntọrị": 2086,
  "nnewi": 2087,
  "nia": 2088,
  "mozu": 2089,
  "mgbasaozi": 2090,
  "mgbanwe": 2091,
  "ary": 2092,
  "akwamozu": 2093,
  "agbidi": 2094,
  "awụ": 2095,
  "William": 2096,
  "Wor": 2097,
  "MA": 2098,
  "Jonatha": 2099,
  "Camer": 2100,
  "ọbụla.": 2101,
  "sịkwa": 2102,
  "s:": 2103,
  "rom": 2104,
  "ikuku": 2105,
  "idemmiri": 2106,
  "ego.": 2107,
  "ewere": 2108,
  "day": 2109,
  "aribe": 2110,
  "arọ": 2111,
  "ahu": 2112,
  "Ha": 2113,
  "DSS": 2114,
  "Con": 2115,
  "Bor": 2116,
  "Ai": 2117,
  "ịta": 2118,
  "sụgharịrị": 2119,
  "sia": 2120,
  "pita": 2121,
  "o\"": 2122,
  "na-anaghị": 2123,
  "maa": 2124,
  "mmi": 2125,
  "la.": 2126,
  "kwụsịrị": 2127,
  "kweta": 2128,
  "jidere": 2129,
  "cho": 2130,
  "bert": 2131,
  "alth": 2132,
  "akaebe": 2133,
  "Yo": 2134,
  "Sam": 2135,
  "Fulani": 2136,
  "Abdu": 2137,
  "Ana": 2138,
  "na-arịa": 2139,
  "nzụ": 2140,
  "kansa": 2141,
  "julaị": 2142,
  "isi,": 2143,
  "bre": 2144,
  "She": 2145,
  "Riva": 2146,
  "Naija": 2147,
  "Mba": 2148,
  "Feder": 2149,
  "Euro": 2150,
  "Champion": 2151,
  "Abaribe": 2152,
  "Adi": 2153,
  "“ndị": 2154,
  "yen": 2155,
  "ves": 2156,
  "tụnyere": 2157,
  "tọọrọ": 2158,
  "toro": 2159,
  "rịrị": 2160,
  "pan": 2161,
  "ngwụcha": 2162,
  "nchịkọta": 2163,
  "na-emekwa": 2164,
  "mmasị": 2165,
  "lla": 2166,
  "kọmiti": 2167,
  "jere": 2168,
  "ga-ezute": 2169,
  "enwere": 2170,
  "Timo": 2171,
  "Del": 2172,
  "pụta.": 2173,
  "pte": 2174,
  "para": 2175,
  "nsogbu.": 2176,
  "ndị,": 2177,
  "na-enweta": 2178,
  "na-agaghị": 2179,
  "na-anụ": 2180,
  "na,": 2181,
  "meekwa": 2182,
  "kwesi": 2183,
  "kelere": 2184,
  "ime.": 2185,
  "hoo": 2186,
  "ga-eso": 2187,
  "chetara": 2188,
  "anu": 2189,
  "Ut": 2190,
  "Iv": 2191,
  "He": 2192,
  "Falcons": 2193,
  "Eng": 2194,
  "ụnyaahụ.": 2195,
  "zọrọ": 2196,
  "tti": 2197,
  "okwu,": 2198,
  "nwụchiri": 2199,
  "ndo": 2200,
  "mecha": 2201,
  "kwenyere": 2202,
  "ers": 2203,
  "ejije": 2204,
  "arcelona": 2205,
  "Umu": 2206,
  "Jonathan": 2207,
  "Igbo": 2208,
  "Ben": 2209,
  "Barcelona": 2210,
  "“ihe": 2211,
  "ịnọ": 2212,
  "ukwu.": 2213,
  "teau": 2214,
  "ritere": 2215,
  "onald": 2216,
  "odeakwụkwọ": 2217,
  "nzụkọ": 2218,
  "na-anwụ": 2219,
  "ntu": 2220,
  "mpu": 2221,
  "mgbakọ": 2222,
  "mee.": 2223,
  "mbụ,": 2224,
  "ghọtara": 2225,
  "gra": 2226,
  "emeri": 2227,
  "dị.": 2228,
  "anwụ.": 2229,
  "West": 2230,
  "Plateau": 2231,
  "North": 2232,
  "Donald": 2233,
  "Dani": 2234,
  "3,": 2235,
  "\"ọ\"": 2236,
  "ọgwụgwọ": 2237,
  "ọbụladị": 2238,
  "taa:": 2239,
  "sayen": 2240,
  "ondo": 2241,
  "oon": 2242,
  "ok": 2243,
  "nwaanyị.": 2244,
  "na-ezi": 2245,
  "na-ebe": 2246,
  "mmer": 2247,
  "jikọtara": 2248,
  "inọ": 2249,
  "gbụ": 2250,
  "ga-abịa": 2251,
  "bụzi": 2252,
  "World": 2253,
  "Umahi": 2254,
  "France": 2255,
  "Cameroon": 2256,
  "Bay": 2257,
  "25": 2258,
  "“n'": 2259,
  "“m": 2260,
  "ọjọọ.": 2261,
  "septe": 2262,
  "na-ebute": 2263,
  "nkụ": 2264,
  "mbodo": 2265,
  "ili": 2266,
  "ga-eri": 2267,
  "ehihi": 2268,
  "echichi": 2269,
  "ebi.": 2270,
  "asambodo": 2271,
  "Utd": 2272,
  "The": 2273,
  "Robert": 2274,
  "Lib": 2275,
  "Delta": 2276,
  "ọnụ,": 2277,
  "zaa": 2278,
  "tus": 2279,
  "opekatampe": 2280,
  "na-abụghị": 2281,
  "laa": 2282,
  "kraịst,": 2283,
  "kama,": 2284,
  "ehu": 2285,
  "cu": 2286,
  "akwụkwọ,": 2287,
  "akatọ": 2288,
  "aku": 2289,
  "Shi": 2290,
  "Rivas": 2291,
  "Oba": 2292,
  "Londo": 2293,
  "IM": 2294,
  "Aisha": 2295,
  "100": 2296,
  "-ndị": 2297,
  "ịchafụ": 2298,
  "ịkwa": 2299,
  "zọpụta": 2300,
  "thi": 2301,
  "ssion": 2302,
  "sayensị": 2303,
  "owerri": 2304,
  "ogbenye": 2305,
  "oma": 2306,
  "na-eyi": 2307,
  "min": 2308,
  "mbido": 2309,
  "cra": 2310,
  "agụmakwụkwọ": 2311,
  "abụrụla": 2312,
  "UK": 2313,
  "12": 2314,
  "ịmụta": 2315,
  "yinbo": 2316,
  "uhie": 2317,
  "toyinbo": 2318,
  "tiri": 2319,
  "tten": 2320,
  "ree": 2321,
  "nson": 2322,
  "nkume": 2323,
  "maghị": 2324,
  "lia": 2325,
  "jama": 2326,
  "jamanị": 2327,
  "inọk": 2328,
  "gachara,": 2329,
  "ga-amalite": 2330,
  "daa": 2331,
  "amerịka.": 2332,
  "adịgboro": 2333,
  "Tu": 2334,
  "Ibi": 2335,
  "Hu": 2336,
  "Ebo": 2337,
  "Christi": 2338,
  "ụta": 2339,
  "tum": 2340,
  "mkpa.": 2341,
  "mgbochi": 2342,
  "ley": 2343,
  "lịa": 2344,
  "lara": 2345,
  "họrọ": 2346,
  "hu": 2347,
  "gbaara": 2348,
  "dike": 2349,
  "agbanye": 2350,
  "afrịka.": 2351,
  "agbara": 2352,
  "____": 2353,
  "Totten": 2354,
  "Real": 2355,
  "Niger": 2356,
  "Daniel": 2357,
  "AFC": 2358,
  "3.": 2359,
  "2019:": 2360,
  "-O": 2361,
  "ụghọ": 2362,
  "ọnụọgụgụ": 2363,
  "ọbụghị": 2364,
  "ịhụna": 2365,
  "ịda": 2366,
  "zụrụ": 2367,
  "te,": 2368,
  "sonyere": 2369,
  "sọọ": 2370,
  "pp": 2371,
  "oge,": 2372,
  "nuel": 2373,
  "nturuugo": 2374,
  "na-aṅụ": 2375,
  "nghọta": 2376,
  "ndu": 2377,
  "mes": 2378,
  "jizọs,": 2379,
  "iche-": 2380,
  "ina": 2381,
  "ghọrọ": 2382,
  "ga-arụ": 2383,
  "biko": 2384,
  "aghụghọ": 2385,
  "Shehu": 2386,
  "Okoro": 2387,
  "Facebo": 2388,
  "Fatoyinbo": 2389,
  "Demo": 2390,
  "Commi": 2391,
  "AFCON": 2392,
  "Ara": 2393,
  "9.": 2394,
  "6,": 2395,
  "2019,": 2396,
  "28": 2397,
  "-A": 2398,
  "“a": 2399,
  "ụmụnna": 2400,
  "ụdịrị": 2401,
  "zọọ": 2402,
  "wanye": 2403,
  "vs": 2404,
  "osika": 2405,
  "nweela": 2406,
  "na-amasị": 2407,
  "megidere": 2408,
  "kra": 2409,
  "jikwa": 2410,
  "ja,": 2411,
  "ga-asị": 2412,
  "gri": 2413,
  "fuo": 2414,
  "ekpere,": 2415,
  "egwu,": 2416,
  "chite": 2417,
  "azụma": 2418,
  "arịrịọ": 2419,
  "Timoti": 2420,
  "Rev": 2421,
  "Lu": 2422,
  "5.": 2423,
  "...": 2424,
  ".\"ọ\"": 2425,
  "ịkọ": 2426,
  "ịchọ": 2427,
  "sina": 2428,
  "nwaada": 2429,
  "ndịda": 2430,
  "na-echeta": 2431,
  "na-amaghị": 2432,
  "njiri": 2433,
  "njirimara": 2434,
  "mmekọ": 2435,
  "mwute": 2436,
  "ichi": 2437,
  "gbochie": 2438,
  "gal": 2439,
  "ep": 2440,
  "amadi": 2441,
  "ahịa.": 2442,
  "agha,": 2443,
  "Si": 2444,
  "Nigerian": 2445,
  "Dan": 2446,
  "AC": 2447,
  "4)": 2448,
  "(n": 2449,
  "ụbọchị,": 2450,
  "ọlaedo": 2451,
  "puru": 2452,
  "oti": 2453,
  "nọ.": 2454,
  "nri,": 2455,
  "n'ụba": 2456,
  "muel": 2457,
  "mmalite": 2458,
  "mba,": 2459,
  "lement": 2460,
  "kọwaa": 2461,
  "kola": 2462,
  "etinyela": 2463,
  "etinye": 2464,
  "ejighị": 2465,
  "dozi": 2466,
  "ama.": 2467,
  "akụn'ụba": 2468,
  "ation": 2469,
  "Tottenham": 2470,
  "Samuel": 2471,
  "Peop": 2472,
  "Ebre": 2473,
  "ọnatara": 2474,
  "ọkụ,": 2475,
  "tọhapụ": 2476,
  "okwute": 2477,
  "odo": 2478,
  "nọve": 2479,
  "nrụrụaka": 2480,
  "nkwụ": 2481,
  "kwuputara": 2482,
  "kwadoro": 2483,
  "ka\"": 2484,
  "jizọs.": 2485,
  "jehova,": 2486,
  "ise,": 2487,
  "izi": 2488,
  "ghachiri": 2489,
  "gbagburu": 2490,
  "ga-enweta": 2491,
  "gakwara": 2492,
  "ekwensu": 2493,
  "bishọ": 2494,
  "aza": 2495,
  "alo": 2496,
  "Ste": 2497,
  "Ola": 2498,
  "Japan": 2499,
  "Emmanuel": 2500,
  "Election": 2501,
  "Champions": 2502,
  "Ahmed": 2503,
  "Agu": 2504,
  "AN": 2505,
  "ụzọ,": 2506,
  "ọnatarachi": 2507,
  "ọhụrụ.": 2508,
  "ọdịmma": 2509,
  "z.": 2510,
  "ress": 2511,
  "onyeisioche": 2512,
  "onyeàmà": 2513,
  "ose": 2514,
  "na-ewu": 2515,
  "kpọkuo": 2516,
  "katọrọ": 2517,
  "juun": 2518,
  "is": 2519,
  "igosi": 2520,
  "bishọp": 2521,
  "anabata": 2522,
  "amalitela": 2523,
  "ahụ?": 2524,
  "agbanyeghi": 2525,
  "Okon": 2526,
  "Okezie": 2527,
  "Je": 2528,
  "Ifeanyi": 2529,
  "Ce": 2530,
  "Brother": 2531,
  "African": 2532,
  "ụzọ.": 2533,
  "ụtọ,": 2534,
  "ụlọ,": 2535,
  "ya\"": 2536,
  "ssa": 2537,
  "noa": 2538,
  "mmegbu": 2539,
  "mechaa": 2540,
  "mar": 2541,
  "kwupụtara": 2542,
  "kana": 2543,
  "gere": 2544,
  "chụpụ": 2545,
  "cia": 2546,
  "bụ.": 2547,
  "azu": 2548,
  "Par": 2549,
  "Joe": 2550,
  "Adamu": 2551,
  "Abi": 2552,
  "“chineke": 2553,
  "ọga": 2554,
  "ịgwa": 2555,
  "ịara": 2556,
  "wala": 2557,
  "um": 2558,
  "tin": 2559,
  "spen": 2560,
  "rịcha": 2561,
  "pti": 2562,
  "nyekwara": 2563,
  "nrite": 2564,
  "na-emepụta": 2565,
  "na-emere": 2566,
  "masịrị": 2567,
  "kilo": 2568,
  "ihere": 2569,
  "ff": 2570,
  "eprel": 2571,
  "emeghị": 2572,
  "ekwesi": 2573,
  "ejide": 2574,
  "eje": 2575,
  "dịịrị": 2576,
  "agwala": 2577,
  "afọ,": 2578,
  "Kano": 2579,
  "Europe": 2580,
  "And": 2581,
  ".”,": 2582,
  "-E": 2583,
  "ọmarịcha": 2584,
  "ọgara": 2585,
  "zil": 2586,
  "ya.\"": 2587,
  "wan": 2588,
  "sele": 2589,
  "ptizi": 2590,
  "ote": 2591,
  "n'obi": 2592,
  "ncha": 2593,
  "mili": 2594,
  "lụọ": 2595,
  "kụọ": 2596,
  "kwesị": 2597,
  "kpee": 2598,
  "koria": 2599,
  "jọn": 2600,
  "ihu.": 2601,
  "idu": 2602,
  "hibere": 2603,
  "ga-aka": 2604,
  "gana": 2605,
  "gy": 2606,
  "ehihie": 2607,
  "eju": 2608,
  "ee": 2609,
  "doo": 2610,
  "daị": 2611,
  "baptizi": 2612,
  "azịza": 2613,
  "amara": 2614,
  "aghọta": 2615,
  "Williams": 2616,
  "Wol": 2617,
  "Tho": 2618,
  "Shia": 2619,
  "Pri": 2620,
  "Ogbo": 2621,
  "Mike": 2622,
  "Ikpe": 2623,
  "Facebook": 2624,
  "England": 2625,
  "CO": 2626,
  "As": 2627,
  "Ali": 2628,
  "ọkpọka": 2629,
  "ọgbụ": 2630,
  "ọgbụgba": 2631,
  "ugwu.": 2632,
  "tho": 2633,
  "sere": 2634,
  "rọshịa": 2635,
  "paradaị": 2636,
  "port": 2637,
  "na-agbalị": 2638,
  "na-aba": 2639,
  "nabatara": 2640,
  "nnọchite": 2641,
  "nkw": 2642,
  "mmechi": 2643,
  "mekwara": 2644,
  "my": 2645,
  "lin": 2646,
  "ga-ekwu": 2647,
  "River": 2648,
  "Obiano": 2649,
  "Job": 2650,
  "Id": 2651,
  "Democra": 2652,
  "Borno": 2653,
  "Bel": 2654,
  "Baba": 2655,
  "24": 2656,
  "ịjụ": 2657,
  "ukwu,": 2658,
  "ude": 2659,
  "nel": 2660,
  "ndụ,": 2661,
  "ndịozi": 2662,
  "mmanwụ": 2663,
  "mebiri": 2664,
  "mgbu": 2665,
  "lian": 2666,
  "leta": 2667,
  "kọọrọ": 2668,
  "jupụtara": 2669,
  "jeru": 2670,
  "fran": 2671,
  "ememme": 2672,
  "egburu": 2673,
  "bọje": 2674,
  "baa": 2675,
  "asaala": 2676,
  "anọ.": 2677,
  "amadị": 2678,
  "alụkwaghị": 2679,
  "Yemi": 2680,
  ":\"": 2681,
  "50": 2682,
  "\",\"": 2683,
  "ụka.": 2684,
  "ọwa": 2685,
  "ọgbara": 2686,
  "uni": 2687,
  "tom": 2688,
  "ongress": 2689,
  "ogogo": 2690,
  "ot": 2691,
  "na-egwu": 2692,
  "na-anọchite": 2693,
  "na-amụta": 2694,
  "mechiri": 2695,
  "kwetara": 2696,
  "kpọpụta": 2697,
  "kasị": 2698,
  "jerusele": 2699,
  "iti": 2700,
  "igbe": 2701,
  "erena": 2702,
  "car": 2703,
  "arba": 2704,
  "Serena": 2705,
  "Sala": 2706,
  "Ikpeazu": 2707,
  "Idris": 2708,
  "Do": 2709,
  "Commission": 2710,
  "Congress": 2711,
  "Clement": 2712,
  "9,": 2713,
  "7,": 2714,
  "ịkwado": 2715,
  "ịdọ": 2716,
  "win": 2717,
  "udu": 2718,
  "pere": 2719,
  "obodo,": 2720,
  "nso.": 2721,
  "na-ekwu.": 2722,
  "na-ese": 2723,
  "kọmpu": 2724,
  "gbapụ": 2725,
  "gbalị": 2726,
  "emee": 2727,
  "ebumn'obi": 2728,
  "bụ:": 2729,
  "ba,": 2730,
  "beri": 2731,
  "ang": 2732,
  "abụbụ": 2733,
  "acha": 2734,
  "Victor": 2735,
  "Sera": 2736,
  "Sy": 2737,
  "Onwu": 2738,
  "Igbokwe": 2739,
  "God": 2740,
  "Brazil": 2741,
  "11": 2742,
  "-3": 2743,
  "ụlọ.": 2744,
  "ọchịchị,": 2745,
  "ịhụnanya": 2746,
  "ịna": 2747,
  "zịkwa": 2748,
  "w.": 2749,
  "vel": 2750,
  "tụọ": 2751,
  "sọọsọ": 2752,
  "sola": 2753,
  "nọ,": 2754,
  "na-agbanyeghị": 2755,
  "nce": 2756,
  "mezuru": 2757,
  "mepụta": 2758,
  "laghachi": 2759,
  "kilomita": 2760,
  "ill": 2761,
  "ice": 2762,
  "ha?": 2763,
  "ha\"": 2764,
  "gbala": 2765,
  "febụ": 2766,
  "febụwarị": 2767,
  "eme.": 2768,
  "ebube": 2769,
  "dun": 2770,
  "deine": 2771,
  "chi,": 2772,
  "chee": 2773,
  "ble": 2774,
  "asaa.": 2775,
  "anyụ": 2776,
  "abuja.": 2777,
  "Okonkwo": 2778,
  "Nnamdi": 2779,
  "Kenya": 2780,
  "India": 2781,
  "Em": 2782,
  "Chibo": 2783,
  "Big": 2784,
  "AR": 2785,
  "198": 2786,
  "“o": 2787,
  "ọdịnihu.": 2788,
  "ọbụrụ": 2789,
  "ịnwụ": 2790,
  "tụbeghị": 2791,
  "pasentị": 2792,
  "nri.": 2793,
  "na-ekwusa": 2794,
  "na-ezu": 2795,
  "na-asị": 2796,
  "nkwu": 2797,
  "mgbaghara": 2798,
  "mbịara": 2799,
  "lah": 2800,
  "kpata": 2801,
  "kiti": 2802,
  "kepu": 2803,
  "imi": 2804,
  "ght": 2805,
  "ga-akpọlite": 2806,
  "azụ.": 2807,
  "anọghị": 2808,
  "adịgboroja": 2809,
  "awakpo": 2810,
  "UN": 2811,
  "Rehab": 2812,
  "Okorocha": 2813,
  "Johnson": 2814,
  "Ibiam": 2815,
  "Garba": 2816,
  "Cos": 2817,
  "Cor": 2818,
  "6.": 2819,
  "2014": 2820,
  "ịgbanwe": 2821,
  "wetara": 2822,
  "sị:\"": 2823,
  "si,": 2824,
  "s\"": 2825,
  "rịtara": 2826,
  "rutere": 2827,
  "praị": 2828,
  "osikapa": 2829,
  "okiri": 2830,
  "ntị.": 2831,
  "na-eje": 2832,
  "nhazi": 2833,
  "kwasịrị": 2834,
  "kpaa": 2835,
  "iche-iche": 2836,
  "ghachị": 2837,
  "gency": 2838,
  "ga-ebido": 2839,
  "gazi": 2840,
  "ford": 2841,
  "ezi.": 2842,
  "ell": 2843,
  "ekpere.": 2844,
  "amaala": 2845,
  "akpọọ": 2846,
  "Ugwu": 2847,
  "NL": 2848,
  "FF": 2849,
  "Davi": 2850,
  "Adichie": 2851,
  "2023": 2852,
  "196": 2853,
  "-anyanwụ": 2854,
  "ọjọọ,": 2855,
  "ven": 2856,
  "oke.": 2857,
  "nọvemba": 2858,
  "nsonso": 2859,
  "nleta": 2860,
  "na-eme,": 2861,
  "na-echegbu": 2862,
  "na-akpata": 2863,
  "kọb": 2864,
  "kwaara": 2865,
  "kraịst.": 2866,
  "kpebi": 2867,
  "jekọb": 2868,
  "igbo?": 2869,
  "gbatara": 2870,
  "gbalịa": 2871,
  "ga-emecha": 2872,
  "ga-etinye": 2873,
  "emepụta": 2874,
  "depụtara": 2875,
  "den": 2876,
  "cial": 2877,
  "bịa.": 2878,
  "bịaru": 2879,
  "bru": 2880,
  "blic": 2881,
  "anwụọ": 2882,
  "amam": 2883,
  "Okoye": 2884,
  "Omo": 2885,
  "Ku": 2886,
  "Joseph": 2887,
  "Char": 2888,
  "Bukola": 2889,
  "7.": 2890,
  "5)": 2891,
  "ọbụla,": 2892,
  "ọsị": 2893,
  "ịlaị": 2894,
  "ịhapụ": 2895,
  "tain": 2896,
  "ogbo": 2897,
  "nwaagbọghọ": 2898,
  "na-agbara": 2899,
  "na.": 2900,
  "merenụ": 2901,
  "mbo": 2902,
  "kọmputa": 2903,
  "kraine": 2904,
  "ji,": 2905,
  "ilu": 2906,
  "gwakwara": 2907,
  "gasị": 2908,
  "gre": 2909,
  "esem": 2910,
  "ekwesị": 2911,
  "chụọ": 2912,
  "chaala": 2913,
  "ane": 2914,
  "ako": 2915,
  "Union": 2916,
  "Udemba": 2917,
  "Ukraine": 2918,
  "Uche": 2919,
  "Osu": 2920,
  "Oj": 2921,
  "NLC": 2922,
  "Mer": 2923,
  "Inno": 2924,
  "Ebreham": 2925,
  "DC": 2926,
  "Cent": 2927,
  "All": 2928,
  "Ang": 2929,
  "An": 2930,
  "8,": 2931,
  "197": 2932,
  "0.": 2933,
  "ụka,": 2934,
  "ọsọ.": 2935,
  "wood": 2936,
  "vice": 2937,
  "teghị": 2938,
  "sokwa": 2939,
  "olly": 2940,
  "ollywood": 2941,
  "og": 2942,
  "o.": 2943,
  "na-emegbu": 2944,
  "na-ewute": 2945,
  "na-achụ": 2946,
  "nrụ": 2947,
  "kpọkuru": 2948,
  "kpọm": 2949,
  "ikwe": 2950,
  "h,": 2951,
  "gị?": 2952,
  "ga-eru": 2953,
  "gafee": 2954,
  "fero": 2955,
  "emebi": 2956,
  "dise": 2957,
  "cis": 2958,
  "ba.": 2959,
  "anọ,": 2960,
  "alakụ": 2961,
  "agbataobi": 2962,
  "Wolves": 2963,
  "Nation": 2964,
  "London": 2965,
  "Bio": 2966,
  "Allah": 2967,
  "9)": 2968,
  "7)": 2969,
  "26": 2970,
  "ọkaibe": 2971,
  "ọgaranya": 2972,
  "zor": 2973,
  "septemba": 2974,
  "ozi.": 2975,
  "nwere.": 2976,
  "na-efegharị": 2977,
  "mmiri.": 2978,
  "mmerụ": 2979,
  "mezuo": 2980,
  "mbara": 2981,
  "machiri": 2982,
  "koro": 2983,
  "ibute": 2984,
  "hibru": 2985,
  "gụnyere:": 2986,
  "gbasaara": 2987,
  "ga-egbu": 2988,
  "ffi": 2989,
  "elu.": 2990,
  "ekwela": 2991,
  "ehab": 2992,
  "e\"": 2993,
  "dy": 2994,
  "ct": 2995,
  "bụla.": 2996,
  "bụla,": 2997,
  "apụtaghị": 2998,
  "akatọọla": 2999,
  "ahụhụ.": 3000,
  "ahụghị": 3001,
  "akp": 3002,
  "ace": 3003,
  "Ume": 3004,
  "Party": 3005,
  "Maduka": 3006,
  "Day": 3007,
  "Ban": 3008,
  "3)": 3009,
  "2020": 3010,
  "ọnwụ,": 3011,
  "ọganihu": 3012,
  "ọcha.": 3013,
  "ọcha,": 3014,
  "ịza": 3015,
  "ịme": 3016,
  "wutere": 3017,
  "tta": 3018,
  "sikwa": 3019,
  "okirikiri": 3020,
  "nwo": 3021,
  "ngwaahịa": 3022,
  "negal": 3023,
  "nno": 3024,
  "nchụ": 3025,
  "mmepụta": 3026,
  "metụta": 3027,
  "lọghachi": 3028,
  "kpuru": 3029,
  "kris": 3030,
  "jọrọ": 3031,
  "ikpeazụ,": 3032,
  "hr": 3033,
  "ga-eme.": 3034,
  "ejirila": 3035,
  "ego,": 3036,
  "eburu": 3037,
  "chọrọ.": 3038,
  "chebe": 3039,
  "binyere": 3040,
  "bekee.": 3041,
  "ahapụ": 3042,
  "Zam": 3043,
  "Senegal": 3044,
  "San": 3045,
  "Rohr": 3046,
  "Mini": 3047,
  "IS": 3048,
  "Guine": 3049,
  "Femi": 3050,
  "Ed": 3051,
  "Democratic": 3052,
  "Dap": 3053,
  "Bre": 3054,
  "Aw": 3055,
  "Akanu": 3056,
  "8.": 3057,
  "0,": 3058,
  "ụlọahịa": 3059,
  "ịnụ": 3060,
  "zụọ": 3061,
  "wepụta": 3062,
  "tigbuo": 3063,
  "shop": 3064,
  "onwealth": 3065,
  "okpuruọchịchị": 3066,
  "nwere,": 3067,
  "nkwarị": 3068,
  "na-edu": 3069,
  "nsi": 3070,
  "meru": 3071,
  "mejọ": 3072,
  "legọs.": 3073,
  "len": 3074,
  "l.": 3075,
  "kwụnye": 3076,
  "ji.": 3077,
  "izugbe": 3078,
  "gbawara": 3079,
  "eze,": 3080,
  "eruola": 3081,
  "echeta": 3082,
  "chael": 3083,
  "chụrụ": 3084,
  "bụbụ": 3085,
  "bute": 3086,
  "anyị?": 3087,
  "akparala": 3088,
  "abụ,": 3089,
  "adọ": 3090,
  "ZA": 3091,
  "Univer": 3092,
  "Umar": 3093,
  "Uzo": 3094,
  "Tra": 3095,
  "Ribe": 3096,
  "Onu": 3097,
  "Kanu": 3098,
  "IV": 3099,
  "Davido": 3100,
  "Commonwealth": 3101,
  "Chibok": 3102,
  "COZA": 3103,
  "Cup": 3104,
  "Cro": 3105,
  "\"n'\"": 3106,
  "ọka,": 3107,
  "ọt": 3108,
  "zitere": 3109,
  "weta": 3110,
  "urch": 3111,
  "udo.": 3112,
  "teela": 3113,
  "stle": 3114,
  "pho": 3115,
  "nya.": 3116,
  "ntụnye": 3117,
  "nkea": 3118,
  "na-agabiga": 3119,
  "na-akwanyere": 3120,
  "nz": 3121,
  "midi": 3122,
  "lawa": 3123,
  "kọwaara": 3124,
  "kwesili": 3125,
  "idemili": 3126,
  "ghị.": 3127,
  "ga-egosi": 3128,
  "gafere": 3129,
  "fara": 3130,
  "eria": 3131,
  "dịka\"": 3132,
  "dozie": 3133,
  "dina": 3134,
  "dimkpa": 3135,
  "chool": 3136,
  "bọọlụ.": 3137,
  "ban": 3138,
  "amerịka,": 3139,
  "amamihe": 3140,
  "akpọọla": 3141,
  "Tim": 3142,
  "Ribeka": 3143,
  "PortHarcourt": 3144,
  "Ogu": 3145,
  "Nọt": 3146,
  "Mor": 3147,
  "Francis": 3148,
  "Fo": 3149,
  "Eji": 3150,
  "Cana": 3151,
  "ASU": 3152,
  "Aku": 3153,
  "!”": 3154,
  "“mgbe": 3155,
  "ọbịa": 3156,
  "ịchọpụta": 3157,
  "ṅụrụ": 3158,
  "zite": 3159,
  "yetti": 3160,
  "ren": 3161,
  "pasent": 3162,
  "onyenwe": 3163,
  "nwebeghị": 3164,
  "ntụliaka.": 3165,
  "not": 3166,
  "njọ.": 3167,
  "na-efu": 3168,
  "na-asọ": 3169,
  "nali": 3170,
  "nze": 3171,
  "nsụ": 3172,
  "kwazịrị": 3173,
  "jikọrọ": 3174,
  "icester": 3175,
  "haa": 3176,
  "grik": 3177,
  "gige": 3178,
  "esemokwu": 3179,
  "elu,": 3180,
  "del": 3181,
  "chekwa": 3182,
  "aṅụrị": 3183,
  "Ngige": 3184,
  "Miyetti": 3185,
  "May": 3186,
  "Leicester": 3187,
  "Ezekwesili": 3188,
  "East": 3189,
  "Ethi": 3190,
  "Christian": 3191,
  "Cou": 3192,
  "Col": 3193,
  "Ani": 3194,
  "21": 3195,
  ".\"anyị\"": 3196,
  "ịnye": 3197,
  "ṅomi": 3198,
  "zọgbuo": 3199,
  "tek": 3200,
  "tt": 3201,
  "pụtara.": 3202,
  "pute": 3203,
  "ozigbo": 3204,
  "oge.": 3205,
  "nwụọ.": 3206,
  "nwatakịrị": 3207,
  "ngwaagha": 3208,
  "na-apụ": 3209,
  "nsị": 3210,
  "mkpọrọ.": 3211,
  "mic": 3212,
  "leke": 3213,
  "kụziiri": 3214,
  "kwuburu": 3215,
  "kpochapụ": 3216,
  "kpebie": 3217,
  "kewa": 3218,
  "ka,": 3219,
  "kla": 3220,
  "gwoju": 3221,
  "gbalịrị": 3222,
  "gbawa": 3223,
  "eluigwe,": 3224,
  "ebi,": 3225,
  "dọrọ": 3226,
  "chịburu": 3227,
  "asataghị": 3228,
  "arịọ": 3229,
  "a.\"": 3230,
  "Pu": 3231,
  "Ojukwu": 3232,
  "Nwodo": 3233,
  "Mercy": 3234,
  "Iran": 3235,
  "Imo": 3236,
  "Cy": 3237,
  "(N": 3238,
  "ụgh": 3239,
  "ọṅụṅụ": 3240,
  "ọtọ.": 3241,
  "ọhụrụ,": 3242,
  "ọfọ": 3243,
  "zụta": 3244,
  "ya:": 3245,
  "ugwu,": 3246,
  "teknụ": 3247,
  "teknụzụ": 3248,
  "shu": 3249,
  "rite": 3250,
  "onye\"": 3251,
  "oly": 3252,
  "owu": 3253,
  "om": 3254,
  "nsọ.": 3255,
  "nlekọta": 3256,
  "njedebe": 3257,
  "nin": 3258,
  "na-ekiri": 3259,
  "na-adọ": 3260,
  "nahụrụ": 3261,
  "nkọwa": 3262,
  "nc": 3263,
  "merụọ": 3264,
  "matara": 3265,
  "kpamkpa": 3266,
  "kpachara": 3267,
  "kolo": 3268,
  "kele": 3269,
  "isonye": 3270,
  "ikiri": 3271,
  "igba": 3272,
  "iberi": 3273,
  "hia": 3274,
  "gola": 3275,
  "ga-amata": 3276,
  "ga-amụta": 3277,
  "ganị": 3278,
  "ef": 3279,
  "dere,": 3280,
  "anụrị": 3281,
  "alakụba": 3282,
  "akpụkpọ": 3283,
  "ahụla": 3284,
  "ahịa,": 3285,
  "agafe": 3286,
  "abụ)": 3287,
  "akwọ": 3288,
  "Va": 3289,
  "Shiite": 3290,
  "Service": 3291,
  "SAR": 3292,
  "SARS": 3293,
  "King": 3294,
  "Indi": 3295,
  "IMN": 3296,
  "ID": 3297,
  "Her": 3298,
  "HIV": 3299,
  "Gra": 3300,
  "Ethiop": 3301,
  "En": 3302,
  "Dapchi": 3303,
  "Bishop": 3304,
  "Ant": 3305,
  "AF": 3306,
  "2017.": 3307,
  "ụfụ": 3308,
  "ọrọla": 3309,
  "ọtụ": 3310,
  "zoro": 3311,
  "zik": 3312,
  "uru,": 3313,
  "umeala": 3314,
  "u,": 3315,
  "public": 3316,
  "pee": 3317,
  "ongwo": 3318,
  "ochie.": 3319,
  "nọchitere": 3320,
  "nwụrụ,": 3321,
  "ngwongwo": 3322,
  "nnwere": 3323,
  "magazi": 3324,
  "mon": 3325,
  "m.”": 3326,
  "kpụpụ": 3327,
  "ihu,": 3328,
  "ichekwa": 3329,
  "gunyere": 3330,
  "gressi": 3331,
  "ghere": 3332,
  "gbakọrọ": 3333,
  "ga-emezu": 3334,
  "ga-alụ": 3335,
  "gasịrị": 3336,
  "gar": 3337,
  "eziokwu?": 3338,
  "eluigwe.": 3339,
  "eboro": 3340,
  "esoro": 3341,
  "disemba": 3342,
  "dabara": 3343,
  "bibie": 3344,
  "asị.": 3345,
  "Orji": 3346,
  "Os": 3347,
  "Nwachukwu": 3348,
  "Nwan": 3349,
  "Mikel": 3350,
  "Kogi": 3351,
  "James": 3352,
  "Ikechukwu": 3353,
  "Ita": 3354,
  "Frank": 3355,
  "Dakolo": 3356,
  "Church": 3357,
  "Bur": 3358,
  "Britain": 3359,
  "Biodun": 3360,
  "Benja": 3361,
  "Andre": 3362,
  "ASUU": 3363,
  "Agency": 3364,
  "22": 3365,
  ".\"ndị\"": 3366,
  "-onye": 3367,
  "\"nke\"": 3368,
  "ụkwara": 3369,
  "ọwụwa-anyanwụ": 3370,
  "ọnwụnwa": 3371,
  "ọfụma.": 3372,
  "ịbịa": 3373,
  "yat": 3374,
  "taata": 3375,
  "sị,\"": 3376,
  "siiri": 3377,
  "side": 3378,
  "rere": 3379,
  "penali": 3380,
  "penaliti": 3381,
  "pro": 3382,
  "par": 3383,
  "obiọma": 3384,
  "nọchiri": 3385,
  "nkwenye": 3386,
  "njikọ": 3387,
  "na-abịa.": 3388,
  "na-apụta": 3389,
  "napụta": 3390,
  "mana\"": 3391,
  "magazin": 3392,
  "mahụ": 3393,
  "mne": 3394,
  "la,": 3395,
  "kọrịtara": 3396,
  "kwuo.": 3397,
  "kpọlitere": 3398,
  "kanada": 3399,
  "ifo": 3400,
  "hiwere": 3401,
  "gram": 3402,
  "golayat": 3403,
  "ga-ebibi": 3404,
  "ga-emere": 3405,
  "fre": 3406,
  "eze.": 3407,
  "enugwu.": 3408,
  "ement": 3409,
  "depụta": 3410,
  "dapụtara": 3411,
  "chịkọ": 3412,
  "ahụ.”": 3413,
  "atọrọ": 3414,
  "akọwa": 3415,
  "SC": 3416,
  "People": 3417,
  "Peace": 3418,
  "Nigeria,": 3419,
  "Michael": 3420,
  "Kim": 3421,
  "Gernot": 3422,
  "Bar": 3423,
  "Ad": 3424,
  "'?": 3425,
  "\"na\"": 3426,
  "“ka": 3427,
  "ụlọikpe.": 3428,
  "zịkwara": 3429,
  "velop": 3430,
  "velopment": 3431,
  "tanka": 3432,
  "sị\"": 3433,
  "stri": 3434,
  "socia": 3435,
  "sociation": 3436,
  "oke,": 3437,
  "nwụrụ.": 3438,
  "nwaanyị,": 3439,
  "nsọ,": 3440,
  "mpịa": 3441,
  "lu,": 3442,
  "lan": 3443,
  "jijiji": 3444,
  "iju": 3445,
  "gọzie": 3446,
  "ga-azọ": 3447,
  "ga-aza": 3448,
  "fraịde.": 3449,
  "enugwu-": 3450,
  "emeriela": 3451,
  "efere": 3452,
  "di,": 3453,
  "chọtara": 3454,
  "chineke?": 3455,
  "chaa,": 3456,
  "belata": 3457,
  "amị": 3458,
  "anwa": 3459,
  "aja.": 3460,
  "Zamfara": 3461,
  "Universi": 3462,
  "Soyin": 3463,
  "Secon": 3464,
  "Progressi": 3465,
  "Ndu": 3466,
  "Kore": 3467,
  "Geor": 3468,
  "Ex": 3469,
  "Eli": 3470,
  "Association": 3471,
  "Abdul": 3472,
  "500": 3473,
  "5,": 3474,
  "4,": 3475,
  "2018.": 3476,
  "ọkọlọ": 3477,
  "ọkọlọtọ": 3478,
  "ọkpụkpụ": 3479,
  "ọkpa": 3480,
  "ịkụziri": 3481,
  "ịsị": 3482,
  "zigara": 3483,
  "yanwa": 3484,
  "way": 3485,
  "tụta": 3486,
  "too": 3487,
  "tive": 3488,
  "tholic": 3489,
  "sime": 3490,
  "roup": 3491,
  "rist": 3492,
  "pha": 3493,
  "okwe": 3494,
  "nwete": 3495,
  "ntakịrị": 3496,
  "nnaya": 3497,
  "nesi": 3498,
  "na-eweta": 3499,
  "na-emegide": 3500,
  "na-ahazi": 3501,
  "nkọ": 3502,
  "mmiri,": 3503,
  "mmachi": 3504,
  "mkpagbu": 3505,
  "mechie": 3506,
  "kparịta": 3507,
  "iwe.": 3508,
  "isii,": 3509,
  "iri.": 3510,
  "ino": 3511,
  "ime,": 3512,
  "illa": 3513,
  "inyocha": 3514,
  "hole": 3515,
  "here": 3516,
  "gwuru": 3517,
  "gwọọ": 3518,
  "ghapụ": 3519,
  "gbatagbata": 3520,
  "gaasị": 3521,
  "ger": 3522,
  "enweela": 3523,
  "elsa": 3524,
  "eld": 3525,
  "edeme": 3526,
  "ekp": 3527,
  "castle": 3528,
  "cto": 3529,
  "buuru": 3530,
  "atọhapụ": 3531,
  "aria": 3532,
  "alụmdi": 3533,
  "ahụrụ": 3534,
  "adaala": 3535,
  "Tan": 3536,
  "Oluse": 3537,
  "Ogbu": 3538,
  "Odu": 3539,
  "Nji": 3540,
  "Ni": 3541,
  "Musa": 3542,
  "Mz.": 3543,
  "Mala": 3544,
  "League.": 3545,
  "FI": 3546,
  "Ethiopia": 3547,
  "Development": 3548,
  "Catholic": 3549,
  "Bayelsa": 3550,
  "Bank": 3551,
  "Anaje": 3552,
  "(A": 3553,
  "ụzụ": 3554,
  "ọpị": 3555,
  "wela": 3556,
  "tụla": 3557,
  "sụgharịa": 3558,
  "rụtụrụ": 3559,
  "ruola": 3560,
  "rus": 3561,
  "rael": 3562,
  "paradaịs.": 3563,
  "ozugbo.": 3564,
  "ozi,": 3565,
  "nụwarị": 3566,
  "nọkwa": 3567,
  "nwụchie": 3568,
  "ntụkwasị": 3569,
  "merela": 3570,
  "mepụtara": 3571,
  "mber": 3572,
  "kwutere": 3573,
  "kwukwa": 3574,
  "kuzi": 3575,
  "kpọmkwe": 3576,
  "jọgburu": 3577,
  "jeruselem": 3578,
  "jenụwarị": 3579,
  "jee": 3580,
  "iwu.": 3581,
  "iwepụ": 3582,
  "iteghe": 3583,
  "imeụlọ": 3584,
  "ikpe.": 3585,
  "iwere": 3586,
  "hazie": 3587,
  "guzobe": 3588,
  "guri": 3589,
  "ga-agwa": 3590,
  "emeka": 3591,
  "edemede": 3592,
  "echefu": 3593,
  "ebidola": 3594,
  "dụọ": 3595,
  "cent": 3596,
  "buo": 3597,
  "anambra.": 3598,
  "akpata": 3599,
  "adọọla": 3600,
  "Yoru": 3601,
  "Yu": 3602,
  "Thomas": 3603,
  "Sudan": 3604,
  "Sheka": 3605,
  "Sp": 3606,
  "Pi": 3607,
  "Olusegun": 3608,
  "Libya": 3609,
  "Kalu": 3610,
  "Israel": 3611,
  "Har": 3612,
  "Good": 3613,
  "Charles": 3614,
  "Chan": 3615,
  "Canada": 3616,
  "Car": 3617,
  "Busola": 3618,
  "Alexand": 3619,
  "Aja": 3620,
  "-N": 3621,
  "-\"": 3622,
  "’)": 3623,
  "ụbọchị.": 3624,
  "ọgụ.": 3625,
  "ọsi": 3626,
  "ịsụ": 3627,
  "ṅụọ": 3628,
  "zụga": 3629,
  "zịghị": 3630,
  "van": 3631,
  "ukwa": 3632,
  "tiusde.": 3633,
  "stan": 3634,
  "siriak": 3635,
  "shiom": 3636,
  "shiomhole": 3637,
  "rin": 3638,
  "ration": 3639,
  "praịm": 3640,
  "ochie,": 3641,
  "nụ.": 3642,
  "nwụọ,": 3643,
  "nweekwa": 3644,
  "nnọchiteanya": 3645,
  "ndịa": 3646,
  "na-emebi": 3647,
  "na-ekele": 3648,
  "na-aghọta": 3649,
  "nnụ": 3650,
  "mpịakọta": 3651,
  "mkpa:": 3652,
  "mbuze": 3653,
  "kụziri": 3654,
  "isii.": 3655,
  "gọzi": 3656,
  "gafe": 3657,
  "essi": 3658,
  "ern": 3659,
  "emepe": 3660,
  "ege": 3661,
  "dibia": 3662,
  "chọta": 3663,
  "akwa.": 3664,
  "ahịrị": 3665,
  "adịrị": 3666,
  "achọpụta": 3667,
  "Wike": 3668,
  "Ugwuanyi": 3669,
  "TV": 3670,
  "Soyinka": 3671,
  "Ronal": 3672,
  "Pari": 3673,
  "PC": 3674,
  "Nnabu": 3675,
  "Newcastle": 3676,
  "Germa": 3677,
  "Austra": 3678,
  "Airport": 3679,
  "Are": 3680,
  "6)": 3681,
  "2015.": 3682,
  ".\"o\"": 3683,
  "“unu": 3684,
  "ọs": 3685,
  "ọpụ": 3686,
  "ọkwọ": 3687,
  "ọkpụrụ": 3688,
  "ọchụ": 3689,
  "wuru": 3690,
  "wa,": 3691,
  "taramahụ": 3692,
  "taramahụhụ": 3693,
  "twitter": 3694,
  "phen": 3695,
  "oziọma": 3696,
  "oyibo": 3697,
  "otuto": 3698,
  "ork": 3699,
  "olo": 3700,
  "obo": 3701,
  "nwụnahụrụ": 3702,
  "na-echekwa": 3703,
  "na-aga,": 3704,
  "na-aza": 3705,
  "natara": 3706,
  "ntaramahụhụ": 3707,
  "nma": 3708,
  "mmefu": 3709,
  "mgbidi": 3710,
  "m:": 3711,
  "liela": 3712,
  "lli": 3713,
  "larị": 3714,
  "kọpa": 3715,
  "kpọtụrụ": 3716,
  "ke,": 3717,
  "juputara": 3718,
  "ijipt.": 3719,
  "iduguri": 3720,
  "int": 3721,
  "imere": 3722,
  "ikpere": 3723,
  "gypt": 3724,
  "gbakwara": 3725,
  "ga-agụ": 3726,
  "gas": 3727,
  "gad": 3728,
  "fọdụrụ": 3729,
  "enugwu,": 3730,
  "ener": 3731,
  "echiche.": 3732,
  "enyocha": 3733,
  "chaara": 3734,
  "bịa,": 3735,
  "biko,": 3736,
  "azụmahịa": 3737,
  "audi": 3738,
  "asatọ,": 3739,
  "arịọla": 3740,
  "apụghị": 3741,
  "anya.”": 3742,
  "agbagbuola": 3743,
  "agadi": 3744,
  "agaala": 3745,
  "abata": 3746,
  "apụtala": 3747,
  "________": 3748,
  "Tara": 3749,
  "Stephen": 3750,
  "Shekau": 3751,
  "School": 3752,
  "Rivers": 3753,
  "Nations": 3754,
  "Nollywood": 3755,
  "Maiduguri": 3756,
  "Mah": 3757,
  "Jane": 3758,
  "Haru": 3759,
  "Federal": 3760,
  "For": 3761,
  "Egypt": 3762,
  "Communi": 3763,
  "Chioma": 3764,
  "Chad": 3765,
  "Central": 3766,
  "Benjamin": 3767,
  "Bori": 3768,
  "Benu": 3769,
  "Abdulla": 3770,
  "29": 3771,
  "1914": 3772,
  "ụkpa": 3773,
  "ọlị": 3774,
  "ịlaịja": 3775,
  "ịdịna": 3776,
  "zarọ": 3777,
  "ya;": 3778,
  "xi": 3779,
  "sọnde": 3780,
  "stal": 3781,
  "sho": 3782,
  "sekọ": 3783,
  "ser": 3784,
  "onyeisiala.": 3785,
  "ohi,": 3786,
  "o,": 3787,
  "nyekwa": 3788,
  "nwoke.": 3789,
  "nwoke,": 3790,
  "nweghịkwa": 3791,
  "nwuru": 3792,
  "nuche": 3793,
  "nkwanye": 3794,
  "ndị;": 3795,
  "ncil": 3796,
  "na-erubere": 3797,
  "na-ezo": 3798,
  "mma?": 3799,
  "mesa": 3800,
  "mbuli": 3801,
  "mbilite": 3802,
  "liance": 3803,
  "let": 3804,
  "lazarọ": 3805,
  "lack": 3806,
  "leri": 3807,
  "imebi": 3808,
  "ga-ekwe": 3809,
  "ezina": 3810,
  "ejidela": 3811,
  "egosila": 3812,
  "echeghị": 3813,
  "ebibi": 3814,
  "ebia": 3815,
  "duru": 3816,
  "ding": 3817,
  "conomi": 3818,
  "chọghị": 3819,
  "chel": 3820,
  "bulu": 3821,
  "bon": 3822,
  "azụ,": 3823,
  "asatọ.": 3824,
  "arebia": 3825,
  "amachiela": 3826,
  "alaghachi": 3827,
  "akwa,": 3828,
  "adaba": 3829,
  "ahia": 3830,
  "University": 3831,
  "Timgad": 3832,
  "Saudi": 3833,
  "Sal": 3834,
  "Republic": 3835,
  "PS": 3836,
  "Oshiomhole": 3837,
  "Nyako": 3838,
  "Mou": 3839,
  "Lai": 3840,
  "Innoson": 3841,
  "Ibo": 3842,
  "Group": 3843,
  "CB": 3844,
  "Alliance": 3845,
  "Abdullahi": 3846,
  "Ameri": 3847,
  "400": 3848,
  ".,": 3849,
  ".)": 3850,
  ")\"": 3851,
  "“e": 3852,
  "ụmụokorobịa": 3853,
  "ọpụpụ": 3854,
  "ọkpụrụkpụ": 3855,
  "ịtụkwasị": 3856,
  "ịna-eme": 3857,
  "ịhọpụta": 3858,
  "xico": 3859,
  "ture": 3860,
  "tie": 3861,
  "te.": 3862,
  "t.": 3863,
  "sty": 3864,
  "ston": 3865,
  "ship": 3866,
  "sụrụ": 3867,
  "sala": 3868,
  "rụwarị": 3869,
  "rans": 3870,
  "otele": 3871,
  "oph": 3872,
  "ophobi": 3873,
  "ogoogo": 3874,
  "os": 3875,
  "nụ,": 3876,
  "nyụrụ": 3877,
  "nwaamadị": 3878,
  "nes": 3879,
  "na-ekwesịghị": 3880,
  "na-aga.": 3881,
  "na-asa": 3882,
  "na-akpụ": 3883,
  "nahụ": 3884,
  "mgbakwụnye": 3885,
  "mana,": 3886,
  "kwuru?": 3887,
  "kwekọrịtara": 3888,
  "kuru": 3889,
  "ks": 3890,
  "kno": 3891,
  "izrel.": 3892,
  "inji": 3893,
  "igbochi": 3894,
  "ikpo": 3895,
  "ha.”": 3896,
  "ga-anwụ": 3897,
  "ga-ahapụ": 3898,
  "ga-ada": 3899,
  "feb": 3900,
  "febrụwarị": 3901,
  "enwetala": 3902,
  "enophobi": 3903,
  "ezo": 3904,
  "dada": 3905,
  "chụpụrụ": 3906,
  "chịa": 3907,
  "chara,": 3908,
  "bụrụgodị": 3909,
  "bunyere": 3910,
  "asaa,": 3911,
  "akparama": 3912,
  "ahụ.\"": 3913,
  "agbasa": 3914,
  "agbala": 3915,
  "afrịka,": 3916,
  "adị.": 3917,
  "achụọla": 3918,
  "achọpụtala": 3919,
  "aị": 3920,
  "awara": 3921,
  "at": 3922,
  "You": 3923,
  "There": 3924,
  "Ronaldo": 3925,
  "Qu": 3926,
  "P)": 3927,
  "Obama": 3928,
  "Mexico": 3929,
  "Mbaise": 3930,
  "Mada": 3931,
  "Mana": 3932,
  "Insta": 3933,
  "IC": 3934,
  "Guinea": 3935,
  "George": 3936,
  "Economi": 3937,
  "Council": 3938,
  "Benin": 3939,
  "Bayern": 3940,
  "ụra,": 3941,
  "ọzọkwa": 3942,
  "ọnịcha,": 3943,
  "ịgbara": 3944,
  "wezụga": 3945,
  "visa": 3946,
  "ron": 3947,
  "pụta,": 3948,
  "olution": 3949,
  "nwedịrị": 3950,
  "ntutu": 3951,
  "na-ewere": 3952,
  "na-edo": 3953,
  "na-amị": 3954,
  "mụwa": 3955,
  "mkpọtụ": 3956,
  "mee,": 3957,
  "mamanda": 3958,
  "madị": 3959,
  "lege": 3960,
  "le,": 3961,
  "latị": 3962,
  "kpọlite": 3963,
  "ikpeazụ.": 3964,
  "id": 3965,
  "gbachara": 3966,
  "ga-emeli": 3967,
  "ga-emekwa": 3968,
  "ga-atụ": 3969,
  "ga-ata": 3970,
  "gani": 3971,
  "ezughị": 3972,
  "ewerela": 3973,
  "ekpebi": 3974,
  "echiche,": 3975,
  "egbochi": 3976,
  "di.": 3977,
  "dayọsi": 3978,
  "ataala": 3979,
  "arụsị": 3980,
  "ama,": 3981,
  "akụkọ\"": 3982,
  "abacha": 3983,
  "anwu": 3984,
  "Xenophobi": 3985,
  "Uga": 3986,
  "Theresa": 3987,
  "Tekno": 3988,
  "Sunda": 3989,
  "Revolution": 3990,
  "Power": 3991,
  "Pope": 3992,
  "Ortom": 3993,
  "Oye": 3994,
  "Ogun": 3995,
  "Odi": 3996,
  "Kha": 3997,
  "Isla": 3998,
  "Haruna": 3999,
  "Gran": 4000,
  "FIFA": 4001,
  "European": 4002,
  "Chimamanda": 4003,
  "Christ": 4004,
  "Cri": 4005,
  "CN": 4006,
  "Boris": 4007,
  "Alg": 4008,
  "At": 4009,
  "8)": 4010,
  "2013": 4011,
  "’”": 4012,
  "ụra.": 4013,
  "ụnyaahụ,": 4014,
  "ụmụada": 4015,
  "ụgha.": 4016,
  "ọrịa.": 4017,
  "ọkwa.": 4018,
  "ọchịchọ": 4019,
  "ọnya": 4020,
  "ọbọ": 4021,
  "ịwa": 4022,
  "vin": 4023,
  "ura": 4024,
  "uchu": 4025,
  "tiu,": 4026,
  "ta,": 4027,
  "saị": 4028,
  "sa,": 4029,
  "rute": 4030,
  "ring": 4031,
  "r.": 4032,
  "peration": 4033,
  "ous": 4034,
  "org": 4035,
  "ora": 4036,
  "nya,": 4037,
  "na-ejere": 4038,
  "na-akọrọ": 4039,
  "na-akatọ": 4040,
  "na-abata": 4041,
  "na-abara": 4042,
  "na-arụrụ": 4043,
  "ngụ": 4044,
  "masị": 4045,
  "mak,": 4046,
  "luck": 4047,
  "lican": 4048,
  "lekwa": 4049,
  "kọba": 4050,
  "kwute": 4051,
  "kpam": 4052,
  "ket": 4053,
  "jizi": 4054,
  "iwu,": 4055,
  "igh": 4056,
  "gbaghara": 4057,
  "emezu": 4058,
  "ekpo": 4059,
  "dụrụ": 4060,
  "dinma": 4061,
  "codeine": 4062,
  "chọkwara": 4063,
  "cal": 4064,
  "bọọlụ,": 4065,
  "bi.": 4066,
  "baptizim": 4067,
  "anya?": 4068,
  "anwụchiri": 4069,
  "agụm": 4070,
  "agbanwe": 4071,
  "Zara": 4072,
  "WAS": 4073,
  "Sunday": 4074,
  "St.": 4075,
  "Preside": 4076,
  "PSG": 4077,
  "Ode": 4078,
  "OWAS": 4079,
  "Njikọ": 4080,
  "Nsu": 4081,
  "Nke": 4082,
  "Ndi": 4083,
  "NFF": 4084,
  "Kenne": 4085,
  "Emlin": 4086,
  "ECOWAS": 4087,
  "Enyi": 4088,
  "EMA": 4089,
  "Chief": 4090,
  "Black": 4091,
  "Bal": 4092,
  "Aguleri": 4093,
  "AM": 4094,
  "?\"": 4095,
  "2018,": 4096,
  "2000": 4097,
  "ụmụagbọghọ": 4098,
  "ụgwọ.": 4099,
  "ọsịsọ": 4100,
  "ọrụugbo": 4101,
  "ịkọwa": 4102,
  "ziga": 4103,
  "yahoo": 4104,
  "y,": 4105,
  "wich": 4106,
  "wa.": 4107,
  "ure": 4108,
  "sing": 4109,
  "satọde.": 4110,
  "ridge": 4111,
  "pou": 4112,
  "otu\"": 4113,
  "omen": 4114,
  "olulu": 4115,
  "ofor": 4116,
  "one": 4117,
  "nzagha": 4118,
  "nyahụ": 4119,
  "nupụrụ": 4120,
  "nupụ": 4121,
  "nnogh": 4122,
  "nnoghen": 4123,
  "nkeji:": 4124,
  "na-ekwusi": 4125,
  "na-etu": 4126,
  "na-ehi": 4127,
  "na-ege": 4128,
  "na-akwụwa": 4129,
  "na-ahụta": 4130,
  "na-ana": 4131,
  "nkwọ": 4132,
  "ngosi": 4133,
  "mila": 4134,
  "mfe.": 4135,
  "meziri": 4136,
  "metụrụ": 4137,
  "mekwa": 4138,
  "mebie": 4139,
  "matiu,": 4140,
  "kwuru:": 4141,
  "kpụọ": 4142,
  "kparị": 4143,
  "kelee": 4144,
  "jairo": 4145,
  "isiala": 4146,
  "iri,": 4147,
  "ingland": 4148,
  "icheta": 4149,
  "gwụrụ": 4150,
  "gosikwara": 4151,
  "gbapụrụ": 4152,
  "ga-amasi": 4153,
  "ejiji": 4154,
  "edu": 4155,
  "dayọsiisi": 4156,
  "diri": 4157,
  "cese": 4158,
  "cer": 4159,
  "bọjetị": 4160,
  "bulie": 4161,
  "arụọla": 4162,
  "amụta": 4163,
  "amasị": 4164,
  "akụziri": 4165,
  "abịa.": 4166,
  "akpọrọ\"": 4167,
  "Ze": 4168,
  "Za": 4169,
  "Uganda": 4170,
  "UE": 4171,
  "UEFA": 4172,
  "Tanz": 4173,
  "Tur": 4174,
  "Salah": 4175,
  "Solu": 4176,
  "Rama": 4177,
  "Osun": 4178,
  "Ono": 4179,
  "Onnoghen": 4180,
  "Mela": 4181,
  "Kenneth": 4182,
  "Juven": 4183,
  "Islamic": 4184,
  "II": 4185,
  "Goodluck": 4186,
  "Ezi": 4187,
  "Chine": 4188,
  "Che": 4189,
  "Cali": 4190,
  "CBN": 4191,
  "Augu": 4192,
  "Anglican": 4193,
  "Adeleke": 4194,
  "App": 4195,
  "37": 4196,
  "ụfọdụ.": 4197,
  "ụnyahụ": 4198,
  "ọsọ,": 4199,
  "ọmụgwọ": 4200,
  "ọkọchị": 4201,
  "ịbanye": 4202,
  "ya,\"": 4203,
  "yode": 4204,
  "weregodị": 4205,
  "wn": 4206,
  "tinyekwara": 4207,
  "tra": 4208,
  "t,": 4209,
  "sto": 4210,
  "rity": 4211,
  "pụtara?": 4212,
  "pụtara,": 4213,
  "pịara": 4214,
  "phosa": 4215,
  "nwụchikọrọ": 4216,
  "nwechara": 4217,
  "nwanna": 4218,
  "nsọpụrụ": 4219,
  "nis": 4220,
  "naịjirịa?": 4221,
  "na-ekweghị": 4222,
  "na-ekpo": 4223,
  "midia.": 4224,
  "meela": 4225,
  "maọbụrụ": 4226,
  "m-": 4227,
  "lọta.": 4228,
  "lịkan": 4229,
  "li.": 4230,
  "kụziere": 4231,
  "klaasị": 4232,
  "ka.": 4233,
  "kin": 4234,
  "jeriko": 4235,
  "imezu": 4236,
  "ileta": 4237,
  "ibuso": 4238,
  "igwu": 4239,
  "ha.\"": 4240,
  "goolu.": 4241,
  "gharịị": 4242,
  "gbụrụ": 4243,
  "ga-ele": 4244,
  "ga-ekpe": 4245,
  "ga-aghọ": 4246,
  "ga-ere": 4247,
  "ga.": 4248,
  "eruo": 4249,
  "emechiela": 4250,
  "data": 4251,
  "chaa.": 4252,
  "bigara": 4253,
  "aro": 4254,
  "anwụ,": 4255,
  "amaw": 4256,
  "alụkwaghịm": 4257,
  "akwụsịla": 4258,
  "aka?": 4259,
  "agaghi": 4260,
  "abanyela": 4261,
  "Yusu": 4262,
  "Yoruba": 4263,
  "WA": 4264,
  "WAEC": 4265,
  "Soko": 4266,
  "Ramaphosa": 4267,
  "Rus": 4268,
  "Progressive": 4269,
  "Poli": 4270,
  "NAF": 4271,
  "Nnia": 4272,
  "Melaye": 4273,
  "Messi": 4274,
  "Kaduna": 4275,
  "Josef.": 4276,
  "Jong": 4277,
  "Instagram": 4278,
  "Ibom": 4279,
  "Health": 4280,
  "Grand": 4281,
  "Gener": 4282,
  "Ebonyi": 4283,
  "College": 4284,
  "Buhari,": 4285,
  "Bello": 4286,
  "Abra": 4287,
  "Amara": 4288,
  "Ala": 4289,
  "Aka": 4290,
  "Achebe": 4291,
  "\"-\"": 4292,
  "ụwa?": 4293,
  "ụmụnwaanyị.": 4294,
  "ụlọmkpọrọ": 4295,
  "ụgbọmmiri": 4296,
  "ọwụwaanyanwụ": 4297,
  "ọhịa.": 4298,
  "ọbụna": 4299,
  "ịna-echegbu": 4300,
  "ịhazi": 4301,
  "zikiwe": 4302,
  "yuro": 4303,
  "yurop": 4304,
  "yele": 4305,
  "xit": 4306,
  "unu.": 4307,
  "uba": 4308,
  "tụmadị": 4309,
  "tọgbọ": 4310,
  "tarị": 4311,
  "stry": 4312,
  "sy": 4313,
  "sse": 4314,
  "rọrọ": 4315,
  "rala": 4316,
  "poli": 4317,
  "nyochaa": 4318,
  "nwara": 4319,
  "nupụụrụ": 4320,
  "ntị,": 4321,
  "nsibi": 4322,
  "nnụnụ": 4323,
  "nchekwa,": 4324,
  "naịjirịa-": 4325,
  "na-emetụ": 4326,
  "na-ejighị": 4327,
  "na-echu": 4328,
  "na-agbasi": 4329,
  "na-achịkọta": 4330,
  "nzọpụta": 4331,
  "mmụọ.": 4332,
  "mina": 4333,
  "mgbapụta": 4334,
  "mezu": 4335,
  "mepere": 4336,
  "mahadu": 4337,
  "makwa": 4338,
  "mah": 4339,
  "lọtara": 4340,
  "ling": 4341,
  "lighị": 4342,
  "legodị": 4343,
  "leagu": 4344,
  "lazarọs": 4345,
  "lt": 4346,
  "l,": 4347,
  "kwụsị.": 4348,
  "kporo": 4349,
  "hony": 4350,
  "hiere": 4351,
  "gwakwa": 4352,
  "gbapụta": 4353,
  "ga-ebute": 4354,
  "fim": 4355,
  "ezie,": 4356,
  "etiela": 4357,
  "ekwesị.": 4358,
  "ejima": 4359,
  "ebumnuche": 4360,
  "echere": 4361,
  "da,": 4362,
  "dọọ": 4363,
  "dne": 4364,
  "chiburu": 4365,
  "chara.": 4366,
  "bekee,": 4367,
  "bar": 4368,
  "arụkwaghị": 4369,
  "amabeghị": 4370,
  "akụnụ": 4371,
  "akparamagwa": 4372,
  "a.”": 4373,
  "akọrọ": 4374,
  "akwara": 4375,
  "ajị": 4376,
  "achọrọ": 4377,
  "abị": 4378,
  "abara": 4379,
  "Yobe": 4380,
  "Uzodinma": 4381,
  "Uwa": 4382,
  "Taraba": 4383,
  "Spa": 4384,
  "Oscar": 4385,
  "Onwuama": 4386,
  "Omoyele": 4387,
  "Oha": 4388,
  "Norwich": 4389,
  "NB": 4390,
  "Madagas": 4391,
  "Ji": 4392,
  "Italy": 4393,
  "Igh": 4394,
  "Idi": 4395,
  "Ekiti": 4396,
  "Dabiri": 4397,
  "Dino": 4398,
  "DAC": 4399,
  "Cross": 4400,
  "Can": 4401,
  "Brexit": 4402,
  "Anthony": 4403,
  "Adesina": 4404,
  "Abraham": 4405,
  "Azikiwe": 4406,
  "30,": 4407,
  "-4": 4408,
  ",”": 4409,
  "\"\"n'\"": 4410,
  "\"ka\"": 4411,
  "ọzọ?": 4412,
  "ọmụma": 4413,
  "ịkọrọ": 4414,
  "ya-": 4415,
  "wenezde.": 4416,
  "vie": 4417,
  "uju.": 4418,
  "tọzde.": 4419,
  "sila": 4420,
  "suru": 4421,
  "oyiegwu": 4422,
  "otiegwu": 4423,
  "on,": 4424,
  "ohi.": 4425,
  "nwekwa": 4426,
  "nwa.": 4427,
  "ntuzi": 4428,
  "niile.”": 4429,
  "na-ebuso": 4430,
  "na-ekpere": 4431,
  "na-arụpụta": 4432,
  "na-akasi": 4433,
  "na-akwọ": 4434,
  "na-abị": 4435,
  "na-ara": 4436,
  "napụrụ": 4437,
  "nọchị": 4438,
  "nzọ": 4439,
  "nor": 4440,
  "nchere": 4441,
  "mọnde.": 4442,
  "mma.”": 4443,
  "mkparị": 4444,
  "mezịrị": 4445,
  "mewe": 4446,
  "mel": 4447,
  "kpọkuola": 4448,
  "kpuo": 4449,
  "kah": 4450,
  "janụ": 4451,
  "janụwarị": 4452,
  "injin": 4453,
  "ilekọta": 4454,
  "hị": 4455,
  "gụtara": 4456,
  "ga-adịkwa": 4457,
  "ga-apụta": 4458,
  "ga-adịrị": 4459,
  "gala": 4460,
  "gabigara": 4461,
  "fị": 4462,
  "ewepụ": 4463,
  "enyi,": 4464,
  "ence": 4465,
  "emela": 4466,
  "elekọta": 4467,
  "ebi.”": 4468,
  "eku": 4469,
  "dọtara": 4470,
  "degara": 4471,
  "chi.": 4472,
  "chasị": 4473,
  "cc": 4474,
  "bọjet": 4475,
  "buka": 4476,
  "baịbụl?": 4477,
  "agwụla": 4478,
  "adịla": 4479,
  "aja,": 4480,
  "ag": 4481,
  "York": 4482,
  "Tacha": 4483,
  "Togo": 4484,
  "Sokoto": 4485,
  "Peoples": 4486,
  "Operation": 4487,
  "Ope": 4488,
  "Norway": 4489,
  "Njikọka": 4490,
  "NAFDAC": 4491,
  "Mon": 4492,
  "Kat": 4493,
  "Ighalo": 4494,
  "Germany": 4495,
  "General": 4496,
  "Ezeife": 4497,
  "Economic": 4498,
  "Edo": 4499,
  "Dave": 4500,
  "Don": 4501,
  "Den": 4502,
  "Congo": 4503,
  "Chukwuemeka": 4504,
  "Channel": 4505,
  "Bru": 4506,
  "Bles": 4507,
  "Anajemba": 4508,
  "Amaechi": 4509,
  "Algeria": 4510,
  "Adama": 4511,
  "Action": 4512,
  "2016.": 4513,
  "20,": 4514,
  "15,": 4515,
  ".\"n'\"": 4516,
  ".\"ihe\"": 4517,
  "ụtụtụ,": 4518,
  "ọgọst,": 4519,
  "ọchị.": 4520,
  "ịntaneti.": 4521,
  "ịkpe": 4522,
  "zighị": 4523,
  "wulite": 4524,
  "ww.": 4525,
  "www.": 4526,
  "verton": 4527,
  "vre": 4528,
  "ustom": 4529,
  "ume.": 4530,
  "un": 4531,
  "tee": 4532,
  "stine": 4533,
  "strị": 4534,
  "spen.": 4535,
  "selitere": 4536,
  "saụdi": 4537,
  "rystal": 4538,
  "riterela": 4539,
  "onyinye,": 4540,
  "osu": 4541,
  "ost": 4542,
  "oni": 4543,
  "ogu": 4544,
  "nịstrị": 4545,
  "nyegara": 4546,
  "nyefee": 4547,
  "nwaokorobịa": 4548,
  "nrụrịta": 4549,
  "nka,": 4550,
  "na-ebipụta": 4551,
  "na-anata": 4552,
  "mịnịstrị": 4553,
  "mkpị": 4554,
  "maka\"": 4555,
  "magburu": 4556,
  "luk": 4557,
  "listra": 4558,
  "ls": 4559,
  "lle": 4560,
  "kọọla": 4561,
  "kwube": 4562,
  "kwesịghị": 4563,
  "krismas": 4564,
  "kpoko": 4565,
  "jụụ": 4566,
  "jw.": 4567,
  "iko.": 4568,
  "icheiche.": 4569,
  "iberibe": 4570,
  "ima": 4571,
  "hiwe": 4572,
  "gharịala": 4573,
  "gawa,": 4574,
  "ga-emeri": 4575,
  "ga-aghọta": 4576,
  "fai": 4577,
  "ezigbote": 4578,
  "esom": 4579,
  "ekere": 4580,
  "chọwa": 4581,
  "chere?": 4582,
  "bụna": 4583,
  "bur": 4584,
  "buola": 4585,
  "buliri": 4586,
  "buike": 4587,
  "bour": 4588,
  "bedel": 4589,
  "ball": 4590,
  "anish": 4591,
  "anaghịkwa": 4592,
  "ando": 4593,
  "akwụsịghị": 4594,
  "agbụ": 4595,
  "agafeela": 4596,
  "achụm": 4597,
  "abụbọ": 4598,
  "abalị,": 4599,
  "Wat": 4600,
  "Women": 4601,
  "Udo": 4602,
  "Turke": 4603,
  "Trans": 4604,
  "Spanish": 4605,
  "Samson": 4606,
  "Rufai": 4607,
  "Road": 4608,
  "Osita": 4609,
  "Organi": 4610,
  "Obiora": 4611,
  "Osa": 4612,
  "Ondo": 4613,
  "Oli": 4614,
  "Nyesom": 4615,
  "Nwankwo": 4616,
  "Now": 4617,
  "Kayode": 4618,
  "JAM": 4619,
  "JAMB": 4620,
  "IMF": 4621,
  "Hope": 4622,
  "Gol": 4623,
  "Foot": 4624,
  "Fren": 4625,
  "Fore": 4626,
  "Flo": 4627,
  "Fes": 4628,
  "FB": 4629,
  "FBI": 4630,
  "Enyinnaya": 4631,
  "Everton": 4632,
  "Cosmas": 4633,
  "Community": 4634,
  "Codeine": 4635,
  "Chido": 4636,
  "Chidi": 4637,
  "Channels": 4638,
  "Custom": 4639,
  "APC.": 4640,
  "Aso": 4641,
  "AT": 4642,
  "A)": 4643,
  "60": 4644,
  "33": 4645,
  "194": 4646,
  "“ị": 4647,
  "ụtụisi": 4648,
  "ụmụaka.": 4649,
  "ụlọọgwụ.": 4650,
  "ụlọelu": 4651,
  "ọnụahịa": 4652,
  "ọkwụ": 4653,
  "ịrịọ": 4654,
  "ịmalite": 4655,
  "ịgbaghara": 4656,
  "èvre": 4657,
  "wenezde,": 4658,
  "ward": 4659,
  "uteeze": 4660,
  "ustin": 4661,
  "urundi": 4662,
  "udo,": 4663,
  "tụkwasịrị": 4664,
  "tọọ": 4665,
  "tozuru": 4666,
  "tical": 4667,
  "tany": 4668,
  "tanyahu": 4669,
  "stru": 4670,
  "sion": 4671,
  "shola": 4672,
  "pende": 4673,
  "pap": 4674,
  "ogle": 4675,
  "ofesi.": 4676,
  "obi?": 4677,
  "onwere": 4678,
  "nzukọ.": 4679,
  "ntuziaka": 4680,
  "nso,": 4681,
  "nich": 4682,
  "ngwan": 4683,
  "ngagwa": 4684,
  "ne,": 4685,
  "na-ekpegara": 4686,
  "na-esiri": 4687,
  "na-edozi": 4688,
  "na-agbasa": 4689,
  "na-anya": 4690,
  "nangagwa": 4691,
  "nha": 4692,
  "mọnde,": 4693,
  "mnesty": 4694,
  "mgbagwoju": 4695,
  "ma.": 4696,
  "ma\"": 4697,
  "mkpụ": 4698,
  "list": 4699,
  "lint": 4700,
  "laghachiri": 4701,
  "kọwaa,": 4702,
  "kwuwe": 4703,
  "kirie": 4704,
  "keke": 4705,
  "karịchara": 4706,
  "kali": 4707,
  "jupụta": 4708,
  "jeria": 4709,
  "iwepụta": 4710,
  "iwe,": 4711,
  "injinịa": 4712,
  "ille": 4713,
  "ikpe,": 4714,
  "ibu.": 4715,
  "isu": 4716,
  "imeri": 4717,
  "hụla": 4718,
  "hai": 4719,
  "ha-": 4720,
  "gworo": 4721,
  "gosipụta": 4722,
  "ghton": 4723,
  "gbanyere": 4724,
  "ga-ewere": 4725,
  "ga-ewepụ": 4726,
  "ga-asọ": 4727,
  "ga-aba": 4728,
  "fèvre": 4729,
  "ezinaụlọ": 4730,
  "ezi,": 4731,
  "esonye": 4732,
  "erughị": 4733,
  "ere.": 4734,
  "ekwetaghị": 4735,
  "ekweta": 4736,
  "egbe.": 4737,
  "enwee": 4738,
  "dunyere": 4739,
  "dowere": 4740,
  "chabeghị": 4741,
  "bụ?": 4742,
  "bịlọ": 4743,
  "bipụtara": 4744,
  "babịlọ": 4745,
  "bn": 4746,
  "alace": 4747,
  "alaala": 4748,
  "aljeria": 4749,
  "akwụna": 4750,
  "ahazi": 4751,
  "ahapụla": 4752,
  "aghọtaghị": 4753,
  "agaghịkwa": 4754,
  "adịghị.": 4755,
  "ato": 4756,
  "abọ": 4757,
  "Turkey": 4758,
  "Spain": 4759,
  "Soludo": 4760,
  "Solo": 4761,
  "Second": 4762,
  "Sia": 4763,
  "Ruga": 4764,
  "Regi": 4765,
  "Rwan": 4766,
  "Prima": 4767,
  "Phi": 4768,
  "Ph": 4769,
  "Okechukwu": 4770,
  "Ojo": 4771,
  "Obo": 4772,
  "Netanyahu": 4773,
  "NYSC": 4774,
  "Musta": 4775,
  "Munich": 4776,
  "Mnangagwa": 4777,
  "Lefèvre": 4778,
  "Lan": 4779,
  "Keshi": 4780,
  "Juventus": 4781,
  "Inde": 4782,
  "Ibe": 4783,
  "Iba": 4784,
  "Grace": 4785,
  "Google": 4786,
  "Federation": 4787,
  "Ebola": 4788,
  "Equ": 4789,
  "Ekwu": 4790,
  "EU": 4791,
  "Chike": 4792,
  "Crystal": 4793,
  "Boy": 4794,
  "Burundi": 4795,
  "Ber": 4796,
  "Australia": 4797,
  "America": 4798,
  "Abike": 4799,
  "Ash": 4800,
  "27": 4801,
  "--": 4802,
  "\"\".\"": 4803,
  "“otu": 4804,
  "“obi": 4805,
  "“anyị": 4806,
  "’,": 4807,
  "ụmụahịa": 4808,
  "ọrụ)": 4809,
  "ọka.": 4810,
  "ọchịchịrị": 4811,
  "ịpụ": 4812,
  "ịkpụ": 4813,
  "ịkpatara": 4814,
  "zọpụtara": 4815,
  "zipụrụ": 4816,
  "yrus": 4817,
  "ychel": 4818,
  "ychelles": 4819,
  "vement": 4820,
  "uri": 4821,
  "tics": 4822,
  "taa?": 4823,
  "teri": 4824,
  "suo": 4825,
  "som": 4826,
  "shia": 4827,
  "ses": 4828,
  "satọdee": 4829,
  "rinho": 4830,
  "ril": 4831,
  "papyrus": 4832,
  "ozuzo": 4833,
  "oleekwanụ": 4834,
  "ohu.": 4835,
  "ogidi": 4836,
  "oju": 4837,
  "nyụọ": 4838,
  "nyochara": 4839,
  "nwayọọ,": 4840,
  "ntọala": 4841,
  "nsogbu,": 4842,
  "nsibidi": 4843,
  "nnwereonwe": 4844,
  "ndọ": 4845,
  "nchụaja": 4846,
  "na-erubeghị": 4847,
  "na-emekarị": 4848,
  "na-akpọtụ": 4849,
  "na-achọghị": 4850,
  "na-agọ": 4851,
  "napụ": 4852,
  "nisi": 4853,
  "mọn": 4854,
  "mmezu": 4855,
  "mkpa,": 4856,
  "mgbe\"": 4857,
  "mgbali": 4858,
  "mesaya": 4859,
  "mejọrọ": 4860,
  "mbize": 4861,
  "manyere": 4862,
  "ms": 4863,
  "mkpo": 4864,
  "mbịa": 4865,
  "luk,": 4866,
  "kụta": 4867,
  "kwukwara,": 4868,
  "kpọmkwem": 4869,
  "kasie": 4870,
  "kap": 4871,
  "kamel": 4872,
  "jirikwa": 4873,
  "ijide": 4874,
  "ibuli": 4875,
  "ibido": 4876,
  "huru": 4877,
  "gụwa": 4878,
  "gbanwere": 4879,
  "gbagbuo": 4880,
  "gara,": 4881,
  "gan": 4882,
  "fraịde,": 4883,
  "fransị": 4884,
  "esila": 4885,
  "esere": 4886,
  "eriela": 4887,
  "esiri": 4888,
  "debere": 4889,
  "dg": 4890,
  "chutu": 4891,
  "chebara": 4892,
  "cha,": 4893,
  "chan": 4894,
  "bịaara": 4895,
  "bughị": 4896,
  "biri.": 4897,
  "bilie": 4898,
  "bi,": 4899,
  "baptizim,": 4900,
  "awụsa": 4901,
  "awakpoola": 4902,
  "atụọla": 4903,
  "anusi": 4904,
  "ania": 4905,
  "amanye": 4906,
  "akwụghị": 4907,
  "akubu": 4908,
  "aha.": 4909,
  "agbalị": 4910,
  "abanye": 4911,
  "abaala": 4912,
  "agara": 4913,
  "Yusuf": 4914,
  "Yakubu": 4915,
  "Watford": 4916,
  "Wal": 4917,
  "Villa": 4918,
  "Udemba.": 4919,
  "Tunisi": 4920,
  "Tanzania": 4921,
  "Seychelles": 4922,
  "Que": 4923,
  "Osho": 4924,
  "Ngo": 4925,
  "Mourinho": 4926,
  "Maina": 4927,
  "Magu": 4928,
  "Korea": 4929,
  "Kon": 4930,
  "Jong-": 4931,
  "Jor": 4932,
  "Independe": 4933,
  "High": 4934,
  "Gre": 4935,
  "Gi": 4936,
  "French": 4937,
  "Federer": 4938,
  "Brighton": 4939,
  "Blessing": 4940,
  "Bala": 4941,
  "Awgu": 4942,
  "Arabi": 4943,
  "Ange": 4944,
  "Abe": 4945,
  ";)": 4946,
  "2018:": 4947,
  "2017,": 4948,
  "2014.": 4949,
  "10,": 4950,
  "\"\"na\"": 4951,
  "“mkpụrụ": 4952,
  "ụkwụ.": 4953,
  "ụkwa": 4954,
  "ọtọ,": 4955,
  "ọstra": 4956,
  "ọghọ": 4957,
  "ịnapụ": 4958,
  "ịnweta": 4959,
  "ịna-eche": 4960,
  "zụtara": 4961,
  "ube": 4962,
  "tụkwasị": 4963,
  "tọghapụ": 4964,
  "tia": 4965,
  "sekọnd": 4966,
  "sekọndrị": 4967,
  "saac": 4968,
  "satara": 4969,
  "sọrọ": 4970,
  "sley": 4971,
  "rah": 4972,
  "que": 4973,
  "part": 4974,
  "pre": 4975,
  "por": 4976,
  "osisi,": 4977,
  "ord": 4978,
  "ongworo": 4979,
  "oleezi": 4980,
  "oloko": 4981,
  "okwuchukwu": 4982,
  "obiano,": 4983,
  "obere.": 4984,
  "ogwu": 4985,
  "nwa,": 4986,
  "nkeọma": 4987,
  "nkem": 4988,
  "nie": 4989,
  "nghọtahie": 4990,
  "nebọ": 4991,
  "ndịọrụ": 4992,
  "ndina": 4993,
  "ndagwuru": 4994,
  "ndagwurugwu": 4995,
  "na-atụghị": 4996,
  "na-akpọ\"": 4997,
  "na-akpatara": 4998,
  "na-agagharị": 4999,
  "na-awakpo": 5000,
  "na-aghọ": 5001,
  "nan": 5002,
  "mmy": 5003,
  "mgbe,": 5004,
  "mgbọrọ": 5005,
  "mezie": 5006,
  "mbụ:": 5007,
  "machie": 5008,
  "mpụta": 5009,
  "kwupụta": 5010,
  "kwesịkwara": 5011,
  "juo": 5012,
  "jenesi": 5013,
  "izu,": 5014,
  "izrel,": 5015,
  "imiri": 5016,
  "ichefu": 5017,
  "gwongworo": 5018,
  "gosipụtara": 5019,
  "ghịkwa": 5020,
  "gement": 5021,
  "gburugburu,": 5022,
  "gboo,": 5023,
  "gbochiri": 5024,
  "ga-echeta": 5025,
  "ga-abụrịrị": 5026,
  "ga-akwa": 5027,
  "ga,": 5028,
  "fọdụzie": 5029,
  "ful": 5030,
  "ffield": 5031,
  "ewepụtala": 5032,
  "etiti.": 5033,
  "era": 5034,
  "er,": 5035,
  "ekwesighị": 5036,
  "ekperi": 5037,
  "emerụ": 5038,
  "dịzị": 5039,
  "dịna": 5040,
  "dgz.": 5041,
  "dah": 5042,
  "ctoral": 5043,
  "chọrọ,": 5044,
  "chineke.”": 5045,
  "chegodị": 5046,
  "bor": 5047,
  "bal": 5048,
  "aron": 5049,
  "anụ.": 5050,
  "angers": 5051,
  "anaghịzi": 5052,
  "akụọla": 5053,
  "akwụwa": 5054,
  "ahụike,": 5055,
  "agbaghara": 5056,
  "agbarụọla": 5057,
  "achụpụla": 5058,
  "abuja,": 5059,
  "abalị.": 5060,
  "akpụrụ": 5061,
  "Whi": 5062,
  "VC": 5063,
  "Umeh": 5064,
  "Tiwa": 5065,
  "Sheffield": 5066,
  "Sha": 5067,
  "SSOB": 5068,
  "Rangers": 5069,
  "Queen": 5070,
  "Patri": 5071,
  "Oyo": 5072,
  "Oki": 5073,
  "Nigeria:": 5074,
  "Ndubu": 5075,
  "Mohamed": 5076,
  "Ministry": 5077,
  "Martin": 5078,
  "MASSOB": 5079,
  "Law": 5080,
  "Katsina": 5081,
  "Jide": 5082,
  "Ibadan": 5083,
  "Isaac": 5084,
  "Ire": 5085,
  "Hou": 5086,
  "Hen": 5087,
  "Hau": 5088,
  "Gabon": 5089,
  "Forest": 5090,
  "Festus": 5091,
  "Fri": 5092,
  "Electoral": 5093,
  "Customs": 5094,
  "Camp": 5095,
  "Cla": 5096,
  "BBNaija": 5097,
  "Anya": 5098,
  "Anti": 5099,
  "Amu": 5100,
  "Ami": 5101,
  "AI": 5102,
  "45": 5103,
  "40": 5104,
  "2020.": 5105,
  "2015,": 5106,
  "195": 5107,
  "11,": 5108,
  "(S": 5109,
  "“na-": 5110,
  "ọsịsa": 5111,
  "ọrịa,": 5112,
  "ọktoba.": 5113,
  "ọchịagha": 5114,
  "ọb": 5115,
  "ịkwụwa": 5116,
  "ịwakpo": 5117,
  "ịbata": 5118,
  "zipuru": 5119,
  "zịa": 5120,
  "yemi": 5121,
  "yị": 5122,
  "ymar": 5123,
  "tụụrụ": 5124,
  "soja": 5125,
  "shua": 5126,
  "rumba": 5127,
  "rish": 5128,
  "rahụ": 5129,
  "pụtaghị": 5130,
  "pụ.": 5131,
  "pọtị": 5132,
  "pas": 5133,
  "ozizi": 5134,
  "ojuju": 5135,
  "oge\"": 5136,
  "oo": 5137,
  "nụ!": 5138,
  "nzuzu": 5139,
  "nwunye.": 5140,
  "nwuchiri": 5141,
  "nweghịzi": 5142,
  "nweere": 5143,
  "ntọrọ": 5144,
  "nka.": 5145,
  "ngwa,": 5146,
  "ngwere": 5147,
  "neu": 5148,
  "na-emezu": 5149,
  "na-emefu": 5150,
  "na-arụkọ": 5151,
  "na-agba.": 5152,
  "na-anabata": 5153,
  "nwakpo": 5154,
  "mou": 5155,
  "mmụọ,": 5156,
  "mmebi": 5157,
  "mepụtagoro": 5158,
  "mechakwara": 5159,
  "meya": 5160,
  "men": 5161,
  "marị": 5162,
  "m?": 5163,
  "lius": 5164,
  "lebe": 5165,
  "lam": 5166,
  "lụwa": 5167,
  "kwusa": 5168,
  "kwuputa": 5169,
  "kwetere": 5170,
  "kpọpụtara": 5171,
  "kpuchie": 5172,
  "kpataara": 5173,
  "kagbuo": 5174,
  "kaa": 5175,
  "ker": 5176,
  "jisie": 5177,
  "jọọ": 5178,
  "iteghete,": 5179,
  "inab": 5180,
  "imirikiti": 5181,
  "ime-": 5182,
  "ikpa": 5183,
  "hụtara": 5184,
  "hoohaa": 5185,
  "hibe": 5186,
  "ha:": 5187,
  "gọọmentị,": 5188,
  "gịnị?": 5189,
  "gịnwa": 5190,
  "gua": 5191,
  "gharazie": 5192,
  "ghaara": 5193,
  "ge:": 5194,
  "gburugburu.": 5195,
  "gbu.": 5196,
  "gboo.": 5197,
  "gbasaa": 5198,
  "gbanụ": 5199,
  "ga-eke": 5200,
  "ga-akpa": 5201,
  "ga-agwụ": 5202,
  "gọrọ": 5203,
  "enyeghị": 5204,
  "enwebeghị": 5205,
  "emeodo": 5206,
  "eme,": 5207,
  "ekwughị": 5208,
  "ekpenta": 5209,
  "ekeresime": 5210,
  "eyi": 5211,
  "ete": 5212,
  "ekike": 5213,
  "ee,": 5214,
  "dinta": 5215,
  "dekwara": 5216,
  "chefuo": 5217,
  "ctu": 5218,
  "col": 5219,
  "bịaruo": 5220,
  "bịakwutere": 5221,
  "buso": 5222,
  "briel": 5223,
  "bee": 5224,
  "bọrọ": 5225,
  "apụọla": 5226,
  "anwụọ.": 5227,
  "andu": 5228,
  "amabeghi": 5229,
  "aland": 5230,
  "akwalite": 5231,
  "akpụpụla": 5232,
  "akpịrị": 5233,
  "aka.”": 5234,
  "ahụkwa": 5235,
  "agaghịzi": 5236,
  "agaa": 5237,
  "afụ": 5238,
  "asịrị": 5239,
  "as": 5240,
  "Zealand": 5241,
  "Zainab": 5242,
  "War": 5243,
  "Uba": 5244,
  "Tech": 5245,
  "Syria": 5246,
  "Rwanda": 5247,
  "Po": 5248,
  "Onyema": 5249,
  "Okeke": 5250,
  "Nnabuihe": 5251,
  "Neymar": 5252,
  "Nasara": 5253,
  "Movement": 5254,
  "Moses": 5255,
  "Mal": 5256,
  "Lo": 5257,
  "Kukah": 5258,
  "Khafi": 5259,
  "Ko": 5260,
  "Jideọfọ": 5261,
  "Jere": 5262,
  "Indo": 5263,
  "Isi": 5264,
  "IA": 5265,
  "Gover": 5266,
  "Gabriel": 5267,
  "Ejike": 5268,
  "Dru": 5269,
  "Dike": 5270,
  "Cyril": 5271,
  "Ci": 5272,
  "Arabia": 5273,
  "Andrew": 5274,
  "Abacha": 5275,
  "Amo": 5276,
  "Achu": 5277,
  ";,": 5278,
  "2007": 5279,
  "2-": 5280,
  "14)": 5281,
  "\"ihe\"": 5282,
  "\"anyị\"": 5283,
  "“ha": 5284,
  "ụlọoriri": 5285,
  "ụjọ.": 5286,
  "ụgbọala.": 5287,
  "ụgwọọ": 5288,
  "ụdọ": 5289,
  "ọzọ.”": 5290,
  "ọnwa.": 5291,
  "ọgụ,": 5292,
  "ọghọm": 5293,
  "ọdọahịa": 5294,
  "ọrumba": 5295,
  "ịgbasa": 5296,
  "ịnata": 5297,
  "ịla": 5298,
  "ṅomie": 5299,
  "yie": 5300,
  "yu": 5301,
  "windo": 5302,
  "wepu": 5303,
  "ugbua?": 5304,
  "ugboro.": 5305,
  "ugbog": 5306,
  "ugbo,": 5307,
  "udele": 5308,
  "ul": 5309,
  "uke": 5310,
  "tuuru": 5311,
  "thy": 5312,
  "tro": 5313,
  "sịga,": 5314,
  "sịala": 5315,
  "sighị": 5316,
  "shing": 5317,
  "sasịa": 5318,
  "rịọkwa": 5319,
  "rula": 5320,
  "pital": 5321,
  "penal": 5322,
  "penalty": 5323,
  "paradaịs": 5324,
  "onwebeghị": 5325,
  "omume.": 5326,
  "onel": 5327,
  "nọgidere": 5328,
  "nwamkpị": 5329,
  "nubu": 5330,
  "nnupụ": 5331,
  "nkịtị.": 5332,
  "njọ,": 5333,
  "njem.": 5334,
  "niile?": 5335,
  "ngwa.": 5336,
  "neumo": 5337,
  "nchekwube": 5338,
  "na-enyekwa": 5339,
  "na-ejikwa": 5340,
  "na-atụnye": 5341,
  "na-atụbata": 5342,
  "nkarị": 5343,
  "mpị": 5344,
  "mpanọ": 5345,
  "mmerson": 5346,
  "mmadụ?": 5347,
  "mmanya.": 5348,
  "mkpụrụ.": 5349,
  "mgbọrọgwụ": 5350,
  "meyang": 5351,
  "melu": 5352,
  "mbịarambịara": 5353,
  "marakwa": 5354,
  "mara,": 5355,
  "maachị.": 5356,
  "mam": 5357,
  "loma": 5358,
  "lia.": 5359,
  "lekọta": 5360,
  "latara": 5361,
  "kwuchara": 5362,
  "kweghị": 5363,
  "kasiri": 5364,
  "kampanọ": 5365,
  "kh": 5366,
  "jie": 5367,
  "iyi.": 5368,
  "itoolu,": 5369,
  "ihiwe": 5370,
  "ifufe": 5371,
  "ha;": 5372,
  "gwaziri": 5373,
  "ghachite": 5374,
  "gburu.": 5375,
  "gbọrọ": 5376,
  "ga-erite": 5377,
  "ga-eleba": 5378,
  "ga-agbanwe": 5379,
  "ga-akwado": 5380,
  "gaa.": 5381,
  "fiele": 5382,
  "eziokwu.”": 5383,
  "esighị": 5384,
  "enyi.": 5385,
  "enugwu-ukwu": 5386,
  "emeghi": 5387,
  "election": 5388,
  "ejighi": 5389,
  "eburula": 5390,
  "ebiri": 5391,
  "ebe\"": 5392,
  "dor": 5393,
  "ders": 5394,
  "chịkọbara": 5395,
  "chapụrụ": 5396,
  "cco": 5397,
  "bụru": 5398,
  "bịbịa": 5399,
  "burg": 5400,
  "bameyang": 5401,
  "asaba": 5402,
  "anyị.”": 5403,
  "anwụchi": 5404,
  "an,": 5405,
  "ala?": 5406,
  "akụzi": 5407,
  "akwadola": 5408,
  "akpaego": 5409,
  "ahụhụ,": 5410,
  "agwaala": 5411,
  "achụmnta": 5412,
  "achụpụ": 5413,
  "abụbụọrụ": 5414,
  "abịaghị": 5415,
  "abịa,": 5416,
  "ana-eme": 5417,
  "akw": 5418,
  "aa": 5419,
  "Zidan": 5420,
  "Xenophobia": 5421,
  "Wole": 5422,
  "UT": 5423,
  "Tinubu": 5424,
  "Solomon": 5425,
  "Siasia": 5426,
  "Secondary": 5427,
  "Russia": 5428,
  "Rock": 5429,
  "Powerful": 5430,
  "Paris": 5431,
  "Per": 5432,
  "Palace": 5433,
  "Onwuamaegbu": 5434,
  "Otti": 5435,
  "Ngozi": 5436,
  "Nu": 5437,
  "NPC": 5438,
  "NNPC": 5439,
  "Morsi": 5440,
  "Management": 5441,
  "Mat": 5442,
  "Mali": 5443,
  "Moro": 5444,
  "Mc": 5445,
  "Lionel": 5446,
  "Kabi": 5447,
  "Jordan": 5448,
  "Ireland": 5449,
  "Haram.": 5450,
  "HO": 5451,
  "Fi": 5452,
  "Emefiele": 5453,
  "Emmerson": 5454,
  "Chukwuma": 5455,
  "Chile": 5456,
  "Bale": 5457,
  "Bridge": 5458,
  "Bebe": 5459,
  "Aubameyang": 5460,
  "Anglịkan": 5461,
  "Alha": 5462,
  "Al-": 5463,
  "Abang": 5464,
  "Asi": 5465,
  "Agbo": 5466,
  "2012": 5467,
  "14,": 5468,
  ".\"mana\"": 5469,
  "(APC": 5470,
  "\"ndị\"": 5471,
  "”.": 5472,
  "“mmadụ": 5473,
  "“dị": 5474,
  "ụlọikwu": 5475,
  "ụlọikwuu": 5476,
  "ụkwụ,": 5477,
  "ụgwọọnwa": 5478,
  "ọnịcha.": 5479,
  "ọgwụ,": 5480,
  "ọdụm": 5481,
  "ọta": 5482,
  "ọbịbịa": 5483,
  "ịgbaso": 5484,
  "ịsa": 5485,
  "ịnọchite": 5486,
  "ịnwụchi": 5487,
  "ịnwe": 5488,
  "ịghọ": 5489,
  "ị\"": 5490,
  "zon": 5491,
  "zbọ": 5492,
  "yana": 5493,
  "yabụ": 5494,
  "yọ": 5495,
  "wal": 5496,
  "waa": 5497,
  "wụrụ": 5498,
  "utu": 5499,
  "tute": 5500,
  "thur": 5501,
  "sọl": 5502,
  "siriri": 5503,
  "sir": 5504,
  "sin": 5505,
  "shington": 5506,
  "sanya": 5507,
  "rụpụtara": 5508,
  "rube": 5509,
  "ries": 5510,
  "pụọ,": 5511,
  "pastọ": 5512,
  "pta": 5513,
  "pa,": 5514,
  "onyendu": 5515,
  "omume,": 5516,
  "okeosisi": 5517,
  "ojiegbe": 5518,
  "ogene": 5519,
  "odee": 5520,
  "oj": 5521,
  "odi": 5522,
  "nyerela": 5523,
  "nsụgharị": 5524,
  "nna,": 5525,
  "nkịrị": 5526,
  "ni,": 5527,
  "ngwangwa": 5528,
  "neumonia": 5529,
  "nebuka": 5530,
  "nebukadne": 5531,
  "ndịisi": 5532,
  "na-ekwu,": 5533,
  "na-egbochi": 5534,
  "na-echi": 5535,
  "na-echere": 5536,
  "na-asụgharị": 5537,
  "na-akpọku": 5538,
  "na-agụsi": 5539,
  "na-anwa": 5540,
  "na-akwalite": 5541,
  "na-akparịta": 5542,
  "na-abanye": 5543,
  "nant": 5544,
  "nchọ": 5545,
  "mụnwa": 5546,
  "mkpegharị": 5547,
  "mgbago": 5548,
  "mechara,": 5549,
  "megoro": 5550,
  "mebi": 5551,
  "matakwa": 5552,
  "malitere.": 5553,
  "mato": 5554,
  "manye": 5555,
  "mad": 5556,
  "mson": 5557,
  "m)": 5558,
  "los": 5559,
  "llion": 5560,
  "life": 5561,
  "lee!": 5562,
  "latịn": 5563,
  "kwuokwa": 5564,
  "kwa.": 5565,
  "kuziere": 5566,
  "kpọkukwazie": 5567,
  "kpor": 5568,
  "kpakp": 5569,
  "kpakpando": 5570,
  "kemgbe.": 5571,
  "kedụ\"": 5572,
  "kewara": 5573,
  "kapito": 5574,
  "kachara": 5575,
  "ka-": 5576,
  "jara": 5577,
  "jani": 5578,
  "ijipt,": 5579,
  "igwe,": 5580,
  "idozi": 5581,
  "haziri": 5582,
  "gọọmentị.": 5583,
  "gwupụtara": 5584,
  "gbago": 5585,
  "gbado": 5586,
  "gbaru": 5587,
  "ga-ezu": 5588,
  "ga-eli": 5589,
  "ga-atọ": 5590,
  "ga-ajụ": 5591,
  "ga-anụ": 5592,
  "frey": 5593,
  "ezighi": 5594,
  "erịrị": 5595,
  "eriri": 5596,
  "enyemaka.": 5597,
  "ekwupu": 5598,
  "ekwetala": 5599,
  "ekpebiela": 5600,
  "ehi,": 5601,
  "ebute": 5602,
  "ebola": 5603,
  "ebe,": 5604,
  "ekwo": 5605,
  "ekpu": 5606,
  "egbuo": 5607,
  "dobe": 5608,
  "diocese": 5609,
  "dee,": 5610,
  "cturing": 5611,
  "card": 5612,
  "bụrụzie": 5613,
  "bezbọ": 5614,
  "babịlọn": 5615,
  "azụmaahịa": 5616,
  "atọhapụla": 5617,
  "arụ.": 5618,
  "arala": 5619,
  "arch": 5620,
  "anwuchiela": 5621,
  "amụrụ": 5622,
  "ahụbeghị": 5623,
  "atu": 5624,
  "agọ": 5625,
  "Weah": 5626,
  "Washington": 5627,
  "Van": 5628,
  "Thomson": 5629,
  "Thi": 5630,
  "Sule": 5631,
  "Regina": 5632,
  "Radio": 5633,
  "Rabi": 5634,
  "Phili": 5635,
  "Pneumonia": 5636,
  "Odume": 5637,
  "Nsuk": 5638,
  "Mustapha": 5639,
  "Leah": 5640,
  "Lassa": 5641,
  "Kingsley": 5642,
  "Kanu:": 5643,
  "Kar": 5644,
  "Independent": 5645,
  "Ilo": 5646,
  "Hos": 5647,
  "Golden": 5648,
  "Fashola": 5649,
  "Fre": 5650,
  "Emzor": 5651,
  "Eliza": 5652,
  "Election:": 5653,
  "El-Rufai": 5654,
  "Ejiofor": 5655,
  "China.": 5656,
  "Chinwe": 5657,
  "CC": 5658,
  "Buhari.": 5659,
  "Bob": 5660,
  "Arthur": 5661,
  "Allen": 5662,
  "Adinu": 5663,
  "Ari": 5664,
  "Amnesty": 5665,
  "Akpa": 5666,
  "90": 5667,
  "2023.": 5668,
  "13)": 5669,
  "11)": 5670,
  ".\"nke\"": 5671,
  "(gbara": 5672,
  "($": 5673,
  "\"bụ\"": 5674,
  "“nke": 5675,
  "“i": 5676,
  "ụtọ.”": 5677,
  "ụgbọelu.": 5678,
  "ụgbọala,": 5679,
  "ụtarị": 5680,
  "ọbaego": 5681,
  "Ọka": 5682,
  "Ọkafọ": 5683,
  "ịtụna": 5684,
  "ịmachi": 5685,
  "ịchọta": 5686,
  "ịchị.": 5687,
  "ịtọ": 5688,
  "zịe": 5689,
  "zere": 5690,
  "yan": 5691,
  "werekwa": 5692,
  "uweojii,": 5693,
  "uru?": 5694,
  "uche.": 5695,
  "umu": 5696,
  "tomato": 5697,
  "tiusde,": 5698,
  "timi": 5699,
  "tico": 5700,
  "therland": 5701,
  "tel": 5702,
  "sus": 5703,
  "structuring": 5704,
  "stant": 5705,
  "s)": 5706,
  "rụwa": 5707,
  "riterela:": 5708,
  "rance": 5709,
  "pọtịfa": 5710,
  "praịmarị": 5711,
  "pse": 5712,
  "oriri.": 5713,
  "ory": 5714,
  "onyeisiala,": 5715,
  "oleekwa": 5716,
  "obi.”": 5717,
  "oba": 5718,
  "nọghị": 5719,
  "nzuzo,": 5720,
  "nwụchiela": 5721,
  "nuk": 5722,
  "nnupụisi": 5723,
  "nlegharị": 5724,
  "nkewa": 5725,
  "nic": 5726,
  "nebọt": 5727,
  "ndụ.”": 5728,
  "ndịda-": 5729,
  "naịjirịa\"": 5730,
  "na-ezighị": 5731,
  "na-eleba": 5732,
  "na-ekwukarị": 5733,
  "na-echebara": 5734,
  "na-eku": 5735,
  "na-eburu": 5736,
  "na-asọpụrụ": 5737,
  "na-agakwa": 5738,
  "na-ala": 5739,
  "na-abọ": 5740,
  "nnọ": 5741,
  "mpton": 5742,
  "mmekpa": 5743,
  "mkpọrọ,": 5744,
  "mi,": 5745,
  "meruru": 5746,
  "mepe": 5747,
  "meghị": 5748,
  "megharịa": 5749,
  "media": 5750,
  "mberede.": 5751,
  "mahadum,": 5752,
  "mago": 5753,
  "mwere": 5754,
  "lue": 5755,
  "lebara": 5756,
  "kwuru\"": 5757,
  "kwuola": 5758,
  "kwenye": 5759,
  "kwekwazie": 5760,
  "kraịst.”": 5761,
  "kpọpụtasịrị": 5762,
  "kpọkuzie": 5763,
  "kenan": 5764,
  "karịsịa": 5765,
  "kaliki": 5766,
  "keri": 5767,
  "ision": 5768,
  "ime-ime": 5769,
  "ilding": 5770,
  "ikwusa": 5771,
  "ikom": 5772,
  "ijikọ": 5773,
  "ibibi": 5774,
  "iberiibe": 5775,
  "ikweta": 5776,
  "gọọmentị\"": 5777,
  "ghani": 5778,
  "gboo?": 5779,
  "gbakọtara": 5780,
  "gbagoro": 5781,
  "ga-emebi": 5782,
  "ga-eme,": 5783,
  "ga-enyocha": 5784,
  "ga-ekpebi": 5785,
  "ga-eche": 5786,
  "ga-anọchite": 5787,
  "ga-anọchi": 5788,
  "ga-awụ": 5789,
  "ga-ala": 5790,
  "ga-akara": 5791,
  "ganye": 5792,
  "gakwuru": 5793,
  "frans": 5794,
  "ezie.": 5795,
  "ezenwaanyị": 5796,
  "ewepụta": 5797,
  "esoghị": 5798,
  "esoghi": 5799,
  "eprel,": 5800,
  "enwete": 5801,
  "emeli": 5802,
  "ekperima": 5803,
  "ekeresimesi": 5804,
  "ebee": 5805,
  "ene": 5806,
  "dịla": 5807,
  "die": 5808,
  "dibịa": 5809,
  "curity": 5810,
  "chịbụrụ": 5811,
  "bịafra.": 5812,
  "burula": 5813,
  "bunye": 5814,
  "bu.": 5815,
  "bio": 5816,
  "baghị": 5817,
  "atụ.": 5818,
  "asị,": 5819,
  "anụmanụ.": 5820,
  "anwụọ,": 5821,
  "amalitere": 5822,
  "alụmdina": 5823,
  "akọwaala": 5824,
  "akarị.": 5825,
  "ajụla": 5826,
  "ahụ;": 5827,
  "agwaghị": 5828,
  "aghọọ": 5829,
  "agbanweela": 5830,
  "agbari": 5831,
  "agọrọla": 5832,
  "adị,": 5833,
  "achọpụtara": 5834,
  "abakaliki": 5835,
  "aṅ": 5836,
  "ast": 5837,
  "alọta": 5838,
  "ali": 5839,
  "WHO": 5840,
  "Vir": 5841,
  "Uloma": 5842,
  "Ter": 5843,
  "South,": 5844,
  "Sanusi": 5845,
  "Rotimi": 5846,
  "Roma": 5847,
  "Red": 5848,
  "PDP.": 5849,
  "Open": 5850,
  "Onyebu": 5851,
  "Odumegwu": 5852,
  "Oga": 5853,
  "Of": 5854,
  "Nwoko": 5855,
  "Nigeria\"": 5856,
  "Mur": 5857,
  "Morocco": 5858,
  "Mogha": 5859,
  "Milan": 5860,
  "Joshua": 5861,
  "Innocent": 5862,
  "Idigo": 5863,
  "Ije": 5864,
  "Ide": 5865,
  "Highlife": 5866,
  "Henry": 5867,
  "Harry": 5868,
  "Godwin": 5869,
  "Football": 5870,
  "FAAN": 5871,
  "Fani": 5872,
  "Elkana": 5873,
  "Emer": 5874,
  "Day:": 5875,
  "Chisom": 5876,
  "Chinu": 5877,
  "CAF": 5878,
  "Border": 5879,
  "Binta": 5880,
  "Bol": 5881,
  "Alhaji": 5882,
  "Adams": 5883,
  "Aya": 5884,
  "Asa": 5885,
  "Ango": 5886,
  "5:": 5887,
  "47": 5888,
  "44": 5889,
  "39": 5890,
  "2:": 5891,
  "10)": 5892,
  ".\"akụkọ\"": 5893,
  ".\"a\"": 5894,
  "-I": 5895,
  "'\"": 5896,
  "“okwu": 5897,
  "“nna": 5898,
  "“ma": 5899,
  "ụwa.”": 5900,
  "ụmụaka,": 5901,
  "ọgọst.": 5902,
  "ọn": 5903,
  "ọha.": 5904,
  "ịnwụ.": 5905,
  "ịnara": 5906,
  "zuga": 5907,
  "zoo": 5908,
  "zia": 5909,
  "wuchiri": 5910,
  "wepụrụ": 5911,
  "unu.”": 5912,
  "unu,": 5913,
  "umengwụ": 5914,
  "ut": 5915,
  "unyi": 5916,
  "udi": 5917,
  "tụrụla": 5918,
  "tụnye": 5919,
  "tunde": 5920,
  "thed": 5921,
  "thedral": 5922,
  "ters": 5923,
  "teta": 5924,
  "te:": 5925,
  "tter": 5926,
  "ts": 5927,
  "sation": 5928,
  "sli": 5929,
  "ruru,": 5930,
  "rituo": 5931,
  "rison": 5932,
  "rial": 5933,
  "res": 5934,
  "refere": 5935,
  "rate": 5936,
  "pound": 5937,
  "ozugbo,": 5938,
  "ozubulu": 5939,
  "owerri,": 5940,
  "ole.": 5941,
  "oland": 5942,
  "ojii,": 5943,
  "ogiri": 5944,
  "oye": 5945,
  "oghe": 5946,
  "obu": 5947,
  "nwụọla": 5948,
  "nwụchịrị": 5949,
  "ntụliaka,": 5950,
  "ntial": 5951,
  "ntabi": 5952,
  "nnes": 5953,
  "nnabata": 5954,
  "nley": 5955,
  "nkesa": 5956,
  "ngwọrọ": 5957,
  "ndụ?": 5958,
  "ndịda-ọwụwa": 5959,
  "ndidi": 5960,
  "nder": 5961,
  "nchekwa.": 5962,
  "na-ekwurịta": 5963,
  "na-ekwukwa": 5964,
  "na-egwupụta": 5965,
  "na-eli": 5966,
  "na-edina": 5967,
  "na-agbanwe": 5968,
  "na-awụ": 5969,
  "na-ahapụ": 5970,
  "na-agwọ": 5971,
  "nza": 5972,
  "nte": 5973,
  "ngwọ": 5974,
  "ngwu": 5975,
  "ner": 5976,
  "mola": 5977,
  "mmetọ": 5978,
  "merube": 5979,
  "merichara": 5980,
  "mere?": 5981,
  "mamịrị": 5982,
  "lịka": 5983,
  "lying": 5984,
  "line": 5985,
  "legọs,": 5986,
  "league": 5987,
  "lation": 5988,
  "lass": 5989,
  "kwụnyere": 5990,
  "kwu,": 5991,
  "kwete": 5992,
  "kwaso": 5993,
  "kunle": 5994,
  "kpọchiri": 5995,
  "kpasuo": 5996,
  "karịchaa,": 5997,
  "kachasi": 5998,
  "kanda": 5999,
  "kach": 6000,
  "jizọs?": 6001,
  "jighị": 6002,
  "jaa": 6003,
  "izuu": 6004,
  "izu.": 6005,
  "izizi": 6006,
  "iweta": 6007,
  "imepụta": 6008,
  "imon": 6009,
  "ileba": 6010,
  "ikesa": 6011,
  "ihe.”": 6012,
  "ig.": 6013,
  "ize": 6014,
  "ikwado": 6015,
  "hụkwara": 6016,
  "hichapụ": 6017,
  "ham,": 6018,
  "haala": 6019,
  "gụpụtara": 6020,
  "gbarala": 6021,
  "gbalahụ": 6022,
  "gbapụtara": 6023,
  "gbanyụ": 6024,
  "gafere,": 6025,
  "ga-eweta": 6026,
  "ga-eme?": 6027,
  "ga-achịwa": 6028,
  "ga-achịpụ": 6029,
  "ga-achụ": 6030,
  "fịọ": 6031,
  "face": 6032,
  "enwela": 6033,
  "elari": 6034,
  "ekwupụtala": 6035,
  "ekewa": 6036,
  "egbughị": 6037,
  "efu.": 6038,
  "echetara": 6039,
  "echekwa": 6040,
  "ebi?": 6041,
  "ebere,": 6042,
  "ex": 6043,
  "ekwere": 6044,
  "ebidoro": 6045,
  "dịgasị": 6046,
  "dowe": 6047,
  "dere.": 6048,
  "cie": 6049,
  "chọro": 6050,
  "chetaara": 6051,
  "chez": 6052,
  "cha.": 6053,
  "city": 6054,
  "bụzịkwa": 6055,
  "binye": 6056,
  "bel": 6057,
  "bara.": 6058,
  "bank": 6059,
  "blọ": 6060,
  "azaghị": 6061,
  "awụọla": 6062,
  "asọpụrụ": 6063,
  "arack": 6064,
  "anụ,": 6065,
  "anwụọla.": 6066,
  "anata": 6067,
  "an.": 6068,
  "alụm": 6069,
  "ahọpụta": 6070,
  "aghaghị": 6071,
  "awu": 6072,
  "awakporo": 6073,
  "amaka": 6074,
  "agboro": 6075,
  "________________": 6076,
  "Ye": 6077,
  "Uchendu": 6078,
  "Us": 6079,
  "Tunisia": 6080,
  "Thai": 6081,
  "Syri": 6082,
  "Security": 6083,
  "Sanchez": 6084,
  "Sadio": 6085,
  "Simon": 6086,
  "Presidential": 6087,
  "Police": 6088,
  "Poly": 6089,
  "Pan": 6090,
  "PVC": 6091,
  "PP": 6092,
  "Onyeama": 6093,
  "Onwuemeodo": 6094,
  "Ogbonna": 6095,
  "Ogbodo": 6096,
  "Oma": 6097,
  "Oby": 6098,
  "Netherland": 6099,
  "Ndidi": 6100,
  "Nasarawa": 6101,
  "Nimo": 6102,
  "Mary": 6103,
  "Mozi": 6104,
  "Mma": 6105,
  "Labour": 6106,
  "Ly": 6107,
  "Ky": 6108,
  "Klint": 6109,
  "Jud": 6110,
  "Josef,": 6111,
  "Hong": 6112,
  "Holy": 6113,
  "Gea": 6114,
  "Gandu": 6115,
  "Friday": 6116,
  "FaceApp": 6117,
  "Flying": 6118,
  "Ekweremadu:": 6119,
  "Evan": 6120,
  "Eri": 6121,
  "Ebe": 6122,
  "ER": 6123,
  "Centre": 6124,
  "Cathedral": 6125,
  "Burnley": 6126,
  "Bill": 6127,
  "Bau": 6128,
  "Barack": 6129,
  "BS": 6130,
  "Ahmad": 6131,
  "Afric": 6132,
  "Afghani": 6133,
  "Adinuba": 6134,
  "AIT": 6135,
  "Awo": 6136,
  "Agba": 6137,
  "88": 6138,
  "77": 6139,
  "19)": 6140,
  "187": 6141,
  "17)": 6142,
  "15)": 6143,
  "-Olu": 6144,
  "-5": 6145,
  "“abụ": 6146,
  "ụmụnwaanyị,": 6147,
  "ụgwọ,": 6148,
  "ọnụego": 6149,
  "ọchị,": 6150,
  "ịrụsi": 6151,
  "ịnabata": 6152,
  "zuruike": 6153,
  "zation": 6154,
  "zagha": 6155,
  "ya.,": 6156,
  "ya:\"": 6157,
  "welitere": 6158,
  "vage": 6159,
  "vision": 6160,
  "uweojii.": 6161,
  "udummiri": 6162,
  "tụdịghị": 6163,
  "tọzde,": 6164,
  "tọgburu": 6165,
  "tuola": 6166,
  "tule": 6167,
  "tufuru": 6168,
  "tors": 6169,
  "tebụ": 6170,
  "tebulu": 6171,
  "tara,": 6172,
  "tado": 6173,
  "tre": 6174,
  "tle": 6175,
  "sụọ": 6176,
  "sịrị,": 6177,
  "surance": 6178,
  "ssey": 6179,
  "social": 6180,
  "siere": 6181,
  "si.": 6182,
  "rụchaa": 6183,
  "rant": 6184,
  "pụọ.": 6185,
  "pụtakwara": 6186,
  "pụtakarịchara": 6187,
  "putere": 6188,
  "partment": 6189,
  "patị": 6190,
  "oyi,": 6191,
  "olas": 6192,
  "okwu?": 6193,
  "ogologo.": 6194,
  "ogidi,": 6195,
  "okwuru": 6196,
  "nwụchikọọ": 6197,
  "nwunye,": 6198,
  "nwute": 6199,
  "ntanet": 6200,
  "nnochite": 6201,
  "nnekwu": 6202,
  "nne,": 6203,
  "nkwupụta": 6204,
  "nkuzi,": 6205,
  "nkasi": 6206,
  "ngozi": 6207,
  "ndị.": 6208,
  "nche,": 6209,
  "na-ezughị": 6210,
  "na-ewepụta": 6211,
  "na-emekpa": 6212,
  "na-eduhie": 6213,
  "na-ebido": 6214,
  "na-arụ.": 6215,
  "na-anọghị": 6216,
  "na-achị.": 6217,
  "na-abụkarị": 6218,
  "nko": 6219,
  "nk": 6220,
  "nch": 6221,
  "mpard": 6222,
  "mood": 6223,
  "mmekọahụ": 6224,
  "mkpata": 6225,
  "mgbe.": 6226,
  "maị": 6227,
  "mọtọ": 6228,
  "mwulite": 6229,
  "mwepụ": 6230,
  "lis": 6231,
  "letico": 6232,
  "lapse": 6233,
  "lag": 6234,
  "kọọ,": 6235,
  "kwụwa": 6236,
  "kwuru,\"": 6237,
  "kwuoro": 6238,
  "kwusiri": 6239,
  "kwunyere": 6240,
  "kwughị": 6241,
  "kwaraji": 6242,
  "kwagara": 6243,
  "kwaga": 6244,
  "kpọkuzịrị": 6245,
  "kpọwa": 6246,
  "kpọta": 6247,
  "kpawa": 6248,
  "kepukepu": 6249,
  "kampanọs": 6250,
  "kagburu": 6251,
  "jisi": 6252,
  "jichiri": 6253,
  "jenesis": 6254,
  "jamanị.": 6255,
  "isiobodo": 6256,
  "ikpebi": 6257,
  "ike?": 6258,
  "ike.”": 6259,
  "inu": 6260,
  "intanet": 6261,
  "ige": 6262,
  "iburu": 6263,
  "huabu": 6264,
  "hara": 6265,
  "gị.”": 6266,
  "gwuo": 6267,
  "guzoro": 6268,
  "ghị,": 6269,
  "ghe,": 6270,
  "gbo,": 6271,
  "gbara.": 6272,
  "gbaburu": 6273,
  "gbaba": 6274,
  "gbari": 6275,
  "garde": 6276,
  "gaghịkwa": 6277,
  "ga-abịa.": 6278,
  "ga-amụ": 6279,
  "ga-akụziri": 6280,
  "ga-abụkwa": 6281,
  "ga-ebe": 6282,
  "gawara": 6283,
  "gaba": 6284,
  "fred": 6285,
  "fety": 6286,
  "fia": 6287,
  "etiti,": 6288,
  "esorola": 6289,
  "erị": 6290,
  "erre": 6291,
  "emecha": 6292,
  "ekwuona": 6293,
  "ekwentị,": 6294,
  "ekwesiri": 6295,
  "ekwenyeghị": 6296,
  "ekpebiri": 6297,
  "ejichiela": 6298,
  "edozi": 6299,
  "echegbu": 6300,
  "ebere.": 6301,
  "dịkarị": 6302,
  "deau": 6303,
  "daura": 6304,
  "da.": 6305,
  "chịwa": 6306,
  "cheta\"": 6307,
  "chegharịa": 6308,
  "chari": 6309,
  "cation": 6310,
  "bụdị": 6311,
  "bịara,": 6312,
  "bịafra,": 6313,
  "bịaziri": 6314,
  "bibiri": 6315,
  "berg": 6316,
  "beth": 6317,
  "be.": 6318,
  "bagidere": 6319,
  "azọpụtala": 6320,
  "atụrụ,": 6321,
  "atọrọla": 6322,
  "atọọrọ": 6323,
  "asọmpi.": 6324,
  "ara,": 6325,
  "ardi": 6326,
  "anụmanụ,": 6327,
  "anyasị": 6328,
  "amịtaghị": 6329,
  "alụkwaghịm.": 6330,
  "alụghị": 6331,
  "akwụọla": 6332,
  "akwadoghị": 6333,
  "akpati": 6334,
  "akari": 6335,
  "abịala": 6336,
  "aịza": 6337,
  "ase": 6338,
  "apa": 6339,
  "alu": 6340,
  "akpọkuola": 6341,
  "adi": 6342,
  "Zidane": 6343,
  "Ya": 6344,
  "Usman": 6345,
  "Ugo": 6346,
  "Tijani": 6347,
  "Techno": 6348,
  "TA": 6349,
  "Social": 6350,
  "Secondu": 6351,
  "Savage": 6352,
  "Swe": 6353,
  "Stan": 6354,
  "Selari": 6355,
  "Romne": 6356,
  "Paki": 6357,
  "Por": 6358,
  "Oscars": 6359,
  "Okorie": 6360,
  "Okwaraji": 6361,
  "Nasir": 6362,
  "Morrison": 6363,
  "Mark": 6364,
  "Malay": 6365,
  "Mahmood": 6366,
  "Maria": 6367,
  "MM": 6368,
  "London.": 6369,
  "Leban": 6370,
  "Lampard": 6371,
  "Lagarde": 6372,
  "Kan": 6373,
  "Jeremy": 6374,
  "Indigen": 6375,
  "Iko": 6376,
  "Hollywood": 6377,
  "Ganduje": 6378,
  "Gir": 6379,
  "Fund": 6380,
  "Fire": 6381,
  "Fir": 6382,
  "FR": 6383,
  "England.": 6384,
  "Edward": 6385,
  "Emi": 6386,
  "Eid": 6387,
  "Dick": 6388,
  "Department": 6389,
  "Dandaura": 6390,
  "Dr": 6391,
  "Cyber": 6392,
  "Corpo": 6393,
  "Califor": 6394,
  "Court": 6395,
  "Benue,": 6396,
  "Belgi": 6397,
  "Ball": 6398,
  "Bash": 6399,
  "Bil": 6400,
  "Atletico": 6401,
  "Asse": 6402,
  "Aminu": 6403,
  "Ajayi": 6404,
  "Adesanya": 6405,
  "Austin": 6406,
  "Ath": 6407,
  "Akwu": 6408,
  "Achi": 6409,
  "43": 6410,
  "20)": 6411,
  "1-": 6412,
  "(APC)": 6413,
  "\"\",\"": 6414,
  "\"(": 6415,
  "“mụ": 6416,
  "ụtụtụ.": 6417,
  "ụmụntakịrị": 6418,
  "ụlọụka.": 6419,
  "ụlọikpe,": 6420,
  "ụlọozu": 6421,
  "ụbụrụisi": 6422,
  "ụbọ": 6423,
  "ụsa": 6424,
  "ụbịa": 6425,
  "ụbịam": 6426,
  "ọnụnụ": 6427,
  "ọhịa,": 6428,
  "ọdịnihu?": 6429,
  "ọnyụ": 6430,
  "ọmị": 6431,
  "ịsụgharị": 6432,
  "ịmatakwu": 6433,
  "ịgbalị": 6434,
  "ịgwọ": 6435,
  "ịche": 6436,
  "zị,": 6437,
  "zukọrọ": 6438,
  "zer": 6439,
  "wuo": 6440,
  "wetere": 6441,
  "urtado": 6442,
  "ubi,": 6443,
  "tọhapụrụ": 6444,
  "tozuo": 6445,
  "tte": 6446,
  "sịkwara": 6447,
  "sị;": 6448,
  "soo": 6449,
  "sochiri": 6450,
  "septemba.": 6451,
  "sepụ": 6452,
  "saịt": 6453,
  "satọdee.": 6454,
  "sa.": 6455,
  "sk": 6456,
  "rom.": 6457,
  "risti": 6458,
  "ries:": 6459,
  "raq": 6460,
  "rac": 6461,
  "rd": 6462,
  "puku,": 6463,
  "prote": 6464,
  "pal": 6465,
  "ozie": 6466,
  "onye.": 6467,
  "okwukwe.": 6468,
  "okeala": 6469,
  "ojii.": 6470,
  "ojiego": 6471,
  "obere,": 6472,
  "oghere": 6473,
  "nọrọla": 6474,
  "nọgide": 6475,
  "nọchie": 6476,
  "nzere": 6477,
  "nwụnye": 6478,
  "nwụchị": 6479,
  "nwuchie": 6480,
  "nwereonwe": 6481,
  "nkea,": 6482,
  "ning": 6483,
  "ngụkọ": 6484,
  "ngwaọrụ": 6485,
  "nger": 6486,
  "nebukadneza": 6487,
  "nduru": 6488,
  "na-ewetara": 6489,
  "na-erughị": 6490,
  "na-enwekwa": 6491,
  "na-emezi": 6492,
  "na-emekọ": 6493,
  "na-eleta": 6494,
  "na-ekwu?": 6495,
  "na-ejide": 6496,
  "na-egbuke": 6497,
  "na-esote": 6498,
  "na-emeri": 6499,
  "na-edebe": 6500,
  "na-agbakwa": 6501,
  "na-ajọ": 6502,
  "na-agwụ": 6503,
  "na-adịrị": 6504,
  "n'otu": 6505,
  "nnọchi": 6506,
  "nment": 6507,
  "nike": 6508,
  "ngọ": 6509,
  "mouth": 6510,
  "mmeri.": 6511,
  "mmehie.": 6512,
  "midia,": 6513,
  "mise": 6514,
  "metụtara.": 6515,
  "merịrị": 6516,
  "mepee": 6517,
  "mefu": 6518,
  "mechi": 6519,
  "mbugharị": 6520,
  "mbinye": 6521,
  "mara.": 6522,
  "maburu": 6523,
  "mọkụ": 6524,
  "m\"": 6525,
  "lewe": 6526,
  "lagoro": 6527,
  "llo": 6528,
  "lari": 6529,
  "kụọla": 6530,
  "kọtala": 6531,
  "kwuziri": 6532,
  "kwurịta": 6533,
  "kwudịrị": 6534,
  "kuziri": 6535,
  "kpamkpam.": 6536,
  "kpamkpam": 6537,
  "kpachiri": 6538,
  "katọọ": 6539,
  "kachanụ": 6540,
  "kawa": 6541,
  "kaara": 6542,
  "julaị.": 6543,
  "isisi": 6544,
  "irubere": 6545,
  "inọk.": 6546,
  "inwete": 6547,
  "imegide": 6548,
  "iko,": 6549,
  "inyo": 6550,
  "ila": 6551,
  "ijere": 6552,
  "hụrụ.": 6553,
  "huabunwa": 6554,
  "hovah": 6555,
  "hel": 6556,
  "gụnyere;": 6557,
  "gịnị\"": 6558,
  "gue": 6559,
  "gu,": 6560,
  "gidi": 6561,
  "ghts": 6562,
  "gbalaga": 6563,
  "gbadoro": 6564,
  "ga-enyekwa": 6565,
  "ga-ezi": 6566,
  "ga-edu": 6567,
  "ga-anabata": 6568,
  "ga-akpụpụ": 6569,
  "ga-akpụ": 6570,
  "ga-achọpụta": 6571,
  "eturula": 6572,
  "eruwe": 6573,
  "emenwu": 6574,
  "emegbu": 6575,
  "eleghị": 6576,
  "ekwupụta": 6577,
  "egwuregwu.": 6578,
  "ebuliela": 6579,
  "ebinyela": 6580,
  "ebinye": 6581,
  "ebighi": 6582,
  "eghe": 6583,
  "edere": 6584,
  "dụọla": 6585,
  "dium": 6586,
  "daa.": 6587,
  "ckle": 6588,
  "cience": 6589,
  "chụsasịa": 6590,
  "chukwu,": 6591,
  "ctri": 6592,
  "bugara": 6593,
  "bisi": 6594,
  "baịbụl.”": 6595,
  "aịzik": 6596,
  "atorial": 6597,
  "arụkwaghịm": 6598,
  "arụpụta": 6599,
  "areth": 6600,
  "art": 6601,
  "anyanwụ,": 6602,
  "anabatala": 6603,
  "ana,": 6604,
  "anọọla": 6605,
  "anọrọ": 6606,
  "anti": 6607,
  "alụmdinanwunye": 6608,
  "alaigbo": 6609,
  "akatọla": 6610,
  "akarịala": 6611,
  "akasi": 6612,
  "akagbuola": 6613,
  "ahụhụ?": 6614,
  "ahọpụtala": 6615,
  "aha,": 6616,
  "agwọọla": 6617,
  "agbamakwụkwọ": 6618,
  "agakwaghị": 6619,
  "afa": 6620,
  "adịgboroja.": 6621,
  "adị?": 6622,
  "abụ;": 6623,
  "abatala": 6624,
  "ab": 6625,
  "YouTu": 6626,
  "Virgi": 6627,
  "Valen": 6628,
  "Twitter.": 6629,
  "Thailand": 6630,
  "Tammy": 6631,
  "Tai": 6632,
  "Tar": 6633,
  "TIP": 6634,
  "Sweden": 6635,
  "Sickle": 6636,
  "Shari": 6637,
  "Safety": 6638,
  "Sky": 6639,
  "Sco": 6640,
  "Science": 6641,
  "Rita": 6642,
  "Rede": 6643,
  "Ray": 6644,
  "Queens": 6645,
  "Promise": 6646,
  "President": 6647,
  "Philip": 6648,
  "Patrick": 6649,
  "PDP,": 6650,
  "Organisation": 6651,
  "Onyebuchi": 6652,
  "Onumah": 6653,
  "Okeke,": 6654,
  "Odekpe": 6655,
  "Obama,": 6656,
  "OG": 6657,
  "Nwagbara": 6658,
  "Nsukka": 6659,
  "Nigeria.": 6660,
  "News": 6661,
  "Moghalu": 6662,
  "Madagaska": 6663,
  "Light": 6664,
  "Lig": 6665,
  "Laf": 6666,
  "Ken": 6667,
  "Julius": 6668,
  "Jong-un": 6669,
  "Indigenous": 6670,
  "Iraq": 6671,
  "House": 6672,
  "Hospital": 6673,
  "Fr.": 6674,
  "Fin": 6675,
  "Evans": 6676,
  "Equatorial": 6677,
  "Ekweremadu.": 6678,
  "Eke": 6679,
  "EF": 6680,
  "EE": 6681,
  "Chukwudi": 6682,
  "Chu": 6683,
  "Cal": 6684,
  "Buhari\"": 6685,
  "Building": 6686,
  "Boston": 6687,
  "Boni": 6688,
  "Bible": 6689,
  "Benue": 6690,
  "Bashir": 6691,
  "Babatunde": 6692,
  "Bassey": 6693,
  "Angola": 6694,
  "Anao": 6695,
  "Amaraizu": 6696,
  "Amazon": 6697,
  "Alexandra": 6698,
  "Akpabio": 6699,
  "Ajax": 6700,
  "Afghanistan": 6701,
  "Adeye": 6702,
  "Adamawa": 6703,
  "Adam.": 6704,
  "APTIP": 6705,
  "Azu": 6706,
  "Ayo": 6707,
  "Awa": 6708,
  "Aston": 6709,
  "Aki": 6710,
  "85": 6711,
  "80": 6712,
  "35": 6713,
  "2013.": 6714,
  "2011": 6715,
  "1;": 6716,
  "-ọkaiwu": 6717,
  "-uweojii": 6718,
  "-gọọmentị": 6719,
  "-bụ": 6720,
  "-U": 6721,
  "-Buhari": 6722,
  "\"a\"": 6723,
  "“oge": 6724,
  "“gịnị": 6725,
  "“ezi": 6726,
  "ụtọ?": 6727,
  "ụkpụrụ": 6728,
  "ọrụ?": 6729,
  "ọma?": 6730,
  "ọlị.": 6731,
  "ọktoba,": 6732,
  "ọjọọ?": 6733,
  "ọgwụgwọ.": 6734,
  "ọgbata": 6735,
  "ọgbatauhie": 6736,
  "ọchụchụ": 6737,
  "ọbọgwụ": 6738,
  "ọf": 6739,
  "ọd": 6740,
  "ọchan": 6741,
  "ọchanja": 6742,
  "ịzụta": 6743,
  "ịtụnyere": 6744,
  "ịs": 6745,
  "ịpụta": 6746,
  "ị,": 6747,
  "zuola": 6748,
  "ziteere": 6749,
  "wụọ": 6750,
  "webụ": 6751,
  "webụsaịt": 6752,
  "webata": 6753,
  "woro": 6754,
  "venant": 6755,
  "uru.”": 6756,
  "uhuru": 6757,
  "tọrọla": 6758,
  "tunyere": 6759,
  "ttack": 6760,
  "tozu": 6761,
  "tlehe": 6762,
  "thani": 6763,
  "thaniel": 6764,
  "terite": 6765,
  "tenis": 6766,
  "sọlọ": 6767,
  "sịga.": 6768,
  "sị:\"anyị\"": 6769,
  "sts": 6770,
  "ssan": 6771,
  "sorokwa": 6772,
  "so.": 6773,
  "siria": 6774,
  "sista": 6775,
  "server": 6776,
  "rụtụ": 6777,
  "rụchara": 6778,
  "rịtaụka": 6779,
  "ruuru": 6780,
  "ristiano": 6781,
  "redio": 6782,
  "re:": 6783,
  "pore": 6784,
  "pri": 6785,
  "plo": 6786,
  "ozuzu": 6787,
  "owuwe": 6788,
  "osikapa,": 6789,
  "or,": 6790,
  "olili": 6791,
  "ojoro": 6792,
  "offrey": 6793,
  "obosi": 6794,
  "onu": 6795,
  "okike": 6796,
  "oka": 6797,
  "nọnyeere": 6798,
  "nzuzo.": 6799,
  "nyemaka": 6800,
  "nwetụla": 6801,
  "nwata,": 6802,
  "nwale": 6803,
  "nwaa": 6804,
  "nuklia": 6805,
  "ntụzi": 6806,
  "nton": 6807,
  "nto": 6808,
  "nrọ.": 6809,
  "nnewi,": 6810,
  "nkwụcha": 6811,
  "nke,": 6812,
  "nica": 6813,
  "nhazigharị": 6814,
  "ngapore": 6815,
  "na-ekesa": 6816,
  "na-ete": 6817,
  "na-esonye": 6818,
  "na-arahụ": 6819,
  "na-akpọkwa": 6820,
  "na-agụrụ": 6821,
  "na-agbata": 6822,
  "na-agbagwoju": 6823,
  "na-agbaghara": 6824,
  "na-abịa,": 6825,
  "na-awa": 6826,
  "na-akparị": 6827,
  "na\"ọ\"": 6828,
  "napụtara": 6829,
  "nmi": 6830,
  "mwereonwe": 6831,
  "mum": 6832,
  "mpụ,": 6833,
  "mpany": 6834,
  "mmemme.": 6835,
  "mmemme,": 6836,
  "mmadụ.”": 6837,
  "mmanya,": 6838,
  "mgbawa": 6839,
  "mgbagbu": 6840,
  "mechaa,": 6841,
  "mebe": 6842,
  "mbọmbọ": 6843,
  "mbode": 6844,
  "malitere,": 6845,
  "maara?": 6846,
  "mapụtara": 6847,
  "mani": 6848,
  "lub": 6849,
  "latrik,": 6850,
  "laa.": 6851,
  "kụpụrụ": 6852,
  "kọwakwara": 6853,
  "kwesiri.": 6854,
  "kwee": 6855,
  "kwaba": 6856,
  "kpọkuokwa": 6857,
  "kpọpụrụ": 6858,
  "kpuchi": 6859,
  "kpeere": 6860,
  "ke.": 6861,
  "katọlik,": 6862,
  "karịchaa": 6863,
  "katara": 6864,
  "jewe": 6865,
  "jekwu": 6866,
  "izute": 6867,
  "iwetara": 6868,
  "itoolu.": 6869,
  "inde": 6870,
  "imemila": 6871,
  "illing": 6872,
  "ikele": 6873,
  "ihụ": 6874,
  "igwe.": 6875,
  "ichegbu": 6876,
  "hụta": 6877,
  "hụkwa": 6878,
  "hannes": 6879,
  "hong": 6880,
  "gọọla": 6881,
  "gwoo": 6882,
  "gramme": 6883,
  "gbasie": 6884,
  "gbapee": 6885,
  "gbarụrụ": 6886,
  "garala": 6887,
  "gachara.": 6888,
  "ga-echekwa": 6889,
  "ga-arị": 6890,
  "gaa,": 6891,
  "fuola": 6892,
  "field": 6893,
  "ezuru": 6894,
  "eserese": 6895,
  "ering": 6896,
  "ert": 6897,
  "erere": 6898,
  "enyerela": 6899,
  "emerụọla": 6900,
  "emene": 6901,
  "ekweghi": 6902,
  "ekpere?": 6903,
  "ekesa": 6904,
  "ehi.": 6905,
  "egbe,": 6906,
  "echi.": 6907,
  "echi,": 6908,
  "ebe.": 6909,
  "ewo": 6910,
  "egbo": 6911,
  "dom": 6912,
  "dili": 6913,
  "dic": 6914,
  "deji": 6915,
  "daara": 6916,
  "dd": 6917,
  "collapse": 6918,
  "chịm": 6919,
  "chekwara": 6920,
  "chekwaa": 6921,
  "cheba": 6922,
  "cement": 6923,
  "bụcha": 6924,
  "briten,": 6925,
  "blọk": 6926,
  "bishop": 6927,
  "bela": 6928,
  "aịzaya": 6929,
  "atụla": 6930,
  "arụrụala": 6931,
  "arma": 6932,
  "ar.": 6933,
  "apụta.": 6934,
  "anabataghị": 6935,
  "anacho": 6936,
  "anọchị": 6937,
  "ans": 6938,
  "anca": 6939,
  "amawbịa,": 6940,
  "amatali": 6941,
  "alabar": 6942,
  "akọwala": 6943,
  "akịrịka.": 6944,
  "akwadoghi": 6945,
  "akwaala": 6946,
  "akpụ.": 6947,
  "akpọlite": 6948,
  "akpaabụ": 6949,
  "ahụta": 6950,
  "aghọọla": 6951,
  "agbaghị": 6952,
  "agbaa": 6953,
  "adagbuola": 6954,
  "ada.": 6955,
  "ader": 6956,
  "achọta": 6957,
  "apị": 6958,
  "anwan": 6959,
  "akwanyere": 6960,
  "a;": 6961,
  "Zu": 6962,
  "Yoaku": 6963,
  "Unilag": 6964,
  "USS": 6965,
  "USSD": 6966,
  "Twitter,": 6967,
  "Tony": 6968,
  "Stanley": 6969,
  "Singapore": 6970,
  "Sharibu": 6971,
  "Selariọs": 6972,
  "Sri": 6973,
  "Seme": 6974,
  "Primaries:": 6975,
  "Pales": 6976,
  "Py": 6977,
  "Poland": 6978,
  "Pin": 6979,
  "Okorocha:": 6980,
  "Obina": 6981,
  "Ozo": 6982,
  "Owe": 6983,
  "Ori": 6984,
  "Ona": 6985,
  "Old": 6986,
  "Okwu": 6987,
  "Oka": 6988,
  "Odo": 6989,
  "Nwabu": 6990,
  "Nathaniel": 6991,
  "NBC": 6992,
  "NEMA": 6993,
  "NC": 6994,
  "N)": 6995,
  "Muhammad": 6996,
  "Muell": 6997,
  "Monday": 6998,
  "Mmaku": 6999,
  "Minimum": 7000,
  "March": 7001,
  "Madagascar": 7002,
  "Mata": 7003,
  "Maku": 7004,
  "Mari": 7005,
  "Luka": 7006,
  "Lagos,": 7007,
  "Lam": 7008,
  "Kwara": 7009,
  "Kano,": 7010,
  "Job,": 7011,
  "Johannes": 7012,
  "Jehovah": 7013,
  "Jeff": 7014,
  "Jer": 7015,
  "Insurance": 7016,
  "Iheanacho": 7017,
  "Izu": 7018,
  "Iya": 7019,
  "Hunt": 7020,
  "Herọd": 7021,
  "Guardi": 7022,
  "Girls": 7023,
  "Ghost": 7024,
  "Geoffrey": 7025,
  "Foru": 7026,
  "Fai": 7027,
  "Furtado": 7028,
  "Fina": 7029,
  "Fer": 7030,
  "Emema": 7031,
  "Elizabeth": 7032,
  "EEDC": 7033,
  "Coschari": 7034,
  "Corporation": 7035,
  "Covenant": 7036,
  "Code": 7037,
  "Chika": 7038,
  "Chieji": 7039,
  "Championship": 7040,
  "Cheri": 7041,
  "Cristiano": 7042,
  "Cole": 7043,
  "Cele": 7044,
  "Calabar": 7045,
  "CAN": 7046,
  "Buhari:": 7047,
  "Bianca": 7048,
  "Benson": 7049,
  "Augustine": 7050,
  "August": 7051,
  "Assemb": 7052,
  "Amuneke": 7053,
  "Aliyu": 7054,
  "Aguata": 7055,
  "Ambode": 7056,
  "Akwa": 7057,
  "Agwu": 7058,
  "95": 7059,
  "55": 7060,
  "46": 7061,
  "32": 7062,
  "1999": 7063,
  "000)": 7064,
  ".\"e\"": 7065,
  "-Umu": 7066,
  "-6": 7067,
  "-2": 7068,
  "-19": 7069,
  "(nke": 7070,
  "(IPOB": 7071,
  "''": 7072,
  "\"o\"": 7073,
  "ụlọọgwụ,": 7074,
  "ụsọ": 7075,
  "ụmị": 7076,
  "ọọpụ": 7077,
  "ọzọ.\"": 7078,
  "ọtụtụ.": 7079,
  "ọnụma": 7080,
  "ọhanaeze,": 7081,
  "ọgọdọ": 7082,
  "ọgbakọ.": 7083,
  "ọfụma,": 7084,
  "ọbara.": 7085,
  "ọzara": 7086,
  "ọsụ": 7087,
  "ọkwụrụ": 7088,
  "ịkpọpụta": 7089,
  "ịkpata": 7090,
  "ịị": 7091,
  "ịtọrọ": 7092,
  "ịtinye": 7093,
  "ịmara": 7094,
  "ịbu": 7095,
  "za.": 7096,
  "za,": 7097,
  "ya.)": 7098,
  "ya\".\"": 7099,
  "witzer": 7100,
  "wezuga": 7101,
  "wetuo": 7102,
  "weghara": 7103,
  "waala": 7104,
  "wọ": 7105,
  "vootu.": 7106,
  "vil": 7107,
  "uhie,": 7108,
  "ugboguru.": 7109,
  "ukpor": 7110,
  "tụtara": 7111,
  "tụgharịa": 7112,
  "tịnkọ": 7113,
  "tumtum": 7114,
  "toph": 7115,
  "topher": 7116,
  "tinyekwa": 7117,
  "tis": 7118,
  "ting": 7119,
  "tine": 7120,
  "ties": 7121,
  "tice": 7122,
  "thew": 7123,
  "thampton": 7124,
  "tebụl": 7125,
  "tali": 7126,
  "tary": 7127,
  "sult": 7128,
  "stone": 7129,
  "sting": 7130,
  "stia": 7131,
  "sowe": 7132,
  "sirila": 7133,
  "sic": 7134,
  "septemba,": 7135,
  "sekọndị": 7136,
  "sekọndịrị": 7137,
  "sepu": 7138,
  "sekpụ": 7139,
  "satọde,": 7140,
  "sal": 7141,
  "rịọkwara": 7142,
  "rubere": 7143,
  "risky": 7144,
  "real": 7145,
  "rara": 7146,
  "pụghị": 7147,
  "pope": 7148,
  "pla": 7149,
  "phi": 7150,
  "ourne": 7151,
  "ournemouth": 7152,
  "otuto.": 7153,
  "oteela": 7154,
  "okpukpere": 7155,
  "okpukperechi": 7156,
  "okpokoro": 7157,
  "ojiri": 7158,
  "ogbugbu": 7159,
  "ogbenye.": 7160,
  "obiọma.": 7161,
  "nọzị": 7162,
  "nọbu": 7163,
  "nzukọ,": 7164,
  "nzaghachi,": 7165,
  "nzaghachi": 7166,
  "nyefere": 7167,
  "nwekwaghị": 7168,
  "nwịị": 7169,
  "ntina": 7170,
  "ntaakụkọ.": 7171,
  "now": 7172,
  "nkịta.": 7173,
  "njedebe.": 7174,
  "niu": 7175,
  "ness": 7176,
  "naghịkwa": 7177,
  "na-emenụ,": 7178,
  "na-elekwa": 7179,
  "na-ekwesighị": 7180,
  "na-ejikarị": 7181,
  "na-enwere": 7182,
  "na-arụsi": 7183,
  "na-apụghị": 7184,
  "na-akwanye": 7185,
  "na-agbawa": 7186,
  "na-agbaso": 7187,
  "na-agbape": 7188,
  "na-agafe": 7189,
  "na-adịkwu": 7190,
  "na-aja": 7191,
  "na-agha": 7192,
  "na-agara": 7193,
  "na-adụ": 7194,
  "na-abịara": 7195,
  "na-arọ": 7196,
  "ntụtụ": 7197,
  "nse": 7198,
  "nozie": 7199,
  "nkwụsị": 7200,
  "nchara": 7201,
  "mụchara": 7202,
  "musu": 7203,
  "mmegide": 7204,
  "mited": 7205,
  "mgba.": 7206,
  "merenụ,": 7207,
  "meela.": 7208,
  "mehiere": 7209,
  "mberg": 7210,
  "mbaụwa.": 7211,
  "mbata": 7212,
  "mbanụ!": 7213,
  "mba!": 7214,
  "mgbo": 7215,
  "lọta,": 7216,
  "lọghachite": 7217,
  "lọt": 7218,
  "lum": 7219,
  "listia": 7220,
  "lish": 7221,
  "lebagodị": 7222,
  "las": 7223,
  "kwunye": 7224,
  "kwaala": 7225,
  "krisma": 7226,
  "kpụpụrụ": 7227,
  "kpọrọ,": 7228,
  "kpọọrọ": 7229,
  "kpọkwara": 7230,
  "kpara.": 7231,
  "kpasuru": 7232,
  "kesa": 7233,
  "keela": 7234,
  "kawanye": 7235,
  "kasịrị": 7236,
  "kadị": 7237,
  "jịkọrọ": 7238,
  "jikọta": 7239,
  "jigide": 7240,
  "ject": 7241,
  "jụwa": 7242,
  "izuuka.": 7243,
  "iwulite": 7244,
  "isiike": 7245,
  "imechi": 7246,
  "ikuchi": 7247,
  "ibelata": 7248,
  "iza": 7249,
  "itu": 7250,
  "iman": 7251,
  "imalite": 7252,
  "ikwụ": 7253,
  "ifu": 7254,
  "hụghị": 7255,
  "hazị": 7256,
  "gụchara": 7257,
  "gọvanọ\"": 7258,
  "gọziri": 7259,
  "guzobere": 7260,
  "gozie": 7261,
  "gote": 7262,
  "gooro": 7263,
  "goo": 7264,
  "gine": 7265,
  "ghee": 7266,
  "ghapụla": 7267,
  "ghasa": 7268,
  "gbahapụ": 7269,
  "gbadaa": 7270,
  "gbachiri": 7271,
  "gbachie": 7272,
  "gawa.": 7273,
  "gasịrị,": 7274,
  "ga-emetụta": 7275,
  "ga-ezuru": 7276,
  "ga-ehichapụ": 7277,
  "ga-akasi": 7278,
  "ga-azụta": 7279,
  "ga-agwọ": 7280,
  "ga-abịaru": 7281,
  "ga-akarị": 7282,
  "gers": 7283,
  "fite": 7284,
  "filistia": 7285,
  "fer": 7286,
  "ezu.": 7287,
  "eweta": 7288,
  "emebiela": 7289,
  "emed": 7290,
  "emechara": 7291,
  "eleta": 7292,
  "ekwusi": 7293,
  "ekwentị.": 7294,
  "ekele,": 7295,
  "ekene": 7296,
  "eke,": 7297,
  "efu,": 7298,
  "ebutela": 7299,
  "ee.": 7300,
  "dịrịghị": 7301,
  "dịzi": 7302,
  "dum.": 7303,
  "dola": 7304,
  "devid.": 7305,
  "devid,": 7306,
  "denyere": 7307,
  "degaara": 7308,
  "daalụ": 7309,
  "cking": 7310,
  "ciety": 7311,
  "chụdara": 7312,
  "chọpụtakwara": 7313,
  "chighị": 7314,
  "chigha": 7315,
  "chewe": 7316,
  "cheghị": 7317,
  "cade": 7318,
  "clo": 7319,
  "bụnadị": 7320,
  "briten.": 7321,
  "bishọọpụ": 7322,
  "bidoziri": 7323,
  "bidokwara": 7324,
  "bitere": 7325,
  "bata.": 7326,
  "bas": 7327,
  "bsi": 7328,
  "awakpola": 7329,
  "atụghị": 7330,
  "asịsa": 7331,
  "arịala": 7332,
  "aruo": 7333,
  "ara.": 7334,
  "anyị-": 7335,
  "anyanwụ.": 7336,
  "anyaụfụ": 7337,
  "anwụchikọọla": 7338,
  "anara": 7339,
  "anapụla": 7340,
  "ant": 7341,
  "amụtara": 7342,
  "amaegwuregwu": 7343,
  "alert": 7344,
  "akụkọ,": 7345,
  "akịrịka,": 7346,
  "akasị": 7347,
  "ahọpụtara": 7348,
  "agụma": 7349,
  "agụ,": 7350,
  "agwaetiti": 7351,
  "afana": 7352,
  "adres": 7353,
  "abụba": 7354,
  "abalịa": 7355,
  "aba,": 7356,
  "achi": 7357,
  "achara": 7358,
  "York.": 7359,
  "Yoakum": 7360,
  "Walter": 7361,
  "Wo": 7362,
  "Vin": 7363,
  "VAR": 7364,
  "UNI": 7365,
  "Trudeau": 7366,
  "Traffi": 7367,
  "Southampton": 7368,
  "Society": 7369,
  "Sambi": 7370,
  "Squ": 7371,
  "Son": 7372,
  "Sime": 7373,
  "Sand": 7374,
  "Rogers": 7375,
  "Rev.": 7376,
  "Redeemed": 7377,
  "Rabiu": 7378,
  "Ral": 7379,
  "Programme": 7380,
  "Plateau:": 7381,
  "Papa": 7382,
  "Pen": 7383,
  "PF": 7384,
  "Oyede": 7385,
  "Ojoto": 7386,
  "Ogbonnaya": 7387,
  "Ower": 7388,
  "Opara": 7389,
  "Okpa": 7390,
  "Oji": 7391,
  "Ohuabunwa": 7392,
  "Offi": 7393,
  "Nic": 7394,
  "Netherlands": 7395,
  "Ndubuaku": 7396,
  "Nze": 7397,
  "Nne": 7398,
  "Nj": 7399,
  "Nike": 7400,
  "Nan": 7401,
  "NAPTIP": 7402,
  "Muhammed": 7403,
  "Mozis": 7404,
  "Motors": 7405,
  "Most": 7406,
  "Matthew": 7407,
  "Mane": 7408,
  "Maga": 7409,
  "Lukaku": 7410,
  "Limited": 7411,
  "Lady": 7412,
  "LE": 7413,
  "Kongo": 7414,
  "Kanu.": 7415,
  "Kachi": 7416,
  "INEC,": 7417,
  "Isa": 7418,
  "Hadi": 7419,
  "Gree": 7420,
  "Gareth": 7421,
  "Gala": 7422,
  "Flori": 7423,
  "Faith": 7424,
  "Fou": 7425,
  "Fiji": 7426,
  "Engine": 7427,
  "Ememanka": 7428,
  "Electri": 7429,
  "Ebreham,": 7430,
  "Easter": 7431,
  "Er": 7432,
  "Ekpe": 7433,
  "Danju": 7434,
  "Du": 7435,
  "Christine": 7436,
  "Christopher": 7437,
  "Child": 7438,
  "Celestine": 7439,
  "Cour": 7440,
  "Bul": 7441,
  "Bruce": 7442,
  "Broad": 7443,
  "Boniface": 7444,
  "Bobrisky": 7445,
  "Black\"": 7446,
  "Bauchi": 7447,
  "Bournemouth": 7448,
  "Bide": 7449,
  "Balo": 7450,
  "Baka": 7451,
  "Bafana": 7452,
  "Ayamelu": 7453,
  "Assembly": 7454,
  "Arge": 7455,
  "Adam,": 7456,
  "Ata": 7457,
  "Anne": 7458,
  "Am": 7459,
  "Ak": 7460,
  "Ado": 7461,
  "Acade": 7462,
  "ADC": 7463,
  "97": 7464,
  "84": 7465,
  "31": 7466,
  "28,": 7467,
  "25,": 7468,
  "2014,": 7469,
  "2013,": 7470,
  "2010.": 7471,
  "2010": 7472,
  "200,": 7473,
  "27,": 7474,
  "1970": 7475,
  "1914.": 7476,
  "16,": 7477,
  "16)": 7478,
  "1000": 7479,
  "(IPOB)": 7480,
  "(APGA": 7481,
  "”,": 7482,
  "“ụwa": 7483,
  "“ụmụ": 7484,
  "“ya": 7485,
  "“nwa": 7486,
  "ụtazị": 7487,
  "ụmụanụmanụ": 7488,
  "ụlọakụ,": 7489,
  "ụnwụ": 7490,
  "ụkp": 7491,
  "ụdara": 7492,
  "ọsọndụ": 7493,
  "ọnwụ?": 7494,
  "ọma.”": 7495,
  "ọlaọcha": 7496,
  "ọkụkọ,": 7497,
  "ọdịnihu,": 7498,
  "ọdịda-anyanwụ": 7499,
  "ọdịghị": 7500,
  "ọdachi.": 7501,
  "ọha,": 7502,
  "ịzọpụta": 7503,
  "ịtụnanya": 7504,
  "ịtụbata": 7505,
  "ịrụzi": 7506,
  "ịma.": 7507,
  "ịgbakụta": 7508,
  "ịchụpụ": 7509,
  "ịchịkọta": 7510,
  "ịchịkọba": 7511,
  "ịchafụ.": 7512,
  "ịsọ": 7513,
  "ịpịa": 7514,
  "ịlet": 7515,
  "ịkwọ": 7516,
  "ịkwu": 7517,
  "ịiza": 7518,
  "ịhọrọ": 7519,
  "ịbọ": 7520,
  "zọma": 7521,
  "zaghị": 7522,
  "yurop.": 7523,
  "ya.”)": 7524,
  "ya”": 7525,
  "yamo": 7526,
  "you": 7527,
  "wuji": 7528,
  "witzerland": 7529,
  "wapụta": 7530,
  "will": 7531,
  "wanyere": 7532,
  "visa\"\"": 7533,
  "viso": 7534,
  "visory": 7535,
  "via": 7536,
  "vaị": 7537,
  "vation": 7538,
  "ving": 7539,
  "utical": 7540,
  "use": 7541,
  "ugba": 7542,
  "tụghị": 7543,
  "tutu": 7544,
  "ttah": 7545,
  "tock": 7546,
  "tiative": 7547,
  "tiu": 7548,
  "tech": 7549,
  "tal": 7550,
  "takwara": 7551,
  "sụgharị": 7552,
  "super": 7553,
  "sun": 7554,
  "suji": 7555,
  "sor": 7556,
  "sive": 7557,
  "sikwara": 7558,
  "shuga": 7559,
  "setan.": 7560,
  "see": 7561,
  "sper": 7562,
  "sla": 7563,
  "school": 7564,
  "rubeghị": 7565,
  "rish.": 7566,
  "rewa": 7567,
  "pịm": 7568,
  "pula": 7569,
  "poulos": 7570,
  "paịlet": 7571,
  "pper": 7572,
  "oyi.": 7573,
  "osisi.": 7574,
  "onyeisi\"": 7575,
  "onyekwuo": 7576,
  "onyekwuouche": 7577,
  "onye,": 7578,
  "omimi": 7579,
  "ojiegoachụ": 7580,
  "odibo": 7581,
  "ogbaru": 7582,
  "ocese": 7583,
  "nọchịte": 7584,
  "nọzi": 7585,
  "nọkwara": 7586,
  "nọgoro": 7587,
  "nọ.”": 7588,
  "nzute": 7589,
  "nwụchikọ": 7590,
  "nwogharị": 7591,
  "nwo-Olu": 7592,
  "nwechaghị": 7593,
  "nwerịrị": 7594,
  "nus": 7595,
  "nugwu": 7596,
  "nta,": 7597,
  "nrụrụaka.": 7598,
  "nrụrịtaụka": 7599,
  "nkịta,": 7600,
  "nkwalite": 7601,
  "nkwarụ": 7602,
  "nkuzi.": 7603,
  "nkey": 7604,
  "nkatọ": 7605,
  "njem,": 7606,
  "nitiative": 7607,
  "nghọta.": 7608,
  "ngagharịiwe.": 7609,
  "ndọrịtaụka": 7610,
  "ndaba": 7611,
  "naira.": 7612,
  "na-etolite": 7613,
  "na-eto,": 7614,
  "na-emenyụ": 7615,
  "na-ekwupụta": 7616,
  "na-echetara": 7617,
  "na-ebugharị": 7618,
  "na-ebi.": 7619,
  "na-ezute": 7620,
  "na-esu": 7621,
  "na-enupụrụ": 7622,
  "na-ata,": 7623,
  "na-amanye": 7624,
  "na-alụ.": 7625,
  "na-akpụdobe": 7626,
  "na-agba,": 7627,
  "na-agaghịzi": 7628,
  "na-achị,": 7629,
  "na-anọchi": 7630,
  "na-afụ": 7631,
  "nate": 7632,
  "nahị": 7633,
  "n'uche": 7634,
  "ngi": 7635,
  "mụwara": 7636,
  "mịta": 7637,
  "mus": 7638,
  "mpụ.": 7639,
  "mpa": 7640,
  "mmehie,": 7641,
  "mmanụ.": 7642,
  "mmanye": 7643,
  "mma-": 7644,
  "mkpughe": 7645,
  "mgbachi": 7646,
  "mgba,": 7647,
  "mezuo.": 7648,
  "merie.": 7649,
  "metu": 7650,
  "metere": 7651,
  "memi": 7652,
  "mech": 7653,
  "mbụ?": 7654,
  "mbibi": 7655,
  "makụ": 7656,
  "lobe": 7657,
  "litela": 7658,
  "lebaa": 7659,
  "lebanye": 7660,
  "lawa.": 7661,
  "latrik.": 7662,
  "leruo": 7663,
  "leru": 7664,
  "ler": 7665,
  "kọwapụtara": 7666,
  "kọbara": 7667,
  "kwuwe,": 7668,
  "kwusawa": 7669,
  "kwuputere": 7670,
  "kwesịrị.": 7671,
  "kwatara": 7672,
  "kristi": 7673,
  "kpọkuzịkwara": 7674,
  "kpọghị": 7675,
  "kpọchie": 7676,
  "kpokobara": 7677,
  "kpam.": 7678,
  "kewapụ": 7679,
  "ketara": 7680,
  "katọlik.": 7681,
  "king": 7682,
  "jụkwara": 7683,
  "jisiri": 7684,
  "jikere": 7685,
  "jibu": 7686,
  "jeruselem.": 7687,
  "irector": 7688,
  "imezupụta": 7689,
  "ime?": 7690,
  "ihe?": 7691,
  "iche-iche,": 7692,
  "ibinye": 7693,
  "iṅomi": 7694,
  "izo": 7695,
  "iki": 7696,
  "ihazi": 7697,
  "hụru": 7698,
  "hanwa": 7699,
  "her": 7700,
  "gịga": 7701,
  "gwaghị": 7702,
  "guzosie": 7703,
  "gugu": 7704,
  "ghọgburu": 7705,
  "gege": 7706,
  "gbape": 7707,
  "gbanarị": 7708,
  "gbafuo": 7709,
  "gbabuuru": 7710,
  "ga-emezi": 7711,
  "ga-ebinye": 7712,
  "ga-eyi": 7713,
  "ga-enwerịrị": 7714,
  "ga-anọgide": 7715,
  "ga-anwụ.": 7716,
  "ga-akacha": 7717,
  "ga-apụ": 7718,
  "ga-abanye": 7719,
  "ga-arịọ": 7720,
  "ga-anọchị": 7721,
  "fughị": 7722,
  "ferela": 7723,
  "foro": 7724,
  "ewu.": 7725,
  "etinyere": 7726,
  "esonyela": 7727,
  "esiji": 7728,
  "escu": 7729,
  "erend": 7730,
  "erela": 7731,
  "enyem": 7732,
  "enwetaghị": 7733,
  "enweghịzị": 7734,
  "enweghịzi": 7735,
  "ency": 7736,
  "elịiza": 7737,
  "ekwuputala": 7738,
  "ekwusa": 7739,
  "ekpili": 7740,
  "ejula": 7741,
  "ejije.": 7742,
  "ejidere": 7743,
  "ejeghi": 7744,
  "ego\"": 7745,
  "ebili": 7746,
  "ez": 7747,
  "emeriri": 7748,
  "eliri": 7749,
  "ekw": 7750,
  "dọkwara": 7751,
  "dịghịkwa": 7752,
  "dị\"": 7753,
  "dakwasịrị": 7754,
  "dra": 7755,
  "dge": 7756,
  "cious": 7757,
  "chịkọta": 7758,
  "chepụtara": 7759,
  "chaị,": 7760,
  "ceutical": 7761,
  "casting": 7762,
  "cop": 7763,
  "bụrụ\"": 7764,
  "bịakwute": 7765,
  "bubu": 7766,
  "bidoro.": 7767,
  "bidokwa": 7768,
  "be,": 7769,
  "baby": 7770,
  "aịrish.": 7771,
  "azọpụta": 7772,
  "armaceutical": 7773,
  "ars": 7774,
  "arou": 7775,
  "ariri": 7776,
  "anwụrụla": 7777,
  "anwụ?": 7778,
  "anaghịzị": 7779,
  "anarala": 7780,
  "amụtala": 7781,
  "alụkwaghịm,": 7782,
  "ala.”": 7783,
  "alla": 7784,
  "akụnụba.": 7785,
  "akpụ,": 7786,
  "akaọrụ": 7787,
  "aka:": 7788,
  "agụ.": 7789,
  "aghụghọ.": 7790,
  "aghọtachaghị": 7791,
  "agharị": 7792,
  "agbape": 7793,
  "agawa": 7794,
  "agada": 7795,
  "adịghị,": 7796,
  "adịchaghị": 7797,
  "adal": 7798,
  "adaa": 7799,
  "achịtaghị": 7800,
  "abụọ)": 7801,
  "alọ": 7802,
  "agọọla": 7803,
  "Zuba": 7804,
  "YouTube": 7805,
  "Wi": 7806,
  "Vincent": 7807,
  "Visa": 7808,
  "Valencia": 7809,
  "Vene": 7810,
  "Uchenna": 7811,
  "Uzọma": 7812,
  "Uzor": 7813,
  "Town": 7814,
  "Timothy": 7815,
  "Tri": 7816,
  "Toro": 7817,
  "Tele": 7818,
  "Syria.": 7819,
  "Suleiman": 7820,
  "Shiites": 7821,
  "Serge": 7822,
  "Secondus": 7823,
  "Sanwo-Olu": 7824,
  "Sadi": 7825,
  "Switzerland": 7826,
  "Spe": 7827,
  "Sil": 7828,
  "Romney": 7829,
  "RevolutionNow": 7830,
  "Reverend": 7831,
  "Restructuring": 7832,
  "Rome": 7833,
  "Progressives": 7834,
  "Press": 7835,
  "Precious": 7836,
  "Portu": 7837,
  "Pharmaceutical": 7838,
  "Pep": 7839,
  "Papado": 7840,
  "Palestine": 7841,
  "Oyedepo": 7842,
  "Oshodi": 7843,
  "Oshoala": 7844,
  "Organization": 7845,
  "Oparanozie": 7846,
  "Onoja": 7847,
  "Onaga": 7848,
  "Okoye,": 7849,
  "Okorocha,": 7850,
  "Ogunye": 7851,
  "Ogbuata": 7852,
  "Obidi": 7853,
  "Oy": 7854,
  "Ote": 7855,
  "Ora": 7856,
  "Olo": 7857,
  "Okpoko": 7858,
  "Nwosu,": 7859,
  "Nwachukwu,": 7860,
  "Nweke": 7861,
  "NoBra": 7862,
  "Nnaji": 7863,
  "Niger,": 7864,
  "National\"": 7865,
  "Nel": 7866,
  "Nadal": 7867,
  "Mohammed,": 7868,
  "Mexico.": 7869,
  "Market": 7870,
  "Malaysia": 7871,
  "Mahre": 7872,
  "Mauri": 7873,
  "Mac": 7874,
  "Mbo": 7875,
  "MT": 7876,
  "Liberia": 7877,
  "Live": 7878,
  "Lion": 7879,
  "Lafia": 7880,
  "Lin": 7881,
  "Kyari": 7882,
  "Kondu": 7883,
  "Keyamo": 7884,
  "Johannesburg": 7885,
  "Jesus": 7886,
  "Jim": 7887,
  "Ivory": 7888,
  "Italy.": 7889,
  "Insti": 7890,
  "Imohi": 7891,
  "Iw": 7892,
  "Ichi": 7893,
  "Hausa": 7894,
  "Haram,": 7895,
  "Government": 7896,
  "Freedo": 7897,
  "Force": 7898,
  "Father": 7899,
  "FRSC": 7900,
  "FFK": 7901,
  "Free": 7902,
  "Fr": 7903,
  "Farou": 7904,
  "Fala": 7905,
  "Europa": 7906,
  "English": 7907,
  "Emergency": 7908,
  "Evo": 7909,
  "Eu": 7910,
  "E)": 7911,
  "Drunk": 7912,
  "Dogara": 7913,
  "Dickson": 7914,
  "Diocese": 7915,
  "Danjuma": 7916,
  "Dou": 7917,
  "Director": 7918,
  "Dar": 7919,
  "Dana": 7920,
  "DR": 7921,
  "Courto": 7922,
  "Coscharis": 7923,
  "Cosby": 7924,
  "Company": 7925,
  "City.": 7926,
  "Chinedu": 7927,
  "Cul": 7928,
  "Club": 7929,
  "Cell": 7930,
  "CS": 7931,
  "CON": 7932,
  "Bulg": 7933,
  "Buhari?": 7934,
  "Broadcasting": 7935,
  "Belgium": 7936,
  "Ballon": 7937,
  "Athle": 7938,
  "Andreescu": 7939,
  "Alade": 7940,
  "Akwuke": 7941,
  "Africa.": 7942,
  "Adeyeye": 7943,
  "Ademola": 7944,
  "Adebo": 7945,
  "Adazi": 7946,
  "Achuzia": 7947,
  "Abubakar,": 7948,
  "Abaribe,": 7949,
  "Abate": 7950,
  "Abagana": 7951,
  "Abdel": 7952,
  "Abba": 7953,
  "Amaka": 7954,
  "Akwete": 7955,
  "Acc": 7956,
  "Aaron": 7957,
  "AK": 7958,
  "ABS": 7959,
  "AAC": 7960,
  ";;": 7961,
  "800": 7962,
  "70": 7963,
  "50,": 7964,
  "4:": 7965,
  "30)": 7966,
  "38": 7967,
  "36": 7968,
  "300": 7969,
  "2019?": 7970,
  "2009.": 7971,
  "2009": 7972,
  "29)": 7973,
  "19,": 7974,
  "180": 7975,
  "10.": 7976,
  "12,": 7977,
  "12)": 7978,
  ".\"onye\"": 7979,
  ".\"dịka\"": 7980,
  ".\"cheta\"": 7981,
  "-Osuji": 7982,
  "-Ob": 7983,
  "-35": 7984,
  "-onyeisi": 7985,
  "-APC": 7986,
  "(ya": 7987,
  "(ma": 7988,
  "(bụ": 7989,
  "(U": 7990,
  "(PDP": 7991,
  "(P": 7992,
  "';": 7993,
  "\"ma\"": 7994,
  "\"kwuru\"": 7995,
  "!!": 7996,
  "”?": 7997,
  "“si": 7998,
  "“ebe": 7999,
  "“agha": 8000,
  "“[": 8001,
  "—nsụgharị": 8002,
  "ụgha,": 8003,
  "ụbụrụ.": 8004,
  "ụtara": 8005,
  "ụsụ": 8006,
  "ụrọ": 8007,
  "ụla": 8008,
  "ọṅụ.": 8009,
  "ọtọsị": 8010,
  "ọstralia.": 8011,
  "ọstralia": 8012,
  "ọrụ;": 8013,
  "ọnụụzọ": 8014,
  "ọnụ-": 8015,
  "ọnyụpa": 8016,
  "ọnwụ.”": 8017,
  "ọnwa,": 8018,
  "ọmajiji": 8019,
  "ọkwọụgbọala": 8020,
  "ọgbaaghara.": 8021,
  "ọgbaa": 8022,
  "ọgbaatumtum": 8023,
  "ọdụ.": 8024,
  "ọdịnala,": 8025,
  "ọbara,": 8026,
  "ọyị": 8027,
  "ọpụrụiche": 8028,
  "ọm": 8029,
  "ọlụ": 8030,
  "ịnyịny": 8031,
  "ịntaneti,": 8032,
  "ịlaịsha": 8033,
  "ịjụ,": 8034,
  "ịhazigharị": 8035,
  "ịgbagha": 8036,
  "ịna-aga": 8037,
  "ịkwanyere": 8038,
  "ịkp": 8039,
  "ịkpakwụ": 8040,
  "ịchekwa": 8041,
  "ígw": 8042,
  "ígwé": 8043,
  "zọta": 8044,
  "zuruoke": 8045,
  "zuela": 8046,
  "zipu": 8047,
  "yoyo": 8048,
  "ya.\"ọ\"": 8049,
  "yne": 8050,
  "werere": 8051,
  "wepụtara,": 8052,
  "weliri": 8053,
  "wayo": 8054,
  "venti": 8055,
  "vention": 8056,
  "uruagụ": 8057,
  "uremberg": 8058,
  "ukwu.”": 8059,
  "ugboro,": 8060,
  "ugbo.": 8061,
  "tụlee": 8062,
  "tụba": 8063,
  "tọpụ": 8064,
  "tịnkọm": 8065,
  "tory": 8066,
  "too.": 8067,
  "tiv": 8068,
  "tena": 8069,
  "te\"": 8070,
  "talo": 8071,
  "strike": 8072,
  "steeti?": 8073,
  "standa": 8074,
  "standadị": 8075,
  "stịs": 8076,
  "st:": 8077,
  "site\"": 8078,
  "sion:": 8079,
  "siwe": 8080,
  "shles": 8081,
  "shless": 8082,
  "shee": 8083,
  "setan,": 8084,
  "satọdee,": 8085,
  "sasị": 8086,
  "sapụ": 8087,
  "sale": 8088,
  "swi": 8089,
  "sle": 8090,
  "rụpụta": 8091,
  "rịọkwazie": 8092,
  "ro,": 8093,
  "rigoro": 8094,
  "red": 8095,
  "rapụ": 8096,
  "ra,": 8097,
  "pụkwa": 8098,
  "peeji": 8099,
  "ps": 8100,
  "pari": 8101,
  "pa.": 8102,
  "otutu": 8103,
  "otu?": 8104,
  "onyinyo": 8105,
  "onyenkuzi": 8106,
  "omekatara": 8107,
  "omen'": 8108,
  "olileanya.": 8109,
  "okpomọkụ": 8110,
  "okooko": 8111,
  "ojiegbeezu": 8112,
  "ohu,": 8113,
  "ogbugbo": 8114,
  "obibi.": 8115,
  "obiano.": 8116,
  "obe": 8117,
  "nyekwaara": 8118,
  "nyechara": 8119,
  "nwụọ?": 8120,
  "nwụrụla": 8121,
  "nwụchara,": 8122,
  "nwetakwa": 8123,
  "nweziri": 8124,
  "ntaakụkọ,": 8125,
  "nta.": 8126,
  "nsọ—nsụgharị": 8127,
  "nkụ,": 8128,
  "nkwa.": 8129,
  "nkiri:": 8130,
  "njinji": 8131,
  "njide": 8132,
  "njehie": 8133,
  "niile;": 8134,
  "ngalaba\"": 8135,
  "ng-": 8136,
  "netary": 8137,
  "ney": 8138,
  "ne.": 8139,
  "ndeewo": 8140,
  "ndapụta": 8141,
  "ncha.": 8142,
  "na-ezisa": 8143,
  "na-erizi": 8144,
  "na-enyekwara": 8145,
  "na-emenụ": 8146,
  "na-eleda": 8147,
  "na-edowe": 8148,
  "na-echebe": 8149,
  "na-ebibi": 8150,
  "na-enwu": 8151,
  "na-eju": 8152,
  "na-atụkwa": 8153,
  "na-akpa.": 8154,
  "na-agụ.": 8155,
  "na-agbalịsi": 8156,
  "na-achọkwa": 8157,
  "na-achịpụ": 8158,
  "na-abịanụ": 8159,
  "na-akwụsị": 8160,
  "na-akpọrọ": 8161,
  "nator": 8162,
  "nachukwu": 8163,
  "naara": 8164,
  "n'akwụkwọ": 8165,
  "njeri": 8166,
  "mụrụ.": 8167,
  "mụnyere": 8168,
  "mund": 8169,
  "mpio": 8170,
  "mpe,": 8171,
  "mmalite,": 8172,
  "mmadụ\"": 8173,
  "mkpu,": 8174,
  "mkpịsị": 8175,
  "mgbu.": 8176,
  "merick": 8177,
  "mere:": 8178,
  "merị": 8179,
  "meenụ": 8180,
  "mechaakwa": 8181,
  "mewere": 8182,
  "mefuru": 8183,
  "me,": 8184,
  "mbele": 8185,
  "malitela": 8186,
  "mahadum.": 8187,
  "maachị,": 8188,
  "makụọ": 8189,
  "magbuo": 8190,
  "m!": 8191,
  "lụgharịrị": 8192,
  "lụchara": 8193,
  "lụburu": 8194,
  "loja": 8195,
  "logy": 8196,
  "lo,": 8197,
  "llof": 8198,
  "lins": 8199,
  "lix": 8200,
  "lebe\"": 8201,
  "latịn.": 8202,
  "larịị": 8203,
  "laghachite": 8204,
  "lakpuo": 8205,
  "kụziwere": 8206,
  "kụwa": 8207,
  "kwurịtara": 8208,
  "kwu.": 8209,
  "kwesi.": 8210,
  "kwelu": 8211,
  "kwekwara": 8212,
  "kwasa": 8213,
  "kwas": 8214,
  "kwakọrọ": 8215,
  "kun": 8216,
  "krat": 8217,
  "kpọtara": 8218,
  "kpọghachi": 8219,
  "kpochiri": 8220,
  "kpalitere": 8221,
  "kpachaara": 8222,
  "kparịrị": 8223,
  "ko,": 8224,
  "keredo": 8225,
  "kesara": 8226,
  "katọkwara": 8227,
  "karịa.": 8228,
  "karat": 8229,
  "kansa.": 8230,
  "kaadị": 8231,
  "kki": 8232,
  "kigwe": 8233,
  "jụrụ.": 8234,
  "jụrụ,": 8235,
  "jọstịs": 8236,
  "jọn,": 8237,
  "jiofor": 8238,
  "jiela": 8239,
  "jeruselem,": 8240,
  "jems": 8241,
  "jeere": 8242,
  "izito": 8243,
  "itozu": 8244,
  "iteghete.": 8245,
  "isiri": 8246,
  "irika": 8247,
  "ily": 8248,
  "ikpeazụ.”": 8249,
  "ikpegara": 8250,
  "ikenga": 8251,
  "igosipụta": 8252,
  "igbo:": 8253,
  "ifo.": 8254,
  "iduhie": 8255,
  "idebanye": 8256,
  "ichekwaba": 8257,
  "ibutere": 8258,
  "ibu,": 8259,
  "ibe,": 8260,
  "ipe": 8261,
  "ikwere": 8262,
  "ikwalite": 8263,
  "ikpochapụ": 8264,
  "ichie": 8265,
  "hee": 8266,
  "gụpụta": 8267,
  "gọvanọ.": 8268,
  "gọvanọ,": 8269,
  "gịnịzi": 8270,
  "gwọrọ": 8271,
  "gosị": 8272,
  "godi": 8273,
  "ghọtakwuo": 8274,
  "gharị.": 8275,
  "ghapụrụ": 8276,
  "ghe.": 8277,
  "gbuokiri": 8278,
  "gbue": 8279,
  "gbapụ.": 8280,
  "gbaziri": 8281,
  "gbasiri": 8282,
  "gbapere": 8283,
  "gbalitere": 8284,
  "gbakọọ": 8285,
  "gbakwunyere": 8286,
  "gbagara": 8287,
  "gbere": 8288,
  "gbarụ": 8289,
  "ga-ewepụta": 8290,
  "ga-enyeliri": 8291,
  "ga-esonye": 8292,
  "ga-esiri": 8293,
  "ga-emerịrị": 8294,
  "ga-ege": 8295,
  "ga-eburu": 8296,
  "ga-agbalị": 8297,
  "ga-aṅụ": 8298,
  "ga-azụ": 8299,
  "ga-anata": 8300,
  "ga-ana": 8301,
  "ga-akpatara": 8302,
  "gaje": 8303,
  "frans.": 8304,
  "febụwarị.": 8305,
  "fewe": 8306,
  "femi": 8307,
  "fat": 8308,
  "fair": 8309,
  "far": 8310,
  "ezughi": 8311,
  "ezipụla": 8312,
  "ewu,": 8313,
  "etoola": 8314,
  "eto.": 8315,
  "erusale": 8316,
  "erre-E": 8317,
  "erre-Emerick": 8318,
  "eritela": 8319,
  "erila": 8320,
  "erie": 8321,
  "enwetela": 8322,
  "enugwu-ndị": 8323,
  "emegide": 8324,
  "emee,": 8325,
  "elelebe\"": 8326,
  "eleba": 8327,
  "ekwekọrịta": 8328,
  "ekuola": 8329,
  "ehiwela": 8330,
  "egwuri": 8331,
  "egosipụta": 8332,
  "ede,": 8333,
  "ebuso": 8334,
  "et": 8335,
  "eshia": 8336,
  "ekwuru": 8337,
  "egwe": 8338,
  "ecu": 8339,
  "dụkwazie": 8340,
  "dị?": 8341,
  "doola": 8342,
  "dimkpa,": 8343,
  "dine": 8344,
  "dget": 8345,
  "dela": 8346,
  "dọka": 8347,
  "dro": 8348,
  "ctober": 8349,
  "conc": 8350,
  "collapse:": 8351,
  "coal": 8352,
  "chọọ.": 8353,
  "chọpụtala": 8354,
  "chọsiri": 8355,
  "chibido": 8356,
  "chere.": 8357,
  "chere,": 8358,
  "chegharịrị": 8359,
  "chebiri": 8360,
  "challa": 8361,
  "chacha": 8362,
  "c.": 8363,
  "bọọlụnkata": 8364,
  "bịawa": 8365,
  "buga": 8366,
  "bu,": 8367,
  "bsidy": 8368,
  "boolu": 8369,
  "bipụta": 8370,
  "biliri": 8371,
  "beghị.": 8372,
  "beghị,": 8373,
  "belụ": 8374,
  "bata,": 8375,
  "awụchiela": 8376,
  "atụnyere": 8377,
  "atọghapụla": 8378,
  "arachaala": 8379,
  "anatala": 8380,
  "anụrụ": 8381,
  "anda": 8382,
  "amawbịa": 8383,
  "amatabeghị": 8384,
  "amalitego": 8385,
  "amapụtala": 8386,
  "alition": 8387,
  "alaka": 8388,
  "al-": 8389,
  "akụnụba,": 8390,
  "akụmakụ": 8391,
  "akụ,": 8392,
  "akọọla": 8393,
  "akọn'uche": 8394,
  "akwọrọ": 8395,
  "akpọpụtala": 8396,
  "akpa.": 8397,
  "ajụjụọnụ": 8398,
  "ajụjụ.": 8399,
  "ajụọ": 8400,
  "ajụghị": 8401,
  "ahụ:": 8402,
  "agwụ.": 8403,
  "agwa.": 8404,
  "aghara.": 8405,
  "agba.": 8406,
  "agala": 8407,
  "afor": 8408,
  "adịrịkwa": 8409,
  "adịghi": 8410,
  "adabaghị": 8411,
  "adala": 8412,
  "achọtala": 8413,
  "abụọ;": 8414,
  "abụọ:": 8415,
  "abaghị": 8416,
  "a.)": 8417,
  "atị": 8418,
  "ath": 8419,
  "ate": 8420,
  "atala": 8421,
  "amusu": 8422,
  "agwu": 8423,
  "able": 8424,
  "Zimbabwe.": 8425,
  "Zine": 8426,
  "Zakari": 8427,
  "Young": 8428,
  "Wis": 8429,
  "Venezuela": 8430,
  "Vatic": 8431,
  "Vo": 8432,
  "Ver": 8433,
  "Val": 8434,
  "VAT": 8435,
  "United,": 8436,
  "Umeh,": 8437,
  "Udeogu": 8438,
  "Udemba,": 8439,
  "Uchechi": 8440,
  "Ubani": 8441,
  "Ute:": 8442,
  "Trump,": 8443,
  "Transfor": 8444,
  "Tochukwu": 8445,
  "Timi": 8446,
  "Tex": 8447,
  "Tig": 8448,
  "Sun": 8449,
  "Sergi": 8450,
  "Sex": 8451,
  "School,": 8452,
  "Saraki,": 8453,
  "Sarah": 8454,
  "Saint": 8455,
  "SARS:": 8456,
  "Sport": 8457,
  "Slam": 8458,
  "Sama": 8459,
  "Saga": 8460,
  "Qat": 8461,
  "Pyrite": 8462,
  "Project": 8463,
  "PortHarcourt.": 8464,
  "Pogba": 8465,
  "Pierre-Emerick": 8466,
  "Panther": 8467,
  "PFN": 8468,
  "Otedola": 8469,
  "Osuji": 8470,
  "Omo-A": 8471,
  "Omo-Agege": 8472,
  "Omamba": 8473,
  "Oliver": 8474,
  "Ogunyemi": 8475,
  "Obiang": 8476,
  "Olani": 8477,
  "Ogbuokiri": 8478,
  "October": 8479,
  "OP": 8480,
  "Nwabia": 8481,
  "Nsugbe": 8482,
  "Nkechi": 8483,
  "Nich": 8484,
  "Ndubuisi": 8485,
  "NBS": 8486,
  "Nuremberg": 8487,
  "ND": 8488,
  "Mueller": 8489,
  "Monetary": 8490,
  "Mic": 8491,
  "Mayor": 8492,
  "Matiu": 8493,
  "Main": 8494,
  "MTN": 8495,
  "My": 8496,
  "Mit": 8497,
  "MS": 8498,
  "M.": 8499,
  "Lyon": 8500,
  "Love": 8501,
  "Lanka": 8502,
  "Lake": 8503,
  "Kabir": 8504,
  "Kate": 8505,
  "Kola": 8506,
  "Kizito": 8507,
  "Kele": 8508,
  "Kara": 8509,
  "Jude": 8510,
  "Juan": 8511,
  "Jos": 8512,
  "Jones": 8513,
  "Jollof": 8514,
  "Janet": 8515,
  "Jus": 8516,
  "Jerusale": 8517,
  "Jero": 8518,
  "Iv,": 8519,
  "Institute": 8520,
  "India,": 8521,
  "Inf": 8522,
  "Ikeokwu": 8523,
  "Ijeoma": 8524,
  "IAAF": 8525,
  "Iron": 8526,
  "Hassan": 8527,
  "Ham": 8528,
  "Governor": 8529,
  "Gombe": 8530,
  "Gassa": 8531,
  "Games": 8532,
  "Glo": 8533,
  "Forum": 8534,
  "Felix": 8535,
  "Fani-": 8536,
  "Fani-Kayode": 8537,
  "Fayemi": 8538,
  "Ezenwa": 8539,
  "Execu": 8540,
  "Elisha": 8541,
  "Ebonyi,": 8542,
  "Eaglet": 8543,
  "Eti": 8544,
  "Ese": 8545,
  "Eno": 8546,
  "Ehab": 8547,
  "Efe": 8548,
  "EP": 8549,
  "Drug": 8550,
  "Domini": 8551,
  "Distri": 8552,
  "Dij": 8553,
  "Demokrat": 8554,
  "Daura": 8555,
  "DJ": 8556,
  "DA": 8557,
  "Collins": 8558,
  "Colo": 8559,
  "Coalition": 8560,
  "City,": 8561,
  "Church,": 8562,
  "Chukwulobe": 8563,
  "Chukwujekwu": 8564,
  "Charly": 8565,
  "Chime": 8566,
  "Catalo": 8567,
  "Burna": 8568,
  "Bulgaria": 8569,
  "Brenton": 8570,
  "Bebel": 8571,
  "Barwin": 8572,
  "Basin": 8573,
  "Bad": 8574,
  "BC": 8575,
  "Awada": 8576,
  "Audu": 8577,
  "Argentina": 8578,
  "Anyaoku": 8579,
  "Amaju": 8580,
  "Ahmadu": 8581,
  "Agbogugu": 8582,
  "Adele": 8583,
  "Advisory": 8584,
  "Abiy": 8585,
  "Abdulra": 8586,
  "ATM": 8587,
  "Amy": 8588,
  "Agri": 8589,
  "700": 8590,
  "600": 8591,
  "34": 8592,
  "25)": 8593,
  "23)": 8594,
  "2012,": 8595,
  "20;": 8596,
  "22,": 8597,
  "1967": 8598,
  "190": 8599,
  "18)": 8600,
  "17:": 8601,
  "160": 8602,
  "13,": 8603,
  "....": 8604,
  ".\"ya\"": 8605,
  "-ọ": 8606,
  "-gọvanọ": 8607,
  "-14": 8608,
  "(C": 8609,
  "\".\"\"": 8610,
  "\"\"bụ\"": 8611,
  "\"e\"": 8612,
  "“ụkwụ": 8613,
  "“ụbọchị": 8614,
  "“ọtụtụ": 8615,
  "“ọnwụ": 8616,
  "“olee": 8617,
  "“oke": 8618,
  "“mba": 8619,
  "“iji": 8620,
  "“anụ": 8621,
  "ụtalị": 8622,
  "ụkọchukwu.": 8623,
  "ụja": 8624,
  "ụgụ": 8625,
  "ụbụ": 8626,
  "ụbụbọ": 8627,
  "ọtụtụ\"": 8628,
  "ọtọ.”": 8629,
  "ọnọdụ.": 8630,
  "ọmụmaatụ": 8631,
  "ọkwa,": 8632,
  "ọkpọka:": 8633,
  "ọkara-": 8634,
  "ọkara-ikpeazụ": 8635,
  "ọkaipe": 8636,
  "ọgbọegwuregwu": 8637,
  "ọfala": 8638,
  "ọdụ,": 8639,
  "ọkọrọ": 8640,
  "ọkọrọtọ": 8641,
  "ịnọgide": 8642,
  "ịkọpta": 8643,
  "ịkpọlite": 8644,
  "ịkpasu": 8645,
  "ịkasi": 8646,
  "ịgba.": 8647,
  "ịbagide": 8648,
  "ịrish": 8649,
  "ịna-enwe": 8650,
  "ịna-akwụwa": 8651,
  "ịmị": 8652,
  "ịkwụrụ": 8653,
  "ịgwụ": 8654,
  "ịchutu": 8655,
  "ṅụchara": 8656,
  "ziiri": 8657,
  "ya?”": 8658,
  "yuni": 8659,
  "yke": 8660,
  "wetaara": 8661,
  "well": 8662,
  "weda": 8663,
  "wakpoo": 8664,
  "wale": 8665,
  "wakịrị": 8666,
  "wụba": 8667,
  "work": 8668,
  "vootu,": 8669,
  "vomi": 8670,
  "vince": 8671,
  "vieve": 8672,
  "villa": 8673,
  "v,": 8674,
  "unuko": 8675,
  "ugoeze": 8676,
  "ugo.": 8677,
  "udah": 8678,
  "tụpụ": 8679,
  "tọn": 8680,
  "tọkwara": 8681,
  "tọgbọrọ": 8682,
  "tulee": 8683,
  "ton,": 8684,
  "toye": 8685,
  "tokpo": 8686,
  "tlehem.": 8687,
  "tish": 8688,
  "tience": 8689,
  "technic": 8690,
  "takwa": 8691,
  "taara": 8692,
  "tarịrị": 8693,
  "tar": 8694,
  "t:": 8695,
  "sọnde.": 8696,
  "sọlọmọn": 8697,
  "sị,\"ọ\"": 8698,
  "sịkwazie": 8699,
  "swidi": 8700,
  "swidin.": 8701,
  "sure:": 8702,
  "subsidy": 8703,
  "steeti:": 8704,
  "ssy": 8705,
  "sooro": 8706,
  "so,": 8707,
  "sleeti": 8708,
  "simentị": 8709,
  "sikwazie": 8710,
  "sen": 8711,
  "search": 8712,
  "sam": 8713,
  "sp": 8714,
  "rọshịa.": 8715,
  "rịpọ": 8716,
  "rịpọb": 8717,
  "rịpọblịkan": 8718,
  "ruokwa": 8719,
  "rukwaa": 8720,
  "richara": 8721,
  "ri,": 8722,
  "referen": 8723,
  "referendum": 8724,
  "rence": 8725,
  "reau": 8726,
  "rahman": 8727,
  "racle": 8728,
  "pụtakwa": 8729,
  "pọnd": 8730,
  "protein": 8731,
  "policy": 8732,
  "pox": 8733,
  "pota": 8734,
  "pedia": 8735,
  "peace": 8736,
  "ozu,": 8737,
  "ount": 8738,
  "otua": 8739,
  "onio": 8740,
  "omenala,": 8741,
  "omekataraihe": 8742,
  "ology": 8743,
  "olin": 8744,
  "ogbugbo:": 8745,
  "odogwu": 8746,
  "obosi,": 8747,
  "obosara": 8748,
  "obibi,": 8749,
  "ok,": 8750,
  "nụkwara": 8751,
  "nọọsụ": 8752,
  "nzacha": 8753,
  "nyụchaa": 8754,
  "nyocha.": 8755,
  "nyeghachi": 8756,
  "nwunmi": 8757,
  "nwekwaa": 8758,
  "nwegasịrị": 8759,
  "nwamba": 8760,
  "nu,": 8761,
  "ntụgharị": 8762,
  "ntụ.": 8763,
  "ntọọ": 8764,
  "ntule": 8765,
  "ntine": 8766,
  "nso.”": 8767,
  "nri?": 8768,
  "no-Ob": 8769,
  "nne.": 8770,
  "nkịtị,": 8771,
  "nkwuchite": 8772,
  "nkwuchiteọnụ": 8773,
  "nkwadobe": 8774,
  "nkwado,": 8775,
  "nkenke": 8776,
  "niile”": 8777,
  "niile.”)": 8778,
  "niesta": 8779,
  "nite": 8780,
  "nick": 8781,
  "nhatan": 8782,
  "nerby": 8783,
  "nevieve": 8784,
  "nesia": 8785,
  "ne\"": 8786,
  "ndekọ": 8787,
  "nche.": 8788,
  "natachara": 8789,
  "naiye": 8790,
  "na-esikwa": 8791,
  "na-esikarị": 8792,
  "na-eresi": 8793,
  "na-emeso": 8794,
  "na-emepe": 8795,
  "na-emenụ.": 8796,
  "na-emeghị": 8797,
  "na-emegasị": 8798,
  "na-egosipụta": 8799,
  "na-echekasị": 8800,
  "na-eche,": 8801,
  "na-ebubata": 8802,
  "na-emerụ": 8803,
  "na-ekwo": 8804,
  "na-ekuru": 8805,
  "na-eghe": 8806,
  "na-atọkwa": 8807,
  "na-atagbu": 8808,
  "na-amụtakwu": 8809,
  "na-alụghị": 8810,
  "na-akpali": 8811,
  "na-akpagbu": 8812,
  "na-agwakwa": 8813,
  "na-adịkwa": 8814,
  "na-achọsi": 8815,
  "na-abaghị": 8816,
  "na-atule": 8817,
  "na-anọchịte": 8818,
  "na-amata": 8819,
  "na-amalite": 8820,
  "na-agọzi": 8821,
  "na-adịkarị": 8822,
  "na-anyụ": 8823,
  "n'ime": 8824,
  "ns": 8825,
  "nhịa": 8826,
  "ngharị": 8827,
  "ngh": 8828,
  "ncial": 8829,
  "mụrụ,": 8830,
  "mpempe": 8831,
  "mposi": 8832,
  "mmerụaka": 8833,
  "mmetụta": 8834,
  "mmanwụ,": 8835,
  "mkpuchi": 8836,
  "mkpiri": 8837,
  "million": 8838,
  "mie": 8839,
  "mgbọ.": 8840,
  "mgbaghara.": 8841,
  "mgbata": 8842,
  "mgbaru": 8843,
  "meruo": 8844,
  "meriri,": 8845,
  "merenụ.": 8846,
  "meekwala": 8847,
  "mee?": 8848,
  "meso": 8849,
  "mekwazịrị": 8850,
  "meghere": 8851,
  "megburu": 8852,
  "megbu": 8853,
  "mbọ.": 8854,
  "mbridge": 8855,
  "maịl": 8856,
  "mart": 8857,
  "malitekwara": 8858,
  "lụrụ.": 8859,
  "lọghachiri": 8860,
  "lịn": 8861,
  "lusive": 8862,
  "lopp": 8863,
  "lity": 8864,
  "league.": 8865,
  "lentine": 8866,
  "lechukwu": 8867,
  "land.": 8868,
  "laterite": 8869,
  "lando": 8870,
  "laghachị": 8871,
  "kwụsịkwara": 8872,
  "kwụsịghị": 8873,
  "kwụrụ,": 8874,
  "kwụsi": 8875,
  "kwuo,\"": 8876,
  "kwukwazie": 8877,
  "kwe,": 8878,
  "kwanụghị": 8879,
  "kwanụ?": 8880,
  "kwasara": 8881,
  "kwọọ": 8882,
  "kwọrọ": 8883,
  "kpọpụtasịa": 8884,
  "kpọtụ": 8885,
  "kpọpụ": 8886,
  "kpọga": 8887,
  "kpamkpam,": 8888,
  "klas": 8889,
  "kina": 8890,
  "kim": 8891,
  "kewaa": 8892,
  "kal": 8893,
  "jisiike": 8894,
  "jigidesie": 8895,
  "jenụwarị,": 8896,
  "jeso": 8897,
  "irite": 8898,
  "imefu": 8899,
  "ikikere": 8900,
  "ijing": 8901,
  "ijem": 8902,
  "ije,": 8903,
  "ihere.": 8904,
  "igboukwu": 8905,
  "ichebara": 8906,
  "inter": 8907,
  "ikh": 8908,
  "igu": 8909,
  "igo": 8910,
  "idebe": 8911,
  "ida": 8912,
  "ichutu": 8913,
  "ibiri": 8914,
  "họpụtala": 8915,
  "hibru.": 8916,
  "helịkọpta": 8917,
  "ha.,": 8918,
  "han": 8919,
  "hen": 8920,
  "gwụkwala": 8921,
  "gwadịrị": 8922,
  "guage": 8923,
  "godịrị": 8924,
  "godu": 8925,
  "go,": 8926,
  "gie": 8927,
  "ghọgbuo": 8928,
  "gharịị.": 8929,
  "gedọ": 8930,
  "gbu,": 8931,
  "gbanwee.": 8932,
  "gbaturu": 8933,
  "gbanye": 8934,
  "gbanwe": 8935,
  "gbakwụnyere": 8936,
  "gbaghaara": 8937,
  "garaaga": 8938,
  "ga-ebili": 8939,
  "ga-ebelata": 8940,
  "ga-ewute": 8941,
  "ga-ekweta": 8942,
  "ga-efe": 8943,
  "ga-edo": 8944,
  "ga-amatali": 8945,
  "ga-akwata": 8946,
  "ga-akpọpụta": 8947,
  "ga-agbaghara": 8948,
  "ga-abịarukwa": 8949,
  "ga-akọ": 8950,
  "ga-akwalite": 8951,
  "ga-ahọpụta": 8952,
  "ga-agọzi": 8953,
  "ga-agbara": 8954,
  "ga-achi": 8955,
  "ga-alaghachi": 8956,
  "gagharịa": 8957,
  "ggi": 8958,
  "fur": 8959,
  "fela": 8960,
  "ft": 8961,
  "fon": 8962,
  "ezumike.": 8963,
  "ezutela": 8964,
  "ezumezu": 8965,
  "ezu,": 8966,
  "ewepụla": 8967,
  "ewepu": 8968,
  "etinyeghị": 8969,
  "eting": 8970,
  "esepụla": 8971,
  "esepu": 8972,
  "erubeghị": 8973,
  "erighị": 8974,
  "ery": 8975,
  "enyo.": 8976,
  "enweghịkwa": 8977,
  "eluigwe?": 8978,
  "elo": 8979,
  "ejije,": 8980,
  "ejikwa": 8981,
  "ehihie.": 8982,
  "ego?": 8983,
  "egede": 8984,
  "egbuke": 8985,
  "eduola": 8986,
  "edoghị": 8987,
  "ebuli": 8988,
  "ebule": 8989,
  "ebiela": 8990,
  "ebewe": 8991,
  "eko": 8992,
  "e-Osuji": 8993,
  "dịwa": 8994,
  "dịkwuo": 8995,
  "dịgide": 8996,
  "dịcha": 8997,
  "duka": 8998,
  "du,": 8999,
  "dokwara": 9000,
  "dioka": 9001,
  "dinara": 9002,
  "dechara": 9003,
  "dara,": 9004,
  "dakwasị": 9005,
  "daa,": 9006,
  "cyclo": 9007,
  "cyclopedia": 9008,
  "cua": 9009,
  "chutuo": 9010,
  "chuola": 9011,
  "chapụla": 9012,
  "chụwa": 9013,
  "chard": 9014,
  "chala": 9015,
  "cur": 9016,
  "cre": 9017,
  "bụrụkwanụ": 9018,
  "bụrụ\"elelebe\"": 9019,
  "bụrụla": 9020,
  "bụkwazị": 9021,
  "bụghịzi": 9022,
  "bụ\"a\"": 9023,
  "bụụrụ": 9024,
  "bọọlu": 9025,
  "bịakwara": 9026,
  "burukwa": 9027,
  "bucha": 9028,
  "borghi": 9029,
  "bn)": 9030,
  "bido.": 9031,
  "bia.": 9032,
  "bezbọl": 9033,
  "berto": 9034,
  "batala": 9035,
  "bara,": 9036,
  "bro": 9037,
  "bba": 9038,
  "aṅụọla": 9039,
  "azụmaahịa.": 9040,
  "azụrụ": 9041,
  "atụrụ.": 9042,
  "atụmatụ\"": 9043,
  "asata": 9044,
  "arọ.": 9045,
  "archbishop": 9046,
  "apụl": 9047,
  "anụrị.": 9048,
  "anụbeghị": 9049,
  "amalitekwa": 9050,
  "alụọla": 9051,
  "als": 9052,
  "all": 9053,
  "akụkọ.": 9054,
  "akwụna.": 9055,
  "akwammiri": 9056,
  "akpụrụakpụ": 9057,
  "akpọtụ": 9058,
  "akpa,": 9059,
  "akaja": 9060,
  "aka\"": 9061,
  "ahịhịa,": 9062,
  "agụụ.": 9063,
  "agụmaakwụkwọ": 9064,
  "agha?": 9065,
  "agbarala": 9066,
  "agbawala": 9067,
  "agbago": 9068,
  "agba,": 9069,
  "agaraghị": 9070,
  "agabiga": 9071,
  "adịghịkwa": 9072,
  "abụ.": 9073,
  "abalị:": 9074,
  "awọ": 9075,
  "avi": 9076,
  "ame": 9077,
  "action": 9078,
  "abịara": 9079,
  "ZI": 9080,
  "ZIK": 9081,
  "Xavi": 9082,
  "Water": 9083,
  "Wes": 9084,
  "Valentine": 9085,
  "Umuokpu": 9086,
  "Ugochukwu": 9087,
  "UTH": 9088,
  "UNIZIK": 9089,
  "UNIC": 9090,
  "UNICEF": 9091,
  "Uber": 9092,
  "Transforma": 9093,
  "Trafficking": 9094,
  "Trade": 9095,
  "Toni": 9096,
  "Thiba": 9097,
  "Television": 9098,
  "Tro": 9099,
  "Time": 9100,
  "Tal": 9101,
  "Syl": 9102,
  "Stand": 9103,
  "Stra": 9104,
  "Soyinka:": 9105,
  "Soma": 9106,
  "Silva": 9107,
  "Sinai": 9108,
  "Sheikh": 9109,
  "Sharon": 9110,
  "Services": 9111,
  "Sergeant": 9112,
  "Sali": 9113,
  "Span": 9114,
  "Sol": 9115,
  "Sla": 9116,
  "Sirika": 9117,
  "Simo": 9118,
  "SP": 9119,
  "Ruff": 9120,
  "Rube": 9121,
  "Roger": 9122,
  "Rights": 9123,
  "Richard": 9124,
  "Rt.": 9125,
  "Punch": 9126,
  "Prote": 9127,
  "Primary": 9128,
  "Pinnick": 9129,
  "Peters": 9130,
  "Pete": 9131,
  "Parish": 9132,
  "Papadopoulos": 9133,
  "Pakistan": 9134,
  "Patience": 9135,
  "Owelle": 9136,
  "Osadebe": 9137,
  "Orlando": 9138,
  "Olaudah": 9139,
  "Okwudili": 9140,
  "Okiyi": 9141,
  "Okey": 9142,
  "Ogbunike": 9143,
  "Odion": 9144,
  "Obono-Ob": 9145,
  "Obinagu": 9146,
  "Obigwe": 9147,
  "Oti": 9148,
  "Oni": 9149,
  "Okere": 9150,
  "Ogo": 9151,
  "Ofu": 9152,
  "Obu": 9153,
  "Nwafor": 9154,
  "Noa.": 9155,
  "Nnabuife": 9156,
  "Nigerian\"": 9157,
  "Nicholas": 9158,
  "Napoli": 9159,
  "Murtala": 9160,
  "Music": 9161,
  "Metho": 9162,
  "Marti": 9163,
  "Man.": 9164,
  "Mahrez": 9165,
  "Madrid,": 9166,
  "Macron": 9167,
  "Marcel": 9168,
  "MW": 9169,
  "London,": 9170,
  "Libya.": 9171,
  "Lilian": 9172,
  "Lent": 9173,
  "Lamborghi": 9174,
  "Kelechi": 9175,
  "Kaduna.": 9176,
  "Kaolin": 9177,
  "Kur": 9178,
  "Klopp": 9179,
  "Kel": 9180,
  "Josephi": 9181,
  "Jong-U": 9182,
  "Japan.": 9183,
  "Jairu": 9184,
  "Justin": 9185,
  "Jes": 9186,
  "Iwobi": 9187,
  "Indonesia": 9188,
  "Indonesi": 9189,
  "India.": 9190,
  "Imoh": 9191,
  "Ikedi": 9192,
  "IPOB:": 9193,
  "IPOB,": 9194,
  "Iyke": 9195,
  "Ista": 9196,
  "Isha": 9197,
  "Initiative": 9198,
  "Iniesta": 9199,
  "Ifite": 9200,
  "His": 9201,
  "Hil": 9202,
  "Han": 9203,
  "Green": 9204,
  "Ghana.": 9205,
  "Germain": 9206,
  "Get": 9207,
  "Genevieve": 9208,
  "Gassama": 9209,
  "Gọ": 9210,
  "Gana,": 9211,
  "Ful": 9212,
  "France.": 9213,
  "First": 9214,
  "Financial": 9215,
  "Farouq": 9216,
  "Facebook,": 9217,
  "Fattah": 9218,
  "Ezeagu": 9219,
  "Executive": 9220,
  "Encyclopedia": 9221,
  "El-Zakzaky-": 9222,
  "Edgal": 9223,
  "Eboe-Osuji": 9224,
  "Eye": 9225,
  "End": 9226,
  "Emp": 9227,
  "Eje": 9228,
  "Ecua": 9229,
  "ES": 9230,
  "Dijk": 9231,
  "Dennerby": 9232,
  "Dapchi:": 9233,
  "Dabiri-E": 9234,
  "Dabiri-Erewa": 9235,
  "Daily": 9236,
  "Dunuko": 9237,
  "Dona": 9238,
  "Dole": 9239,
  "Dama": 9240,
  "Courtois": 9241,
  "Comma": 9242,
  "Com": 9243,
  "City:": 9244,
  "China,": 9245,
  "Chibok,": 9246,
  "Chize": 9247,
  "Chima": 9248,
  "Chekwas": 9249,
  "Change": 9250,
  "Catalonia": 9251,
  "Carl": 9252,
  "Cancer": 9253,
  "Cameron": 9254,
  "California": 9255,
  "Cambridge": 9256,
  "CCTV": 9257,
  "Cu": 9258,
  "Clo": 9259,
  "Care": 9260,
  "Burkina": 9261,
  "Bureau": 9262,
  "Buck": 9263,
  "British": 9264,
  "Briga": 9265,
  "Brazil.": 9266,
  "Biden": 9267,
  "Berna": 9268,
  "Berger": 9269,
  "Benue:": 9270,
  "Betlehem.": 9271,
  "Beijing": 9272,
  "Balogun": 9273,
  "Balara": 9274,
  "Bakare": 9275,
  "Bon": 9276,
  "Azubuike": 9277,
  "Ayogu": 9278,
  "Award": 9279,
  "Atiku,": 9280,
  "Arsenal.": 9281,
  "Area": 9282,
  "Arabik": 9283,
  "Arafat": 9284,
  "Arch": 9285,
  "Antonio": 9286,
  "Anichukwu": 9287,
  "Americ": 9288,
  "Alexander": 9289,
  "Akure": 9290,
  "Akinwunmi": 9291,
  "Adeosu": 9292,
  "Abeoku": 9293,
  "APC,": 9294,
  "AFCON:": 9295,
  "ABSUTH": 9296,
  "Aịrish": 9297,
  "Avomi": 9298,
  "Aro": 9299,
  "Apo": 9300,
  "Alo": 9301,
  "Ag": 9302,
  "Abo": 9303,
  "AA": 9304,
  "69": 9305,
  "66": 9306,
  "400,": 9307,
  "3:": 9308,
  "29;": 9309,
  "28)": 9310,
  "26)": 9311,
  "2012.": 9312,
  "2006.": 9313,
  "2004,": 9314,
  "26,": 9315,
  "1914,": 9316,
  "1879.": 9317,
  "18,": 9318,
  "17;": 9319,
  "110": 9320,
  "11.": 9321,
  "000.": 9322,
  "000,": 9323,
  ".\"ha\"": 9324,
  "-ụlọomeiwu": 9325,
  "-otu": 9326,
  "-5)": 9327,
  "-0": 9328,
  ",...": 9329,
  "):": 9330,
  "(PDP)": 9331,
  "(APGA)": 9332,
  "(ọ": 9333,
  "(n'": 9334,
  "(IMN": 9335,
  "(G": 9336,
  "“ụmụnna": 9337,
  "“ugbu": 9338,
  "“na": 9339,
  "“lee!": 9340,
  "“ana": 9341,
  "“ama": 9342,
  "ụwa.,": 9343,
  "ụmụnwaanyị?": 9344,
  "ụmụada\"\"n'\"": 9345,
  "ụmụ,": 9346,
  "ụma.": 9347,
  "ụlọọrụ\"": 9348,
  "ụlọikpe?": 9349,
  "ụlọakụ.": 9350,
  "ụlọakwụkwọ.": 9351,
  "ụkọchukwu,": 9352,
  "ụjọ,": 9353,
  "ụy": 9354,
  "ụyọkọ": 9355,
  "ụpa": 9356,
  "ụcha": 9357,
  "ọzọkwa,": 9358,
  "ọtọmegbu": 9359,
  "ọtọ?": 9360,
  "ọrụaka": 9361,
  "ọrụ.\"": 9362,
  "ọrụ\"": 9363,
  "ọma.\"": 9364,
  "ọkụkọ.": 9365,
  "ọkpụtọrọ": 9366,
  "ọkpụtọrọkpụ": 9367,
  "ọjọọ.”": 9368,
  "ọjị.": 9369,
  "ọgụgụ.": 9370,
  "ọgụgụ,": 9371,
  "ọgwụ.": 9372,
  "ọgaranya.": 9373,
  "ọbaraọcha": 9374,
  "ọlọ": 9375,
  "ọhụ": 9376,
  "Ọzọ": 9377,
  "ịtụnye": 9378,
  "ịrụpụta": 9379,
  "ịrụgharị": 9380,
  "ịnwụchikọ": 9381,
  "ịmachị": 9382,
  "ịlụso": 9383,
  "ịkọpụta": 9384,
  "ịkpaoke": 9385,
  "ịkatọ": 9386,
  "ịhụnanya,": 9387,
  "ịhọpụtagharị": 9388,
  "ịgbasi": 9389,
  "ịgba,": 9390,
  "ịdịn'otu": 9391,
  "ịdị.": 9392,
  "ịchafụ:": 9393,
  "zọtara": 9394,
  "zị.": 9395,
  "ziekwa": 9396,
  "zigaara": 9397,
  "ziere": 9398,
  "ze,": 9399,
  "zaghachi": 9400,
  "zman": 9401,
  "z,": 9402,
  "y.": 9403,
  "wepụtara.": 9404,
  "welite": 9405,
  "warala": 9406,
  "wakpoola": 9407,
  "wazuruike": 9408,
  "wig": 9409,
  "vaịn": 9410,
  "ville": 9411,
  "urotoye": 9412,
  "urgen": 9413,
  "umudioka": 9414,
  "ugbua.\"": 9415,
  "udo?": 9416,
  "uwazuruike": 9417,
  "ubu": 9418,
  "tụwa": 9419,
  "tụpụtara": 9420,
  "tụkọtara": 9421,
  "tụgidere": 9422,
  "tụgharịrị": 9423,
  "tịala": 9424,
  "tural": 9425,
  "tumen": 9426,
  "tufuo": 9427,
  "ttacks:": 9428,
  "ttlement": 9429,
  "trous": 9430,
  "toruru": 9431,
  "tii": 9432,
  "tereni": 9433,
  "tel.": 9434,
  "taata.": 9435,
  "tịa": 9436,
  "ttee": 9437,
  "sọkwara": 9438,
  "sị\"ọ\"": 9439,
  "sum": 9440,
  "sona": 9441,
  "siness": 9442,
  "sikwuo": 9443,
  "si\"": 9444,
  "shot": 9445,
  "shog": 9446,
  "shoggi": 9447,
  "she": 9448,
  "service": 9449,
  "saịrọ": 9450,
  "saịrọs": 9451,
  "sat": 9452,
  "sco": 9453,
  "rụọrọ": 9454,
  "rụta": 9455,
  "rụburu": 9456,
  "rọọ": 9457,
  "rọfe": 9458,
  "rọba": 9459,
  "rịawa": 9460,
  "rị.": 9461,
  "rutere,": 9462,
  "ruo,": 9463,
  "ruwe": 9464,
  "ruwa": 9465,
  "riji": 9466,
  "ria,": 9467,
  "referee": 9468,
  "resi": 9469,
  "ration\"": 9470,
  "rates": 9471,
  "ray": 9472,
  "rade": 9473,
  "rya": 9474,
  "rn": 9475,
  "pụrụiche.": 9476,
  "pụsị": 9477,
  "pụl": 9478,
  "pụkwara": 9479,
  "pọpụl": 9480,
  "preme": 9481,
  "pounds": 9482,
  "power": 9483,
  "pekata": 9484,
  "parish": 9485,
  "pay": 9486,
  "prọfe": 9487,
  "ppe": 9488,
  "pela": 9489,
  "pel": 9490,
  "ozigbo.": 9491,
  "oui": 9492,
  "ose,": 9493,
  "orola": 9494,
  "orie": 9495,
  "oney": 9496,
  "omen'ụgha": 9497,
  "ole,": 9498,
  "okwute.": 9499,
  "okpotokpo": 9500,
  "okokporo": 9501,
  "okenye.": 9502,
  "ojiegoachụego": 9503,
  "ogologo,": 9504,
  "ogbenye,": 9505,
  "offi": 9506,
  "odorin": 9507,
  "obi:": 9508,
  "obi\"": 9509,
  "owe": 9510,
  "nọvemba.": 9511,
  "nọdụrụ": 9512,
  "nyere,": 9513,
  "nyewe": 9514,
  "nyegoro": 9515,
  "nyịrị": 9516,
  "nyerị": 9517,
  "nwụchara": 9518,
  "nwudere": 9519,
  "nwuchi": 9520,
  "nwu,": 9521,
  "nwoke\"": 9522,
  "nwewe": 9523,
  "nwata.": 9524,
  "nwamkpị.": 9525,
  "nwaagbọghọbịa": 9526,
  "nupuru": 9527,
  "nukwu": 9528,
  "ntụbata": 9529,
  "ntorobịa.": 9530,
  "ntal": 9531,
  "nsụnsụ": 9532,
  "nnọkọ": 9533,
  "nnukwute": 9534,
  "nnupu": 9535,
  "nledo": 9536,
  "nkụ.": 9537,
  "nkwụmọtọ": 9538,
  "nkwafu": 9539,
  "nkwa,": 9540,
  "nkeypox": 9541,
  "nkeọma.": 9542,
  "nkata,": 9543,
  "nkata.": 9544,
  "nhatanha": 9545,
  "ngwupụta": 9546,
  "ngarị": 9547,
  "ndịigbo.": 9548,
  "ndịna": 9549,
  "ndịiche": 9550,
  "ndokwa": 9551,
  "ndidi.": 9552,
  "ndation": 9553,
  "nchọnchọ": 9554,
  "nchịkọba": 9555,
  "nchegbu": 9556,
  "nchawa": 9557,
  "ncha,": 9558,
  "naiyekan": 9559,
  "na-ewutekwa": 9560,
  "na-etiri": 9561,
  "na-erite": 9562,
  "na-emesi": 9563,
  "na-emebu": 9564,
  "na-elegharị": 9565,
  "na-ekpebi": 9566,
  "na-eleru": 9567,
  "na-aṅụkwa": 9568,
  "na-ata.": 9569,
  "na-arịa.": 9570,
  "na-akụzi.": 9571,
  "na-akụrụ": 9572,
  "na-akpagharị": 9573,
  "na-ahụtụbeghị": 9574,
  "na-agụpụta": 9575,
  "na-agbalịkwa": 9576,
  "na-agbakọ": 9577,
  "na-agawanye": 9578,
  "na-agakarị": 9579,
  "na-adapụta": 9580,
  "na-achọkarị": 9581,
  "na-abịanụ.": 9582,
  "na-abịakarị": 9583,
  "na-abagide": 9584,
  "na-atụrụ": 9585,
  "na-anara": 9586,
  "na-akarị": 9587,
  "na-er": 9588,
  "na-anyị": 9589,
  "na\"ndị\"": 9590,
  "nam": 9591,
  "naiji": 9592,
  "naijiria": 9593,
  "na,\"": 9594,
  "n'ihi": 9595,
  "non": 9596,
  "nlere": 9597,
  "nkpụ": 9598,
  "ngwuru": 9599,
  "nchara.": 9600,
  "mụtakwuo": 9601,
  "mụtakwara": 9602,
  "mọkpọ": 9603,
  "myr": 9604,
  "muoh": 9605,
  "mpụtagharị": 9606,
  "mpiks": 9607,
  "mpo": 9608,
  "mpako": 9609,
  "mond": 9610,
  "mmezu.": 9611,
  "mmeri,": 9612,
  "mma-Klint": 9613,
  "mkpesa.": 9614,
  "minista.": 9615,
  "ministra": 9616,
  "min).": 9617,
  "mily": 9618,
  "mgbede,": 9619,
  "mgbalienu": 9620,
  "mgbagha": 9621,
  "mfe,": 9622,
  "metụtara,": 9623,
  "merie,": 9624,
  "metara": 9625,
  "meputa": 9626,
  "menyụọ": 9627,
  "menyụrụ": 9628,
  "mehie": 9629,
  "megawa": 9630,
  "megawatt": 9631,
  "medi": 9632,
  "meditereni": 9633,
  "mbịambịa": 9634,
  "mbombo": 9635,
  "mbipụta": 9636,
  "mapụta": 9637,
  "maliri": 9638,
  "mado": 9639,
  "machukwu": 9640,
  "machiela": 9641,
  "machi": 9642,
  "mabutere": 9643,
  "mole": 9644,
  "mford": 9645,
  "m?”": 9646,
  "m.\"": 9647,
  "lọf": 9648,
  "lọb": 9649,
  "lumma": 9650,
  "low": 9651,
  "lood": 9652,
  "llar": 9653,
  "listus": 9654,
  "liban": 9655,
  "li,": 9656,
  "legọs:": 9657,
  "leghara": 9658,
  "language": 9659,
  "lay": 9660,
  "latala": 9661,
  "lahụ": 9662,
  "lobi": 9663,
  "kụpụ": 9664,
  "kọrọ,": 9665,
  "kọrị": 9666,
  "kọnkịrị": 9667,
  "kịrịkịrị": 9668,
  "kwụsịtụrụ": 9669,
  "kwụsịtụ": 9670,
  "kwụsị?": 9671,
  "kwụrụ\"na\"": 9672,
  "kwụru": 9673,
  "kwụna": 9674,
  "kwụghachi": 9675,
  "kwuru:\"": 9676,
  "kwuzie": 9677,
  "kwusaa": 9678,
  "kwetakwara": 9679,
  "kweere.": 9680,
  "kwekọrịta": 9681,
  "kwaranụ": 9682,
  "kwaturu": 9683,
  "kwanye": 9684,
  "kutuo": 9685,
  "kubi": 9686,
  "ku,": 9687,
  "krismas.": 9688,
  "kpọmkwem.": 9689,
  "kpọgara": 9690,
  "kpoo": 9691,
  "kpasoro": 9692,
  "kpachi": 9693,
  "kpala": 9694,
  "koba": 9695,
  "kere.": 9696,
  "kemgbe,": 9697,
  "kedụzị": 9698,
  "kete": 9699,
  "kechara": 9700,
  "kanye": 9701,
  "kachi": 9702,
  "konye": 9703,
  "klọb": 9704,
  "jọlọf": 9705,
  "juun,": 9706,
  "jirizie": 9707,
  "jirila": 9708,
  "jidela": 9709,
  "jikọọ": 9710,
  "jicha": 9711,
  "ji\"": 9712,
  "jọọla": 9713,
  "jor": 9714,
  "jan": 9715,
  "iwu\"": 9716,
  "iwepu": 9717,
  "irube": 9718,
  "irikọ": 9719,
  "ire,": 9720,
  "iller": 9721,
  "ilebanye": 9722,
  "ikwupụta": 9723,
  "ije.": 9724,
  "ihiala,": 9725,
  "ihiala": 9726,
  "iden.": 9727,
  "iche.”": 9728,
  "ibunye": 9729,
  "ibugharị": 9730,
  "ibubata": 9731,
  "iberiibe.": 9732,
  "iwakpo": 9733,
  "itụ": 9734,
  "ip": 9735,
  "ikpuchi": 9736,
  "icha": 9737,
  "iba": 9738,
  "i.": 9739,
  "hụwa": 9740,
  "hood": 9741,
  "hiara": 9742,
  "hapụla": 9743,
  "hachị": 9744,
  "ha\".\"": 9745,
  "hịara": 9746,
  "hiri": 9747,
  "gwojuru": 9748,
  "guema": 9749,
  "grik,": 9750,
  "gosikwa": 9751,
  "goolụ": 9752,
  "gharị,": 9753,
  "ghala": 9754,
  "gence": 9755,
  "gbuturu": 9756,
  "gbukwara": 9757,
  "gboruwa": 9758,
  "gbolu": 9759,
  "gbene": 9760,
  "gbawaa": 9761,
  "gbalaga.": 9762,
  "gbaso": 9763,
  "gbanwebeghị": 9764,
  "gbanahụ": 9765,
  "gbagwojuru": 9766,
  "gbafuru": 9767,
  "gbadata": 9768,
  "gbachaa": 9769,
  "gbọọ": 9770,
  "garuru": 9771,
  "gafere.": 9772,
  "ga-ezukọ": 9773,
  "ga-erube": 9774,
  "ga-emeghe": 9775,
  "ga-ekwu.": 9776,
  "ga-ehichapụkwa": 9777,
  "ga-ezo": 9778,
  "ga-eturu": 9779,
  "ga-eti": 9780,
  "ga-ekpo": 9781,
  "ga-eje": 9782,
  "ga-echi": 9783,
  "ga-aza?": 9784,
  "ga-amasị:": 9785,
  "ga-amalitekwa": 9786,
  "ga-adịgide": 9787,
  "ga-achọta": 9788,
  "ga-abụ.": 9789,
  "ga-azọrọ": 9790,
  "ga-azọpụta": 9791,
  "ga-asa": 9792,
  "ga-anwa": 9793,
  "ga-alọta": 9794,
  "ga-achụpụ": 9795,
  "ga-abata": 9796,
  "ga-ara": 9797,
  "gakwa": 9798,
  "glass": 9799,
  "furt": 9800,
  "fun": 9801,
  "feela": 9802,
  "friji": 9803,
  "ezute": 9804,
  "ezuola": 9805,
  "ezinụlọ.": 9806,
  "ezie?": 9807,
  "ezibel": 9808,
  "ezani": 9809,
  "ewepụtara": 9810,
  "etozu": 9811,
  "essica": 9812,
  "esikwa": 9813,
  "eprel.": 9814,
  "enyena": 9815,
  "enweteghi": 9816,
  "enugwu?": 9817,
  "emezi": 9818,
  "emetụ": 9819,
  "emeso": 9820,
  "emekwa": 9821,
  "emegharị": 9822,
  "emechi": 9823,
  "ekwuputela": 9824,
  "ekwute": 9825,
  "ekwurịta": 9826,
  "ekwuputa": 9827,
  "ekwughi": 9828,
  "ekwesighi": 9829,
  "ekwekọrịtala": 9830,
  "ekweta.": 9831,
  "ekwe.": 9832,
  "ekpofu": 9833,
  "ekpebie": 9834,
  "ehibere": 9835,
  "egwu-": 9836,
  "ego:": 9837,
  "egedege": 9838,
  "efuola": 9839,
  "eferela": 9840,
  "echegbula": 9841,
  "ebube.": 9842,
  "ebughị": 9843,
  "ebugala": 9844,
  "ebubata": 9845,
  "ekiri": 9846,
  "eing": 9847,
  "ed": 9848,
  "dọb": 9849,
  "dọblịn": 9850,
  "dịka:": 9851,
  "duu": 9852,
  "dulaa": 9853,
  "duct": 9854,
  "dosie": 9855,
  "dollar": 9856,
  "do,": 9857,
  "dim": 9858,
  "depụtaghachiri": 9859,
  "des": 9860,
  "depụta.": 9861,
  "deere": 9862,
  "debanye": 9863,
  "dale": 9864,
  "dh": 9865,
  "d,": 9866,
  "cul": 9867,
  "conclusive": 9868,
  "cob": 9869,
  "coa": 9870,
  "chọwara": 9871,
  "chịkọtara": 9872,
  "chineke:": 9873,
  "chebagodịrị": 9874,
  "cheere": 9875,
  "cheburu": 9876,
  "change": 9877,
  "chawa": 9878,
  "chako": 9879,
  "ces": 9880,
  "cashless": 9881,
  "cord": 9882,
  "cca": 9883,
  "c,": 9884,
  "bụrụhaala": 9885,
  "bụghịkwa": 9886,
  "bụ\"ụmụada\"\"n'\"": 9887,
  "bọl": 9888,
  "burugodị": 9889,
  "busoro": 9890,
  "bunal": 9891,
  "buli": 9892,
  "bukola": 9893,
  "bubata": 9894,
  "biela": 9895,
  "bezbọl.": 9896,
  "beria": 9897,
  "barrel": 9898,
  "baptizim.": 9899,
  "bama": 9900,
  "bale": 9901,
  "azụta": 9902,
  "azọpụtara": 9903,
  "atụmatụ,": 9904,
  "arụsị,": 9905,
  "arụghị": 9906,
  "arụ,": 9907,
  "anyịnwa": 9908,
  "anyammiri": 9909,
  "anya.\"": 9910,
  "anya\"": 9911,
  "anyarala": 9912,
  "anwụọla,": 9913,
  "anwansi": 9914,
  "anaghị\"": 9915,
  "anapụtala": 9916,
  "anga": 9917,
  "amụma.": 9918,
  "amara,": 9919,
  "amagedọ": 9920,
  "amachaghị": 9921,
  "amaburula": 9922,
  "alaọmajiji": 9923,
  "alaghachị": 9924,
  "akwụwaghị": 9925,
  "akwụọ": 9926,
  "akwụ?": 9927,
  "akwụ.": 9928,
  "akwụ,": 9929,
  "akpụkpọụkwụ": 9930,
  "akpamamịrị": 9931,
  "akpagharị": 9932,
  "akaekpe": 9933,
  "ahụ\"": 9934,
  "agụrụ": 9935,
  "agbọghọbịa": 9936,
  "agbagharala": 9937,
  "agbanwebeghị": 9938,
  "agba\"": 9939,
  "agadị": 9940,
  "afael": 9941,
  "adọrọ": 9942,
  "achọghịzị": 9943,
  "achọghịzi": 9944,
  "achịcha,": 9945,
  "achịkọta": 9946,
  "aching": 9947,
  "achakeela": 9948,
  "abụrụkwa": 9949,
  "abala": 9950,
  "a?”": 9951,
  "awe": 9952,
  "atia": 9953,
  "adụ": 9954,
  "________________________________": 9955,
  "Zion": 9956,
  "Zik": 9957,
  "Youth": 9958,
  "Yaha": 9959,
  "Yaba": 9960,
  "Xenophobia:": 9961,
  "Wood": 9962,
  "Wisdom": 9963,
  "Wilfred": 9964,
  "Whit": 9965,
  "Wesley": 9966,
  "Weare": 9967,
  "Warri": 9968,
  "Win": 9969,
  "Voice": 9970,
  "Virgil": 9971,
  "Vatican": 9972,
  "Uwazuruike": 9973,
  "Universal": 9974,
  "Unity": 9975,
  "UNES": 9976,
  "UNESCO": 9977,
  "Uru": 9978,
  "Ulumma": 9979,
  "Uke": 9980,
  "Uju": 9981,
  "UJ": 9982,
  "UC": 9983,
  "Trust": 9984,
  "Transformation": 9985,
  "Tom": 9986,
  "Toky": 9987,
  "Timgad.": 9988,
  "Times": 9989,
  "Technovation": 9990,
  "Teodorin": 9991,
  "Team": 9992,
  "Tarrant": 9993,
  "Taliban": 9994,
  "Ts": 9995,
  "Tonye": 9996,
  "Ten": 9997,
  "Tam": 9998,
  "TE": 9999,
  "TD": 10000,
  "Supreme": 10001,
  "Stella": 10002,
  "Standard": 10003,
  "Stamford": 10004,
  "Spanish.": 10005,
  "Spann": 10006,
  "Sowore:": 10007,
  "Simone": 10008,
  "Shehu,": 10009,
  "Senate": 10010,
  "Segun": 10011,
  "Scot": 10012,
  "Salisu": 10013,
  "Sadiya": 10014,
  "Snow": 10015,
  "SER": 10016,
  "SA": 10017,
  "Ruben": 10018,
  "Ruga-": 10019,
  "Rotary": 10020,
  "Roberto": 10021,
  "Rob": 10022,
  "Result": 10023,
  "Regu": 10024,
  "Record": 10025,
  "Ralph": 10026,
  "Rile": 10027,
  "Rebe": 10028,
  "Rafael": 10029,
  "Prince": 10030,
  "Prime": 10031,
  "Premiership": 10032,
  "Portugal": 10033,
  "Plan": 10034,
  "Peshia": 10035,
  "Pho": 10036,
  "PP)": 10037,
  "Onoh": 10038,
  "Omambala": 10039,
  "Olimpiks": 10040,
  "Okonjo": 10041,
  "Okoi": 10042,
  "Odinga": 10043,
  "Obi-": 10044,
  "OGM": 10045,
  "Ow": 10046,
  "Otu": 10047,
  "Ogbe": 10048,
  "Off": 10049,
  "OA": 10050,
  "Nzewuji": 10051,
  "Not": 10052,
  "Nnamuoh": 10053,
  "Nnamani": 10054,
  "Nnadozie": 10055,
  "Nelson": 10056,
  "Nebal": 10057,
  "Ndubisi": 10058,
  "Nmachukwu": 10059,
  "Nguema": 10060,
  "Momo": 10061,
  "Minister": 10062,
  "Methodi": 10063,
  "Media": 10064,
  "Mbonu": 10065,
  "Mbakwe": 10066,
  "Martins": 10067,
  "Marble": 10068,
  "Madumere": 10069,
  "Maduagwu": 10070,
  "Madrid.": 10071,
  "Mali.": 10072,
  "MATA": 10073,
  "Mgbe": 10074,
  "Linda": 10075,
  "Living": 10076,
  "Lebanon": 10077,
  "League,": 10078,
  "Lekki": 10079,
  "Lamborghini": 10080,
  "Lagos.": 10081,
  "Lawal": 10082,
  "LEA": 10083,
  "Lille": 10084,
  "Korea.": 10085,
  "Konduga": 10086,
  "Khashoggi": 10087,
  "Kachikwu": 10088,
  "Kaori": 10089,
  "Justice": 10090,
  "June": 10091,
  "Joy": 10092,
  "Jigawa": 10093,
  "Jerom": 10094,
  "Jacob": 10095,
  "Jurgen": 10096,
  "Jezibel": 10097,
  "Jessica": 10098,
  "Jen": 10099,
  "Iv.": 10100,
  "Inve": 10101,
  "Indu": 10102,
  "Imohimi": 10103,
  "Imo,": 10104,
  "Ikeme": 10105,
  "Ikeaz": 10106,
  "Ifejiofor": 10107,
  "Ibikunle": 10108,
  "ISIS": 10109,
  "IPOB.": 10110,
  "ICPC": 10111,
  "Iwe": 10112,
  "Isu": 10113,
  "Ida": 10114,
  "Hutter": 10115,
  "Hung": 10116,
  "Human": 10117,
  "Heart": 10118,
  "Harcourt.": 10119,
  "Haw": 10120,
  "Hill": 10121,
  "Gọv": 10122,
  "Guardiola": 10123,
  "Godson": 10124,
  "Gy": 10125,
  "Gri": 10126,
  "Gon": 10127,
  "Gide": 10128,
  "Fulham": 10129,
  "Frankfurt": 10130,
  "Foundation": 10131,
  "Ferna": 10132,
  "Faso": 10133,
  "Ezenne": 10134,
  "Ezeani": 10135,
  "Europe.": 10136,
  "Electricity": 10137,
  "El-Zakzaky.": 10138,
  "Ekwueme": 10139,
  "Ecuador": 10140,
  "Eagles,": 10141,
  "Est": 10142,
  "Enugwu": 10143,
  "Egbu": 10144,
  "Edu": 10145,
  "Dominic": 10146,
  "Diezani": 10147,
  "Daniel,": 10148,
  "Durotoye": 10149,
  "Dr.": 10150,
  "Dia": 10151,
  "DNA": 10152,
  "Cup:": 10153,
  "Crow": 10154,
  "Croatia": 10155,
  "Crimes": 10156,
  "Crime": 10157,
  "Count": 10158,
  "Corne": 10159,
  "Confe": 10160,
  "Codeine:": 10161,
  "Coal": 10162,
  "Closure:": 10163,
  "Clay": 10164,
  "Civil": 10165,
  "Chukwueze": 10166,
  "Chuks": 10167,
  "Christie": 10168,
  "Chinua": 10169,
  "Chimezie": 10170,
  "Chiejine": 10171,
  "Chidiebere": 10172,
  "Chibuike": 10173,
  "Chibu": 10174,
  "Cameroon,": 10175,
  "Callistus": 10176,
  "Cairo": 10177,
  "CHOGM": 10178,
  "Clint": 10179,
  "C)": 10180,
  "Bucknor": 10181,
  "Boeing": 10182,
  "Beni": 10183,
  "Bene": 10184,
  "Balarabe": 10185,
  "Baby": 10186,
  "Bode": 10187,
  "Bana": 10188,
  "Bah": 10189,
  "Bada": 10190,
  "Atiku:": 10191,
  "Asisat": 10192,
  "Asagwara": 10193,
  "Arochukwu": 10194,
  "Arab": 10195,
  "Andy": 10196,
  "Anaocha": 10197,
  "Alph": 10198,
  "Airpeace": 10199,
  "Aguleri,": 10200,
  "Aguero": 10201,
  "Afara": 10202,
  "Adeboye": 10203,
  "Adegboruwa": 10204,
  "Adazi-N": 10205,
  "Administra": 10206,
  "Academy": 10207,
  "Abatete": 10208,
  "Abbo": 10209,
  "ANU": 10210,
  "AC)": 10211,
  "Assi": 10212,
  "Asia": 10213,
  "Akin": 10214,
  "Akeredo": 10215,
  "Ahiara": 10216,
  "Achalla": 10217,
  "?”)": 10218,
  "607": 10219,
  "68": 10220,
  "49": 10221,
  "35)": 10222,
  "2000,": 10223,
  "2006,": 10224,
  "2006": 10225,
  "2005": 10226,
  "2004": 10227,
  "202": 10228,
  "22)": 10229,
  "1999.": 10230,
  "184": 10231,
  "170": 10232,
  "12:": 10233,
  "-West": 10234,
  "-8": 10235,
  "-16": 10236,
  "-14)": 10237,
  "-13": 10238,
  "(IMN)": 10239,
  "(£": 10240,
  "(onye": 10241,
  "(R": 10242,
  "(INEC": 10243,
  "(D": 10244,
  "(AN": 10245,
  "(4": 10246,
  "(3": 10247,
  "%)": 10248,
  "\"onye\"": 10249,
  "\"mgbe\"": 10250,
  "\"Black\"": 10251,
  "“mkpụrụ”": 10252,
  "“ozi": 10253,
  "“naanị": 10254,
  "“chineke,": 10255,
  "“biko,": 10256,
  "’.": 10257,
  "ụwa;": 10258,
  "ụmụnwaanyị\"": 10259,
  "ụmụahịa,": 10260,
  "ụmụ-": 10261,
  "ụlọụka,": 10262,
  "ụlọntaakụkọ": 10263,
  "ụlọ\"": 10264,
  "ụka\"": 10265,
  "ụfọdụ\"": 10266,
  "ụba.": 10267,
  "ụbara": 10268,
  "ụgụrụ": 10269,
  "Ụmụ": 10270,
  "ọzọ-": 10271,
  "ọzọ\"": 10272,
  "ọnụ-ụmụnwaanyị": 10273,
  "ọnụ?": 10274,
  "ọnụ\"": 10275,
  "ọmịiko": 10276,
  "ọlaedo,": 10277,
  "ọkọchị,": 10278,
  "ọkpụkpọ": 10279,
  "ọkasị": 10280,
  "ọkachara": 10281,
  "ọgwụgwụ.": 10282,
  "ọgbanje": 10283,
  "ọfọka": 10284,
  "ọtị": 10285,
  "ọnọ": 10286,
  "ọgaghị": 10287,
  "Ọnwụ": 10288,
  "ịrụrụ": 10289,
  "ịrụ.": 10290,
  "ịnụta": 10291,
  "ịnyịnya.": 10292,
  "ịnapụta": 10293,
  "ịkpeazụ": 10294,
  "ịhụnanya.": 10295,
  "ịhụta": 10296,
  "ịghọtakwu": 10297,
  "ịgbaziri": 10298,
  "ịgbape": 10299,
  "ịgafe": 10300,
  "ịdamba": 10301,
  "ịchụda": 10302,
  "ịchafụ,": 10303,
  "ịbụ\"": 10304,
  "ịzụrụ": 10305,
  "ịwụ": 10306,
  "ịtụrụ": 10307,
  "ịrịa": 10308,
  "ịrahụ": 10309,
  "ịpị": 10310,
  "ịnọchi": 10311,
  "ịlaghachi": 10312,
  "ịkọwara": 10313,
  "ịkpọrọ": 10314,
  "ịkparị": 10315,
  "ịha": 10316,
  "ịgosi": 10317,
  "ịgha": 10318,
  "ịdọrọ": 10319,
  "ịdịrị": 10320,
  "ịdi": 10321,
  "ịdikin": 10322,
  "ịbịaru": 10323,
  "ịbara": 10324,
  "ṅụọ,": 10325,
  "án": 10326,
  "ziz": 10327,
  "zinye": 10328,
  "zig": 10329,
  "ziela": 10330,
  "zeere": 10331,
  "zho": 10332,
  "zare": 10333,
  "yuniọn": 10334,
  "yota": 10335,
  "yose": 10336,
  "yede": 10337,
  "ya.\"ihe\"": 10338,
  "ya.;": 10339,
  "ya)": 10340,
  "ya!": 10341,
  "yiwe": 10342,
  "xto": 10343,
  "xon": 10344,
  "wunye": 10345,
  "werere.": 10346,
  "wetu": 10347,
  "welata": 10348,
  "wegara": 10349,
  "viet": 10350,
  "vita": 10351,
  "viron": 10352,
  "vers": 10353,
  "vez": 10354,
  "vember": 10355,
  "vol": 10356,
  "ugboguru": 10357,
  "uta": 10358,
  "utazi": 10359,
  "um.": 10360,
  "um,": 10361,
  "uge": 10362,
  "ugegbe": 10363,
  "udiri": 10364,
  "tụtụrụ": 10365,
  "tụwara": 10366,
  "tọwa": 10367,
  "tọ,": 10368,
  "tịn": 10369,
  "trea": 10370,
  "torola": 10371,
  "tomi": 10372,
  "tolite": 10373,
  "tola": 10374,
  "tokwazịrị": 10375,
  "tion:": 10376,
  "tinyekwuoro": 10377,
  "tiwe": 10378,
  "tives": 10379,
  "thern": 10380,
  "thany": 10381,
  "tenaị": 10382,
  "tetara": 10383,
  "telli": 10384,
  "telligence": 10385,
  "tele": 10386,
  "teco": 10387,
  "tecostal": 10388,
  "tebeghị": 10389,
  "taghị.": 10390,
  "taam": 10391,
  "tawa": 10392,
  "tatenaị": 10393,
  "tai": 10394,
  "tz": 10395,
  "tto": 10396,
  "tn": 10397,
  "tari": 10398,
  "sọnde,": 10399,
  "sị,\"anyị\"": 10400,
  "syn": 10401,
  "sul": 10402,
  "strike:": 10403,
  "stries": 10404,
  "storation\"": 10405,
  "stique": 10406,
  "state:": 10407,
  "stan.": 10408,
  "st,": 10409,
  "ssia": 10410,
  "ssau": 10411,
  "ssport": 10412,
  "spen,": 10413,
  "sotere": 10414,
  "sonal": 10415,
  "socha": 10416,
  "sizị": 10417,
  "sizie": 10418,
  "sigoro": 10419,
  "sia,": 10420,
  "sheed": 10421,
  "sha,": 10422,
  "sex": 10423,
  "seman": 10424,
  "sata": 10425,
  "saala": 10426,
  "swill": 10427,
  "sugbu": 10428,
  "squ": 10429,
  "spor": 10430,
  "sand": 10431,
  "rụrụ.": 10432,
  "rụụrụ": 10433,
  "rịọrịọ": 10434,
  "rịala": 10435,
  "roke": 10436,
  "rizu": 10437,
  "rie,": 10438,
  "rency": 10439,
  "restructuring": 10440,
  "republic": 10441,
  "rapụtara": 10442,
  "rafuo": 10443,
  "rachaa": 10444,
  "raa": 10445,
  "r,": 10446,
  "pụtara\"": 10447,
  "pọnti": 10448,
  "pọntiọs": 10449,
  "pọint": 10450,
  "pịala": 10451,
  "putego": 10452,
  "puo": 10453,
  "prọfesọ": 10454,
  "plosion:": 10455,
  "photo": 10456,
  "pers": 10457,
  "penti": 10458,
  "pentikọ": 10459,
  "papers": 10460,
  "pịrị": 10461,
  "psum": 10462,
  "ppa": 10463,
  "otuto,": 10464,
  "osebu": 10465,
  "orothy": 10466,
  "oroma": 10467,
  "onyeọbụla": 10468,
  "onyeagha": 10469,
  "onweghị\"": 10470,
  "onugbu": 10471,
  "omenala.": 10472,
  "olu.": 10473,
  "olu,": 10474,
  "ologbo": 10475,
  "oku,": 10476,
  "okporoụzọ,": 10477,
  "okpụrụ": 10478,
  "ofufe,": 10479,
  "odide": 10480,
  "ochie?": 10481,
  "ocheeze": 10482,
  "oruola": 10483,
  "okwesiri": 10484,
  "oki": 10485,
  "odoro": 10486,
  "nọzịkwara": 10487,
  "nzọụkwụ": 10488,
  "nze,": 10489,
  "nyerịtara": 10490,
  "nyere.": 10491,
  "nyefe": 10492,
  "nyu": 10493,
  "nwụọla.": 10494,
  "nwụru": 10495,
  "nwuri": 10496,
  "nwughị": 10497,
  "nwu.": 10498,
  "nwetụbeghị": 10499,
  "nweburu": 10500,
  "nwaanyị?": 10501,
  "nwaanyị\"": 10502,
  "nwalee": 10503,
  "nwala": 10504,
  "nupụtara": 10505,
  "ntị?": 10506,
  "nting": 10507,
  "ntifi": 10508,
  "ntamu": 10509,
  "ntozu": 10510,
  "nsọ?": 10511,
  "nsogbu?": 10512,
  "nrụrụaka,": 10513,
  "nrụpụta": 10514,
  "nofia": 10515,
  "nnyocha,": 10516,
  "nkwekọrịta.": 10517,
  "nkwado.": 10518,
  "nkeji.": 10519,
  "nkebi": 10520,
  "nkakwụ": 10521,
  "njedebe,": 10522,
  "nical": 10523,
  "nia.": 10524,
  "nia,": 10525,
  "nhọpụta,": 10526,
  "nghọta,": 10527,
  "nghagharị": 10528,
  "nga.": 10529,
  "new": 10530,
  "ndesli": 10531,
  "ndede": 10532,
  "nds": 10533,
  "nchụaja,": 10534,
  "nce:": 10535,
  "naịjirịa.\"": 10536,
  "nator,": 10537,
  "naly": 10538,
  "nakwa\"": 10539,
  "na-ezukọ": 10540,
  "na-ezo.": 10541,
  "na-etinyekwa": 10542,
  "na-esonụ": 10543,
  "na-erula": 10544,
  "na-enyochakwa": 10545,
  "na-emetụta": 10546,
  "na-emesapụ": 10547,
  "na-emekwara": 10548,
  "na-eme?": 10549,
  "na-ekpofu": 10550,
  "na-egosiputa": 10551,
  "na-efekọ": 10552,
  "na-esere": 10553,
  "na-enu": 10554,
  "na-egboro": 10555,
  "na-efo": 10556,
  "na-atụle": 10557,
  "na-arụkwa": 10558,
  "na-amịpụta": 10559,
  "na-amasị.": 10560,
  "na-akụzi,": 10561,
  "na-akwalitekwa": 10562,
  "na-agụkọ": 10563,
  "na-agụ,": 10564,
  "na-agwaghị": 10565,
  "na-agabiga,": 10566,
  "na-adabara": 10567,
  "na-achọpụta": 10568,
  "na-atọrọ": 10569,
  "na-apịa": 10570,
  "na-ahọrọ": 10571,
  "na-achụpụ": 10572,
  "na-ahụ,": 10573,
  "na\"ihe\"": 10574,
  "nazare": 10575,
  "nah": 10576,
  "na:\"": 10577,
  "nzi": 10578,
  "nobi": 10579,
  "nguzobe": 10580,
  "mwakpo.": 10581,
  "msby": 10582,
  "mpic": 10583,
  "mpi.": 10584,
  "mont": 10585,
  "mmụta.": 10586,
  "mmigra": 10587,
  "mmigration": 10588,
  "mmanụ,": 10589,
  "mmadụ.\"": 10590,
  "mmad": 10591,
  "mmachị": 10592,
  "mkpụrụ,": 10593,
  "mkpọpụta": 10594,
  "mkpokọta": 10595,
  "minium": 10596,
  "miliano": 10597,
  "minal": 10598,
  "miah": 10599,
  "mgbochi.": 10600,
  "mgbape": 10601,
  "mgbakasị": 10602,
  "mgbada": 10603,
  "mgbaasị": 10604,
  "mezuru.": 10605,
  "merubere": 10606,
  "meri.": 10607,
  "mere\"": 10608,
  "mebiri.": 10609,
  "mejupụtara": 10610,
  "mdili": 10611,
  "mbịarambịa": 10612,
  "mbido.": 10613,
  "mbido,": 10614,
  "mbaza": 10615,
  "matakwuo": 10616,
  "mara\"": 10617,
  "mark": 10618,
  "marala": 10619,
  "malitezie": 10620,
  "makarị": 10621,
  "mass": 10622,
  "marụ": 10623,
  "majara": 10624,
  "main": 10625,
  "made": 10626,
  "mabeghị": 10627,
  "m”": 10628,
  "mkwụ": 10629,
  "mkwụmọtọ": 10630,
  "mhen": 10631,
  "m),": 10632,
  "lụtara": 10633,
  "lọọlọ": 10634,
  "lịkalịka": 10635,
  "lus": 10636,
  "logi": 10637,
  "lie,": 10638,
  "lima": 10639,
  "likọ": 10640,
  "likọpta": 10641,
  "lia,": 10642,
  "lebarala": 10643,
  "lena": 10644,
  "legide": 10645,
  "lazarọs,": 10646,
  "lady": 10647,
  "lade": 10648,
  "kụtala": 10649,
  "kọwa,": 10650,
  "kọrịnt": 10651,
  "kọsị": 10652,
  "kọkwara": 10653,
  "kwụsịnụ": 10654,
  "kwụsịla": 10655,
  "kwụkwara": 10656,
  "kwụ,": 10657,
  "kwurula": 10658,
  "kwuo-": 10659,
  "kwadoo": 10660,
  "kwapụ": 10661,
  "kuziiri": 10662,
  "kulu": 10663,
  "kpụpụla": 10664,
  "kpụkọrọ": 10665,
  "kpọọkwa": 10666,
  "kpọrọ.": 10667,
  "kpọmkwem,": 10668,
  "kpọlitechara": 10669,
  "kpọtụụrụ": 10670,
  "kpọsa": 10671,
  "kpọro": 10672,
  "kpọkasịrị": 10673,
  "kpughe": 10674,
  "kpuchiri": 10675,
  "kpekwazie": 10676,
  "kparịtara": 10677,
  "kpasara": 10678,
  "kpaliri": 10679,
  "korota": 10680,
  "kiru": 10681,
  "kesaara": 10682,
  "kemgbe\"": 10683,
  "kelekwara": 10684,
  "kedu": 10685,
  "ke-": 10686,
  "kagbuonu": 10687,
  "kadịnal": 10688,
  "kawanyere": 10689,
  "kato": 10690,
  "kariri": 10691,
  "jụru": 10692,
  "jịkọtara": 10693,
  "juun.": 10694,
  "juda": 10695,
  "je,": 10696,
  "izugbe.": 10697,
  "izipụ": 10698,
  "iyi,": 10699,
  "isiụlọọrụ": 10700,
  "isse": 10701,
  "iru.": 10702,
  "iro.": 10703,
  "ire.": 10704,
  "ipzig": 10705,
  "inconclusive": 10706,
  "imi,": 10707,
  "imebisi": 10708,
  "imesi": 10709,
  "imepute": 10710,
  "imepe": 10711,
  "illar": 10712,
  "ilele": 10713,
  "ilead": 10714,
  "ike;": 10715,
  "ihiwe?": 10716,
  "ihazigharị": 10717,
  "igbuichi": 10718,
  "idemmiri.": 10719,
  "ichewe": 10720,
  "ibupu": 10721,
  "ituru": 10722,
  "irụ": 10723,
  "inwogharị": 10724,
  "inwere": 10725,
  "ilo": 10726,
  "ikọ": 10727,
  "iguzobe": 10728,
  "igafe": 10729,
  "ido": 10730,
  "ichere": 10731,
  "ibanye": 10732,
  "ia,": 10733,
  "i,": 10734,
  "hụbeghị": 10735,
  "hiela": 10736,
  "helikọpta": 10737,
  "ham.": 10738,
  "har": 10739,
  "gịnịdị": 10740,
  "gwụla": 10741,
  "graph": 10742,
  "ghịrị": 10743,
  "gharakwa": 10744,
  "ghaa": 10745,
  "ghụ": 10746,
  "ghu": 10747,
  "ghiri": 10748,
  "ghari": 10749,
  "gbụrụgbụrụ": 10750,
  "gbuona": 10751,
  "gbuchara": 10752,
  "gbasakwara": 10753,
  "gbarụọ": 10754,
  "gbanyụọ": 10755,
  "gbakụta": 10756,
  "gbakee": 10757,
  "gbaka": 10758,
  "gbajọọ": 10759,
  "gbajiri": 10760,
  "gbaala": 10761,
  "gbinde": 10762,
  "gaziere": 10763,
  "gara.": 10764,
  "ga-ewetara": 10765,
  "ga-eso.": 10766,
  "ga-erute": 10767,
  "ga-enyeaka": 10768,
  "ga-enwekwa": 10769,
  "ga-emepe": 10770,
  "ga-emegharị": 10771,
  "ga-emechi": 10772,
  "ga-ekwusa": 10773,
  "ga-ebuli": 10774,
  "ga-ebikwa": 10775,
  "ga-ewu": 10776,
  "ga-ekewa": 10777,
  "ga-eju": 10778,
  "ga-edozi": 10779,
  "ga-ede": 10780,
  "ga-awụchi": 10781,
  "ga-arụcha": 10782,
  "ga-amagbu": 10783,
  "ga-alaghachị": 10784,
  "ga-akwụsịli": 10785,
  "ga-akwụsị.": 10786,
  "ga-agbachi": 10787,
  "ga-anapụta": 10788,
  "ga-akụ": 10789,
  "ga-akọwa": 10790,
  "ga-akwụrụ": 10791,
  "ga-abụrụ": 10792,
  "gazịrị": 10793,
  "gaziri": 10794,
  "gagharị": 10795,
  "gabiga": 10796,
  "gge": 10797,
  "garị": 10798,
  "forcement": 10799,
  "fooro": 10800,
  "fo-A": 10801,
  "fo-Ad": 10802,
  "fo-Addo": 10803,
  "fite,": 10804,
  "ference": 10805,
  "feere": 10806,
  "farisii": 10807,
  "fụrụ": 10808,
  "fort": 10809,
  "fford": 10810,
  "ezighị": 10811,
  "ezigara": 10812,
  "eze-": 10813,
  "explosion:": 10814,
  "eweliela": 10815,
  "eruo.": 10816,
  "erughi": 10817,
  "erubere": 10818,
  "erubeghi": 10819,
  "erizi": 10820,
  "erimeri": 10821,
  "erra": 10822,
  "enyo,": 10823,
  "enyemaka,": 10824,
  "enyeela": 10825,
  "enwerela": 10826,
  "enue": 10827,
  "enerable": 10828,
  "emewe": 10829,
  "emenụ": 10830,
  "emee.": 10831,
  "emebu": 10832,
  "eme?": 10833,
  "eleke": 10834,
  "ella": 10835,
  "el-": 10836,
  "ekwulọ": 10837,
  "ekwuchitere": 10838,
  "ekwubuola": 10839,
  "ekwesi.": 10840,
  "ekwesi,": 10841,
  "ekwensu,": 10842,
  "ekweghị.": 10843,
  "ekwetara": 10844,
  "ekwenyere": 10845,
  "ekwenye": 10846,
  "ekpe.": 10847,
  "ekeghị": 10848,
  "ejila": 10849,
  "egwuregwu:": 10850,
  "egosighị": 10851,
  "efe.": 10852,
  "eforola": 10853,
  "echiela": 10854,
  "echefu.": 10855,
  "echezọ": 10856,
  "ebelebe": 10857,
  "emo": 10858,
  "ek": 10859,
  "edi": 10860,
  "echu": 10861,
  "dọwara": 10862,
  "dọnyere": 10863,
  "dịka,": 10864,
  "dịghịrị": 10865,
  "dịkwara": 10866,
  "dịgidere": 10867,
  "dịbeghị": 10868,
  "dow": 10869,
  "dokwuo": 10870,
  "diora": 10871,
  "dinaa": 10872,
  "dith": 10873,
  "dis": 10874,
  "dimkpa.": 10875,
  "dian": 10876,
  "deration": 10877,
  "dera": 10878,
  "dewere": 10879,
  "detaara": 10880,
  "day.": 10881,
  "dawa": 10882,
  "dapụta": 10883,
  "dam": 10884,
  "dakpọrọ": 10885,
  "dajụọ": 10886,
  "dagidere": 10887,
  "dachara": 10888,
  "daba": 10889,
  "daka": 10890,
  "copper": 10891,
  "coma": 10892,
  "com": 10893,
  "coin": 10894,
  "cker": 10895,
  "chọpụtarala": 10896,
  "chịa.": 10897,
  "chuo": 10898,
  "chu,": 10899,
  "chasịrị": 10900,
  "cham": 10901,
  "cha!": 10902,
  "ce,": 10903,
  "carpe": 10904,
  "cup": 10905,
  "cture": 10906,
  "cti": 10907,
  "cri": 10908,
  "cou": 10909,
  "class": 10910,
  "bụrụzịa": 10911,
  "bụọ": 10912,
  "bịrị": 10913,
  "buturu": 10914,
  "butuo": 10915,
  "bution": 10916,
  "bugharịrị": 10917,
  "budget": 10918,
  "border": 10919,
  "bonch": 10920,
  "biri,": 10921,
  "bin": 10922,
  "billion": 10923,
  "bill": 10924,
  "betel.": 10925,
  "bena": 10926,
  "bao": 10927,
  "bakwa": 10928,
  "bail": 10929,
  "bbi": 10930,
  "aṅa": 10931,
  "azụmaahịa,": 10932,
  "awụsala": 10933,
  "awa.": 10934,
  "asụọla": 10935,
  "arụzi": 10936,
  "arụpụtala": 10937,
  "arụmarụ": 10938,
  "aruru": 10939,
  "arume": 10940,
  "apụta,": 10941,
  "anyị;": 10942,
  "anyị-onye": 10943,
  "anwụghị": 10944,
  "antino": 10945,
  "anapụ": 10946,
  "ana.": 10947,
  "ange": 10948,
  "amụọla": 10949,
  "amaghịzị": 10950,
  "amaghịkwa": 10951,
  "amaghị.": 10952,
  "amala": 10953,
  "amakụọla": 10954,
  "amadị,": 10955,
  "amachị": 10956,
  "alụọ": 10957,
  "along": 10958,
  "ald": 10959,
  "alara": 10960,
  "akụnụba": 10961,
  "akụ.": 10962,
  "akwụkwọ\"": 10963,
  "akwụsịrị": 10964,
  "akwụsị,": 10965,
  "akwọọla": 10966,
  "akpụkọ": 10967,
  "akpọla": 10968,
  "akpọghị": 10969,
  "akparịta": 10970,
  "akara.": 10971,
  "akaghị": 10972,
  "ahụ.,": 10973,
  "ahịhịa.": 10974,
  "ahọrọ": 10975,
  "ahara": 10976,
  "agụụ,": 10977,
  "agụmakwụkwọ.": 10978,
  "agụọ": 10979,
  "aghọtahie": 10980,
  "aghọtacha": 10981,
  "agbanweela.": 10982,
  "agbalaga": 10983,
  "agbasala": 10984,
  "agbanweghị": 10985,
  "agbam": 10986,
  "agbakụtala": 10987,
  "agbajọọla": 10988,
  "agbagbu": 10989,
  "agaara": 10990,
  "agaala.": 10991,
  "aga?": 10992,
  "afikpo": 10993,
  "adịkwa": 10994,
  "adịcha": 10995,
  "adọọ": 10996,
  "achọ.": 10997,
  "achanwụ": 10998,
  "abụghịzi": 10999,
  "aṅụrụ": 11000,
  "azi": 11001,
  "apịa": 11002,
  "ana-ajọ": 11003,
  "alọghachi": 11004,
  "ajụrụ": 11005,
  "agọzi": 11006,
  "agozie": 11007,
  "adụọla": 11008,
  "acc": 11009,
  "a\".\"": 11010,
  "Zubair": 11011,
  "Zimbabwe,": 11012,
  "Zou": 11013,
  "Yahaya": 11014,
  "YPP": 11015,
  "Wealth": 11016,
  "Wales": 11017,
  "Wage:": 11018,
  "Wike,": 11019,
  "Wha": 11020,
  "Version": 11021,
  "Vul": 11022,
  "Vol": 11023,
  "Visi": 11024,
  "Venerable": 11025,
  "Uzoho": 11026,
  "Uwaifo": 11027,
  "USA": 11028,
  "US.": 11029,
  "Uyo": 11030,
  "Uhuru": 11031,
  "Ugbo": 11032,
  "UA": 11033,
  "Trafford": 11034,
  "Toyota": 11035,
  "Texas": 11036,
  "Technology": 11037,
  "Tanzani": 11038,
  "Taiwo": 11039,
  "Ty": 11040,
  "Tou": 11041,
  "Tha": 11042,
  "TUC": 11043,
  "TCN": 11044,
  "TB": 11045,
  "T.": 11046,
  "Super\"": 11047,
  "State:": 11048,
  "Staff": 11049,
  "Stadium": 11050,
  "Spring": 11051,
  "Soviet": 11052,
  "Snowden": 11053,
  "Simeon": 11054,
  "Sierra": 11055,
  "Service,": 11056,
  "Sergio": 11057,
  "Settlement": 11058,
  "Scott": 11059,
  "Sambisa": 11060,
  "Say": 11061,
  "SERAP": 11062,
  "Swi": 11063,
  "Stock": 11064,
  "Sir": 11065,
  "Sar": 11066,
  "Sani": 11067,
  "SU": 11068,
  "SON": 11069,
  "S.": 11070,
  "Ruffcoin": 11071,
  "Rooney": 11072,
  "Roch": 11073,
  "Riley": 11074,
  "Republican": 11075,
  "Rehab.": 11076,
  "Rebecca": 11077,
  "Reube": 11078,
  "Restoration\"": 11079,
  "Rechel": 11080,
  "Raila": 11081,
  "Robi": 11082,
  "Rho": 11083,
  "Ram": 11084,
  "RB": 11085,
  "Qa": 11086,
  "Public": 11087,
  "Province": 11088,
  "Polytechnic": 11089,
  "Plateau,": 11090,
  "Pentecostal": 11091,
  "Patricia": 11092,
  "Pat": 11093,
  "Pas": 11094,
  "Paci": 11095,
  "Prie": 11096,
  "Pra": 11097,
  "Pere": 11098,
  "Pell": 11099,
  "Oyemade": 11100,
  "Osimhen": 11101,
  "Open.": 11102,
  "Onigbinde": 11103,
  "Okpaleke": 11104,
  "Okoli": 11105,
  "Ogakwu": 11106,
  "Odekpe,": 11107,
  "Odedeji": 11108,
  "Obono-Obla": 11109,
  "Out": 11110,
  "Our": 11111,
  "Ose": 11112,
  "Ore": 11113,
  "On": 11114,
  "Ole": 11115,
  "Okwuo": 11116,
  "Oil": 11117,
  "OR": 11118,
  "Nyong": 11119,
  "Nwodo,": 11120,
  "Nwoye": 11121,
  "Nwora": 11122,
  "Nwabueze": 11123,
  "Nuella": 11124,
  "North.": 11125,
  "North,": 11126,
  "Northern": 11127,
  "November": 11128,
  "Nnaemeka": 11129,
  "Nkemdili": 11130,
  "Nimo,": 11131,
  "Niger.": 11132,
  "Nicolas": 11133,
  "Ngige,": 11134,
  "Newspapers": 11135,
  "Naija.": 11136,
  "Nass": 11137,
  "NDLEA": 11138,
  "NCDC": 11139,
  "Nno": 11140,
  "Nando": 11141,
  "Mystique": 11142,
  "Musli": 11143,
  "Mohammad": 11144,
  "Mona": 11145,
  "Micro": 11146,
  "Miracle": 11147,
  "Mila": 11148,
  "Megan": 11149,
  "Meeting": 11150,
  "Medi": 11151,
  "Marco": 11152,
  "Mandela": 11153,
  "ManCity": 11154,
  "Malami": 11155,
  "Malta": 11156,
  "Mallam": 11157,
  "Magazi": 11158,
  "Matịn": 11159,
  "Mail": 11160,
  "Miche": 11161,
  "Maha": 11162,
  "ME": 11163,
  "Luther": 11164,
  "Lupita": 11165,
  "Loveth": 11166,
  "Light,": 11167,
  "Libya,": 11168,
  "Lie": 11169,
  "Leone": 11170,
  "Leipzig": 11171,
  "Lau": 11172,
  "Los": 11173,
  "Lord": 11174,
  "Lar": 11175,
  "Korea,": 11176,
  "Kelvin": 11177,
  "Kemi": 11178,
  "Karoui": 11179,
  "Kaduna,": 11180,
  "Kong": 11181,
  "Killing": 11182,
  "Kid": 11183,
  "Josephine": 11184,
  "Jour": 11185,
  "Jessie": 11186,
  "Jama": 11187,
  "J.": 11188,
  "Iweka": 11189,
  "Issa": 11190,
  "Island": 11191,
  "Infantino": 11192,
  "Imo.": 11193,
  "Ikechukwu,": 11194,
  "Ikenna": 11195,
  "Ifeanyichukwu": 11196,
  "Idigo,": 11197,
  "Iso": 11198,
  "Ish": 11199,
  "Immigration": 11200,
  "Imma": 11201,
  "Ile": 11202,
  "Ik": 11203,
  "Igwe": 11204,
  "Ic": 11205,
  "Hungary": 11206,
  "Hud": 11207,
  "Herod": 11208,
  "Haram?": 11209,
  "Harper": 11210,
  "Hote": 11211,
  "Home": 11212,
  "Guinea,": 11213,
  "Guma": 11214,
  "Gui": 11215,
  "Grimsby": 11216,
  "Godswill": 11217,
  "Goddy": 11218,
  "Global": 11219,
  "Gideon": 11220,
  "Ghana,": 11221,
  "Gail": 11222,
  "Gilead": 11223,
  "Gen": 11224,
  "Garu": 11225,
  "Freedom": 11226,
  "Fred": 11227,
  "Food": 11228,
  "Florida": 11229,
  "Fini": 11230,
  "Fee": 11231,
  "Fatoyinbo.": 11232,
  "Falana": 11233,
  "Fayose": 11234,
  "Family": 11235,
  "FM": 11236,
  "Ezeobi": 11237,
  "Euph": 11238,
  "Esther": 11239,
  "Enforcement": 11240,
  "Ekweremadu,": 11241,
  "Eid-": 11242,
  "Ehab.": 11243,
  "Edochie": 11244,
  "Ebenator,": 11245,
  "Ebelechukwu": 11246,
  "Eaglets": 11247,
  "Eagles.": 11248,
  "Ezu": 11249,
  "Enwo": 11250,
  "Ene": 11251,
  "Elia": 11252,
  "Egba": 11253,
  "Ede": 11254,
  "Ebuka": 11255,
  "Donatus": 11256,
  "Dora": 11257,
  "Dixon": 11258,
  "David-West": 11259,
  "Danma": 11260,
  "Dangote": 11261,
  "Dambaza": 11262,
  "DP)": 11263,
  "Dy": 11264,
  "Duke": 11265,
  "Dorothy": 11266,
  "Desi": 11267,
  "Der": 11268,
  "Crowther": 11269,
  "Criminal": 11270,
  "Cornelius": 11271,
  "Corby": 11272,
  "Committee": 11273,
  "Common": 11274,
  "Codeine,": 11275,
  "Costa": 11276,
  "Cont": 11277,
  "Coast": 11278,
  "Clinton": 11279,
  "Cind": 11280,
  "Chukwulobelu": 11281,
  "Chukwuka": 11282,
  "Chizea": 11283,
  "Chidoka": 11284,
  "Chikwelu": 11285,
  "Chidera": 11286,
  "Chiagozie": 11287,
  "Chelsea.": 11288,
  "Chelsea,": 11289,
  "Chapo": 11290,
  "Cho": 11291,
  "Canc": 11292,
  "Calixto": 11293,
  "CNM": 11294,
  "Card": 11295,
  "Cara": 11296,
  "C.": 11297,
  "Bundesli": 11298,
  "Brigade": 11299,
  "Britan": 11300,
  "Bring": 11301,
  "Bodejo": 11302,
  "Benjami": 11303,
  "Bethany": 11304,
  "Best": 11305,
  "Bea": 11306,
  "Banabas": 11307,
  "Babangi": 11308,
  "Babandede": 11309,
  "Baịbụl": 11310,
  "BBC\"": 11311,
  "BBOG": 11312,
  "Bola": 11313,
  "Ayamelum": 11314,
  "Avomimi": 11315,
  "Athletics": 11316,
  "Atani": 11317,
  "Atla": 11318,
  "Ashịdikin": 11319,
  "Arewa": 11320,
  "Ararume": 11321,
  "Angeles": 11322,
  "Angel": 11323,
  "Anajemba,": 11324,
  "Amarizu": 11325,
  "Amadi": 11326,
  "Akufo-Addo": 11327,
  "Akase": 11328,
  "Airport:": 11329,
  "Agbakoba": 11330,
  "Adoration": 11331,
  "Adeosun": 11332,
  "Adebukola": 11333,
  "Adamu,": 11334,
  "Abule": 11335,
  "Abid": 11336,
  "Abeokuta": 11337,
  "Abdulrasheed": 11338,
  "Abdulrahman": 11339,
  "Abdula": 11340,
  "Abr": 11341,
  "APC:": 11342,
  "AP)": 11343,
  "Awara": 11344,
  "Ane": 11345,
  "Analy": 11346,
  "Ako": 11347,
  "Aje": 11348,
  "Aha": 11349,
  "Agụ": 11350,
  "Aga": 11351,
  "Adu": 11352,
  "AZ": 11353,
  "91": 11354,
  "83": 11355,
  "74": 11356,
  "73": 11357,
  "6;": 11358,
  "6:": 11359,
  "500.": 11360,
  "500,": 11361,
  "5000": 11362,
  "40,": 11363,
  "370": 11364,
  "33,": 11365,
  "28:": 11366,
  "24,": 11367,
  "23.": 11368,
  "23,": 11369,
  "2016,": 11370,
  "2011,": 11371,
  "2010,": 11372,
  "2000.": 11373,
  "2008.": 11374,
  "2003": 11375,
  "29,": 11376,
  "21)": 11377,
  "17.": 11378,
  "17,": 11379,
  "150": 11380,
  "120": 11381,
  "113": 11382,
  "000).": 11383,
  "-zọgbuo": 11384,
  "-Uche": 11385,
  "-Okorocha": 11386,
  "-NLC": 11387,
  "-Don": 11388,
  "-Atiku": 11389,
  "-7)": 11390,
  "-22": 11391,
  "-17": 11392,
  "(gaa": 11393,
  "(dịka": 11394,
  "(DSS": 11395,
  "(7": 11396,
  "(1,": 11397,
  "\"ị\"": 11398,
  "\"mana\"": 11399,
  "\"kedụ\"": 11400,
  "\"dị\"": 11401,
  "“achọrọ": 11402,
  "“ụlọ": 11403,
  "“ụgwọ": 11404,
  "“site": 11405,
  "“mana": 11406,
  "“kemgbe": 11407,
  "“ike": 11408,
  "“bịaruo": 11409,
  "“bịaruonụ": 11410,
  "“anya": 11411,
  "“agwa": 11412,
  "ụzọ\"": 11413,
  "ụwa.”)": 11414,
  "ụta,": 11415,
  "ụmụụmụ": 11416,
  "ụlọọrụ,": 11417,
  "ụlọomeiwu.": 11418,
  "ụlọikwuu.": 11419,
  "ụlọakwụkwọ,": 11420,
  "ụlọekpere": 11421,
  "ụlọ.”": 11422,
  "ụkpaka,": 11423,
  "ụgwọ?": 11424,
  "ụgha?": 11425,
  "ụgbọ-": 11426,
  "ụda.": 11427,
  "ụda,": 11428,
  "ụbọchị?": 11429,
  "ụbọchị.”": 11430,
  "ụba,": 11431,
  "ụta.": 11432,
  "ụlụ": 11433,
  "ọzọ-Chido": 11434,
  "ọzọdi": 11435,
  "ọzọ;": 11436,
  "ọrụugbo.": 11437,
  "ọrụsị": 11438,
  "ọnụụlọ": 11439,
  "ọnwụama": 11440,
  "ọnwụamaegbu": 11441,
  "ọna,": 11442,
  "ọmụmụ,": 11443,
  "ọma”": 11444,
  "ọlị.”": 11445,
  "ọlị,": 11446,
  "ọkpọka,": 11447,
  "ọkparaeze": 11448,
  "ọkafọ,": 11449,
  "ọkankuzi": 11450,
  "ọjị,": 11451,
  "ọhụrụ”": 11452,
  "ọhanaeze.": 11453,
  "ọgwụike": 11454,
  "ọgbugba": 11455,
  "ọgbakọ,": 11456,
  "ọgbaaghara,": 11457,
  "ọdọgwụ": 11458,
  "ọdachi,": 11459,
  "ọchịehi.": 11460,
  "ọchịchị?": 11461,
  "ọbụla.\"": 11462,
  "ọbaozi": 11463,
  "ọwara": 11464,
  "ọtụrụ": 11465,
  "ọrị": 11466,
  "ọkpọrọ": 11467,
  "ọbịa.": 11468,
  "Ọnwụzu": 11469,
  "Ọnwụzuri": 11470,
  "Ọm": 11471,
  "Ọmọba": 11472,
  "Ọkọ": 11473,
  "ịtụnanya.": 11474,
  "ịtụgharị": 11475,
  "ịrịgba": 11476,
  "ịmụtakwu": 11477,
  "ịmapụta": 11478,
  "ịmanye": 11479,
  "ịmaghị": 11480,
  "ịlaịja.": 11481,
  "ịkụzi": 11482,
  "ịkwụghachi": 11483,
  "ịkwafu": 11484,
  "ịkpọta": 11485,
  "ịkpa.": 11486,
  "ịhụnanya.”": 11487,
  "ịgbata": 11488,
  "ịgbapụta": 11489,
  "ịgbakọ": 11490,
  "ịga.": 11491,
  "ịdọta": 11492,
  "ịdọnyere": 11493,
  "ịdị,": 11494,
  "ịchịgharị": 11495,
  "ịbụrụ": 11496,
  "ịtọhapụ": 11497,
  "ịsonye": 11498,
  "ịso": 11499,
  "ịrọ": 11500,
  "ịnọrọ": 11501,
  "ịnyere": 11502,
  "ịna-ewe": 11503,
  "ịna-ekpe": 11504,
  "ịna-akpa": 11505,
  "ịma,": 11506,
  "ịlọta": 11507,
  "ịlọghachi": 11508,
  "ịli": 11509,
  "ịlimọn": 11510,
  "ịfụ": 11511,
  "ịch": 11512,
  "ṅụrịa": 11513,
  "ṅụjuru": 11514,
  "zutekwara": 11515,
  "zuzu": 11516,
  "zor,": 11517,
  "zoba": 11518,
  "zitere,": 11519,
  "zinyere": 11520,
  "zigharịrị": 11521,
  "zza": 11522,
  "zakwa": 11523,
  "zakari": 11524,
  "zakariya": 11525,
  "yi,": 11526,
  "yech": 11527,
  "ye.": 11528,
  "yahoo-": 11529,
  "yahoo-yahoo": 11530,
  "ya.\"anyị\"": 11531,
  "ya-PFN": 11532,
  "yadh": 11533,
  "yaba": 11534,
  "yọs": 11535,
  "y-": 11536,
  "wụsara": 11537,
  "wụsa": 11538,
  "wụchie": 11539,
  "wuchie": 11540,
  "wokwa": 11541,
  "werela": 11542,
  "were.": 11543,
  "weet": 11544,
  "wee\"": 11545,
  "west": 11546,
  "weputara": 11547,
  "welie": 11548,
  "wechara": 11549,
  "wakwa": 11550,
  "war": 11551,
  "vitamin": 11552,
  "vironme": 11553,
  "vironmenta": 11554,
  "vironmentalist": 11555,
  "view": 11556,
  "vic": 11557,
  "verha": 11558,
  "verhampton": 11559,
  "vangi": 11560,
  "vangira": 11561,
  "vangirai": 11562,
  "vus": 11563,
[...]
