{
  "<unk>": 0,
  "<s>": 1,
  "</s>": 2,
  "<pad>": 3,
  "<mask morph>": 4,
  "!": 5,
  "\"": 6,
  "#": 7,
  "$": 8,
  "%": 9,
  "&": 10,
  "'": 11,
  "(": 12,
  ")": 13,
  "*": 14,
  ",": 15,
  "-": 16,
  ".": 17,
  "/": 18,
  "0": 19,
  "1": 20,
  "2": 21,
  "3": 22,
  "4": 23,
  "5": 24,
  "6": 25,
  "7": 26,
  "8": 27,
  "9": 28,
  ":": 29,
  ";": 30,
  "<": 31,
  "=": 32,
  ">": 33,
  "?": 34,
  "@": 35,
  "A": 36,
  "B": 37,
  "C": 38,
  "CH": 39,
  "Ch": 40,
  "D": 41,
  "E": 42,
  "F": 43,
  "G": 44,
  "GB": 45,
  "Gb": 46,
  "Gh": 47,
  "Gw": 48,
  "H": 49,
  "I": 50,
  "J": 51,
  "K": 52,
  "KP": 53,
  "Kp": 54,
  "Kw": 55,
  "L": 56,
  "M": 57,
  "N": 58,
  "NW": 59,
  "NY": 60,
  "Nw": 61,
  "Ny": 62,
  "O": 63,
  "P": 64,
  "Q": 65,
  "R": 66,
  "S": 67,
  "SH": 68,
  "Sh": 69,
  "T": 70,
  "U": 71,
  "V": 72,
  "W": 73,
  "X": 74,
  "Y": 75,
  "Z": 76,
  "[": 77,
  "]": 78,
  "^": 79,
  "_": 80,
  "`": 81,
  "a": 82,
  "b": 83,
  "c": 84,
  "ch": 85,
  "d": 86,
  "e": 87,
  "f": 88,
  "g": 89,
  "gb": 90,
  "gh": 91,
  "gw": 92,
  "h": 93,
  "i": 94,
  "j": 95,
  "k": 96,
  "kp": 97,
  "kw": 98,
  "l": 99,
  "m": 100,
  "n": 101,
  "nw": 102,
  "ny": 103,
  "o": 104,
  "p": 105,
  "q": 106,
  "r": 107,
  "s": 108,
  "sh": 109,
  "t": 110,
  "u": 111,
  "v": 112,
  "w": 113,
  "x": 114,
  "y": 115,
  "z": 116,
  "{": 117,
  "|": 118,
  "}": 119,
  "£": 120,
  "®": 121,
  "·": 122,
  "É": 123,
  "Ö": 124,
  "×": 125,
  "à": 126,
  "á": 127,
  "ã": 128,
  "ä": 129,
  "å": 130,
  "æ": 131,
  "ç": 132,
  "è": 133,
  "é": 134,
  "ì": 135,
  "í": 136,
  "ï": 137,
  "ñ": 138,
  "ó": 139,
  "ô": 140,
  "ö": 141,
  "ø": 142,
  "ù": 143,
  "ú": 144,
  "ü": 145,
  "ć": 146,
  "č": 147,
  "ğ": 148,
  "ń": 149,
  "ş": 150,
  "š": 151,
  "ż": 152,
  "ž": 153,
  "̀": 154,
  "́": 155,
  "ׁ": 156,
  "ה": 157,
  "נ": 158,
  "פ": 159,
  "ש": 160,
  "ṅ": 161,
  "ạ": 162,
  "ẹ": 163,
  "Ị": 164,
  "ị": 165,
  "Ọ": 166,
  "ọ": 167,
  "Ụ": 168,
  "ụ": 169,
  "–": 170,
  "—": 171,
  "‘": 172,
  "’": 173,
  "“": 174,
  "”": 175,
  "•": 176,
  "₦": 177,
  "€": 178,
  "■": 179,
  "●": 180,
  "": 181,
  "na": 182,
  "dị": 183,
  "ka": 184,
  "ma": 185,
  "n'": 186,
  "bụ": 187,
  "er": 188,
  "ar": 189,
  "ndị": 190,
  "ke": 191,
  "ha": 192,
  "na-": 193,
  "ere": 194,
  "ara": 195,
  "ya": 196,
  "me": 197,
  "ih": 198,
  "la": 199,
  "ga": 200,
  "si": 201,
  "nye": 202,
  "ji": 203,
  "hụ": 204,
  "ta": 205,
  "ihe": 206,
  "kwu": 207,
  "rụ": 208,
  "ri": 209,
  "any": 210,
  "ahụ": 211,
  "ru": 212,
  "nke": 213,
  "rị": 214,
  "tu": 215,
  "ba": 216,
  "kwa": 217,
  "onye": 218,
  "na-a": 219,
  "na-e": 220,
  "ghị": 221,
  "tụ": 222,
  "dụ": 223,
  "ti": 224,
  "ga-": 225,
  "te": 226,
  "gba": 227,
  "otu": 228,
  "le": 229,
  "be": 230,
  "bi": 231,
  "zi": 232,
  "anyị": 233,
  "sị": 234,
  "mma": 235,
  "pụ": 236,
  "kọ": 237,
  "mụ": 238,
  "an": 239,
  "chi": 240,
  "chị": 241,
  "che": 242,
  "nwe": 243,
  "zọ": 244,
  "aka": 245,
  "lọ": 246,
  "rọ": 247,
  "kụ": 248,
  "do": 249,
  "ụlọ": 250,
  "we": 251,
  "ne": 252,
  "kwụ": 253,
  "ala": 254,
  "nwa": 255,
  "go": 256,
  "fọ": 257,
  "gbu": 258,
  "isi": 259,
  "ra": 260,
  "mmadụ": 261,
  "li": 262,
  "gbe": 263,
  "ebe": 264,
  "ike": 265,
  "ọrọ": 266,
  "iri": 267,
  "kwuru": 268,
  "wa": 269,
  "de": 270,
  "cha": 271,
  "ro": 272,
  "maka": 273,
  "bu": 274,
  "mgbe": 275,
  "tọ": 276,
  "ga-e": 277,
  "mere": 278,
  "so": 279,
  "tara": 280,
  "ni": 281,
  "gbo": 282,
  "ụmụ": 283,
  "rịa": 284,
  "ọọ": 285,
  "gwu": 286,
  "ịa": 287,
  "ọrụ": 288,
  "eti": 289,
  "nwere": 290,
  "ga-a": 291,
  "nụ": 292,
  "sa": 293,
  "ge": 294,
  "ọchị": 295,
  "anya": 296,
  "afọ": 297,
  "mba": 298,
  "bo": 299,
  "ime": 300,
  "okwu": 301,
  "nwụ": 302,
  "abụ": 303,
  "kwe": 304,
  "akụ": 305,
  "ọzọ": 306,
  "gị": 307,
  "akwụ": 308,
  "lu": 309,
  "ịji": 310,
  "ịjirịa": 311,
  "naịjirịa": 312,
  "nọ": 313,
  "obi": 314,
  "kwọ": 315,
  "se": 316,
  "kpe": 317,
  "zu": 318,
  "di": 319,
  "ezi": 320,
  "ste": 321,
  "neke": 322,
  "steeti": 323,
  "chineke": 324,
  "iche": 325,
  "akwụkwọ": 326,
  "kpa": 327,
  "nyere": 328,
  "da": 329,
  "ile": 330,
  "nt": 331,
  "nu": 332,
  "dịka": 333,
  "pụta": 334,
  "oke": 335,
  "re": 336,
  "niile": 337,
  "oge": 338,
  "je": 339,
  "gụ": 340,
  "agh": 341,
  "tụtụ": 342,
  "wu": 343,
  "ku": 344,
  "ya.": 345,
  "abụọ": 346,
  "akụkọ": 347,
  "ịbụ": 348,
  "na-eme": 349,
  "arị": 350,
  "eri": 351,
  "mp": 352,
  "ko": 353,
  "a.": 354,
  "ama": 355,
  "onyeisi": 356,
  "anọ": 357,
  "igbo": 358,
  "ọtụtụ": 359,
  "on": 360,
  "bụrụ": 361,
  "sọ": 362,
  "kpọ": 363,
  "bịa": 364,
  "nwaanyị": 365,
  "kwara": 366,
  "bodo": 367,
  "pu": 368,
  "ịbụl": 369,
  "baịbụl": 370,
  "mi": 371,
  "ọnụ": 372,
  "bụla": 373,
  "mme": 374,
  "obodo": 375,
  "du": 376,
  "ana": 377,
  "egwu": 378,
  "20": 379,
  "iji": 380,
  "gbọ": 381,
  "chọ": 382,
  "fe": 383,
  "ụwa": 384,
  "hi": 385,
  "aga": 386,
  "gwa": 387,
  "pụtara": 388,
  "iwu": 389,
  "siri": 390,
  "ikpe": 391,
  "to": 392,
  "ụb": 393,
  "ze": 394,
  "ego": 395,
  "eme": 396,
  "mb": 397,
  "uru": 398,
  "az": 399,
  "gọ": 400,
  "ụbọchị": 401,
  "ntị": 402,
  "agba": 403,
  "onwe": 404,
  "tere": 405,
  "a,": 406,
  "ho": 407,
  "ụrụ": 408,
  "st": 409,
  "ari": 410,
  "ihi": 411,
  "ndụ": 412,
  "ahụ.": 413,
  "ozi": 414,
  "oji": 415,
  "uwe": 416,
  "mana": 417,
  "sịrị": 418,
  "gara": 419,
  "ọchịchị": 420,
  "aha": 421,
  "lụ": 422,
  "atọ": 423,
  "ah": 424,
  "ụzọ": 425,
  "ukwu": 426,
  "gọọ": 427,
  "mm": 428,
  "gọọme": 429,
  "Bu": 430,
  "kpọrọ": 431,
  "hụrụ": 432,
  "elu": 433,
  "fọdụ": 434,
  "kwuo": 435,
  "ojii": 436,
  "ọka": 437,
  "ya,": 438,
  "nwoke": 439,
  "jụ": 440,
  "ụfọdụ": 441,
  "ha.": 442,
  "kpo": 443,
  "nd": 444,
  "201": 445,
  "ụgbọ": 446,
  "sụ": 447,
  "ọma": 448,
  "sara": 449,
  "ahụ,": 450,
  "nso": 451,
  "eze": 452,
  "agha": 453,
  "ome": 454,
  "mee": 455,
  "were": 456,
  "mer": 457,
  ".”": 458,
  "gbara": 459,
  "or": 460,
  "nweghị": 461,
  "asa": 462,
  "chara": 463,
  "hov": 464,
  "ihu": 465,
  "jehov": 466,
  "hari": 467,
  "Buhari": 468,
  "ga-eme": 469,
  "mara": 470,
  "gharị": 471,
  "ọbụla": 472,
  "gi": 473,
  "ugbu": 474,
  "ọkụ": 475,
  "nakwa": 476,
  "olu": 477,
  "gwụ": 478,
  "nna": 479,
  "nyo": 480,
  "ụka": 481,
  "gbasara": 482,
  "gwara": 483,
  "lite": 484,
  "uweojii": 485,
  "el": 486,
  "ma,": 487,
  "onyeisiala": 488,
  "chọrọ": 489,
  "ole": 490,
  "ọnwa": 491,
  "ela": 492,
  "nwu": 493,
  "wee": 494,
  "na-ekwu": 495,
  "nga": 496,
  "mkpa": 497,
  "jehova": 498,
  "zọs": 499,
  "aba": 500,
  "jizọs": 501,
  "nta": 502,
  "jiri": 503,
  ".\"": 504,
  "pa": 505,
  "arụ": 506,
  "atụ": 507,
  "mbụ": 508,
  "gwe": 509,
  "mmiri": 510,
  "gọọmentị": 511,
  "ntụ": 512,
  "anụ": 513,
  "gburu": 514,
  "na-agba": 515,
  "vanọ": 516,
  "mpi": 517,
  "gọvanọ": 518,
  "pụrụ": 519,
  "kpụ": 520,
  "mo": 521,
  "jọ": 522,
  "dọ": 523,
  "site": 524,
  "ekwe": 525,
  "ja": 526,
  "nne": 527,
  "iwe": 528,
  "anwụ": 529,
  "ga-ama": 530,
  "al": 531,
  "nị": 532,
  "pe": 533,
  "dere": 534,
  "lị": 535,
  "mgba": 536,
  "Jo": 537,
  "gu": 538,
  "in": 539,
  "ju": 540,
  "ahịa": 541,
  "ise": 542,
  "gwọ": 543,
  "adị": 544,
  "bido": 545,
  "kwado": 546,
  "kị": 547,
  "ndọrọ": 548,
  "oko": 549,
  "eziokwu": 550,
  "BB": 551,
  "asọ": 552,
  "nyi": 553,
  "anyere": 554,
  "mu": 555,
  "ntụli": 556,
  "karị": 557,
  "ghọ": 558,
  "tupu": 559,
  "th": 560,
  "ọnwụ": 561,
  "azụ": 562,
  "igwe": 563,
  "mkp": 564,
  "na-ahụ": 565,
  "ce": 566,
  "BBC": 567,
  "ọla": 568,
  "zị": 569,
  "zụ": 570,
  "mbra": 571,
  "nri": 572,
  "anambra": 573,
  "aghara": 574,
  "ọgwụ": 575,
  "bere": 576,
  "ntụliaka": 577,
  "ebu": 578,
  "asọmpi": 579,
  "okp": 580,
  "bara": 581,
  "ọgba": 582,
  "azị": 583,
  "nsogbu": 584,
  "ruo": 585,
  "ọkwa": 586,
  "fu": 587,
  "eji": 588,
  "bọọ": 589,
  "ọj": 590,
  "ghara": 591,
  "nche": 592,
  "etu": 593,
  "nwunye": 594,
  "gha": 595,
  "enu": 596,
  "bọọlụ": 597,
  "bị": 598,
  "regwu": 599,
  "egwuregwu": 600,
  "kiri": 601,
  "rịka": 602,
  "taa": 603,
  "mmụ": 604,
  "lo": 605,
  "na-aga": 606,
  "chụ": 607,
  "chie": 608,
  "ola": 609,
  "ig": 610,
  "ọhụrụ": 611,
  "yi": 612,
  "unu": 613,
  "maazị": 614,
  "ebi": 615,
  "ga-amasị": 616,
  "kacha": 617,
  "nwee": 618,
  "anị": 619,
  "naanị": 620,
  "af": 621,
  "etiti": 622,
  "zie": 623,
  "wara": 624,
  "nweta": 625,
  "ibe": 626,
  "ou": 627,
  "enugwu": 628,
  "nya": 629,
  "amer": 630,
  "ezigbo": 631,
  "banyere": 632,
  "akwa": 633,
  "Ma": 634,
  "AP": 635,
  "lee": 636,
  "chukwu": 637,
  "sị:": 638,
  "ọjọọ": 639,
  "ọbụ": 640,
  "ziri": 641,
  "su": 642,
  "ụlọọrụ": 643,
  "ụmụnwaanyị": 644,
  "wakpo": 645,
  "kwụsị": 646,
  "eru": 647,
  "ụtọ": 648,
  "agaghị": 649,
  "agụ": 650,
  "raị": 651,
  "nti": 652,
  "Mu": 653,
  "ịka": 654,
  "buru": 655,
  "ụlọikpe": 656,
  "nde": 657,
  "ghi": 658,
  "abalị": 659,
  "sta": 660,
  "gosi": 661,
  "narị": 662,
  "enye": 663,
  "ada": 664,
  "en": 665,
  "kwesịrị": 666,
  "ịgba": 667,
  "kemgbe": 668,
  "2019": 669,
  "anaghị": 670,
  "kpere": 671,
  "ol": 672,
  "goolu": 673,
  "Chi": 674,
  "chiri": 675,
  "gịnị": 676,
  "tinye": 677,
  "ngwa": 678,
  "Nig": 679,
  "amerịka": 680,
  "nọdụ": 681,
  "gaa": 682,
  "ha,": 683,
  "ekwuo": 684,
  "ajụ": 685,
  "zo": 686,
  "mbọ": 687,
  "00": 688,
  "ụgwọ": 689,
  "nwụrụ": 690,
  "il": 691,
  "nkeji": 692,
  "nal": 693,
  "afrịka": 694,
  "ọrịa": 695,
  "za": 696,
  "kere": 697,
  "ruru": 698,
  "ọnọdụ": 699,
  "ga-esi": 700,
  "cheta": 701,
  "tion": 702,
  "laba": 703,
  "kọta": 704,
  "ekwuola": 705,
  "gosiri": 706,
  "meri": 707,
  "bịara": 708,
  "ụdị": 709,
  "nyocha": 710,
  "bata": 711,
  "Ro": 712,
  "ṅụ": 713,
  "mpaghara": 714,
  "nchekwa": 715,
  "litere": 716,
  "vi": 717,
  "ụgbọelu": 718,
  "beghị": 719,
  "nụlọ": 720,
  "ng": 721,
  "ezinụlọ": 722,
  "ọdị": 723,
  "gị:": 724,
  "Nigeri": 725,
  "na-akpọ": 726,
  "APC": 727,
  "nje": 728,
  "ngalaba": 729,
  "kọrọ": 730,
  "soro": 731,
  "asụ": 732,
  "osi": 733,
  "ugwu": 734,
  "puku": 735,
  "gọọmenti": 736,
  "izu": 737,
  "it": 738,
  "omeiwu": 739,
  "kee": 740,
  "okpuru": 741,
  "isii": 742,
  "gboro": 743,
  "no": 744,
  "ehi": 745,
  "bụkwa": 746,
  "imo": 747,
  "19": 748,
  "iko": 749,
  "na-achị": 750,
  "enweghị": 751,
  "ekpere": 752,
  "bụghị": 753,
  "amụ": 754,
  "nkiri": 755,
  "biri": 756,
  "na-eche": 757,
  "oh": 758,
  "m,": 759,
  "kọwa": 760,
  "ki": 761,
  "m.": 762,
  "Man": 763,
  "nku": 764,
  "uche": 765,
  "ọsọ": 766,
  "ụgbọala": 767,
  "nzu": 768,
  "kwere": 769,
  "ajụjụ": 770,
  "ọgụ": 771,
  "ozu": 772,
  "ver": 773,
  "dịrị": 774,
  "ịma": 775,
  "raịst": 776,
  "abụghị": 777,
  "ter": 778,
  "nyeghị": 779,
  "ga-eji": 780,
  "asụsụ": 781,
  "Su": 782,
  "kraịst": 783,
  "enwe": 784,
  "ele": 785,
  "echi": 786,
  "mmụọ": 787,
  "Re": 788,
  "mume": 789,
  "na-arụ": 790,
  "na-achọ": 791,
  "atụma": 792,
  "abịa": 793,
  "nnu": 794,
  "atụmatụ": 795,
  "olee": 796,
  "nsọ": 797,
  "asaa": 798,
  "oro": 799,
  "mmemme": 800,
  "agwa": 801,
  "Li": 802,
  "maọbụ": 803,
  "na-enye": 804,
  "gbuo": 805,
  "Jose": 806,
  "ụkwụ": 807,
  "na-adị": 808,
  "obere": 809,
  "ngagharị": 810,
  "ano": 811,
  "kpara": 812,
  "nkwa": 813,
  "gide": 814,
  "am": 815,
  "ọzọ.": 816,
  "achọ": 817,
  "karịrị": 818,
  "tụrụ": 819,
  "tọrọ": 820,
  "adịghị": 821,
  "mkpụrụ": 822,
  "Mo": 823,
  "Da": 824,
  "ụmụaka": 825,
  "anya.": 826,
  "akpa": 827,
  "eke": 828,
  "les": 829,
  "kọwara": 830,
  "kwukwara": 831,
  "ran": 832,
  "hapụ": 833,
  "enyi": 834,
  "egbe": 835,
  "ọgbakọ": 836,
  "nala": 837,
  "bekee": 838,
  "asatọ": 839,
  "Boko": 840,
  "rịta": 841,
  "of": 842,
  "nwata": 843,
  "àm": 844,
  "àmà": 845,
  "ugbua": 846,
  "manụ": 847,
  "Hara": 848,
  "per": 849,
  "Nigeria": 850,
  "hịa": 851,
  "Co": 852,
  "ugboro": 853,
  "tinyere": 854,
  "La": 855,
  "chere": 856,
  "DP": 857,
  "ve": 858,
  "ofe": 859,
  "ebubo": 860,
  "anụmanụ": 861,
  "ụkọ": 862,
  "okpo": 863,
  "njem": 864,
  "nai": 865,
  "họ": 866,
  "ori": 867,
  "malitere": 868,
  "ito": 869,
  "fụ": 870,
  "na-akpa": 871,
  "nka": 872,
  "kịta": 873,
  "kike": 874,
  "Na": 875,
  "bidoro": 876,
  "po": 877,
  "ogi": 878,
  "nkuzi": 879,
  "ghọta": 880,
  "nnukwu": 881,
  "mụrụ": 882,
  "Uni": 883,
  "ezu": 884,
  "ga-abụ": 885,
  "ntaakụkọ": 886,
  "PDP": 887,
  "Haram": 888,
  "udo": 889,
  "mechara": 890,
  "na-atụ": 891,
  "hie": 892,
  "karịa": 893,
  "kama": 894,
  "agbanyeghị": 895,
  "naira": 896,
  "ca": 897,
  "ọkpụ": 898,
  "ye": 899,
  "aka.": 900,
  "dara": 901,
  "Josef": 902,
  "mkpe": 903,
  "ibu": 904,
  "ọcha": 905,
  "Le": 906,
  "zuru": 907,
  "ohere": 908,
  "anyanwụ": 909,
  "pati": 910,
  "gọs": 911,
  "dum": 912,
  "chọpụta": 913,
  "naịjirịa.": 914,
  "ikike": 915,
  "Pe": 916,
  "ịhụ": 917,
  "legọs": 918,
  "okporo": 919,
  "gụnyere": 920,
  "egbu": 921,
  "tị": 922,
  "ogo": 923,
  "au": 924,
  "ndịàmà": 925,
  "kwuru,": 926,
  "kanu": 927,
  "ndọrọndọrọ": 928,
  "Muha": 929,
  "mdi": 930,
  "itoolu": 931,
  "abu": 932,
  "Al": 933,
  "us": 934,
  "mmanụ": 935,
  "OB": 936,
  "ahụhụ": 937,
  "IP": 938,
  "Muhamma": 939,
  "ekwu": 940,
  "EC": 941,
  "okoro": 942,
  "malite": 943,
  "chọọ": 944,
  "na-akụ": 945,
  "kachasị": 946,
  "ike.": 947,
  "chaa": 948,
  "ụkọchukwu": 949,
  "wo": 950,
  "oche": 951,
  "na-ele": 952,
  "steeti.": 953,
  "na-abịa": 954,
  "nọrọ": 955,
  "mmeri": 956,
  "ide": 957,
  "chiela": 958,
  "mata": 959,
  "Ea": 960,
  "sịrị:": 961,
  "ofesi": 962,
  "na-eji": 963,
  "Muhammadu": 964,
  "ịdị": 965,
  "op": 966,
  "mini": 967,
  "ris": 968,
  "IPOB": 969,
  "ụlọomeiwu": 970,
  "ghachi": 971,
  "achị": 972,
  "ugo": 973,
  "ster": 974,
  "saụ": 975,
  "lie": 976,
  "kwesiri": 977,
  "Fa": 978,
  "niile.": 979,
  "maha": 980,
  "tiku": 981,
  "pọ": 982,
  "mma.": 983,
  "arịa": 984,
  "ụmụakwụkwọ": 985,
  "ia": 986,
  "sote": 987,
  "nkwado": 988,
  "mụta": 989,
  "ụtụtụ": 990,
  "kọrịta": 991,
  "gbaa": 992,
  "esi": 993,
  "Atiku": 994,
  "ụba": 995,
  "rel": 996,
  "ogige": 997,
  "ochie": 998,
  "inye": 999,
  "agb": 1000,
  "bọ": 1001,
  "anya,": 1002,
  "onal": 1003,
  "ikpeazụ": 1004,
  "ọdụ": 1005,
  "okpu": 1006,
  "mmụta": 1007,
  "In": 1008,
  "nzukọ": 1009,
  "ntọ": 1010,
  "amaghị": 1011,
  "he": 1012,
  "ọha": 1013,
  "alaeze": 1014,
  "ịrị": 1015,
  "osisi": 1016,
  "Super": 1017,
  "ọzọ,": 1018,
  "ck": 1019,
  "banye": 1020,
  "họpụta": 1021,
  "osote": 1022,
  "mgbasa": 1023,
  "na-ama": 1024,
  "katọ": 1025,
  "Ada": 1026,
  "ga-adị": 1027,
  "bụrụkwa": 1028,
  "mahadum": 1029,
  "anyị.": 1030,
  "alụ": 1031,
  "saụt": 1032,
  "minista": 1033,
  "mkpọrọ": 1034,
  "dia": 1035,
  "ahọ": 1036,
  "asị": 1037,
  "\".\"": 1038,
  "ted": 1039,
  "shịa": 1040,
  "e,": 1041,
  "nwekwara": 1042,
  "meriri": 1043,
  "Ar": 1044,
  "ịrụ": 1045,
  "Tru": 1046,
  "ọtọ": 1047,
  "obiano": 1048,
  "na-efe": 1049,
  "naghị": 1050,
  "akara": 1051,
  "aja": 1052,
  "Oko": 1053,
  "na-enwe": 1054,
  "na-eru": 1055,
  "na-agụ": 1056,
  "ajọ": 1057,
  "sie": 1058,
  "eluigwe": 1059,
  "dọkịta": 1060,
  "fi": 1061,
  "ọna": 1062,
  "omenala": 1063,
  "oku": 1064,
  "amụma": 1065,
  "ịga": 1066,
  "pụtala": 1067,
  "kpatara": 1068,
  "ọdọ": 1069,
  "gaghị": 1070,
  "eche": 1071,
  "So": 1072,
  "ty": 1073,
  "kọmi": 1074,
  "ọma.": 1075,
  "okwukwe": 1076,
  "ntoro": 1077,
  "bụ,": 1078,
  "ọkacha": 1079,
  "ọba": 1080,
  "ntorobịa": 1081,
  "anyị,": 1082,
  "ad": 1083,
  "Ab": 1084,
  "na-ebu": 1085,
  "Wil": 1086,
  "IN": 1087,
  "ikwu": 1088,
  "co": 1089,
  "Eag": 1090,
  "tan": 1091,
  "gawa": 1092,
  "es": 1093,
  "INEC": 1094,
  "jụrụ": 1095,
  "ga-enye": 1096,
  "Trump": 1097,
  "FC": 1098,
  "ọhịa": 1099,
  "vid": 1100,
  "rụrụ": 1101,
  "nwetara": 1102,
  "mwakpo": 1103,
  "akpụ": 1104,
  "Af": 1105,
  "ebighị": 1106,
  "United": 1107,
  "omume": 1108,
  "nwan": 1109,
  "usoro": 1110,
  "ngagharịiwe": 1111,
  "ity": 1112,
  "ike,": 1113,
  "baịbụl.": 1114,
  "Ka": 1115,
  "onweghị": 1116,
  "Sa": 1117,
  "nọchi": 1118,
  "kpọku": 1119,
  "Ne": 1120,
  "Ade": 1121,
  "njọ": 1122,
  "ihe.": 1123,
  "ga-agba": 1124,
  "doro": 1125,
  "Se": 1126,
  "Eagles": 1127,
  "ten": 1128,
  "ss": 1129,
  "na\"": 1130,
  "iz": 1131,
  "goro": 1132,
  "od": 1133,
  "nnamdi": 1134,
  "echiche": 1135,
  "baka": 1136,
  "vo": 1137,
  "ọw": 1138,
  "Ri": 1139,
  "Mi": 1140,
  "ụlọụka": 1141,
  "ọgọ": 1142,
  "obi.": 1143,
  "metụ": 1144,
  "akụkụ": 1145,
  "lik": 1146,
  "kedụ": 1147,
  "chineke,": 1148,
  "arịta": 1149,
  "ani": 1150,
  "Obi": 1151,
  "ịtụ": 1152,
  "wakporo": 1153,
  "ur": 1154,
  "ume": 1155,
  "turu": 1156,
  "fo": 1157,
  "a:": 1158,
  "ọwụwa": 1159,
  "and": 1160,
  "pt": 1161,
  "nda": 1162,
  "else": 1163,
  "Ba": 1164,
  "ọfụ": 1165,
  "pọl": 1166,
  "na-egosi": 1167,
  "ir": 1168,
  "merie": 1169,
  "iyi": 1170,
  "fere": 1171,
  "ebo": 1172,
  "chọpụtara": 1173,
  "con": 1174,
  "na-esi": 1175,
  "Chelse": 1176,
  "wụ": 1177,
  "ohi": 1178,
  "dio": 1179,
  "City": 1180,
  ",\"": 1181,
  "ọgbọ": 1182,
  "na-eso": 1183,
  "katọlik": 1184,
  "izrel": 1185,
  "ine": 1186,
  "son": 1187,
  "land": 1188,
  "kwalite": 1189,
  "chineke.": 1190,
  "onyi": 1191,
  "enyemaka": 1192,
  "emume": 1193,
  "ụnya": 1194,
  "taghị": 1195,
  "nihu": 1196,
  "abuja": 1197,
  "tional": 1198,
  "pool": 1199,
  "inwe": 1200,
  "eziokwu.": 1201,
  "Moha": 1202,
  "verpool": 1203,
  "oriri": 1204,
  "na-akwado": 1205,
  "Liverpool": 1206,
  "200": 1207,
  "shịal": 1208,
  "oli": 1209,
  "na-adịghị": 1210,
  "isiokwu": 1211,
  "fada": 1212,
  "soshịal": 1213,
  "pụla": 1214,
  "nji": 1215,
  "ewe": 1216,
  "ci": 1217,
  "akị": 1218,
  "achụ": 1219,
  "Sou": 1220,
  "De": 1221,
  "na-ekpe": 1222,
  "gụọ": 1223,
  "..": 1224,
  "zde": 1225,
  "ogbu": 1226,
  "Afri": 1227,
  "\"\"": 1228,
  "jeri": 1229,
  "agu": 1230,
  "Ca": 1231,
  "'.": 1232,
  "ọkaiwu": 1233,
  "ọmụ": 1234,
  "onyinye": 1235,
  "juru": 1236,
  "Chelsea": 1237,
  "tri": 1238,
  "oyi": 1239,
  "ọ\"": 1240,
  "na-agwa": 1241,
  "kpọọ": 1242,
  "ing": 1243,
  "akpọ": 1244,
  "ụlọakwụkwọ": 1245,
  "ode": 1246,
  "onyo": 1247,
  "isi.": 1248,
  "iche.": 1249,
  "ọgbaaghara": 1250,
  "sịghị": 1251,
  "onyonyo": 1252,
  "mmadụ.": 1253,
  "ekpe": 1254,
  "e.": 1255,
  "arc": 1256,
  "aka,": 1257,
  "2019.": 1258,
  "ugbua,": 1259,
  "ment": 1260,
  "ham": 1261,
  "chu": 1262,
  "To": 1263,
  "rịọ": 1264,
  "net": 1265,
  "na-ere": 1266,
  "agbọ": 1267,
  "ọbara": 1268,
  "na-ewe": 1269,
  "mgb": 1270,
  "chester": 1271,
  "Manchester": 1272,
  "wit": 1273,
  "nwanne": 1274,
  "mmed": 1275,
  "gharịa": 1276,
  "ụwa.": 1277,
  "ort": 1278,
  "mama": 1279,
  "kwuru.": 1280,
  "South": 1281,
  "madu": 1282,
  "ite": 1283,
  "bie": 1284,
  "2018": 1285,
  "gee": 1286,
  "dịghị": 1287,
  "abụọ.": 1288,
  "ụra": 1289,
  "okpukpe": 1290,
  "okorocha": 1291,
  "ala.": 1292,
  "ọgbu": 1293,
  "ly": 1294,
  "godị": 1295,
  "ak": 1296,
  "Ja": 1297,
  "El": 1298,
  "ọnị": 1299,
  "ọnịcha": 1300,
  "vootu": 1301,
  "ry": 1302,
  "omeka": 1303,
  "mbere": 1304,
  "kpọrọ\"": 1305,
  "chas": 1306,
  "Sta": 1307,
  "Rochas": 1308,
  "Nwo": 1309,
  "na-ekwuru": 1310,
  "for": 1311,
  "ọchịehi": 1312,
  "ya?": 1313,
  "ope": 1314,
  "nyela": 1315,
  "aga.": 1316,
  "Fran": 1317,
  "Arse": 1318,
  "va": 1319,
  "na-ata": 1320,
  "mberede": 1321,
  "ede": 1322,
  "Bi": 1323,
  "nle": 1324,
  "kpu": 1325,
  "ga-aga": 1326,
  "der": 1327,
  "bri": 1328,
  "agbọghọ": 1329,
  "aga,": 1330,
  "Arsenal": 1331,
  "nụrụ": 1332,
  "akịrịka": 1333,
  "Mohammed": 1334,
  "Fe": 1335,
  "“ọ": 1336,
  "nwụọ": 1337,
  "ijipt": 1338,
  "emeela": 1339,
  "Peter": 1340,
  "setan": 1341,
  "nọọ": 1342,
  "juu": 1343,
  "gbata": 1344,
  "',": 1345,
  "kọtara": 1346,
  "gharịrị": 1347,
  "ọkammụta": 1348,
  "ky": 1349,
  "10": 1350,
  "ịkpa": 1351,
  "witter": 1352,
  "tala": 1353,
  "s,": 1354,
  "ong": 1355,
  "kweremadu": 1356,
  "batara": 1357,
  "atụ,": 1358,
  "Ekweremadu": 1359,
  "000": 1360,
  "taa.": 1361,
  "omekaome": 1362,
  "na-eri": 1363,
  "nhọpụta": 1364,
  "kọmish": 1365,
  "ekele": 1366,
  "ber": 1367,
  "anwụọla": 1368,
  "Pre": 1369,
  "Ke": 1370,
  "ụwa,": 1371,
  "wi": 1372,
  "uju": 1373,
  "s.": 1374,
  "our": 1375,
  "mkparịta": 1376,
  "gidere": 1377,
  "Eze": 1378,
  "Abu": 1379,
  "ọrụ.": 1380,
  "ozugbo": 1381,
  "mpụ": 1382,
  "kọmishọna": 1383,
  "cy": 1384,
  "aru": 1385,
  "ala,": 1386,
  "ịlụ": 1387,
  "na-abụ": 1388,
  "naeze": 1389,
  "mkpu": 1390,
  "jo": 1391,
  "eziokwu,": 1392,
  "eh": 1393,
  "a?": 1394,
  "ịkpọ": 1395,
  "zịrị": 1396,
  "nwereike": 1397,
  "kwasị": 1398,
  "1,": 1399,
  "ọkaikpe": 1400,
  "ọgụgụ": 1401,
  "rụọ": 1402,
  "ogbuni": 1403,
  "ogbunigwe": 1404,
  "n,": 1405,
  "iro": 1406,
  ").": 1407,
  "ọhanaeze": 1408,
  "warị": 1409,
  "im": 1410,
  ".”)": 1411,
  "nkị": 1412,
  "mmehie": 1413,
  "kwụrụ": 1414,
  "ije": 1415,
  "ga-enwe": 1416,
  "edo": 1417,
  "ahụike": 1418,
  "wepụtara": 1419,
  "wer": 1420,
  "n.": 1421,
  "megide": 1422,
  "ihe,": 1423,
  "ọrụ,": 1424,
  "ọdịnihu": 1425,
  "ssi": 1426,
  "egbuola": 1427,
  "Joh": 1428,
  "14": 1429,
  "midia": 1430,
  "hapụrụ": 1431,
  "maara": 1432,
  "hazi": 1433,
  "baịbụl,": 1434,
  "ndịigbo": 1435,
  "mkpebi": 1436,
  "igbu": 1437,
  "ghe": 1438,
  "enyela": 1439,
  "ewu": 1440,
  "China": 1441,
  "ịmata": 1442,
  "ta.": 1443,
  "nọchite": 1444,
  "mpe": 1445,
  "mma,": 1446,
  "ire": 1447,
  "fra": 1448,
  "atụrụ": 1449,
  "15": 1450,
  "),": 1451,
  "ndịagha": 1452,
  "nkwe": 1453,
  "makana": 1454,
  "Eme": 1455,
  "ụlọọgwụ": 1456,
  "ụjọ": 1457,
  "rue": 1458,
  "niile,": 1459,
  "na-arị": 1460,
  "devid": 1461,
  "bịafra": 1462,
  "We": 1463,
  "Oke": 1464,
  "Mar": 1465,
  "yọọ": 1466,
  "ph": 1467,
  "nwayọọ": 1468,
  "na-amụ": 1469,
  "mmadụ,": 1470,
  "metụtara": 1471,
  "achọghị": 1472,
  "__": 1473,
  "Be": 1474,
  "satọ": 1475,
  "na-enweghị": 1476,
  "gburugburu": 1477,
  "ga-anọ": 1478,
  "amalite": 1479,
  "agbata": 1480,
  "ata": 1481,
  "Nor": 1482,
  "satọde": 1483,
  "ngw": 1484,
  "gị,": 1485,
  "ga-enyere": 1486,
  "ction": 1487,
  "ụtọ.": 1488,
  "sị,": 1489,
  "nter": 1490,
  "fee": 1491,
  "Zi": 1492,
  "Sara": 1493,
  "SS": 1494,
  "Chris": 1495,
  "zara": 1496,
  "shi": 1497,
  "mị": 1498,
  "kwaghị": 1499,
  "duna": 1500,
  "Nna": 1501,
  "ụlọakụ": 1502,
  "ọdịnala": 1503,
  "tius": 1504,
  "rid": 1505,
  "iru": 1506,
  "Ra": 1507,
  "Leagu": 1508,
  "ịgụ": 1509,
  "obi,": 1510,
  "na-egbu": 1511,
  "mọ": 1512,
  "elekere": 1513,
  "egwuregwu,": 1514,
  "na-azụ": 1515,
  "naụba": 1516,
  "lata": 1517,
  "fufe": 1518,
  "chapụ": 1519,
  "Ser": 1520,
  "2017": 1521,
  "ọfụma": 1522,
  "tha": 1523,
  "sha": 1524,
  "nzuzo": 1525,
  "nabata": 1526,
  "lic": 1527,
  "kata": 1528,
  "ja.": 1529,
  "Lago": 1530,
  "ọgbugbu": 1531,
  "uru.": 1532,
  "na-ebi": 1533,
  "na-atọ": 1534,
  "laị": 1535,
  "gị.": 1536,
  "akụnaụba": 1537,
  "akpọrọ": 1538,
  "agwọ": 1539,
  "Osi": 1540,
  "Chukwu": 1541,
  "ugbua.": 1542,
  "tiusde": 1543,
  "putara": 1544,
  "kan": 1545,
  "ekwentị": 1546,
  "abụrụ": 1547,
  "Pau": 1548,
  "ọnụ.": 1549,
  "ịchị": 1550,
  "nkịtị": 1551,
  "na-alụ": 1552,
  "kwo": 1553,
  "Willie": 1554,
  "Or": 1555,
  "Ju": 1556,
  "FCC": 1557,
  "ụmụnne": 1558,
  "ụda": 1559,
  "ọgọst": 1560,
  "ọdọụgbọelu": 1561,
  "wute": 1562,
  "rie": 1563,
  "pị": 1564,
  "naịjirịa,": 1565,
  "na-akwụ": 1566,
  "lere": 1567,
  "gụrụ": 1568,
  "gbochi": 1569,
  "tor": 1570,
  "sonye": 1571,
  "na-anọ": 1572,
  "nchọpụta": 1573,
  "kpụrụ": 1574,
  "icheiche": 1575,
  "chitere": 1576,
  "agụmba": 1577,
  "abụọ,": 1578,
  "yo": 1579,
  "wepụ": 1580,
  "nnyocha": 1581,
  "mfe": 1582,
  "igbo,": 1583,
  "itinye": 1584,
  "ijeri": 1585,
  "dịkwa": 1586,
  "chaghị": 1587,
  "bakar": 1588,
  "ard": 1589,
  "weere": 1590,
  "olile": 1591,
  "nnọọ": 1592,
  "mkpesa": 1593,
  "mbaụwa": 1594,
  "Uma": 1595,
  "Ude": 1596,
  "Twitter": 1597,
  "Pro": 1598,
  "Adam": 1599,
  "1)": 1600,
  "zute": 1601,
  "ogolo": 1602,
  "ogologo": 1603,
  "mmekọrịta": 1604,
  "man": 1605,
  "efu": 1606,
  "bụkwanụ": 1607,
  "briten": 1608,
  "Abubakar": 1609,
  "ọmụmụ": 1610,
  "uro": 1611,
  "sitere": 1612,
  "mere.": 1613,
  "k,": 1614,
  "idi": 1615,
  "gbasa": 1616,
  "ga-ahụ": 1617,
  "ebonyi": 1618,
  "chọọchị": 1619,
  "Paul": 1620,
  "Me": 1621,
  "Gu": 1622,
  "na-azọ": 1623,
  "liri": 1624,
  "ga-ebi": 1625,
  "ezum": 1626,
  "butere": 1627,
  "GA": 1628,
  "EFCC": 1629,
  "2015": 1630,
  "ther": 1631,
  "ogbe": 1632,
  "ndị)": 1633,
  "leba": 1634,
  "lụrụ": 1635,
  "atọ.": 1636,
  "State": 1637,
  "NA": 1638,
  "yin": 1639,
  "state": 1640,
  "ria": 1641,
  "raịde": 1642,
  "merụrụ": 1643,
  "latri": 1644,
  "kọọ": 1645,
  "gwo": 1646,
  "fraịde": 1647,
  "akwado": 1648,
  "Ihe": 1649,
  "tic": 1650,
  "papa": 1651,
  "nyeere": 1652,
  "na-enyere": 1653,
  "mmanya": 1654,
  "kịrị": 1655,
  "ga-akpọ": 1656,
  "Inter": 1657,
  "Go": 1658,
  "23": 1659,
  "ọda": 1660,
  "senet": 1661,
  "san": 1662,
  "pi": 1663,
  "ofesi,": 1664,
  "nwụchi": 1665,
  "New": 1666,
  "ọṅụ": 1667,
  "ịkwụ": 1668,
  "okorobịa": 1669,
  "nkịta": 1670,
  "gachara": 1671,
  "fa": 1672,
  "debe": 1673,
  "bụ\"": 1674,
  "Fu": 1675,
  "El-": 1676,
  "2,": 1677,
  "zaky": 1678,
  "ton": 1679,
  "nwaafọ": 1680,
  "ndị\"": 1681,
  "mbu": 1682,
  "iche,": 1683,
  "hab": 1684,
  "bra": 1685,
  "akzaky": 1686,
  "awa": 1687,
  "Zakzaky": 1688,
  "Ike": 1689,
  "Bo": 1690,
  "ọkpara": 1691,
  "yiri": 1692,
  "nue": 1693,
  "na-ekwe": 1694,
  "mpụtara": 1695,
  "mbi": 1696,
  "gabe": 1697,
  "ebere": 1698,
  "dọla": 1699,
  "Saraki": 1700,
  "Mugabe": 1701,
  "Au": 1702,
  "17": 1703,
  "zuo": 1704,
  "pụọ": 1705,
  "ofufe": 1706,
  "na-aka": 1707,
  "kwanyere": 1708,
  "guzo": 1709,
  "gboo": 1710,
  "okwu.": 1711,
  "mụtara": 1712,
  "mọdụ": 1713,
  "jehova.": 1714,
  "gbuola": 1715,
  "fọrọ": 1716,
  "anwụchiela": 1717,
  "Lagos": 1718,
  "ndụmọdụ": 1719,
  "n'\"": 1720,
  "kwaa": 1721,
  "iku": 1722,
  "efe": 1723,
  "dị,": 1724,
  "Pa": 1725,
  "Di": 1726,
  "ọma,": 1727,
  "nkata": 1728,
  "na-ada": 1729,
  "nrọ": 1730,
  "foto": 1731,
  "enweta": 1732,
  "bụbu": 1733,
  "benue": 1734,
  "amata": 1735,
  "agụụ": 1736,
  "18": 1737,
  "ụmụafọ": 1738,
  "zutere": 1739,
  "ife": 1740,
  "ezumike": 1741,
  "eto": 1742,
  "Cha": 1743,
  "Africa": 1744,
  "APGA": 1745,
  "puta": 1746,
  "mmepe": 1747,
  "kaduna": 1748,
  "egosi": 1749,
  "baara": 1750,
  "agbụrụ": 1751,
  "azọ": 1752,
  "?”": 1753,
  "ịny": 1754,
  "ohu": 1755,
  "latrik": 1756,
  "ga-akwụ": 1757,
  "eso": 1758,
  "drid": 1759,
  "anyị\"": 1760,
  "akwụkwọ.": 1761,
  "aghọ": 1762,
  "apụta": 1763,
  "Ta": 1764,
  "No": 1765,
  "Madrid": 1766,
  "Ele": 1767,
  "ọkụkọ": 1768,
  "ịṅụ": 1769,
  "ourt": 1770,
  "okenye": 1771,
  "ndụ.": 1772,
  "mgbede": 1773,
  "miri": 1774,
  "kwala": 1775,
  "enyo": 1776,
  "amaokwu": 1777,
  "Bri": 1778,
  "1.": 1779,
  "ọkachamara": 1780,
  "ịzọ": 1781,
  "okporoụzọ": 1782,
  "ower": 1783,
  "njikere": 1784,
  "nara": 1785,
  "mkparịtaụka": 1786,
  "mba.": 1787,
  "kwụọ": 1788,
  "dan": 1789,
  "akụrụ": 1790,
  "13": 1791,
  "ịnta": 1792,
  "ịntane": 1793,
  "ịntaneti": 1794,
  "ịba": 1795,
  "wore": 1796,
  "pụrụiche": 1797,
  "ona": 1798,
  "na-eme.": 1799,
  "na-etinye": 1800,
  "enyere": 1801,
  "Sowore": 1802,
  "Ru": 1803,
  "Ama": 1804,
  "199": 1805,
  "ụtụ": 1806,
  "ọdachi": 1807,
  "ịkwụsị": 1808,
  "olileanya": 1809,
  "jị": 1810,
  "enweghi": 1811,
  "ahị": 1812,
  "Vi": 1813,
  "ọdịda": 1814,
  "ọbasan": 1815,
  "ọbasanjọ": 1816,
  "ịkwalite": 1817,
  "the": 1818,
  "steeti,": 1819,
  "saa": 1820,
  "na-ekwuchitere": 1821,
  "agha.": 1822,
  "Ihedio": 1823,
  "Ibra": 1824,
  "na-akụzi": 1825,
  "nata": 1826,
  "mgbere": 1827,
  "ld": 1828,
  "jiji": 1829,
  "inweta": 1830,
  "gun": 1831,
  "ese": 1832,
  "bụzị": 1833,
  "AS": 1834,
  "wene": 1835,
  "spe": 1836,
  "jide": 1837,
  "chịrị": 1838,
  "beghi": 1839,
  "Te": 1840,
  "Nwa": 1841,
  "Ge": 1842,
  "ịghọta": 1843,
  "wenezde": 1844,
  "onyeozi": 1845,
  "na-arịọ": 1846,
  "na-akụziri": 1847,
  "na-acha": 1848,
  "merụ": 1849,
  "kwazie": 1850,
  "arịrị": 1851,
  "anyi": 1852,
  "apụ": 1853,
  "Ga": 1854,
  "ọkọ": 1855,
  "ịkụ": 1856,
  "ịchụ": 1857,
  "stra": 1858,
  "qu": 1859,
  "obibi": 1860,
  "na-ede": 1861,
  "na-asụ": 1862,
  "ngwụ": 1863,
  "nchị": 1864,
  "ebido": 1865,
  "Ibrahi": 1866,
  "Ghana": 1867,
  "ọọla": 1868,
  "ọkara": 1869,
  "ọjị": 1870,
  "ọkpọ": 1871,
  "up": 1872,
  "sti": 1873,
  "pase": 1874,
  "osimiri": 1875,
  "igbo.": 1876,
  "ga-ebu": 1877,
  "boro": 1878,
  "ahịhịa": 1879,
  "aṅụ": 1880,
  "Ife": 1881,
  "FA": 1882,
  "4.": 1883,
  "16": 1884,
  "ọkachasị": 1885,
  "ọk": 1886,
  "sịga": 1887,
  "omi": 1888,
  "na-akọwa": 1889,
  "mbụ.": 1890,
  "mkpọ": 1891,
  "iso": 1892,
  "inyere": 1893,
  "gen": 1894,
  "ezie": 1895,
  "anwụrụ": 1896,
  "akụrụngwa": 1897,
  "akarị": 1898,
  "agw": 1899,
  "Nwosu": 1900,
  "Is": 1901,
  "Fal": 1902,
  "sena": 1903,
  "na-akwa": 1904,
  "national": 1905,
  "mọnde": 1906,
  "mas": 1907,
  "mgbọ": 1908,
  "ibi": 1909,
  "ga-achị": 1910,
  "gaara": 1911,
  "ebum": 1912,
  "arụrụ": 1913,
  "Olu": 1914,
  "National": 1915,
  "riri": 1916,
  "nkwekọrịta": 1917,
  "na-eto": 1918,
  "na-enyo": 1919,
  "na-ebo": 1920,
  "nrụrụ": 1921,
  "mbab": 1922,
  "mbabwe": 1923,
  "lani": 1924,
  "kpebiri": 1925,
  "ga-abara": 1926,
  "bia": 1927,
  "akwụsị": 1928,
  "Zimbabwe": 1929,
  "Wa": 1930,
  "US": 1931,
  "Ti": 1932,
  "Ihedioha": 1933,
  "Ibrahim": 1934,
  "ọkụ.": 1935,
  "senatọ": 1936,
  "ral": 1937,
  "pịa": 1938,
  "na-ajụ": 1939,
  "meere": 1940,
  "kụzi": 1941,
  "kara": 1942,
  "gbanwee": 1943,
  "ejiri": 1944,
  "by": 1945,
  "are": 1946,
  "anambra,": 1947,
  "Premi": 1948,
  "Pla": 1949,
  "Madu": 1950,
  "El-Zakzaky": 1951,
  "Ah": 1952,
  "ọnwụ.": 1953,
  "ọkafọ": 1954,
  "ọzụ": 1955,
  "ịnya": 1956,
  "ịcha": 1957,
  "ubi": 1958,
  "tela": 1959,
  "opekata": 1960,
  "nwetere": 1961,
  "ngo": 1962,
  "izuụka": 1963,
  "asatara": 1964,
  "ON": 1965,
  "Nai": 1966,
  "League": 1967,
  "ụfọdụ,": 1968,
  "ute": 1969,
  "ule": 1970,
  "na-elekọta": 1971,
  "na-eti": 1972,
  "mụọ": 1973,
  "maachị": 1974,
  "ga-ewe": 1975,
  "ga-akwụsị": 1976,
  "ekweghị": 1977,
  "egwu.": 1978,
  "arcourt": 1979,
  "agbaala": 1980,
  "Port": 1981,
  "International": 1982,
  "Harcourt": 1983,
  "Emma": 1984,
  "30": 1985,
  "“onye": 1986,
  "ọkto": 1987,
  "ọktoba": 1988,
  "ọchịchị.": 1989,
  "ịzụ": 1990,
  "ịmụ": 1991,
  "tọzde": 1992,
  "tuo": 1993,
  "sịa": 1994,
  "na-eke": 1995,
  "mita": 1996,
  "makwụ": 1997,
  "ll": 1998,
  "ero": 1999
}