{
  "<unk>": 0,
  "<s>": 1,
  "</s>": 2,
  "<pad>": 3,
  "<mask morph>": 4,
  "!": 5,
  "\"": 6,
  "#": 7,
  "$": 8,
  "%": 9,
  "&": 10,
  "'": 11,
  "(": 12,
  ")": 13,
  "*": 14,
  ",": 15,
  "-": 16,
  ".": 17,
  "/": 18,
  "0": 19,
  "1": 20,
  "2": 21,
  "3": 22,
  "4": 23,
  "5": 24,
  "6": 25,
  "7": 26,
  "8": 27,
  "9": 28,
  ":": 29,
  ";": 30,
  "<": 31,
  "=": 32,
  ">": 33,
  "?": 34,
  "@": 35,
  "A": 36,
  "B": 37,
  "C": 38,
  "CH": 39,
  "Ch": 40,
  "D": 41,
  "E": 42,
  "F": 43,
  "G": 44,
  "GB": 45,
  "Gb": 46,
  "Gh": 47,
  "Gw": 48,
  "H": 49,
  "I": 50,
  "J": 51,
  "K": 52,
  "KP": 53,
  "Kp": 54,
  "Kw": 55,
  "L": 56,
  "M": 57,
  "N": 58,
  "NW": 59,
  "NY": 60,
  "Nw": 61,
  "Ny": 62,
  "O": 63,
  "P": 64,
  "Q": 65,
  "R": 66,
  "S": 67,
  "SH": 68,
  "Sh": 69,
  "T": 70,
  "U": 71,
  "V": 72,
  "W": 73,
  "X": 74,
  "Y": 75,
  "Z": 76,
  "[": 77,
  "]": 78,
  "^": 79,
  "_": 80,
  "`": 81,
  "a": 82,
  "b": 83,
  "c": 84,
  "ch": 85,
  "d": 86,
  "e": 87,
  "f": 88,
  "g": 89,
  "gb": 90,
  "gh": 91,
  "gw": 92,
  "h": 93,
  "i": 94,
  "j": 95,
  "k": 96,
  "kp": 97,
  "kw": 98,
  "l": 99,
  "m": 100,
  "n": 101,
  "nw": 102,
  "ny": 103,
  "o": 104,
  "p": 105,
  "q": 106,
  "r": 107,
  "s": 108,
  "sh": 109,
  "t": 110,
  "u": 111,
  "v": 112,
  "w": 113,
  "x": 114,
  "y": 115,
  "z": 116,
  "{": 117,
  "|": 118,
  "}": 119,
  "£": 120,
  "®": 121,
  "·": 122,
  "É": 123,
  "Ö": 124,
  "×": 125,
  "à": 126,
  "á": 127,
  "ã": 128,
  "ä": 129,
  "å": 130,
  "æ": 131,
  "ç": 132,
  "è": 133,
  "é": 134,
  "ì": 135,
  "í": 136,
  "ï": 137,
  "ñ": 138,
  "ó": 139,
  "ô": 140,
  "ö": 141,
  "ø": 142,
  "ù": 143,
  "ú": 144,
  "ü": 145,
  "ć": 146,
  "č": 147,
  "ğ": 148,
  "ń": 149,
  "ş": 150,
  "š": 151,
  "ż": 152,
  "ž": 153,
  "̀": 154,
  "́": 155,
  "ׁ": 156,
  "ה": 157,
  "נ": 158,
  "פ": 159,
  "ש": 160,
  "ṅ": 161,
  "ạ": 162,
  "ẹ": 163,
  "Ị": 164,
  "ị": 165,
  "Ọ": 166,
  "ọ": 167,
  "Ụ": 168,
  "ụ": 169,
  "–": 170,
  "—": 171,
  "‘": 172,
  "’": 173,
  "“": 174,
  "”": 175,
  "•": 176,
  "₦": 177,
  "€": 178,
  "■": 179,
  "●": 180,
  "": 181,
  "na": 182,
  "dị": 183,
  "ka": 184,
  "ma": 185,
  "n'": 186,
  "bụ": 187,
  "er": 188,
  "ar": 189,
  "ndị": 190,
  "ke": 191,
  "ha": 192,
  "na-": 193,
  "ere": 194,
  "ara": 195,
  "ya": 196,
  "me": 197,
  "ih": 198,
  "la": 199,
  "ga": 200,
  "si": 201,
  "nye": 202,
  "ji": 203,
  "hụ": 204,
  "ta": 205,
  "ihe": 206,
  "kwu": 207,
  "rụ": 208,
  "ri": 209,
  "any": 210,
  "ahụ": 211,
  "ru": 212,
  "nke": 213,
  "rị": 214,
  "tu": 215,
  "ba": 216,
  "kwa": 217,
  "onye": 218,
  "na-a": 219,
  "na-e": 220,
  "ghị": 221,
  "tụ": 222,
  "dụ": 223,
  "ti": 224,
  "ga-": 225,
  "te": 226,
  "gba": 227,
  "otu": 228,
  "le": 229,
  "be": 230,
  "bi": 231,
  "zi": 232,
  "anyị": 233,
  "sị": 234,
  "mma": 235,
  "pụ": 236,
  "kọ": 237,
  "mụ": 238,
  "an": 239,
  "chi": 240,
  "chị": 241,
  "che": 242,
  "nwe": 243,
  "zọ": 244,
  "aka": 245,
  "lọ": 246,
  "rọ": 247,
  "kụ": 248,
  "do": 249,
  "ụlọ": 250,
  "we": 251,
  "ne": 252,
  "kwụ": 253,
  "ala": 254,
  "nwa": 255,
  "go": 256,
  "fọ": 257,
  "gbu": 258,
  "isi": 259,
  "ra": 260,
  "mmadụ": 261,
  "li": 262,
  "gbe": 263,
  "ebe": 264,
  "ike": 265,
  "ọrọ": 266,
  "iri": 267,
  "kwuru": 268,
  "wa": 269,
  "de": 270,
  "cha": 271,
  "ro": 272,
  "maka": 273,
  "bu": 274,
  "mgbe": 275,
  "tọ": 276,
  "ga-e": 277,
  "mere": 278,
  "so": 279,
  "tara": 280,
  "ni": 281,
  "gbo": 282,
  "ụmụ": 283,
  "rịa": 284,
  "ọọ": 285,
  "gwu": 286,
  "ịa": 287,
  "ọrụ": 288,
  "eti": 289,
  "nwere": 290,
  "ga-a": 291,
  "nụ": 292,
  "sa": 293,
  "ge": 294,
  "ọchị": 295,
  "anya": 296,
  "afọ": 297,
  "mba": 298,
  "bo": 299,
  "ime": 300,
  "okwu": 301,
  "nwụ": 302,
  "abụ": 303,
  "kwe": 304,
  "akụ": 305,
  "ọzọ": 306,
  "gị": 307,
  "akwụ": 308,
  "lu": 309,
  "ịji": 310,
  "ịjirịa": 311,
  "naịjirịa": 312,
  "nọ": 313,
  "obi": 314,
  "kwọ": 315,
  "se": 316,
  "kpe": 317,
  "zu": 318,
  "di": 319,
  "ezi": 320,
  "ste": 321,
  "neke": 322,
  "steeti": 323,
  "chineke": 324,
  "iche": 325,
  "akwụkwọ": 326,
  "kpa": 327,
  "nyere": 328,
  "da": 329,
  "ile": 330,
  "nt": 331,
  "nu": 332,
  "dịka": 333,
  "pụta": 334,
  "oke": 335,
  "re": 336,
  "niile": 337,
  "oge": 338,
  "je": 339,
  "gụ": 340,
  "agh": 341,
  "tụtụ": 342,
  "wu": 343,
  "ku": 344,
  "ya.": 345,
  "abụọ": 346,
  "akụkọ": 347,
  "ịbụ": 348,
  "na-eme": 349,
  "arị": 350,
  "eri": 351,
  "mp": 352,
  "ko": 353,
  "a.": 354,
  "ama": 355,
  "onyeisi": 356,
  "anọ": 357,
  "igbo": 358,
  "ọtụtụ": 359,
  "on": 360,
  "bụrụ": 361,
  "sọ": 362,
  "kpọ": 363,
  "bịa": 364,
  "nwaanyị": 365,
  "kwara": 366,
  "bodo": 367,
  "pu": 368,
  "ịbụl": 369,
  "baịbụl": 370,
  "mi": 371,
  "ọnụ": 372,
  "bụla": 373,
  "mme": 374,
  "obodo": 375,
  "du": 376,
  "ana": 377,
  "egwu": 378,
  "20": 379,
  "iji": 380,
  "gbọ": 381,
  "chọ": 382,
  "fe": 383,
  "ụwa": 384,
  "hi": 385,
  "aga": 386,
  "gwa": 387,
  "pụtara": 388,
  "iwu": 389,
  "siri": 390,
  "ikpe": 391,
  "to": 392,
  "ụb": 393,
  "ze": 394,
  "ego": 395,
  "eme": 396,
  "mb": 397,
  "uru": 398,
  "az": 399,
  "gọ": 400,
  "ụbọchị": 401,
  "ntị": 402,
  "agba": 403,
  "onwe": 404,
  "tere": 405,
  "a,": 406,
  "ho": 407,
  "ụrụ": 408,
  "st": 409,
  "ari": 410,
  "ihi": 411,
  "ndụ": 412,
  "ahụ.": 413,
  "ozi": 414,
  "oji": 415,
  "uwe": 416,
  "mana": 417,
  "sịrị": 418,
  "gara": 419,
  "ọchịchị": 420,
  "aha": 421,
  "lụ": 422,
  "atọ": 423,
  "ah": 424,
  "ụzọ": 425,
  "ukwu": 426,
  "gọọ": 427,
  "mm": 428,
  "gọọme": 429,
  "Bu": 430,
  "kpọrọ": 431,
  "hụrụ": 432,
  "elu": 433,
  "fọdụ": 434,
  "kwuo": 435,
  "ojii": 436,
  "ọka": 437,
  "ya,": 438,
  "nwoke": 439,
  "jụ": 440,
  "ụfọdụ": 441,
  "ha.": 442,
  "kpo": 443,
  "nd": 444,
  "201": 445,
  "ụgbọ": 446,
  "sụ": 447,
  "ọma": 448,
  "sara": 449,
  "ahụ,": 450,
  "nso": 451,
  "eze": 452,
  "agha": 453,
  "ome": 454,
  "mee": 455,
  "were": 456,
  "mer": 457,
  ".”": 458,
  "gbara": 459,
  "or": 460,
  "nweghị": 461,
  "asa": 462,
  "chara": 463,
  "hov": 464,
  "ihu": 465,
  "jehov": 466,
  "hari": 467,
  "Buhari": 468,
  "ga-eme": 469,
  "mara": 470,
  "gharị": 471,
  "ọbụla": 472,
  "gi": 473,
  "ugbu": 474,
  "ọkụ": 475,
  "nakwa": 476,
  "olu": 477,
  "gwụ": 478,
  "nna": 479,
  "nyo": 480,
  "ụka": 481,
  "gbasara": 482,
  "gwara": 483,
  "lite": 484,
  "uweojii": 485,
  "el": 486,
  "ma,": 487,
  "onyeisiala": 488,
  "chọrọ": 489,
  "ole": 490,
  "ọnwa": 491,
  "ela": 492,
  "nwu": 493,
  "wee": 494,
  "na-ekwu": 495,
  "nga": 496,
  "mkpa": 497,
  "jehova": 498,
  "zọs": 499,
  "aba": 500,
  "jizọs": 501,
  "nta": 502,
  "jiri": 503,
  ".\"": 504,
  "pa": 505,
  "arụ": 506,
  "atụ": 507,
  "mbụ": 508,
  "gwe": 509,
  "mmiri": 510,
  "gọọmentị": 511,
  "ntụ": 512,
  "anụ": 513,
  "gburu": 514,
  "na-agba": 515,
  "vanọ": 516,
  "mpi": 517,
  "gọvanọ": 518,
  "pụrụ": 519,
  "kpụ": 520,
  "mo": 521,
  "jọ": 522,
  "dọ": 523,
  "site": 524,
  "ekwe": 525,
  "ja": 526,
  "nne": 527,
  "iwe": 528,
  "anwụ": 529,
  "ga-ama": 530,
  "al": 531,
  "nị": 532,
  "pe": 533,
  "dere": 534,
  "lị": 535,
  "mgba": 536,
  "Jo": 537,
  "gu": 538,
  "in": 539,
  "ju": 540,
  "ahịa": 541,
  "ise": 542,
  "gwọ": 543,
  "adị": 544,
  "bido": 545,
  "kwado": 546,
  "kị": 547,
  "ndọrọ": 548,
  "oko": 549,
  "eziokwu": 550,
  "BB": 551,
  "asọ": 552,
  "nyi": 553,
  "anyere": 554,
  "mu": 555,
  "ntụli": 556,
  "karị": 557,
  "ghọ": 558,
  "tupu": 559,
  "th": 560,
  "ọnwụ": 561,
  "azụ": 562,
  "igwe": 563,
  "mkp": 564,
  "na-ahụ": 565,
  "ce": 566,
  "BBC": 567,
  "ọla": 568,
  "zị": 569,
  "zụ": 570,
  "mbra": 571,
  "nri": 572,
  "anambra": 573,
  "aghara": 574,
  "ọgwụ": 575,
  "bere": 576,
  "ntụliaka": 577,
  "ebu": 578,
  "asọmpi": 579,
  "okp": 580,
  "bara": 581,
  "ọgba": 582,
  "azị": 583,
  "nsogbu": 584,
  "ruo": 585,
  "ọkwa": 586,
  "fu": 587,
  "eji": 588,
  "bọọ": 589,
  "ọj": 590,
  "ghara": 591,
  "nche": 592,
  "etu": 593,
  "nwunye": 594,
  "gha": 595,
  "enu": 596,
  "bọọlụ": 597,
  "bị": 598,
  "regwu": 599,
  "egwuregwu": 600,
  "kiri": 601,
  "rịka": 602,
  "taa": 603,
  "mmụ": 604,
  "lo": 605,
  "na-aga": 606,
  "chụ": 607,
  "chie": 608,
  "ola": 609,
  "ig": 610,
  "ọhụrụ": 611,
  "yi": 612,
  "unu": 613,
  "maazị": 614,
  "ebi": 615,
  "ga-amasị": 616,
  "kacha": 617,
  "nwee": 618,
  "anị": 619,
  "naanị": 620,
  "af": 621,
  "etiti": 622,
  "zie": 623,
  "wara": 624,
  "nweta": 625,
  "ibe": 626,
  "ou": 627,
  "enugwu": 628,
  "nya": 629,
  "amer": 630,
  "ezigbo": 631,
  "banyere": 632,
  "akwa": 633,
  "Ma": 634,
  "AP": 635,
  "lee": 636,
  "chukwu": 637,
  "sị:": 638,
  "ọjọọ": 639,
  "ọbụ": 640,
  "ziri": 641,
  "su": 642,
  "ụlọọrụ": 643,
  "ụmụnwaanyị": 644,
  "wakpo": 645,
  "kwụsị": 646,
  "eru": 647,
  "ụtọ": 648,
  "agaghị": 649,
  "agụ": 650,
  "raị": 651,
  "nti": 652,
  "Mu": 653,
  "ịka": 654,
  "buru": 655,
  "ụlọikpe": 656,
  "nde": 657,
  "ghi": 658,
  "abalị": 659,
  "sta": 660,
  "gosi": 661,
  "narị": 662,
  "enye": 663,
  "ada": 664,
  "en": 665,
  "kwesịrị": 666,
  "ịgba": 667,
  "kemgbe": 668,
  "2019": 669,
  "anaghị": 670,
  "kpere": 671,
  "ol": 672,
  "goolu": 673,
  "Chi": 674,
  "chiri": 675,
  "gịnị": 676,
  "tinye": 677,
  "ngwa": 678,
  "Nig": 679,
  "amerịka": 680,
  "nọdụ": 681,
  "gaa": 682,
  "ha,": 683,
  "ekwuo": 684,
  "ajụ": 685,
  "zo": 686,
  "mbọ": 687,
  "00": 688,
  "ụgwọ": 689,
  "nwụrụ": 690,
  "il": 691,
  "nkeji": 692,
  "nal": 693,
  "afrịka": 694,
  "ọrịa": 695,
  "za": 696,
  "kere": 697,
  "ruru": 698,
  "ọnọdụ": 699,
  "ga-esi": 700,
  "cheta": 701,
  "tion": 702,
  "laba": 703,
  "kọta": 704,
  "ekwuola": 705,
  "gosiri": 706,
  "meri": 707,
  "bịara": 708,
  "ụdị": 709,
  "nyocha": 710,
  "bata": 711,
  "Ro": 712,
  "ṅụ": 713,
  "mpaghara": 714,
  "nchekwa": 715,
  "litere": 716,
  "vi": 717,
  "ụgbọelu": 718,
  "beghị": 719,
  "nụlọ": 720,
  "ng": 721,
  "ezinụlọ": 722,
  "ọdị": 723,
  "gị:": 724,
  "Nigeri": 725,
  "na-akpọ": 726,
  "APC": 727,
  "nje": 728,
  "ngalaba": 729,
  "kọrọ": 730,
  "soro": 731,
  "asụ": 732,
  "osi": 733,
  "ugwu": 734,
  "puku": 735,
  "gọọmenti": 736,
  "izu": 737,
  "it": 738,
  "omeiwu": 739,
  "kee": 740,
  "okpuru": 741,
  "isii": 742,
  "gboro": 743,
  "no": 744,
  "ehi": 745,
  "bụkwa": 746,
  "imo": 747,
  "19": 748,
  "iko": 749,
  "na-achị": 750,
  "enweghị": 751,
  "ekpere": 752,
  "bụghị": 753,
  "amụ": 754,
  "nkiri": 755,
  "biri": 756,
  "na-eche": 757,
  "oh": 758,
  "m,": 759,
  "kọwa": 760,
  "ki": 761,
  "m.": 762,
  "Man": 763,
  "nku": 764,
  "uche": 765,
  "ọsọ": 766,
  "ụgbọala": 767,
  "nzu": 768,
  "kwere": 769,
  "ajụjụ": 770,
  "ọgụ": 771,
  "ozu": 772,
  "ver": 773,
  "dịrị": 774,
  "ịma": 775,
  "raịst": 776,
  "abụghị": 777,
  "ter": 778,
  "nyeghị": 779,
  "ga-eji": 780,
  "asụsụ": 781,
  "Su": 782,
  "kraịst": 783,
  "enwe": 784,
  "ele": 785,
  "echi": 786,
  "mmụọ": 787,
  "Re": 788,
  "mume": 789,
  "na-arụ": 790,
  "na-achọ": 791,
  "atụma": 792,
  "abịa": 793,
  "nnu": 794,
  "atụmatụ": 795,
  "olee": 796,
  "nsọ": 797,
  "asaa": 798,
  "oro": 799,
  "mmemme": 800,
  "agwa": 801,
  "Li": 802,
  "maọbụ": 803,
  "na-enye": 804,
  "gbuo": 805,
  "Jose": 806,
  "ụkwụ": 807,
  "na-adị": 808,
  "obere": 809,
  "ngagharị": 810,
  "ano": 811,
  "kpara": 812,
  "nkwa": 813,
  "gide": 814,
  "am": 815,
  "ọzọ.": 816,
  "achọ": 817,
  "karịrị": 818,
  "tụrụ": 819,
  "tọrọ": 820,
  "adịghị": 821,
  "mkpụrụ": 822,
  "Mo": 823,
  "Da": 824,
  "ụmụaka": 825,
  "anya.": 826,
  "akpa": 827,
  "eke": 828,
  "les": 829,
  "kọwara": 830,
  "kwukwara": 831,
  "ran": 832,
  "hapụ": 833,
  "enyi": 834,
  "egbe": 835,
  "ọgbakọ": 836,
  "nala": 837,
  "bekee": 838,
  "asatọ": 839,
  "Boko": 840,
  "rịta": 841,
  "of": 842,
  "nwata": 843,
  "àm": 844,
  "àmà": 845,
  "ugbua": 846,
  "manụ": 847,
  "Hara": 848,
  "per": 849,
  "Nigeria": 850,
  "hịa": 851,
  "Co": 852,
  "ugboro": 853,
  "tinyere": 854,
  "La": 855,
  "chere": 856,
  "DP": 857,
  "ve": 858,
  "ofe": 859,
  "ebubo": 860,
  "anụmanụ": 861,
  "ụkọ": 862,
  "okpo": 863,
  "njem": 864,
  "nai": 865,
  "họ": 866,
  "ori": 867,
  "malitere": 868,
  "ito": 869,
  "fụ": 870,
  "na-akpa": 871,
  "nka": 872,
  "kịta": 873,
  "kike": 874,
  "Na": 875,
  "bidoro": 876,
  "po": 877,
  "ogi": 878,
  "nkuzi": 879,
  "ghọta": 880,
  "nnukwu": 881,
  "mụrụ": 882,
  "Uni": 883,
  "ezu": 884,
  "ga-abụ": 885,
  "ntaakụkọ": 886,
  "PDP": 887,
  "Haram": 888,
  "udo": 889,
  "mechara": 890,
  "na-atụ": 891,
  "hie": 892,
  "karịa": 893,
  "kama": 894,
  "agbanyeghị": 895,
  "naira": 896,
  "ca": 897,
  "ọkpụ": 898,
  "ye": 899,
  "aka.": 900,
  "dara": 901,
  "Josef": 902,
  "mkpe": 903,
  "ibu": 904,
  "ọcha": 905,
  "Le": 906,
  "zuru": 907,
  "ohere": 908,
  "anyanwụ": 909,
  "pati": 910,
  "gọs": 911,
  "dum": 912,
  "chọpụta": 913,
  "naịjirịa.": 914,
  "ikike": 915,
  "Pe": 916,
  "ịhụ": 917,
  "legọs": 918,
  "okporo": 919,
  "gụnyere": 920,
  "egbu": 921,
  "tị": 922,
  "ogo": 923,
  "au": 924,
  "ndịàmà": 925,
  "kwuru,": 926,
  "kanu": 927,
  "ndọrọndọrọ": 928,
  "Muha": 929,
  "mdi": 930,
  "itoolu": 931,
  "abu": 932,
  "Al": 933,
  "us": 934,
  "mmanụ": 935,
  "OB": 936,
  "ahụhụ": 937,
  "IP": 938,
  "Muhamma": 939,
  "ekwu": 940,
  "EC": 941,
  "okoro": 942,
  "malite": 943,
  "chọọ": 944,
  "na-akụ": 945,
  "kachasị": 946,
  "ike.": 947,
  "chaa": 948,
  "ụkọchukwu": 949,
  "wo": 950,
  "oche": 951,
  "na-ele": 952,
  "steeti.": 953,
  "na-abịa": 954,
  "nọrọ": 955,
  "mmeri": 956,
  "ide": 957,
  "chiela": 958,
  "mata": 959,
  "Ea": 960,
  "sịrị:": 961,
  "ofesi": 962,
  "na-eji": 963,
  "Muhammadu": 964,
  "ịdị": 965,
  "op": 966,
  "mini": 967,
  "ris": 968,
  "IPOB": 969,
  "ụlọomeiwu": 970,
  "ghachi": 971,
  "achị": 972,
  "ugo": 973,
  "ster": 974,
  "saụ": 975,
  "lie": 976,
  "kwesiri": 977,
  "Fa": 978,
  "niile.": 979,
  "maha": 980,
  "tiku": 981,
  "pọ": 982,
  "mma.": 983,
  "arịa": 984,
  "ụmụakwụkwọ": 985,
  "ia": 986,
  "sote": 987,
  "nkwado": 988,
  "mụta": 989,
  "ụtụtụ": 990,
  "kọrịta": 991,
  "gbaa": 992,
  "esi": 993,
  "Atiku": 994,
  "ụba": 995,
  "rel": 996,
  "ogige": 997,
  "ochie": 998,
  "inye": 999,
  "agb": 1000,
  "bọ": 1001,
  "anya,": 1002,
  "onal": 1003,
  "ikpeazụ": 1004,
  "ọdụ": 1005,
  "okpu": 1006,
  "mmụta": 1007,
  "In": 1008,
  "nzukọ": 1009,
  "ntọ": 1010,
  "amaghị": 1011,
  "he": 1012,
  "ọha": 1013,
  "alaeze": 1014,
  "ịrị": 1015,
  "osisi": 1016,
  "Super": 1017,
  "ọzọ,": 1018,
  "ck": 1019,
  "banye": 1020,
  "họpụta": 1021,
  "osote": 1022,
  "mgbasa": 1023,
  "na-ama": 1024,
  "katọ": 1025,
  "Ada": 1026,
  "ga-adị": 1027,
  "bụrụkwa": 1028,
  "mahadum": 1029,
  "anyị.": 1030,
  "alụ": 1031,
  "saụt": 1032,
  "minista": 1033,
  "mkpọrọ": 1034,
  "dia": 1035,
  "ahọ": 1036,
  "asị": 1037,
  "\".\"": 1038,
  "ted": 1039,
  "shịa": 1040,
  "e,": 1041,
  "nwekwara": 1042,
  "meriri": 1043,
  "Ar": 1044,
  "ịrụ": 1045,
  "Tru": 1046,
  "ọtọ": 1047,
  "obiano": 1048,
  "na-efe": 1049,
  "naghị": 1050,
  "akara": 1051,
  "aja": 1052,
  "Oko": 1053,
  "na-enwe": 1054,
  "na-eru": 1055,
  "na-agụ": 1056,
  "ajọ": 1057,
  "sie": 1058,
  "eluigwe": 1059,
  "dọkịta": 1060,
  "fi": 1061,
  "ọna": 1062,
  "omenala": 1063,
  "oku": 1064,
  "amụma": 1065,
  "ịga": 1066,
  "pụtala": 1067,
  "kpatara": 1068,
  "ọdọ": 1069,
  "gaghị": 1070,
  "eche": 1071,
  "So": 1072,
  "ty": 1073,
  "kọmi": 1074,
  "ọma.": 1075,
  "okwukwe": 1076,
  "ntoro": 1077,
  "bụ,": 1078,
  "ọkacha": 1079,
  "ọba": 1080,
  "ntorobịa": 1081,
  "anyị,": 1082,
  "ad": 1083,
  "Ab": 1084,
  "na-ebu": 1085,
  "Wil": 1086,
  "IN": 1087,
  "ikwu": 1088,
  "co": 1089,
  "Eag": 1090,
  "tan": 1091,
  "gawa": 1092,
  "es": 1093,
  "INEC": 1094,
  "jụrụ": 1095,
  "ga-enye": 1096,
  "Trump": 1097,
  "FC": 1098,
  "ọhịa": 1099,
  "vid": 1100,
  "rụrụ": 1101,
  "nwetara": 1102,
  "mwakpo": 1103,
  "akpụ": 1104,
  "Af": 1105,
  "ebighị": 1106,
  "United": 1107,
  "omume": 1108,
  "nwan": 1109,
  "usoro": 1110,
  "ngagharịiwe": 1111,
  "ity": 1112,
  "ike,": 1113,
  "baịbụl.": 1114,
  "Ka": 1115,
  "onweghị": 1116,
  "Sa": 1117,
  "nọchi": 1118,
  "kpọku": 1119,
  "Ne": 1120,
  "Ade": 1121,
  "njọ": 1122,
  "ihe.": 1123,
  "ga-agba": 1124,
  "doro": 1125,
  "Se": 1126,
  "Eagles": 1127,
  "ten": 1128,
  "ss": 1129,
  "na\"": 1130,
  "iz": 1131,
  "goro": 1132,
  "od": 1133,
  "nnamdi": 1134,
  "echiche": 1135,
  "baka": 1136,
  "vo": 1137,
  "ọw": 1138,
  "Ri": 1139,
  "Mi": 1140,
  "ụlọụka": 1141,
  "ọgọ": 1142,
  "obi.": 1143,
  "metụ": 1144,
  "akụkụ": 1145,
  "lik": 1146,
  "kedụ": 1147,
  "chineke,": 1148,
  "arịta": 1149,
  "ani": 1150,
  "Obi": 1151,
  "ịtụ": 1152,
  "wakporo": 1153,
  "ur": 1154,
  "ume": 1155,
  "turu": 1156,
  "fo": 1157,
  "a:": 1158,
  "ọwụwa": 1159,
  "and": 1160,
  "pt": 1161,
  "nda": 1162,
  "else": 1163,
  "Ba": 1164,
  "ọfụ": 1165,
  "pọl": 1166,
  "na-egosi": 1167,
  "ir": 1168,
  "merie": 1169,
  "iyi": 1170,
  "fere": 1171,
  "ebo": 1172,
  "chọpụtara": 1173,
  "con": 1174,
  "na-esi": 1175,
  "Chelse": 1176,
  "wụ": 1177,
  "ohi": 1178,
  "dio": 1179,
  "City": 1180,
  ",\"": 1181,
  "ọgbọ": 1182,
  "na-eso": 1183,
  "katọlik": 1184,
  "izrel": 1185,
  "ine": 1186,
  "son": 1187,
  "land": 1188,
  "kwalite": 1189,
  "chineke.": 1190,
  "onyi": 1191,
  "enyemaka": 1192,
  "emume": 1193,
  "ụnya": 1194,
  "taghị": 1195,
  "nihu": 1196,
  "abuja": 1197,
  "tional": 1198,
  "pool": 1199,
  "inwe": 1200,
  "eziokwu.": 1201,
  "Moha": 1202,
  "verpool": 1203,
  "oriri": 1204,
  "na-akwado": 1205,
  "Liverpool": 1206,
  "200": 1207,
  "shịal": 1208,
  "oli": 1209,
  "na-adịghị": 1210,
  "isiokwu": 1211,
  "fada": 1212,
  "soshịal": 1213,
  "pụla": 1214,
  "nji": 1215,
  "ewe": 1216,
  "ci": 1217,
  "akị": 1218,
  "achụ": 1219,
  "Sou": 1220,
  "De": 1221,
  "na-ekpe": 1222,
  "gụọ": 1223,
  "..": 1224,
  "zde": 1225,
  "ogbu": 1226,
  "Afri": 1227,
  "\"\"": 1228,
  "jeri": 1229,
  "agu": 1230,
  "Ca": 1231,
  "'.": 1232,
  "ọkaiwu": 1233,
  "ọmụ": 1234,
  "onyinye": 1235,
  "juru": 1236,
  "Chelsea": 1237,
  "tri": 1238,
  "oyi": 1239,
  "ọ\"": 1240,
  "na-agwa": 1241,
  "kpọọ": 1242,
  "ing": 1243,
  "akpọ": 1244,
  "ụlọakwụkwọ": 1245,
  "ode": 1246,
  "onyo": 1247,
  "isi.": 1248,
  "iche.": 1249,
  "ọgbaaghara": 1250,
  "sịghị": 1251,
  "onyonyo": 1252,
  "mmadụ.": 1253,
  "ekpe": 1254,
  "e.": 1255,
  "arc": 1256,
  "aka,": 1257,
  "2019.": 1258,
  "ugbua,": 1259,
  "ment": 1260,
  "ham": 1261,
  "chu": 1262,
  "To": 1263,
  "rịọ": 1264,
  "net": 1265,
  "na-ere": 1266,
  "agbọ": 1267,
  "ọbara": 1268,
  "na-ewe": 1269,
  "mgb": 1270,
  "chester": 1271,
  "Manchester": 1272,
  "wit": 1273,
  "nwanne": 1274,
  "mmed": 1275,
  "gharịa": 1276,
  "ụwa.": 1277,
  "ort": 1278,
  "mama": 1279,
  "kwuru.": 1280,
  "South": 1281,
  "madu": 1282,
  "ite": 1283,
  "bie": 1284,
  "2018": 1285,
  "gee": 1286,
  "dịghị": 1287,
  "abụọ.": 1288,
  "ụra": 1289,
  "okpukpe": 1290,
  "okorocha": 1291,
  "ala.": 1292,
  "ọgbu": 1293,
  "ly": 1294,
  "godị": 1295,
  "ak": 1296,
  "Ja": 1297,
  "El": 1298,
  "ọnị": 1299,
  "ọnịcha": 1300,
  "vootu": 1301,
  "ry": 1302,
  "omeka": 1303,
  "mbere": 1304,
  "kpọrọ\"": 1305,
  "chas": 1306,
  "Sta": 1307,
  "Rochas": 1308,
  "Nwo": 1309,
  "na-ekwuru": 1310,
  "for": 1311,
  "ọchịehi": 1312,
  "ya?": 1313,
  "ope": 1314,
  "nyela": 1315,
  "aga.": 1316,
  "Fran": 1317,
  "Arse": 1318,
  "va": 1319,
  "na-ata": 1320,
  "mberede": 1321,
  "ede": 1322,
  "Bi": 1323,
  "nle": 1324,
  "kpu": 1325,
  "ga-aga": 1326,
  "der": 1327,
  "bri": 1328,
  "agbọghọ": 1329,
  "aga,": 1330,
  "Arsenal": 1331,
  "nụrụ": 1332,
  "akịrịka": 1333,
  "Mohammed": 1334,
  "Fe": 1335,
  "“ọ": 1336,
  "nwụọ": 1337,
  "ijipt": 1338,
  "emeela": 1339,
  "Peter": 1340,
  "setan": 1341,
  "nọọ": 1342,
  "juu": 1343,
  "gbata": 1344,
  "',": 1345,
  "kọtara": 1346,
  "gharịrị": 1347,
  "ọkammụta": 1348,
  "ky": 1349,
  "10": 1350,
  "ịkpa": 1351,
  "witter": 1352,
  "tala": 1353,
  "s,": 1354,
  "ong": 1355,
  "kweremadu": 1356,
  "batara": 1357,
  "atụ,": 1358,
  "Ekweremadu": 1359,
  "000": 1360,
  "taa.": 1361,
  "omekaome": 1362,
  "na-eri": 1363,
  "nhọpụta": 1364,
  "kọmish": 1365,
  "ekele": 1366,
  "ber": 1367,
  "anwụọla": 1368,
  "Pre": 1369,
  "Ke": 1370,
  "ụwa,": 1371,
  "wi": 1372,
  "uju": 1373,
  "s.": 1374,
  "our": 1375,
  "mkparịta": 1376,
  "gidere": 1377,
  "Eze": 1378,
  "Abu": 1379,
  "ọrụ.": 1380,
  "ozugbo": 1381,
  "mpụ": 1382,
  "kọmishọna": 1383,
  "cy": 1384,
  "aru": 1385,
  "ala,": 1386,
  "ịlụ": 1387,
  "na-abụ": 1388,
  "naeze": 1389,
  "mkpu": 1390,
  "jo": 1391,
  "eziokwu,": 1392,
  "eh": 1393,
  "a?": 1394,
  "ịkpọ": 1395,
  "zịrị": 1396,
  "nwereike": 1397,
  "kwasị": 1398,
  "1,": 1399,
  "ọkaikpe": 1400,
  "ọgụgụ": 1401,
  "rụọ": 1402,
  "ogbuni": 1403,
  "ogbunigwe": 1404,
  "n,": 1405,
  "iro": 1406,
  ").": 1407,
  "ọhanaeze": 1408,
  "warị": 1409,
  "im": 1410,
  ".”)": 1411,
  "nkị": 1412,
  "mmehie": 1413,
  "kwụrụ": 1414,
  "ije": 1415,
  "ga-enwe": 1416,
  "edo": 1417,
  "ahụike": 1418,
  "wepụtara": 1419,
  "wer": 1420,
  "n.": 1421,
  "megide": 1422,
  "ihe,": 1423,
  "ọrụ,": 1424,
  "ọdịnihu": 1425,
  "ssi": 1426,
  "egbuola": 1427,
  "Joh": 1428,
  "14": 1429,
  "midia": 1430,
  "hapụrụ": 1431,
  "maara": 1432,
  "hazi": 1433,
  "baịbụl,": 1434,
  "ndịigbo": 1435,
  "mkpebi": 1436,
  "igbu": 1437,
  "ghe": 1438,
  "enyela": 1439,
  "ewu": 1440,
  "China": 1441,
  "ịmata": 1442,
  "ta.": 1443,
  "nọchite": 1444,
  "mpe": 1445,
  "mma,": 1446,
  "ire": 1447,
  "fra": 1448,
  "atụrụ": 1449,
  "15": 1450,
  "),": 1451,
  "ndịagha": 1452,
  "nkwe": 1453,
  "makana": 1454,
  "Eme": 1455,
  "ụlọọgwụ": 1456,
  "ụjọ": 1457,
  "rue": 1458,
  "niile,": 1459,
  "na-arị": 1460,
  "devid": 1461,
  "bịafra": 1462,
  "We": 1463,
  "Oke": 1464,
  "Mar": 1465,
  "yọọ": 1466,
  "ph": 1467,
  "nwayọọ": 1468,
  "na-amụ": 1469,
  "mmadụ,": 1470,
  "metụtara": 1471,
  "achọghị": 1472,
  "__": 1473,
  "Be": 1474,
  "satọ": 1475,
  "na-enweghị": 1476,
  "gburugburu": 1477,
  "ga-anọ": 1478,
  "amalite": 1479,
  "agbata": 1480,
  "ata": 1481,
  "Nor": 1482,
  "satọde": 1483,
  "ngw": 1484,
  "gị,": 1485,
  "ga-enyere": 1486,
  "ction": 1487,
  "ụtọ.": 1488,
  "sị,": 1489,
  "nter": 1490,
  "fee": 1491,
  "Zi": 1492,
  "Sara": 1493,
  "SS": 1494,
  "Chris": 1495,
  "zara": 1496,
  "shi": 1497,
  "mị": 1498,
  "kwaghị": 1499,
  "duna": 1500,
  "Nna": 1501,
  "ụlọakụ": 1502,
  "ọdịnala": 1503,
  "tius": 1504,
  "rid": 1505,
  "iru": 1506,
  "Ra": 1507,
  "Leagu": 1508,
  "ịgụ": 1509,
  "obi,": 1510,
  "na-egbu": 1511,
  "mọ": 1512,
  "elekere": 1513,
  "egwuregwu,": 1514,
  "na-azụ": 1515,
  "naụba": 1516,
  "lata": 1517,
  "fufe": 1518,
  "chapụ": 1519,
  "Ser": 1520,
  "2017": 1521,
  "ọfụma": 1522,
  "tha": 1523,
  "sha": 1524,
  "nzuzo": 1525,
  "nabata": 1526,
  "lic": 1527,
  "kata": 1528,
  "ja.": 1529,
  "Lago": 1530,
  "ọgbugbu": 1531,
  "uru.": 1532,
  "na-ebi": 1533,
  "na-atọ": 1534,
  "laị": 1535,
  "gị.": 1536,
  "akụnaụba": 1537,
  "akpọrọ": 1538,
  "agwọ": 1539,
  "Osi": 1540,
  "Chukwu": 1541,
  "ugbua.": 1542,
  "tiusde": 1543,
  "putara": 1544,
  "kan": 1545,
  "ekwentị": 1546,
  "abụrụ": 1547,
  "Pau": 1548,
  "ọnụ.": 1549,
  "ịchị": 1550,
  "nkịtị": 1551,
  "na-alụ": 1552,
  "kwo": 1553,
  "Willie": 1554,
  "Or": 1555,
  "Ju": 1556,
  "FCC": 1557,
  "ụmụnne": 1558,
  "ụda": 1559,
  "ọgọst": 1560,
  "ọdọụgbọelu": 1561,
  "wute": 1562,
  "rie": 1563,
  "pị": 1564,
  "naịjirịa,": 1565,
  "na-akwụ": 1566,
  "lere": 1567,
  "gụrụ": 1568,
  "gbochi": 1569,
  "tor": 1570,
  "sonye": 1571,
  "na-anọ": 1572,
  "nchọpụta": 1573,
  "kpụrụ": 1574,
  "icheiche": 1575,
  "chitere": 1576,
  "agụmba": 1577,
  "abụọ,": 1578,
  "yo": 1579,
  "wepụ": 1580,
  "nnyocha": 1581,
  "mfe": 1582,
  "igbo,": 1583,
  "itinye": 1584,
  "ijeri": 1585,
  "dịkwa": 1586,
  "chaghị": 1587,
  "bakar": 1588,
  "ard": 1589,
  "weere": 1590,
  "olile": 1591,
  "nnọọ": 1592,
  "mkpesa": 1593,
  "mbaụwa": 1594,
  "Uma": 1595,
  "Ude": 1596,
  "Twitter": 1597,
  "Pro": 1598,
  "Adam": 1599,
  "1)": 1600,
  "zute": 1601,
  "ogolo": 1602,
  "ogologo": 1603,
  "mmekọrịta": 1604,
  "man": 1605,
  "efu": 1606,
  "bụkwanụ": 1607,
  "briten": 1608,
  "Abubakar": 1609,
  "ọmụmụ": 1610,
  "uro": 1611,
  "sitere": 1612,
  "mere.": 1613,
  "k,": 1614,
  "idi": 1615,
  "gbasa": 1616,
  "ga-ahụ": 1617,
  "ebonyi": 1618,
  "chọọchị": 1619,
  "Paul": 1620,
  "Me": 1621,
  "Gu": 1622,
  "na-azọ": 1623,
  "liri": 1624,
  "ga-ebi": 1625,
  "ezum": 1626,
  "butere": 1627,
  "GA": 1628,
  "EFCC": 1629,
  "2015": 1630,
  "ther": 1631,
  "ogbe": 1632,
  "ndị)": 1633,
  "leba": 1634,
  "lụrụ": 1635,
  "atọ.": 1636,
  "State": 1637,
  "NA": 1638,
  "yin": 1639,
  "state": 1640,
  "ria": 1641,
  "raịde": 1642,
  "merụrụ": 1643,
  "latri": 1644,
  "kọọ": 1645,
  "gwo": 1646,
  "fraịde": 1647,
  "akwado": 1648,
  "Ihe": 1649,
  "tic": 1650,
  "papa": 1651,
  "nyeere": 1652,
  "na-enyere": 1653,
  "mmanya": 1654,
  "kịrị": 1655,
  "ga-akpọ": 1656,
  "Inter": 1657,
  "Go": 1658,
  "23": 1659,
  "ọda": 1660,
  "senet": 1661,
  "san": 1662,
  "pi": 1663,
  "ofesi,": 1664,
  "nwụchi": 1665,
  "New": 1666,
  "ọṅụ": 1667,
  "ịkwụ": 1668,
  "okorobịa": 1669,
  "nkịta": 1670,
  "gachara": 1671,
  "fa": 1672,
  "debe": 1673,
  "bụ\"": 1674,
  "Fu": 1675,
  "El-": 1676,
  "2,": 1677,
  "zaky": 1678,
  "ton": 1679,
  "nwaafọ": 1680,
  "ndị\"": 1681,
  "mbu": 1682,
  "iche,": 1683,
  "hab": 1684,
  "bra": 1685,
  "akzaky": 1686,
  "awa": 1687,
  "Zakzaky": 1688,
  "Ike": 1689,
  "Bo": 1690,
  "ọkpara": 1691,
  "yiri": 1692,
  "nue": 1693,
  "na-ekwe": 1694,
  "mpụtara": 1695,
  "mbi": 1696,
  "gabe": 1697,
  "ebere": 1698,
  "dọla": 1699,
  "Saraki": 1700,
  "Mugabe": 1701,
  "Au": 1702,
  "17": 1703,
  "zuo": 1704,
  "pụọ": 1705,
  "ofufe": 1706,
  "na-aka": 1707,
  "kwanyere": 1708,
  "guzo": 1709,
  "gboo": 1710,
  "okwu.": 1711,
  "mụtara": 1712,
  "mọdụ": 1713,
  "jehova.": 1714,
  "gbuola": 1715,
  "fọrọ": 1716,
  "anwụchiela": 1717,
  "Lagos": 1718,
  "ndụmọdụ": 1719,
  "n'\"": 1720,
  "kwaa": 1721,
  "iku": 1722,
  "efe": 1723,
  "dị,": 1724,
  "Pa": 1725,
  "Di": 1726,
  "ọma,": 1727,
  "nkata": 1728,
  "na-ada": 1729,
  "nrọ": 1730,
  "foto": 1731,
  "enweta": 1732,
  "bụbu": 1733,
  "benue": 1734,
  "amata": 1735,
  "agụụ": 1736,
  "18": 1737,
  "ụmụafọ": 1738,
  "zutere": 1739,
  "ife": 1740,
  "ezumike": 1741,
  "eto": 1742,
  "Cha": 1743,
  "Africa": 1744,
  "APGA": 1745,
  "puta": 1746,
  "mmepe": 1747,
  "kaduna": 1748,
  "egosi": 1749,
  "baara": 1750,
  "agbụrụ": 1751,
  "azọ": 1752,
  "?”": 1753,
  "ịny": 1754,
  "ohu": 1755,
  "latrik": 1756,
  "ga-akwụ": 1757,
  "eso": 1758,
  "drid": 1759,
  "anyị\"": 1760,
  "akwụkwọ.": 1761,
  "aghọ": 1762,
  "apụta": 1763,
  "Ta": 1764,
  "No": 1765,
  "Madrid": 1766,
  "Ele": 1767,
  "ọkụkọ": 1768,
  "ịṅụ": 1769,
  "ourt": 1770,
  "okenye": 1771,
  "ndụ.": 1772,
  "mgbede": 1773,
  "miri": 1774,
  "kwala": 1775,
  "enyo": 1776,
  "amaokwu": 1777,
  "Bri": 1778,
  "1.": 1779,
  "ọkachamara": 1780,
  "ịzọ": 1781,
  "okporoụzọ": 1782,
  "ower": 1783,
  "njikere": 1784,
  "nara": 1785,
  "mkparịtaụka": 1786,
  "mba.": 1787,
  "kwụọ": 1788,
  "dan": 1789,
  "akụrụ": 1790,
  "13": 1791,
  "ịnta": 1792,
  "ịntane": 1793,
  "ịntaneti": 1794,
  "ịba": 1795,
  "wore": 1796,
  "pụrụiche": 1797,
  "ona": 1798,
  "na-eme.": 1799,
  "na-etinye": 1800,
  "enyere": 1801,
  "Sowore": 1802,
  "Ru": 1803,
  "Ama": 1804,
  "199": 1805,
  "ụtụ": 1806,
  "ọdachi": 1807,
  "ịkwụsị": 1808,
  "olileanya": 1809,
  "jị": 1810,
  "enweghi": 1811,
  "ahị": 1812,
  "Vi": 1813,
  "ọdịda": 1814,
  "ọbasan": 1815,
  "ọbasanjọ": 1816,
  "ịkwalite": 1817,
  "the": 1818,
  "steeti,": 1819,
  "saa": 1820,
  "na-ekwuchitere": 1821,
  "agha.": 1822,
  "Ihedio": 1823,
  "Ibra": 1824,
  "na-akụzi": 1825,
  "nata": 1826,
  "mgbere": 1827,
  "ld": 1828,
  "jiji": 1829,
  "inweta": 1830,
  "gun": 1831,
  "ese": 1832,
  "bụzị": 1833,
  "AS": 1834,
  "wene": 1835,
  "spe": 1836,
  "jide": 1837,
  "chịrị": 1838,
  "beghi": 1839,
  "Te": 1840,
  "Nwa": 1841,
  "Ge": 1842,
  "ịghọta": 1843,
  "wenezde": 1844,
  "onyeozi": 1845,
  "na-arịọ": 1846,
  "na-akụziri": 1847,
  "na-acha": 1848,
  "merụ": 1849,
  "kwazie": 1850,
  "arịrị": 1851,
  "anyi": 1852,
  "apụ": 1853,
  "Ga": 1854,
  "ọkọ": 1855,
  "ịkụ": 1856,
  "ịchụ": 1857,
  "stra": 1858,
  "qu": 1859,
  "obibi": 1860,
  "na-ede": 1861,
  "na-asụ": 1862,
  "ngwụ": 1863,
  "nchị": 1864,
  "ebido": 1865,
  "Ibrahi": 1866,
  "Ghana": 1867,
  "ọọla": 1868,
  "ọkara": 1869,
  "ọjị": 1870,
  "ọkpọ": 1871,
  "up": 1872,
  "sti": 1873,
  "pase": 1874,
  "osimiri": 1875,
  "igbo.": 1876,
  "ga-ebu": 1877,
  "boro": 1878,
  "ahịhịa": 1879,
  "aṅụ": 1880,
  "Ife": 1881,
  "FA": 1882,
  "4.": 1883,
  "16": 1884,
  "ọkachasị": 1885,
  "ọk": 1886,
  "sịga": 1887,
  "omi": 1888,
  "na-akọwa": 1889,
  "mbụ.": 1890,
  "mkpọ": 1891,
  "iso": 1892,
  "inyere": 1893,
  "gen": 1894,
  "ezie": 1895,
  "anwụrụ": 1896,
  "akụrụngwa": 1897,
  "akarị": 1898,
  "agw": 1899,
  "Nwosu": 1900,
  "Is": 1901,
  "Fal": 1902,
  "sena": 1903,
  "na-akwa": 1904,
  "national": 1905,
  "mọnde": 1906,
  "mas": 1907,
  "mgbọ": 1908,
  "ibi": 1909,
  "ga-achị": 1910,
  "gaara": 1911,
  "ebum": 1912,
  "arụrụ": 1913,
  "Olu": 1914,
  "National": 1915,
  "riri": 1916,
  "nkwekọrịta": 1917,
  "na-eto": 1918,
  "na-enyo": 1919,
  "na-ebo": 1920,
  "nrụrụ": 1921,
  "mbab": 1922,
  "mbabwe": 1923,
  "lani": 1924,
  "kpebiri": 1925,
  "ga-abara": 1926,
  "bia": 1927,
  "akwụsị": 1928,
  "Zimbabwe": 1929,
  "Wa": 1930,
  "US": 1931,
  "Ti": 1932,
  "Ihedioha": 1933,
  "Ibrahim": 1934,
  "ọkụ.": 1935,
  "senatọ": 1936,
  "ral": 1937,
  "pịa": 1938,
  "na-ajụ": 1939,
  "meere": 1940,
  "kụzi": 1941,
  "kara": 1942,
  "gbanwee": 1943,
  "ejiri": 1944,
  "by": 1945,
  "are": 1946,
  "anambra,": 1947,
  "Premi": 1948,
  "Pla": 1949,
  "Madu": 1950,
  "El-Zakzaky": 1951,
  "Ah": 1952,
  "ọnwụ.": 1953,
  "ọkafọ": 1954,
  "ọzụ": 1955,
  "ịnya": 1956,
  "ịcha": 1957,
  "ubi": 1958,
  "tela": 1959,
  "opekata": 1960,
  "nwetere": 1961,
  "ngo": 1962,
  "izuụka": 1963,
  "asatara": 1964,
  "ON": 1965,
  "Nai": 1966,
  "League": 1967,
  "ụfọdụ,": 1968,
  "ute": 1969,
  "ule": 1970,
  "na-elekọta": 1971,
  "na-eti": 1972,
  "mụọ": 1973,
  "maachị": 1974,
  "ga-ewe": 1975,
  "ga-akwụsị": 1976,
  "ekweghị": 1977,
  "egwu.": 1978,
  "arcourt": 1979,
  "agbaala": 1980,
  "Port": 1981,
  "International": 1982,
  "Harcourt": 1983,
  "Emma": 1984,
  "30": 1985,
  "“onye": 1986,
  "ọkto": 1987,
  "ọktoba": 1988,
  "ọchịchị.": 1989,
  "ịzụ": 1990,
  "ịmụ": 1991,
  "tọzde": 1992,
  "tuo": 1993,
  "sịa": 1994,
  "na-eke": 1995,
  "mita": 1996,
  "makwụ": 1997,
  "ll": 1998,
  "ero": 1999,
  "dee": 2000,
  "bish": 2001,
  "a\"": 2002,
  "Comm": 2003,
  "Ale": 2004,
  "2.": 2005,
  "ụgha": 2006,
  "taa,": 2007,
  "otu,": 2008,
  "oriakụ": 2009,
  "mere,": 2010,
  "makwụkwọ": 2011,
  "kwanụ": 2012,
  "ga-achọ": 2013,
  "Premier": 2014,
  "Jona": 2015,
  "2)": 2016,
  "ụnyaahụ": 2017,
  "otu.": 2018,
  "nba": 2019,
  "lọta": 2020,
  "kụrụ": 2021,
  "kweere": 2022,
  "kwa,": 2023,
  "furu": 2024,
  "ekwesịghị": 2025,
  "akọ": 2026,
  "Falcon": 2027,
  "ụmụnwoke": 2028,
  "ụbụrụ": 2029,
  "ọzụzụ": 2030,
  "ya.”": 2031,
  "rịọrọ": 2032,
  "omebe": 2033,
  "nke\"": 2034,
  "ncheta": 2035,
  "nbajo": 2036,
  "nturu": 2037,
  "ndi": 2038,
  "med": 2039,
  "jụọ": 2040,
  "ise.": 2041,
  "ihe\"": 2042,
  "biga": 2043,
  "achịcha": 2044,
  "Osinbajo": 2045,
  "Mbaka": 2046,
  "Ger": 2047,
  "Bra": 2048,
  "ụma": 2049,
  "na-enyocha": 2050,
  "na-akọ": 2051,
  "ctor": 2052,
  "atọ,": 2053,
  "arcel": 2054,
  "afọ.": 2055,
  "agwụ": 2056,
  "St": 2057,
  "Bro": 2058,
  "Alex": 2059,
  "Aba": 2060,
  "ịnyịnya": 2061,
  "ore": 2062,
  "nsu": 2063,
  "mpion": 2064,
  "mkpamkpa": 2065,
  "mbe": 2066,
  "kwuo,": 2067,
  "họpụtara": 2068,
  "ghọọ": 2069,
  "emi": 2070,
  "emere": 2071,
  "can": 2072,
  "akpara": 2073,
  "Willi": 2074,
  "Onye": 2075,
  "John": 2076,
  "Face": 2077,
  "Emeka": 2078,
  "David": 2079,
  "Air": 2080,
  "2016": 2081,
  "ọgwụgwụ": 2082,
  "ugbo": 2083,
  "obodo.": 2084,
  "nyụ": 2085,
  "ntọrị": 2086,
  "nnewi": 2087,
  "nia": 2088,
  "mozu": 2089,
  "mgbasaozi": 2090,
  "mgbanwe": 2091,
  "ary": 2092,
  "akwamozu": 2093,
  "agbidi": 2094,
  "awụ": 2095,
  "William": 2096,
  "Wor": 2097,
  "MA": 2098,
  "Jonatha": 2099,
  "Camer": 2100,
  "ọbụla.": 2101,
  "sịkwa": 2102,
  "s:": 2103,
  "rom": 2104,
  "ikuku": 2105,
  "idemmiri": 2106,
  "ego.": 2107,
  "ewere": 2108,
  "day": 2109,
  "aribe": 2110,
  "arọ": 2111,
  "ahu": 2112,
  "Ha": 2113,
  "DSS": 2114,
  "Con": 2115,
  "Bor": 2116,
  "Ai": 2117,
  "ịta": 2118,
  "sụgharịrị": 2119,
  "sia": 2120,
  "pita": 2121,
  "o\"": 2122,
  "na-anaghị": 2123,
  "maa": 2124,
  "mmi": 2125,
  "la.": 2126,
  "kwụsịrị": 2127,
  "kweta": 2128,
  "jidere": 2129,
  "cho": 2130,
  "bert": 2131,
  "alth": 2132,
  "akaebe": 2133,
  "Yo": 2134,
  "Sam": 2135,
  "Fulani": 2136,
  "Abdu": 2137,
  "Ana": 2138,
  "na-arịa": 2139,
  "nzụ": 2140,
  "kansa": 2141,
  "julaị": 2142,
  "isi,": 2143,
  "bre": 2144,
  "She": 2145,
  "Riva": 2146,
  "Naija": 2147,
  "Mba": 2148,
  "Feder": 2149,
  "Euro": 2150,
  "Champion": 2151,
  "Abaribe": 2152,
  "Adi": 2153,
  "“ndị": 2154,
  "yen": 2155,
  "ves": 2156,
  "tụnyere": 2157,
  "tọọrọ": 2158,
  "toro": 2159,
  "rịrị": 2160,
  "pan": 2161,
  "ngwụcha": 2162,
  "nchịkọta": 2163,
  "na-emekwa": 2164,
  "mmasị": 2165,
  "lla": 2166,
  "kọmiti": 2167,
  "jere": 2168,
  "ga-ezute": 2169,
  "enwere": 2170,
  "Timo": 2171,
  "Del": 2172,
  "pụta.": 2173,
  "pte": 2174,
  "para": 2175,
  "nsogbu.": 2176,
  "ndị,": 2177,
  "na-enweta": 2178,
  "na-agaghị": 2179,
  "na-anụ": 2180,
  "na,": 2181,
  "meekwa": 2182,
  "kwesi": 2183,
  "kelere": 2184,
  "ime.": 2185,
  "hoo": 2186,
  "ga-eso": 2187,
  "chetara": 2188,
  "anu": 2189,
  "Ut": 2190,
  "Iv": 2191,
  "He": 2192,
  "Falcons": 2193,
  "Eng": 2194,
  "ụnyaahụ.": 2195,
  "zọrọ": 2196,
  "tti": 2197,
  "okwu,": 2198,
  "nwụchiri": 2199,
  "ndo": 2200,
  "mecha": 2201,
  "kwenyere": 2202,
  "ers": 2203,
  "ejije": 2204,
  "arcelona": 2205,
  "Umu": 2206,
  "Jonathan": 2207,
  "Igbo": 2208,
  "Ben": 2209,
  "Barcelona": 2210,
  "“ihe": 2211,
  "ịnọ": 2212,
  "ukwu.": 2213,
  "teau": 2214,
  "ritere": 2215,
  "onald": 2216,
  "odeakwụkwọ": 2217,
  "nzụkọ": 2218,
  "na-anwụ": 2219,
  "ntu": 2220,
  "mpu": 2221,
  "mgbakọ": 2222,
  "mee.": 2223,
  "mbụ,": 2224,
  "ghọtara": 2225,
  "gra": 2226,
  "emeri": 2227,
  "dị.": 2228,
  "anwụ.": 2229,
  "West": 2230,
  "Plateau": 2231,
  "North": 2232,
  "Donald": 2233,
  "Dani": 2234,
  "3,": 2235,
  "\"ọ\"": 2236,
  "ọgwụgwọ": 2237,
  "ọbụladị": 2238,
  "taa:": 2239,
  "sayen": 2240,
  "ondo": 2241,
  "oon": 2242,
  "ok": 2243,
  "nwaanyị.": 2244,
  "na-ezi": 2245,
  "na-ebe": 2246,
  "mmer": 2247,
  "jikọtara": 2248,
  "inọ": 2249,
  "gbụ": 2250,
  "ga-abịa": 2251,
  "bụzi": 2252,
  "World": 2253,
  "Umahi": 2254,
  "France": 2255,
  "Cameroon": 2256,
  "Bay": 2257,
  "25": 2258,
  "“n'": 2259,
  "“m": 2260,
  "ọjọọ.": 2261,
  "septe": 2262,
  "na-ebute": 2263,
  "nkụ": 2264,
  "mbodo": 2265,
  "ili": 2266,
  "ga-eri": 2267,
  "ehihi": 2268,
  "echichi": 2269,
  "ebi.": 2270,
  "asambodo": 2271,
  "Utd": 2272,
  "The": 2273,
  "Robert": 2274,
  "Lib": 2275,
  "Delta": 2276,
  "ọnụ,": 2277,
  "zaa": 2278,
  "tus": 2279,
  "opekatampe": 2280,
  "na-abụghị": 2281,
  "laa": 2282,
  "kraịst,": 2283,
  "kama,": 2284,
  "ehu": 2285,
  "cu": 2286,
  "akwụkwọ,": 2287,
  "akatọ": 2288,
  "aku": 2289,
  "Shi": 2290,
  "Rivas": 2291,
  "Oba": 2292,
  "Londo": 2293,
  "IM": 2294,
  "Aisha": 2295,
  "100": 2296,
  "-ndị": 2297,
  "ịchafụ": 2298,
  "ịkwa": 2299,
  "zọpụta": 2300,
  "thi": 2301,
  "ssion": 2302,
  "sayensị": 2303,
  "owerri": 2304,
  "ogbenye": 2305,
  "oma": 2306,
  "na-eyi": 2307,
  "min": 2308,
  "mbido": 2309,
  "cra": 2310,
  "agụmakwụkwọ": 2311,
  "abụrụla": 2312,
  "UK": 2313,
  "12": 2314,
  "ịmụta": 2315,
  "yinbo": 2316,
  "uhie": 2317,
  "toyinbo": 2318,
  "tiri": 2319,
  "tten": 2320,
  "ree": 2321,
  "nson": 2322,
  "nkume": 2323,
  "maghị": 2324,
  "lia": 2325,
  "jama": 2326,
  "jamanị": 2327,
  "inọk": 2328,
  "gachara,": 2329,
  "ga-amalite": 2330,
  "daa": 2331,
  "amerịka.": 2332,
  "adịgboro": 2333,
  "Tu": 2334,
  "Ibi": 2335,
  "Hu": 2336,
  "Ebo": 2337,
  "Christi": 2338,
  "ụta": 2339,
  "tum": 2340,
  "mkpa.": 2341,
  "mgbochi": 2342,
  "ley": 2343,
  "lịa": 2344,
  "lara": 2345,
  "họrọ": 2346,
  "hu": 2347,
  "gbaara": 2348,
  "dike": 2349,
  "agbanye": 2350,
  "afrịka.": 2351,
  "agbara": 2352,
  "____": 2353,
  "Totten": 2354,
  "Real": 2355,
  "Niger": 2356,
  "Daniel": 2357,
  "AFC": 2358,
  "3.": 2359,
  "2019:": 2360,
  "-O": 2361,
  "ụghọ": 2362,
  "ọnụọgụgụ": 2363,
  "ọbụghị": 2364,
  "ịhụna": 2365,
  "ịda": 2366,
  "zụrụ": 2367,
  "te,": 2368,
  "sonyere": 2369,
  "sọọ": 2370,
  "pp": 2371,
  "oge,": 2372,
  "nuel": 2373,
  "nturuugo": 2374,
  "na-aṅụ": 2375,
  "nghọta": 2376,
  "ndu": 2377,
  "mes": 2378,
  "jizọs,": 2379,
  "iche-": 2380,
  "ina": 2381,
  "ghọrọ": 2382,
  "ga-arụ": 2383,
  "biko": 2384,
  "aghụghọ": 2385,
  "Shehu": 2386,
  "Okoro": 2387,
  "Facebo": 2388,
  "Fatoyinbo": 2389,
  "Demo": 2390,
  "Commi": 2391,
  "AFCON": 2392,
  "Ara": 2393,
  "9.": 2394,
  "6,": 2395,
  "2019,": 2396,
  "28": 2397,
  "-A": 2398,
  "“a": 2399,
  "ụmụnna": 2400,
  "ụdịrị": 2401,
  "zọọ": 2402,
  "wanye": 2403,
  "vs": 2404,
  "osika": 2405,
  "nweela": 2406,
  "na-amasị": 2407,
  "megidere": 2408,
  "kra": 2409,
  "jikwa": 2410,
  "ja,": 2411,
  "ga-asị": 2412,
  "gri": 2413,
  "fuo": 2414,
  "ekpere,": 2415,
  "egwu,": 2416,
  "chite": 2417,
  "azụma": 2418,
  "arịrịọ": 2419,
  "Timoti": 2420,
  "Rev": 2421,
  "Lu": 2422,
  "5.": 2423,
  "...": 2424,
  ".\"ọ\"": 2425,
  "ịkọ": 2426,
  "ịchọ": 2427,
  "sina": 2428,
  "nwaada": 2429,
  "ndịda": 2430,
  "na-echeta": 2431,
  "na-amaghị": 2432,
  "njiri": 2433,
  "njirimara": 2434,
  "mmekọ": 2435,
  "mwute": 2436,
  "ichi": 2437,
  "gbochie": 2438,
  "gal": 2439,
  "ep": 2440,
  "amadi": 2441,
  "ahịa.": 2442,
  "agha,": 2443,
  "Si": 2444,
  "Nigerian": 2445,
  "Dan": 2446,
  "AC": 2447,
  "4)": 2448,
  "(n": 2449,
  "ụbọchị,": 2450,
  "ọlaedo": 2451,
  "puru": 2452,
  "oti": 2453,
  "nọ.": 2454,
  "nri,": 2455,
  "n'ụba": 2456,
  "muel": 2457,
  "mmalite": 2458,
  "mba,": 2459,
  "lement": 2460,
  "kọwaa": 2461,
  "kola": 2462,
  "etinyela": 2463,
  "etinye": 2464,
  "ejighị": 2465,
  "dozi": 2466,
  "ama.": 2467,
  "akụn'ụba": 2468,
  "ation": 2469,
  "Tottenham": 2470,
  "Samuel": 2471,
  "Peop": 2472,
  "Ebre": 2473,
  "ọnatara": 2474,
  "ọkụ,": 2475,
  "tọhapụ": 2476,
  "okwute": 2477,
  "odo": 2478,
  "nọve": 2479,
  "nrụrụaka": 2480,
  "nkwụ": 2481,
  "kwuputara": 2482,
  "kwadoro": 2483,
  "ka\"": 2484,
  "jizọs.": 2485,
  "jehova,": 2486,
  "ise,": 2487,
  "izi": 2488,
  "ghachiri": 2489,
  "gbagburu": 2490,
  "ga-enweta": 2491,
  "gakwara": 2492,
  "ekwensu": 2493,
  "bishọ": 2494,
  "aza": 2495,
  "alo": 2496,
  "Ste": 2497,
  "Ola": 2498,
  "Japan": 2499,
  "Emmanuel": 2500,
  "Election": 2501,
  "Champions": 2502,
  "Ahmed": 2503,
  "Agu": 2504,
  "AN": 2505,
  "ụzọ,": 2506,
  "ọnatarachi": 2507,
  "ọhụrụ.": 2508,
  "ọdịmma": 2509,
  "z.": 2510,
  "ress": 2511,
  "onyeisioche": 2512,
  "onyeàmà": 2513,
  "ose": 2514,
  "na-ewu": 2515,
  "kpọkuo": 2516,
  "katọrọ": 2517,
  "juun": 2518,
  "is": 2519,
  "igosi": 2520,
  "bishọp": 2521,
  "anabata": 2522,
  "amalitela": 2523,
  "ahụ?": 2524,
  "agbanyeghi": 2525,
  "Okon": 2526,
  "Okezie": 2527,
  "Je": 2528,
  "Ifeanyi": 2529,
  "Ce": 2530,
  "Brother": 2531,
  "African": 2532,
  "ụzọ.": 2533,
  "ụtọ,": 2534,
  "ụlọ,": 2535,
  "ya\"": 2536,
  "ssa": 2537,
  "noa": 2538,
  "mmegbu": 2539,
  "mechaa": 2540,
  "mar": 2541,
  "kwupụtara": 2542,
  "kana": 2543,
  "gere": 2544,
  "chụpụ": 2545,
  "cia": 2546,
  "bụ.": 2547,
  "azu": 2548,
  "Par": 2549,
  "Joe": 2550,
  "Adamu": 2551,
  "Abi": 2552,
  "“chineke": 2553,
  "ọga": 2554,
  "ịgwa": 2555,
  "ịara": 2556,
  "wala": 2557,
  "um": 2558,
  "tin": 2559,
  "spen": 2560,
  "rịcha": 2561,
  "pti": 2562,
  "nyekwara": 2563,
  "nrite": 2564,
  "na-emepụta": 2565,
  "na-emere": 2566,
  "masịrị": 2567,
  "kilo": 2568,
  "ihere": 2569,
  "ff": 2570,
  "eprel": 2571,
  "emeghị": 2572,
  "ekwesi": 2573,
  "ejide": 2574,
  "eje": 2575,
  "dịịrị": 2576,
  "agwala": 2577,
  "afọ,": 2578,
  "Kano": 2579,
  "Europe": 2580,
  "And": 2581,
  ".”,": 2582,
  "-E": 2583,
  "ọmarịcha": 2584,
  "ọgara": 2585,
  "zil": 2586,
  "ya.\"": 2587,
  "wan": 2588,
  "sele": 2589,
  "ptizi": 2590,
  "ote": 2591,
  "n'obi": 2592,
  "ncha": 2593,
  "mili": 2594,
  "lụọ": 2595,
  "kụọ": 2596,
  "kwesị": 2597,
  "kpee": 2598,
  "koria": 2599,
  "jọn": 2600,
  "ihu.": 2601,
  "idu": 2602,
  "hibere": 2603,
  "ga-aka": 2604,
  "gana": 2605,
  "gy": 2606,
  "ehihie": 2607,
  "eju": 2608,
  "ee": 2609,
  "doo": 2610,
  "daị": 2611,
  "baptizi": 2612,
  "azịza": 2613,
  "amara": 2614,
  "aghọta": 2615,
  "Williams": 2616,
  "Wol": 2617,
  "Tho": 2618,
  "Shia": 2619,
  "Pri": 2620,
  "Ogbo": 2621,
  "Mike": 2622,
  "Ikpe": 2623,
  "Facebook": 2624,
  "England": 2625,
  "CO": 2626,
  "As": 2627,
  "Ali": 2628,
  "ọkpọka": 2629,
  "ọgbụ": 2630,
  "ọgbụgba": 2631,
  "ugwu.": 2632,
  "tho": 2633,
  "sere": 2634,
  "rọshịa": 2635,
  "paradaị": 2636,
  "port": 2637,
  "na-agbalị": 2638,
  "na-aba": 2639,
  "nabatara": 2640,
  "nnọchite": 2641,
  "nkw": 2642,
  "mmechi": 2643,
  "mekwara": 2644,
  "my": 2645,
  "lin": 2646,
  "ga-ekwu": 2647,
  "River": 2648,
  "Obiano": 2649,
  "Job": 2650,
  "Id": 2651,
  "Democra": 2652,
  "Borno": 2653,
  "Bel": 2654,
  "Baba": 2655,
  "24": 2656,
  "ịjụ": 2657,
  "ukwu,": 2658,
  "ude": 2659,
  "nel": 2660,
  "ndụ,": 2661,
  "ndịozi": 2662,
  "mmanwụ": 2663,
  "mebiri": 2664,
  "mgbu": 2665,
  "lian": 2666,
  "leta": 2667,
  "kọọrọ": 2668,
  "jupụtara": 2669,
  "jeru": 2670,
  "fran": 2671,
  "ememme": 2672,
  "egburu": 2673,
  "bọje": 2674,
  "baa": 2675,
  "asaala": 2676,
  "anọ.": 2677,
  "amadị": 2678,
  "alụkwaghị": 2679,
  "Yemi": 2680,
  ":\"": 2681,
  "50": 2682,
  "\",\"": 2683,
  "ụka.": 2684,
  "ọwa": 2685,
  "ọgbara": 2686,
  "uni": 2687,
  "tom": 2688,
  "ongress": 2689,
  "ogogo": 2690,
  "ot": 2691,
  "na-egwu": 2692,
  "na-anọchite": 2693,
  "na-amụta": 2694,
  "mechiri": 2695,
  "kwetara": 2696,
  "kpọpụta": 2697,
  "kasị": 2698,
  "jerusele": 2699,
  "iti": 2700,
  "igbe": 2701,
  "erena": 2702,
  "car": 2703,
  "arba": 2704,
  "Serena": 2705,
  "Sala": 2706,
  "Ikpeazu": 2707,
  "Idris": 2708,
  "Do": 2709,
  "Commission": 2710,
  "Congress": 2711,
  "Clement": 2712,
  "9,": 2713,
  "7,": 2714,
  "ịkwado": 2715,
  "ịdọ": 2716,
  "win": 2717,
  "udu": 2718,
  "pere": 2719,
  "obodo,": 2720,
  "nso.": 2721,
  "na-ekwu.": 2722,
  "na-ese": 2723,
  "kọmpu": 2724,
  "gbapụ": 2725,
  "gbalị": 2726,
  "emee": 2727,
  "ebumn'obi": 2728,
  "bụ:": 2729,
  "ba,": 2730,
  "beri": 2731,
  "ang": 2732,
  "abụbụ": 2733,
  "acha": 2734,
  "Victor": 2735,
  "Sera": 2736,
  "Sy": 2737,
  "Onwu": 2738,
  "Igbokwe": 2739,
  "God": 2740,
  "Brazil": 2741,
  "11": 2742,
  "-3": 2743,
  "ụlọ.": 2744,
  "ọchịchị,": 2745,
  "ịhụnanya": 2746,
  "ịna": 2747,
  "zịkwa": 2748,
  "w.": 2749,
  "vel": 2750,
  "tụọ": 2751,
  "sọọsọ": 2752,
  "sola": 2753,
  "nọ,": 2754,
  "na-agbanyeghị": 2755,
  "nce": 2756,
  "mezuru": 2757,
  "mepụta": 2758,
  "laghachi": 2759,
  "kilomita": 2760,
  "ill": 2761,
  "ice": 2762,
  "ha?": 2763,
  "ha\"": 2764,
  "gbala": 2765,
  "febụ": 2766,
  "febụwarị": 2767,
  "eme.": 2768,
  "ebube": 2769,
  "dun": 2770,
  "deine": 2771,
  "chi,": 2772,
  "chee": 2773,
  "ble": 2774,
  "asaa.": 2775,
  "anyụ": 2776,
  "abuja.": 2777,
  "Okonkwo": 2778,
  "Nnamdi": 2779,
  "Kenya": 2780,
  "India": 2781,
  "Em": 2782,
  "Chibo": 2783,
  "Big": 2784,
  "AR": 2785,
  "198": 2786,
  "“o": 2787,
  "ọdịnihu.": 2788,
  "ọbụrụ": 2789,
  "ịnwụ": 2790,
  "tụbeghị": 2791,
  "pasentị": 2792,
  "nri.": 2793,
  "na-ekwusa": 2794,
  "na-ezu": 2795,
  "na-asị": 2796,
  "nkwu": 2797,
  "mgbaghara": 2798,
  "mbịara": 2799,
  "lah": 2800,
  "kpata": 2801,
  "kiti": 2802,
  "kepu": 2803,
  "imi": 2804,
  "ght": 2805,
  "ga-akpọlite": 2806,
  "azụ.": 2807,
  "anọghị": 2808,
  "adịgboroja": 2809,
  "awakpo": 2810,
  "UN": 2811,
  "Rehab": 2812,
  "Okorocha": 2813,
  "Johnson": 2814,
  "Ibiam": 2815,
  "Garba": 2816,
  "Cos": 2817,
  "Cor": 2818,
  "6.": 2819,
  "2014": 2820,
  "ịgbanwe": 2821,
  "wetara": 2822,
  "sị:\"": 2823,
  "si,": 2824,
  "s\"": 2825,
  "rịtara": 2826,
  "rutere": 2827,
  "praị": 2828,
  "osikapa": 2829,
  "okiri": 2830,
  "ntị.": 2831,
  "na-eje": 2832,
  "nhazi": 2833,
  "kwasịrị": 2834,
  "kpaa": 2835,
  "iche-iche": 2836,
  "ghachị": 2837,
  "gency": 2838,
  "ga-ebido": 2839,
  "gazi": 2840,
  "ford": 2841,
  "ezi.": 2842,
  "ell": 2843,
  "ekpere.": 2844,
  "amaala": 2845,
  "akpọọ": 2846,
  "Ugwu": 2847,
  "NL": 2848,
  "FF": 2849,
  "Davi": 2850,
  "Adichie": 2851,
  "2023": 2852,
  "196": 2853,
  "-anyanwụ": 2854,
  "ọjọọ,": 2855,
  "ven": 2856,
  "oke.": 2857,
  "nọvemba": 2858,
  "nsonso": 2859,
  "nleta": 2860,
  "na-eme,": 2861,
  "na-echegbu": 2862,
  "na-akpata": 2863,
  "kọb": 2864,
  "kwaara": 2865,
  "kraịst.": 2866,
  "kpebi": 2867,
  "jekọb": 2868,
  "igbo?": 2869,
  "gbatara": 2870,
  "gbalịa": 2871,
  "ga-emecha": 2872,
  "ga-etinye": 2873,
  "emepụta": 2874,
  "depụtara": 2875,
  "den": 2876,
  "cial": 2877,
  "bịa.": 2878,
  "bịaru": 2879,
  "bru": 2880,
  "blic": 2881,
  "anwụọ": 2882,
  "amam": 2883,
  "Okoye": 2884,
  "Omo": 2885,
  "Ku": 2886,
  "Joseph": 2887,
  "Char": 2888,
  "Bukola": 2889,
  "7.": 2890,
  "5)": 2891,
  "ọbụla,": 2892,
  "ọsị": 2893,
  "ịlaị": 2894,
  "ịhapụ": 2895,
  "tain": 2896,
  "ogbo": 2897,
  "nwaagbọghọ": 2898,
  "na-agbara": 2899,
  "na.": 2900,
  "merenụ": 2901,
  "mbo": 2902,
  "kọmputa": 2903,
  "kraine": 2904,
  "ji,": 2905,
  "ilu": 2906,
  "gwakwara": 2907,
  "gasị": 2908,
  "gre": 2909,
  "esem": 2910,
  "ekwesị": 2911,
  "chụọ": 2912,
  "chaala": 2913,
  "ane": 2914,
  "ako": 2915,
  "Union": 2916,
  "Udemba": 2917,
  "Ukraine": 2918,
  "Uche": 2919,
  "Osu": 2920,
  "Oj": 2921,
  "NLC": 2922,
  "Mer": 2923,
  "Inno": 2924,
  "Ebreham": 2925,
  "DC": 2926,
  "Cent": 2927,
  "All": 2928,
  "Ang": 2929,
  "An": 2930,
  "8,": 2931,
  "197": 2932,
  "0.": 2933,
  "ụka,": 2934,
  "ọsọ.": 2935,
  "wood": 2936,
  "vice": 2937,
  "teghị": 2938,
  "sokwa": 2939,
  "olly": 2940,
  "ollywood": 2941,
  "og": 2942,
  "o.": 2943,
  "na-emegbu": 2944,
  "na-ewute": 2945,
  "na-achụ": 2946,
  "nrụ": 2947,
  "kpọkuru": 2948,
  "kpọm": 2949,
  "ikwe": 2950,
  "h,": 2951,
  "gị?": 2952,
  "ga-eru": 2953,
  "gafee": 2954,
  "fero": 2955,
  "emebi": 2956,
  "dise": 2957,
  "cis": 2958,
  "ba.": 2959,
  "anọ,": 2960,
  "alakụ": 2961,
  "agbataobi": 2962,
  "Wolves": 2963,
  "Nation": 2964,
  "London": 2965,
  "Bio": 2966,
  "Allah": 2967,
  "9)": 2968,
  "7)": 2969,
  "26": 2970,
  "ọkaibe": 2971,
  "ọgaranya": 2972,
  "zor": 2973,
  "septemba": 2974,
  "ozi.": 2975,
  "nwere.": 2976,
  "na-efegharị": 2977,
  "mmiri.": 2978,
  "mmerụ": 2979,
  "mezuo": 2980,
  "mbara": 2981,
  "machiri": 2982,
  "koro": 2983,
  "ibute": 2984,
  "hibru": 2985,
  "gụnyere:": 2986,
  "gbasaara": 2987,
  "ga-egbu": 2988,
  "ffi": 2989,
  "elu.": 2990,
  "ekwela": 2991,
  "ehab": 2992,
  "e\"": 2993,
  "dy": 2994,
  "ct": 2995,
  "bụla.": 2996,
  "bụla,": 2997,
  "apụtaghị": 2998,
  "akatọọla": 2999,
  "ahụhụ.": 3000,
  "ahụghị": 3001,
  "akp": 3002,
  "ace": 3003,
  "Ume": 3004,
  "Party": 3005,
  "Maduka": 3006,
  "Day": 3007,
  "Ban": 3008,
  "3)": 3009,
  "2020": 3010,
  "ọnwụ,": 3011,
  "ọganihu": 3012,
  "ọcha.": 3013,
  "ọcha,": 3014,
  "ịza": 3015,
  "ịme": 3016,
  "wutere": 3017,
  "tta": 3018,
  "sikwa": 3019,
  "okirikiri": 3020,
  "nwo": 3021,
  "ngwaahịa": 3022,
  "negal": 3023,
  "nno": 3024,
  "nchụ": 3025,
  "mmepụta": 3026,
  "metụta": 3027,
  "lọghachi": 3028,
  "kpuru": 3029,
  "kris": 3030,
  "jọrọ": 3031,
  "ikpeazụ,": 3032,
  "hr": 3033,
  "ga-eme.": 3034,
  "ejirila": 3035,
  "ego,": 3036,
  "eburu": 3037,
  "chọrọ.": 3038,
  "chebe": 3039,
  "binyere": 3040,
  "bekee.": 3041,
  "ahapụ": 3042,
  "Zam": 3043,
  "Senegal": 3044,
  "San": 3045,
  "Rohr": 3046,
  "Mini": 3047,
  "IS": 3048,
  "Guine": 3049,
  "Femi": 3050,
  "Ed": 3051,
  "Democratic": 3052,
  "Dap": 3053,
  "Bre": 3054,
  "Aw": 3055,
  "Akanu": 3056,
  "8.": 3057,
  "0,": 3058,
  "ụlọahịa": 3059,
  "ịnụ": 3060,
  "zụọ": 3061,
  "wepụta": 3062,
  "tigbuo": 3063,
  "shop": 3064,
  "onwealth": 3065,
  "okpuruọchịchị": 3066,
  "nwere,": 3067,
  "nkwarị": 3068,
  "na-edu": 3069,
  "nsi": 3070,
  "meru": 3071,
  "mejọ": 3072,
  "legọs.": 3073,
  "len": 3074,
  "l.": 3075,
  "kwụnye": 3076,
  "ji.": 3077,
  "izugbe": 3078,
  "gbawara": 3079,
  "eze,": 3080,
  "eruola": 3081,
  "echeta": 3082,
  "chael": 3083,
  "chụrụ": 3084,
  "bụbụ": 3085,
  "bute": 3086,
  "anyị?": 3087,
  "akparala": 3088,
  "abụ,": 3089,
  "adọ": 3090,
  "ZA": 3091,
  "Univer": 3092,
  "Umar": 3093,
  "Uzo": 3094,
  "Tra": 3095,
  "Ribe": 3096,
  "Onu": 3097,
  "Kanu": 3098,
  "IV": 3099,
  "Davido": 3100,
  "Commonwealth": 3101,
  "Chibok": 3102,
  "COZA": 3103,
  "Cup": 3104,
  "Cro": 3105,
  "\"n'\"": 3106,
  "ọka,": 3107,
  "ọt": 3108,
  "zitere": 3109,
  "weta": 3110,
  "urch": 3111,
  "udo.": 3112,
  "teela": 3113,
  "stle": 3114,
  "pho": 3115,
  "nya.": 3116,
  "ntụnye": 3117,
  "nkea": 3118,
  "na-agabiga": 3119,
  "na-akwanyere": 3120,
  "nz": 3121,
  "midi": 3122,
  "lawa": 3123,
  "kọwaara": 3124,
  "kwesili": 3125,
  "idemili": 3126,
  "ghị.": 3127,
  "ga-egosi": 3128,
  "gafere": 3129,
  "fara": 3130,
  "eria": 3131,
  "dịka\"": 3132,
  "dozie": 3133,
  "dina": 3134,
  "dimkpa": 3135,
  "chool": 3136,
  "bọọlụ.": 3137,
  "ban": 3138,
  "amerịka,": 3139,
  "amamihe": 3140,
  "akpọọla": 3141,
  "Tim": 3142,
  "Ribeka": 3143,
  "PortHarcourt": 3144,
  "Ogu": 3145,
  "Nọt": 3146,
  "Mor": 3147,
  "Francis": 3148,
  "Fo": 3149,
  "Eji": 3150,
  "Cana": 3151,
  "ASU": 3152,
  "Aku": 3153,
  "!”": 3154,
  "“mgbe": 3155,
  "ọbịa": 3156,
  "ịchọpụta": 3157,
  "ṅụrụ": 3158,
  "zite": 3159,
  "yetti": 3160,
  "ren": 3161,
  "pasent": 3162,
  "onyenwe": 3163,
  "nwebeghị": 3164,
  "ntụliaka.": 3165,
  "not": 3166,
  "njọ.": 3167,
  "na-efu": 3168,
  "na-asọ": 3169,
  "nali": 3170,
  "nze": 3171,
  "nsụ": 3172,
  "kwazịrị": 3173,
  "jikọrọ": 3174,
  "icester": 3175,
  "haa": 3176,
  "grik": 3177,
  "gige": 3178,
  "esemokwu": 3179,
  "elu,": 3180,
  "del": 3181,
  "chekwa": 3182,
  "aṅụrị": 3183,
  "Ngige": 3184,
  "Miyetti": 3185,
  "May": 3186,
  "Leicester": 3187,
  "Ezekwesili": 3188,
  "East": 3189,
  "Ethi": 3190,
  "Christian": 3191,
  "Cou": 3192,
  "Col": 3193,
  "Ani": 3194,
  "21": 3195,
  ".\"anyị\"": 3196,
  "ịnye": 3197,
  "ṅomi": 3198,
  "zọgbuo": 3199,
  "tek": 3200,
  "tt": 3201,
  "pụtara.": 3202,
  "pute": 3203,
  "ozigbo": 3204,
  "oge.": 3205,
  "nwụọ.": 3206,
  "nwatakịrị": 3207,
  "ngwaagha": 3208,
  "na-apụ": 3209,
  "nsị": 3210,
  "mkpọrọ.": 3211,
  "mic": 3212,
  "leke": 3213,
  "kụziiri": 3214,
  "kwuburu": 3215,
  "kpochapụ": 3216,
  "kpebie": 3217,
  "kewa": 3218,
  "ka,": 3219,
  "kla": 3220,
  "gwoju": 3221,
  "gbalịrị": 3222,
  "gbawa": 3223,
  "eluigwe,": 3224,
  "ebi,": 3225,
  "dọrọ": 3226,
  "chịburu": 3227,
  "asataghị": 3228,
  "arịọ": 3229,
  "a.\"": 3230,
  "Pu": 3231,
  "Ojukwu": 3232,
  "Nwodo": 3233,
  "Mercy": 3234,
  "Iran": 3235,
  "Imo": 3236,
  "Cy": 3237,
  "(N": 3238,
  "ụgh": 3239,
  "ọṅụṅụ": 3240,
  "ọtọ.": 3241,
  "ọhụrụ,": 3242,
  "ọfọ": 3243,
  "zụta": 3244,
  "ya:": 3245,
  "ugwu,": 3246,
  "teknụ": 3247,
  "teknụzụ": 3248,
  "shu": 3249,
  "rite": 3250,
  "onye\"": 3251,
  "oly": 3252,
  "owu": 3253,
  "om": 3254,
  "nsọ.": 3255,
  "nlekọta": 3256,
  "njedebe": 3257,
  "nin": 3258,
  "na-ekiri": 3259,
  "na-adọ": 3260,
  "nahụrụ": 3261,
  "nkọwa": 3262,
  "nc": 3263,
  "merụọ": 3264,
  "matara": 3265,
  "kpamkpa": 3266,
  "kpachara": 3267,
  "kolo": 3268,
  "kele": 3269,
  "isonye": 3270,
  "ikiri": 3271,
  "igba": 3272,
  "iberi": 3273,
  "hia": 3274,
  "gola": 3275,
  "ga-amata": 3276,
  "ga-amụta": 3277,
  "ganị": 3278,
  "ef": 3279,
  "dere,": 3280,
  "anụrị": 3281,
  "alakụba": 3282,
  "akpụkpọ": 3283,
  "ahụla": 3284,
  "ahịa,": 3285,
  "agafe": 3286,
  "abụ)": 3287,
  "akwọ": 3288,
  "Va": 3289,
  "Shiite": 3290,
  "Service": 3291,
  "SAR": 3292,
  "SARS": 3293,
  "King": 3294,
  "Indi": 3295,
  "IMN": 3296,
  "ID": 3297,
  "Her": 3298,
  "HIV": 3299,
  "Gra": 3300,
  "Ethiop": 3301,
  "En": 3302,
  "Dapchi": 3303,
  "Bishop": 3304,
  "Ant": 3305,
  "AF": 3306,
  "2017.": 3307,
  "ụfụ": 3308,
  "ọrọla": 3309,
  "ọtụ": 3310,
  "zoro": 3311,
  "zik": 3312,
  "uru,": 3313,
  "umeala": 3314,
  "u,": 3315,
  "public": 3316,
  "pee": 3317,
  "ongwo": 3318,
  "ochie.": 3319,
  "nọchitere": 3320,
  "nwụrụ,": 3321,
  "ngwongwo": 3322,
  "nnwere": 3323,
  "magazi": 3324,
  "mon": 3325,
  "m.”": 3326,
  "kpụpụ": 3327,
  "ihu,": 3328,
  "ichekwa": 3329,
  "gunyere": 3330,
  "gressi": 3331,
  "ghere": 3332,
  "gbakọrọ": 3333,
  "ga-emezu": 3334,
  "ga-alụ": 3335,
  "gasịrị": 3336,
  "gar": 3337,
  "eziokwu?": 3338,
  "eluigwe.": 3339,
  "eboro": 3340,
  "esoro": 3341,
  "disemba": 3342,
  "dabara": 3343,
  "bibie": 3344,
  "asị.": 3345,
  "Orji": 3346,
  "Os": 3347,
  "Nwachukwu": 3348,
  "Nwan": 3349,
  "Mikel": 3350,
  "Kogi": 3351,
  "James": 3352,
  "Ikechukwu": 3353,
  "Ita": 3354,
  "Frank": 3355,
  "Dakolo": 3356,
  "Church": 3357,
  "Bur": 3358,
  "Britain": 3359,
  "Biodun": 3360,
  "Benja": 3361,
  "Andre": 3362,
  "ASUU": 3363,
  "Agency": 3364,
  "22": 3365,
  ".\"ndị\"": 3366,
  "-onye": 3367,
  "\"nke\"": 3368,
  "ụkwara": 3369,
  "ọwụwa-anyanwụ": 3370,
  "ọnwụnwa": 3371,
  "ọfụma.": 3372,
  "ịbịa": 3373,
  "yat": 3374,
  "taata": 3375,
  "sị,\"": 3376,
  "siiri": 3377,
  "side": 3378,
  "rere": 3379,
  "penali": 3380,
  "penaliti": 3381,
  "pro": 3382,
  "par": 3383,
  "obiọma": 3384,
  "nọchiri": 3385,
  "nkwenye": 3386,
  "njikọ": 3387,
  "na-abịa.": 3388,
  "na-apụta": 3389,
  "napụta": 3390,
  "mana\"": 3391,
  "magazin": 3392,
  "mahụ": 3393,
  "mne": 3394,
  "la,": 3395,
  "kọrịtara": 3396,
  "kwuo.": 3397,
  "kpọlitere": 3398,
  "kanada": 3399,
  "ifo": 3400,
  "hiwere": 3401,
  "gram": 3402,
  "golayat": 3403,
  "ga-ebibi": 3404,
  "ga-emere": 3405,
  "fre": 3406,
  "eze.": 3407,
  "enugwu.": 3408,
  "ement": 3409,
  "depụta": 3410,
  "dapụtara": 3411,
  "chịkọ": 3412,
  "ahụ.”": 3413,
  "atọrọ": 3414,
  "akọwa": 3415,
  "SC": 3416,
  "People": 3417,
  "Peace": 3418,
  "Nigeria,": 3419,
  "Michael": 3420,
  "Kim": 3421,
  "Gernot": 3422,
  "Bar": 3423,
  "Ad": 3424,
  "'?": 3425,
  "\"na\"": 3426,
  "“ka": 3427,
  "ụlọikpe.": 3428,
  "zịkwara": 3429,
  "velop": 3430,
  "velopment": 3431,
  "tanka": 3432,
  "sị\"": 3433,
  "stri": 3434,
  "socia": 3435,
  "sociation": 3436,
  "oke,": 3437,
  "nwụrụ.": 3438,
  "nwaanyị,": 3439,
  "nsọ,": 3440,
  "mpịa": 3441,
  "lu,": 3442,
  "lan": 3443,
  "jijiji": 3444,
  "iju": 3445,
  "gọzie": 3446,
  "ga-azọ": 3447,
  "ga-aza": 3448,
  "fraịde.": 3449,
  "enugwu-": 3450,
  "emeriela": 3451,
  "efere": 3452,
  "di,": 3453,
  "chọtara": 3454,
  "chineke?": 3455,
  "chaa,": 3456,
  "belata": 3457,
  "amị": 3458,
  "anwa": 3459,
  "aja.": 3460,
  "Zamfara": 3461,
  "Universi": 3462,
  "Soyin": 3463,
  "Secon": 3464,
  "Progressi": 3465,
  "Ndu": 3466,
  "Kore": 3467,
  "Geor": 3468,
  "Ex": 3469,
  "Eli": 3470,
  "Association": 3471,
  "Abdul": 3472,
  "500": 3473,
  "5,": 3474,
  "4,": 3475,
  "2018.": 3476,
  "ọkọlọ": 3477,
  "ọkọlọtọ": 3478,
  "ọkpụkpụ": 3479,
  "ọkpa": 3480,
  "ịkụziri": 3481,
  "ịsị": 3482,
  "zigara": 3483,
  "yanwa": 3484,
  "way": 3485,
  "tụta": 3486,
  "too": 3487,
  "tive": 3488,
  "tholic": 3489,
  "sime": 3490,
  "roup": 3491,
  "rist": 3492,
  "pha": 3493,
  "okwe": 3494,
  "nwete": 3495,
  "ntakịrị": 3496,
  "nnaya": 3497,
  "nesi": 3498,
  "na-eweta": 3499,
  "na-emegide": 3500,
  "na-ahazi": 3501,
  "nkọ": 3502,
  "mmiri,": 3503,
  "mmachi": 3504,
  "mkpagbu": 3505,
  "mechie": 3506,
  "kparịta": 3507,
  "iwe.": 3508,
  "isii,": 3509,
  "iri.": 3510,
  "ino": 3511,
  "ime,": 3512,
  "illa": 3513,
  "inyocha": 3514,
  "hole": 3515,
  "here": 3516,
  "gwuru": 3517,
  "gwọọ": 3518,
  "ghapụ": 3519,
  "gbatagbata": 3520,
  "gaasị": 3521,
  "ger": 3522,
  "enweela": 3523,
  "elsa": 3524,
  "eld": 3525,
  "edeme": 3526,
  "ekp": 3527,
  "castle": 3528,
  "cto": 3529,
  "buuru": 3530,
  "atọhapụ": 3531,
  "aria": 3532,
  "alụmdi": 3533,
  "ahụrụ": 3534,
  "adaala": 3535,
  "Tan": 3536,
  "Oluse": 3537,
  "Ogbu": 3538,
  "Odu": 3539,
  "Nji": 3540,
  "Ni": 3541,
  "Musa": 3542,
  "Mz.": 3543,
  "Mala": 3544,
  "League.": 3545,
  "FI": 3546,
  "Ethiopia": 3547,
  "Development": 3548,
  "Catholic": 3549,
  "Bayelsa": 3550,
  "Bank": 3551,
  "Anaje": 3552,
  "(A": 3553,
  "ụzụ": 3554,
  "ọpị": 3555,
  "wela": 3556,
  "tụla": 3557,
  "sụgharịa": 3558,
  "rụtụrụ": 3559,
  "ruola": 3560,
  "rus": 3561,
  "rael": 3562,
  "paradaịs.": 3563,
  "ozugbo.": 3564,
  "ozi,": 3565,
  "nụwarị": 3566,
  "nọkwa": 3567,
  "nwụchie": 3568,
  "ntụkwasị": 3569,
  "merela": 3570,
  "mepụtara": 3571,
  "mber": 3572,
  "kwutere": 3573,
  "kwukwa": 3574,
  "kuzi": 3575,
  "kpọmkwe": 3576,
  "jọgburu": 3577,
  "jeruselem": 3578,
  "jenụwarị": 3579,
  "jee": 3580,
  "iwu.": 3581,
  "iwepụ": 3582,
  "iteghe": 3583,
  "imeụlọ": 3584,
  "ikpe.": 3585,
  "iwere": 3586,
  "hazie": 3587,
  "guzobe": 3588,
  "guri": 3589,
  "ga-agwa": 3590,
  "emeka": 3591,
  "edemede": 3592,
  "echefu": 3593,
  "ebidola": 3594,
  "dụọ": 3595,
  "cent": 3596,
  "buo": 3597,
  "anambra.": 3598,
  "akpata": 3599,
  "adọọla": 3600,
  "Yoru": 3601,
  "Yu": 3602,
  "Thomas": 3603,
  "Sudan": 3604,
  "Sheka": 3605,
  "Sp": 3606,
  "Pi": 3607,
  "Olusegun": 3608,
  "Libya": 3609,
  "Kalu": 3610,
  "Israel": 3611,
  "Har": 3612,
  "Good": 3613,
  "Charles": 3614,
  "Chan": 3615,
  "Canada": 3616,
  "Car": 3617,
  "Busola": 3618,
  "Alexand": 3619,
  "Aja": 3620,
  "-N": 3621,
  "-\"": 3622,
  "’)": 3623,
  "ụbọchị.": 3624,
  "ọgụ.": 3625,
  "ọsi": 3626,
  "ịsụ": 3627,
  "ṅụọ": 3628,
  "zụga": 3629,
  "zịghị": 3630,
  "van": 3631,
  "ukwa": 3632,
  "tiusde.": 3633,
  "stan": 3634,
  "siriak": 3635,
  "shiom": 3636,
  "shiomhole": 3637,
  "rin": 3638,
  "ration": 3639,
  "praịm": 3640,
  "ochie,": 3641,
  "nụ.": 3642,
  "nwụọ,": 3643,
  "nweekwa": 3644,
  "nnọchiteanya": 3645,
  "ndịa": 3646,
  "na-emebi": 3647,
  "na-ekele": 3648,
  "na-aghọta": 3649,
  "nnụ": 3650,
  "mpịakọta": 3651,
  "mkpa:": 3652,
  "mbuze": 3653,
  "kụziri": 3654,
  "isii.": 3655,
  "gọzi": 3656,
  "gafe": 3657,
  "essi": 3658,
  "ern": 3659,
  "emepe": 3660,
  "ege": 3661,
  "dibia": 3662,
  "chọta": 3663,
  "akwa.": 3664,
  "ahịrị": 3665,
  "adịrị": 3666,
  "achọpụta": 3667,
  "Wike": 3668,
  "Ugwuanyi": 3669,
  "TV": 3670,
  "Soyinka": 3671,
  "Ronal": 3672,
  "Pari": 3673,
  "PC": 3674,
  "Nnabu": 3675,
  "Newcastle": 3676,
  "Germa": 3677,
  "Austra": 3678,
  "Airport": 3679,
  "Are": 3680,
  "6)": 3681,
  "2015.": 3682,
  ".\"o\"": 3683,
  "“unu": 3684,
  "ọs": 3685,
  "ọpụ": 3686,
  "ọkwọ": 3687,
  "ọkpụrụ": 3688,
  "ọchụ": 3689,
  "wuru": 3690,
  "wa,": 3691,
  "taramahụ": 3692,
  "taramahụhụ": 3693,
  "twitter": 3694,
  "phen": 3695,
  "oziọma": 3696,
  "oyibo": 3697,
  "otuto": 3698,
  "ork": 3699,
  "olo": 3700,
  "obo": 3701,
  "nwụnahụrụ": 3702,
  "na-echekwa": 3703,
  "na-aga,": 3704,
  "na-aza": 3705,
  "natara": 3706,
  "ntaramahụhụ": 3707,
  "nma": 3708,
  "mmefu": 3709,
  "mgbidi": 3710,
  "m:": 3711,
  "liela": 3712,
  "lli": 3713,
  "larị": 3714,
  "kọpa": 3715,
  "kpọtụrụ": 3716,
  "ke,": 3717,
  "juputara": 3718,
  "ijipt.": 3719,
  "iduguri": 3720,
  "int": 3721,
  "imere": 3722,
  "ikpere": 3723,
  "gypt": 3724,
  "gbakwara": 3725,
  "ga-agụ": 3726,
  "gas": 3727,
  "gad": 3728,
  "fọdụrụ": 3729,
  "enugwu,": 3730,
  "ener": 3731,
  "echiche.": 3732,
  "enyocha": 3733,
  "chaara": 3734,
  "bịa,": 3735,
  "biko,": 3736,
  "azụmahịa": 3737,
  "audi": 3738,
  "asatọ,": 3739,
  "arịọla": 3740,
  "apụghị": 3741,
  "anya.”": 3742,
  "agbagbuola": 3743,
  "agadi": 3744,
  "agaala": 3745,
  "abata": 3746,
  "apụtala": 3747,
  "________": 3748,
  "Tara": 3749,
  "Stephen": 3750,
  "Shekau": 3751,
  "School": 3752,
  "Rivers": 3753,
  "Nations": 3754,
  "Nollywood": 3755,
  "Maiduguri": 3756,
  "Mah": 3757,
  "Jane": 3758,
  "Haru": 3759,
  "Federal": 3760,
  "For": 3761,
  "Egypt": 3762,
  "Communi": 3763,
  "Chioma": 3764,
  "Chad": 3765,
  "Central": 3766,
  "Benjamin": 3767,
  "Bori": 3768,
  "Benu": 3769,
  "Abdulla": 3770,
  "29": 3771,
  "1914": 3772,
  "ụkpa": 3773,
  "ọlị": 3774,
  "ịlaịja": 3775,
  "ịdịna": 3776,
  "zarọ": 3777,
  "ya;": 3778,
  "xi": 3779,
  "sọnde": 3780,
  "stal": 3781,
  "sho": 3782,
  "sekọ": 3783,
  "ser": 3784,
  "onyeisiala.": 3785,
  "ohi,": 3786,
  "o,": 3787,
  "nyekwa": 3788,
  "nwoke.": 3789,
  "nwoke,": 3790,
  "nweghịkwa": 3791,
  "nwuru": 3792,
  "nuche": 3793,
  "nkwanye": 3794,
  "ndị;": 3795,
  "ncil": 3796,
  "na-erubere": 3797,
  "na-ezo": 3798,
  "mma?": 3799,
  "mesa": 3800,
  "mbuli": 3801,
  "mbilite": 3802,
  "liance": 3803,
  "let": 3804,
  "lazarọ": 3805,
  "lack": 3806,
  "leri": 3807,
  "imebi": 3808,
  "ga-ekwe": 3809,
  "ezina": 3810,
  "ejidela": 3811,
  "egosila": 3812,
  "echeghị": 3813,
  "ebibi": 3814,
  "ebia": 3815,
  "duru": 3816,
  "ding": 3817,
  "conomi": 3818,
  "chọghị": 3819,
  "chel": 3820,
  "bulu": 3821,
  "bon": 3822,
  "azụ,": 3823,
  "asatọ.": 3824,
  "arebia": 3825,
  "amachiela": 3826,
  "alaghachi": 3827,
  "akwa,": 3828,
  "adaba": 3829,
  "ahia": 3830,
  "University": 3831,
  "Timgad": 3832,
  "Saudi": 3833,
  "Sal": 3834,
  "Republic": 3835,
  "PS": 3836,
  "Oshiomhole": 3837,
  "Nyako": 3838,
  "Mou": 3839,
  "Lai": 3840,
  "Innoson": 3841,
  "Ibo": 3842,
  "Group": 3843,
  "CB": 3844,
  "Alliance": 3845,
  "Abdullahi": 3846,
  "Ameri": 3847,
  "400": 3848,
  ".,": 3849,
  ".)": 3850,
  ")\"": 3851,
  "“e": 3852,
  "ụmụokorobịa": 3853,
  "ọpụpụ": 3854,
  "ọkpụrụkpụ": 3855,
  "ịtụkwasị": 3856,
  "ịna-eme": 3857,
  "ịhọpụta": 3858,
  "xico": 3859,
  "ture": 3860,
  "tie": 3861,
  "te.": 3862,
  "t.": 3863,
  "sty": 3864,
  "ston": 3865,
  "ship": 3866,
  "sụrụ": 3867,
  "sala": 3868,
  "rụwarị": 3869,
  "rans": 3870,
  "otele": 3871,
  "oph": 3872,
  "ophobi": 3873,
  "ogoogo": 3874,
  "os": 3875,
  "nụ,": 3876,
  "nyụrụ": 3877,
  "nwaamadị": 3878,
  "nes": 3879,
  "na-ekwesịghị": 3880,
  "na-aga.": 3881,
  "na-asa": 3882,
  "na-akpụ": 3883,
  "nahụ": 3884,
  "mgbakwụnye": 3885,
  "mana,": 3886,
  "kwuru?": 3887,
  "kwekọrịtara": 3888,
  "kuru": 3889,
  "ks": 3890,
  "kno": 3891,
  "izrel.": 3892,
  "inji": 3893,
  "igbochi": 3894,
  "ikpo": 3895,
  "ha.”": 3896,
  "ga-anwụ": 3897,
  "ga-ahapụ": 3898,
  "ga-ada": 3899,
  "feb": 3900,
  "febrụwarị": 3901,
  "enwetala": 3902,
  "enophobi": 3903,
  "ezo": 3904,
  "dada": 3905,
  "chụpụrụ": 3906,
  "chịa": 3907,
  "chara,": 3908,
  "bụrụgodị": 3909,
  "bunyere": 3910,
  "asaa,": 3911,
  "akparama": 3912,
  "ahụ.\"": 3913,
  "agbasa": 3914,
  "agbala": 3915,
  "afrịka,": 3916,
  "adị.": 3917,
  "achụọla": 3918,
  "achọpụtala": 3919,
  "aị": 3920,
  "awara": 3921,
  "at": 3922,
  "You": 3923,
  "There": 3924,
  "Ronaldo": 3925,
  "Qu": 3926,
  "P)": 3927,
  "Obama": 3928,
  "Mexico": 3929,
  "Mbaise": 3930,
  "Mada": 3931,
  "Mana": 3932,
  "Insta": 3933,
  "IC": 3934,
  "Guinea": 3935,
  "George": 3936,
  "Economi": 3937,
  "Council": 3938,
  "Benin": 3939,
  "Bayern": 3940,
  "ụra,": 3941,
  "ọzọkwa": 3942,
  "ọnịcha,": 3943,
  "ịgbara": 3944,
  "wezụga": 3945,
  "visa": 3946,
  "ron": 3947,
  "pụta,": 3948,
  "olution": 3949,
  "nwedịrị": 3950,
  "ntutu": 3951,
  "na-ewere": 3952,
  "na-edo": 3953,
  "na-amị": 3954,
  "mụwa": 3955,
  "mkpọtụ": 3956,
  "mee,": 3957,
  "mamanda": 3958,
  "madị": 3959,
  "lege": 3960,
  "le,": 3961,
  "latị": 3962,
  "kpọlite": 3963,
  "ikpeazụ.": 3964,
  "id": 3965,
  "gbachara": 3966,
  "ga-emeli": 3967,
  "ga-emekwa": 3968,
  "ga-atụ": 3969,
  "ga-ata": 3970,
  "gani": 3971,
  "ezughị": 3972,
  "ewerela": 3973,
  "ekpebi": 3974,
  "echiche,": 3975,
  "egbochi": 3976,
  "di.": 3977,
  "dayọsi": 3978,
  "ataala": 3979,
  "arụsị": 3980,
  "ama,": 3981,
  "akụkọ\"": 3982,
  "abacha": 3983,
  "anwu": 3984,
  "Xenophobi": 3985,
  "Uga": 3986,
  "Theresa": 3987,
  "Tekno": 3988,
  "Sunda": 3989,
  "Revolution": 3990,
  "Power": 3991,
  "Pope": 3992,
  "Ortom": 3993,
  "Oye": 3994,
  "Ogun": 3995,
  "Odi": 3996,
  "Kha": 3997,
  "Isla": 3998,
  "Haruna": 3999
}