#version: 0.2
n a
d ị
k a
m a
n '
b ụ
e r
a r
n dị
k e
h a
na -
er e
ar a
y a
m e
i h
l a
g a
s i
ny e
j i
h ụ
t a
ih e
kw u
r ụ
r i
a ny
a hụ
r u
n ke
r ị
t u
b a
kw a
o nye
na- a
na- e
gh ị
t ụ
d ụ
t i
ga -
t e
gb a
o tu
l e
b e
b i
z i
any ị
s ị
m ma
p ụ
k ọ
m ụ
a n
ch i
ch ị
ch e
nw e
z ọ
a ka
l ọ
r ọ
k ụ
d o
ụ lọ
w e
n e
kw ụ
a la
nw a
g o
f ọ
gb u
i si
r a
mma dụ
l i
gb e
e be
i ke
ọ rọ
i ri
kwu ru
w a
d e
ch a
r o
ma ka
b u
m gbe
t ọ
ga- e
m ere
s o
t ara
n i
gb o
ụ mụ
rị a
ọ ọ
gw u
ị a
ọ rụ
e ti
nw ere
ga- a
n ụ
s a
g e
ọ chị
any a
a fọ
m ba
b o
i me
o kwu
nw ụ
a bụ
kw e
a kụ
ọ zọ
g ị
a kwụ
l u
ị ji
ịji rịa
na ịjirịa
n ọ
o bi
kw ọ
s e
kp e
z u
d i
e zi
s te
ne ke
ste eti
chi neke
i che
akwụ kwọ
kp a
ny ere
d a
i le
n t
n u
dị ka
pụ ta
o ke
r e
ni ile
o ge
j e
g ụ
a gh
tụ tụ
w u
k u
ya .
abụ ọ
akụ kọ
ị bụ
na-e me
ar ị
er i
m p
k o
a .
a ma
onye isi
an ọ
i gbo
ọ tụtụ
o n
bụ rụ
s ọ
kp ọ
b ịa
nwa anyị
kw ara
bo do
p u
ịbụ l
ba ịbụl
m i
ọ nụ
bụ la
m me
o bodo
d u
a na
e gwu
2 0
i ji
gb ọ
ch ọ
f e
ụ wa
h i
a ga
gw a
pụ tara
i wu
si ri
i kpe
t o
ụ b
z e
e go
e me
m b
u ru
a z
g ọ
ụb ọchị
nt ị
a gba
o nwe
t ere
a ,
h o
ụ rụ
s t
ar i
ih i
n dụ
ahụ .
o zi
o ji
u we
ma na
sị rị
g ara
ọchị chị
a ha
l ụ
a tọ
a h
ụ zọ
u kwu
g ọọ
m m
gọọ me
B u
kp ọrọ
hụ rụ
e lu
fọ dụ
kwu o
oji i
ọ ka
ya ,
nw oke
j ụ
ụ fọdụ
ha .
kp o
n d
20 1
ụ gbọ
s ụ
ọ ma
s ara
ahụ ,
n so
e ze
agh a
o me
me e
w ere
m er
. ”
gb ara
o r
nwe ghị
a sa
ch ara
ho v
ih u
je hov
h ari
Bu hari
ga-e me
ma ra
gh arị
ọ bụla
g i
u gbu
ọ kụ
na kwa
o lu
gw ụ
n na
ny o
ụ ka
gba sara
gw ara
li te
uwe ojii
e l
ma ,
onyeisi ala
ch ọrọ
o le
ọ nwa
e la
nw u
we e
na-e kwu
n ga
m kpa
jehov a
zọ s
a ba
ji zọs
n ta
ji ri
. "
p a
ar ụ
a tụ
m bụ
gw e
mm iri
gọọme ntị
n tụ
an ụ
gbu ru
na-a gba
v anọ
mp i
gọ vanọ
pụ rụ
kp ụ
m o
j ọ
d ọ
si te
e kwe
j a
n ne
i we
a nwụ
ga-a ma
a l
n ị
p e
d ere
l ị
m gba
J o
g u
i n
j u
ah ịa
i se
gw ọ
a dị
bi do
kwa do
k ị
nd ọrọ
o ko
ezi okwu
B B
a sọ
ny i
any ere
m u
ntụ li
ka rị
gh ọ
tu pu
t h
ọ nwụ
az ụ
i gwe
m kp
na- ahụ
c e
BB C
ọ la
z ị
z ụ
mb ra
n ri
ana mbra
agh ara
ọ gwụ
b ere
ntụli aka
e bu
asọ mpi
o kp
b ara
ọ gba
az ị
nso gbu
ru o
ọ kwa
f u
e ji
b ọọ
ọ j
gh ara
n che
e tu
nwu nye
gh a
e nu
bọọ lụ
b ị
re gwu
egwu regwu
k iri
rị ka
ta a
m mụ
l o
na-a ga
ch ụ
chi e
o la
i g
ọ hụrụ
y i
u nu
ma azị
e bi
ga-ama sị
ka cha
nwe e
an ị
na anị
a f
eti ti
zi e
w ara
nwe ta
i be
o u
enu gwu
ny a
a mer
ezi gbo
b anyere
a kwa
M a
A P
le e
ch ukwu
sị :
ọj ọọ
ọ bụ
zi ri
s u
ụlọ ọrụ
ụmụ nwaanyị
wa kpo
kwụ sị
er u
ụ tọ
aga ghị
a gụ
ra ị
n ti
M u
ị ka
bu ru
ụlọ ikpe
n de
gh i
aba lị
s ta
go si
na rị
e nye
a da
e n
kwe sịrị
ị gba
ke mgbe
201 9
ana ghị
kp ere
o l
go olu
Ch i
chi ri
gị nị
ti nye
n gwa
N ig
amer ịka
nọ dụ
ga a
ha ,
e kwuo
a jụ
z o
mb ọ
0 0
ụ gwọ
nwụ rụ
i l
nke ji
na l
af rịka
ọ rịa
z a
k ere
ru ru
ọ nọdụ
ga-e si
che ta
ti on
la ba
kọ ta
ekwuo la
go siri
m eri
bị ara
ụ dị
nyo cha
ba ta
R o
ṅ ụ
mp aghara
nche kwa
li tere
v i
ụgbọ elu
be ghị
n ụlọ
n g
ezi nụlọ
ọ dị
gị :
Nig eri
na-a kpọ
AP C
n je
nga laba
kọ rọ
so ro
a sụ
o si
u gwu
pu ku
gọọme nti
i zu
i t
ome iwu
ke e
okp uru
isi i
gbo ro
n o
e hi
bụ kwa
i mo
1 9
i ko
na-a chị
e nweghị
e kpere
bụ ghị
a mụ
n kiri
bi ri
na-e che
o h
m ,
kọ wa
k i
m .
M an
n ku
u che
ọ sọ
ụgbọ ala
n zu
kw ere
ajụ jụ
ọ gụ
o zu
v er
dị rị
ị ma
raị st
abụ ghị
t er
nye ghị
ga-e ji
asụ sụ
S u
k raịst
e nwe
e le
e chi
mmụ ọ
R e
mu me
na- arụ
na-a chọ
atụ ma
a bịa
n nu
atụma tụ
ole e
n sọ
asa a
o ro
mme mme
a gwa
L i
ma ọbụ
na-e nye
gbu o
Jo se
ụ kwụ
na-a dị
o bere
nga gharị
an o
kp ara
n kwa
gi de
a m
ọzọ .
a chọ
karị rị
tụ rụ
t ọrọ
adị ghị
mkp ụrụ
M o
D a
ụmụ aka
anya .
a kpa
e ke
le s
kọ wara
kwu kwara
r an
ha pụ
e nyi
e gbe
ọgba kọ
na la
be kee
asa tọ
B oko
rị ta
o f
nwa ta
à m
àm à
ugbu a
ma nụ
H ara
p er
Nigeri a
h ịa
C o
u gboro
ti nyere
L a
ch ere
D P
v e
o fe
ebu bo
anụ manụ
ụ kọ
o kpo
nje m
na i
h ọ
o ri
ma litere
i to
f ụ
na-a kpa
n ka
kị ta
k ike
N a
bido ro
p o
o gi
nku zi
ghọ ta
nnu kwu
mụ rụ
U ni
e zu
ga-a bụ
nta akụkọ
P DP
Hara m
u do
me chara
na-a tụ
hi e
ka rịa
ka ma
agba nyeghị
nai ra
c a
ọ kpụ
y e
aka .
d ara
Jose f
m kpe
i bu
ọ cha
L e
zu ru
oh ere
anya nwụ
pa ti
gọ s
du m
chọ pụta
naịjirịa .
i kike
P e
ị hụ
le gọs
okpo ro
gụ nyere
e gbu
t ị
o go
a u
ndị àmà
kwuru ,
ka nu
ndọrọ ndọrọ
Mu ha
m di
ito olu
a bu
A l
u s
mma nụ
O B
ahụ hụ
I P
Muha mma
e kwu
E C
oko ro
ma lite
ch ọọ
na-a kụ
kacha sị
ike .
cha a
ụkọ chukwu
w o
o che
na-e le
steeti .
na-a bịa
n ọrọ
mm eri
i de
chi ela
ma ta
E a
sịrị :
ofe si
na-e ji
Muhamma du
ị dị
o p
mi ni
ri s
IP OB
ụlọ omeiwu
gha chi
a chị
u go
st er
sa ụ
li e
kwe siri
F a
niile .
ma ha
ti ku
p ọ
mma .
ar ịa
ụmụ akwụkwọ
i a
so te
n kwado
mụ ta
ụ tụtụ
kọ rịta
gba a
e si
A tiku
ụ ba
re l
ogi ge
o chie
i nye
a gb
b ọ
anya ,
o nal
ikpe azụ
ọ dụ
okp u
mmụ ta
I n
nzu kọ
n tọ
ama ghị
h e
ọ ha
ala eze
ị rị
osi si
Su per
ọzọ ,
c k
ba nye
họ pụta
o sote
mgba sa
na-a ma
ka tọ
A da
ga-a dị
bụrụ kwa
maha dum
anyị .
a lụ
saụ t
mini sta
m kpọrọ
di a
ah ọ
a sị
" ."
te d
sh ịa
e ,
nwe kwara
mer iri
A r
ị rụ
T ru
ọ tọ
obi ano
na-e fe
na ghị
aka ra
a ja
O ko
na-e nwe
na- eru
na-a gụ
a jọ
si e
elu igwe
dọ kịta
f i
ọ na
ome nala
o ku
amụ ma
ị ga
pụta la
kpa tara
ọ dọ
ga ghị
e che
S o
t y
kọ mi
ọma .
okwu kwe
nt oro
bụ ,
ọka cha
ọ ba
ntoro bịa
anyị ,
a d
A b
na-e bu
W il
I N
i kwu
c o
Ea g
ta n
ga wa
e s
IN EC
j ụrụ
ga-e nye
Tru mp
F C
ọ hịa
vi d
rụ rụ
nwe tara
m wakpo
a kpụ
A f
ebi ghị
Uni ted
o mume
nw an
u soro
ngagharị iwe
it y
ike ,
baịbụl .
K a
onwe ghị
S a
nọ chi
kpọ ku
N e
A de
n jọ
ihe .
ga-a gba
do ro
S e
Eag les
te n
s s
na "
i z
go ro
o d
nna mdi
echi che
ba ka
v o
ọ w
R i
M i
ụlọ ụka
ọ gọ
obi .
me tụ
akụ kụ
li k
ke dụ
chineke ,
arị ta
an i
O bi
ị tụ
wakpo ro
u r
u me
tu ru
f o
a :
ọw ụwa
an d
p t
n da
el se
B a
ọ fụ
pọ l
na-e gosi
i r
meri e
i yi
f ere
e bo
chọ pụtara
c on
na-e si
Ch else
w ụ
o hi
di o
C ity
, "
ọ gbọ
na-e so
katọ lik
iz rel
i ne
so n
la nd
kwa lite
chineke .
o nyi
enye maka
e mume
ụ nya
ta ghị
n ihu
abu ja
ti onal
po ol
i nwe
eziokwu .
Mo ha
ver pool
ori ri
na-a kwado
Li verpool
20 0
shịa l
o li
na-adị ghị
isi okwu
f ada
so shịal
pụ la
n ji
e we
c i
a kị
a chụ
S ou
D e
na-e kpe
gụ ọ
. .
z de
o gbu
Af ri
" "
j eri
a gu
C a
' .
ọka iwu
ọ mụ
onyi nye
j uru
Chelse a
t ri
o yi
ọ "
na-a gwa
kp ọọ
in g
a kpọ
ụlọ akwụkwọ
o de
o nyo
isi .
iche .
ọgba aghara
sị ghị
onyo nyo
mmadụ .
e kpe
e .
ar c
aka ,
2019 .
ugbu a,
me nt
ha m
ch u
T o
rị ọ
ne t
na- ere
a gbọ
ọ bara
na-e we
m gb
che ster
Man chester
w it
nwan ne
mme d
gh arịa
ụwa .
or t
ma ma
kwuru .
Sou th
ma du
i te
bi e
201 8
ge e
dị ghị
abụọ .
ụ ra
okpu kpe
okoro cha
ala .
ọ gbu
l y
go dị
a k
J a
E l
ọ nị
ọnị cha
vo otu
r y
ome ka
mb ere
kpọrọ "
cha s
S ta
Ro chas
Nw o
na-e kwuru
f or
ọchị ehi
ya ?
o pe
nye la
aga .
F ran
Ar se
v a
na-a ta
mbere de
e de
B i
n le
kp u
ga-a ga
d er
b ri
agbọ ghọ
aga ,
Arse nal
nụ rụ
akị rịka
Moha mmed
F e
“ ọ
nwụ ọ
iji pt
eme ela
Pe ter
se tan
n ọọ
ju u
gba ta
' ,
kọ tara
gharị rị
ọka mmụta
k y
1 0
ị kpa
wit ter
ta la
s ,
on g
kwere madu
ba tara
atụ ,
E kweremadu
00 0
ta a.
omeka ome
na- eri
n họpụta
kọmi sh
eke le
b er
anwụ ọla
P re
K e
ụwa ,
w i
u ju
s .
ou r
mkp arịta
gi dere
E ze
A bu
ọrụ .
ozu gbo
m pụ
kọmish ọna
c y
ar u
ala ,
ị lụ
na-a bụ
na eze
mkp u
j o
eziokwu ,
e h
a ?
ị kpọ
zị rị
nwere ike
kwa sị
1 ,
ọka ikpe
ọgụ gụ
rụ ọ
ogbu ni
ogbuni gwe
n ,
i ro
) .
ọha naeze
w arị
i m
.” )
n kị
mme hie
kwụ rụ
i je
ga-e nwe
e do
ahụ ike
we pụtara
w er
n .
me gide
ihe ,
ọrụ ,
ọdị nihu
s si
egbu ola
Jo h
1 4
mi dia
ha pụrụ
ma ara
ha zi
baịbụl ,
ndị igbo
mkpe bi
i gbu
gh e
enye la
e wu
Chi na
ịma ta
ta .
nọchi te
mp e
mma ,
i re
f ra
atụ rụ
1 5
) ,
ndị agha
n kwe
maka na
E me
ụlọ ọgwụ
ụ jọ
ru e
niile ,
na- arị
de vid
bịa fra
W e
O ke
M ar
y ọọ
p h
nwa yọọ
na-a mụ
mmadụ ,
metụ tara
achọ ghị
_ _
B e
sa tọ
na-e nweghị
gburu gburu
ga- anọ
ama lite
agba ta
a ta
N or
satọ de
n gw
gị ,
ga-e nyere
c tion
ụtọ .
sị ,
nt er
fe e
Z i
S ara
S S
Ch ris
z ara
sh i
m ị
kwa ghị
du na
N na
ụlọ akụ
ọdị nala
ti us
ri d
i ru
R a
Le agu
ị gụ
obi ,
na-e gbu
m ọ
ele kere
egwuregwu ,
na-a zụ
na ụba
la ta
fu fe
cha pụ
S er
201 7
ọfụ ma
t ha
sh a
nzu zo
na bata
li c
ka ta
j a.
La go
ọgbu gbu
uru .
na-e bi
na-a tọ
la ị
gị .
akụ naụba
a kpọrọ
a gwọ
O si
Ch ukwu
ugbu a.
tius de
pu tara
ka n
ekwe ntị
abụ rụ
P au
ọnụ .
ị chị
nkị tị
na-a lụ
kw o
Wil lie
O r
J u
FC C
ụmụ nne
ụ da
ọgọ st
ọdọ ụgbọelu
wu te
ri e
p ị
naịjirịa ,
na-a kwụ
l ere
gụ rụ
gbo chi
to r
s onye
na-a nọ
n chọpụta
kp ụrụ
iche iche
chi tere
agụ mba
abụọ ,
y o
we pụ
n nyocha
m fe
igbo ,
i tinye
i jeri
dị kwa
cha ghị
baka r
ar d
we ere
oli le
n nọọ
mkpe sa
mba ụwa
U ma
U de
T witter
P ro
Ada m
1 )
zu te
ogo lo
ogolo go
mme kọrịta
ma n
e fu
bụkwa nụ
bri ten
Abu bakar
ọmụ mụ
u ro
si tere
mere .
k ,
i di
gba sa
ga- ahụ
ebo nyi
chọọ chị
Pau l
M e
G u
na-a zọ
li ri
ga-e bi
ezu m
bu tere
G A
E FCC
201 5
th er
o gbe
ndị )
le ba
l ụrụ
atọ .
Sta te
N A
y in
sta te
ri a
raị de
mer ụrụ
la tri
kọ ọ
gw o
f raịde
a kwado
I he
ti c
pa pa
nye ere
na-e nyere
mma nya
kị rị
ga-a kpọ
I nter
G o
2 3
ọ da
se net
s an
p i
ofesi ,
nwụ chi
Ne w
ọ ṅụ
ị kwụ
okoro bịa
n kịta
ga chara
f a
d ebe
bụ "
F u
El -
2 ,
za ky
t on
nwa afọ
ndị "
m bu
iche ,
ha b
b ra
ak zaky
a wa
Z akzaky
I ke
B o
ọ kpara
y iri
nu e
na-e kwe
m pụtara
m bi
ga be
e bere
dọ la
Sara ki
Mu gabe
A u
1 7
zu o
pụ ọ
o fufe
na-a ka
kw anyere
gu zo
gbo o
okwu .
mụ tara
m ọdụ
jehov a.
gbu ola
fọ rọ
anwụ chiela
Lago s
ndụ mọdụ
n' "
kwa a
i ku
e fe
dị ,
P a
D i
ọma ,
nka ta
na-a da
n rọ
fo to
e nweta
bụ bu
be nue
ama ta
agụ ụ
1 8
ụmụ afọ
zu tere
i fe
ezum ike
e to
Ch a
Afri ca
AP GA
pu ta
mme pe
ka duna
ego si
ba ara
agb ụrụ
a zọ
? ”
ị ny
oh u
latri k
ga-a kwụ
e so
d rid
anyị "
akwụkwọ .
agh ọ
a pụta
T a
N o
Ma drid
E le
ọkụ kọ
ị ṅụ
our t
oke nye
ndụ .
mgbe de
m iri
kwa la
e nyo
ama okwu
B ri
1 .
ọkacha mara
ị zọ
okporo ụzọ
o wer
nji kere
na ra
mkparịta ụka
mba .
kwụ ọ
d an
akụ rụ
1 3
ị nta
ịnta ne
ịntane ti
ị ba
wo re
pụrụ iche
o na
na-eme .
na-e tinye
e nyere
So wore
R u
A ma
19 9
ụ tụ
ọda chi
ị kwụsị
olile anya
j ị
enwe ghi
ah ị
V i
ọdị da
ọba san
ọbasan jọ
ị kwalite
th e
steeti ,
sa a
na-ekwu chitere
agh a.
Ihe dio
I bra
na-akụ zi
na ta
mgb ere
l d
ji ji
i nweta
gu n
e se
bụ zị
A S
we ne
s pe
ji de
chị rị
be ghi
T e
Nw a
G e
ị ghọta
wene zde
onye ozi
na-arị ọ
na-akụ ziri
na-a cha
mer ụ
kwa zie
arị rị
any i
a pụ
G a
ọ kọ
ị kụ
ị chụ
st ra
q u
obi bi
na-e de
na-a sụ
n gwụ
n chị
e bido
Ibra hi
Gh ana
ọọ la
ọka ra
ọj ị
ọ kpọ
u p
s ti
pa se
osi miri
igbo .
ga-e bu
bo ro
ahị hịa
a ṅụ
I fe
F A
4 .
1 6
ọkacha sị
ọ k
sị ga
o mi
na-a kọwa
mbụ .
m kpọ
i so
i nyere
ge n
ezi e
anwụ rụ
akụrụ ngwa
aka rị
a gw
Nwo su
I s
F al
se na
na-a kwa
na tional
mọ nde
ma s
m gbọ
i bi
ga-a chị
ga ara
ebu m
ar ụrụ
O lu
Na tional
ri ri
nkwe kọrịta
na-e to
na-e nyo
na-e bo
n rụrụ
mba b
mbab we
la ni
kpe biri
ga-a bara
bi a
akwụ sị
Zi mbabwe
W a
U S
T i
Ihedio ha
Ibrahi m
ọkụ .
sena tọ
ra l
p ịa
na-a jụ
me ere
kụ zi
ka ra
gba nwee
e jiri
b y
ar e
anambra ,
Pre mi
P la
Ma du
El- Zakzaky
A h
ọnwụ .
ọka fọ
ọ zụ
ị nya
ị cha
u bi
te la
ope kata
nwe tere
n go
izu ụka
asa tara
O N
Na i
Leagu e
ụfọdụ ,
u te
u le
na-ele kọta
na-e ti
mụ ọ
ma achị
ga-e we
ga-a kwụsị
ekwe ghị
egwu .
arc ourt
agba ala
P ort
Inter national
H arcourt
E mma
3 0
“ onye
ọk to
ọkto ba
ọchịchị .
ị zụ
ị mụ
tọ zde
tu o
sị a
na-e ke
mi ta
ma kwụ
l l
er o
de e
bi sh
a "
Co mm
A le
2 .
ụ gha
ta a,
otu ,
ori akụ
mere ,
makwụ kwọ
kwa nụ
ga-a chọ
Premi er
Jo na
2 )
ụnya ahụ
otu .
n ba
lọ ta
kụ rụ
kwe ere
kwa ,
f uru
ekwe sịghị
a kọ
Fal con
ụmụ nwoke
ụ bụrụ
ọzụ zụ
ya. ”
rị ọrọ
ome be
nke "
nche ta
nba jo
n turu
n di
me d
jụ ọ
ise .
ihe "
bi ga
achị cha
Osi nbajo
M baka
G er
B ra
ụ ma
na-e nyocha
na-a kọ
c tor
atọ ,
arc el
afọ .
a gwụ
S t
B ro
Ale x
A ba
ịny ịnya
o re
n su
mpi on
mkpa mkpa
m be
kwuo ,
họ pụtara
gh ọọ
e mi
e mere
c an
a kpara
Wil li
O nye
Joh n
Fa ce
Eme ka
Da vid
A ir
201 6
ọgwụ gwụ
u gbo
obodo .
ny ụ
ntọ rị
nne wi
ni a
mo zu
mgbasa ozi
mgba nwe
ar y
akwa mozu
agb idi
a wụ
Willi am
W or
M A
Jona tha
C amer
ọbụla .
sị kwa
s :
ro m
iku ku
ide mmiri
ego .
e were
da y
ari be
ar ọ
ah u
H a
D SS
C on
B or
A i
ị ta
sụ gharịrị
si a
pi ta
o "
na-a naghị
ma a
m mi
la .
kwụ sịrị
kwe ta
ji dere
ch o
ber t
al th
aka ebe
Y o
S am
Fu lani
Ab du
A na
na- arịa
n zụ
kan sa
ju laị
isi ,
b re
Sh e
Ri va
Nai ja
M ba
Fe der
E uro
Cha mpion
Ab aribe
A di
“ ndị
y en
ve s
tụ nyere
tọ ọrọ
to ro
rị rị
p an
ngwụ cha
nchị kọta
na-eme kwa
mma sị
l la
kọmi ti
j ere
ga-e zute
e nwere
T imo
D el
pụta .
p te
p ara
nsogbu .
ndị ,
na-e nweta
na-aga ghị
na-a nụ
na ,
mee kwa
kwe si
ke lere
ime .
ho o
ga-e so
che tara
an u
U t
I v
H e
Falcon s
E ng
ụnya ahụ.
zọ rọ
t ti
okwu ,
nwụ chiri
n do
me cha
kwe nyere
er s
eji je
arcel ona
U mu
Jonatha n
I gbo
B en
B arcelona
“ ihe
ị nọ
ukwu .
te au
ri tere
onal d
ode akwụkwọ
nzụ kọ
na-a nwụ
n tu
mp u
mgba kọ
mee .
mbụ ,
ghọ tara
g ra
e meri
dị .
anwụ .
We st
Pla teau
Nor th
D onald
D ani
3 ,
" ọ"
ọgwụ gwọ
ọbụla dị
taa :
sa yen
on do
o on
o k
nwaanyị .
na-e zi
na-e be
mm er
ji kọtara
i nọ
gb ụ
ga-a bịa
bụ zi
Wor ld
Uma hi
Fran ce
Camer oon
Ba y
2 5
“ n'
“ m
ọjọọ .
se pte
na-ebu te
n kụ
m bodo
i li
ga- eri
eh ihi
echi chi
ebi .
asa mbodo
Ut d
T he
Ro bert
Li b
Del ta
ọnụ ,
za a
tu s
opekata mpe
na-a bụghị
la a
kraịst ,
ka ma,
eh u
c u
akwụkwọ ,
aka tọ
a ku
Sh i
Riva s
O ba
L ondo
I M
Ai sha
1 00
- ndị
ịcha fụ
ị kwa
zọ pụta
t hi
ssi on
sayen sị
ower ri
ogbe nye
o ma
na-e yi
mi n
m bido
c ra
agụ makwụkwọ
abụrụ la
U K
1 2
ị mụta
yin bo
u hie
to yinbo
ti ri
t ten
re e
nso n
nku me
ma ghị
li a
j ama
jama nị
inọ k
gachara ,
ga-ama lite
da a
amerịka .
adị gboro
T u
I bi
H u
E bo
Chris ti
ụ ta
tu m
mkpa .
m gbochi
le y
l ịa
l ara
h ọrọ
h u
gba ara
d ike
agba nye
afrịka .
a gbara
__ __
To tten
Re al
Nig er
Dani el
A FC
3 .
2019 :
- O
ụ ghọ
ọnụ ọgụgụ
ọbụ ghị
ịhụ na
ị da
z ụrụ
te ,
so nyere
s ọọ
p p
oge ,
nu el
nturu ugo
na-a ṅụ
n ghọta
n du
me s
jizọs ,
iche -
i na
gh ọrọ
ga- arụ
bi ko
agh ụghọ
Sh ehu
Oko ro
Face bo
Fa toyinbo
De mo
Co mmi
AFC ON
A ra
9 .
6 ,
2019 ,
2 8
- A
“ a
ụmụ nna
ụdị rị
zọ ọ
wa nye
v s
osi ka
nwe ela
na-ama sị
me gidere
k ra
ji kwa
j a,
ga-a sị
g ri
fu o
ekpere ,
egwu ,
chi te
azụ ma
arị rịọ
Timo ti
Re v
L u
5 .
.. .
." ọ"
ị kọ
ị chọ
si na
nwa ada
ndị da
na-e cheta
na-ama ghị
n jiri
njiri mara
mme kọ
m wute
i chi
gbo chie
ga l
e p
ama di
ahịa .
agh a,
S i
Nigeri an
D an
A C
4 )
( n
ụbọchị ,
ọla edo
pu ru
o ti
nọ .
nri ,
n' ụba
mu el
mma lite
mba ,
le ment
kọwa a
ko la
eti nyela
eti nye
eji ghị
do zi
ama .
akụ n'ụba
a tion
Totten ham
Sa muel
Pe op
E bre
ọna tara
ọkụ ,
tọ hapụ
okwu te
o do
nọ ve
nrụrụ aka
n kwụ
kwu putara
kwado ro
ka "
jizọs .
jehov a,
ise ,
i zi
gha chiri
gba gburu
ga-e nweta
ga kwara
ekwe nsu
bish ọ
az a
al o
S te
O la
Ja pan
Emma nuel
Ele ction
Champion s
Ah med
A gu
A N
ụzọ ,
ọnatara chi
ọhụrụ .
ọdị mma
z .
re ss
onyeisi oche
onye àmà
o se
na-e wu
kpọku o
ka tọrọ
juu n
i s
i gosi
bishọ p
ana bata
amalite la
ahụ ?
agbanye ghi
Oko n
Oke zie
J e
Ife anyi
C e
Bro ther
Afri can
ụzọ .
ụtọ ,
ụlọ ,
ya "
s sa
no a
mme gbu
me chaa
ma r
kwu pụtara
ka na
g ere
chụ pụ
c ia
bụ .
a zu
P ar
Jo e
Ada mu
A bi
“ chineke
ọ ga
ị gwa
ị ara
w ala
u m
ti n
spe n
rị cha
p ti
nye kwara
nri te
na-eme pụta
na-e mere
ma sịrị
ki lo
ih ere
f f
ep rel
eme ghị
ekwe si
eji de
e je
dị ịrị
agw ala
afọ ,
K ano
Euro pe
A nd
.” ,
- E
ọma rịcha
ọ gara
zi l
ya. "
w an
se le
pti zi
o te
n' obi
n cha
mi li
lụ ọ
kụ ọ
kwe sị
kpe e
ko ria
jọ n
ihu .
i du
hi bere
ga- aka
ga na
g y
ehihi e
e ju
e e
do o
da ị
ba ptizi
azị za
ama ra
aghọ ta
William s
W ol
T ho
Sh ia
P ri
O gbo
M ike
I kpe
Facebo ok
Eng land
C O
A s
A li
ọkpọ ka
ọ gbụ
ọgbụ gba
ugwu .
t ho
s ere
rọ shịa
para daị
p ort
na-agba lị
na-a ba
na batara
n nọchite
n kw
mme chi
me kwara
m y
li n
ga-e kwu
Ri ver
Obi ano
Jo b
I d
Demo cra
Bor no
B el
B aba
2 4
ị jụ
ukwu ,
u de
ne l
ndụ ,
ndị ozi
mma nwụ
me biri
m gbu
li an
le ta
kọ ọrọ
ju pụtara
j eru
f ran
eme mme
e gburu
bọ je
ba a
asa ala
anọ .
ama dị
alụ kwaghị
Y emi
: "
5 0
" ,"
ụka .
ọ wa
ọ gbara
u ni
to m
ong ress
ogo go
o t
na-e gwu
na-a nọchite
na-a mụta
me chiri
kwe tara
kpọ pụta
ka sị
jeru sele
i ti
i gbe
ere na
c ar
ar ba
S erena
S ala
Ikpe azu
Id ris
D o
Commi ssion
C ongress
C lement
9 ,
7 ,
ị kwado
ị dọ
w in
u du
p ere
obodo ,
nso .
na-ekwu .
na-e se
kọ mpu
gba pụ
gba lị
eme e
ebum n'obi
bụ :
ba ,
b eri
an g
abụ bụ
a cha
Vi ctor
Ser a
S y
O nwu
Igbo kwe
G od
Bra zil
1 1
- 3
ụlọ .
ọchịchị ,
ịhụna nya
ị na
zị kwa
w .
v el
tụ ọ
sọọ sọ
so la
nọ ,
na-agba nyeghị
n ce
me zuru
me pụta
la ghachi
kilo mita
il l
i ce
ha ?
ha "
gba la
fe bụ
febụ warị
eme .
ebu be
du n
de ine
chi ,
che e
b le
asa a.
any ụ
abu ja.
Okon kwo
Nna mdi
Ke nya
In dia
E m
Chi bo
B ig
A R
19 8
“ o
ọdịnihu .
ọ bụrụ
ị nwụ
tụ beghị
pase ntị
nri .
na-ekwu sa
na-e zu
na-a sị
n kwu
mgba ghara
mb ịara
la h
kpa ta
ki ti
ke pu
i mi
gh t
ga-akpọ lite
azụ .
anọ ghị
adịgboro ja
a wakpo
U N
Re hab
Okoro cha
Joh nson
Ibi am
G arba
Co s
C or
6 .
201 4
ịgba nwe
we tara
sị: "
si ,
s "
rị tara
ru tere
p raị
osika pa
o kiri
ntị .
na-e je
n hazi
kwa sịrị
kpa a
iche- iche
gha chị
gen cy
ga-e bido
ga zi
for d
ezi .
el l
ekpere .
ama ala
a kpọọ
U gwu
N L
F F
Da vi
Adi chie
20 23
19 6
- anyanwụ
ọjọọ ,
v en
oke .
nọve mba
nso nso
nle ta
na-eme ,
na-eche gbu
na-akpa ta
kọ b
kwa ara
kraịst .
kpe bi
je kọb
igbo ?
gba tara
gba lịa
ga-eme cha
ga-e tinye
eme pụta
de pụtara
de n
ci al
bịa .
bị aru
b ru
b lic
anwụ ọ
ama m
Oko ye
O mo
K u
Jose ph
Ch ar
Bu kola
7 .
5 )
ọbụla ,
ọ sị
ị laị
ị hapụ
ta in
o gbo
nwa agbọghọ
na-a gbara
na .
mere nụ
m bo
kọmpu ta
kra ine
ji ,
i lu
gwa kwara
ga sị
g re
ese m
ekwe sị
chụ ọ
cha ala
an e
a ko
Uni on
Ude mba
U kraine
U che
O su
O j
NL C
M er
In no
Ebre ham
D C
Ce nt
Al l
A ng
A n
8 ,
19 7
0 .
ụka ,
ọsọ .
wo od
vi ce
te ghị
so kwa
ol ly
olly wood
o g
o .
na-eme gbu
na-e wute
na-a chụ
n rụ
kpọku ru
kpọ m
i kwe
h ,
gị ?
ga- eru
ga fee
f ero
eme bi
di se
ci s
ba .
anọ ,
ala kụ
agbata obi
Wol ves
Na tion
Londo n
Bi o
Al lah
9 )
7 )
2 6
ọka ibe
ọgara nya
z or
septe mba
ozi .
nwere .
na-efe gharị
mmiri .
mmer ụ
me zuo
mb ara
ma chiri
ko ro
ibu te
hi bru
gụnyere :
gbasa ara
ga-e gbu
f fi
elu .
ekwe la
e hab
e "
d y
c t
bụla .
bụla ,
apụta ghị
akatọ ọla
ahụhụ .
ahụ ghị
a kp
a ce
U me
Par ty
Madu ka
Da y
B an
3 )
20 20
ọnwụ ,
ọga nihu
ọcha .
ọcha ,
ị za
ị me
wu tere
t ta
si kwa
okiri kiri
nw o
ngwa ahịa
ne gal
n no
n chụ
mme pụta
metụ ta
lọ ghachi
kp uru
k ris
j ọrọ
ikpeazụ ,
h r
ga-eme .
ejiri la
ego ,
ebu ru
chọrọ .
che be
bi nyere
bekee .
aha pụ
Z am
Se negal
S an
Ro hr
Mi ni
I S
Gu ine
Fe mi
E d
Democra tic
Da p
B re
A w
A kanu
8 .
0 ,
ụlọ ahịa
ị nụ
zụ ọ
we pụta
ti gbuo
sh op
onwe alth
okpuru ọchịchị
nwere ,
nkw arị
na-e du
n si
mer u
me jọ
legọs .
le n
l .
kwụ nye
ji .
izu gbe
gba wara
eze ,
eru ola
e cheta
cha el
ch ụrụ
bụ bụ
bu te
anyị ?
akpara la
abụ ,
a dọ
Z A
Uni ver
Uma r
U zo
T ra
R ibe
O nu
K anu
I V
Davi do
Comm onwealth
Chibo k
CO ZA
C up
C ro
" n'"
ọka ,
ọ t
zi tere
we ta
ur ch
udo .
te ela
st le
p ho
ny a.
ntụ nye
nke a
na-aga biga
na-a kwanyere
n z
mi di
la wa
kọwa ara
kwesi li
ide mili
ghị .
ga-e gosi
ga fere
f ara
eri a
dịka "
do zie
di na
di mkpa
cho ol
bọọlụ .
ba n
amerịka ,
amam ihe
akpọọ la
T im
Ribe ka
Port Harcourt
O gu
N ọt
M or
Fran cis
F o
E ji
C ana
AS U
A ku
! ”
“ mgbe
ọ bịa
ị chọpụta
ṅ ụrụ
zi te
ye tti
re n
pase nt
onye nwe
nwe beghị
ntụliaka .
no t
njọ .
na-e fu
na-a sọ
na li
n ze
n sụ
kwa zịrị
ji kọrọ
ice ster
ha a
gri k
gi ge
esem okwu
elu ,
de l
che kwa
aṅụ rị
N gige
Mi yetti
Ma y
Le icester
Eze kwesili
Ea st
E thi
Christi an
C ou
C ol
A ni
2 1
." anyị"
ị nye
ṅ omi
zọ gbuo
te k
t t
pụtara .
pu te
ozi gbo
oge .
nwụọ .
nwata kịrị
ngwa agha
na-a pụ
n sị
mkpọrọ .
mi c
le ke
kụzi iri
kwu buru
kpo chapụ
kpe bie
ke wa
ka ,
k la
gwo ju
gbalị rị
gba wa
eluigwe ,
ebi ,
d ọrọ
chị buru
asa taghị
arị ọ
a. "
P u
Oj ukwu
Nwo do
Mer cy
I ran
I mo
C y
( N
ụ gh
ọṅụ ṅụ
ọtọ .
ọhụrụ ,
ọ fọ
zụ ta
ya :
ugwu ,
tek nụ
teknụ zụ
sh u
ri te
onye "
ol y
o wu
o m
nsọ .
nle kọta
nje debe
ni n
na-e kiri
na-a dọ
na hụrụ
n kọwa
n c
merụ ọ
ma tara
kpa mkpa
kpa chara
ko lo
ke le
i sonye
i kiri
i gba
i beri
hi a
go la
ga-ama ta
ga-a mụta
ga nị
e f
dere ,
anụ rị
alakụ ba
akpụ kpọ
ahụ la
ahịa ,
aga fe
abụ )
a kwọ
V a
Shi ite
Ser vice
S AR
SAR S
K ing
In di
IM N
I D
H er
H IV
G ra
Ethi op
E n
Dap chi
Bi shop
A nt
A F
2017 .
ụ fụ
ọrọ la
ọ tụ
zo ro
zi k
uru ,
ume ala
u ,
pu blic
pe e
on gwo
ochie .
nọchi tere
nwụrụ ,
ngw ongwo
n nwere
ma gazi
m on
m .”
kpụ pụ
ihu ,
iche kwa
gu nyere
gre ssi
gh ere
gba kọrọ
ga-eme zu
ga-a lụ
ga sịrị
g ar
eziokwu ?
eluigwe .
ebo ro
e soro
dise mba
da bara
bi bie
asị .
Or ji
O s
Nwa chukwu
Nw an
Mike l
K ogi
Ja mes
Ike chukwu
I ta
Fran k
Da kolo
Ch urch
Bu r
Bri tain
Bio dun
Ben ja
And re
ASU U
A gency
2 2
." ndị"
- onye
" nke"
ụ kwara
ọwụwa -anyanwụ
ọnwụ nwa
ọfụma .
ị bịa
ya t
taa ta
sị ,"
si iri
si de
r ere
pe nali
penali ti
p ro
p ar
obi ọma
nọ chiri
nkwe nye
nji kọ
na-abịa .
na-a pụta
na pụta
mana "
magazi n
ma hụ
m ne
la ,
kọ rịtara
kwuo .
kpọ litere
kana da
i fo
hi were
gra m
gola yat
ga-ebi bi
ga-e mere
f re
eze .
enugwu .
eme nt
de pụta
da pụtara
chị kọ
ahụ. ”
a tọrọ
a kọwa
S C
Peop le
Pe ace
Nigeri a,
Mi chael
K im
Ger not
B ar
A d
' ?
" na"
“ ka
ụlọikpe .
zị kwara
vel op
velop ment
ta nka
sị "
st ri
so cia
socia tion
oke ,
nwụrụ .
nwaanyị ,
nsọ ,
mp ịa
lu ,
la n
jiji ji
i ju
gọ zie
ga-a zọ
ga-a za
fraịde .
enugwu -
emeri ela
e fere
di ,
chọ tara
chineke ?
cha a,
be lata
am ị
a nwa
a ja.
Zam fara
Univer si
So yin
Se con
Pro gressi
N du
K ore
Ge or
E x
E li
As sociation
Abdu l
5 00
5 ,
4 ,
2018 .
ọkọ lọ
ọkọlọ tọ
ọkpụ kpụ
ọ kpa
ịkụ ziri
ị sị
zi gara
ya nwa
wa y
tụ ta
to o
ti ve
tho lic
si me
ro up
ri st
p ha
o kwe
nwe te
nta kịrị
nna ya
ne si
na-ewe ta
na-eme gide
na-a hazi
n kọ
mmiri ,
mma chi
mkpa gbu
me chie
kp arịta
iwe .
isii ,
iri .
in o
ime ,
il la
i nyocha
ho le
h ere
gwu ru
gw ọọ
gha pụ
gbata gbata
gaa sị
g er
enwe ela
el sa
el d
ede me
e kp
ca stle
c to
bu uru
atọ hapụ
ari a
alụ mdi
ahụ rụ
ada ala
T an
Olu se
O gbu
O du
N ji
N i
Mu sa
M z.
M ala
Leagu e.
F I
Ethiop ia
De velopment
Ca tholic
Bay elsa
Ban k
Ana je
( A
ụ zụ
ọ pị
we la
tụ la
sụ gharịa
rụ tụrụ
ruo la
ru s
ra el
paradaị s.
ozugbo .
ozi ,
nụ warị
nọ kwa
nwụ chie
ntụ kwasị
mere la
me pụtara
mb er
kwu tere
kwu kwa
ku zi
kpọm kwe
jọ gburu
jerusele m
je nụwarị
je e
iwu .
iwe pụ
ite ghe
ime ụlọ
ikpe .
i were
ha zie
guzo be
gu ri
ga-a gwa
eme ka
edeme de
eche fu
ebido la
dụ ọ
ce nt
bu o
anambra .
akpa ta
ad ọọla
Yo ru
Y u
Tho mas
Su dan
She ka
S p
P i
Oluse gun
Lib ya
Ka lu
Is rael
H ar
Go od
Char les
Ch an
Cana da
C ar
Bu sola
Alex and
A ja
- N
- "
’ )
ụbọchị .
ọgụ .
ọ si
ị sụ
ṅụ ọ
zụ ga
zị ghị
v an
u kwa
tiusde .
sta n
siri ak
shi om
shiom hole
ri n
ra tion
praị m
ochie ,
nụ .
nwụọ ,
nwee kwa
nnọchite anya
ndị a
na-eme bi
na-eke le
na-a ghọta
n nụ
mpịa kọta
mkpa :
mbu ze
kụ ziri
isii .
gọ zi
ga fe
es si
er n
eme pe
e ge
di bia
chọ ta
akwa .
ah ịrị
adị rị
achọ pụta
W ike
Ugwu anyi
T V
Soyin ka
Ro nal
P ari
P C
Nna bu
New castle
Ger ma
Au stra
Air port
A re
6 )
2015 .
." o"
“ unu
ọ s
ọ pụ
ọ kwọ
ọ kpụrụ
ọ chụ
wu ru
wa ,
tara mahụ
taramahụ hụ
t witter
ph en
ozi ọma
oyi bo
otu to
or k
o lo
o bo
nwụ nahụrụ
na-eche kwa
na-aga ,
na-a za
na tara
n taramahụhụ
n ma
mme fu
mgb idi
m :
li ela
l li
l arị
kọ pa
kpọ tụrụ
ke ,
ju putara
ijipt .
idu guri
i nt
i mere
i kpere
gy pt
gba kwara
ga-a gụ
ga s
ga d
fọdụ rụ
enugwu ,
en er
echiche .
e nyocha
cha ara
bịa ,
biko ,
azụma hịa
au di
asatọ ,
arị ọla
apụ ghị
anya .”
agba gbuola
aga di
aga ala
aba ta
a pụtala
____ ____
T ara
Ste phen
Sheka u
S chool
River s
Nation s
N ollywood
Ma iduguri
M ah
J ane
H aru
Feder al
F or
E gypt
Comm uni
Chi oma
Ch ad
Cent ral
Benja min
B ori
B enu
Abdu lla
2 9
19 14
ụ kpa
ọ lị
ịlaị ja
ịdị na
z arọ
ya ;
x i
sọ nde
sta l
sh o
se kọ
s er
onyeisiala .
ohi ,
o ,
nye kwa
nwoke .
nwoke ,
nweghị kwa
nw uru
nu che
nkwa nye
ndị ;
nc il
na-eru bere
na-e zo
mma ?
me sa
mbu li
mbi lite
lian ce
le t
la zarọ
la ck
l eri
ime bi
ga-e kwe
ezi na
ejide la
egosi la
eche ghị
ebi bi
ebi a
du ru
di ng
con omi
chọ ghị
che l
bu lu
bo n
azụ ,
asatọ .
ar ebia
ama chiela
ala ghachi
akwa ,
ada ba
a hia
Universi ty
Tim gad
S audi
S al
Re public
P S
O shiomhole
Ny ako
M ou
La i
Inno son
I bo
G roup
C B
Al liance
Abdulla hi
A meri
4 00
. ,
. )
) "
“ e
ụmụ okorobịa
ọpụ pụ
ọkpụrụ kpụ
ịtụ kwasị
ị na-eme
ị họpụta
xi co
tu re
ti e
te .
t .
st y
st on
shi p
s ụrụ
s ala
rụ warị
ran s
ote le
op h
oph obi
ogo ogo
o s
nụ ,
ny ụrụ
nwa amadị
ne s
na-ekwe sịghị
na-aga .
na-a sa
na-a kpụ
na hụ
mgba kwụnye
mana ,
kwuru ?
kwe kọrịtara
ku ru
k s
k no
izrel .
in ji
igbo chi
i kpo
ha. ”
ga-a nwụ
ga-a hapụ
ga-a da
fe b
feb rụwarị
enweta la
en ophobi
e zo
da da
chụ pụrụ
chị a
chara ,
bụrụ godị
bu nyere
asa a,
akpara ma
ahụ. "
agba sa
agba la
afrịka ,
adị .
achụ ọla
achọ pụtala
a ị
a wara
a t
Y ou
T here
Ronal do
Q u
P )
Oba ma
Me xico
Mba ise
Ma da
M ana
In sta
I C
Guine a
Geor ge
E conomi
Cou ncil
Be nin
Bay ern
ụra ,
ọzọ kwa
ọnịcha ,
ị gbara
we zụga
vi sa
ro n
pụta ,
olu tion
nwe dịrị
ntu tu
na-e were
na-e do
na-a mị
mụ wa
mkpọ tụ
mee ,
mama nda
ma dị
le ge
le ,
la tị
kpọ lite
ikpeazụ .
i d
gba chara
ga-eme li
ga-eme kwa
ga-a tụ
ga-a ta
ga ni
ezu ghị
ewere la
ekpe bi
echiche ,
e gbochi
di .
day ọsi
ata ala
arụ sị
ama ,
akụkọ "
aba cha
a nwu
X enophobi
U ga
There sa
Te kno
Su nda
Rev olution
P ower
P ope
Or tom
O ye
O gun
O di
K ha
Is la
Haru na
