{
  "<unk>": 0,
  "<s>": 1,
  "</s>": 2,
  "<pad>": 3,
  "<mask morph>": 4,
  "!": 5,
  "\"": 6,
  "#": 7,
  "$": 8,
  "%": 9,
  "&": 10,
  "'": 11,
  "(": 12,
  ")": 13,
  "*": 14,
  ",": 15,
  "-": 16,
  ".": 17,
  "/": 18,
  "0": 19,
  "1": 20,
  "2": 21,
  "3": 22,
  "4": 23,
  "5": 24,
  "6": 25,
  "7": 26,
  "8": 27,
  "9": 28,
  ":": 29,
  ";": 30,
  "<": 31,
  "=": 32,
  ">": 33,
  "?": 34,
  "@": 35,
  "A": 36,
  "B": 37,
  "C": 38,
  "CH": 39,
  "Ch": 40,
  "D": 41,
  "E": 42,
  "F": 43,
  "G": 44,
  "GB": 45,
  "Gb": 46,
  "Gh": 47,
  "Gw": 48,
  "H": 49,
  "I": 50,
  "J": 51,
  "K": 52,
  "KP": 53,
  "Kp": 54,
  "Kw": 55,
  "L": 56,
  "M": 57,
  "N": 58,
  "NW": 59,
  "NY": 60,
  "Nw": 61,
  "Ny": 62,
  "O": 63,
  "P": 64,
  "Q": 65,
  "R": 66,
  "S": 67,
  "SH": 68,
  "Sh": 69,
  "T": 70,
  "U": 71,
  "V": 72,
  "W": 73,
  "X": 74,
  "Y": 75,
  "Z": 76,
  "[": 77,
  "]": 78,
  "^": 79,
  "_": 80,
  "`": 81,
  "a": 82,
  "b": 83,
  "c": 84,
  "ch": 85,
  "d": 86,
  "e": 87,
  "f": 88,
  "g": 89,
  "gb": 90,
  "gh": 91,
  "gw": 92,
  "h": 93,
  "i": 94,
  "j": 95,
  "k": 96,
  "kp": 97,
  "kw": 98,
  "l": 99,
  "m": 100,
  "n": 101,
  "nw": 102,
  "ny": 103,
  "o": 104,
  "p": 105,
  "q": 106,
  "r": 107,
  "s": 108,
  "sh": 109,
  "t": 110,
  "u": 111,
  "v": 112,
  "w": 113,
  "x": 114,
  "y": 115,
  "z": 116,
  "{": 117,
  "|": 118,
  "}": 119,
  "£": 120,
  "®": 121,
  "·": 122,
  "É": 123,
  "Ö": 124,
  "×": 125,
  "à": 126,
  "á": 127,
  "ã": 128,
  "ä": 129,
  "å": 130,
  "æ": 131,
  "ç": 132,
  "è": 133,
  "é": 134,
  "ì": 135,
  "í": 136,
  "ï": 137,
  "ñ": 138,
  "ó": 139,
  "ô": 140,
  "ö": 141,
  "ø": 142,
  "ù": 143,
  "ú": 144,
  "ü": 145,
  "ć": 146,
  "č": 147,
  "ğ": 148,
  "ń": 149,
  "ş": 150,
  "š": 151,
  "ż": 152,
  "ž": 153,
  "̀": 154,
  "́": 155,
  "ׁ": 156,
  "ה": 157,
  "נ": 158,
  "פ": 159,
  "ש": 160,
  "ṅ": 161,
  "ạ": 162,
  "ẹ": 163,
  "Ị": 164,
  "ị": 165,
  "Ọ": 166,
  "ọ": 167,
  "Ụ": 168,
  "ụ": 169,
  "–": 170,
  "—": 171,
  "‘": 172,
  "’": 173,
  "“": 174,
  "”": 175,
  "•": 176,
  "₦": 177,
  "€": 178,
  "■": 179,
  "●": 180,
  "": 181,
  "na": 182,
  "dị": 183,
  "ka": 184,
  "ma": 185,
  "n'": 186,
  "bụ": 187,
  "er": 188,
  "ar": 189,
  "ndị": 190,
  "ke": 191,
  "ha": 192,
  "na-": 193,
  "ere": 194,
  "ara": 195,
  "ya": 196,
  "me": 197,
  "ih": 198,
  "la": 199,
  "ga": 200,
  "si": 201,
  "nye": 202,
  "ji": 203,
  "hụ": 204,
  "ta": 205,
  "ihe": 206,
  "kwu": 207,
  "rụ": 208,
  "ri": 209,
  "any": 210,
  "ahụ": 211,
  "ru": 212,
  "nke": 213,
  "rị": 214,
  "tu": 215,
  "ba": 216,
  "kwa": 217,
  "onye": 218,
  "na-a": 219,
  "na-e": 220,
  "ghị": 221,
  "tụ": 222,
  "dụ": 223,
  "ti": 224,
  "ga-": 225,
  "te": 226,
  "gba": 227,
  "otu": 228,
  "le": 229,
  "be": 230,
  "bi": 231,
  "zi": 232,
  "anyị": 233,
  "sị": 234,
  "mma": 235,
  "pụ": 236,
  "kọ": 237,
  "mụ": 238,
  "an": 239,
  "chi": 240,
  "chị": 241,
  "che": 242,
  "nwe": 243,
  "zọ": 244,
  "aka": 245,
  "lọ": 246,
  "rọ": 247,
  "kụ": 248,
  "do": 249,
  "ụlọ": 250,
  "we": 251,
  "ne": 252,
  "kwụ": 253,
  "ala": 254,
  "nwa": 255,
  "go": 256,
  "fọ": 257,
  "gbu": 258,
  "isi": 259,
  "ra": 260,
  "mmadụ": 261,
  "li": 262,
  "gbe": 263,
  "ebe": 264,
  "ike": 265,
  "ọrọ": 266,
  "iri": 267,
  "kwuru": 268,
  "wa": 269,
  "de": 270,
  "cha": 271,
  "ro": 272,
  "maka": 273,
  "bu": 274,
  "mgbe": 275,
  "tọ": 276,
  "ga-e": 277,
  "mere": 278,
  "so": 279,
  "tara": 280,
  "ni": 281,
  "gbo": 282,
  "ụmụ": 283,
  "rịa": 284,
  "ọọ": 285,
  "gwu": 286,
  "ịa": 287,
  "ọrụ": 288,
  "eti": 289,
  "nwere": 290,
  "ga-a": 291,
  "nụ": 292,
  "sa": 293,
  "ge": 294,
  "ọchị": 295,
  "anya": 296,
  "afọ": 297,
  "mba": 298,
  "bo": 299,
  "ime": 300,
  "okwu": 301,
  "nwụ": 302,
  "abụ": 303,
  "kwe": 304,
  "akụ": 305,
  "ọzọ": 306,
  "gị": 307,
  "akwụ": 308,
  "lu": 309,
  "ịji": 310,
  "ịjirịa": 311,
  "naịjirịa": 312,
  "nọ": 313,
  "obi": 314,
  "kwọ": 315,
  "se": 316,
  "kpe": 317,
  "zu": 318,
  "di": 319,
  "ezi": 320,
  "ste": 321,
  "neke": 322,
  "steeti": 323,
  "chineke": 324,
  "iche": 325,
  "akwụkwọ": 326,
  "kpa": 327,
  "nyere": 328,
  "da": 329,
  "ile": 330,
  "nt": 331,
  "nu": 332,
  "dịka": 333,
  "pụta": 334,
  "oke": 335,
  "re": 336,
  "niile": 337,
  "oge": 338,
  "je": 339,
  "gụ": 340,
  "agh": 341,
  "tụtụ": 342,
  "wu": 343,
  "ku": 344,
  "ya.": 345,
  "abụọ": 346,
  "akụkọ": 347,
  "ịbụ": 348,
  "na-eme": 349,
  "arị": 350,
  "eri": 351,
  "mp": 352,
  "ko": 353,
  "a.": 354,
  "ama": 355,
  "onyeisi": 356,
  "anọ": 357,
  "igbo": 358,
  "ọtụtụ": 359,
  "on": 360,
  "bụrụ": 361,
  "sọ": 362,
  "kpọ": 363,
  "bịa": 364,
  "nwaanyị": 365,
  "kwara": 366,
  "bodo": 367,
  "pu": 368,
  "ịbụl": 369,
  "baịbụl": 370,
  "mi": 371,
  "ọnụ": 372,
  "bụla": 373,
  "mme": 374,
  "obodo": 375,
  "du": 376,
  "ana": 377,
  "egwu": 378,
  "20": 379,
  "iji": 380,
  "gbọ": 381,
  "chọ": 382,
  "fe": 383,
  "ụwa": 384,
  "hi": 385,
  "aga": 386,
  "gwa": 387,
  "pụtara": 388,
  "iwu": 389,
  "siri": 390,
  "ikpe": 391,
  "to": 392,
  "ụb": 393,
  "ze": 394,
  "ego": 395,
  "eme": 396,
  "mb": 397,
  "uru": 398,
  "az": 399,
  "gọ": 400,
  "ụbọchị": 401,
  "ntị": 402,
  "agba": 403,
  "onwe": 404,
  "tere": 405,
  "a,": 406,
  "ho": 407,
  "ụrụ": 408,
  "st": 409,
  "ari": 410,
  "ihi": 411,
  "ndụ": 412,
  "ahụ.": 413,
  "ozi": 414,
  "oji": 415,
  "uwe": 416,
  "mana": 417,
  "sịrị": 418,
  "gara": 419,
  "ọchịchị": 420,
  "aha": 421,
  "lụ": 422,
  "atọ": 423,
  "ah": 424,
  "ụzọ": 425,
  "ukwu": 426,
  "gọọ": 427,
  "mm": 428,
  "gọọme": 429,
  "Bu": 430,
  "kpọrọ": 431,
  "hụrụ": 432,
  "elu": 433,
  "fọdụ": 434,
  "kwuo": 435,
  "ojii": 436,
  "ọka": 437,
  "ya,": 438,
  "nwoke": 439,
  "jụ": 440,
  "ụfọdụ": 441,
  "ha.": 442,
  "kpo": 443,
  "nd": 444,
  "201": 445,
  "ụgbọ": 446,
  "sụ": 447,
  "ọma": 448,
  "sara": 449,
  "ahụ,": 450,
  "nso": 451,
  "eze": 452,
  "agha": 453,
  "ome": 454,
  "mee": 455,
  "were": 456,
  "mer": 457,
  ".”": 458,
  "gbara": 459,
  "or": 460,
  "nweghị": 461,
  "asa": 462,
  "chara": 463,
  "hov": 464,
  "ihu": 465,
  "jehov": 466,
  "hari": 467,
  "Buhari": 468,
  "ga-eme": 469,
  "mara": 470,
  "gharị": 471,
  "ọbụla": 472,
  "gi": 473,
  "ugbu": 474,
  "ọkụ": 475,
  "nakwa": 476,
  "olu": 477,
  "gwụ": 478,
  "nna": 479,
  "nyo": 480,
  "ụka": 481,
  "gbasara": 482,
  "gwara": 483,
  "lite": 484,
  "uweojii": 485,
  "el": 486,
  "ma,": 487,
  "onyeisiala": 488,
  "chọrọ": 489,
  "ole": 490,
  "ọnwa": 491,
  "ela": 492,
  "nwu": 493,
  "wee": 494,
  "na-ekwu": 495,
  "nga": 496,
  "mkpa": 497,
  "jehova": 498,
  "zọs": 499,
  "aba": 500,
  "jizọs": 501,
  "nta": 502,
  "jiri": 503,
  ".\"": 504,
  "pa": 505,
  "arụ": 506,
  "atụ": 507,
  "mbụ": 508,
  "gwe": 509,
  "mmiri": 510,
  "gọọmentị": 511,
  "ntụ": 512,
  "anụ": 513,
  "gburu": 514,
  "na-agba": 515,
  "vanọ": 516,
  "mpi": 517,
  "gọvanọ": 518,
  "pụrụ": 519,
  "kpụ": 520,
  "mo": 521,
  "jọ": 522,
  "dọ": 523,
  "site": 524,
  "ekwe": 525,
  "ja": 526,
  "nne": 527,
  "iwe": 528,
  "anwụ": 529,
  "ga-ama": 530,
  "al": 531,
  "nị": 532,
  "pe": 533,
  "dere": 534,
  "lị": 535,
  "mgba": 536,
  "Jo": 537,
  "gu": 538,
  "in": 539,
  "ju": 540,
  "ahịa": 541,
  "ise": 542,
  "gwọ": 543,
  "adị": 544,
  "bido": 545,
  "kwado": 546,
  "kị": 547,
  "ndọrọ": 548,
  "oko": 549,
  "eziokwu": 550,
  "BB": 551,
  "asọ": 552,
  "nyi": 553,
  "anyere": 554,
  "mu": 555,
  "ntụli": 556,
  "karị": 557,
  "ghọ": 558,
  "tupu": 559,
  "th": 560,
  "ọnwụ": 561,
  "azụ": 562,
  "igwe": 563,
  "mkp": 564,
  "na-ahụ": 565,
  "ce": 566,
  "BBC": 567,
  "ọla": 568,
  "zị": 569,
  "zụ": 570,
  "mbra": 571,
  "nri": 572,
  "anambra": 573,
  "aghara": 574,
  "ọgwụ": 575,
  "bere": 576,
  "ntụliaka": 577,
  "ebu": 578,
  "asọmpi": 579,
  "okp": 580,
  "bara": 581,
  "ọgba": 582,
  "azị": 583,
  "nsogbu": 584,
  "ruo": 585,
  "ọkwa": 586,
  "fu": 587,
  "eji": 588,
  "bọọ": 589,
  "ọj": 590,
  "ghara": 591,
  "nche": 592,
  "etu": 593,
  "nwunye": 594,
  "gha": 595,
  "enu": 596,
  "bọọlụ": 597,
  "bị": 598,
  "regwu": 599,
  "egwuregwu": 600,
  "kiri": 601,
  "rịka": 602,
  "taa": 603,
  "mmụ": 604,
  "lo": 605,
  "na-aga": 606,
  "chụ": 607,
  "chie": 608,
  "ola": 609,
  "ig": 610,
  "ọhụrụ": 611,
  "yi": 612,
  "unu": 613,
  "maazị": 614,
  "ebi": 615,
  "ga-amasị": 616,
  "kacha": 617,
  "nwee": 618,
  "anị": 619,
  "naanị": 620,
  "af": 621,
  "etiti": 622,
  "zie": 623,
  "wara": 624,
  "nweta": 625,
  "ibe": 626,
  "ou": 627,
  "enugwu": 628,
  "nya": 629,
  "amer": 630,
  "ezigbo": 631,
  "banyere": 632,
  "akwa": 633,
  "Ma": 634,
  "AP": 635,
  "lee": 636,
  "chukwu": 637,
  "sị:": 638,
  "ọjọọ": 639,
  "ọbụ": 640,
  "ziri": 641,
  "su": 642,
  "ụlọọrụ": 643,
  "ụmụnwaanyị": 644,
  "wakpo": 645,
  "kwụsị": 646,
  "eru": 647,
  "ụtọ": 648,
  "agaghị": 649,
  "agụ": 650,
  "raị": 651,
  "nti": 652,
  "Mu": 653,
  "ịka": 654,
  "buru": 655,
  "ụlọikpe": 656,
  "nde": 657,
  "ghi": 658,
  "abalị": 659,
  "sta": 660,
  "gosi": 661,
  "narị": 662,
  "enye": 663,
  "ada": 664,
  "en": 665,
  "kwesịrị": 666,
  "ịgba": 667,
  "kemgbe": 668,
  "2019": 669,
  "anaghị": 670,
  "kpere": 671,
  "ol": 672,
  "goolu": 673,
  "Chi": 674,
  "chiri": 675,
  "gịnị": 676,
  "tinye": 677,
  "ngwa": 678,
  "Nig": 679,
  "amerịka": 680,
  "nọdụ": 681,
  "gaa": 682,
  "ha,": 683,
  "ekwuo": 684,
  "ajụ": 685,
  "zo": 686,
  "mbọ": 687,
  "00": 688,
  "ụgwọ": 689,
  "nwụrụ": 690,
  "il": 691,
  "nkeji": 692,
  "nal": 693,
  "afrịka": 694,
  "ọrịa": 695,
  "za": 696,
  "kere": 697,
  "ruru": 698,
  "ọnọdụ": 699,
  "ga-esi": 700,
  "cheta": 701,
  "tion": 702,
  "laba": 703,
  "kọta": 704,
  "ekwuola": 705,
  "gosiri": 706,
  "meri": 707,
  "bịara": 708,
  "ụdị": 709,
  "nyocha": 710,
  "bata": 711,
  "Ro": 712,
  "ṅụ": 713,
  "mpaghara": 714,
  "nchekwa": 715,
  "litere": 716,
  "vi": 717,
  "ụgbọelu": 718,
  "beghị": 719,
  "nụlọ": 720,
  "ng": 721,
  "ezinụlọ": 722,
  "ọdị": 723,
  "gị:": 724,
  "Nigeri": 725,
  "na-akpọ": 726,
  "APC": 727,
  "nje": 728,
  "ngalaba": 729,
  "kọrọ": 730,
  "soro": 731,
  "asụ": 732,
  "osi": 733,
  "ugwu": 734,
  "puku": 735,
  "gọọmenti": 736,
  "izu": 737,
  "it": 738,
  "omeiwu": 739,
  "kee": 740,
  "okpuru": 741,
  "isii": 742,
  "gboro": 743,
  "no": 744,
  "ehi": 745,
  "bụkwa": 746,
  "imo": 747,
  "19": 748,
  "iko": 749,
  "na-achị": 750,
  "enweghị": 751,
  "ekpere": 752,
  "bụghị": 753,
  "amụ": 754,
  "nkiri": 755,
  "biri": 756,
  "na-eche": 757,
  "oh": 758,
  "m,": 759,
  "kọwa": 760,
  "ki": 761,
  "m.": 762,
  "Man": 763,
  "nku": 764,
  "uche": 765,
  "ọsọ": 766,
  "ụgbọala": 767,
  "nzu": 768,
  "kwere": 769,
  "ajụjụ": 770,
  "ọgụ": 771,
  "ozu": 772,
  "ver": 773,
  "dịrị": 774,
  "ịma": 775,
  "raịst": 776,
  "abụghị": 777,
  "ter": 778,
  "nyeghị": 779,
  "ga-eji": 780,
  "asụsụ": 781,
  "Su": 782,
  "kraịst": 783,
  "enwe": 784,
  "ele": 785,
  "echi": 786,
  "mmụọ": 787,
  "Re": 788,
  "mume": 789,
  "na-arụ": 790,
  "na-achọ": 791,
  "atụma": 792,
  "abịa": 793,
  "nnu": 794,
  "atụmatụ": 795,
  "olee": 796,
  "nsọ": 797,
  "asaa": 798,
  "oro": 799,
  "mmemme": 800,
  "agwa": 801,
  "Li": 802,
  "maọbụ": 803,
  "na-enye": 804,
  "gbuo": 805,
  "Jose": 806,
  "ụkwụ": 807,
  "na-adị": 808,
  "obere": 809,
  "ngagharị": 810,
  "ano": 811,
  "kpara": 812,
  "nkwa": 813,
  "gide": 814,
  "am": 815,
  "ọzọ.": 816,
  "achọ": 817,
  "karịrị": 818,
  "tụrụ": 819,
  "tọrọ": 820,
  "adịghị": 821,
  "mkpụrụ": 822,
  "Mo": 823,
  "Da": 824,
  "ụmụaka": 825,
  "anya.": 826,
  "akpa": 827,
  "eke": 828,
  "les": 829,
  "kọwara": 830,
  "kwukwara": 831,
  "ran": 832,
  "hapụ": 833,
  "enyi": 834,
  "egbe": 835,
  "ọgbakọ": 836,
  "nala": 837,
  "bekee": 838,
  "asatọ": 839,
  "Boko": 840,
  "rịta": 841,
  "of": 842,
  "nwata": 843,
  "àm": 844,
  "àmà": 845,
  "ugbua": 846,
  "manụ": 847,
  "Hara": 848,
  "per": 849,
  "Nigeria": 850,
  "hịa": 851,
  "Co": 852,
  "ugboro": 853,
  "tinyere": 854,
  "La": 855,
  "chere": 856,
  "DP": 857,
  "ve": 858,
  "ofe": 859,
  "ebubo": 860,
  "anụmanụ": 861,
  "ụkọ": 862,
  "okpo": 863,
  "njem": 864,
  "nai": 865,
  "họ": 866,
  "ori": 867,
  "malitere": 868,
  "ito": 869,
  "fụ": 870,
  "na-akpa": 871,
  "nka": 872,
  "kịta": 873,
  "kike": 874,
  "Na": 875,
  "bidoro": 876,
  "po": 877,
  "ogi": 878,
  "nkuzi": 879,
  "ghọta": 880,
  "nnukwu": 881,
  "mụrụ": 882,
  "Uni": 883,
  "ezu": 884,
  "ga-abụ": 885,
  "ntaakụkọ": 886,
  "PDP": 887,
  "Haram": 888,
  "udo": 889,
  "mechara": 890,
  "na-atụ": 891,
  "hie": 892,
  "karịa": 893,
  "kama": 894,
  "agbanyeghị": 895,
  "naira": 896,
  "ca": 897,
  "ọkpụ": 898,
  "ye": 899,
  "aka.": 900,
  "dara": 901,
  "Josef": 902,
  "mkpe": 903,
  "ibu": 904,
  "ọcha": 905,
  "Le": 906,
  "zuru": 907,
  "ohere": 908,
  "anyanwụ": 909,
  "pati": 910,
  "gọs": 911,
  "dum": 912,
  "chọpụta": 913,
  "naịjirịa.": 914,
  "ikike": 915,
  "Pe": 916,
  "ịhụ": 917,
  "legọs": 918,
  "okporo": 919,
  "gụnyere": 920,
  "egbu": 921,
  "tị": 922,
  "ogo": 923,
  "au": 924,
  "ndịàmà": 925,
  "kwuru,": 926,
  "kanu": 927,
  "ndọrọndọrọ": 928,
  "Muha": 929,
  "mdi": 930,
  "itoolu": 931,
  "abu": 932,
  "Al": 933,
  "us": 934,
  "mmanụ": 935,
  "OB": 936,
  "ahụhụ": 937,
  "IP": 938,
  "Muhamma": 939,
  "ekwu": 940,
  "EC": 941,
  "okoro": 942,
  "malite": 943,
  "chọọ": 944,
  "na-akụ": 945,
  "kachasị": 946,
  "ike.": 947,
  "chaa": 948,
  "ụkọchukwu": 949,
  "wo": 950,
  "oche": 951,
  "na-ele": 952,
  "steeti.": 953,
  "na-abịa": 954,
  "nọrọ": 955,
  "mmeri": 956,
  "ide": 957,
  "chiela": 958,
  "mata": 959,
  "Ea": 960,
  "sịrị:": 961,
  "ofesi": 962,
  "na-eji": 963,
  "Muhammadu": 964,
  "ịdị": 965,
  "op": 966,
  "mini": 967,
  "ris": 968,
  "IPOB": 969,
  "ụlọomeiwu": 970,
  "ghachi": 971,
  "achị": 972,
  "ugo": 973,
  "ster": 974,
  "saụ": 975,
  "lie": 976,
  "kwesiri": 977,
  "Fa": 978,
  "niile.": 979,
  "maha": 980,
  "tiku": 981,
  "pọ": 982,
  "mma.": 983,
  "arịa": 984,
  "ụmụakwụkwọ": 985,
  "ia": 986,
  "sote": 987,
  "nkwado": 988,
  "mụta": 989,
  "ụtụtụ": 990,
  "kọrịta": 991,
  "gbaa": 992,
  "esi": 993,
  "Atiku": 994,
  "ụba": 995,
  "rel": 996,
  "ogige": 997,
  "ochie": 998,
  "inye": 999,
  "agb": 1000,
  "bọ": 1001,
  "anya,": 1002,
  "onal": 1003,
  "ikpeazụ": 1004,
  "ọdụ": 1005,
  "okpu": 1006,
  "mmụta": 1007,
  "In": 1008,
  "nzukọ": 1009,
  "ntọ": 1010,
  "amaghị": 1011,
  "he": 1012,
  "ọha": 1013,
  "alaeze": 1014,
  "ịrị": 1015,
  "osisi": 1016,
  "Super": 1017,
  "ọzọ,": 1018,
  "ck": 1019,
  "banye": 1020,
  "họpụta": 1021,
  "osote": 1022,
  "mgbasa": 1023,
  "na-ama": 1024,
  "katọ": 1025,
  "Ada": 1026,
  "ga-adị": 1027,
  "bụrụkwa": 1028,
  "mahadum": 1029,
  "anyị.": 1030,
  "alụ": 1031,
  "saụt": 1032,
  "minista": 1033,
  "mkpọrọ": 1034,
  "dia": 1035,
  "ahọ": 1036,
  "asị": 1037,
  "\".\"": 1038,
  "ted": 1039,
  "shịa": 1040,
  "e,": 1041,
  "nwekwara": 1042,
  "meriri": 1043,
  "Ar": 1044,
  "ịrụ": 1045,
  "Tru": 1046,
  "ọtọ": 1047,
  "obiano": 1048,
  "na-efe": 1049,
  "naghị": 1050,
  "akara": 1051,
  "aja": 1052,
  "Oko": 1053,
  "na-enwe": 1054,
  "na-eru": 1055,
  "na-agụ": 1056,
  "ajọ": 1057,
  "sie": 1058,
  "eluigwe": 1059,
  "dọkịta": 1060,
  "fi": 1061,
  "ọna": 1062,
  "omenala": 1063,
  "oku": 1064,
  "amụma": 1065,
  "ịga": 1066,
  "pụtala": 1067,
  "kpatara": 1068,
  "ọdọ": 1069,
  "gaghị": 1070,
  "eche": 1071,
  "So": 1072,
  "ty": 1073,
  "kọmi": 1074,
  "ọma.": 1075,
  "okwukwe": 1076,
  "ntoro": 1077,
  "bụ,": 1078,
  "ọkacha": 1079,
  "ọba": 1080,
  "ntorobịa": 1081,
  "anyị,": 1082,
  "ad": 1083,
  "Ab": 1084,
  "na-ebu": 1085,
  "Wil": 1086,
  "IN": 1087,
  "ikwu": 1088,
  "co": 1089,
  "Eag": 1090,
  "tan": 1091,
  "gawa": 1092,
  "es": 1093,
  "INEC": 1094,
  "jụrụ": 1095,
  "ga-enye": 1096,
  "Trump": 1097,
  "FC": 1098,
  "ọhịa": 1099,
  "vid": 1100,
  "rụrụ": 1101,
  "nwetara": 1102,
  "mwakpo": 1103,
  "akpụ": 1104,
  "Af": 1105,
  "ebighị": 1106,
  "United": 1107,
  "omume": 1108,
  "nwan": 1109,
  "usoro": 1110,
  "ngagharịiwe": 1111,
  "ity": 1112,
  "ike,": 1113,
  "baịbụl.": 1114,
  "Ka": 1115,
  "onweghị": 1116,
  "Sa": 1117,
  "nọchi": 1118,
  "kpọku": 1119,
  "Ne": 1120,
  "Ade": 1121,
  "njọ": 1122,
  "ihe.": 1123,
  "ga-agba": 1124,
  "doro": 1125,
  "Se": 1126,
  "Eagles": 1127,
  "ten": 1128,
  "ss": 1129,
  "na\"": 1130,
  "iz": 1131,
  "goro": 1132,
  "od": 1133,
  "nnamdi": 1134,
  "echiche": 1135,
  "baka": 1136,
  "vo": 1137,
  "ọw": 1138,
  "Ri": 1139,
  "Mi": 1140,
  "ụlọụka": 1141,
  "ọgọ": 1142,
  "obi.": 1143,
  "metụ": 1144,
  "akụkụ": 1145,
  "lik": 1146,
  "kedụ": 1147,
  "chineke,": 1148,
  "arịta": 1149,
  "ani": 1150,
  "Obi": 1151,
  "ịtụ": 1152,
  "wakporo": 1153,
  "ur": 1154,
  "ume": 1155,
  "turu": 1156,
  "fo": 1157,
  "a:": 1158,
  "ọwụwa": 1159,
  "and": 1160,
  "pt": 1161,
  "nda": 1162,
  "else": 1163,
  "Ba": 1164,
  "ọfụ": 1165,
  "pọl": 1166,
  "na-egosi": 1167,
  "ir": 1168,
  "merie": 1169,
  "iyi": 1170,
  "fere": 1171,
  "ebo": 1172,
  "chọpụtara": 1173,
  "con": 1174,
  "na-esi": 1175,
  "Chelse": 1176,
  "wụ": 1177,
  "ohi": 1178,
  "dio": 1179,
  "City": 1180,
  ",\"": 1181,
  "ọgbọ": 1182,
  "na-eso": 1183,
  "katọlik": 1184,
  "izrel": 1185,
  "ine": 1186,
  "son": 1187,
  "land": 1188,
  "kwalite": 1189,
  "chineke.": 1190,
  "onyi": 1191,
  "enyemaka": 1192,
  "emume": 1193,
  "ụnya": 1194,
  "taghị": 1195,
  "nihu": 1196,
  "abuja": 1197,
  "tional": 1198,
  "pool": 1199,
  "inwe": 1200,
  "eziokwu.": 1201,
  "Moha": 1202,
  "verpool": 1203,
  "oriri": 1204,
  "na-akwado": 1205,
  "Liverpool": 1206,
  "200": 1207,
  "shịal": 1208,
  "oli": 1209,
  "na-adịghị": 1210,
  "isiokwu": 1211,
  "fada": 1212,
  "soshịal": 1213,
  "pụla": 1214,
  "nji": 1215,
  "ewe": 1216,
  "ci": 1217,
  "akị": 1218,
  "achụ": 1219,
  "Sou": 1220,
  "De": 1221,
  "na-ekpe": 1222,
  "gụọ": 1223,
  "..": 1224,
  "zde": 1225,
  "ogbu": 1226,
  "Afri": 1227,
  "\"\"": 1228,
  "jeri": 1229,
  "agu": 1230,
  "Ca": 1231,
  "'.": 1232,
  "ọkaiwu": 1233,
  "ọmụ": 1234,
  "onyinye": 1235,
  "juru": 1236,
  "Chelsea": 1237,
  "tri": 1238,
  "oyi": 1239,
  "ọ\"": 1240,
  "na-agwa": 1241,
  "kpọọ": 1242,
  "ing": 1243,
  "akpọ": 1244,
  "ụlọakwụkwọ": 1245,
  "ode": 1246,
  "onyo": 1247,
  "isi.": 1248,
  "iche.": 1249,
  "ọgbaaghara": 1250,
  "sịghị": 1251,
  "onyonyo": 1252,
  "mmadụ.": 1253,
  "ekpe": 1254,
  "e.": 1255,
  "arc": 1256,
  "aka,": 1257,
  "2019.": 1258,
  "ugbua,": 1259,
  "ment": 1260,
  "ham": 1261,
  "chu": 1262,
  "To": 1263,
  "rịọ": 1264,
  "net": 1265,
  "na-ere": 1266,
  "agbọ": 1267,
  "ọbara": 1268,
  "na-ewe": 1269,
  "mgb": 1270,
  "chester": 1271,
  "Manchester": 1272,
  "wit": 1273,
  "nwanne": 1274,
  "mmed": 1275,
  "gharịa": 1276,
  "ụwa.": 1277,
  "ort": 1278,
  "mama": 1279,
  "kwuru.": 1280,
  "South": 1281,
  "madu": 1282,
  "ite": 1283,
  "bie": 1284,
  "2018": 1285,
  "gee": 1286,
  "dịghị": 1287,
  "abụọ.": 1288,
  "ụra": 1289,
  "okpukpe": 1290,
  "okorocha": 1291,
  "ala.": 1292,
  "ọgbu": 1293,
  "ly": 1294,
  "godị": 1295,
  "ak": 1296,
  "Ja": 1297,
  "El": 1298,
  "ọnị": 1299,
  "ọnịcha": 1300,
  "vootu": 1301,
  "ry": 1302,
  "omeka": 1303,
  "mbere": 1304,
  "kpọrọ\"": 1305,
  "chas": 1306,
  "Sta": 1307,
  "Rochas": 1308,
  "Nwo": 1309,
  "na-ekwuru": 1310,
  "for": 1311,
  "ọchịehi": 1312,
  "ya?": 1313,
  "ope": 1314,
  "nyela": 1315,
  "aga.": 1316,
  "Fran": 1317,
  "Arse": 1318,
  "va": 1319,
  "na-ata": 1320,
  "mberede": 1321,
  "ede": 1322,
  "Bi": 1323,
  "nle": 1324,
  "kpu": 1325,
  "ga-aga": 1326,
  "der": 1327,
  "bri": 1328,
  "agbọghọ": 1329,
  "aga,": 1330,
  "Arsenal": 1331,
  "nụrụ": 1332,
  "akịrịka": 1333,
  "Mohammed": 1334,
  "Fe": 1335,
  "“ọ": 1336,
  "nwụọ": 1337,
  "ijipt": 1338,
  "emeela": 1339,
  "Peter": 1340,
  "setan": 1341,
  "nọọ": 1342,
  "juu": 1343,
  "gbata": 1344,
  "',": 1345,
  "kọtara": 1346,
  "gharịrị": 1347,
  "ọkammụta": 1348,
  "ky": 1349,
  "10": 1350,
  "ịkpa": 1351,
  "witter": 1352,
  "tala": 1353,
  "s,": 1354,
  "ong": 1355,
  "kweremadu": 1356,
  "batara": 1357,
  "atụ,": 1358,
  "Ekweremadu": 1359,
  "000": 1360,
  "taa.": 1361,
  "omekaome": 1362,
  "na-eri": 1363,
  "nhọpụta": 1364,
  "kọmish": 1365,
  "ekele": 1366,
  "ber": 1367,
  "anwụọla": 1368,
  "Pre": 1369,
  "Ke": 1370,
  "ụwa,": 1371,
  "wi": 1372,
  "uju": 1373,
  "s.": 1374,
  "our": 1375,
  "mkparịta": 1376,
  "gidere": 1377,
  "Eze": 1378,
  "Abu": 1379,
  "ọrụ.": 1380,
  "ozugbo": 1381,
  "mpụ": 1382,
  "kọmishọna": 1383,
  "cy": 1384,
  "aru": 1385,
  "ala,": 1386,
  "ịlụ": 1387,
  "na-abụ": 1388,
  "naeze": 1389,
  "mkpu": 1390,
  "jo": 1391,
  "eziokwu,": 1392,
  "eh": 1393,
  "a?": 1394,
  "ịkpọ": 1395,
  "zịrị": 1396,
  "nwereike": 1397,
  "kwasị": 1398,
  "1,": 1399,
  "ọkaikpe": 1400,
  "ọgụgụ": 1401,
  "rụọ": 1402,
  "ogbuni": 1403,
  "ogbunigwe": 1404,
  "n,": 1405,
  "iro": 1406,
  ").": 1407,
  "ọhanaeze": 1408,
  "warị": 1409,
  "im": 1410,
  ".”)": 1411,
  "nkị": 1412,
  "mmehie": 1413,
  "kwụrụ": 1414,
  "ije": 1415,
  "ga-enwe": 1416,
  "edo": 1417,
  "ahụike": 1418,
  "wepụtara": 1419,
  "wer": 1420,
  "n.": 1421,
  "megide": 1422,
  "ihe,": 1423,
  "ọrụ,": 1424,
  "ọdịnihu": 1425,
  "ssi": 1426,
  "egbuola": 1427,
  "Joh": 1428,
  "14": 1429,
  "midia": 1430,
  "hapụrụ": 1431,
  "maara": 1432,
  "hazi": 1433,
  "baịbụl,": 1434,
  "ndịigbo": 1435,
  "mkpebi": 1436,
  "igbu": 1437,
  "ghe": 1438,
  "enyela": 1439,
  "ewu": 1440,
  "China": 1441,
  "ịmata": 1442,
  "ta.": 1443,
  "nọchite": 1444,
  "mpe": 1445,
  "mma,": 1446,
  "ire": 1447,
  "fra": 1448,
  "atụrụ": 1449,
  "15": 1450,
  "),": 1451,
  "ndịagha": 1452,
  "nkwe": 1453,
  "makana": 1454,
  "Eme": 1455,
  "ụlọọgwụ": 1456,
  "ụjọ": 1457,
  "rue": 1458,
  "niile,": 1459,
  "na-arị": 1460,
  "devid": 1461,
  "bịafra": 1462,
  "We": 1463,
  "Oke": 1464,
  "Mar": 1465,
  "yọọ": 1466,
  "ph": 1467,
  "nwayọọ": 1468,
  "na-amụ": 1469,
  "mmadụ,": 1470,
  "metụtara": 1471,
  "achọghị": 1472,
  "__": 1473,
  "Be": 1474,
  "satọ": 1475,
  "na-enweghị": 1476,
  "gburugburu": 1477,
  "ga-anọ": 1478,
  "amalite": 1479,
  "agbata": 1480,
  "ata": 1481,
  "Nor": 1482,
  "satọde": 1483,
  "ngw": 1484,
  "gị,": 1485,
  "ga-enyere": 1486,
  "ction": 1487,
  "ụtọ.": 1488,
  "sị,": 1489,
  "nter": 1490,
  "fee": 1491,
  "Zi": 1492,
  "Sara": 1493,
  "SS": 1494,
  "Chris": 1495,
  "zara": 1496,
  "shi": 1497,
  "mị": 1498,
  "kwaghị": 1499,
  "duna": 1500,
  "Nna": 1501,
  "ụlọakụ": 1502,
  "ọdịnala": 1503,
  "tius": 1504,
  "rid": 1505,
  "iru": 1506,
  "Ra": 1507,
  "Leagu": 1508,
  "ịgụ": 1509,
  "obi,": 1510,
  "na-egbu": 1511,
  "mọ": 1512,
  "elekere": 1513,
  "egwuregwu,": 1514,
  "na-azụ": 1515,
  "naụba": 1516,
  "lata": 1517,
  "fufe": 1518,
  "chapụ": 1519,
  "Ser": 1520,
  "2017": 1521,
  "ọfụma": 1522,
  "tha": 1523,
  "sha": 1524,
  "nzuzo": 1525,
  "nabata": 1526,
  "lic": 1527,
  "kata": 1528,
  "ja.": 1529,
  "Lago": 1530,
  "ọgbugbu": 1531,
  "uru.": 1532,
  "na-ebi": 1533,
  "na-atọ": 1534,
  "laị": 1535,
  "gị.": 1536,
  "akụnaụba": 1537,
  "akpọrọ": 1538,
  "agwọ": 1539,
  "Osi": 1540,
  "Chukwu": 1541,
  "ugbua.": 1542,
  "tiusde": 1543,
  "putara": 1544,
  "kan": 1545,
  "ekwentị": 1546,
  "abụrụ": 1547,
  "Pau": 1548,
  "ọnụ.": 1549,
  "ịchị": 1550,
  "nkịtị": 1551,
  "na-alụ": 1552,
  "kwo": 1553,
  "Willie": 1554,
  "Or": 1555,
  "Ju": 1556,
  "FCC": 1557,
  "ụmụnne": 1558,
  "ụda": 1559,
  "ọgọst": 1560,
  "ọdọụgbọelu": 1561,
  "wute": 1562,
  "rie": 1563,
  "pị": 1564,
  "naịjirịa,": 1565,
  "na-akwụ": 1566,
  "lere": 1567,
  "gụrụ": 1568,
  "gbochi": 1569,
  "tor": 1570,
  "sonye": 1571,
  "na-anọ": 1572,
  "nchọpụta": 1573,
  "kpụrụ": 1574,
  "icheiche": 1575,
  "chitere": 1576,
  "agụmba": 1577,
  "abụọ,": 1578,
  "yo": 1579,
  "wepụ": 1580,
  "nnyocha": 1581,
  "mfe": 1582,
  "igbo,": 1583,
  "itinye": 1584,
  "ijeri": 1585,
  "dịkwa": 1586,
  "chaghị": 1587,
  "bakar": 1588,
  "ard": 1589,
  "weere": 1590,
  "olile": 1591,
  "nnọọ": 1592,
  "mkpesa": 1593,
  "mbaụwa": 1594,
  "Uma": 1595,
  "Ude": 1596,
  "Twitter": 1597,
  "Pro": 1598,
  "Adam": 1599,
  "1)": 1600,
  "zute": 1601,
  "ogolo": 1602,
  "ogologo": 1603,
  "mmekọrịta": 1604,
  "man": 1605,
  "efu": 1606,
  "bụkwanụ": 1607,
  "briten": 1608,
  "Abubakar": 1609,
  "ọmụmụ": 1610,
  "uro": 1611,
  "sitere": 1612,
  "mere.": 1613,
  "k,": 1614,
  "idi": 1615,
  "gbasa": 1616,
  "ga-ahụ": 1617,
  "ebonyi": 1618,
  "chọọchị": 1619,
  "Paul": 1620,
  "Me": 1621,
  "Gu": 1622,
  "na-azọ": 1623,
  "liri": 1624,
  "ga-ebi": 1625,
  "ezum": 1626,
  "butere": 1627,
  "GA": 1628,
  "EFCC": 1629,
  "2015": 1630,
  "ther": 1631,
  "ogbe": 1632,
  "ndị)": 1633,
  "leba": 1634,
  "lụrụ": 1635,
  "atọ.": 1636,
  "State": 1637,
  "NA": 1638,
  "yin": 1639,
  "state": 1640,
  "ria": 1641,
  "raịde": 1642,
  "merụrụ": 1643,
  "latri": 1644,
  "kọọ": 1645,
  "gwo": 1646,
  "fraịde": 1647,
  "akwado": 1648,
  "Ihe": 1649,
  "tic": 1650,
  "papa": 1651,
  "nyeere": 1652,
  "na-enyere": 1653,
  "mmanya": 1654,
  "kịrị": 1655,
  "ga-akpọ": 1656,
  "Inter": 1657,
  "Go": 1658,
  "23": 1659,
  "ọda": 1660,
  "senet": 1661,
  "san": 1662,
  "pi": 1663,
  "ofesi,": 1664,
  "nwụchi": 1665,
  "New": 1666,
  "ọṅụ": 1667,
  "ịkwụ": 1668,
  "okorobịa": 1669,
  "nkịta": 1670,
  "gachara": 1671,
  "fa": 1672,
  "debe": 1673,
  "bụ\"": 1674,
  "Fu": 1675,
  "El-": 1676,
  "2,": 1677,
  "zaky": 1678,
  "ton": 1679,
  "nwaafọ": 1680,
  "ndị\"": 1681,
  "mbu": 1682,
  "iche,": 1683,
  "hab": 1684,
  "bra": 1685,
  "akzaky": 1686,
  "awa": 1687,
  "Zakzaky": 1688,
  "Ike": 1689,
  "Bo": 1690,
  "ọkpara": 1691,
  "yiri": 1692,
  "nue": 1693,
  "na-ekwe": 1694,
  "mpụtara": 1695,
  "mbi": 1696,
  "gabe": 1697,
  "ebere": 1698,
  "dọla": 1699,
  "Saraki": 1700,
  "Mugabe": 1701,
  "Au": 1702,
  "17": 1703,
  "zuo": 1704,
  "pụọ": 1705,
  "ofufe": 1706,
  "na-aka": 1707,
  "kwanyere": 1708,
  "guzo": 1709,
  "gboo": 1710,
  "okwu.": 1711,
  "mụtara": 1712,
  "mọdụ": 1713,
  "jehova.": 1714,
  "gbuola": 1715,
  "fọrọ": 1716,
  "anwụchiela": 1717,
  "Lagos": 1718,
  "ndụmọdụ": 1719,
  "n'\"": 1720,
  "kwaa": 1721,
  "iku": 1722,
  "efe": 1723,
  "dị,": 1724,
  "Pa": 1725,
  "Di": 1726,
  "ọma,": 1727,
  "nkata": 1728,
  "na-ada": 1729,
  "nrọ": 1730,
  "foto": 1731,
  "enweta": 1732,
  "bụbu": 1733,
  "benue": 1734,
  "amata": 1735,
  "agụụ": 1736,
  "18": 1737,
  "ụmụafọ": 1738,
  "zutere": 1739,
  "ife": 1740,
  "ezumike": 1741,
  "eto": 1742,
  "Cha": 1743,
  "Africa": 1744,
  "APGA": 1745,
  "puta": 1746,
  "mmepe": 1747,
  "kaduna": 1748,
  "egosi": 1749,
  "baara": 1750,
  "agbụrụ": 1751,
  "azọ": 1752,
  "?”": 1753,
  "ịny": 1754,
  "ohu": 1755,
  "latrik": 1756,
  "ga-akwụ": 1757,
  "eso": 1758,
  "drid": 1759,
  "anyị\"": 1760,
  "akwụkwọ.": 1761,
  "aghọ": 1762,
  "apụta": 1763,
  "Ta": 1764,
  "No": 1765,
  "Madrid": 1766,
  "Ele": 1767,
  "ọkụkọ": 1768,
  "ịṅụ": 1769,
  "ourt": 1770,
  "okenye": 1771,
  "ndụ.": 1772,
  "mgbede": 1773,
  "miri": 1774,
  "kwala": 1775,
  "enyo": 1776,
  "amaokwu": 1777,
  "Bri": 1778,
  "1.": 1779,
  "ọkachamara": 1780,
  "ịzọ": 1781,
  "okporoụzọ": 1782,
  "ower": 1783,
  "njikere": 1784,
  "nara": 1785,
  "mkparịtaụka": 1786,
  "mba.": 1787,
  "kwụọ": 1788,
  "dan": 1789,
  "akụrụ": 1790,
  "13": 1791,
  "ịnta": 1792,
  "ịntane": 1793,
  "ịntaneti": 1794,
  "ịba": 1795,
  "wore": 1796,
  "pụrụiche": 1797,
  "ona": 1798,
  "na-eme.": 1799,
  "na-etinye": 1800,
  "enyere": 1801,
  "Sowore": 1802,
  "Ru": 1803,
  "Ama": 1804,
  "199": 1805,
  "ụtụ": 1806,
  "ọdachi": 1807,
  "ịkwụsị": 1808,
  "olileanya": 1809,
  "jị": 1810,
  "enweghi": 1811,
  "ahị": 1812,
  "Vi": 1813,
  "ọdịda": 1814,
  "ọbasan": 1815,
  "ọbasanjọ": 1816,
  "ịkwalite": 1817,
  "the": 1818,
  "steeti,": 1819,
  "saa": 1820,
  "na-ekwuchitere": 1821,
  "agha.": 1822,
  "Ihedio": 1823,
  "Ibra": 1824,
  "na-akụzi": 1825,
  "nata": 1826,
  "mgbere": 1827,
  "ld": 1828,
  "jiji": 1829,
  "inweta": 1830,
  "gun": 1831,
  "ese": 1832,
  "bụzị": 1833,
  "AS": 1834,
  "wene": 1835,
  "spe": 1836,
  "jide": 1837,
  "chịrị": 1838,
  "beghi": 1839,
  "Te": 1840,
  "Nwa": 1841,
  "Ge": 1842,
  "ịghọta": 1843,
  "wenezde": 1844,
  "onyeozi": 1845,
  "na-arịọ": 1846,
  "na-akụziri": 1847,
  "na-acha": 1848,
  "merụ": 1849,
  "kwazie": 1850,
  "arịrị": 1851,
  "anyi": 1852,
  "apụ": 1853,
  "Ga": 1854,
  "ọkọ": 1855,
  "ịkụ": 1856,
  "ịchụ": 1857,
  "stra": 1858,
  "qu": 1859,
  "obibi": 1860,
  "na-ede": 1861,
  "na-asụ": 1862,
  "ngwụ": 1863,
  "nchị": 1864,
  "ebido": 1865,
  "Ibrahi": 1866,
  "Ghana": 1867,
  "ọọla": 1868,
  "ọkara": 1869,
  "ọjị": 1870,
  "ọkpọ": 1871,
  "up": 1872,
  "sti": 1873,
  "pase": 1874,
  "osimiri": 1875,
  "igbo.": 1876,
  "ga-ebu": 1877,
  "boro": 1878,
  "ahịhịa": 1879,
  "aṅụ": 1880,
  "Ife": 1881,
  "FA": 1882,
  "4.": 1883,
  "16": 1884,
  "ọkachasị": 1885,
  "ọk": 1886,
  "sịga": 1887,
  "omi": 1888,
  "na-akọwa": 1889,
  "mbụ.": 1890,
  "mkpọ": 1891,
  "iso": 1892,
  "inyere": 1893,
  "gen": 1894,
  "ezie": 1895,
  "anwụrụ": 1896,
  "akụrụngwa": 1897,
  "akarị": 1898,
  "agw": 1899,
  "Nwosu": 1900,
  "Is": 1901,
  "Fal": 1902,
  "sena": 1903,
  "na-akwa": 1904,
  "national": 1905,
  "mọnde": 1906,
  "mas": 1907,
  "mgbọ": 1908,
  "ibi": 1909,
  "ga-achị": 1910,
  "gaara": 1911,
  "ebum": 1912,
  "arụrụ": 1913,
  "Olu": 1914,
  "National": 1915,
  "riri": 1916,
  "nkwekọrịta": 1917,
  "na-eto": 1918,
  "na-enyo": 1919,
  "na-ebo": 1920,
  "nrụrụ": 1921,
  "mbab": 1922,
  "mbabwe": 1923,
  "lani": 1924,
  "kpebiri": 1925,
  "ga-abara": 1926,
  "bia": 1927,
  "akwụsị": 1928,
  "Zimbabwe": 1929,
  "Wa": 1930,
  "US": 1931,
  "Ti": 1932,
  "Ihedioha": 1933,
  "Ibrahim": 1934,
  "ọkụ.": 1935,
  "senatọ": 1936,
  "ral": 1937,
  "pịa": 1938,
  "na-ajụ": 1939,
  "meere": 1940,
  "kụzi": 1941,
  "kara": 1942,
  "gbanwee": 1943,
  "ejiri": 1944,
  "by": 1945,
  "are": 1946,
  "anambra,": 1947,
  "Premi": 1948,
  "Pla": 1949,
  "Madu": 1950,
  "El-Zakzaky": 1951,
  "Ah": 1952,
  "ọnwụ.": 1953,
  "ọkafọ": 1954,
  "ọzụ": 1955,
  "ịnya": 1956,
  "ịcha": 1957,
  "ubi": 1958,
  "tela": 1959,
  "opekata": 1960,
  "nwetere": 1961,
  "ngo": 1962,
  "izuụka": 1963,
  "asatara": 1964,
  "ON": 1965,
  "Nai": 1966,
  "League": 1967,
  "ụfọdụ,": 1968,
  "ute": 1969,
  "ule": 1970,
  "na-elekọta": 1971,
  "na-eti": 1972,
  "mụọ": 1973,
  "maachị": 1974,
  "ga-ewe": 1975,
  "ga-akwụsị": 1976,
  "ekweghị": 1977,
  "egwu.": 1978,
  "arcourt": 1979,
  "agbaala": 1980,
  "Port": 1981,
  "International": 1982,
  "Harcourt": 1983,
  "Emma": 1984,
  "30": 1985,
  "“onye": 1986,
  "ọkto": 1987,
  "ọktoba": 1988,
  "ọchịchị.": 1989,
  "ịzụ": 1990,
  "ịmụ": 1991,
  "tọzde": 1992,
  "tuo": 1993,
  "sịa": 1994,
  "na-eke": 1995,
  "mita": 1996,
  "makwụ": 1997,
  "ll": 1998,
  "ero": 1999,
  "dee": 2000,
  "bish": 2001,
  "a\"": 2002,
  "Comm": 2003,
  "Ale": 2004,
  "2.": 2005,
  "ụgha": 2006,
  "taa,": 2007,
  "otu,": 2008,
  "oriakụ": 2009,
  "mere,": 2010,
  "makwụkwọ": 2011,
  "kwanụ": 2012,
  "ga-achọ": 2013,
  "Premier": 2014,
  "Jona": 2015,
  "2)": 2016,
  "ụnyaahụ": 2017,
  "otu.": 2018,
  "nba": 2019,
  "lọta": 2020,
  "kụrụ": 2021,
  "kweere": 2022,
  "kwa,": 2023,
  "furu": 2024,
  "ekwesịghị": 2025,
  "akọ": 2026,
  "Falcon": 2027,
  "ụmụnwoke": 2028,
  "ụbụrụ": 2029,
  "ọzụzụ": 2030,
  "ya.”": 2031,
  "rịọrọ": 2032,
  "omebe": 2033,
  "nke\"": 2034,
  "ncheta": 2035,
  "nbajo": 2036,
  "nturu": 2037,
  "ndi": 2038,
  "med": 2039,
  "jụọ": 2040,
  "ise.": 2041,
  "ihe\"": 2042,
  "biga": 2043,
  "achịcha": 2044,
  "Osinbajo": 2045,
  "Mbaka": 2046,
  "Ger": 2047,
  "Bra": 2048,
  "ụma": 2049,
  "na-enyocha": 2050,
  "na-akọ": 2051,
  "ctor": 2052,
  "atọ,": 2053,
  "arcel": 2054,
  "afọ.": 2055,
  "agwụ": 2056,
  "St": 2057,
  "Bro": 2058,
  "Alex": 2059,
  "Aba": 2060,
  "ịnyịnya": 2061,
  "ore": 2062,
  "nsu": 2063,
  "mpion": 2064,
  "mkpamkpa": 2065,
  "mbe": 2066,
  "kwuo,": 2067,
  "họpụtara": 2068,
  "ghọọ": 2069,
  "emi": 2070,
  "emere": 2071,
  "can": 2072,
  "akpara": 2073,
  "Willi": 2074,
  "Onye": 2075,
  "John": 2076,
  "Face": 2077,
  "Emeka": 2078,
  "David": 2079,
  "Air": 2080,
  "2016": 2081,
  "ọgwụgwụ": 2082,
  "ugbo": 2083,
  "obodo.": 2084,
  "nyụ": 2085,
  "ntọrị": 2086,
  "nnewi": 2087,
  "nia": 2088,
  "mozu": 2089,
  "mgbasaozi": 2090,
  "mgbanwe": 2091,
  "ary": 2092,
  "akwamozu": 2093,
  "agbidi": 2094,
  "awụ": 2095,
  "William": 2096,
  "Wor": 2097,
  "MA": 2098,
  "Jonatha": 2099,
  "Camer": 2100,
  "ọbụla.": 2101,
  "sịkwa": 2102,
  "s:": 2103,
  "rom": 2104,
  "ikuku": 2105,
  "idemmiri": 2106,
  "ego.": 2107,
  "ewere": 2108,
  "day": 2109,
  "aribe": 2110,
  "arọ": 2111,
  "ahu": 2112,
  "Ha": 2113,
  "DSS": 2114,
  "Con": 2115,
  "Bor": 2116,
  "Ai": 2117,
  "ịta": 2118,
  "sụgharịrị": 2119,
  "sia": 2120,
  "pita": 2121,
  "o\"": 2122,
  "na-anaghị": 2123,
  "maa": 2124,
  "mmi": 2125,
  "la.": 2126,
  "kwụsịrị": 2127,
  "kweta": 2128,
  "jidere": 2129,
  "cho": 2130,
  "bert": 2131,
  "alth": 2132,
  "akaebe": 2133,
  "Yo": 2134,
  "Sam": 2135,
  "Fulani": 2136,
  "Abdu": 2137,
  "Ana": 2138,
  "na-arịa": 2139,
  "nzụ": 2140,
  "kansa": 2141,
  "julaị": 2142,
  "isi,": 2143,
  "bre": 2144,
  "She": 2145,
  "Riva": 2146,
  "Naija": 2147,
  "Mba": 2148,
  "Feder": 2149,
  "Euro": 2150,
  "Champion": 2151,
  "Abaribe": 2152,
  "Adi": 2153,
  "“ndị": 2154,
  "yen": 2155,
  "ves": 2156,
  "tụnyere": 2157,
  "tọọrọ": 2158,
  "toro": 2159,
  "rịrị": 2160,
  "pan": 2161,
  "ngwụcha": 2162,
  "nchịkọta": 2163,
  "na-emekwa": 2164,
  "mmasị": 2165,
  "lla": 2166,
  "kọmiti": 2167,
  "jere": 2168,
  "ga-ezute": 2169,
  "enwere": 2170,
  "Timo": 2171,
  "Del": 2172,
  "pụta.": 2173,
  "pte": 2174,
  "para": 2175,
  "nsogbu.": 2176,
  "ndị,": 2177,
  "na-enweta": 2178,
  "na-agaghị": 2179,
  "na-anụ": 2180,
  "na,": 2181,
  "meekwa": 2182,
  "kwesi": 2183,
  "kelere": 2184,
  "ime.": 2185,
  "hoo": 2186,
  "ga-eso": 2187,
  "chetara": 2188,
  "anu": 2189,
  "Ut": 2190,
  "Iv": 2191,
  "He": 2192,
  "Falcons": 2193,
  "Eng": 2194,
  "ụnyaahụ.": 2195,
  "zọrọ": 2196,
  "tti": 2197,
  "okwu,": 2198,
  "nwụchiri": 2199,
  "ndo": 2200,
  "mecha": 2201,
  "kwenyere": 2202,
  "ers": 2203,
  "ejije": 2204,
  "arcelona": 2205,
  "Umu": 2206,
  "Jonathan": 2207,
  "Igbo": 2208,
  "Ben": 2209,
  "Barcelona": 2210,
  "“ihe": 2211,
  "ịnọ": 2212,
  "ukwu.": 2213,
  "teau": 2214,
  "ritere": 2215,
  "onald": 2216,
  "odeakwụkwọ": 2217,
  "nzụkọ": 2218,
  "na-anwụ": 2219,
  "ntu": 2220,
  "mpu": 2221,
  "mgbakọ": 2222,
  "mee.": 2223,
  "mbụ,": 2224,
  "ghọtara": 2225,
  "gra": 2226,
  "emeri": 2227,
  "dị.": 2228,
  "anwụ.": 2229,
  "West": 2230,
  "Plateau": 2231,
  "North": 2232,
  "Donald": 2233,
  "Dani": 2234,
  "3,": 2235,
  "\"ọ\"": 2236,
  "ọgwụgwọ": 2237,
  "ọbụladị": 2238,
  "taa:": 2239,
  "sayen": 2240,
  "ondo": 2241,
  "oon": 2242,
  "ok": 2243,
  "nwaanyị.": 2244,
  "na-ezi": 2245,
  "na-ebe": 2246,
  "mmer": 2247,
  "jikọtara": 2248,
  "inọ": 2249,
  "gbụ": 2250,
  "ga-abịa": 2251,
  "bụzi": 2252,
  "World": 2253,
  "Umahi": 2254,
  "France": 2255,
  "Cameroon": 2256,
  "Bay": 2257,
  "25": 2258,
  "“n'": 2259,
  "“m": 2260,
  "ọjọọ.": 2261,
  "septe": 2262,
  "na-ebute": 2263,
  "nkụ": 2264,
  "mbodo": 2265,
  "ili": 2266,
  "ga-eri": 2267,
  "ehihi": 2268,
  "echichi": 2269,
  "ebi.": 2270,
  "asambodo": 2271,
  "Utd": 2272,
  "The": 2273,
  "Robert": 2274,
  "Lib": 2275,
  "Delta": 2276,
  "ọnụ,": 2277,
  "zaa": 2278,
  "tus": 2279,
  "opekatampe": 2280,
  "na-abụghị": 2281,
  "laa": 2282,
  "kraịst,": 2283,
  "kama,": 2284,
  "ehu": 2285,
  "cu": 2286,
  "akwụkwọ,": 2287,
  "akatọ": 2288,
  "aku": 2289,
  "Shi": 2290,
  "Rivas": 2291,
  "Oba": 2292,
  "Londo": 2293,
  "IM": 2294,
  "Aisha": 2295,
  "100": 2296,
  "-ndị": 2297,
  "ịchafụ": 2298,
  "ịkwa": 2299,
  "zọpụta": 2300,
  "thi": 2301,
  "ssion": 2302,
  "sayensị": 2303,
  "owerri": 2304,
  "ogbenye": 2305,
  "oma": 2306,
  "na-eyi": 2307,
  "min": 2308,
  "mbido": 2309,
  "cra": 2310,
  "agụmakwụkwọ": 2311,
  "abụrụla": 2312,
  "UK": 2313,
  "12": 2314,
  "ịmụta": 2315,
  "yinbo": 2316,
  "uhie": 2317,
  "toyinbo": 2318,
  "tiri": 2319,
  "tten": 2320,
  "ree": 2321,
  "nson": 2322,
  "nkume": 2323,
  "maghị": 2324,
  "lia": 2325,
  "jama": 2326,
  "jamanị": 2327,
  "inọk": 2328,
  "gachara,": 2329,
  "ga-amalite": 2330,
  "daa": 2331,
  "amerịka.": 2332,
  "adịgboro": 2333,
  "Tu": 2334,
  "Ibi": 2335,
  "Hu": 2336,
  "Ebo": 2337,
  "Christi": 2338,
  "ụta": 2339,
  "tum": 2340,
  "mkpa.": 2341,
  "mgbochi": 2342,
  "ley": 2343,
  "lịa": 2344,
  "lara": 2345,
  "họrọ": 2346,
  "hu": 2347,
  "gbaara": 2348,
  "dike": 2349,
  "agbanye": 2350,
  "afrịka.": 2351,
  "agbara": 2352,
  "____": 2353,
  "Totten": 2354,
  "Real": 2355,
  "Niger": 2356,
  "Daniel": 2357,
  "AFC": 2358,
  "3.": 2359,
  "2019:": 2360,
  "-O": 2361,
  "ụghọ": 2362,
  "ọnụọgụgụ": 2363,
  "ọbụghị": 2364,
  "ịhụna": 2365,
  "ịda": 2366,
  "zụrụ": 2367,
  "te,": 2368,
  "sonyere": 2369,
  "sọọ": 2370,
  "pp": 2371,
  "oge,": 2372,
  "nuel": 2373,
  "nturuugo": 2374,
  "na-aṅụ": 2375,
  "nghọta": 2376,
  "ndu": 2377,
  "mes": 2378,
  "jizọs,": 2379,
  "iche-": 2380,
  "ina": 2381,
  "ghọrọ": 2382,
  "ga-arụ": 2383,
  "biko": 2384,
  "aghụghọ": 2385,
  "Shehu": 2386,
  "Okoro": 2387,
  "Facebo": 2388,
  "Fatoyinbo": 2389,
  "Demo": 2390,
  "Commi": 2391,
  "AFCON": 2392,
  "Ara": 2393,
  "9.": 2394,
  "6,": 2395,
  "2019,": 2396,
  "28": 2397,
  "-A": 2398,
  "“a": 2399,
  "ụmụnna": 2400,
  "ụdịrị": 2401,
  "zọọ": 2402,
  "wanye": 2403,
  "vs": 2404,
  "osika": 2405,
  "nweela": 2406,
  "na-amasị": 2407,
  "megidere": 2408,
  "kra": 2409,
  "jikwa": 2410,
  "ja,": 2411,
  "ga-asị": 2412,
  "gri": 2413,
  "fuo": 2414,
  "ekpere,": 2415,
  "egwu,": 2416,
  "chite": 2417,
  "azụma": 2418,
  "arịrịọ": 2419,
  "Timoti": 2420,
  "Rev": 2421,
  "Lu": 2422,
  "5.": 2423,
  "...": 2424,
  ".\"ọ\"": 2425,
  "ịkọ": 2426,
  "ịchọ": 2427,
  "sina": 2428,
  "nwaada": 2429,
  "ndịda": 2430,
  "na-echeta": 2431,
  "na-amaghị": 2432,
  "njiri": 2433,
  "njirimara": 2434,
  "mmekọ": 2435,
  "mwute": 2436,
  "ichi": 2437,
  "gbochie": 2438,
  "gal": 2439,
  "ep": 2440,
  "amadi": 2441,
  "ahịa.": 2442,
  "agha,": 2443,
  "Si": 2444,
  "Nigerian": 2445,
  "Dan": 2446,
  "AC": 2447,
  "4)": 2448,
  "(n": 2449,
  "ụbọchị,": 2450,
  "ọlaedo": 2451,
  "puru": 2452,
  "oti": 2453,
  "nọ.": 2454,
  "nri,": 2455,
  "n'ụba": 2456,
  "muel": 2457,
  "mmalite": 2458,
  "mba,": 2459,
  "lement": 2460,
  "kọwaa": 2461,
  "kola": 2462,
  "etinyela": 2463,
  "etinye": 2464,
  "ejighị": 2465,
  "dozi": 2466,
  "ama.": 2467,
  "akụn'ụba": 2468,
  "ation": 2469,
  "Tottenham": 2470,
  "Samuel": 2471,
  "Peop": 2472,
  "Ebre": 2473,
  "ọnatara": 2474,
  "ọkụ,": 2475,
  "tọhapụ": 2476,
  "okwute": 2477,
  "odo": 2478,
  "nọve": 2479,
  "nrụrụaka": 2480,
  "nkwụ": 2481,
  "kwuputara": 2482,
  "kwadoro": 2483,
  "ka\"": 2484,
  "jizọs.": 2485,
  "jehova,": 2486,
  "ise,": 2487,
  "izi": 2488,
  "ghachiri": 2489,
  "gbagburu": 2490,
  "ga-enweta": 2491,
  "gakwara": 2492,
  "ekwensu": 2493,
  "bishọ": 2494,
  "aza": 2495,
  "alo": 2496,
  "Ste": 2497,
  "Ola": 2498,
  "Japan": 2499,
  "Emmanuel": 2500,
  "Election": 2501,
  "Champions": 2502,
  "Ahmed": 2503,
  "Agu": 2504,
  "AN": 2505,
  "ụzọ,": 2506,
  "ọnatarachi": 2507,
  "ọhụrụ.": 2508,
  "ọdịmma": 2509,
  "z.": 2510,
  "ress": 2511,
  "onyeisioche": 2512,
  "onyeàmà": 2513,
  "ose": 2514,
  "na-ewu": 2515,
  "kpọkuo": 2516,
  "katọrọ": 2517,
  "juun": 2518,
  "is": 2519,
  "igosi": 2520,
  "bishọp": 2521,
  "anabata": 2522,
  "amalitela": 2523,
  "ahụ?": 2524,
  "agbanyeghi": 2525,
  "Okon": 2526,
  "Okezie": 2527,
  "Je": 2528,
  "Ifeanyi": 2529,
  "Ce": 2530,
  "Brother": 2531,
  "African": 2532,
  "ụzọ.": 2533,
  "ụtọ,": 2534,
  "ụlọ,": 2535,
  "ya\"": 2536,
  "ssa": 2537,
  "noa": 2538,
  "mmegbu": 2539,
  "mechaa": 2540,
  "mar": 2541,
  "kwupụtara": 2542,
  "kana": 2543,
  "gere": 2544,
  "chụpụ": 2545,
  "cia": 2546,
  "bụ.": 2547,
  "azu": 2548,
  "Par": 2549,
  "Joe": 2550,
  "Adamu": 2551,
  "Abi": 2552,
  "“chineke": 2553,
  "ọga": 2554,
  "ịgwa": 2555,
  "ịara": 2556,
  "wala": 2557,
  "um": 2558,
  "tin": 2559,
  "spen": 2560,
  "rịcha": 2561,
  "pti": 2562,
  "nyekwara": 2563,
  "nrite": 2564,
  "na-emepụta": 2565,
  "na-emere": 2566,
  "masịrị": 2567,
  "kilo": 2568,
  "ihere": 2569,
  "ff": 2570,
  "eprel": 2571,
  "emeghị": 2572,
  "ekwesi": 2573,
  "ejide": 2574,
  "eje": 2575,
  "dịịrị": 2576,
  "agwala": 2577,
  "afọ,": 2578,
  "Kano": 2579,
  "Europe": 2580,
  "And": 2581,
  ".”,": 2582,
  "-E": 2583,
  "ọmarịcha": 2584,
  "ọgara": 2585,
  "zil": 2586,
  "ya.\"": 2587,
  "wan": 2588,
  "sele": 2589,
  "ptizi": 2590,
  "ote": 2591,
  "n'obi": 2592,
  "ncha": 2593,
  "mili": 2594,
  "lụọ": 2595,
  "kụọ": 2596,
  "kwesị": 2597,
  "kpee": 2598,
  "koria": 2599,
  "jọn": 2600,
  "ihu.": 2601,
  "idu": 2602,
  "hibere": 2603,
  "ga-aka": 2604,
  "gana": 2605,
  "gy": 2606,
  "ehihie": 2607,
  "eju": 2608,
  "ee": 2609,
  "doo": 2610,
  "daị": 2611,
  "baptizi": 2612,
  "azịza": 2613,
  "amara": 2614,
  "aghọta": 2615,
  "Williams": 2616,
  "Wol": 2617,
  "Tho": 2618,
  "Shia": 2619,
  "Pri": 2620,
  "Ogbo": 2621,
  "Mike": 2622,
  "Ikpe": 2623,
  "Facebook": 2624,
  "England": 2625,
  "CO": 2626,
  "As": 2627,
  "Ali": 2628,
  "ọkpọka": 2629,
  "ọgbụ": 2630,
  "ọgbụgba": 2631,
  "ugwu.": 2632,
  "tho": 2633,
  "sere": 2634,
  "rọshịa": 2635,
  "paradaị": 2636,
  "port": 2637,
  "na-agbalị": 2638,
  "na-aba": 2639,
  "nabatara": 2640,
  "nnọchite": 2641,
  "nkw": 2642,
  "mmechi": 2643,
  "mekwara": 2644,
  "my": 2645,
  "lin": 2646,
  "ga-ekwu": 2647,
  "River": 2648,
  "Obiano": 2649,
  "Job": 2650,
  "Id": 2651,
  "Democra": 2652,
  "Borno": 2653,
  "Bel": 2654,
  "Baba": 2655,
  "24": 2656,
  "ịjụ": 2657,
  "ukwu,": 2658,
  "ude": 2659,
  "nel": 2660,
  "ndụ,": 2661,
  "ndịozi": 2662,
  "mmanwụ": 2663,
  "mebiri": 2664,
  "mgbu": 2665,
  "lian": 2666,
  "leta": 2667,
  "kọọrọ": 2668,
  "jupụtara": 2669,
  "jeru": 2670,
  "fran": 2671,
  "ememme": 2672,
  "egburu": 2673,
  "bọje": 2674,
  "baa": 2675,
  "asaala": 2676,
  "anọ.": 2677,
  "amadị": 2678,
  "alụkwaghị": 2679,
  "Yemi": 2680,
  ":\"": 2681,
  "50": 2682,
  "\",\"": 2683,
  "ụka.": 2684,
  "ọwa": 2685,
  "ọgbara": 2686,
  "uni": 2687,
  "tom": 2688,
  "ongress": 2689,
  "ogogo": 2690,
  "ot": 2691,
  "na-egwu": 2692,
  "na-anọchite": 2693,
  "na-amụta": 2694,
  "mechiri": 2695,
  "kwetara": 2696,
  "kpọpụta": 2697,
  "kasị": 2698,
  "jerusele": 2699,
  "iti": 2700,
  "igbe": 2701,
  "erena": 2702,
  "car": 2703,
  "arba": 2704,
  "Serena": 2705,
  "Sala": 2706,
  "Ikpeazu": 2707,
  "Idris": 2708,
  "Do": 2709,
  "Commission": 2710,
  "Congress": 2711,
  "Clement": 2712,
  "9,": 2713,
  "7,": 2714,
  "ịkwado": 2715,
  "ịdọ": 2716,
  "win": 2717,
  "udu": 2718,
  "pere": 2719,
  "obodo,": 2720,
  "nso.": 2721,
  "na-ekwu.": 2722,
  "na-ese": 2723,
  "kọmpu": 2724,
  "gbapụ": 2725,
  "gbalị": 2726,
  "emee": 2727,
  "ebumn'obi": 2728,
  "bụ:": 2729,
  "ba,": 2730,
  "beri": 2731,
  "ang": 2732,
  "abụbụ": 2733,
  "acha": 2734,
  "Victor": 2735,
  "Sera": 2736,
  "Sy": 2737,
  "Onwu": 2738,
  "Igbokwe": 2739,
  "God": 2740,
  "Brazil": 2741,
  "11": 2742,
  "-3": 2743,
  "ụlọ.": 2744,
  "ọchịchị,": 2745,
  "ịhụnanya": 2746,
  "ịna": 2747,
  "zịkwa": 2748,
  "w.": 2749,
  "vel": 2750,
  "tụọ": 2751,
  "sọọsọ": 2752,
  "sola": 2753,
  "nọ,": 2754,
  "na-agbanyeghị": 2755,
  "nce": 2756,
  "mezuru": 2757,
  "mepụta": 2758,
  "laghachi": 2759,
  "kilomita": 2760,
  "ill": 2761,
  "ice": 2762,
  "ha?": 2763,
  "ha\"": 2764,
  "gbala": 2765,
  "febụ": 2766,
  "febụwarị": 2767,
  "eme.": 2768,
  "ebube": 2769,
  "dun": 2770,
  "deine": 2771,
  "chi,": 2772,
  "chee": 2773,
  "ble": 2774,
  "asaa.": 2775,
  "anyụ": 2776,
  "abuja.": 2777,
  "Okonkwo": 2778,
  "Nnamdi": 2779,
  "Kenya": 2780,
  "India": 2781,
  "Em": 2782,
  "Chibo": 2783,
  "Big": 2784,
  "AR": 2785,
  "198": 2786,
  "“o": 2787,
  "ọdịnihu.": 2788,
  "ọbụrụ": 2789,
  "ịnwụ": 2790,
  "tụbeghị": 2791,
  "pasentị": 2792,
  "nri.": 2793,
  "na-ekwusa": 2794,
  "na-ezu": 2795,
  "na-asị": 2796,
  "nkwu": 2797,
  "mgbaghara": 2798,
  "mbịara": 2799,
  "lah": 2800,
  "kpata": 2801,
  "kiti": 2802,
  "kepu": 2803,
  "imi": 2804,
  "ght": 2805,
  "ga-akpọlite": 2806,
  "azụ.": 2807,
  "anọghị": 2808,
  "adịgboroja": 2809,
  "awakpo": 2810,
  "UN": 2811,
  "Rehab": 2812,
  "Okorocha": 2813,
  "Johnson": 2814,
  "Ibiam": 2815,
  "Garba": 2816,
  "Cos": 2817,
  "Cor": 2818,
  "6.": 2819,
  "2014": 2820,
  "ịgbanwe": 2821,
  "wetara": 2822,
  "sị:\"": 2823,
  "si,": 2824,
  "s\"": 2825,
  "rịtara": 2826,
  "rutere": 2827,
  "praị": 2828,
  "osikapa": 2829,
  "okiri": 2830,
  "ntị.": 2831,
  "na-eje": 2832,
  "nhazi": 2833,
  "kwasịrị": 2834,
  "kpaa": 2835,
  "iche-iche": 2836,
  "ghachị": 2837,
  "gency": 2838,
  "ga-ebido": 2839,
  "gazi": 2840,
  "ford": 2841,
  "ezi.": 2842,
  "ell": 2843,
  "ekpere.": 2844,
  "amaala": 2845,
  "akpọọ": 2846,
  "Ugwu": 2847,
  "NL": 2848,
  "FF": 2849,
  "Davi": 2850,
  "Adichie": 2851,
  "2023": 2852,
  "196": 2853,
  "-anyanwụ": 2854,
  "ọjọọ,": 2855,
  "ven": 2856,
  "oke.": 2857,
  "nọvemba": 2858,
  "nsonso": 2859,
  "nleta": 2860,
  "na-eme,": 2861,
  "na-echegbu": 2862,
  "na-akpata": 2863,
  "kọb": 2864,
  "kwaara": 2865,
  "kraịst.": 2866,
  "kpebi": 2867,
  "jekọb": 2868,
  "igbo?": 2869,
  "gbatara": 2870,
  "gbalịa": 2871,
  "ga-emecha": 2872,
  "ga-etinye": 2873,
  "emepụta": 2874,
  "depụtara": 2875,
  "den": 2876,
  "cial": 2877,
  "bịa.": 2878,
  "bịaru": 2879,
  "bru": 2880,
  "blic": 2881,
  "anwụọ": 2882,
  "amam": 2883,
  "Okoye": 2884,
  "Omo": 2885,
  "Ku": 2886,
  "Joseph": 2887,
  "Char": 2888,
  "Bukola": 2889,
  "7.": 2890,
  "5)": 2891,
  "ọbụla,": 2892,
  "ọsị": 2893,
  "ịlaị": 2894,
  "ịhapụ": 2895,
  "tain": 2896,
  "ogbo": 2897,
  "nwaagbọghọ": 2898,
  "na-agbara": 2899,
  "na.": 2900,
  "merenụ": 2901,
  "mbo": 2902,
  "kọmputa": 2903,
  "kraine": 2904,
  "ji,": 2905,
  "ilu": 2906,
  "gwakwara": 2907,
  "gasị": 2908,
  "gre": 2909,
  "esem": 2910,
  "ekwesị": 2911,
  "chụọ": 2912,
  "chaala": 2913,
  "ane": 2914,
  "ako": 2915,
  "Union": 2916,
  "Udemba": 2917,
  "Ukraine": 2918,
  "Uche": 2919,
  "Osu": 2920,
  "Oj": 2921,
  "NLC": 2922,
  "Mer": 2923,
  "Inno": 2924,
  "Ebreham": 2925,
  "DC": 2926,
  "Cent": 2927,
  "All": 2928,
  "Ang": 2929,
  "An": 2930,
  "8,": 2931,
  "197": 2932,
  "0.": 2933,
  "ụka,": 2934,
  "ọsọ.": 2935,
  "wood": 2936,
  "vice": 2937,
  "teghị": 2938,
  "sokwa": 2939,
  "olly": 2940,
  "ollywood": 2941,
  "og": 2942,
  "o.": 2943,
  "na-emegbu": 2944,
  "na-ewute": 2945,
  "na-achụ": 2946,
  "nrụ": 2947,
  "kpọkuru": 2948,
  "kpọm": 2949,
  "ikwe": 2950,
  "h,": 2951,
  "gị?": 2952,
  "ga-eru": 2953,
  "gafee": 2954,
  "fero": 2955,
  "emebi": 2956,
  "dise": 2957,
  "cis": 2958,
  "ba.": 2959,
  "anọ,": 2960,
  "alakụ": 2961,
  "agbataobi": 2962,
  "Wolves": 2963,
  "Nation": 2964,
  "London": 2965,
  "Bio": 2966,
  "Allah": 2967,
  "9)": 2968,
  "7)": 2969,
  "26": 2970,
  "ọkaibe": 2971,
  "ọgaranya": 2972,
  "zor": 2973,
  "septemba": 2974,
  "ozi.": 2975,
  "nwere.": 2976,
  "na-efegharị": 2977,
  "mmiri.": 2978,
  "mmerụ": 2979,
  "mezuo": 2980,
  "mbara": 2981,
  "machiri": 2982,
  "koro": 2983,
  "ibute": 2984,
  "hibru": 2985,
  "gụnyere:": 2986,
  "gbasaara": 2987,
  "ga-egbu": 2988,
  "ffi": 2989,
  "elu.": 2990,
  "ekwela": 2991,
  "ehab": 2992,
  "e\"": 2993,
  "dy": 2994,
  "ct": 2995,
  "bụla.": 2996,
  "bụla,": 2997,
  "apụtaghị": 2998,
  "akatọọla": 2999,
  "ahụhụ.": 3000,
  "ahụghị": 3001,
  "akp": 3002,
  "ace": 3003,
  "Ume": 3004,
  "Party": 3005,
  "Maduka": 3006,
  "Day": 3007,
  "Ban": 3008,
  "3)": 3009,
  "2020": 3010,
  "ọnwụ,": 3011,
  "ọganihu": 3012,
  "ọcha.": 3013,
  "ọcha,": 3014,
  "ịza": 3015,
  "ịme": 3016,
  "wutere": 3017,
  "tta": 3018,
  "sikwa": 3019,
  "okirikiri": 3020,
  "nwo": 3021,
  "ngwaahịa": 3022,
  "negal": 3023,
  "nno": 3024,
  "nchụ": 3025,
  "mmepụta": 3026,
  "metụta": 3027,
  "lọghachi": 3028,
  "kpuru": 3029,
  "kris": 3030,
  "jọrọ": 3031,
  "ikpeazụ,": 3032,
  "hr": 3033,
  "ga-eme.": 3034,
  "ejirila": 3035,
  "ego,": 3036,
  "eburu": 3037,
  "chọrọ.": 3038,
  "chebe": 3039,
  "binyere": 3040,
  "bekee.": 3041,
  "ahapụ": 3042,
  "Zam": 3043,
  "Senegal": 3044,
  "San": 3045,
  "Rohr": 3046,
  "Mini": 3047,
  "IS": 3048,
  "Guine": 3049,
  "Femi": 3050,
  "Ed": 3051,
  "Democratic": 3052,
  "Dap": 3053,
  "Bre": 3054,
  "Aw": 3055,
  "Akanu": 3056,
  "8.": 3057,
  "0,": 3058,
  "ụlọahịa": 3059,
  "ịnụ": 3060,
  "zụọ": 3061,
  "wepụta": 3062,
  "tigbuo": 3063,
  "shop": 3064,
  "onwealth": 3065,
  "okpuruọchịchị": 3066,
  "nwere,": 3067,
  "nkwarị": 3068,
  "na-edu": 3069,
  "nsi": 3070,
  "meru": 3071,
  "mejọ": 3072,
  "legọs.": 3073,
  "len": 3074,
  "l.": 3075,
  "kwụnye": 3076,
  "ji.": 3077,
  "izugbe": 3078,
  "gbawara": 3079,
  "eze,": 3080,
  "eruola": 3081,
  "echeta": 3082,
  "chael": 3083,
  "chụrụ": 3084,
  "bụbụ": 3085,
  "bute": 3086,
  "anyị?": 3087,
  "akparala": 3088,
  "abụ,": 3089,
  "adọ": 3090,
  "ZA": 3091,
  "Univer": 3092,
  "Umar": 3093,
  "Uzo": 3094,
  "Tra": 3095,
  "Ribe": 3096,
  "Onu": 3097,
  "Kanu": 3098,
  "IV": 3099,
  "Davido": 3100,
  "Commonwealth": 3101,
  "Chibok": 3102,
  "COZA": 3103,
  "Cup": 3104,
  "Cro": 3105,
  "\"n'\"": 3106,
  "ọka,": 3107,
  "ọt": 3108,
  "zitere": 3109,
  "weta": 3110,
  "urch": 3111,
  "udo.": 3112,
  "teela": 3113,
  "stle": 3114,
  "pho": 3115,
  "nya.": 3116,
  "ntụnye": 3117,
  "nkea": 3118,
  "na-agabiga": 3119,
  "na-akwanyere": 3120,
  "nz": 3121,
  "midi": 3122,
  "lawa": 3123,
  "kọwaara": 3124,
  "kwesili": 3125,
  "idemili": 3126,
  "ghị.": 3127,
  "ga-egosi": 3128,
  "gafere": 3129,
  "fara": 3130,
  "eria": 3131,
  "dịka\"": 3132,
  "dozie": 3133,
  "dina": 3134,
  "dimkpa": 3135,
  "chool": 3136,
  "bọọlụ.": 3137,
  "ban": 3138,
  "amerịka,": 3139,
  "amamihe": 3140,
  "akpọọla": 3141,
  "Tim": 3142,
  "Ribeka": 3143,
  "PortHarcourt": 3144,
  "Ogu": 3145,
  "Nọt": 3146,
  "Mor": 3147,
  "Francis": 3148,
  "Fo": 3149,
  "Eji": 3150,
  "Cana": 3151,
  "ASU": 3152,
  "Aku": 3153,
  "!”": 3154,
  "“mgbe": 3155,
  "ọbịa": 3156,
  "ịchọpụta": 3157,
  "ṅụrụ": 3158,
  "zite": 3159,
  "yetti": 3160,
  "ren": 3161,
  "pasent": 3162,
  "onyenwe": 3163,
  "nwebeghị": 3164,
  "ntụliaka.": 3165,
  "not": 3166,
  "njọ.": 3167,
  "na-efu": 3168,
  "na-asọ": 3169,
  "nali": 3170,
  "nze": 3171,
  "nsụ": 3172,
  "kwazịrị": 3173,
  "jikọrọ": 3174,
  "icester": 3175,
  "haa": 3176,
  "grik": 3177,
  "gige": 3178,
  "esemokwu": 3179,
  "elu,": 3180,
  "del": 3181,
  "chekwa": 3182,
  "aṅụrị": 3183,
  "Ngige": 3184,
  "Miyetti": 3185,
  "May": 3186,
  "Leicester": 3187,
  "Ezekwesili": 3188,
  "East": 3189,
  "Ethi": 3190,
  "Christian": 3191,
  "Cou": 3192,
  "Col": 3193,
  "Ani": 3194,
  "21": 3195,
  ".\"anyị\"": 3196,
  "ịnye": 3197,
  "ṅomi": 3198,
  "zọgbuo": 3199,
  "tek": 3200,
  "tt": 3201,
  "pụtara.": 3202,
  "pute": 3203,
  "ozigbo": 3204,
  "oge.": 3205,
  "nwụọ.": 3206,
  "nwatakịrị": 3207,
  "ngwaagha": 3208,
  "na-apụ": 3209,
  "nsị": 3210,
  "mkpọrọ.": 3211,
  "mic": 3212,
  "leke": 3213,
  "kụziiri": 3214,
  "kwuburu": 3215,
  "kpochapụ": 3216,
  "kpebie": 3217,
  "kewa": 3218,
  "ka,": 3219,
  "kla": 3220,
  "gwoju": 3221,
  "gbalịrị": 3222,
  "gbawa": 3223,
  "eluigwe,": 3224,
  "ebi,": 3225,
  "dọrọ": 3226,
  "chịburu": 3227,
  "asataghị": 3228,
  "arịọ": 3229,
  "a.\"": 3230,
  "Pu": 3231,
  "Ojukwu": 3232,
  "Nwodo": 3233,
  "Mercy": 3234,
  "Iran": 3235,
  "Imo": 3236,
  "Cy": 3237,
  "(N": 3238,
  "ụgh": 3239,
  "ọṅụṅụ": 3240,
  "ọtọ.": 3241,
  "ọhụrụ,": 3242,
  "ọfọ": 3243,
  "zụta": 3244,
  "ya:": 3245,
  "ugwu,": 3246,
  "teknụ": 3247,
  "teknụzụ": 3248,
  "shu": 3249,
  "rite": 3250,
  "onye\"": 3251,
  "oly": 3252,
  "owu": 3253,
  "om": 3254,
  "nsọ.": 3255,
  "nlekọta": 3256,
  "njedebe": 3257,
  "nin": 3258,
  "na-ekiri": 3259,
  "na-adọ": 3260,
  "nahụrụ": 3261,
  "nkọwa": 3262,
  "nc": 3263,
  "merụọ": 3264,
  "matara": 3265,
  "kpamkpa": 3266,
  "kpachara": 3267,
  "kolo": 3268,
  "kele": 3269,
  "isonye": 3270,
  "ikiri": 3271,
  "igba": 3272,
  "iberi": 3273,
  "hia": 3274,
  "gola": 3275,
  "ga-amata": 3276,
  "ga-amụta": 3277,
  "ganị": 3278,
  "ef": 3279,
  "dere,": 3280,
  "anụrị": 3281,
  "alakụba": 3282,
  "akpụkpọ": 3283,
  "ahụla": 3284,
  "ahịa,": 3285,
  "agafe": 3286,
  "abụ)": 3287,
  "akwọ": 3288,
  "Va": 3289,
  "Shiite": 3290,
  "Service": 3291,
  "SAR": 3292,
  "SARS": 3293,
  "King": 3294,
  "Indi": 3295,
  "IMN": 3296,
  "ID": 3297,
  "Her": 3298,
  "HIV": 3299,
  "Gra": 3300,
  "Ethiop": 3301,
  "En": 3302,
  "Dapchi": 3303,
  "Bishop": 3304,
  "Ant": 3305,
  "AF": 3306,
  "2017.": 3307,
  "ụfụ": 3308,
  "ọrọla": 3309,
  "ọtụ": 3310,
  "zoro": 3311,
  "zik": 3312,
  "uru,": 3313,
  "umeala": 3314,
  "u,": 3315,
  "public": 3316,
  "pee": 3317,
  "ongwo": 3318,
  "ochie.": 3319,
  "nọchitere": 3320,
  "nwụrụ,": 3321,
  "ngwongwo": 3322,
  "nnwere": 3323,
  "magazi": 3324,
  "mon": 3325,
  "m.”": 3326,
  "kpụpụ": 3327,
  "ihu,": 3328,
  "ichekwa": 3329,
  "gunyere": 3330,
  "gressi": 3331,
  "ghere": 3332,
  "gbakọrọ": 3333,
  "ga-emezu": 3334,
  "ga-alụ": 3335,
  "gasịrị": 3336,
  "gar": 3337,
  "eziokwu?": 3338,
  "eluigwe.": 3339,
  "eboro": 3340,
  "esoro": 3341,
  "disemba": 3342,
  "dabara": 3343,
  "bibie": 3344,
  "asị.": 3345,
  "Orji": 3346,
  "Os": 3347,
  "Nwachukwu": 3348,
  "Nwan": 3349,
  "Mikel": 3350,
  "Kogi": 3351,
  "James": 3352,
  "Ikechukwu": 3353,
  "Ita": 3354,
  "Frank": 3355,
  "Dakolo": 3356,
  "Church": 3357,
  "Bur": 3358,
  "Britain": 3359,
  "Biodun": 3360,
  "Benja": 3361,
  "Andre": 3362,
  "ASUU": 3363,
  "Agency": 3364,
  "22": 3365,
  ".\"ndị\"": 3366,
  "-onye": 3367,
  "\"nke\"": 3368,
  "ụkwara": 3369,
  "ọwụwa-anyanwụ": 3370,
  "ọnwụnwa": 3371,
  "ọfụma.": 3372,
  "ịbịa": 3373,
  "yat": 3374,
  "taata": 3375,
  "sị,\"": 3376,
  "siiri": 3377,
  "side": 3378,
  "rere": 3379,
  "penali": 3380,
  "penaliti": 3381,
  "pro": 3382,
  "par": 3383,
  "obiọma": 3384,
  "nọchiri": 3385,
  "nkwenye": 3386,
  "njikọ": 3387,
  "na-abịa.": 3388,
  "na-apụta": 3389,
  "napụta": 3390,
  "mana\"": 3391,
  "magazin": 3392,
  "mahụ": 3393,
  "mne": 3394,
  "la,": 3395,
  "kọrịtara": 3396,
  "kwuo.": 3397,
  "kpọlitere": 3398,
  "kanada": 3399,
  "ifo": 3400,
  "hiwere": 3401,
  "gram": 3402,
  "golayat": 3403,
  "ga-ebibi": 3404,
  "ga-emere": 3405,
  "fre": 3406,
  "eze.": 3407,
  "enugwu.": 3408,
  "ement": 3409,
  "depụta": 3410,
  "dapụtara": 3411,
  "chịkọ": 3412,
  "ahụ.”": 3413,
  "atọrọ": 3414,
  "akọwa": 3415,
  "SC": 3416,
  "People": 3417,
  "Peace": 3418,
  "Nigeria,": 3419,
  "Michael": 3420,
  "Kim": 3421,
  "Gernot": 3422,
  "Bar": 3423,
  "Ad": 3424,
  "'?": 3425,
  "\"na\"": 3426,
  "“ka": 3427,
  "ụlọikpe.": 3428,
  "zịkwara": 3429,
  "velop": 3430,
  "velopment": 3431,
  "tanka": 3432,
  "sị\"": 3433,
  "stri": 3434,
  "socia": 3435,
  "sociation": 3436,
  "oke,": 3437,
  "nwụrụ.": 3438,
  "nwaanyị,": 3439,
  "nsọ,": 3440,
  "mpịa": 3441,
  "lu,": 3442,
  "lan": 3443,
  "jijiji": 3444,
  "iju": 3445,
  "gọzie": 3446,
  "ga-azọ": 3447,
  "ga-aza": 3448,
  "fraịde.": 3449,
  "enugwu-": 3450,
  "emeriela": 3451,
  "efere": 3452,
  "di,": 3453,
  "chọtara": 3454,
  "chineke?": 3455,
  "chaa,": 3456,
  "belata": 3457,
  "amị": 3458,
  "anwa": 3459,
  "aja.": 3460,
  "Zamfara": 3461,
  "Universi": 3462,
  "Soyin": 3463,
  "Secon": 3464,
  "Progressi": 3465,
  "Ndu": 3466,
  "Kore": 3467,
  "Geor": 3468,
  "Ex": 3469,
  "Eli": 3470,
  "Association": 3471,
  "Abdul": 3472,
  "500": 3473,
  "5,": 3474,
  "4,": 3475,
  "2018.": 3476,
  "ọkọlọ": 3477,
  "ọkọlọtọ": 3478,
  "ọkpụkpụ": 3479,
  "ọkpa": 3480,
  "ịkụziri": 3481,
  "ịsị": 3482,
  "zigara": 3483,
  "yanwa": 3484,
  "way": 3485,
  "tụta": 3486,
  "too": 3487,
  "tive": 3488,
  "tholic": 3489,
  "sime": 3490,
  "roup": 3491,
  "rist": 3492,
  "pha": 3493,
  "okwe": 3494,
  "nwete": 3495,
  "ntakịrị": 3496,
  "nnaya": 3497,
  "nesi": 3498,
  "na-eweta": 3499,
  "na-emegide": 3500,
  "na-ahazi": 3501,
  "nkọ": 3502,
  "mmiri,": 3503,
  "mmachi": 3504,
  "mkpagbu": 3505,
  "mechie": 3506,
  "kparịta": 3507,
  "iwe.": 3508,
  "isii,": 3509,
  "iri.": 3510,
  "ino": 3511,
  "ime,": 3512,
  "illa": 3513,
  "inyocha": 3514,
  "hole": 3515,
  "here": 3516,
  "gwuru": 3517,
  "gwọọ": 3518,
  "ghapụ": 3519,
  "gbatagbata": 3520,
  "gaasị": 3521,
  "ger": 3522,
  "enweela": 3523,
  "elsa": 3524,
  "eld": 3525,
  "edeme": 3526,
  "ekp": 3527,
  "castle": 3528,
  "cto": 3529,
  "buuru": 3530,
  "atọhapụ": 3531,
  "aria": 3532,
  "alụmdi": 3533,
  "ahụrụ": 3534,
  "adaala": 3535,
  "Tan": 3536,
  "Oluse": 3537,
  "Ogbu": 3538,
  "Odu": 3539,
  "Nji": 3540,
  "Ni": 3541,
  "Musa": 3542,
  "Mz.": 3543,
  "Mala": 3544,
  "League.": 3545,
  "FI": 3546,
  "Ethiopia": 3547,
  "Development": 3548,
  "Catholic": 3549,
  "Bayelsa": 3550,
  "Bank": 3551,
  "Anaje": 3552,
  "(A": 3553,
  "ụzụ": 3554,
  "ọpị": 3555,
  "wela": 3556,
  "tụla": 3557,
  "sụgharịa": 3558,
  "rụtụrụ": 3559,
  "ruola": 3560,
  "rus": 3561,
  "rael": 3562,
  "paradaịs.": 3563,
  "ozugbo.": 3564,
  "ozi,": 3565,
  "nụwarị": 3566,
  "nọkwa": 3567,
  "nwụchie": 3568,
  "ntụkwasị": 3569,
  "merela": 3570,
  "mepụtara": 3571,
  "mber": 3572,
  "kwutere": 3573,
  "kwukwa": 3574,
  "kuzi": 3575,
  "kpọmkwe": 3576,
  "jọgburu": 3577,
  "jeruselem": 3578,
  "jenụwarị": 3579,
  "jee": 3580,
  "iwu.": 3581,
  "iwepụ": 3582,
  "iteghe": 3583,
  "imeụlọ": 3584,
  "ikpe.": 3585,
  "iwere": 3586,
  "hazie": 3587,
  "guzobe": 3588,
  "guri": 3589,
  "ga-agwa": 3590,
  "emeka": 3591,
  "edemede": 3592,
  "echefu": 3593,
  "ebidola": 3594,
  "dụọ": 3595,
  "cent": 3596,
  "buo": 3597,
  "anambra.": 3598,
  "akpata": 3599,
  "adọọla": 3600,
  "Yoru": 3601,
  "Yu": 3602,
  "Thomas": 3603,
  "Sudan": 3604,
  "Sheka": 3605,
  "Sp": 3606,
  "Pi": 3607,
  "Olusegun": 3608,
  "Libya": 3609,
  "Kalu": 3610,
  "Israel": 3611,
  "Har": 3612,
  "Good": 3613,
  "Charles": 3614,
  "Chan": 3615,
  "Canada": 3616,
  "Car": 3617,
  "Busola": 3618,
  "Alexand": 3619,
  "Aja": 3620,
  "-N": 3621,
  "-\"": 3622,
  "’)": 3623,
  "ụbọchị.": 3624,
  "ọgụ.": 3625,
  "ọsi": 3626,
  "ịsụ": 3627,
  "ṅụọ": 3628,
  "zụga": 3629,
  "zịghị": 3630,
  "van": 3631,
  "ukwa": 3632,
  "tiusde.": 3633,
  "stan": 3634,
  "siriak": 3635,
  "shiom": 3636,
  "shiomhole": 3637,
  "rin": 3638,
  "ration": 3639,
  "praịm": 3640,
  "ochie,": 3641,
  "nụ.": 3642,
  "nwụọ,": 3643,
  "nweekwa": 3644,
  "nnọchiteanya": 3645,
  "ndịa": 3646,
  "na-emebi": 3647,
  "na-ekele": 3648,
  "na-aghọta": 3649,
  "nnụ": 3650,
  "mpịakọta": 3651,
  "mkpa:": 3652,
  "mbuze": 3653,
  "kụziri": 3654,
  "isii.": 3655,
  "gọzi": 3656,
  "gafe": 3657,
  "essi": 3658,
  "ern": 3659,
  "emepe": 3660,
  "ege": 3661,
  "dibia": 3662,
  "chọta": 3663,
  "akwa.": 3664,
  "ahịrị": 3665,
  "adịrị": 3666,
  "achọpụta": 3667,
  "Wike": 3668,
  "Ugwuanyi": 3669,
  "TV": 3670,
  "Soyinka": 3671,
  "Ronal": 3672,
  "Pari": 3673,
  "PC": 3674,
  "Nnabu": 3675,
  "Newcastle": 3676,
  "Germa": 3677,
  "Austra": 3678,
  "Airport": 3679,
  "Are": 3680,
  "6)": 3681,
  "2015.": 3682,
  ".\"o\"": 3683,
  "“unu": 3684,
  "ọs": 3685,
  "ọpụ": 3686,
  "ọkwọ": 3687,
  "ọkpụrụ": 3688,
  "ọchụ": 3689,
  "wuru": 3690,
  "wa,": 3691,
  "taramahụ": 3692,
  "taramahụhụ": 3693,
  "twitter": 3694,
  "phen": 3695,
  "oziọma": 3696,
  "oyibo": 3697,
  "otuto": 3698,
  "ork": 3699,
  "olo": 3700,
  "obo": 3701,
  "nwụnahụrụ": 3702,
  "na-echekwa": 3703,
  "na-aga,": 3704,
  "na-aza": 3705,
  "natara": 3706,
  "ntaramahụhụ": 3707,
  "nma": 3708,
  "mmefu": 3709,
  "mgbidi": 3710,
  "m:": 3711,
  "liela": 3712,
  "lli": 3713,
  "larị": 3714,
  "kọpa": 3715,
  "kpọtụrụ": 3716,
  "ke,": 3717,
  "juputara": 3718,
  "ijipt.": 3719,
  "iduguri": 3720,
  "int": 3721,
  "imere": 3722,
  "ikpere": 3723,
  "gypt": 3724,
  "gbakwara": 3725,
  "ga-agụ": 3726,
  "gas": 3727,
  "gad": 3728,
  "fọdụrụ": 3729,
  "enugwu,": 3730,
  "ener": 3731,
  "echiche.": 3732,
  "enyocha": 3733,
  "chaara": 3734,
  "bịa,": 3735,
  "biko,": 3736,
  "azụmahịa": 3737,
  "audi": 3738,
  "asatọ,": 3739,
  "arịọla": 3740,
  "apụghị": 3741,
  "anya.”": 3742,
  "agbagbuola": 3743,
  "agadi": 3744,
  "agaala": 3745,
  "abata": 3746,
  "apụtala": 3747,
  "________": 3748,
  "Tara": 3749,
  "Stephen": 3750,
  "Shekau": 3751,
  "School": 3752,
  "Rivers": 3753,
  "Nations": 3754,
  "Nollywood": 3755,
  "Maiduguri": 3756,
  "Mah": 3757,
  "Jane": 3758,
  "Haru": 3759,
  "Federal": 3760,
  "For": 3761,
  "Egypt": 3762,
  "Communi": 3763,
  "Chioma": 3764,
  "Chad": 3765,
  "Central": 3766,
  "Benjamin": 3767,
  "Bori": 3768,
  "Benu": 3769,
  "Abdulla": 3770,
  "29": 3771,
  "1914": 3772,
  "ụkpa": 3773,
  "ọlị": 3774,
  "ịlaịja": 3775,
  "ịdịna": 3776,
  "zarọ": 3777,
  "ya;": 3778,
  "xi": 3779,
  "sọnde": 3780,
  "stal": 3781,
  "sho": 3782,
  "sekọ": 3783,
  "ser": 3784,
  "onyeisiala.": 3785,
  "ohi,": 3786,
  "o,": 3787,
  "nyekwa": 3788,
  "nwoke.": 3789,
  "nwoke,": 3790,
  "nweghịkwa": 3791,
  "nwuru": 3792,
  "nuche": 3793,
  "nkwanye": 3794,
  "ndị;": 3795,
  "ncil": 3796,
  "na-erubere": 3797,
  "na-ezo": 3798,
  "mma?": 3799,
  "mesa": 3800,
  "mbuli": 3801,
  "mbilite": 3802,
  "liance": 3803,
  "let": 3804,
  "lazarọ": 3805,
  "lack": 3806,
  "leri": 3807,
  "imebi": 3808,
  "ga-ekwe": 3809,
  "ezina": 3810,
  "ejidela": 3811,
  "egosila": 3812,
  "echeghị": 3813,
  "ebibi": 3814,
  "ebia": 3815,
  "duru": 3816,
  "ding": 3817,
  "conomi": 3818,
  "chọghị": 3819,
  "chel": 3820,
  "bulu": 3821,
  "bon": 3822,
  "azụ,": 3823,
  "asatọ.": 3824,
  "arebia": 3825,
  "amachiela": 3826,
  "alaghachi": 3827,
  "akwa,": 3828,
  "adaba": 3829,
  "ahia": 3830,
  "University": 3831,
  "Timgad": 3832,
  "Saudi": 3833,
  "Sal": 3834,
  "Republic": 3835,
  "PS": 3836,
  "Oshiomhole": 3837,
  "Nyako": 3838,
  "Mou": 3839,
  "Lai": 3840,
  "Innoson": 3841,
  "Ibo": 3842,
  "Group": 3843,
  "CB": 3844,
  "Alliance": 3845,
  "Abdullahi": 3846,
  "Ameri": 3847,
  "400": 3848,
  ".,": 3849,
  ".)": 3850,
  ")\"": 3851,
  "“e": 3852,
  "ụmụokorobịa": 3853,
  "ọpụpụ": 3854,
  "ọkpụrụkpụ": 3855,
  "ịtụkwasị": 3856,
  "ịna-eme": 3857,
  "ịhọpụta": 3858,
  "xico": 3859,
  "ture": 3860,
  "tie": 3861,
  "te.": 3862,
  "t.": 3863,
  "sty": 3864,
  "ston": 3865,
  "ship": 3866,
  "sụrụ": 3867,
  "sala": 3868,
  "rụwarị": 3869,
  "rans": 3870,
  "otele": 3871,
  "oph": 3872,
  "ophobi": 3873,
  "ogoogo": 3874,
  "os": 3875,
  "nụ,": 3876,
  "nyụrụ": 3877,
  "nwaamadị": 3878,
  "nes": 3879,
  "na-ekwesịghị": 3880,
  "na-aga.": 3881,
  "na-asa": 3882,
  "na-akpụ": 3883,
  "nahụ": 3884,
  "mgbakwụnye": 3885,
  "mana,": 3886,
  "kwuru?": 3887,
  "kwekọrịtara": 3888,
  "kuru": 3889,
  "ks": 3890,
  "kno": 3891,
  "izrel.": 3892,
  "inji": 3893,
  "igbochi": 3894,
  "ikpo": 3895,
  "ha.”": 3896,
  "ga-anwụ": 3897,
  "ga-ahapụ": 3898,
  "ga-ada": 3899,
  "feb": 3900,
  "febrụwarị": 3901,
  "enwetala": 3902,
  "enophobi": 3903,
  "ezo": 3904,
  "dada": 3905,
  "chụpụrụ": 3906,
  "chịa": 3907,
  "chara,": 3908,
  "bụrụgodị": 3909,
  "bunyere": 3910,
  "asaa,": 3911,
  "akparama": 3912,
  "ahụ.\"": 3913,
  "agbasa": 3914,
  "agbala": 3915,
  "afrịka,": 3916,
  "adị.": 3917,
  "achụọla": 3918,
  "achọpụtala": 3919,
  "aị": 3920,
  "awara": 3921,
  "at": 3922,
  "You": 3923,
  "There": 3924,
  "Ronaldo": 3925,
  "Qu": 3926,
  "P)": 3927,
  "Obama": 3928,
  "Mexico": 3929,
  "Mbaise": 3930,
  "Mada": 3931,
  "Mana": 3932,
  "Insta": 3933,
  "IC": 3934,
  "Guinea": 3935,
  "George": 3936,
  "Economi": 3937,
  "Council": 3938,
  "Benin": 3939,
  "Bayern": 3940,
  "ụra,": 3941,
  "ọzọkwa": 3942,
  "ọnịcha,": 3943,
  "ịgbara": 3944,
  "wezụga": 3945,
  "visa": 3946,
  "ron": 3947,
  "pụta,": 3948,
  "olution": 3949,
  "nwedịrị": 3950,
  "ntutu": 3951,
  "na-ewere": 3952,
  "na-edo": 3953,
  "na-amị": 3954,
  "mụwa": 3955,
  "mkpọtụ": 3956,
  "mee,": 3957,
  "mamanda": 3958,
  "madị": 3959,
  "lege": 3960,
  "le,": 3961,
  "latị": 3962,
  "kpọlite": 3963,
  "ikpeazụ.": 3964,
  "id": 3965,
  "gbachara": 3966,
  "ga-emeli": 3967,
  "ga-emekwa": 3968,
  "ga-atụ": 3969,
  "ga-ata": 3970,
  "gani": 3971,
  "ezughị": 3972,
  "ewerela": 3973,
  "ekpebi": 3974,
  "echiche,": 3975,
  "egbochi": 3976,
  "di.": 3977,
  "dayọsi": 3978,
  "ataala": 3979,
  "arụsị": 3980,
  "ama,": 3981,
  "akụkọ\"": 3982,
  "abacha": 3983,
  "anwu": 3984,
  "Xenophobi": 3985,
  "Uga": 3986,
  "Theresa": 3987,
  "Tekno": 3988,
  "Sunda": 3989,
  "Revolution": 3990,
  "Power": 3991,
  "Pope": 3992,
  "Ortom": 3993,
  "Oye": 3994,
  "Ogun": 3995,
  "Odi": 3996,
  "Kha": 3997,
  "Isla": 3998,
  "Haruna": 3999,
  "Gran": 4000,
  "FIFA": 4001,
  "European": 4002,
  "Chimamanda": 4003,
  "Christ": 4004,
  "Cri": 4005,
  "CN": 4006,
  "Boris": 4007,
  "Alg": 4008,
  "At": 4009,
  "8)": 4010,
  "2013": 4011,
  "’”": 4012,
  "ụra.": 4013,
  "ụnyaahụ,": 4014,
  "ụmụada": 4015,
  "ụgha.": 4016,
  "ọrịa.": 4017,
  "ọkwa.": 4018,
  "ọchịchọ": 4019,
  "ọnya": 4020,
  "ọbọ": 4021,
  "ịwa": 4022,
  "vin": 4023,
  "ura": 4024,
  "uchu": 4025,
  "tiu,": 4026,
  "ta,": 4027,
  "saị": 4028,
  "sa,": 4029,
  "rute": 4030,
  "ring": 4031,
  "r.": 4032,
  "peration": 4033,
  "ous": 4034,
  "org": 4035,
  "ora": 4036,
  "nya,": 4037,
  "na-ejere": 4038,
  "na-akọrọ": 4039,
  "na-akatọ": 4040,
  "na-abata": 4041,
  "na-abara": 4042,
  "na-arụrụ": 4043,
  "ngụ": 4044,
  "masị": 4045,
  "mak,": 4046,
  "luck": 4047,
  "lican": 4048,
  "lekwa": 4049,
  "kọba": 4050,
  "kwute": 4051,
  "kpam": 4052,
  "ket": 4053,
  "jizi": 4054,
  "iwu,": 4055,
  "igh": 4056,
  "gbaghara": 4057,
  "emezu": 4058,
  "ekpo": 4059,
  "dụrụ": 4060,
  "dinma": 4061,
  "codeine": 4062,
  "chọkwara": 4063,
  "cal": 4064,
  "bọọlụ,": 4065,
  "bi.": 4066,
  "baptizim": 4067,
  "anya?": 4068,
  "anwụchiri": 4069,
  "agụm": 4070,
  "agbanwe": 4071,
  "Zara": 4072,
  "WAS": 4073,
  "Sunday": 4074,
  "St.": 4075,
  "Preside": 4076,
  "PSG": 4077,
  "Ode": 4078,
  "OWAS": 4079,
  "Njikọ": 4080,
  "Nsu": 4081,
  "Nke": 4082,
  "Ndi": 4083,
  "NFF": 4084,
  "Kenne": 4085,
  "Emlin": 4086,
  "ECOWAS": 4087,
  "Enyi": 4088,
  "EMA": 4089,
  "Chief": 4090,
  "Black": 4091,
  "Bal": 4092,
  "Aguleri": 4093,
  "AM": 4094,
  "?\"": 4095,
  "2018,": 4096,
  "2000": 4097,
  "ụmụagbọghọ": 4098,
  "ụgwọ.": 4099,
  "ọsịsọ": 4100,
  "ọrụugbo": 4101,
  "ịkọwa": 4102,
  "ziga": 4103,
  "yahoo": 4104,
  "y,": 4105,
  "wich": 4106,
  "wa.": 4107,
  "ure": 4108,
  "sing": 4109,
  "satọde.": 4110,
  "ridge": 4111,
  "pou": 4112,
  "otu\"": 4113,
  "omen": 4114,
  "olulu": 4115,
  "ofor": 4116,
  "one": 4117,
  "nzagha": 4118,
  "nyahụ": 4119,
  "nupụrụ": 4120,
  "nupụ": 4121,
  "nnogh": 4122,
  "nnoghen": 4123,
  "nkeji:": 4124,
  "na-ekwusi": 4125,
  "na-etu": 4126,
  "na-ehi": 4127,
  "na-ege": 4128,
  "na-akwụwa": 4129,
  "na-ahụta": 4130,
  "na-ana": 4131,
  "nkwọ": 4132,
  "ngosi": 4133,
  "mila": 4134,
  "mfe.": 4135,
  "meziri": 4136,
  "metụrụ": 4137,
  "mekwa": 4138,
  "mebie": 4139,
  "matiu,": 4140,
  "kwuru:": 4141,
  "kpụọ": 4142,
  "kparị": 4143,
  "kelee": 4144,
  "jairo": 4145,
  "isiala": 4146,
  "iri,": 4147,
  "ingland": 4148,
  "icheta": 4149,
  "gwụrụ": 4150,
  "gosikwara": 4151,
  "gbapụrụ": 4152,
  "ga-amasi": 4153,
  "ejiji": 4154,
  "edu": 4155,
  "dayọsiisi": 4156,
  "diri": 4157,
  "cese": 4158,
  "cer": 4159,
  "bọjetị": 4160,
  "bulie": 4161,
  "arụọla": 4162,
  "amụta": 4163,
  "amasị": 4164,
  "akụziri": 4165,
  "abịa.": 4166,
  "akpọrọ\"": 4167,
  "Ze": 4168,
  "Za": 4169,
  "Uganda": 4170,
  "UE": 4171,
  "UEFA": 4172,
  "Tanz": 4173,
  "Tur": 4174,
  "Salah": 4175,
  "Solu": 4176,
  "Rama": 4177,
  "Osun": 4178,
  "Ono": 4179,
  "Onnoghen": 4180,
  "Mela": 4181,
  "Kenneth": 4182,
  "Juven": 4183,
  "Islamic": 4184,
  "II": 4185,
  "Goodluck": 4186,
  "Ezi": 4187,
  "Chine": 4188,
  "Che": 4189,
  "Cali": 4190,
  "CBN": 4191,
  "Augu": 4192,
  "Anglican": 4193,
  "Adeleke": 4194,
  "App": 4195,
  "37": 4196,
  "ụfọdụ.": 4197,
  "ụnyahụ": 4198,
  "ọsọ,": 4199,
  "ọmụgwọ": 4200,
  "ọkọchị": 4201,
  "ịbanye": 4202,
  "ya,\"": 4203,
  "yode": 4204,
  "weregodị": 4205,
  "wn": 4206,
  "tinyekwara": 4207,
  "tra": 4208,
  "t,": 4209,
  "sto": 4210,
  "rity": 4211,
  "pụtara?": 4212,
  "pụtara,": 4213,
  "pịara": 4214,
  "phosa": 4215,
  "nwụchikọrọ": 4216,
  "nwechara": 4217,
  "nwanna": 4218,
  "nsọpụrụ": 4219,
  "nis": 4220,
  "naịjirịa?": 4221,
  "na-ekweghị": 4222,
  "na-ekpo": 4223,
  "midia.": 4224,
  "meela": 4225,
  "maọbụrụ": 4226,
  "m-": 4227,
  "lọta.": 4228,
  "lịkan": 4229,
  "li.": 4230,
  "kụziere": 4231,
  "klaasị": 4232,
  "ka.": 4233,
  "kin": 4234,
  "jeriko": 4235,
  "imezu": 4236,
  "ileta": 4237,
  "ibuso": 4238,
  "igwu": 4239,
  "ha.\"": 4240,
  "goolu.": 4241,
  "gharịị": 4242,
  "gbụrụ": 4243,
  "ga-ele": 4244,
  "ga-ekpe": 4245,
  "ga-aghọ": 4246,
  "ga-ere": 4247,
  "ga.": 4248,
  "eruo": 4249,
  "emechiela": 4250,
  "data": 4251,
  "chaa.": 4252,
  "bigara": 4253,
  "aro": 4254,
  "anwụ,": 4255,
  "amaw": 4256,
  "alụkwaghịm": 4257,
  "akwụsịla": 4258,
  "aka?": 4259,
  "agaghi": 4260,
  "abanyela": 4261,
  "Yusu": 4262,
  "Yoruba": 4263,
  "WA": 4264,
  "WAEC": 4265,
  "Soko": 4266,
  "Ramaphosa": 4267,
  "Rus": 4268,
  "Progressive": 4269,
  "Poli": 4270,
  "NAF": 4271,
  "Nnia": 4272,
  "Melaye": 4273,
  "Messi": 4274,
  "Kaduna": 4275,
  "Josef.": 4276,
  "Jong": 4277,
  "Instagram": 4278,
  "Ibom": 4279,
  "Health": 4280,
  "Grand": 4281,
  "Gener": 4282,
  "Ebonyi": 4283,
  "College": 4284,
  "Buhari,": 4285,
  "Bello": 4286,
  "Abra": 4287,
  "Amara": 4288,
  "Ala": 4289,
  "Aka": 4290,
  "Achebe": 4291,
  "\"-\"": 4292,
  "ụwa?": 4293,
  "ụmụnwaanyị.": 4294,
  "ụlọmkpọrọ": 4295,
  "ụgbọmmiri": 4296,
  "ọwụwaanyanwụ": 4297,
  "ọhịa.": 4298,
  "ọbụna": 4299,
  "ịna-echegbu": 4300,
  "ịhazi": 4301,
  "zikiwe": 4302,
  "yuro": 4303,
  "yurop": 4304,
  "yele": 4305,
  "xit": 4306,
  "unu.": 4307,
  "uba": 4308,
  "tụmadị": 4309,
  "tọgbọ": 4310,
  "tarị": 4311,
  "stry": 4312,
  "sy": 4313,
  "sse": 4314,
  "rọrọ": 4315,
  "rala": 4316,
  "poli": 4317,
  "nyochaa": 4318,
  "nwara": 4319,
  "nupụụrụ": 4320,
  "ntị,": 4321,
  "nsibi": 4322,
  "nnụnụ": 4323,
  "nchekwa,": 4324,
  "naịjirịa-": 4325,
  "na-emetụ": 4326,
  "na-ejighị": 4327,
  "na-echu": 4328,
  "na-agbasi": 4329,
  "na-achịkọta": 4330,
  "nzọpụta": 4331,
  "mmụọ.": 4332,
  "mina": 4333,
  "mgbapụta": 4334,
  "mezu": 4335,
  "mepere": 4336,
  "mahadu": 4337,
  "makwa": 4338,
  "mah": 4339,
  "lọtara": 4340,
  "ling": 4341,
  "lighị": 4342,
  "legodị": 4343,
  "leagu": 4344,
  "lazarọs": 4345,
  "lt": 4346,
  "l,": 4347,
  "kwụsị.": 4348,
  "kporo": 4349,
  "hony": 4350,
  "hiere": 4351,
  "gwakwa": 4352,
  "gbapụta": 4353,
  "ga-ebute": 4354,
  "fim": 4355,
  "ezie,": 4356,
  "etiela": 4357,
  "ekwesị.": 4358,
  "ejima": 4359,
  "ebumnuche": 4360,
  "echere": 4361,
  "da,": 4362,
  "dọọ": 4363,
  "dne": 4364,
  "chiburu": 4365,
  "chara.": 4366,
  "bekee,": 4367,
  "bar": 4368,
  "arụkwaghị": 4369,
  "amabeghị": 4370,
  "akụnụ": 4371,
  "akparamagwa": 4372,
  "a.”": 4373,
  "akọrọ": 4374,
  "akwara": 4375,
  "ajị": 4376,
  "achọrọ": 4377,
  "abị": 4378,
  "abara": 4379,
  "Yobe": 4380,
  "Uzodinma": 4381,
  "Uwa": 4382,
  "Taraba": 4383,
  "Spa": 4384,
  "Oscar": 4385,
  "Onwuama": 4386,
  "Omoyele": 4387,
  "Oha": 4388,
  "Norwich": 4389,
  "NB": 4390,
  "Madagas": 4391,
  "Ji": 4392,
  "Italy": 4393,
  "Igh": 4394,
  "Idi": 4395,
  "Ekiti": 4396,
  "Dabiri": 4397,
  "Dino": 4398,
  "DAC": 4399,
  "Cross": 4400,
  "Can": 4401,
  "Brexit": 4402,
  "Anthony": 4403,
  "Adesina": 4404,
  "Abraham": 4405,
  "Azikiwe": 4406,
  "30,": 4407,
  "-4": 4408,
  ",”": 4409,
  "\"\"n'\"": 4410,
  "\"ka\"": 4411,
  "ọzọ?": 4412,
  "ọmụma": 4413,
  "ịkọrọ": 4414,
  "ya-": 4415,
  "wenezde.": 4416,
  "vie": 4417,
  "uju.": 4418,
  "tọzde.": 4419,
  "sila": 4420,
  "suru": 4421,
  "oyiegwu": 4422,
  "otiegwu": 4423,
  "on,": 4424,
  "ohi.": 4425,
  "nwekwa": 4426,
  "nwa.": 4427,
  "ntuzi": 4428,
  "niile.”": 4429,
  "na-ebuso": 4430,
  "na-ekpere": 4431,
  "na-arụpụta": 4432,
  "na-akasi": 4433,
  "na-akwọ": 4434,
  "na-abị": 4435,
  "na-ara": 4436,
  "napụrụ": 4437,
  "nọchị": 4438,
  "nzọ": 4439,
  "nor": 4440,
  "nchere": 4441,
  "mọnde.": 4442,
  "mma.”": 4443,
  "mkparị": 4444,
  "mezịrị": 4445,
  "mewe": 4446,
  "mel": 4447,
  "kpọkuola": 4448,
  "kpuo": 4449,
  "kah": 4450,
  "janụ": 4451,
  "janụwarị": 4452,
  "injin": 4453,
  "ilekọta": 4454,
  "hị": 4455,
  "gụtara": 4456,
  "ga-adịkwa": 4457,
  "ga-apụta": 4458,
  "ga-adịrị": 4459,
  "gala": 4460,
  "gabigara": 4461,
  "fị": 4462,
  "ewepụ": 4463,
  "enyi,": 4464,
  "ence": 4465,
  "emela": 4466,
  "elekọta": 4467,
  "ebi.”": 4468,
  "eku": 4469,
  "dọtara": 4470,
  "degara": 4471,
  "chi.": 4472,
  "chasị": 4473,
  "cc": 4474,
  "bọjet": 4475,
  "buka": 4476,
  "baịbụl?": 4477,
  "agwụla": 4478,
  "adịla": 4479,
  "aja,": 4480,
  "ag": 4481,
  "York": 4482,
  "Tacha": 4483,
  "Togo": 4484,
  "Sokoto": 4485,
  "Peoples": 4486,
  "Operation": 4487,
  "Ope": 4488,
  "Norway": 4489,
  "Njikọka": 4490,
  "NAFDAC": 4491,
  "Mon": 4492,
  "Kat": 4493,
  "Ighalo": 4494,
  "Germany": 4495,
  "General": 4496,
  "Ezeife": 4497,
  "Economic": 4498,
  "Edo": 4499,
  "Dave": 4500,
  "Don": 4501,
  "Den": 4502,
  "Congo": 4503,
  "Chukwuemeka": 4504,
  "Channel": 4505,
  "Bru": 4506,
  "Bles": 4507,
  "Anajemba": 4508,
  "Amaechi": 4509,
  "Algeria": 4510,
  "Adama": 4511,
  "Action": 4512,
  "2016.": 4513,
  "20,": 4514,
  "15,": 4515,
  ".\"n'\"": 4516,
  ".\"ihe\"": 4517,
  "ụtụtụ,": 4518,
  "ọgọst,": 4519,
  "ọchị.": 4520,
  "ịntaneti.": 4521,
  "ịkpe": 4522,
  "zighị": 4523,
  "wulite": 4524,
  "ww.": 4525,
  "www.": 4526,
  "verton": 4527,
  "vre": 4528,
  "ustom": 4529,
  "ume.": 4530,
  "un": 4531,
  "tee": 4532,
  "stine": 4533,
  "strị": 4534,
  "spen.": 4535,
  "selitere": 4536,
  "saụdi": 4537,
  "rystal": 4538,
  "riterela": 4539,
  "onyinye,": 4540,
  "osu": 4541,
  "ost": 4542,
  "oni": 4543,
  "ogu": 4544,
  "nịstrị": 4545,
  "nyegara": 4546,
  "nyefee": 4547,
  "nwaokorobịa": 4548,
  "nrụrịta": 4549,
  "nka,": 4550,
  "na-ebipụta": 4551,
  "na-anata": 4552,
  "mịnịstrị": 4553,
  "mkpị": 4554,
  "maka\"": 4555,
  "magburu": 4556,
  "luk": 4557,
  "listra": 4558,
  "ls": 4559,
  "lle": 4560,
  "kọọla": 4561,
  "kwube": 4562,
  "kwesịghị": 4563,
  "krismas": 4564,
  "kpoko": 4565,
  "jụụ": 4566,
  "jw.": 4567,
  "iko.": 4568,
  "icheiche.": 4569,
  "iberibe": 4570,
  "ima": 4571,
  "hiwe": 4572,
  "gharịala": 4573,
  "gawa,": 4574,
  "ga-emeri": 4575,
  "ga-aghọta": 4576,
  "fai": 4577,
  "ezigbote": 4578,
  "esom": 4579,
  "ekere": 4580,
  "chọwa": 4581,
  "chere?": 4582,
  "bụna": 4583,
  "bur": 4584,
  "buola": 4585,
  "buliri": 4586,
  "buike": 4587,
  "bour": 4588,
  "bedel": 4589,
  "ball": 4590,
  "anish": 4591,
  "anaghịkwa": 4592,
  "ando": 4593,
  "akwụsịghị": 4594,
  "agbụ": 4595,
  "agafeela": 4596,
  "achụm": 4597,
  "abụbọ": 4598,
  "abalị,": 4599,
  "Wat": 4600,
  "Women": 4601,
  "Udo": 4602,
  "Turke": 4603,
  "Trans": 4604,
  "Spanish": 4605,
  "Samson": 4606,
  "Rufai": 4607,
  "Road": 4608,
  "Osita": 4609,
  "Organi": 4610,
  "Obiora": 4611,
  "Osa": 4612,
  "Ondo": 4613,
  "Oli": 4614,
  "Nyesom": 4615,
  "Nwankwo": 4616,
  "Now": 4617,
  "Kayode": 4618,
  "JAM": 4619,
  "JAMB": 4620,
  "IMF": 4621,
  "Hope": 4622,
  "Gol": 4623,
  "Foot": 4624,
  "Fren": 4625,
  "Fore": 4626,
  "Flo": 4627,
  "Fes": 4628,
  "FB": 4629,
  "FBI": 4630,
  "Enyinnaya": 4631,
  "Everton": 4632,
  "Cosmas": 4633,
  "Community": 4634,
  "Codeine": 4635,
  "Chido": 4636,
  "Chidi": 4637,
  "Channels": 4638,
  "Custom": 4639,
  "APC.": 4640,
  "Aso": 4641,
  "AT": 4642,
  "A)": 4643,
  "60": 4644,
  "33": 4645,
  "194": 4646,
  "“ị": 4647,
  "ụtụisi": 4648,
  "ụmụaka.": 4649,
  "ụlọọgwụ.": 4650,
  "ụlọelu": 4651,
  "ọnụahịa": 4652,
  "ọkwụ": 4653,
  "ịrịọ": 4654,
  "ịmalite": 4655,
  "ịgbaghara": 4656,
  "èvre": 4657,
  "wenezde,": 4658,
  "ward": 4659,
  "uteeze": 4660,
  "ustin": 4661,
  "urundi": 4662,
  "udo,": 4663,
  "tụkwasịrị": 4664,
  "tọọ": 4665,
  "tozuru": 4666,
  "tical": 4667,
  "tany": 4668,
  "tanyahu": 4669,
  "stru": 4670,
  "sion": 4671,
  "shola": 4672,
  "pende": 4673,
  "pap": 4674,
  "ogle": 4675,
  "ofesi.": 4676,
  "obi?": 4677,
  "onwere": 4678,
  "nzukọ.": 4679,
  "ntuziaka": 4680,
  "nso,": 4681,
  "nich": 4682,
  "ngwan": 4683,
  "ngagwa": 4684,
  "ne,": 4685,
  "na-ekpegara": 4686,
  "na-esiri": 4687,
  "na-edozi": 4688,
  "na-agbasa": 4689,
  "na-anya": 4690,
  "nangagwa": 4691,
  "nha": 4692,
  "mọnde,": 4693,
  "mnesty": 4694,
  "mgbagwoju": 4695,
  "ma.": 4696,
  "ma\"": 4697,
  "mkpụ": 4698,
  "list": 4699,
  "lint": 4700,
  "laghachiri": 4701,
  "kọwaa,": 4702,
  "kwuwe": 4703,
  "kirie": 4704,
  "keke": 4705,
  "karịchara": 4706,
  "kali": 4707,
  "jupụta": 4708,
  "jeria": 4709,
  "iwepụta": 4710,
  "iwe,": 4711,
  "injinịa": 4712,
  "ille": 4713,
  "ikpe,": 4714,
  "ibu.": 4715,
  "isu": 4716,
  "imeri": 4717,
  "hụla": 4718,
  "hai": 4719,
  "ha-": 4720,
  "gworo": 4721,
  "gosipụta": 4722,
  "ghton": 4723,
  "gbanyere": 4724,
  "ga-ewere": 4725,
  "ga-ewepụ": 4726,
  "ga-asọ": 4727,
  "ga-aba": 4728,
  "fèvre": 4729,
  "ezinaụlọ": 4730,
  "ezi,": 4731,
  "esonye": 4732,
  "erughị": 4733,
  "ere.": 4734,
  "ekwetaghị": 4735,
  "ekweta": 4736,
  "egbe.": 4737,
  "enwee": 4738,
  "dunyere": 4739,
  "dowere": 4740,
  "chabeghị": 4741,
  "bụ?": 4742,
  "bịlọ": 4743,
  "bipụtara": 4744,
  "babịlọ": 4745,
  "bn": 4746,
  "alace": 4747,
  "alaala": 4748,
  "aljeria": 4749,
  "akwụna": 4750,
  "ahazi": 4751,
  "ahapụla": 4752,
  "aghọtaghị": 4753,
  "agaghịkwa": 4754,
  "adịghị.": 4755,
  "ato": 4756,
  "abọ": 4757,
  "Turkey": 4758,
  "Spain": 4759,
  "Soludo": 4760,
  "Solo": 4761,
  "Second": 4762,
  "Sia": 4763,
  "Ruga": 4764,
  "Regi": 4765,
  "Rwan": 4766,
  "Prima": 4767,
  "Phi": 4768,
  "Ph": 4769,
  "Okechukwu": 4770,
  "Ojo": 4771,
  "Obo": 4772,
  "Netanyahu": 4773,
  "NYSC": 4774,
  "Musta": 4775,
  "Munich": 4776,
  "Mnangagwa": 4777,
  "Lefèvre": 4778,
  "Lan": 4779,
  "Keshi": 4780,
  "Juventus": 4781,
  "Inde": 4782,
  "Ibe": 4783,
  "Iba": 4784,
  "Grace": 4785,
  "Google": 4786,
  "Federation": 4787,
  "Ebola": 4788,
  "Equ": 4789,
  "Ekwu": 4790,
  "EU": 4791,
  "Chike": 4792,
  "Crystal": 4793,
  "Boy": 4794,
  "Burundi": 4795,
  "Ber": 4796,
  "Australia": 4797,
  "America": 4798,
  "Abike": 4799,
  "Ash": 4800,
  "27": 4801,
  "--": 4802,
  "\"\".\"": 4803,
  "“otu": 4804,
  "“obi": 4805,
  "“anyị": 4806,
  "’,": 4807,
  "ụmụahịa": 4808,
  "ọrụ)": 4809,
  "ọka.": 4810,
  "ọchịchịrị": 4811,
  "ịpụ": 4812,
  "ịkpụ": 4813,
  "ịkpatara": 4814,
  "zọpụtara": 4815,
  "zipụrụ": 4816,
  "yrus": 4817,
  "ychel": 4818,
  "ychelles": 4819,
  "vement": 4820,
  "uri": 4821,
  "tics": 4822,
  "taa?": 4823,
  "teri": 4824,
  "suo": 4825,
  "som": 4826,
  "shia": 4827,
  "ses": 4828,
  "satọdee": 4829,
  "rinho": 4830,
  "ril": 4831,
  "papyrus": 4832,
  "ozuzo": 4833,
  "oleekwanụ": 4834,
  "ohu.": 4835,
  "ogidi": 4836,
  "oju": 4837,
  "nyụọ": 4838,
  "nyochara": 4839,
  "nwayọọ,": 4840,
  "ntọala": 4841,
  "nsogbu,": 4842,
  "nsibidi": 4843,
  "nnwereonwe": 4844,
  "ndọ": 4845,
  "nchụaja": 4846,
  "na-erubeghị": 4847,
  "na-emekarị": 4848,
  "na-akpọtụ": 4849,
  "na-achọghị": 4850,
  "na-agọ": 4851,
  "napụ": 4852,
  "nisi": 4853,
  "mọn": 4854,
  "mmezu": 4855,
  "mkpa,": 4856,
  "mgbe\"": 4857,
  "mgbali": 4858,
  "mesaya": 4859,
  "mejọrọ": 4860,
  "mbize": 4861,
  "manyere": 4862,
  "ms": 4863,
  "mkpo": 4864,
  "mbịa": 4865,
  "luk,": 4866,
  "kụta": 4867,
  "kwukwara,": 4868,
  "kpọmkwem": 4869,
  "kasie": 4870,
  "kap": 4871,
  "kamel": 4872,
  "jirikwa": 4873,
  "ijide": 4874,
  "ibuli": 4875,
  "ibido": 4876,
  "huru": 4877,
  "gụwa": 4878,
  "gbanwere": 4879,
  "gbagbuo": 4880,
  "gara,": 4881,
  "gan": 4882,
  "fraịde,": 4883,
  "fransị": 4884,
  "esila": 4885,
  "esere": 4886,
  "eriela": 4887,
  "esiri": 4888,
  "debere": 4889,
  "dg": 4890,
  "chutu": 4891,
  "chebara": 4892,
  "cha,": 4893,
  "chan": 4894,
  "bịaara": 4895,
  "bughị": 4896,
  "biri.": 4897,
  "bilie": 4898,
  "bi,": 4899,
  "baptizim,": 4900,
  "awụsa": 4901,
  "awakpoola": 4902,
  "atụọla": 4903,
  "anusi": 4904,
  "ania": 4905,
  "amanye": 4906,
  "akwụghị": 4907,
  "akubu": 4908,
  "aha.": 4909,
  "agbalị": 4910,
  "abanye": 4911,
  "abaala": 4912,
  "agara": 4913,
  "Yusuf": 4914,
  "Yakubu": 4915,
  "Watford": 4916,
  "Wal": 4917,
  "Villa": 4918,
  "Udemba.": 4919,
  "Tunisi": 4920,
  "Tanzania": 4921,
  "Seychelles": 4922,
  "Que": 4923,
  "Osho": 4924,
  "Ngo": 4925,
  "Mourinho": 4926,
  "Maina": 4927,
  "Magu": 4928,
  "Korea": 4929,
  "Kon": 4930,
  "Jong-": 4931,
  "Jor": 4932,
  "Independe": 4933,
  "High": 4934,
  "Gre": 4935,
  "Gi": 4936,
  "French": 4937,
  "Federer": 4938,
  "Brighton": 4939,
  "Blessing": 4940,
  "Bala": 4941,
  "Awgu": 4942,
  "Arabi": 4943,
  "Ange": 4944,
  "Abe": 4945,
  ";)": 4946,
  "2018:": 4947,
  "2017,": 4948,
  "2014.": 4949,
  "10,": 4950,
  "\"\"na\"": 4951,
  "“mkpụrụ": 4952,
  "ụkwụ.": 4953,
  "ụkwa": 4954,
  "ọtọ,": 4955,
  "ọstra": 4956,
  "ọghọ": 4957,
  "ịnapụ": 4958,
  "ịnweta": 4959,
  "ịna-eche": 4960,
  "zụtara": 4961,
  "ube": 4962,
  "tụkwasị": 4963,
  "tọghapụ": 4964,
  "tia": 4965,
  "sekọnd": 4966,
  "sekọndrị": 4967,
  "saac": 4968,
  "satara": 4969,
  "sọrọ": 4970,
  "sley": 4971,
  "rah": 4972,
  "que": 4973,
  "part": 4974,
  "pre": 4975,
  "por": 4976,
  "osisi,": 4977,
  "ord": 4978,
  "ongworo": 4979,
  "oleezi": 4980,
  "oloko": 4981,
  "okwuchukwu": 4982,
  "obiano,": 4983,
  "obere.": 4984,
  "ogwu": 4985,
  "nwa,": 4986,
  "nkeọma": 4987,
  "nkem": 4988,
  "nie": 4989,
  "nghọtahie": 4990,
  "nebọ": 4991,
  "ndịọrụ": 4992,
  "ndina": 4993,
  "ndagwuru": 4994,
  "ndagwurugwu": 4995,
  "na-atụghị": 4996,
  "na-akpọ\"": 4997,
  "na-akpatara": 4998,
  "na-agagharị": 4999,
  "na-awakpo": 5000,
  "na-aghọ": 5001,
  "nan": 5002,
  "mmy": 5003,
  "mgbe,": 5004,
  "mgbọrọ": 5005,
  "mezie": 5006,
  "mbụ:": 5007,
  "machie": 5008,
  "mpụta": 5009,
  "kwupụta": 5010,
  "kwesịkwara": 5011,
  "juo": 5012,
  "jenesi": 5013,
  "izu,": 5014,
  "izrel,": 5015,
  "imiri": 5016,
  "ichefu": 5017,
  "gwongworo": 5018,
  "gosipụtara": 5019,
  "ghịkwa": 5020,
  "gement": 5021,
  "gburugburu,": 5022,
  "gboo,": 5023,
  "gbochiri": 5024,
  "ga-echeta": 5025,
  "ga-abụrịrị": 5026,
  "ga-akwa": 5027,
  "ga,": 5028,
  "fọdụzie": 5029,
  "ful": 5030,
  "ffield": 5031,
  "ewepụtala": 5032,
  "etiti.": 5033,
  "era": 5034,
  "er,": 5035,
  "ekwesighị": 5036,
  "ekperi": 5037,
  "emerụ": 5038,
  "dịzị": 5039,
  "dịna": 5040,
  "dgz.": 5041,
  "dah": 5042,
  "ctoral": 5043,
  "chọrọ,": 5044,
  "chineke.”": 5045,
  "chegodị": 5046,
  "bor": 5047,
  "bal": 5048,
  "aron": 5049,
  "anụ.": 5050,
  "angers": 5051,
  "anaghịzi": 5052,
  "akụọla": 5053,
  "akwụwa": 5054,
  "ahụike,": 5055,
  "agbaghara": 5056,
  "agbarụọla": 5057,
  "achụpụla": 5058,
  "abuja,": 5059,
  "abalị.": 5060,
  "akpụrụ": 5061,
  "Whi": 5062,
  "VC": 5063,
  "Umeh": 5064,
  "Tiwa": 5065,
  "Sheffield": 5066,
  "Sha": 5067,
  "SSOB": 5068,
  "Rangers": 5069,
  "Queen": 5070,
  "Patri": 5071,
  "Oyo": 5072,
  "Oki": 5073,
  "Nigeria:": 5074,
  "Ndubu": 5075,
  "Mohamed": 5076,
  "Ministry": 5077,
  "Martin": 5078,
  "MASSOB": 5079,
  "Law": 5080,
  "Katsina": 5081,
  "Jide": 5082,
  "Ibadan": 5083,
  "Isaac": 5084,
  "Ire": 5085,
  "Hou": 5086,
  "Hen": 5087,
  "Hau": 5088,
  "Gabon": 5089,
  "Forest": 5090,
  "Festus": 5091,
  "Fri": 5092,
  "Electoral": 5093,
  "Customs": 5094,
  "Camp": 5095,
  "Cla": 5096,
  "BBNaija": 5097,
  "Anya": 5098,
  "Anti": 5099,
  "Amu": 5100,
  "Ami": 5101,
  "AI": 5102,
  "45": 5103,
  "40": 5104,
  "2020.": 5105,
  "2015,": 5106,
  "195": 5107,
  "11,": 5108,
  "(S": 5109,
  "“na-": 5110,
  "ọsịsa": 5111,
  "ọrịa,": 5112,
  "ọktoba.": 5113,
  "ọchịagha": 5114,
  "ọb": 5115,
  "ịkwụwa": 5116,
  "ịwakpo": 5117,
  "ịbata": 5118,
  "zipuru": 5119,
  "zịa": 5120,
  "yemi": 5121,
  "yị": 5122,
  "ymar": 5123,
  "tụụrụ": 5124,
  "soja": 5125,
  "shua": 5126,
  "rumba": 5127,
  "rish": 5128,
  "rahụ": 5129,
  "pụtaghị": 5130,
  "pụ.": 5131,
  "pọtị": 5132,
  "pas": 5133,
  "ozizi": 5134,
  "ojuju": 5135,
  "oge\"": 5136,
  "oo": 5137,
  "nụ!": 5138,
  "nzuzu": 5139,
  "nwunye.": 5140,
  "nwuchiri": 5141,
  "nweghịzi": 5142,
  "nweere": 5143,
  "ntọrọ": 5144,
  "nka.": 5145,
  "ngwa,": 5146,
  "ngwere": 5147,
  "neu": 5148,
  "na-emezu": 5149,
  "na-emefu": 5150,
  "na-arụkọ": 5151,
  "na-agba.": 5152,
  "na-anabata": 5153,
  "nwakpo": 5154,
  "mou": 5155,
  "mmụọ,": 5156,
  "mmebi": 5157,
  "mepụtagoro": 5158,
  "mechakwara": 5159,
  "meya": 5160,
  "men": 5161,
  "marị": 5162,
  "m?": 5163,
  "lius": 5164,
  "lebe": 5165,
  "lam": 5166,
  "lụwa": 5167,
  "kwusa": 5168,
  "kwuputa": 5169,
  "kwetere": 5170,
  "kpọpụtara": 5171,
  "kpuchie": 5172,
  "kpataara": 5173,
  "kagbuo": 5174,
  "kaa": 5175,
  "ker": 5176,
  "jisie": 5177,
  "jọọ": 5178,
  "iteghete,": 5179,
  "inab": 5180,
  "imirikiti": 5181,
  "ime-": 5182,
  "ikpa": 5183,
  "hụtara": 5184,
  "hoohaa": 5185,
  "hibe": 5186,
  "ha:": 5187,
  "gọọmentị,": 5188,
  "gịnị?": 5189,
  "gịnwa": 5190,
  "gua": 5191,
  "gharazie": 5192,
  "ghaara": 5193,
  "ge:": 5194,
  "gburugburu.": 5195,
  "gbu.": 5196,
  "gboo.": 5197,
  "gbasaa": 5198,
  "gbanụ": 5199,
  "ga-eke": 5200,
  "ga-akpa": 5201,
  "ga-agwụ": 5202,
  "gọrọ": 5203,
  "enyeghị": 5204,
  "enwebeghị": 5205,
  "emeodo": 5206,
  "eme,": 5207,
  "ekwughị": 5208,
  "ekpenta": 5209,
  "ekeresime": 5210,
  "eyi": 5211,
  "ete": 5212,
  "ekike": 5213,
  "ee,": 5214,
  "dinta": 5215,
  "dekwara": 5216,
  "chefuo": 5217,
  "ctu": 5218,
  "col": 5219,
  "bịaruo": 5220,
  "bịakwutere": 5221,
  "buso": 5222,
  "briel": 5223,
  "bee": 5224,
  "bọrọ": 5225,
  "apụọla": 5226,
  "anwụọ.": 5227,
  "andu": 5228,
  "amabeghi": 5229,
  "aland": 5230,
  "akwalite": 5231,
  "akpụpụla": 5232,
  "akpịrị": 5233,
  "aka.”": 5234,
  "ahụkwa": 5235,
  "agaghịzi": 5236,
  "agaa": 5237,
  "afụ": 5238,
  "asịrị": 5239,
  "as": 5240,
  "Zealand": 5241,
  "Zainab": 5242,
  "War": 5243,
  "Uba": 5244,
  "Tech": 5245,
  "Syria": 5246,
  "Rwanda": 5247,
  "Po": 5248,
  "Onyema": 5249,
  "Okeke": 5250,
  "Nnabuihe": 5251,
  "Neymar": 5252,
  "Nasara": 5253,
  "Movement": 5254,
  "Moses": 5255,
  "Mal": 5256,
  "Lo": 5257,
  "Kukah": 5258,
  "Khafi": 5259,
  "Ko": 5260,
  "Jideọfọ": 5261,
  "Jere": 5262,
  "Indo": 5263,
  "Isi": 5264,
  "IA": 5265,
  "Gover": 5266,
  "Gabriel": 5267,
  "Ejike": 5268,
  "Dru": 5269,
  "Dike": 5270,
  "Cyril": 5271,
  "Ci": 5272,
  "Arabia": 5273,
  "Andrew": 5274,
  "Abacha": 5275,
  "Amo": 5276,
  "Achu": 5277,
  ";,": 5278,
  "2007": 5279,
  "2-": 5280,
  "14)": 5281,
  "\"ihe\"": 5282,
  "\"anyị\"": 5283,
  "“ha": 5284,
  "ụlọoriri": 5285,
  "ụjọ.": 5286,
  "ụgbọala.": 5287,
  "ụgwọọ": 5288,
  "ụdọ": 5289,
  "ọzọ.”": 5290,
  "ọnwa.": 5291,
  "ọgụ,": 5292,
  "ọghọm": 5293,
  "ọdọahịa": 5294,
  "ọrumba": 5295,
  "ịgbasa": 5296,
  "ịnata": 5297,
  "ịla": 5298,
  "ṅomie": 5299,
  "yie": 5300,
  "yu": 5301,
  "windo": 5302,
  "wepu": 5303,
  "ugbua?": 5304,
  "ugboro.": 5305,
  "ugbog": 5306,
  "ugbo,": 5307,
  "udele": 5308,
  "ul": 5309,
  "uke": 5310,
  "tuuru": 5311,
  "thy": 5312,
  "tro": 5313,
  "sịga,": 5314,
  "sịala": 5315,
  "sighị": 5316,
  "shing": 5317,
  "sasịa": 5318,
  "rịọkwa": 5319,
  "rula": 5320,
  "pital": 5321,
  "penal": 5322,
  "penalty": 5323,
  "paradaịs": 5324,
  "onwebeghị": 5325,
  "omume.": 5326,
  "onel": 5327,
  "nọgidere": 5328,
  "nwamkpị": 5329,
  "nubu": 5330,
  "nnupụ": 5331,
  "nkịtị.": 5332,
  "njọ,": 5333,
  "njem.": 5334,
  "niile?": 5335,
  "ngwa.": 5336,
  "neumo": 5337,
  "nchekwube": 5338,
  "na-enyekwa": 5339,
  "na-ejikwa": 5340,
  "na-atụnye": 5341,
  "na-atụbata": 5342,
  "nkarị": 5343,
  "mpị": 5344,
  "mpanọ": 5345,
  "mmerson": 5346,
  "mmadụ?": 5347,
  "mmanya.": 5348,
  "mkpụrụ.": 5349,
  "mgbọrọgwụ": 5350,
  "meyang": 5351,
  "melu": 5352,
  "mbịarambịara": 5353,
  "marakwa": 5354,
  "mara,": 5355,
  "maachị.": 5356,
  "mam": 5357,
  "loma": 5358,
  "lia.": 5359,
  "lekọta": 5360,
  "latara": 5361,
  "kwuchara": 5362,
  "kweghị": 5363,
  "kasiri": 5364,
  "kampanọ": 5365,
  "kh": 5366,
  "jie": 5367,
  "iyi.": 5368,
  "itoolu,": 5369,
  "ihiwe": 5370,
  "ifufe": 5371,
  "ha;": 5372,
  "gwaziri": 5373,
  "ghachite": 5374,
  "gburu.": 5375,
  "gbọrọ": 5376,
  "ga-erite": 5377,
  "ga-eleba": 5378,
  "ga-agbanwe": 5379,
  "ga-akwado": 5380,
  "gaa.": 5381,
  "fiele": 5382,
  "eziokwu.”": 5383,
  "esighị": 5384,
  "enyi.": 5385,
  "enugwu-ukwu": 5386,
  "emeghi": 5387,
  "election": 5388,
  "ejighi": 5389,
  "eburula": 5390,
  "ebiri": 5391,
  "ebe\"": 5392,
  "dor": 5393,
  "ders": 5394,
  "chịkọbara": 5395,
  "chapụrụ": 5396,
  "cco": 5397,
  "bụru": 5398,
  "bịbịa": 5399,
  "burg": 5400,
  "bameyang": 5401,
  "asaba": 5402,
  "anyị.”": 5403,
  "anwụchi": 5404,
  "an,": 5405,
  "ala?": 5406,
  "akụzi": 5407,
  "akwadola": 5408,
  "akpaego": 5409,
  "ahụhụ,": 5410,
  "agwaala": 5411,
  "achụmnta": 5412,
  "achụpụ": 5413,
  "abụbụọrụ": 5414,
  "abịaghị": 5415,
  "abịa,": 5416,
  "ana-eme": 5417,
  "akw": 5418,
  "aa": 5419,
  "Zidan": 5420,
  "Xenophobia": 5421,
  "Wole": 5422,
  "UT": 5423,
  "Tinubu": 5424,
  "Solomon": 5425,
  "Siasia": 5426,
  "Secondary": 5427,
  "Russia": 5428,
  "Rock": 5429,
  "Powerful": 5430,
  "Paris": 5431,
  "Per": 5432,
  "Palace": 5433,
  "Onwuamaegbu": 5434,
  "Otti": 5435,
  "Ngozi": 5436,
  "Nu": 5437,
  "NPC": 5438,
  "NNPC": 5439,
  "Morsi": 5440,
  "Management": 5441,
  "Mat": 5442,
  "Mali": 5443,
  "Moro": 5444,
  "Mc": 5445,
  "Lionel": 5446,
  "Kabi": 5447,
  "Jordan": 5448,
  "Ireland": 5449,
  "Haram.": 5450,
  "HO": 5451,
  "Fi": 5452,
  "Emefiele": 5453,
  "Emmerson": 5454,
  "Chukwuma": 5455,
  "Chile": 5456,
  "Bale": 5457,
  "Bridge": 5458,
  "Bebe": 5459,
  "Aubameyang": 5460,
  "Anglịkan": 5461,
  "Alha": 5462,
  "Al-": 5463,
  "Abang": 5464,
  "Asi": 5465,
  "Agbo": 5466,
  "2012": 5467,
  "14,": 5468,
  ".\"mana\"": 5469,
  "(APC": 5470,
  "\"ndị\"": 5471,
  "”.": 5472,
  "“mmadụ": 5473,
  "“dị": 5474,
  "ụlọikwu": 5475,
  "ụlọikwuu": 5476,
  "ụkwụ,": 5477,
  "ụgwọọnwa": 5478,
  "ọnịcha.": 5479,
  "ọgwụ,": 5480,
  "ọdụm": 5481,
  "ọta": 5482,
  "ọbịbịa": 5483,
  "ịgbaso": 5484,
  "ịsa": 5485,
  "ịnọchite": 5486,
  "ịnwụchi": 5487,
  "ịnwe": 5488,
  "ịghọ": 5489,
  "ị\"": 5490,
  "zon": 5491,
  "zbọ": 5492,
  "yana": 5493,
  "yabụ": 5494,
  "yọ": 5495,
  "wal": 5496,
  "waa": 5497,
  "wụrụ": 5498,
  "utu": 5499,
  "tute": 5500,
  "thur": 5501,
  "sọl": 5502,
  "siriri": 5503,
  "sir": 5504,
  "sin": 5505,
  "shington": 5506,
  "sanya": 5507,
  "rụpụtara": 5508,
  "rube": 5509,
  "ries": 5510,
  "pụọ,": 5511,
  "pastọ": 5512,
  "pta": 5513,
  "pa,": 5514,
  "onyendu": 5515,
  "omume,": 5516,
  "okeosisi": 5517,
  "ojiegbe": 5518,
  "ogene": 5519,
  "odee": 5520,
  "oj": 5521,
  "odi": 5522,
  "nyerela": 5523,
  "nsụgharị": 5524,
  "nna,": 5525,
  "nkịrị": 5526,
  "ni,": 5527,
  "ngwangwa": 5528,
  "neumonia": 5529,
  "nebuka": 5530,
  "nebukadne": 5531,
  "ndịisi": 5532,
  "na-ekwu,": 5533,
  "na-egbochi": 5534,
  "na-echi": 5535,
  "na-echere": 5536,
  "na-asụgharị": 5537,
  "na-akpọku": 5538,
  "na-agụsi": 5539,
  "na-anwa": 5540,
  "na-akwalite": 5541,
  "na-akparịta": 5542,
  "na-abanye": 5543,
  "nant": 5544,
  "nchọ": 5545,
  "mụnwa": 5546,
  "mkpegharị": 5547,
  "mgbago": 5548,
  "mechara,": 5549,
  "megoro": 5550,
  "mebi": 5551,
  "matakwa": 5552,
  "malitere.": 5553,
  "mato": 5554,
  "manye": 5555,
  "mad": 5556,
  "mson": 5557,
  "m)": 5558,
  "los": 5559,
  "llion": 5560,
  "life": 5561,
  "lee!": 5562,
  "latịn": 5563,
  "kwuokwa": 5564,
  "kwa.": 5565,
  "kuziere": 5566,
  "kpọkukwazie": 5567,
  "kpor": 5568,
  "kpakp": 5569,
  "kpakpando": 5570,
  "kemgbe.": 5571,
  "kedụ\"": 5572,
  "kewara": 5573,
  "kapito": 5574,
  "kachara": 5575,
  "ka-": 5576,
  "jara": 5577,
  "jani": 5578,
  "ijipt,": 5579,
  "igwe,": 5580,
  "idozi": 5581,
  "haziri": 5582,
  "gọọmentị.": 5583,
  "gwupụtara": 5584,
  "gbago": 5585,
  "gbado": 5586,
  "gbaru": 5587,
  "ga-ezu": 5588,
  "ga-eli": 5589,
  "ga-atọ": 5590,
  "ga-ajụ": 5591,
  "ga-anụ": 5592,
  "frey": 5593,
  "ezighi": 5594,
  "erịrị": 5595,
  "eriri": 5596,
  "enyemaka.": 5597,
  "ekwupu": 5598,
  "ekwetala": 5599,
  "ekpebiela": 5600,
  "ehi,": 5601,
  "ebute": 5602,
  "ebola": 5603,
  "ebe,": 5604,
  "ekwo": 5605,
  "ekpu": 5606,
  "egbuo": 5607,
  "dobe": 5608,
  "diocese": 5609,
  "dee,": 5610,
  "cturing": 5611,
  "card": 5612,
  "bụrụzie": 5613,
  "bezbọ": 5614,
  "babịlọn": 5615,
  "azụmaahịa": 5616,
  "atọhapụla": 5617,
  "arụ.": 5618,
  "arala": 5619,
  "arch": 5620,
  "anwuchiela": 5621,
  "amụrụ": 5622,
  "ahụbeghị": 5623,
  "atu": 5624,
  "agọ": 5625,
  "Weah": 5626,
  "Washington": 5627,
  "Van": 5628,
  "Thomson": 5629,
  "Thi": 5630,
  "Sule": 5631,
  "Regina": 5632,
  "Radio": 5633,
  "Rabi": 5634,
  "Phili": 5635,
  "Pneumonia": 5636,
  "Odume": 5637,
  "Nsuk": 5638,
  "Mustapha": 5639,
  "Leah": 5640,
  "Lassa": 5641,
  "Kingsley": 5642,
  "Kanu:": 5643,
  "Kar": 5644,
  "Independent": 5645,
  "Ilo": 5646,
  "Hos": 5647,
  "Golden": 5648,
  "Fashola": 5649,
  "Fre": 5650,
  "Emzor": 5651,
  "Eliza": 5652,
  "Election:": 5653,
  "El-Rufai": 5654,
  "Ejiofor": 5655,
  "China.": 5656,
  "Chinwe": 5657,
  "CC": 5658,
  "Buhari.": 5659,
  "Bob": 5660,
  "Arthur": 5661,
  "Allen": 5662,
  "Adinu": 5663,
  "Ari": 5664,
  "Amnesty": 5665,
  "Akpa": 5666,
  "90": 5667,
  "2023.": 5668,
  "13)": 5669,
  "11)": 5670,
  ".\"nke\"": 5671,
  "(gbara": 5672,
  "($": 5673,
  "\"bụ\"": 5674,
  "“nke": 5675,
  "“i": 5676,
  "ụtọ.”": 5677,
  "ụgbọelu.": 5678,
  "ụgbọala,": 5679,
  "ụtarị": 5680,
  "ọbaego": 5681,
  "Ọka": 5682,
  "Ọkafọ": 5683,
  "ịtụna": 5684,
  "ịmachi": 5685,
  "ịchọta": 5686,
  "ịchị.": 5687,
  "ịtọ": 5688,
  "zịe": 5689,
  "zere": 5690,
  "yan": 5691,
  "werekwa": 5692,
  "uweojii,": 5693,
  "uru?": 5694,
  "uche.": 5695,
  "umu": 5696,
  "tomato": 5697,
  "tiusde,": 5698,
  "timi": 5699,
  "tico": 5700,
  "therland": 5701,
  "tel": 5702,
  "sus": 5703,
  "structuring": 5704,
  "stant": 5705,
  "s)": 5706,
  "rụwa": 5707,
  "riterela:": 5708,
  "rance": 5709,
  "pọtịfa": 5710,
  "praịmarị": 5711,
  "pse": 5712,
  "oriri.": 5713,
  "ory": 5714,
  "onyeisiala,": 5715,
  "oleekwa": 5716,
  "obi.”": 5717,
  "oba": 5718,
  "nọghị": 5719,
  "nzuzo,": 5720,
  "nwụchiela": 5721,
  "nuk": 5722,
  "nnupụisi": 5723,
  "nlegharị": 5724,
  "nkewa": 5725,
  "nic": 5726,
  "nebọt": 5727,
  "ndụ.”": 5728,
  "ndịda-": 5729,
  "naịjirịa\"": 5730,
  "na-ezighị": 5731,
  "na-eleba": 5732,
  "na-ekwukarị": 5733,
  "na-echebara": 5734,
  "na-eku": 5735,
  "na-eburu": 5736,
  "na-asọpụrụ": 5737,
  "na-agakwa": 5738,
  "na-ala": 5739,
  "na-abọ": 5740,
  "nnọ": 5741,
  "mpton": 5742,
  "mmekpa": 5743,
  "mkpọrọ,": 5744,
  "mi,": 5745,
  "meruru": 5746,
  "mepe": 5747,
  "meghị": 5748,
  "megharịa": 5749,
  "media": 5750,
  "mberede.": 5751,
  "mahadum,": 5752,
  "mago": 5753,
  "mwere": 5754,
  "lue": 5755,
  "lebara": 5756,
  "kwuru\"": 5757,
  "kwuola": 5758,
  "kwenye": 5759,
  "kwekwazie": 5760,
  "kraịst.”": 5761,
  "kpọpụtasịrị": 5762,
  "kpọkuzie": 5763,
  "kenan": 5764,
  "karịsịa": 5765,
  "kaliki": 5766,
  "keri": 5767,
  "ision": 5768,
  "ime-ime": 5769,
  "ilding": 5770,
  "ikwusa": 5771,
  "ikom": 5772,
  "ijikọ": 5773,
  "ibibi": 5774,
  "iberiibe": 5775,
  "ikweta": 5776,
  "gọọmentị\"": 5777,
  "ghani": 5778,
  "gboo?": 5779,
  "gbakọtara": 5780,
  "gbagoro": 5781,
  "ga-emebi": 5782,
  "ga-eme,": 5783,
  "ga-enyocha": 5784,
  "ga-ekpebi": 5785,
  "ga-eche": 5786,
  "ga-anọchite": 5787,
  "ga-anọchi": 5788,
  "ga-awụ": 5789,
  "ga-ala": 5790,
  "ga-akara": 5791,
  "ganye": 5792,
  "gakwuru": 5793,
  "frans": 5794,
  "ezie.": 5795,
  "ezenwaanyị": 5796,
  "ewepụta": 5797,
  "esoghị": 5798,
  "esoghi": 5799,
  "eprel,": 5800,
  "enwete": 5801,
  "emeli": 5802,
  "ekperima": 5803,
  "ekeresimesi": 5804,
  "ebee": 5805,
  "ene": 5806,
  "dịla": 5807,
  "die": 5808,
  "dibịa": 5809,
  "curity": 5810,
  "chịbụrụ": 5811,
  "bịafra.": 5812,
  "burula": 5813,
  "bunye": 5814,
  "bu.": 5815,
  "bio": 5816,
  "baghị": 5817,
  "atụ.": 5818,
  "asị,": 5819,
  "anụmanụ.": 5820,
  "anwụọ,": 5821,
  "amalitere": 5822,
  "alụmdina": 5823,
  "akọwaala": 5824,
  "akarị.": 5825,
  "ajụla": 5826,
  "ahụ;": 5827,
  "agwaghị": 5828,
  "aghọọ": 5829,
  "agbanweela": 5830,
  "agbari": 5831,
  "agọrọla": 5832,
  "adị,": 5833,
  "achọpụtara": 5834,
  "abakaliki": 5835,
  "aṅ": 5836,
  "ast": 5837,
  "alọta": 5838,
  "ali": 5839,
  "WHO": 5840,
  "Vir": 5841,
  "Uloma": 5842,
  "Ter": 5843,
  "South,": 5844,
  "Sanusi": 5845,
  "Rotimi": 5846,
  "Roma": 5847,
  "Red": 5848,
  "PDP.": 5849,
  "Open": 5850,
  "Onyebu": 5851,
  "Odumegwu": 5852,
  "Oga": 5853,
  "Of": 5854,
  "Nwoko": 5855,
  "Nigeria\"": 5856,
  "Mur": 5857,
  "Morocco": 5858,
  "Mogha": 5859,
  "Milan": 5860,
  "Joshua": 5861,
  "Innocent": 5862,
  "Idigo": 5863,
  "Ije": 5864,
  "Ide": 5865,
  "Highlife": 5866,
  "Henry": 5867,
  "Harry": 5868,
  "Godwin": 5869,
  "Football": 5870,
  "FAAN": 5871,
  "Fani": 5872,
  "Elkana": 5873,
  "Emer": 5874,
  "Day:": 5875,
  "Chisom": 5876,
  "Chinu": 5877,
  "CAF": 5878,
  "Border": 5879,
  "Binta": 5880,
  "Bol": 5881,
  "Alhaji": 5882,
  "Adams": 5883,
  "Aya": 5884,
  "Asa": 5885,
  "Ango": 5886,
  "5:": 5887,
  "47": 5888,
  "44": 5889,
  "39": 5890,
  "2:": 5891,
  "10)": 5892,
  ".\"akụkọ\"": 5893,
  ".\"a\"": 5894,
  "-I": 5895,
  "'\"": 5896,
  "“okwu": 5897,
  "“nna": 5898,
  "“ma": 5899,
  "ụwa.”": 5900,
  "ụmụaka,": 5901,
  "ọgọst.": 5902,
  "ọn": 5903,
  "ọha.": 5904,
  "ịnwụ.": 5905,
  "ịnara": 5906,
  "zuga": 5907,
  "zoo": 5908,
  "zia": 5909,
  "wuchiri": 5910,
  "wepụrụ": 5911,
  "unu.”": 5912,
  "unu,": 5913,
  "umengwụ": 5914,
  "ut": 5915,
  "unyi": 5916,
  "udi": 5917,
  "tụrụla": 5918,
  "tụnye": 5919,
  "tunde": 5920,
  "thed": 5921,
  "thedral": 5922,
  "ters": 5923,
  "teta": 5924,
  "te:": 5925,
  "tter": 5926,
  "ts": 5927,
  "sation": 5928,
  "sli": 5929,
  "ruru,": 5930,
  "rituo": 5931,
  "rison": 5932,
  "rial": 5933,
  "res": 5934,
  "refere": 5935,
  "rate": 5936,
  "pound": 5937,
  "ozugbo,": 5938,
  "ozubulu": 5939,
  "owerri,": 5940,
  "ole.": 5941,
  "oland": 5942,
  "ojii,": 5943,
  "ogiri": 5944,
  "oye": 5945,
  "oghe": 5946,
  "obu": 5947,
  "nwụọla": 5948,
  "nwụchịrị": 5949,
  "ntụliaka,": 5950,
  "ntial": 5951,
  "ntabi": 5952,
  "nnes": 5953,
  "nnabata": 5954,
  "nley": 5955,
  "nkesa": 5956,
  "ngwọrọ": 5957,
  "ndụ?": 5958,
  "ndịda-ọwụwa": 5959,
  "ndidi": 5960,
  "nder": 5961,
  "nchekwa.": 5962,
  "na-ekwurịta": 5963,
  "na-ekwukwa": 5964,
  "na-egwupụta": 5965,
  "na-eli": 5966,
  "na-edina": 5967,
  "na-agbanwe": 5968,
  "na-awụ": 5969,
  "na-ahapụ": 5970,
  "na-agwọ": 5971,
  "nza": 5972,
  "nte": 5973,
  "ngwọ": 5974,
  "ngwu": 5975,
  "ner": 5976,
  "mola": 5977,
  "mmetọ": 5978,
  "merube": 5979,
  "merichara": 5980,
  "mere?": 5981,
  "mamịrị": 5982,
  "lịka": 5983,
  "lying": 5984,
  "line": 5985,
  "legọs,": 5986,
  "league": 5987,
  "lation": 5988,
  "lass": 5989,
  "kwụnyere": 5990,
  "kwu,": 5991,
  "kwete": 5992,
  "kwaso": 5993,
  "kunle": 5994,
  "kpọchiri": 5995,
  "kpasuo": 5996,
  "karịchaa,": 5997,
  "kachasi": 5998,
  "kanda": 5999,
  "kach": 6000,
  "jizọs?": 6001,
  "jighị": 6002,
  "jaa": 6003,
  "izuu": 6004,
  "izu.": 6005,
  "izizi": 6006,
  "iweta": 6007,
  "imepụta": 6008,
  "imon": 6009,
  "ileba": 6010,
  "ikesa": 6011,
  "ihe.”": 6012,
  "ig.": 6013,
  "ize": 6014,
  "ikwado": 6015,
  "hụkwara": 6016,
  "hichapụ": 6017,
  "ham,": 6018,
  "haala": 6019,
  "gụpụtara": 6020,
  "gbarala": 6021,
  "gbalahụ": 6022,
  "gbapụtara": 6023,
  "gbanyụ": 6024,
  "gafere,": 6025,
  "ga-eweta": 6026,
  "ga-eme?": 6027,
  "ga-achịwa": 6028,
  "ga-achịpụ": 6029,
  "ga-achụ": 6030,
  "fịọ": 6031,
  "face": 6032,
  "enwela": 6033,
  "elari": 6034,
  "ekwupụtala": 6035,
  "ekewa": 6036,
  "egbughị": 6037,
  "efu.": 6038,
  "echetara": 6039,
  "echekwa": 6040,
  "ebi?": 6041,
  "ebere,": 6042,
  "ex": 6043,
  "ekwere": 6044,
  "ebidoro": 6045,
  "dịgasị": 6046,
  "dowe": 6047,
  "dere.": 6048,
  "cie": 6049,
  "chọro": 6050,
  "chetaara": 6051,
  "chez": 6052,
  "cha.": 6053,
  "city": 6054,
  "bụzịkwa": 6055,
  "binye": 6056,
  "bel": 6057,
  "bara.": 6058,
  "bank": 6059,
  "blọ": 6060,
  "azaghị": 6061,
  "awụọla": 6062,
  "asọpụrụ": 6063,
  "arack": 6064,
  "anụ,": 6065,
  "anwụọla.": 6066,
  "anata": 6067,
  "an.": 6068,
  "alụm": 6069,
  "ahọpụta": 6070,
  "aghaghị": 6071,
  "awu": 6072,
  "awakporo": 6073,
  "amaka": 6074,
  "agboro": 6075,
  "________________": 6076,
  "Ye": 6077,
  "Uchendu": 6078,
  "Us": 6079,
  "Tunisia": 6080,
  "Thai": 6081,
  "Syri": 6082,
  "Security": 6083,
  "Sanchez": 6084,
  "Sadio": 6085,
  "Simon": 6086,
  "Presidential": 6087,
  "Police": 6088,
  "Poly": 6089,
  "Pan": 6090,
  "PVC": 6091,
  "PP": 6092,
  "Onyeama": 6093,
  "Onwuemeodo": 6094,
  "Ogbonna": 6095,
  "Ogbodo": 6096,
  "Oma": 6097,
  "Oby": 6098,
  "Netherland": 6099,
  "Ndidi": 6100,
  "Nasarawa": 6101,
  "Nimo": 6102,
  "Mary": 6103,
  "Mozi": 6104,
  "Mma": 6105,
  "Labour": 6106,
  "Ly": 6107,
  "Ky": 6108,
  "Klint": 6109,
  "Jud": 6110,
  "Josef,": 6111,
  "Hong": 6112,
  "Holy": 6113,
  "Gea": 6114,
  "Gandu": 6115,
  "Friday": 6116,
  "FaceApp": 6117,
  "Flying": 6118,
  "Ekweremadu:": 6119,
  "Evan": 6120,
  "Eri": 6121,
  "Ebe": 6122,
  "ER": 6123,
  "Centre": 6124,
  "Cathedral": 6125,
  "Burnley": 6126,
  "Bill": 6127,
  "Bau": 6128,
  "Barack": 6129,
  "BS": 6130,
  "Ahmad": 6131,
  "Afric": 6132,
  "Afghani": 6133,
  "Adinuba": 6134,
  "AIT": 6135,
  "Awo": 6136,
  "Agba": 6137,
  "88": 6138,
  "77": 6139,
  "19)": 6140,
  "187": 6141,
  "17)": 6142,
  "15)": 6143,
  "-Olu": 6144,
  "-5": 6145,
  "“abụ": 6146,
  "ụmụnwaanyị,": 6147,
  "ụgwọ,": 6148,
  "ọnụego": 6149,
  "ọchị,": 6150,
  "ịrụsi": 6151,
  "ịnabata": 6152,
  "zuruike": 6153,
  "zation": 6154,
  "zagha": 6155,
  "ya.,": 6156,
  "ya:\"": 6157,
  "welitere": 6158,
  "vage": 6159,
  "vision": 6160,
  "uweojii.": 6161,
  "udummiri": 6162,
  "tụdịghị": 6163,
  "tọzde,": 6164,
  "tọgburu": 6165,
  "tuola": 6166,
  "tule": 6167,
  "tufuru": 6168,
  "tors": 6169,
  "tebụ": 6170,
  "tebulu": 6171,
  "tara,": 6172,
  "tado": 6173,
  "tre": 6174,
  "tle": 6175,
  "sụọ": 6176,
  "sịrị,": 6177,
  "surance": 6178,
  "ssey": 6179,
  "social": 6180,
  "siere": 6181,
  "si.": 6182,
  "rụchaa": 6183,
  "rant": 6184,
  "pụọ.": 6185,
  "pụtakwara": 6186,
  "pụtakarịchara": 6187,
  "putere": 6188,
  "partment": 6189,
  "patị": 6190,
  "oyi,": 6191,
  "olas": 6192,
  "okwu?": 6193,
  "ogologo.": 6194,
  "ogidi,": 6195,
  "okwuru": 6196,
  "nwụchikọọ": 6197,
  "nwunye,": 6198,
  "nwute": 6199,
  "ntanet": 6200,
  "nnochite": 6201,
  "nnekwu": 6202,
  "nne,": 6203,
  "nkwupụta": 6204,
  "nkuzi,": 6205,
  "nkasi": 6206,
  "ngozi": 6207,
  "ndị.": 6208,
  "nche,": 6209,
  "na-ezughị": 6210,
  "na-ewepụta": 6211,
  "na-emekpa": 6212,
  "na-eduhie": 6213,
  "na-ebido": 6214,
  "na-arụ.": 6215,
  "na-anọghị": 6216,
  "na-achị.": 6217,
  "na-abụkarị": 6218,
  "nko": 6219,
  "nk": 6220,
  "nch": 6221,
  "mpard": 6222,
  "mood": 6223,
  "mmekọahụ": 6224,
  "mkpata": 6225,
  "mgbe.": 6226,
  "maị": 6227,
  "mọtọ": 6228,
  "mwulite": 6229,
  "mwepụ": 6230,
  "lis": 6231,
  "letico": 6232,
  "lapse": 6233,
  "lag": 6234,
  "kọọ,": 6235,
  "kwụwa": 6236,
  "kwuru,\"": 6237,
  "kwuoro": 6238,
  "kwusiri": 6239,
  "kwunyere": 6240,
  "kwughị": 6241,
  "kwaraji": 6242,
  "kwagara": 6243,
  "kwaga": 6244,
  "kpọkuzịrị": 6245,
  "kpọwa": 6246,
  "kpọta": 6247,
  "kpawa": 6248,
  "kepukepu": 6249,
  "kampanọs": 6250,
  "kagburu": 6251,
  "jisi": 6252,
  "jichiri": 6253,
  "jenesis": 6254,
  "jamanị.": 6255,
  "isiobodo": 6256,
  "ikpebi": 6257,
  "ike?": 6258,
  "ike.”": 6259,
  "inu": 6260,
  "intanet": 6261,
  "ige": 6262,
  "iburu": 6263,
  "huabu": 6264,
  "hara": 6265,
  "gị.”": 6266,
  "gwuo": 6267,
  "guzoro": 6268,
  "ghị,": 6269,
  "ghe,": 6270,
  "gbo,": 6271,
  "gbara.": 6272,
  "gbaburu": 6273,
  "gbaba": 6274,
  "gbari": 6275,
  "garde": 6276,
  "gaghịkwa": 6277,
  "ga-abịa.": 6278,
  "ga-amụ": 6279,
  "ga-akụziri": 6280,
  "ga-abụkwa": 6281,
  "ga-ebe": 6282,
  "gawara": 6283,
  "gaba": 6284,
  "fred": 6285,
  "fety": 6286,
  "fia": 6287,
  "etiti,": 6288,
  "esorola": 6289,
  "erị": 6290,
  "erre": 6291,
  "emecha": 6292,
  "ekwuona": 6293,
  "ekwentị,": 6294,
  "ekwesiri": 6295,
  "ekwenyeghị": 6296,
  "ekpebiri": 6297,
  "ejichiela": 6298,
  "edozi": 6299,
  "echegbu": 6300,
  "ebere.": 6301,
  "dịkarị": 6302,
  "deau": 6303,
  "daura": 6304,
  "da.": 6305,
  "chịwa": 6306,
  "cheta\"": 6307,
  "chegharịa": 6308,
  "chari": 6309,
  "cation": 6310,
  "bụdị": 6311,
  "bịara,": 6312,
  "bịafra,": 6313,
  "bịaziri": 6314,
  "bibiri": 6315,
  "berg": 6316,
  "beth": 6317,
  "be.": 6318,
  "bagidere": 6319,
  "azọpụtala": 6320,
  "atụrụ,": 6321,
  "atọrọla": 6322,
  "atọọrọ": 6323,
  "asọmpi.": 6324,
  "ara,": 6325,
  "ardi": 6326,
  "anụmanụ,": 6327,
  "anyasị": 6328,
  "amịtaghị": 6329,
  "alụkwaghịm.": 6330,
  "alụghị": 6331,
  "akwụọla": 6332,
  "akwadoghị": 6333,
  "akpati": 6334,
  "akari": 6335,
  "abịala": 6336,
  "aịza": 6337,
  "ase": 6338,
  "apa": 6339,
  "alu": 6340,
  "akpọkuola": 6341,
  "adi": 6342,
  "Zidane": 6343,
  "Ya": 6344,
  "Usman": 6345,
  "Ugo": 6346,
  "Tijani": 6347,
  "Techno": 6348,
  "TA": 6349,
  "Social": 6350,
  "Secondu": 6351,
  "Savage": 6352,
  "Swe": 6353,
  "Stan": 6354,
  "Selari": 6355,
  "Romne": 6356,
  "Paki": 6357,
  "Por": 6358,
  "Oscars": 6359,
  "Okorie": 6360,
  "Okwaraji": 6361,
  "Nasir": 6362,
  "Morrison": 6363,
  "Mark": 6364,
  "Malay": 6365,
  "Mahmood": 6366,
  "Maria": 6367,
  "MM": 6368,
  "London.": 6369,
  "Leban": 6370,
  "Lampard": 6371,
  "Lagarde": 6372,
  "Kan": 6373,
  "Jeremy": 6374,
  "Indigen": 6375,
  "Iko": 6376,
  "Hollywood": 6377,
  "Ganduje": 6378,
  "Gir": 6379,
  "Fund": 6380,
  "Fire": 6381,
  "Fir": 6382,
  "FR": 6383,
  "England.": 6384,
  "Edward": 6385,
  "Emi": 6386,
  "Eid": 6387,
  "Dick": 6388,
  "Department": 6389,
  "Dandaura": 6390,
  "Dr": 6391,
  "Cyber": 6392,
  "Corpo": 6393,
  "Califor": 6394,
  "Court": 6395,
  "Benue,": 6396,
  "Belgi": 6397,
  "Ball": 6398,
  "Bash": 6399,
  "Bil": 6400,
  "Atletico": 6401,
  "Asse": 6402,
  "Aminu": 6403,
  "Ajayi": 6404,
  "Adesanya": 6405,
  "Austin": 6406,
  "Ath": 6407,
  "Akwu": 6408,
  "Achi": 6409,
  "43": 6410,
  "20)": 6411,
  "1-": 6412,
  "(APC)": 6413,
  "\"\",\"": 6414,
  "\"(": 6415,
  "“mụ": 6416,
  "ụtụtụ.": 6417,
  "ụmụntakịrị": 6418,
  "ụlọụka.": 6419,
  "ụlọikpe,": 6420,
  "ụlọozu": 6421,
  "ụbụrụisi": 6422,
  "ụbọ": 6423,
  "ụsa": 6424,
  "ụbịa": 6425,
  "ụbịam": 6426,
  "ọnụnụ": 6427,
  "ọhịa,": 6428,
  "ọdịnihu?": 6429,
  "ọnyụ": 6430,
  "ọmị": 6431,
  "ịsụgharị": 6432,
  "ịmatakwu": 6433,
  "ịgbalị": 6434,
  "ịgwọ": 6435,
  "ịche": 6436,
  "zị,": 6437,
  "zukọrọ": 6438,
  "zer": 6439,
  "wuo": 6440,
  "wetere": 6441,
  "urtado": 6442,
  "ubi,": 6443,
  "tọhapụrụ": 6444,
  "tozuo": 6445,
  "tte": 6446,
  "sịkwara": 6447,
  "sị;": 6448,
  "soo": 6449,
  "sochiri": 6450,
  "septemba.": 6451,
  "sepụ": 6452,
  "saịt": 6453,
  "satọdee.": 6454,
  "sa.": 6455,
  "sk": 6456,
  "rom.": 6457,
  "risti": 6458,
  "ries:": 6459,
  "raq": 6460,
  "rac": 6461,
  "rd": 6462,
  "puku,": 6463,
  "prote": 6464,
  "pal": 6465,
  "ozie": 6466,
  "onye.": 6467,
  "okwukwe.": 6468,
  "okeala": 6469,
  "ojii.": 6470,
  "ojiego": 6471,
  "obere,": 6472,
  "oghere": 6473,
  "nọrọla": 6474,
  "nọgide": 6475,
  "nọchie": 6476,
  "nzere": 6477,
  "nwụnye": 6478,
  "nwụchị": 6479,
  "nwuchie": 6480,
  "nwereonwe": 6481,
  "nkea,": 6482,
  "ning": 6483,
  "ngụkọ": 6484,
  "ngwaọrụ": 6485,
  "nger": 6486,
  "nebukadneza": 6487,
  "nduru": 6488,
  "na-ewetara": 6489,
  "na-erughị": 6490,
  "na-enwekwa": 6491,
  "na-emezi": 6492,
  "na-emekọ": 6493,
  "na-eleta": 6494,
  "na-ekwu?": 6495,
  "na-ejide": 6496,
  "na-egbuke": 6497,
  "na-esote": 6498,
  "na-emeri": 6499,
  "na-edebe": 6500,
  "na-agbakwa": 6501,
  "na-ajọ": 6502,
  "na-agwụ": 6503,
  "na-adịrị": 6504,
  "n'otu": 6505,
  "nnọchi": 6506,
  "nment": 6507,
  "nike": 6508,
  "ngọ": 6509,
  "mouth": 6510,
  "mmeri.": 6511,
  "mmehie.": 6512,
  "midia,": 6513,
  "mise": 6514,
  "metụtara.": 6515,
  "merịrị": 6516,
  "mepee": 6517,
  "mefu": 6518,
  "mechi": 6519,
  "mbugharị": 6520,
  "mbinye": 6521,
  "mara.": 6522,
  "maburu": 6523,
  "mọkụ": 6524,
  "m\"": 6525,
  "lewe": 6526,
  "lagoro": 6527,
  "llo": 6528,
  "lari": 6529,
  "kụọla": 6530,
  "kọtala": 6531,
  "kwuziri": 6532,
  "kwurịta": 6533,
  "kwudịrị": 6534,
  "kuziri": 6535,
  "kpamkpam.": 6536,
  "kpamkpam": 6537,
  "kpachiri": 6538,
  "katọọ": 6539,
  "kachanụ": 6540,
  "kawa": 6541,
  "kaara": 6542,
  "julaị.": 6543,
  "isisi": 6544,
  "irubere": 6545,
  "inọk.": 6546,
  "inwete": 6547,
  "imegide": 6548,
  "iko,": 6549,
  "inyo": 6550,
  "ila": 6551,
  "ijere": 6552,
  "hụrụ.": 6553,
  "huabunwa": 6554,
  "hovah": 6555,
  "hel": 6556,
  "gụnyere;": 6557,
  "gịnị\"": 6558,
  "gue": 6559,
  "gu,": 6560,
  "gidi": 6561,
  "ghts": 6562,
  "gbalaga": 6563,
  "gbadoro": 6564,
  "ga-enyekwa": 6565,
  "ga-ezi": 6566,
  "ga-edu": 6567,
  "ga-anabata": 6568,
  "ga-akpụpụ": 6569,
  "ga-akpụ": 6570,
  "ga-achọpụta": 6571,
  "eturula": 6572,
  "eruwe": 6573,
  "emenwu": 6574,
  "emegbu": 6575,
  "eleghị": 6576,
  "ekwupụta": 6577,
  "egwuregwu.": 6578,
  "ebuliela": 6579,
  "ebinyela": 6580,
  "ebinye": 6581,
  "ebighi": 6582,
  "eghe": 6583,
  "edere": 6584,
  "dụọla": 6585,
  "dium": 6586,
  "daa.": 6587,
  "ckle": 6588,
  "cience": 6589,
  "chụsasịa": 6590,
  "chukwu,": 6591,
  "ctri": 6592,
  "bugara": 6593,
  "bisi": 6594,
  "baịbụl.”": 6595,
  "aịzik": 6596,
  "atorial": 6597,
  "arụkwaghịm": 6598,
  "arụpụta": 6599,
  "areth": 6600,
  "art": 6601,
  "anyanwụ,": 6602,
  "anabatala": 6603,
  "ana,": 6604,
  "anọọla": 6605,
  "anọrọ": 6606,
  "anti": 6607,
  "alụmdinanwunye": 6608,
  "alaigbo": 6609,
  "akatọla": 6610,
  "akarịala": 6611,
  "akasi": 6612,
  "akagbuola": 6613,
  "ahụhụ?": 6614,
  "ahọpụtala": 6615,
  "aha,": 6616,
  "agwọọla": 6617,
  "agbamakwụkwọ": 6618,
  "agakwaghị": 6619,
  "afa": 6620,
  "adịgboroja.": 6621,
  "adị?": 6622,
  "abụ;": 6623,
  "abatala": 6624,
  "ab": 6625,
  "YouTu": 6626,
  "Virgi": 6627,
  "Valen": 6628,
  "Twitter.": 6629,
  "Thailand": 6630,
  "Tammy": 6631,
  "Tai": 6632,
  "Tar": 6633,
  "TIP": 6634,
  "Sweden": 6635,
  "Sickle": 6636,
  "Shari": 6637,
  "Safety": 6638,
  "Sky": 6639,
  "Sco": 6640,
  "Science": 6641,
  "Rita": 6642,
  "Rede": 6643,
  "Ray": 6644,
  "Queens": 6645,
  "Promise": 6646,
  "President": 6647,
  "Philip": 6648,
  "Patrick": 6649,
  "PDP,": 6650,
  "Organisation": 6651,
  "Onyebuchi": 6652,
  "Onumah": 6653,
  "Okeke,": 6654,
  "Odekpe": 6655,
  "Obama,": 6656,
  "OG": 6657,
  "Nwagbara": 6658,
  "Nsukka": 6659,
  "Nigeria.": 6660,
  "News": 6661,
  "Moghalu": 6662,
  "Madagaska": 6663,
  "Light": 6664,
  "Lig": 6665,
  "Laf": 6666,
  "Ken": 6667,
  "Julius": 6668,
  "Jong-un": 6669,
  "Indigenous": 6670,
  "Iraq": 6671,
  "House": 6672,
  "Hospital": 6673,
  "Fr.": 6674,
  "Fin": 6675,
  "Evans": 6676,
  "Equatorial": 6677,
  "Ekweremadu.": 6678,
  "Eke": 6679,
  "EF": 6680,
  "EE": 6681,
  "Chukwudi": 6682,
  "Chu": 6683,
  "Cal": 6684,
  "Buhari\"": 6685,
  "Building": 6686,
  "Boston": 6687,
  "Boni": 6688,
  "Bible": 6689,
  "Benue": 6690,
  "Bashir": 6691,
  "Babatunde": 6692,
  "Bassey": 6693,
  "Angola": 6694,
  "Anao": 6695,
  "Amaraizu": 6696,
  "Amazon": 6697,
  "Alexandra": 6698,
  "Akpabio": 6699,
  "Ajax": 6700,
  "Afghanistan": 6701,
  "Adeye": 6702,
  "Adamawa": 6703,
  "Adam.": 6704,
  "APTIP": 6705,
  "Azu": 6706,
  "Ayo": 6707,
  "Awa": 6708,
  "Aston": 6709,
  "Aki": 6710,
  "85": 6711,
  "80": 6712,
  "35": 6713,
  "2013.": 6714,
  "2011": 6715,
  "1;": 6716,
  "-ọkaiwu": 6717,
  "-uweojii": 6718,
  "-gọọmentị": 6719,
  "-bụ": 6720,
  "-U": 6721,
  "-Buhari": 6722,
  "\"a\"": 6723,
  "“oge": 6724,
  "“gịnị": 6725,
  "“ezi": 6726,
  "ụtọ?": 6727,
  "ụkpụrụ": 6728,
  "ọrụ?": 6729,
  "ọma?": 6730,
  "ọlị.": 6731,
  "ọktoba,": 6732,
  "ọjọọ?": 6733,
  "ọgwụgwọ.": 6734,
  "ọgbata": 6735,
  "ọgbatauhie": 6736,
  "ọchụchụ": 6737,
  "ọbọgwụ": 6738,
  "ọf": 6739,
  "ọd": 6740,
  "ọchan": 6741,
  "ọchanja": 6742,
  "ịzụta": 6743,
  "ịtụnyere": 6744,
  "ịs": 6745,
  "ịpụta": 6746,
  "ị,": 6747,
  "zuola": 6748,
  "ziteere": 6749,
  "wụọ": 6750,
  "webụ": 6751,
  "webụsaịt": 6752,
  "webata": 6753,
  "woro": 6754,
  "venant": 6755,
  "uru.”": 6756,
  "uhuru": 6757,
  "tọrọla": 6758,
  "tunyere": 6759,
  "ttack": 6760,
  "tozu": 6761,
  "tlehe": 6762,
  "thani": 6763,
  "thaniel": 6764,
  "terite": 6765,
  "tenis": 6766,
  "sọlọ": 6767,
  "sịga.": 6768,
  "sị:\"anyị\"": 6769,
  "sts": 6770,
  "ssan": 6771,
  "sorokwa": 6772,
  "so.": 6773,
  "siria": 6774,
  "sista": 6775,
  "server": 6776,
  "rụtụ": 6777,
  "rụchara": 6778,
  "rịtaụka": 6779,
  "ruuru": 6780,
  "ristiano": 6781,
  "redio": 6782,
  "re:": 6783,
  "pore": 6784,
  "pri": 6785,
  "plo": 6786,
  "ozuzu": 6787,
  "owuwe": 6788,
  "osikapa,": 6789,
  "or,": 6790,
  "olili": 6791,
  "ojoro": 6792,
  "offrey": 6793,
  "obosi": 6794,
  "onu": 6795,
  "okike": 6796,
  "oka": 6797,
  "nọnyeere": 6798,
  "nzuzo.": 6799,
  "nyemaka": 6800,
  "nwetụla": 6801,
  "nwata,": 6802,
  "nwale": 6803,
  "nwaa": 6804,
  "nuklia": 6805,
  "ntụzi": 6806,
  "nton": 6807,
  "nto": 6808,
  "nrọ.": 6809,
  "nnewi,": 6810,
  "nkwụcha": 6811,
  "nke,": 6812,
  "nica": 6813,
  "nhazigharị": 6814,
  "ngapore": 6815,
  "na-ekesa": 6816,
  "na-ete": 6817,
  "na-esonye": 6818,
  "na-arahụ": 6819,
  "na-akpọkwa": 6820,
  "na-agụrụ": 6821,
  "na-agbata": 6822,
  "na-agbagwoju": 6823,
  "na-agbaghara": 6824,
  "na-abịa,": 6825,
  "na-awa": 6826,
  "na-akparị": 6827,
  "na\"ọ\"": 6828,
  "napụtara": 6829,
  "nmi": 6830,
  "mwereonwe": 6831,
  "mum": 6832,
  "mpụ,": 6833,
  "mpany": 6834,
  "mmemme.": 6835,
  "mmemme,": 6836,
  "mmadụ.”": 6837,
  "mmanya,": 6838,
  "mgbawa": 6839,
  "mgbagbu": 6840,
  "mechaa,": 6841,
  "mebe": 6842,
  "mbọmbọ": 6843,
  "mbode": 6844,
  "malitere,": 6845,
  "maara?": 6846,
  "mapụtara": 6847,
  "mani": 6848,
  "lub": 6849,
  "latrik,": 6850,
  "laa.": 6851,
  "kụpụrụ": 6852,
  "kọwakwara": 6853,
  "kwesiri.": 6854,
  "kwee": 6855,
  "kwaba": 6856,
  "kpọkuokwa": 6857,
  "kpọpụrụ": 6858,
  "kpuchi": 6859,
  "kpeere": 6860,
  "ke.": 6861,
  "katọlik,": 6862,
  "karịchaa": 6863,
  "katara": 6864,
  "jewe": 6865,
  "jekwu": 6866,
  "izute": 6867,
  "iwetara": 6868,
  "itoolu.": 6869,
  "inde": 6870,
  "imemila": 6871,
  "illing": 6872,
  "ikele": 6873,
  "ihụ": 6874,
  "igwe.": 6875,
  "ichegbu": 6876,
  "hụta": 6877,
  "hụkwa": 6878,
  "hannes": 6879,
  "hong": 6880,
  "gọọla": 6881,
  "gwoo": 6882,
  "gramme": 6883,
  "gbasie": 6884,
  "gbapee": 6885,
  "gbarụrụ": 6886,
  "garala": 6887,
  "gachara.": 6888,
  "ga-echekwa": 6889,
  "ga-arị": 6890,
  "gaa,": 6891,
  "fuola": 6892,
  "field": 6893,
  "ezuru": 6894,
  "eserese": 6895,
  "ering": 6896,
  "ert": 6897,
  "erere": 6898,
  "enyerela": 6899,
  "emerụọla": 6900,
  "emene": 6901,
  "ekweghi": 6902,
  "ekpere?": 6903,
  "ekesa": 6904,
  "ehi.": 6905,
  "egbe,": 6906,
  "echi.": 6907,
  "echi,": 6908,
  "ebe.": 6909,
  "ewo": 6910,
  "egbo": 6911,
  "dom": 6912,
  "dili": 6913,
  "dic": 6914,
  "deji": 6915,
  "daara": 6916,
  "dd": 6917,
  "collapse": 6918,
  "chịm": 6919,
  "chekwara": 6920,
  "chekwaa": 6921,
  "cheba": 6922,
  "cement": 6923,
  "bụcha": 6924,
  "briten,": 6925,
  "blọk": 6926,
  "bishop": 6927,
  "bela": 6928,
  "aịzaya": 6929,
  "atụla": 6930,
  "arụrụala": 6931,
  "arma": 6932,
  "ar.": 6933,
  "apụta.": 6934,
  "anabataghị": 6935,
  "anacho": 6936,
  "anọchị": 6937,
  "ans": 6938,
  "anca": 6939,
  "amawbịa,": 6940,
  "amatali": 6941,
  "alabar": 6942,
  "akọwala": 6943,
  "akịrịka.": 6944,
  "akwadoghi": 6945,
  "akwaala": 6946,
  "akpụ.": 6947,
  "akpọlite": 6948,
  "akpaabụ": 6949,
  "ahụta": 6950,
  "aghọọla": 6951,
  "agbaghị": 6952,
  "agbaa": 6953,
  "adagbuola": 6954,
  "ada.": 6955,
  "ader": 6956,
  "achọta": 6957,
  "apị": 6958,
  "anwan": 6959,
  "akwanyere": 6960,
  "a;": 6961,
  "Zu": 6962,
  "Yoaku": 6963,
  "Unilag": 6964,
  "USS": 6965,
  "USSD": 6966,
  "Twitter,": 6967,
  "Tony": 6968,
  "Stanley": 6969,
  "Singapore": 6970,
  "Sharibu": 6971,
  "Selariọs": 6972,
  "Sri": 6973,
  "Seme": 6974,
  "Primaries:": 6975,
  "Pales": 6976,
  "Py": 6977,
  "Poland": 6978,
  "Pin": 6979,
  "Okorocha:": 6980,
  "Obina": 6981,
  "Ozo": 6982,
  "Owe": 6983,
  "Ori": 6984,
  "Ona": 6985,
  "Old": 6986,
  "Okwu": 6987,
  "Oka": 6988,
  "Odo": 6989,
  "Nwabu": 6990,
  "Nathaniel": 6991,
  "NBC": 6992,
  "NEMA": 6993,
  "NC": 6994,
  "N)": 6995,
  "Muhammad": 6996,
  "Muell": 6997,
  "Monday": 6998,
  "Mmaku": 6999,
  "Minimum": 7000,
  "March": 7001,
  "Madagascar": 7002,
  "Mata": 7003,
  "Maku": 7004,
  "Mari": 7005,
  "Luka": 7006,
  "Lagos,": 7007,
  "Lam": 7008,
  "Kwara": 7009,
  "Kano,": 7010,
  "Job,": 7011,
  "Johannes": 7012,
  "Jehovah": 7013,
  "Jeff": 7014,
  "Jer": 7015,
  "Insurance": 7016,
  "Iheanacho": 7017,
  "Izu": 7018,
  "Iya": 7019,
  "Hunt": 7020,
  "Herọd": 7021,
  "Guardi": 7022,
  "Girls": 7023,
  "Ghost": 7024,
  "Geoffrey": 7025,
  "Foru": 7026,
  "Fai": 7027,
  "Furtado": 7028,
  "Fina": 7029,
  "Fer": 7030,
  "Emema": 7031,
  "Elizabeth": 7032,
  "EEDC": 7033,
  "Coschari": 7034,
  "Corporation": 7035,
  "Covenant": 7036,
  "Code": 7037,
  "Chika": 7038,
  "Chieji": 7039,
  "Championship": 7040,
  "Cheri": 7041,
  "Cristiano": 7042,
  "Cole": 7043,
  "Cele": 7044,
  "Calabar": 7045,
  "CAN": 7046,
  "Buhari:": 7047,
  "Bianca": 7048,
  "Benson": 7049,
  "Augustine": 7050,
  "August": 7051,
  "Assemb": 7052,
  "Amuneke": 7053,
  "Aliyu": 7054,
  "Aguata": 7055,
  "Ambode": 7056,
  "Akwa": 7057,
  "Agwu": 7058,
  "95": 7059,
  "55": 7060,
  "46": 7061,
  "32": 7062,
  "1999": 7063,
  "000)": 7064,
  ".\"e\"": 7065,
  "-Umu": 7066,
  "-6": 7067,
  "-2": 7068,
  "-19": 7069,
  "(nke": 7070,
  "(IPOB": 7071,
  "''": 7072,
  "\"o\"": 7073,
  "ụlọọgwụ,": 7074,
  "ụsọ": 7075,
  "ụmị": 7076,
  "ọọpụ": 7077,
  "ọzọ.\"": 7078,
  "ọtụtụ.": 7079,
  "ọnụma": 7080,
  "ọhanaeze,": 7081,
  "ọgọdọ": 7082,
  "ọgbakọ.": 7083,
  "ọfụma,": 7084,
  "ọbara.": 7085,
  "ọzara": 7086,
  "ọsụ": 7087,
  "ọkwụrụ": 7088,
  "ịkpọpụta": 7089,
  "ịkpata": 7090,
  "ịị": 7091,
  "ịtọrọ": 7092,
  "ịtinye": 7093,
  "ịmara": 7094,
  "ịbu": 7095,
  "za.": 7096,
  "za,": 7097,
  "ya.)": 7098,
  "ya\".\"": 7099,
  "witzer": 7100,
  "wezuga": 7101,
  "wetuo": 7102,
  "weghara": 7103,
  "waala": 7104,
  "wọ": 7105,
  "vootu.": 7106,
  "vil": 7107,
  "uhie,": 7108,
  "ugboguru.": 7109,
  "ukpor": 7110,
  "tụtara": 7111,
  "tụgharịa": 7112,
  "tịnkọ": 7113,
  "tumtum": 7114,
  "toph": 7115,
  "topher": 7116,
  "tinyekwa": 7117,
  "tis": 7118,
  "ting": 7119,
  "tine": 7120,
  "ties": 7121,
  "tice": 7122,
  "thew": 7123,
  "thampton": 7124,
  "tebụl": 7125,
  "tali": 7126,
  "tary": 7127,
  "sult": 7128,
  "stone": 7129,
  "sting": 7130,
  "stia": 7131,
  "sowe": 7132,
  "sirila": 7133,
  "sic": 7134,
  "septemba,": 7135,
  "sekọndị": 7136,
  "sekọndịrị": 7137,
  "sepu": 7138,
  "sekpụ": 7139,
  "satọde,": 7140,
  "sal": 7141,
  "rịọkwara": 7142,
  "rubere": 7143,
  "risky": 7144,
  "real": 7145,
  "rara": 7146,
  "pụghị": 7147,
  "pope": 7148,
  "pla": 7149,
  "phi": 7150,
  "ourne": 7151,
  "ournemouth": 7152,
  "otuto.": 7153,
  "oteela": 7154,
  "okpukpere": 7155,
  "okpukperechi": 7156,
  "okpokoro": 7157,
  "ojiri": 7158,
  "ogbugbu": 7159,
  "ogbenye.": 7160,
  "obiọma.": 7161,
  "nọzị": 7162,
  "nọbu": 7163,
  "nzukọ,": 7164,
  "nzaghachi,": 7165,
  "nzaghachi": 7166,
  "nyefere": 7167,
  "nwekwaghị": 7168,
  "nwịị": 7169,
  "ntina": 7170,
  "ntaakụkọ.": 7171,
  "now": 7172,
  "nkịta.": 7173,
  "njedebe.": 7174,
  "niu": 7175,
  "ness": 7176,
  "naghịkwa": 7177,
  "na-emenụ,": 7178,
  "na-elekwa": 7179,
  "na-ekwesighị": 7180,
  "na-ejikarị": 7181,
  "na-enwere": 7182,
  "na-arụsi": 7183,
  "na-apụghị": 7184,
  "na-akwanye": 7185,
  "na-agbawa": 7186,
  "na-agbaso": 7187,
  "na-agbape": 7188,
  "na-agafe": 7189,
  "na-adịkwu": 7190,
  "na-aja": 7191,
  "na-agha": 7192,
  "na-agara": 7193,
  "na-adụ": 7194,
  "na-abịara": 7195,
  "na-arọ": 7196,
  "ntụtụ": 7197,
  "nse": 7198,
  "nozie": 7199,
  "nkwụsị": 7200,
  "nchara": 7201,
  "mụchara": 7202,
  "musu": 7203,
  "mmegide": 7204,
  "mited": 7205,
  "mgba.": 7206,
  "merenụ,": 7207,
  "meela.": 7208,
  "mehiere": 7209,
  "mberg": 7210,
  "mbaụwa.": 7211,
  "mbata": 7212,
  "mbanụ!": 7213,
  "mba!": 7214,
  "mgbo": 7215,
  "lọta,": 7216,
  "lọghachite": 7217,
  "lọt": 7218,
  "lum": 7219,
  "listia": 7220,
  "lish": 7221,
  "lebagodị": 7222,
  "las": 7223,
  "kwunye": 7224,
  "kwaala": 7225,
  "krisma": 7226,
  "kpụpụrụ": 7227,
  "kpọrọ,": 7228,
  "kpọọrọ": 7229,
  "kpọkwara": 7230,
  "kpara.": 7231,
  "kpasuru": 7232,
  "kesa": 7233,
  "keela": 7234,
  "kawanye": 7235,
  "kasịrị": 7236,
  "kadị": 7237,
  "jịkọrọ": 7238,
  "jikọta": 7239,
  "jigide": 7240,
  "ject": 7241,
  "jụwa": 7242,
  "izuuka.": 7243,
  "iwulite": 7244,
  "isiike": 7245,
  "imechi": 7246,
  "ikuchi": 7247,
  "ibelata": 7248,
  "iza": 7249,
  "itu": 7250,
  "iman": 7251,
  "imalite": 7252,
  "ikwụ": 7253,
  "ifu": 7254,
  "hụghị": 7255,
  "hazị": 7256,
  "gụchara": 7257,
  "gọvanọ\"": 7258,
  "gọziri": 7259,
  "guzobere": 7260,
  "gozie": 7261,
  "gote": 7262,
  "gooro": 7263,
  "goo": 7264,
  "gine": 7265,
  "ghee": 7266,
  "ghapụla": 7267,
  "ghasa": 7268,
  "gbahapụ": 7269,
  "gbadaa": 7270,
  "gbachiri": 7271,
  "gbachie": 7272,
  "gawa.": 7273,
  "gasịrị,": 7274,
  "ga-emetụta": 7275,
  "ga-ezuru": 7276,
  "ga-ehichapụ": 7277,
  "ga-akasi": 7278,
  "ga-azụta": 7279,
  "ga-agwọ": 7280,
  "ga-abịaru": 7281,
  "ga-akarị": 7282,
  "gers": 7283,
  "fite": 7284,
  "filistia": 7285,
  "fer": 7286,
  "ezu.": 7287,
  "eweta": 7288,
  "emebiela": 7289,
  "emed": 7290,
  "emechara": 7291,
  "eleta": 7292,
  "ekwusi": 7293,
  "ekwentị.": 7294,
  "ekele,": 7295,
  "ekene": 7296,
  "eke,": 7297,
  "efu,": 7298,
  "ebutela": 7299,
  "ee.": 7300,
  "dịrịghị": 7301,
  "dịzi": 7302,
  "dum.": 7303,
  "dola": 7304,
  "devid.": 7305,
  "devid,": 7306,
  "denyere": 7307,
  "degaara": 7308,
  "daalụ": 7309,
  "cking": 7310,
  "ciety": 7311,
  "chụdara": 7312,
  "chọpụtakwara": 7313,
  "chighị": 7314,
  "chigha": 7315,
  "chewe": 7316,
  "cheghị": 7317,
  "cade": 7318,
  "clo": 7319,
  "bụnadị": 7320,
  "briten.": 7321,
  "bishọọpụ": 7322,
  "bidoziri": 7323,
  "bidokwara": 7324,
  "bitere": 7325,
  "bata.": 7326,
  "bas": 7327,
  "bsi": 7328,
  "awakpola": 7329,
  "atụghị": 7330,
  "asịsa": 7331,
  "arịala": 7332,
  "aruo": 7333,
  "ara.": 7334,
  "anyị-": 7335,
  "anyanwụ.": 7336,
  "anyaụfụ": 7337,
  "anwụchikọọla": 7338,
  "anara": 7339,
  "anapụla": 7340,
  "ant": 7341,
  "amụtara": 7342,
  "amaegwuregwu": 7343,
  "alert": 7344,
  "akụkọ,": 7345,
  "akịrịka,": 7346,
  "akasị": 7347,
  "ahọpụtara": 7348,
  "agụma": 7349,
  "agụ,": 7350,
  "agwaetiti": 7351,
  "afana": 7352,
  "adres": 7353,
  "abụba": 7354,
  "abalịa": 7355,
  "aba,": 7356,
  "achi": 7357,
  "achara": 7358,
  "York.": 7359,
  "Yoakum": 7360,
  "Walter": 7361,
  "Wo": 7362,
  "Vin": 7363,
  "VAR": 7364,
  "UNI": 7365,
  "Trudeau": 7366,
  "Traffi": 7367,
  "Southampton": 7368,
  "Society": 7369,
  "Sambi": 7370,
  "Squ": 7371,
  "Son": 7372,
  "Sime": 7373,
  "Sand": 7374,
  "Rogers": 7375,
  "Rev.": 7376,
  "Redeemed": 7377,
  "Rabiu": 7378,
  "Ral": 7379,
  "Programme": 7380,
  "Plateau:": 7381,
  "Papa": 7382,
  "Pen": 7383,
  "PF": 7384,
  "Oyede": 7385,
  "Ojoto": 7386,
  "Ogbonnaya": 7387,
  "Ower": 7388,
  "Opara": 7389,
  "Okpa": 7390,
  "Oji": 7391,
  "Ohuabunwa": 7392,
  "Offi": 7393,
  "Nic": 7394,
  "Netherlands": 7395,
  "Ndubuaku": 7396,
  "Nze": 7397,
  "Nne": 7398,
  "Nj": 7399,
  "Nike": 7400,
  "Nan": 7401,
  "NAPTIP": 7402,
  "Muhammed": 7403,
  "Mozis": 7404,
  "Motors": 7405,
  "Most": 7406,
  "Matthew": 7407,
  "Mane": 7408,
  "Maga": 7409,
  "Lukaku": 7410,
  "Limited": 7411,
  "Lady": 7412,
  "LE": 7413,
  "Kongo": 7414,
  "Kanu.": 7415,
  "Kachi": 7416,
  "INEC,": 7417,
  "Isa": 7418,
  "Hadi": 7419,
  "Gree": 7420,
  "Gareth": 7421,
  "Gala": 7422,
  "Flori": 7423,
  "Faith": 7424,
  "Fou": 7425,
  "Fiji": 7426,
  "Engine": 7427,
  "Ememanka": 7428,
  "Electri": 7429,
  "Ebreham,": 7430,
  "Easter": 7431,
  "Er": 7432,
  "Ekpe": 7433,
  "Danju": 7434,
  "Du": 7435,
  "Christine": 7436,
  "Christopher": 7437,
  "Child": 7438,
  "Celestine": 7439,
  "Cour": 7440,
  "Bul": 7441,
  "Bruce": 7442,
  "Broad": 7443,
  "Boniface": 7444,
  "Bobrisky": 7445,
  "Black\"": 7446,
  "Bauchi": 7447,
  "Bournemouth": 7448,
  "Bide": 7449,
  "Balo": 7450,
  "Baka": 7451,
  "Bafana": 7452,
  "Ayamelu": 7453,
  "Assembly": 7454,
  "Arge": 7455,
  "Adam,": 7456,
  "Ata": 7457,
  "Anne": 7458,
  "Am": 7459,
  "Ak": 7460,
  "Ado": 7461,
  "Acade": 7462,
  "ADC": 7463,
  "97": 7464,
  "84": 7465,
  "31": 7466,
  "28,": 7467,
  "25,": 7468,
  "2014,": 7469,
  "2013,": 7470,
  "2010.": 7471,
  "2010": 7472,
  "200,": 7473,
  "27,": 7474,
  "1970": 7475,
  "1914.": 7476,
  "16,": 7477,
  "16)": 7478,
  "1000": 7479,
  "(IPOB)": 7480,
  "(APGA": 7481,
  "”,": 7482,
  "“ụwa": 7483,
  "“ụmụ": 7484,
  "“ya": 7485,
  "“nwa": 7486,
  "ụtazị": 7487,
  "ụmụanụmanụ": 7488,
  "ụlọakụ,": 7489,
  "ụnwụ": 7490,
  "ụkp": 7491,
  "ụdara": 7492,
  "ọsọndụ": 7493,
  "ọnwụ?": 7494,
  "ọma.”": 7495,
  "ọlaọcha": 7496,
  "ọkụkọ,": 7497,
  "ọdịnihu,": 7498,
  "ọdịda-anyanwụ": 7499,
  "ọdịghị": 7500,
  "ọdachi.": 7501,
  "ọha,": 7502,
  "ịzọpụta": 7503,
  "ịtụnanya": 7504,
  "ịtụbata": 7505,
  "ịrụzi": 7506,
  "ịma.": 7507,
  "ịgbakụta": 7508,
  "ịchụpụ": 7509,
  "ịchịkọta": 7510,
  "ịchịkọba": 7511,
  "ịchafụ.": 7512,
  "ịsọ": 7513,
  "ịpịa": 7514,
  "ịlet": 7515,
  "ịkwọ": 7516,
  "ịkwu": 7517,
  "ịiza": 7518,
  "ịhọrọ": 7519,
  "ịbọ": 7520,
  "zọma": 7521,
  "zaghị": 7522,
  "yurop.": 7523,
  "ya.”)": 7524,
  "ya”": 7525,
  "yamo": 7526,
  "you": 7527,
  "wuji": 7528,
  "witzerland": 7529,
  "wapụta": 7530,
  "will": 7531,
  "wanyere": 7532,
  "visa\"\"": 7533,
  "viso": 7534,
  "visory": 7535,
  "via": 7536,
  "vaị": 7537,
  "vation": 7538,
  "ving": 7539,
  "utical": 7540,
  "use": 7541,
  "ugba": 7542,
  "tụghị": 7543,
  "tutu": 7544,
  "ttah": 7545,
  "tock": 7546,
  "tiative": 7547,
  "tiu": 7548,
  "tech": 7549,
  "tal": 7550,
  "takwara": 7551,
  "sụgharị": 7552,
  "super": 7553,
  "sun": 7554,
  "suji": 7555,
  "sor": 7556,
  "sive": 7557,
  "sikwara": 7558,
  "shuga": 7559,
  "setan.": 7560,
  "see": 7561,
  "sper": 7562,
  "sla": 7563,
  "school": 7564,
  "rubeghị": 7565,
  "rish.": 7566,
  "rewa": 7567,
  "pịm": 7568,
  "pula": 7569,
  "poulos": 7570,
  "paịlet": 7571,
  "pper": 7572,
  "oyi.": 7573,
  "osisi.": 7574,
  "onyeisi\"": 7575,
  "onyekwuo": 7576,
  "onyekwuouche": 7577,
  "onye,": 7578,
  "omimi": 7579,
  "ojiegoachụ": 7580,
  "odibo": 7581,
  "ogbaru": 7582,
  "ocese": 7583,
  "nọchịte": 7584,
  "nọzi": 7585,
  "nọkwara": 7586,
  "nọgoro": 7587,
  "nọ.”": 7588,
  "nzute": 7589,
  "nwụchikọ": 7590,
  "nwogharị": 7591,
  "nwo-Olu": 7592,
  "nwechaghị": 7593,
  "nwerịrị": 7594,
  "nus": 7595,
  "nugwu": 7596,
  "nta,": 7597,
  "nrụrụaka.": 7598,
  "nrụrịtaụka": 7599,
  "nkịta,": 7600,
  "nkwalite": 7601,
  "nkwarụ": 7602,
  "nkuzi.": 7603,
  "nkey": 7604,
  "nkatọ": 7605,
  "njem,": 7606,
  "nitiative": 7607,
  "nghọta.": 7608,
  "ngagharịiwe.": 7609,
  "ndọrịtaụka": 7610,
  "ndaba": 7611,
  "naira.": 7612,
  "na-etolite": 7613,
  "na-eto,": 7614,
  "na-emenyụ": 7615,
  "na-ekwupụta": 7616,
  "na-echetara": 7617,
  "na-ebugharị": 7618,
  "na-ebi.": 7619,
  "na-ezute": 7620,
  "na-esu": 7621,
  "na-enupụrụ": 7622,
  "na-ata,": 7623,
  "na-amanye": 7624,
  "na-alụ.": 7625,
  "na-akpụdobe": 7626,
  "na-agba,": 7627,
  "na-agaghịzi": 7628,
  "na-achị,": 7629,
  "na-anọchi": 7630,
  "na-afụ": 7631,
  "nate": 7632,
  "nahị": 7633,
  "n'uche": 7634,
  "ngi": 7635,
  "mụwara": 7636,
  "mịta": 7637,
  "mus": 7638,
  "mpụ.": 7639,
  "mpa": 7640,
  "mmehie,": 7641,
  "mmanụ.": 7642,
  "mmanye": 7643,
  "mma-": 7644,
  "mkpughe": 7645,
  "mgbachi": 7646,
  "mgba,": 7647,
  "mezuo.": 7648,
  "merie.": 7649,
  "metu": 7650,
  "metere": 7651,
  "memi": 7652,
  "mech": 7653,
  "mbụ?": 7654,
  "mbibi": 7655,
  "makụ": 7656,
  "lobe": 7657,
  "litela": 7658,
  "lebaa": 7659,
  "lebanye": 7660,
  "lawa.": 7661,
  "latrik.": 7662,
  "leruo": 7663,
  "leru": 7664,
  "ler": 7665,
  "kọwapụtara": 7666,
  "kọbara": 7667,
  "kwuwe,": 7668,
  "kwusawa": 7669,
  "kwuputere": 7670,
  "kwesịrị.": 7671,
  "kwatara": 7672,
  "kristi": 7673,
  "kpọkuzịkwara": 7674,
  "kpọghị": 7675,
  "kpọchie": 7676,
  "kpokobara": 7677,
  "kpam.": 7678,
  "kewapụ": 7679,
  "ketara": 7680,
  "katọlik.": 7681,
  "king": 7682,
  "jụkwara": 7683,
  "jisiri": 7684,
  "jikere": 7685,
  "jibu": 7686,
  "jeruselem.": 7687,
  "irector": 7688,
  "imezupụta": 7689,
  "ime?": 7690,
  "ihe?": 7691,
  "iche-iche,": 7692,
  "ibinye": 7693,
  "iṅomi": 7694,
  "izo": 7695,
  "iki": 7696,
  "ihazi": 7697,
  "hụru": 7698,
  "hanwa": 7699,
  "her": 7700,
  "gịga": 7701,
  "gwaghị": 7702,
  "guzosie": 7703,
  "gugu": 7704,
  "ghọgburu": 7705,
  "gege": 7706,
  "gbape": 7707,
  "gbanarị": 7708,
  "gbafuo": 7709,
  "gbabuuru": 7710,
  "ga-emezi": 7711,
  "ga-ebinye": 7712,
  "ga-eyi": 7713,
  "ga-enwerịrị": 7714,
  "ga-anọgide": 7715,
  "ga-anwụ.": 7716,
  "ga-akacha": 7717,
  "ga-apụ": 7718,
  "ga-abanye": 7719,
  "ga-arịọ": 7720,
  "ga-anọchị": 7721,
  "fughị": 7722,
  "ferela": 7723,
  "foro": 7724,
  "ewu.": 7725,
  "etinyere": 7726,
  "esonyela": 7727,
  "esiji": 7728,
  "escu": 7729,
  "erend": 7730,
  "erela": 7731,
  "enyem": 7732,
  "enwetaghị": 7733,
  "enweghịzị": 7734,
  "enweghịzi": 7735,
  "ency": 7736,
  "elịiza": 7737,
  "ekwuputala": 7738,
  "ekwusa": 7739,
  "ekpili": 7740,
  "ejula": 7741,
  "ejije.": 7742,
  "ejidere": 7743,
  "ejeghi": 7744,
  "ego\"": 7745,
  "ebili": 7746,
  "ez": 7747,
  "emeriri": 7748,
  "eliri": 7749,
  "ekw": 7750,
  "dọkwara": 7751,
  "dịghịkwa": 7752,
  "dị\"": 7753,
  "dakwasịrị": 7754,
  "dra": 7755,
  "dge": 7756,
  "cious": 7757,
  "chịkọta": 7758,
  "chepụtara": 7759,
  "chaị,": 7760,
  "ceutical": 7761,
  "casting": 7762,
  "cop": 7763,
  "bụrụ\"": 7764,
  "bịakwute": 7765,
  "bubu": 7766,
  "bidoro.": 7767,
  "bidokwa": 7768,
  "be,": 7769,
  "baby": 7770,
  "aịrish.": 7771,
  "azọpụta": 7772,
  "armaceutical": 7773,
  "ars": 7774,
  "arou": 7775,
  "ariri": 7776,
  "anwụrụla": 7777,
  "anwụ?": 7778,
  "anaghịzị": 7779,
  "anarala": 7780,
  "amụtala": 7781,
  "alụkwaghịm,": 7782,
  "ala.”": 7783,
  "alla": 7784,
  "akụnụba.": 7785,
  "akpụ,": 7786,
  "akaọrụ": 7787,
  "aka:": 7788,
  "agụ.": 7789,
  "aghụghọ.": 7790,
  "aghọtachaghị": 7791,
  "agharị": 7792,
  "agbape": 7793,
  "agawa": 7794,
  "agada": 7795,
  "adịghị,": 7796,
  "adịchaghị": 7797,
  "adal": 7798,
  "adaa": 7799,
  "achịtaghị": 7800,
  "abụọ)": 7801,
  "alọ": 7802,
  "agọọla": 7803,
  "Zuba": 7804,
  "YouTube": 7805,
  "Wi": 7806,
  "Vincent": 7807,
  "Visa": 7808,
  "Valencia": 7809,
  "Vene": 7810,
  "Uchenna": 7811,
  "Uzọma": 7812,
  "Uzor": 7813,
  "Town": 7814,
  "Timothy": 7815,
  "Tri": 7816,
  "Toro": 7817,
  "Tele": 7818,
  "Syria.": 7819,
  "Suleiman": 7820,
  "Shiites": 7821,
  "Serge": 7822,
  "Secondus": 7823,
  "Sanwo-Olu": 7824,
  "Sadi": 7825,
  "Switzerland": 7826,
  "Spe": 7827,
  "Sil": 7828,
  "Romney": 7829,
  "RevolutionNow": 7830,
  "Reverend": 7831,
  "Restructuring": 7832,
  "Rome": 7833,
  "Progressives": 7834,
  "Press": 7835,
  "Precious": 7836,
  "Portu": 7837,
  "Pharmaceutical": 7838,
  "Pep": 7839,
  "Papado": 7840,
  "Palestine": 7841,
  "Oyedepo": 7842,
  "Oshodi": 7843,
  "Oshoala": 7844,
  "Organization": 7845,
  "Oparanozie": 7846,
  "Onoja": 7847,
  "Onaga": 7848,
  "Okoye,": 7849,
  "Okorocha,": 7850,
  "Ogunye": 7851,
  "Ogbuata": 7852,
  "Obidi": 7853,
  "Oy": 7854,
  "Ote": 7855,
  "Ora": 7856,
  "Olo": 7857,
  "Okpoko": 7858,
  "Nwosu,": 7859,
  "Nwachukwu,": 7860,
  "Nweke": 7861,
  "NoBra": 7862,
  "Nnaji": 7863,
  "Niger,": 7864,
  "National\"": 7865,
  "Nel": 7866,
  "Nadal": 7867,
  "Mohammed,": 7868,
  "Mexico.": 7869,
  "Market": 7870,
  "Malaysia": 7871,
  "Mahre": 7872,
  "Mauri": 7873,
  "Mac": 7874,
  "Mbo": 7875,
  "MT": 7876,
  "Liberia": 7877,
  "Live": 7878,
  "Lion": 7879,
  "Lafia": 7880,
  "Lin": 7881,
  "Kyari": 7882,
  "Kondu": 7883,
  "Keyamo": 7884,
  "Johannesburg": 7885,
  "Jesus": 7886,
  "Jim": 7887,
  "Ivory": 7888,
  "Italy.": 7889,
  "Insti": 7890,
  "Imohi": 7891,
  "Iw": 7892,
  "Ichi": 7893,
  "Hausa": 7894,
  "Haram,": 7895,
  "Government": 7896,
  "Freedo": 7897,
  "Force": 7898,
  "Father": 7899,
  "FRSC": 7900,
  "FFK": 7901,
  "Free": 7902,
  "Fr": 7903,
  "Farou": 7904,
  "Fala": 7905,
  "Europa": 7906,
  "English": 7907,
  "Emergency": 7908,
  "Evo": 7909,
  "Eu": 7910,
  "E)": 7911,
  "Drunk": 7912,
  "Dogara": 7913,
  "Dickson": 7914,
  "Diocese": 7915,
  "Danjuma": 7916,
  "Dou": 7917,
  "Director": 7918,
  "Dar": 7919,
  "Dana": 7920,
  "DR": 7921,
  "Courto": 7922,
  "Coscharis": 7923,
  "Cosby": 7924,
  "Company": 7925,
  "City.": 7926,
  "Chinedu": 7927,
  "Cul": 7928,
  "Club": 7929,
  "Cell": 7930,
  "CS": 7931,
  "CON": 7932,
  "Bulg": 7933,
  "Buhari?": 7934,
  "Broadcasting": 7935,
  "Belgium": 7936,
  "Ballon": 7937,
  "Athle": 7938,
  "Andreescu": 7939,
  "Alade": 7940,
  "Akwuke": 7941,
  "Africa.": 7942,
  "Adeyeye": 7943,
  "Ademola": 7944,
  "Adebo": 7945,
  "Adazi": 7946,
  "Achuzia": 7947,
  "Abubakar,": 7948,
  "Abaribe,": 7949,
  "Abate": 7950,
  "Abagana": 7951,
  "Abdel": 7952,
  "Abba": 7953,
  "Amaka": 7954,
  "Akwete": 7955,
  "Acc": 7956,
  "Aaron": 7957,
  "AK": 7958,
  "ABS": 7959,
  "AAC": 7960,
  ";;": 7961,
  "800": 7962,
  "70": 7963,
  "50,": 7964,
  "4:": 7965,
  "30)": 7966,
  "38": 7967,
  "36": 7968,
  "300": 7969,
  "2019?": 7970,
  "2009.": 7971,
  "2009": 7972,
  "29)": 7973,
  "19,": 7974,
  "180": 7975,
  "10.": 7976,
  "12,": 7977,
  "12)": 7978,
  ".\"onye\"": 7979,
  ".\"dịka\"": 7980,
  ".\"cheta\"": 7981,
  "-Osuji": 7982,
  "-Ob": 7983,
  "-35": 7984,
  "-onyeisi": 7985,
  "-APC": 7986,
  "(ya": 7987,
  "(ma": 7988,
  "(bụ": 7989,
  "(U": 7990,
  "(PDP": 7991,
  "(P": 7992,
  "';": 7993,
  "\"ma\"": 7994,
  "\"kwuru\"": 7995,
  "!!": 7996,
  "”?": 7997,
  "“si": 7998,
  "“ebe": 7999
}