#version: 0.2
n a
d ị
k a
m a
  .
n '
b ụ
e r
  ,
a r
n dị
k e
h a
na -
er e
ar a
y a
m e
i h
l a
g a
s i
ny e
j i
h ụ
t a
ih e
kw u
r ụ
r i
a ny
a hụ
r u
n ke
r ị
t u
b a
kw a
o nye
na- a
na- e
gh ị
t ụ
d ụ
t i
ga -
t e
gb a
o tu
l e
b e
b i
z i
any ị
s ị
m ma
p ụ
k ọ
m ụ
a n
ch i
ch ị
  "
ch e
nw e
z ọ
a ka
l ọ
r ọ
k ụ
d o
ụ lọ
w e
n e
kw ụ
a la
nw a
g o
f ọ
gb u
i si
r a
mma dụ
l i
gb e
e be
i ke
ọ rọ
i ri
kwu ru
w a
d e
ch a
r o
ma ka
b u
m gbe
t ọ
ga- e
m ere
s o
t ara
n i
gb o
ụ mụ
rị a
ọ ọ
gw u
ị a
ọ rụ
e ti
nw ere
ga- a
  :
n ụ
s a
g e
ọ chị
any a
a fọ
m ba
b o
i me
o kwu
nw ụ
a bụ
kw e
a kụ
ọ zọ
g ị
a kwụ
l u
ị ji
na ịji
naịji rịa
n ọ
   "
o bi
kw ọ
s e
kp e
z u
d i
e zi
s te
ne ke
ste eti
chi neke
i che
akwụ kwọ
  "  
kp a
ny ere
d a
  ?
i le
n t
n u
dị ka
pụ ta
o ke
r e
ni ile
o ge
j e
g ụ
a gh
tụ tụ
  )
w u
k u
ya  .
abụ ọ
akụ kọ
ị bụ
na-e me
ar ị
er i
m p
k o
a  .
a ma
onye isi
an ọ
i gbo
ọ tụtụ
“  
o n
  ”
bụ rụ
s ọ
kp ọ
b ịa
nwa anyị
kw ara
bo do
p u
ịbụ l
ba ịbụl
m i
ọ nụ
bụ la
m me
d u
o bodo
a na
e gwu
2 0
gb ọ
i ji
ch ọ
f e
ụ wa
h i
a ga
gw a
pụ tara
i wu
si ri
i kpe
t o
ụ b
z e
e go
e me
m b
a z
u ru
g ọ
ụb ọchị
nt ị
a gba
o nwe
t ere
a  ,
h o
ụ rụ
s t
ar i
ih i
n dụ
ahụ  .
o zi
o ji
u we
ma na
sị rị
g ara
ọchị chị
a ha
l ụ
a tọ
a h
ụ zọ
u kwu
g ọọ
m m
gọọ me
B u
hụ rụ
kp ọrọ
e lu
fọ dụ
kwu o
oji i
ọ ka
ya  ,
nw oke
j ụ
ụ fọdụ
ha  .
kp o
n d
20 1
ụ gbọ
s ụ
ọ ma
s ara
ahụ  ,
n so
e ze
agh a
o me
me e
w ere
m er
gb ara
 .  ”
o r
nwe ghị
a sa
ch ara
ho v
ih u
h ari
je hov
Bu hari
ga-e me
ma ra
gh arị
ọ bụla
g i
u gbu
ọ kụ
(  
na kwa
o lu
gw ụ
n na
ny o
ụ ka
gba sara
gw ara
li te
uwe ojii
e l
ma  ,
onyeisi ala
ch ọrọ
o le
ọ nwa
e la
nw u
we e
na-e kwu
n ga
m kpa
jehov a
zọ s
a ba
ji zọs
n ta
ji ri
p a
ar ụ
a tụ
gw e
m bụ
mm iri
gọọme ntị
n tụ
an ụ
gbu ru
na-a gba
v anọ
mp i
gọ vanọ
pụ rụ
kp ụ
m o
j ọ
d ọ
si te
e kwe
j a
n ne
  ;
i we
a nwụ
ga-a ma
a l
n ị
p e
d ere
l ị
J o
m gba
g u
i n
j u
ah ịa
gw ọ
a dị
i se
bi do
kwa do
k ị
nd ọrọ
o ko
ezi okwu
B B
a sọ
ny i
any ere
m u
ntụ li
ka rị
gh ọ
tu pu
t h
ọ nwụ
az ụ
i gwe
m kp
na- ahụ
c e
BB C
z ị
ọ la
z ụ
mb ra
n ri
ana mbra
agh ara
b ere
ọ gwụ
e bu
ntụli aka
asọ mpi
o kp
b ara
ọ gba
az ị
nso gbu
ru o
ọ kwa
f u
e ji
b ọọ
ọ j
gh ara
n che
e tu
gh a
b ị
e nu
nwu nye
bọọ lụ
re gwu
egwu regwu
k iri
rị ka
ta a
 .   " 
l o
m mụ
na-a ga
ch ụ
chi e
o la
i g
y i
ọ hụrụ
u nu
ma azị
e bi
ga-ama sị
ka cha
an ị
nwe e
na anị
a f
eti ti
zi e
w ara
nwe ta
i be
o u
enu gwu
ny a
a mer
ezi gbo
b anyere
a kwa
M a
A P
le e
ch ukwu
sị  :
ọ bụ
zi ri
ọj ọọ
s u
ụlọ ọrụ
ụmụ nwaanyị
er u
kwụ sị
ụ tọ
aga ghị
a gụ
n ti
ra ị
M u
ị ka
bu ru
wa kpo
gh i
n de
ụlọ ikpe
aba lị
s ta
go si
na rị
e nye
a da
e n
kwe sịrị
ị gba
ke mgbe
201 9
ana ghị
kp ere
o l
go olu
Ch i
chi ri
gị nị
ti nye
n gwa
N ig
amer ịka
nọ dụ
ga a
ha  ,
e kwuo
a jụ
z o
0 0
mb ọ
ụ gwọ
i l
nwụ rụ
na l
nke ji
af rịka
z a
ọ rịa
k ere
ru ru
ọ nọdụ
ga-e si
che ta
la ba
kọ ta
ti on
ekwuo la
go siri
m eri
bị ara
R o
ụ dị
ba ta
nyo cha
ṅ ụ
mp aghara
nche kwa
li tere
v i
ụgbọ elu
be ghị
n g
n ụlọ
ezi nụlọ
ọ dị
gị  :
Nig eri
na-a kpọ
AP C
n je
nga laba
kọ rọ
so ro
a sụ
o si
u gwu
pu ku
gọọme nti
i t
i zu
ke e
ome iwu
okp uru
isi i
gbo ro
n o
bụ kwa
e hi
1 9
i mo
i ko
na-a chị
e nweghị
bụ ghị
e kpere
a mụ
n kiri
bi ri
na-e che
o h
m  ,
k i
m  .
kọ wa
M an
n ku
u che
ọ sọ
n zu
ụgbọ ala
kw ere
ajụ jụ
o zu
ọ gụ
v er
dị rị
ị ma
abụ ghị
raị st
t er
nye ghị
ga-e ji
S u
asụ sụ
k raịst
e le
e chi
e nwe
mmụ ọ
R e
mu me
na- arụ
na-a chọ
atụ ma
a bịa
n nu
atụma tụ
-  
n sọ
ole e
asa a
L i
o ro
mme mme
a gwa
ma ọbụ
na-e nye
gbu o
Jo se
na-a dị
ụ kwụ
o bere
an o
nga gharị
kp ara
a m
n kwa
gi de
ọzọ  .
a chọ
karị rị
tụ rụ
t ọrọ
adị ghị
D a
M o
mkp ụrụ
ụmụ aka
anya  .
a kpa
e ke
le s
kwu kwara
kọ wara
ha pụ
r an
e nyi
e gbe
ọgba kọ
na la
asa tọ
be kee
B oko
o f
rị ta
nwa ta
à m
H ara
ma nụ
ugbu a
àm à
p er
Nigeri a
C o
h ịa
ti nyere
u gboro
L a
D P
ch ere
v e
o fe
ebu bo
anụ manụ
ụ kọ
o kpo
nje m
h ọ
na i
o ri
ma litere
i to
f ụ
n ka
na-a kpa
kị ta
k ike
N a
bido ro
p o
o gi
ghọ ta
nku zi
mụ rụ
U ni
nnu kwu
e zu
ga-a bụ
nta akụkọ
Hara m
P DP
u do
me chara
na-a tụ
hi e
ka ma
ka rịa
agba nyeghị
c a
nai ra
y e
aka  .
ọ kpụ
d ara
Jose f
i bu
m kpe
L e
ọ cha
zu ru
anya nwụ
oh ere
pa ti
du m
chọ pụta
gọ s
P e
naịjirịa  .
i kike
ị hụ
le gọs
okpo ro
gụ nyere
e gbu
t ị
a u
o go
kwuru  ,
ka nu
ndị àmà
ndọrọ ndọrọ
Mu ha
  !
m di
a bu
ito olu
A l
u s
O B
mma nụ
ahụ hụ
I P
Muha mma
E C
e kwu
ch ọọ
ma lite
oko ro
na-a kụ
ike  .
cha a
kacha sị
w o
na-e le
o che
ụkọ chukwu
n ọrọ
i de
steeti  .
na-a bịa
mm eri
chi ela
E a
ma ta
na-e ji
 .  "
ofe si
Muhamma du
sịrị  :
o p
ị dị
mi ni
ri s
IP OB
gha chi
ụlọ omeiwu
a chị
F a
u go
li e
sa ụ
kwe siri
st er
ma ha
niile  .
p ọ
mma  .
ar ịa
ti ku
i a
ụmụ akwụkwọ
mụ ta
so te
n kwado
e si
gba a
ụ tụtụ
kọ rịta
A tiku
ụ ba
a gb
i nye
re l
o chie
ogi ge
b ọ
anya  ,
ikpe azụ
o nal
ọ dụ
okp u
I n
mmụ ta
n tọ
ama ghị
nzu kọ
h e
ọ ha
ala eze
ị rị
osi si
Su per
c k
ba nye
ọzọ  ,
họ pụta
mgba sa
o sote
na-a ma
ka tọ
A da
ga-a dị
bụrụ kwa
anyị  .
a lụ
maha dum
a sị
di a
ah ọ
m kpọrọ
mini sta
saụ t
e  ,
sh ịa
A r
te d
nwe kwara
mer iri
ị rụ
T ru
na ghị
aka ra
ọ tọ
na-e fe
a ja
obi ano
O ko
na-e nwe
na- eru
na-a gụ
a jọ
si e
elu igwe
dọ kịta
f i
ọ na
o ku
amụ ma
ome nala
ị ga
kpa tara
pụta la
ga ghị
ọ dọ
S o
e che
t y
kọ mi
bụ  ,
okwu kwe
ọma  .
nt oro
a d
A b
ọ ba
anyị  ,
ọka cha
ntoro bịa
I N
na-e bu
W il
c o
i kwu
Ea g
e s
ta n
ga wa
IN EC
F C
ga-e nye
j ụrụ
Tru mp
rụ rụ
nwe tara
a kpụ
m wakpo
vi d
ọ hịa
A f
  "  . "
ebi ghị
Uni ted
nw an
o mume
ike  ,
u soro
it y
ngagharị iwe
 "  "
baịbụl  .
K a
S a
onwe ghị
N e
A de
nọ chi
kpọ ku
ihe  .
n jọ
S e
do ro
ga-a gba
Eag les
s s
te n
i z
go ro
o d
ba ka
echi che
nna mdi
v o
R i
ọ w
M i
me tụ
akụ kụ
obi  .
ọ gọ
ụlọ ụka
ke dụ
O bi
an i
li k
chineke  ,
arị ta
u r
f o
u me
tu ru
ị tụ
a  :
wakpo ro
an d
ọw ụwa
B a
p t
n da
el se
i r
na-e gosi
ọ fụ
pọ l
f ere
e bo
c on
chọ pụtara
i yi
meri e
na-e si
Ch else
w ụ
di o
o hi
C ity
i ne
na-e so
ọ gbọ
iz rel
katọ lik
so n
chineke  .
la nd
kwa lite
o nyi
enye maka
e mume
ta ghị
n ihu
ụ nya
abu ja
i nwe
eziokwu  .
Mo ha
po ol
ti onal
20 0
na-a kwado
Li ver
ori ri
Liver pool
o li
shịa l
isi okwu
f ada
na-adị ghị
D e
c i
n ji
pụ la
e we
a kị
a chụ
S ou
so shịal
na-e kpe
gụ ọ
o gbu
z de
Af ri
C a
'  .
j eri
a gu
ọ mụ
j uru
ọka iwu
Chelse a
onyi nye
t ri
o yi
kp ọọ
a kpọ
na-a gwa
in g
o de
ụlọ akwụkwọ
e  .
isi  .
mmadụ  .
iche  .
o nyo
2019  .
 " "  
ar c
sị ghị
aka  ,
e kpe
ọgba aghara
onyo nyo
ch u
T o
ha m
me nt
ugbu a ,
na- ere
rị ọ
sị  ,
ne t
a gbọ
m gb
na-e we
ọ bara
Man che
Manche ster
kwuru  .
mme d
w it
gh arịa
nwan ne
ma ma
ọ  "
ụwa  .
or t
Sou th
i te
ma du
201 8
dị ghị
bi e
ge e
abụọ  .
ala  .
ụ ra
okoro cha
okpu kpe
a k
E l
J a
l y
go dị
ọ gbu
r y
Nw o
S ta
cha s
mb ere
kpọrọ   " 
ome ka
ọ nị
vo otu
Ro chas
ọnị cha
na-e kwuru
f or
nye la
ya  ?
aga  .
o pe
ọchị ehi
F ran
Ar se
v a
B i
na-a ta
e de
mbere de
kp u
d er
b ri
n le
ga-a ga
aga  ,
agbọ ghọ
Arse nal
F e
nụ rụ
akị rịka
Moha mmed
nwụ ọ
“  ọ
eme ela
Pe ter
iji pt
'  ,
gba ta
n ọọ
ju u
se tan
kọ tara
gharị rị
k y
1 0
s  ,
ọka mmụta
ta la
ba tara
ị kpa
on g
atụ  ,
00 0
E kwere
wit ter
Ekwere madu
K e
b er
P re
na- eri
ta a .
anwụ ọla
eke le
n họpụta
kọmi sh
omeka ome
w i
s  .
ala  ,
A bu
ụwa  ,
E ze
gi dere
u ju
ou r
mkp arịta
c y
ar u
m pụ
ọrụ  .
ozu gbo
kọmish ọna
e h
j o
na-a bụ
a  ?
ị lụ
na eze
eziokwu  ,
mkp u
1  ,
rụ ọ
kwa sị
nwere ike
 )  .
ị kpọ
zị rị
n  ,
i ro
ọka ikpe
ni gwe
ọgụ gụ
ogbu nigwe
i m
w arị
ọha naeze
e do
kwụ rụ
ahụ ike
ga-e nwe
i je
 . ”  )
n kị
mme hie
n  .
w er
ihe  ,
we pụtara
me gide
1 4
s si
ọrụ  ,
Jo h
egbu ola
ọdị nihu
ha pụrụ
mi dia
ma ara
ha zi
baịbụl  ,
gh e
i gbu
maka na
 )  ,
e wu
ndị igbo
enye la
Chi na
mkpe bi
1 5
ta  .
mma  ,
f ra
i re
mp e
atụ rụ
ịma ta
nọchi te
E me
n kwe
ndị agha
W e
M ar
O ke
ru e
mmadụ  ,
niile  ,
na- arị
ụ jọ
ụlọ ọgwụ
de vid
bịa fra
B e
p h
_ _
na-a mụ
nwa y
achọ ghị
metụ tara
nway ọọ
a ta
sa tọ
ga- anọ
agba ta
N or
na-e nweghị
ama lite
gburu gburu
n gw
gị  ,
ga-e nyere
c tion
satọ de
Z i
S S
S ara
nt er
fe e
ụtọ  .
Ch ris
sh i
m ị
N na
z ara
kwa ghị
du na
R a
ri d
i ru
ụlọ akụ
egwuregwu  ,
ọdị nala
ti us
Le agu
m ọ
na-e gbu
obi  ,
ị gụ
ele kere
S er
la ta
cha pụ
201 7
na-a zụ
fu fe
na ụba
sh a
t ha
ka ta
li c
gị  .
j a .
na bata
nzu zo
La go
ọfụ ma
la ị
O si
na-e bi
na-a tọ
na   " 
uru  .
Ch ukwu
a kpọrọ
a gwọ
ọgbu gbu
akụ naụba
ka n
abụ rụ
pu tara
ugbu a .
ekwe ntị
P au
tius de
J u
kw o
O r
ị chị
igbo  ,
ọnụ  .
na-a lụ
Wil lie
FC C
nkị tị
p ị
l ere
ri e
na-a kwụ
gbo chi
naịjirịa  ,
ụ da
gụ rụ
wu te
ụmụ nne
ọdọ ụgbọelu
ọgọ st
s onye
na-a nọ
iche iche
abụọ  ,
to r
chi tere
kp ụrụ
agụ mba
n chọpụta
y o
ar d
dị kwa
cha ghị
m fe
i tinye
n nyocha
baka r
i jeri
U ma
we pụ
we ere
U de
P ro
1  )
mba ụwa
mkpe sa
Ada m
oli le
n nọọ
T witter
ma n
zu te
e fu
lo go
bụkwa nụ
mme kọrịta
bri ten
Abu bakar
ogo logo
G u
M e
k  ,
ga- ahụ
u ro
mere  .
gba sa
i di
si tere
chọọ chị
ebo nyi
ọmụ mụ
Pau l
G A
na-a zọ
li ri
ga-e bi
bu tere
atọ  .
201 5
ezu m
E FCC
N A
le ba
o gbe
ndị  )
l ụrụ
th er
Sta te
gw o
ri a
kọ ọ
mer ụrụ
y in
a kwado
f raị
sta te
I he
la tri
fraị de
2 3
G o
nye ere
ti c
na-e nyere
ga-a kpọ
pa pa
kị rị
mma nya
I nter
p i
2  ,
s an
nwụ chi
iche  ,
ọ da
ofesi  ,
Ne w
se net
F u
f a
pụ ọ
ị kwụ
d ebe
ga chara
ọ ṅụ
n kịta
okoro bịa
El -
B o
I ke
ha b
b ra
a wa
m bu
nwa afọ
t on
Z ak
za ky
Zak zaky
. .
A u
1 7
ga be
m bi
y iri
na-e kwe
nu e
m pụtara
dọ la
e bere
  - 
ọ kpara
Sara ki
Mu gabe
na-a ka
gbo o
zu o
kw anyere
gu zo
o fufe
fọ rọ
mụ tara
okwu  .
jehov a .
gbu ola
anwụ chiela
m ọdụ
Lago s
P a
D i
dị  ,
kwa a
i ku
e fe
ọma  ,
ndụ mọdụ
1 8
n'  "
n rọ
bụ bu
na-a da
ama ta
e nweta
agụ ụ
nka ta
fo to
be nue
Ch a
ụmụ afọ
i fe
e to
zu tere
Afri ca
AP GA
ezum ike
ba ara
a zọ
 ?  ”
pu ta
ego si
mme pe
agb ụrụ
ka duna
T a
N o
ị ny
E le
anyị  "
e so
ga-a kwụ
akwụkwọ  .
a pụta
agh ọ
Ma d
oh u
latri k
Mad rid
B ri
kwa la
m iri
mgbe de
mba  .
oke nye
ama okwu
ndụ  .
ọkụ kọ
e nyo
ị ṅụ
our t
1 3
d an
ị zọ
kwụ ọ
na ra
akụ rụ
na-eme  .
okporo ụzọ
ọkacha mara
nji kere
mkparịta ụka
o wer
R u
o na
A ma
ị ba
ne ti
e nyere
ị nta
na-e tinye
19 9
wo re
ịnta neti
So wore
j ị
V i
ụ tụ
ah ị
pụrụ iche
ị kwụsị
enwe ghi
olile anya
ọda chi
sa a
steeti  ,
agh a .
th e
ọdị da
ị kwalite
na-ekwu chitere
Ihe dio
ọba san
I bra
ọbasan jọ
A S
l d
ji ji
na ta
e se
gu n
bụ zị
i nweta
na-akụ zi
mgb ere
Nw a
T e
G e
chị rị
we ne
ji de
s pe
be ghi
G a
any i
a pụ
na-a cha
arị rị
onye ozi
mer ụ
kwa zie
ị ghọta
na-akụ ziri
na-arị ọ
wene zde
q u
ọ kọ
n chị
ị kụ
na-e de
obi bi
Gh ana
st ra
na-a sụ
n gwụ
e bido
ị chụ
Ibra hi
u p
F A
1 6
s ti
ga-e bu
ọọ la
bo ro
igbo  .
ọ kpọ
I fe
ọka ra
pa se
ọj ị
a ṅụ
osi miri
ahị hịa
ọ k
I s
a gw
sị ga
aka rị
i so
ge n
ezi e
i nyere
m kpọ
o mi
mbụ  .
anwụ rụ
F al
na-a kọwa
ọkacha sị
Nwo su
akụrụ ngwa
ma s
ga ara
na-a kwa
i bi
ndị  "
ga-a chị
O lu
se na
m gbọ
ar ụrụ
ebu m
na tional
Na tional
mọ nde
T i
U S
W a
4  .
ri ri
bi a
b we
la ni
na-e bo
akwụ sị
na-e to
na-e nyo
ga-a bara
kpe biri
n rụrụ
nkwe kọrịta
Zi mba
Ihedio ha
Ibrahi m
Zimba bwe
A h
b y
ar e
me ere
P la
kụ zi
ra l
ka ra
p ịa
kwuo  ,
na-a jụ
ọkụ  .
e jiri
anambra  ,
gba nwee
Ma du
Pre mi
El- Zakzaky
sena tọ
O N
te la
u bi
mụ ọ
n go
ị cha
nwe tere
ọka fọ
ụfọdụ  ,
asa tara
ọnwụ  .
ọ zụ
ị nya
izu ụka
Na i
Leagu e
ope kata
3 0
na-e ti
u te
u le
E mma
ga-e we
egwu  .
agba ala
ọchịchị  .
ekwe ghị
ga-a kwụsị
na-ele kọta
ma achị
H arc
