{
  "version": "1.0",
  "truncation": null,
  "padding": null,
  "added_tokens": [
    {
      "id": 0,
      "content": "<unk>",
      "single_word": false,
      "lstrip": false,
      "rstrip": false,
      "normalized": false,
      "special": true
    },
    {
      "id": 1,
      "content": "<s>",
      "single_word": false,
      "lstrip": false,
      "rstrip": false,
      "normalized": false,
      "special": true
    },
    {
      "id": 2,
      "content": "</s>",
      "single_word": false,
      "lstrip": false,
      "rstrip": false,
      "normalized": false,
      "special": true
    },
    {
      "id": 3,
      "content": "<pad>",
      "single_word": false,
      "lstrip": false,
      "rstrip": false,
      "normalized": false,
      "special": true
    },
    {
      "id": 4,
      "content": "<mask morph>",
      "single_word": false,
      "lstrip": false,
      "rstrip": false,
      "normalized": false,
      "special": true
    }
  ],
  "normalizer": {
    "type": "NFC"
  },
  "pre_tokenizer": {
    "type": "Whitespace"
  },
  "post_processor": null,
  "decoder": {
    "type": "BPEDecoder"
  },
  "model": {
    "type": "BPE",
    "dropout": null,
    "unk_token": "<unk>",
    "continuing_subword_prefix": null,
    "end_of_word_suffix": null,
    "fuse_unk": false,
    "vocab": {
      "<unk>": 0,
      "<s>": 1,
      "</s>": 2,
      "<pad>": 3,
      "<mask morph>": 4,
      " ": 5,
      "!": 6,
      "\"": 7,
      "#": 8,
      "$": 9,
      "%": 10,
      "&": 11,
      "'": 12,
      "(": 13,
      ")": 14,
      "*": 15,
      ",": 16,
      "-": 17,
      ".": 18,
      "/": 19,
      "0": 20,
      "1": 21,
      "2": 22,
      "3": 23,
      "4": 24,
      "5": 25,
      "6": 26,
      "7": 27,
      "8": 28,
      "9": 29,
      ":": 30,
      ";": 31,
      "<": 32,
      "=": 33,
      ">": 34,
      "?": 35,
      "@": 36,
      "A": 37,
      "B": 38,
      "C": 39,
      "CH": 40,
      "Ch": 41,
      "D": 42,
      "E": 43,
      "F": 44,
      "G": 45,
      "GB": 46,
      "Gb": 47,
      "Gh": 48,
      "Gw": 49,
      "H": 50,
      "I": 51,
      "J": 52,
      "K": 53,
      "KP": 54,
      "Kp": 55,
      "Kw": 56,
      "L": 57,
      "M": 58,
      "N": 59,
      "NW": 60,
      "NY": 61,
      "Nw": 62,
      "Ny": 63,
      "O": 64,
      "P": 65,
      "Q": 66,
      "R": 67,
      "S": 68,
      "SH": 69,
      "Sh": 70,
      "T": 71,
      "U": 72,
      "V": 73,
      "W": 74,
      "X": 75,
      "Y": 76,
      "Z": 77,
      "[": 78,
      "]": 79,
      "^": 80,
      "_": 81,
      "`": 82,
      "a": 83,
      "b": 84,
      "c": 85,
      "ch": 86,
      "d": 87,
      "e": 88,
      "f": 89,
      "g": 90,
      "gb": 91,
      "gh": 92,
      "gw": 93,
      "h": 94,
      "i": 95,
      "j": 96,
      "k": 97,
      "kp": 98,
      "kw": 99,
      "l": 100,
      "m": 101,
      "n": 102,
      "nw": 103,
      "ny": 104,
      "o": 105,
      "p": 106,
      "q": 107,
      "r": 108,
      "s": 109,
      "sh": 110,
      "t": 111,
      "u": 112,
      "v": 113,
      "w": 114,
      "x": 115,
      "y": 116,
      "z": 117,
      "{": 118,
      "|": 119,
      "}": 120,
      "£": 121,
      "®": 122,
      "·": 123,
      "É": 124,
      "Ö": 125,
      "×": 126,
      "à": 127,
      "á": 128,
      "ã": 129,
      "ä": 130,
      "å": 131,
      "æ": 132,
      "ç": 133,
      "è": 134,
      "é": 135,
      "ì": 136,
      "í": 137,
      "ï": 138,
      "ñ": 139,
      "ó": 140,
      "ô": 141,
      "ö": 142,
      "ø": 143,
      "ù": 144,
      "ú": 145,
      "ü": 146,
      "ć": 147,
      "č": 148,
      "ğ": 149,
      "ń": 150,
      "ş": 151,
      "š": 152,
      "ż": 153,
      "ž": 154,
      "̀": 155,
      "́": 156,
      "ׁ": 157,
      "ה": 158,
      "נ": 159,
      "פ": 160,
      "ש": 161,
      "ṅ": 162,
      "ạ": 163,
      "ẹ": 164,
      "Ị": 165,
      "ị": 166,
      "Ọ": 167,
      "ọ": 168,
      "Ụ": 169,
      "ụ": 170,
      "–": 171,
      "—": 172,
      "‘": 173,
      "’": 174,
      "“": 175,
      "”": 176,
      "•": 177,
      "₦": 178,
      "€": 179,
      "■": 180,
      "●": 181,
      "": 182,
      "na": 183,
      "dị": 184,
      "ka": 185,
      "ma": 186,
      " .": 187,
      "n'": 188,
      "bụ": 189,
      "er": 190,
      " ,": 191,
      "ar": 192,
      "ndị": 193,
      "ke": 194,
      "ha": 195,
      "na-": 196,
      "ere": 197,
      "ara": 198,
      "ya": 199,
      "me": 200,
      "ih": 201,
      "la": 202,
      "ga": 203,
      "si": 204,
      "nye": 205,
      "ji": 206,
      "hụ": 207,
      "ta": 208,
      "ihe": 209,
      "kwu": 210,
      "rụ": 211,
      "ri": 212,
      "any": 213,
      "ahụ": 214,
      "ru": 215,
      "nke": 216,
      "rị": 217,
      "tu": 218,
      "ba": 219,
      "kwa": 220,
      "onye": 221,
      "na-a": 222,
      "na-e": 223,
      "ghị": 224,
      "tụ": 225,
      "dụ": 226,
      "ti": 227,
      "ga-": 228,
      "te": 229,
      "gba": 230,
      "otu": 231,
      "le": 232,
      "be": 233,
      "bi": 234,
      "zi": 235,
      "anyị": 236,
      "sị": 237,
      "mma": 238,
      "pụ": 239,
      "kọ": 240,
      "mụ": 241,
      "an": 242,
      "chi": 243,
      "chị": 244,
      " \"": 245,
      "che": 246,
      "nwe": 247,
      "zọ": 248,
      "aka": 249,
      "lọ": 250,
      "rọ": 251,
      "kụ": 252,
      "do": 253,
      "ụlọ": 254,
      "we": 255,
      "ne": 256,
      "kwụ": 257,
      "ala": 258,
      "nwa": 259,
      "go": 260,
      "fọ": 261,
      "gbu": 262,
      "isi": 263,
      "ra": 264,
      "mmadụ": 265,
      "li": 266,
      "gbe": 267,
      "ebe": 268,
      "ike": 269,
      "ọrọ": 270,
      "iri": 271,
      "kwuru": 272,
      "wa": 273,
      "de": 274,
      "cha": 275,
      "ro": 276,
      "maka": 277,
      "bu": 278,
      "mgbe": 279,
      "tọ": 280,
      "ga-e": 281,
      "mere": 282,
      "so": 283,
      "tara": 284,
      "ni": 285,
      "gbo": 286,
      "ụmụ": 287,
      "rịa": 288,
      "ọọ": 289,
      "gwu": 290,
      "ịa": 291,
      "ọrụ": 292,
      "eti": 293,
      "nwere": 294,
      "ga-a": 295,
      " :": 296,
      "nụ": 297,
      "sa": 298,
      "ge": 299,
      "ọchị": 300,
      "anya": 301,
      "afọ": 302,
      "mba": 303,
      "bo": 304,
      "ime": 305,
      "okwu": 306,
      "nwụ": 307,
      "abụ": 308,
      "kwe": 309,
      "akụ": 310,
      "ọzọ": 311,
      "gị": 312,
      "akwụ": 313,
      "lu": 314,
      "ịji": 315,
      "naịji": 316,
      "naịjirịa": 317,
      "nọ": 318,
      "  \"": 319,
      "obi": 320,
      "kwọ": 321,
      "se": 322,
      "kpe": 323,
      "zu": 324,
      "di": 325,
      "ezi": 326,
      "ste": 327,
      "neke": 328,
      "steeti": 329,
      "chineke": 330,
      "iche": 331,
      "akwụkwọ": 332,
      "  \" ": 333,
      "kpa": 334,
      "nyere": 335,
      "da": 336,
      " ?": 337,
      "ile": 338,
      "nt": 339,
      "nu": 340,
      "dịka": 341,
      "pụta": 342,
      "oke": 343,
      "re": 344,
      "niile": 345,
      "oge": 346,
      "je": 347,
      "gụ": 348,
      "agh": 349,
      "tụtụ": 350,
      " )": 351,
      "wu": 352,
      "ku": 353,
      "ya .": 354,
      "abụọ": 355,
      "akụkọ": 356,
      "ịbụ": 357,
      "na-eme": 358,
      "arị": 359,
      "eri": 360,
      "mp": 361,
      "ko": 362,
      "a .": 363,
      "ama": 364,
      "onyeisi": 365,
      "anọ": 366,
      "igbo": 367,
      "ọtụtụ": 368,
      "“ ": 369,
      "on": 370,
      " ”": 371,
      "bụrụ": 372,
      "sọ": 373,
      "kpọ": 374,
      "bịa": 375,
      "nwaanyị": 376,
      "kwara": 377,
      "bodo": 378,
      "pu": 379,
      "ịbụl": 380,
      "baịbụl": 381,
      "mi": 382,
      "ọnụ": 383,
      "bụla": 384,
      "mme": 385,
      "du": 386,
      "obodo": 387,
      "ana": 388,
      "egwu": 389,
      "20": 390,
      "gbọ": 391,
      "iji": 392,
      "chọ": 393,
      "fe": 394,
      "ụwa": 395,
      "hi": 396,
      "aga": 397,
      "gwa": 398,
      "pụtara": 399,
      "iwu": 400,
      "siri": 401,
      "ikpe": 402,
      "to": 403,
      "ụb": 404,
      "ze": 405,
      "ego": 406,
      "eme": 407,
      "mb": 408,
      "az": 409,
      "uru": 410,
      "gọ": 411,
      "ụbọchị": 412,
      "ntị": 413,
      "agba": 414,
      "onwe": 415,
      "tere": 416,
      "a ,": 417,
      "ho": 418,
      "ụrụ": 419,
      "st": 420,
      "ari": 421,
      "ihi": 422,
      "ndụ": 423,
      "ahụ .": 424,
      "ozi": 425,
      "oji": 426,
      "uwe": 427,
      "mana": 428,
      "sịrị": 429,
      "gara": 430,
      "ọchịchị": 431,
      "aha": 432,
      "lụ": 433,
      "atọ": 434,
      "ah": 435,
      "ụzọ": 436,
      "ukwu": 437,
      "gọọ": 438,
      "mm": 439,
      "gọọme": 440,
      "Bu": 441,
      "hụrụ": 442,
      "kpọrọ": 443,
      "elu": 444,
      "fọdụ": 445,
      "kwuo": 446,
      "ojii": 447,
      "ọka": 448,
      "ya ,": 449,
      "nwoke": 450,
      "jụ": 451,
      "ụfọdụ": 452,
      "ha .": 453,
      "kpo": 454,
      "nd": 455,
      "201": 456,
      "ụgbọ": 457,
      "sụ": 458,
      "ọma": 459,
      "sara": 460,
      "ahụ ,": 461,
      "nso": 462,
      "eze": 463,
      "agha": 464,
      "ome": 465,
      "mee": 466,
      "were": 467,
      "mer": 468,
      "gbara": 469,
      " . ”": 470,
      "or": 471,
      "nweghị": 472,
      "asa": 473,
      "chara": 474,
      "hov": 475,
      "ihu": 476,
      "hari": 477,
      "jehov": 478,
      "Buhari": 479,
      "ga-eme": 480,
      "mara": 481,
      "gharị": 482,
      "ọbụla": 483,
      "gi": 484,
      "ugbu": 485,
      "ọkụ": 486,
      "( ": 487,
      "nakwa": 488,
      "olu": 489,
      "gwụ": 490,
      "nna": 491,
      "nyo": 492,
      "ụka": 493,
      "gbasara": 494,
      "gwara": 495,
      "lite": 496,
      "uweojii": 497,
      "el": 498,
      "ma ,": 499,
      "onyeisiala": 500,
      "chọrọ": 501,
      "ole": 502,
      "ọnwa": 503,
      "ela": 504,
      "nwu": 505,
      "wee": 506,
      "na-ekwu": 507,
      "nga": 508,
      "mkpa": 509,
      "jehova": 510,
      "zọs": 511,
      "aba": 512,
      "jizọs": 513,
      "nta": 514,
      "jiri": 515,
      "pa": 516,
      "arụ": 517,
      "atụ": 518,
      "gwe": 519,
      "mbụ": 520,
      "mmiri": 521,
      "gọọmentị": 522,
      "ntụ": 523,
      "anụ": 524,
      "gburu": 525,
      "na-agba": 526,
      "vanọ": 527,
      "mpi": 528,
      "gọvanọ": 529,
      "pụrụ": 530,
      "kpụ": 531,
      "mo": 532,
      "jọ": 533,
      "dọ": 534,
      "site": 535,
      "ekwe": 536,
      "ja": 537,
      "nne": 538,
      " ;": 539,
      "iwe": 540,
      "anwụ": 541,
      "ga-ama": 542,
      "al": 543,
      "nị": 544,
      "pe": 545,
      "dere": 546,
      "lị": 547,
      "Jo": 548,
      "mgba": 549,
      "gu": 550,
      "in": 551,
      "ju": 552,
      "ahịa": 553,
      "gwọ": 554,
      "adị": 555,
      "ise": 556,
      "bido": 557,
      "kwado": 558,
      "kị": 559,
      "ndọrọ": 560,
      "oko": 561,
      "eziokwu": 562,
      "BB": 563,
      "asọ": 564,
      "nyi": 565,
      "anyere": 566,
      "mu": 567,
      "ntụli": 568,
      "karị": 569,
      "ghọ": 570,
      "tupu": 571,
      "th": 572,
      "ọnwụ": 573,
      "azụ": 574,
      "igwe": 575,
      "mkp": 576,
      "na-ahụ": 577,
      "ce": 578,
      "BBC": 579,
      "zị": 580,
      "ọla": 581,
      "zụ": 582,
      "mbra": 583,
      "nri": 584,
      "anambra": 585,
      "aghara": 586,
      "bere": 587,
      "ọgwụ": 588,
      "ebu": 589,
      "ntụliaka": 590,
      "asọmpi": 591,
      "okp": 592,
      "bara": 593,
      "ọgba": 594,
      "azị": 595,
      "nsogbu": 596,
      "ruo": 597,
      "ọkwa": 598,
      "fu": 599,
      "eji": 600,
      "bọọ": 601,
      "ọj": 602,
      "ghara": 603,
      "nche": 604,
      "etu": 605,
      "gha": 606,
      "bị": 607,
      "enu": 608,
      "nwunye": 609,
      "bọọlụ": 610,
      "regwu": 611,
      "egwuregwu": 612,
      "kiri": 613,
      "rịka": 614,
      "taa": 615,
      " .  \" ": 616,
      "lo": 617,
      "mmụ": 618,
      "na-aga": 619,
      "chụ": 620,
      "chie": 621,
      "ola": 622,
      "ig": 623,
      "yi": 624,
      "ọhụrụ": 625,
      "unu": 626,
      "maazị": 627,
      "ebi": 628,
      "ga-amasị": 629,
      "kacha": 630,
      "anị": 631,
      "nwee": 632,
      "naanị": 633,
      "af": 634,
      "etiti": 635,
      "zie": 636,
      "wara": 637,
      "nweta": 638,
      "ibe": 639,
      "ou": 640,
      "enugwu": 641,
      "nya": 642,
      "amer": 643,
      "ezigbo": 644,
      "banyere": 645,
      "akwa": 646,
      "Ma": 647,
      "AP": 648,
      "lee": 649,
      "chukwu": 650,
      "sị :": 651,
      "ọbụ": 652,
      "ziri": 653,
      "ọjọọ": 654,
      "su": 655,
      "ụlọọrụ": 656,
      "ụmụnwaanyị": 657,
      "eru": 658,
      "kwụsị": 659,
      "ụtọ": 660,
      "agaghị": 661,
      "agụ": 662,
      "nti": 663,
      "raị": 664,
      "Mu": 665,
      "ịka": 666,
      "buru": 667,
      "wakpo": 668,
      "ghi": 669,
      "nde": 670,
      "ụlọikpe": 671,
      "abalị": 672,
      "sta": 673,
      "gosi": 674,
      "narị": 675,
      "enye": 676,
      "ada": 677,
      "en": 678,
      "kwesịrị": 679,
      "ịgba": 680,
      "kemgbe": 681,
      "2019": 682,
      "anaghị": 683,
      "kpere": 684,
      "ol": 685,
      "goolu": 686,
      "Chi": 687,
      "chiri": 688,
      "gịnị": 689,
      "tinye": 690,
      "ngwa": 691,
      "Nig": 692,
      "amerịka": 693,
      "nọdụ": 694,
      "gaa": 695,
      "ha ,": 696,
      "ekwuo": 697,
      "ajụ": 698,
      "zo": 699,
      "00": 700,
      "mbọ": 701,
      "ụgwọ": 702,
      "il": 703,
      "nwụrụ": 704,
      "nal": 705,
      "nkeji": 706,
      "afrịka": 707,
      "za": 708,
      "ọrịa": 709,
      "kere": 710,
      "ruru": 711,
      "ọnọdụ": 712,
      "ga-esi": 713,
      "cheta": 714,
      "laba": 715,
      "kọta": 716,
      "tion": 717,
      "ekwuola": 718,
      "gosiri": 719,
      "meri": 720,
      "bịara": 721,
      "Ro": 722,
      "ụdị": 723,
      "bata": 724,
      "nyocha": 725,
      "ṅụ": 726,
      "mpaghara": 727,
      "nchekwa": 728,
      "litere": 729,
      "vi": 730,
      "ụgbọelu": 731,
      "beghị": 732,
      "ng": 733,
      "nụlọ": 734,
      "ezinụlọ": 735,
      "ọdị": 736,
      "gị :": 737,
      "Nigeri": 738,
      "na-akpọ": 739,
      "APC": 740,
      "nje": 741,
      "ngalaba": 742,
      "kọrọ": 743,
      "soro": 744,
      "asụ": 745,
      "osi": 746,
      "ugwu": 747,
      "puku": 748,
      "gọọmenti": 749,
      "it": 750,
      "izu": 751,
      "kee": 752,
      "omeiwu": 753,
      "okpuru": 754,
      "isii": 755,
      "gboro": 756,
      "no": 757,
      "bụkwa": 758,
      "ehi": 759,
      "19": 760,
      "imo": 761,
      "iko": 762,
      "na-achị": 763,
      "enweghị": 764,
      "bụghị": 765,
      "ekpere": 766,
      "amụ": 767,
      "nkiri": 768,
      "biri": 769,
      "na-eche": 770,
      "oh": 771,
      "m ,": 772,
      "ki": 773,
      "m .": 774,
      "kọwa": 775,
      "Man": 776,
      "nku": 777,
      "uche": 778,
      "ọsọ": 779,
      "nzu": 780,
      "ụgbọala": 781,
      "kwere": 782,
      "ajụjụ": 783,
      "ozu": 784,
      "ọgụ": 785,
      "ver": 786,
      "dịrị": 787,
      "ịma": 788,
      "abụghị": 789,
      "raịst": 790,
      "ter": 791,
      "nyeghị": 792,
      "ga-eji": 793,
      "Su": 794,
      "asụsụ": 795,
      "kraịst": 796,
      "ele": 797,
      "echi": 798,
      "enwe": 799,
      "mmụọ": 800,
      "Re": 801,
      "mume": 802,
      "na-arụ": 803,
      "na-achọ": 804,
      "atụma": 805,
      "abịa": 806,
      "nnu": 807,
      "atụmatụ": 808,
      "- ": 809,
      "nsọ": 810,
      "olee": 811,
      "asaa": 812,
      "Li": 813,
      "oro": 814,
      "mmemme": 815,
      "agwa": 816,
      "maọbụ": 817,
      "na-enye": 818,
      "gbuo": 819,
      "Jose": 820,
      "na-adị": 821,
      "ụkwụ": 822,
      "obere": 823,
      "ano": 824,
      "ngagharị": 825,
      "kpara": 826,
      "am": 827,
      "nkwa": 828,
      "gide": 829,
      "ọzọ .": 830,
      "achọ": 831,
      "karịrị": 832,
      "tụrụ": 833,
      "tọrọ": 834,
      "adịghị": 835,
      "Da": 836,
      "Mo": 837,
      "mkpụrụ": 838,
      "ụmụaka": 839,
      "anya .": 840,
      "akpa": 841,
      "eke": 842,
      "les": 843,
      "kwukwara": 844,
      "kọwara": 845,
      "hapụ": 846,
      "ran": 847,
      "enyi": 848,
      "egbe": 849,
      "ọgbakọ": 850,
      "nala": 851,
      "asatọ": 852,
      "bekee": 853,
      "Boko": 854,
      "of": 855,
      "rịta": 856,
      "nwata": 857,
      "àm": 858,
      "Hara": 859,
      "manụ": 860,
      "ugbua": 861,
      "àmà": 862,
      "per": 863,
      "Nigeria": 864,
      "Co": 865,
      "hịa": 866,
      "tinyere": 867,
      "ugboro": 868,
      "La": 869,
      "DP": 870,
      "chere": 871,
      "ve": 872,
      "ofe": 873,
      "ebubo": 874,
      "anụmanụ": 875,
      "ụkọ": 876,
      "okpo": 877,
      "njem": 878,
      "họ": 879,
      "nai": 880,
      "ori": 881,
      "malitere": 882,
      "ito": 883,
      "fụ": 884,
      "nka": 885,
      "na-akpa": 886,
      "kịta": 887,
      "kike": 888,
      "Na": 889,
      "bidoro": 890,
      "po": 891,
      "ogi": 892,
      "ghọta": 893,
      "nkuzi": 894,
      "mụrụ": 895,
      "Uni": 896,
      "nnukwu": 897,
      "ezu": 898,
      "ga-abụ": 899,
      "ntaakụkọ": 900,
      "Haram": 901,
      "PDP": 902,
      "udo": 903,
      "mechara": 904,
      "na-atụ": 905,
      "hie": 906,
      "kama": 907,
      "karịa": 908,
      "agbanyeghị": 909,
      "ca": 910,
      "naira": 911,
      "ye": 912,
      "aka .": 913,
      "ọkpụ": 914,
      "dara": 915,
      "Josef": 916,
      "ibu": 917,
      "mkpe": 918,
      "Le": 919,
      "ọcha": 920,
      "zuru": 921,
      "anyanwụ": 922,
      "ohere": 923,
      "pati": 924,
      "dum": 925,
      "chọpụta": 926,
      "gọs": 927,
      "Pe": 928,
      "naịjirịa .": 929,
      "ikike": 930,
      "ịhụ": 931,
      "legọs": 932,
      "okporo": 933,
      "gụnyere": 934,
      "egbu": 935,
      "tị": 936,
      "au": 937,
      "ogo": 938,
      "kwuru ,": 939,
      "kanu": 940,
      "ndịàmà": 941,
      "ndọrọndọrọ": 942,
      "Muha": 943,
      " !": 944,
      "mdi": 945,
      "abu": 946,
      "itoolu": 947,
      "Al": 948,
      "us": 949,
      "OB": 950,
      "mmanụ": 951,
      "ahụhụ": 952,
      "IP": 953,
      "Muhamma": 954,
      "EC": 955,
      "ekwu": 956,
      "chọọ": 957,
      "malite": 958,
      "okoro": 959,
      "na-akụ": 960,
      "ike .": 961,
      "chaa": 962,
      "kachasị": 963,
      "wo": 964,
      "na-ele": 965,
      "oche": 966,
      "ụkọchukwu": 967,
      "nọrọ": 968,
      "ide": 969,
      "steeti .": 970,
      "na-abịa": 971,
      "mmeri": 972,
      "chiela": 973,
      "Ea": 974,
      "mata": 975,
      "na-eji": 976,
      " . \"": 977,
      "ofesi": 978,
      "Muhammadu": 979,
      "sịrị :": 980,
      "op": 981,
      "ịdị": 982,
      "mini": 983,
      "ris": 984,
      "IPOB": 985,
      "ghachi": 986,
      "ụlọomeiwu": 987,
      "achị": 988,
      "Fa": 989,
      "ugo": 990,
      "lie": 991,
      "saụ": 992,
      "kwesiri": 993,
      "ster": 994,
      "maha": 995,
      "niile .": 996,
      "pọ": 997,
      "mma .": 998,
      "arịa": 999,
      "tiku": 1000,
      "ia": 1001,
      "ụmụakwụkwọ": 1002,
      "mụta": 1003,
      "sote": 1004,
      "nkwado": 1005,
      "esi": 1006,
      "gbaa": 1007,
      "ụtụtụ": 1008,
      "kọrịta": 1009,
      "Atiku": 1010,
      "ụba": 1011,
      "agb": 1012,
      "inye": 1013,
      "rel": 1014,
      "ochie": 1015,
      "ogige": 1016,
      "bọ": 1017,
      "anya ,": 1018,
      "ikpeazụ": 1019,
      "onal": 1020,
      "ọdụ": 1021,
      "okpu": 1022,
      "In": 1023,
      "mmụta": 1024,
      "ntọ": 1025,
      "amaghị": 1026,
      "nzukọ": 1027,
      "he": 1028,
      "ọha": 1029,
      "alaeze": 1030,
      "ịrị": 1031,
      "osisi": 1032,
      "Super": 1033,
      "ck": 1034,
      "banye": 1035,
      "ọzọ ,": 1036,
      "họpụta": 1037,
      "mgbasa": 1038,
      "osote": 1039,
      "na-ama": 1040,
      "katọ": 1041,
      "Ada": 1042,
      "ga-adị": 1043,
      "bụrụkwa": 1044,
      "anyị .": 1045,
      "alụ": 1046,
      "mahadum": 1047,
      "asị": 1048,
      "dia": 1049,
      "ahọ": 1050,
      "mkpọrọ": 1051,
      "minista": 1052,
      "saụt": 1053,
      "e ,": 1054,
      "shịa": 1055,
      "Ar": 1056,
      "ted": 1057,
      "nwekwara": 1058,
      "meriri": 1059,
      "ịrụ": 1060,
      "Tru": 1061,
      "naghị": 1062,
      "akara": 1063,
      "ọtọ": 1064,
      "na-efe": 1065,
      "aja": 1066,
      "obiano": 1067,
      "Oko": 1068,
      "na-enwe": 1069,
      "na-eru": 1070,
      "na-agụ": 1071,
      "ajọ": 1072,
      "sie": 1073,
      "eluigwe": 1074,
      "dọkịta": 1075,
      "fi": 1076,
      "ọna": 1077,
      "oku": 1078,
      "amụma": 1079,
      "omenala": 1080,
      "ịga": 1081,
      "kpatara": 1082,
      "pụtala": 1083,
      "gaghị": 1084,
      "ọdọ": 1085,
      "So": 1086,
      "eche": 1087,
      "ty": 1088,
      "kọmi": 1089,
      "bụ ,": 1090,
      "okwukwe": 1091,
      "ọma .": 1092,
      "ntoro": 1093,
      "ad": 1094,
      "Ab": 1095,
      "ọba": 1096,
      "anyị ,": 1097,
      "ọkacha": 1098,
      "ntorobịa": 1099,
      "IN": 1100,
      "na-ebu": 1101,
      "Wil": 1102,
      "co": 1103,
      "ikwu": 1104,
      "Eag": 1105,
      "es": 1106,
      "tan": 1107,
      "gawa": 1108,
      "INEC": 1109,
      "FC": 1110,
      "ga-enye": 1111,
      "jụrụ": 1112,
      "Trump": 1113,
      "rụrụ": 1114,
      "nwetara": 1115,
      "akpụ": 1116,
      "mwakpo": 1117,
      "vid": 1118,
      "ọhịa": 1119,
      "Af": 1120,
      "  \" . \"": 1121,
      "ebighị": 1122,
      "United": 1123,
      "nwan": 1124,
      "omume": 1125,
      "ike ,": 1126,
      "usoro": 1127,
      "ity": 1128,
      "ngagharịiwe": 1129,
      " \" \"": 1130,
      "baịbụl .": 1131,
      "Ka": 1132,
      "Sa": 1133,
      "onweghị": 1134,
      "Ne": 1135,
      "Ade": 1136,
      "nọchi": 1137,
      "kpọku": 1138,
      "ihe .": 1139,
      "njọ": 1140,
      "Se": 1141,
      "doro": 1142,
      "ga-agba": 1143,
      "Eagles": 1144,
      "ss": 1145,
      "ten": 1146,
      "iz": 1147,
      "goro": 1148,
      "od": 1149,
      "baka": 1150,
      "echiche": 1151,
      "nnamdi": 1152,
      "vo": 1153,
      "Ri": 1154,
      "ọw": 1155,
      "Mi": 1156,
      "metụ": 1157,
      "akụkụ": 1158,
      "obi .": 1159,
      "ọgọ": 1160,
      "ụlọụka": 1161,
      "kedụ": 1162,
      "Obi": 1163,
      "ani": 1164,
      "lik": 1165,
      "chineke ,": 1166,
      "arịta": 1167,
      "ur": 1168,
      "fo": 1169,
      "ume": 1170,
      "turu": 1171,
      "ịtụ": 1172,
      "a :": 1173,
      "wakporo": 1174,
      "and": 1175,
      "ọwụwa": 1176,
      "Ba": 1177,
      "pt": 1178,
      "nda": 1179,
      "else": 1180,
      "ir": 1181,
      "na-egosi": 1182,
      "ọfụ": 1183,
      "pọl": 1184,
      "fere": 1185,
      "ebo": 1186,
      "con": 1187,
      "chọpụtara": 1188,
      "iyi": 1189,
      "merie": 1190,
      "na-esi": 1191,
      "Chelse": 1192,
      "wụ": 1193,
      "dio": 1194,
      "ohi": 1195,
      "City": 1196,
      "ine": 1197,
      "na-eso": 1198,
      "ọgbọ": 1199,
      "izrel": 1200,
      "katọlik": 1201,
      "son": 1202,
      "chineke .": 1203,
      "land": 1204,
      "kwalite": 1205,
      "onyi": 1206,
      "enyemaka": 1207,
      "emume": 1208,
      "taghị": 1209,
      "nihu": 1210,
      "ụnya": 1211,
      "abuja": 1212,
      "inwe": 1213,
      "eziokwu .": 1214,
      "Moha": 1215,
      "pool": 1216,
      "tional": 1217,
      "200": 1218,
      "na-akwado": 1219,
      "Liver": 1220,
      "oriri": 1221,
      "Liverpool": 1222,
      "oli": 1223,
      "shịal": 1224,
      "isiokwu": 1225,
      "fada": 1226,
      "na-adịghị": 1227,
      "De": 1228,
      "ci": 1229,
      "nji": 1230,
      "pụla": 1231,
      "ewe": 1232,
      "akị": 1233,
      "achụ": 1234,
      "Sou": 1235,
      "soshịal": 1236,
      "na-ekpe": 1237,
      "gụọ": 1238,
      "ogbu": 1239,
      "zde": 1240,
      "Afri": 1241,
      "Ca": 1242,
      "' .": 1243,
      "jeri": 1244,
      "agu": 1245,
      "ọmụ": 1246,
      "juru": 1247,
      "ọkaiwu": 1248,
      "Chelsea": 1249,
      "onyinye": 1250,
      "tri": 1251,
      "oyi": 1252,
      "kpọọ": 1253,
      "akpọ": 1254,
      "na-agwa": 1255,
      "ing": 1256,
      "ode": 1257,
      "ụlọakwụkwọ": 1258,
      "e .": 1259,
      "isi .": 1260,
      "mmadụ .": 1261,
      "iche .": 1262,
      "onyo": 1263,
      "2019 .": 1264,
      " \" \" ": 1265,
      "arc": 1266,
      "sịghị": 1267,
      "aka ,": 1268,
      "ekpe": 1269,
      "ọgbaaghara": 1270,
      "onyonyo": 1271,
      "chu": 1272,
      "To": 1273,
      "ham": 1274,
      "ment": 1275,
      "ugbua ,": 1276,
      "na-ere": 1277,
      "rịọ": 1278,
      "sị ,": 1279,
      "net": 1280,
      "agbọ": 1281,
      "mgb": 1282,
      "na-ewe": 1283,
      "ọbara": 1284,
      "Manche": 1285,
      "Manchester": 1286,
      "kwuru .": 1287,
      "mmed": 1288,
      "wit": 1289,
      "gharịa": 1290,
      "nwanne": 1291,
      "mama": 1292,
      "ọ \"": 1293,
      "ụwa .": 1294,
      "ort": 1295,
      "South": 1296,
      "ite": 1297,
      "madu": 1298,
      "2018": 1299,
      "dịghị": 1300,
      "bie": 1301,
      "gee": 1302,
      "abụọ .": 1303,
      "ala .": 1304,
      "ụra": 1305,
      "okorocha": 1306,
      "okpukpe": 1307,
      "ak": 1308,
      "El": 1309,
      "Ja": 1310,
      "ly": 1311,
      "godị": 1312,
      "ọgbu": 1313,
      "ry": 1314,
      "Nwo": 1315,
      "Sta": 1316,
      "chas": 1317,
      "mbere": 1318,
      "kpọrọ  \" ": 1319,
      "omeka": 1320,
      "ọnị": 1321,
      "vootu": 1322,
      "Rochas": 1323,
      "ọnịcha": 1324,
      "na-ekwuru": 1325,
      "for": 1326,
      "nyela": 1327,
      "ya ?": 1328,
      "aga .": 1329,
      "ope": 1330,
      "ọchịehi": 1331,
      "Fran": 1332,
      "Arse": 1333,
      "va": 1334,
      "Bi": 1335,
      "na-ata": 1336,
      "ede": 1337,
      "mberede": 1338,
      "kpu": 1339,
      "der": 1340,
      "bri": 1341,
      "nle": 1342,
      "ga-aga": 1343,
      "aga ,": 1344,
      "agbọghọ": 1345,
      "Arsenal": 1346,
      "Fe": 1347,
      "nụrụ": 1348,
      "akịrịka": 1349,
      "Mohammed": 1350,
      "nwụọ": 1351,
      "“ ọ": 1352,
      "emeela": 1353,
      "Peter": 1354,
      "ijipt": 1355,
      "' ,": 1356,
      "gbata": 1357,
      "nọọ": 1358,
      "juu": 1359,
      "setan": 1360,
      "kọtara": 1361,
      "gharịrị": 1362,
      "ky": 1363,
      "10": 1364,
      "s ,": 1365,
      "ọkammụta": 1366,
      "tala": 1367,
      "batara": 1368,
      "ịkpa": 1369,
      "ong": 1370,
      "atụ ,": 1371,
      "000": 1372,
      "Ekwere": 1373,
      "witter": 1374,
      "Ekweremadu": 1375,
      "Ke": 1376,
      "ber": 1377,
      "Pre": 1378,
      "na-eri": 1379,
      "taa .": 1380,
      "anwụọla": 1381,
      "ekele": 1382,
      "nhọpụta": 1383,
      "kọmish": 1384,
      "omekaome": 1385,
      "wi": 1386,
      "s .": 1387,
      "ala ,": 1388,
      "Abu": 1389,
      "ụwa ,": 1390,
      "Eze": 1391,
      "gidere": 1392,
      "uju": 1393,
      "our": 1394,
      "mkparịta": 1395,
      "cy": 1396,
      "aru": 1397,
      "mpụ": 1398,
      "ọrụ .": 1399,
      "ozugbo": 1400,
      "kọmishọna": 1401,
      "eh": 1402,
      "jo": 1403,
      "na-abụ": 1404,
      "a ?": 1405,
      "ịlụ": 1406,
      "naeze": 1407,
      "eziokwu ,": 1408,
      "mkpu": 1409,
      "1 ,": 1410,
      "rụọ": 1411,
      "kwasị": 1412,
      "nwereike": 1413,
      " ) .": 1414,
      "ịkpọ": 1415,
      "zịrị": 1416,
      "n ,": 1417,
      "iro": 1418,
      "ọkaikpe": 1419,
      "nigwe": 1420,
      "ọgụgụ": 1421,
      "ogbunigwe": 1422,
      "im": 1423,
      "warị": 1424,
      "ọhanaeze": 1425,
      "edo": 1426,
      "kwụrụ": 1427,
      "ahụike": 1428,
      "ga-enwe": 1429,
      "ije": 1430,
      " . ” )": 1431,
      "nkị": 1432,
      "mmehie": 1433,
      "n .": 1434,
      "wer": 1435,
      "ihe ,": 1436,
      "wepụtara": 1437,
      "megide": 1438,
      "14": 1439,
      "ssi": 1440,
      "ọrụ ,": 1441,
      "Joh": 1442,
      "egbuola": 1443,
      "ọdịnihu": 1444,
      "hapụrụ": 1445,
      "midia": 1446,
      "maara": 1447,
      "hazi": 1448,
      "baịbụl ,": 1449,
      "ghe": 1450,
      "igbu": 1451,
      "makana": 1452,
      " ) ,": 1453,
      "ewu": 1454,
      "ndịigbo": 1455,
      "enyela": 1456,
      "China": 1457,
      "mkpebi": 1458,
      "15": 1459,
      "ta .": 1460,
      "mma ,": 1461,
      "fra": 1462,
      "ire": 1463,
      "mpe": 1464,
      "atụrụ": 1465,
      "ịmata": 1466,
      "nọchite": 1467,
      "Eme": 1468,
      "nkwe": 1469,
      "ndịagha": 1470,
      "We": 1471,
      "Mar": 1472,
      "Oke": 1473,
      "rue": 1474,
      "mmadụ ,": 1475,
      "niile ,": 1476,
      "na-arị": 1477,
      "ụjọ": 1478,
      "ụlọọgwụ": 1479,
      "devid": 1480,
      "bịafra": 1481,
      "Be": 1482,
      "ph": 1483,
      "__": 1484,
      "na-amụ": 1485,
      "nway": 1486,
      "achọghị": 1487,
      "metụtara": 1488,
      "nwayọọ": 1489,
      "ata": 1490,
      "satọ": 1491,
      "ga-anọ": 1492,
      "agbata": 1493,
      "Nor": 1494,
      "na-enweghị": 1495,
      "amalite": 1496,
      "gburugburu": 1497,
      "ngw": 1498,
      "gị ,": 1499,
      "ga-enyere": 1500,
      "ction": 1501,
      "satọde": 1502,
      "Zi": 1503,
      "SS": 1504,
      "Sara": 1505,
      "nter": 1506,
      "fee": 1507,
      "ụtọ .": 1508,
      "Chris": 1509,
      "shi": 1510,
      "mị": 1511,
      "Nna": 1512,
      "zara": 1513,
      "kwaghị": 1514,
      "duna": 1515,
      "Ra": 1516,
      "rid": 1517,
      "iru": 1518,
      "ụlọakụ": 1519,
      "egwuregwu ,": 1520,
      "ọdịnala": 1521,
      "tius": 1522,
      "Leagu": 1523,
      "mọ": 1524,
      "na-egbu": 1525,
      "obi ,": 1526,
      "ịgụ": 1527,
      "elekere": 1528,
      "Ser": 1529,
      "lata": 1530,
      "chapụ": 1531,
      "2017": 1532,
      "na-azụ": 1533,
      "fufe": 1534,
      "naụba": 1535,
      "sha": 1536,
      "tha": 1537,
      "kata": 1538,
      "lic": 1539,
      "gị .": 1540,
      "ja .": 1541,
      "nabata": 1542,
      "nzuzo": 1543,
      "Lago": 1544,
      "ọfụma": 1545,
      "laị": 1546,
      "Osi": 1547,
      "na-ebi": 1548,
      "na-atọ": 1549,
      "na  \" ": 1550,
      "uru .": 1551,
      "Chukwu": 1552,
      "akpọrọ": 1553,
      "agwọ": 1554,
      "ọgbugbu": 1555,
      "akụnaụba": 1556,
      "kan": 1557,
      "abụrụ": 1558,
      "putara": 1559,
      "ugbua .": 1560,
      "ekwentị": 1561,
      "Pau": 1562,
      "tiusde": 1563,
      "Ju": 1564,
      "kwo": 1565,
      "Or": 1566,
      "ịchị": 1567,
      "igbo ,": 1568,
      "ọnụ .": 1569,
      "na-alụ": 1570,
      "Willie": 1571,
      "FCC": 1572,
      "nkịtị": 1573,
      "pị": 1574,
      "lere": 1575,
      "rie": 1576,
      "na-akwụ": 1577,
      "gbochi": 1578,
      "naịjirịa ,": 1579,
      "ụda": 1580,
      "gụrụ": 1581,
      "wute": 1582,
      "ụmụnne": 1583,
      "ọdọụgbọelu": 1584,
      "ọgọst": 1585,
      "sonye": 1586,
      "na-anọ": 1587,
      "icheiche": 1588,
      "abụọ ,": 1589,
      "tor": 1590,
      "chitere": 1591,
      "kpụrụ": 1592,
      "agụmba": 1593,
      "nchọpụta": 1594,
      "yo": 1595,
      "ard": 1596,
      "dịkwa": 1597,
      "chaghị": 1598,
      "mfe": 1599,
      "itinye": 1600,
      "nnyocha": 1601,
      "bakar": 1602,
      "ijeri": 1603,
      "Uma": 1604,
      "wepụ": 1605,
      "weere": 1606,
      "Ude": 1607,
      "Pro": 1608,
      "1 )": 1609,
      "mbaụwa": 1610,
      "mkpesa": 1611,
      "Adam": 1612,
      "olile": 1613,
      "nnọọ": 1614,
      "Twitter": 1615,
      "man": 1616,
      "zute": 1617,
      "efu": 1618,
      "logo": 1619,
      "bụkwanụ": 1620,
      "mmekọrịta": 1621,
      "briten": 1622,
      "Abubakar": 1623,
      "ogologo": 1624,
      "Gu": 1625,
      "Me": 1626,
      "k ,": 1627,
      "ga-ahụ": 1628,
      "uro": 1629,
      "mere .": 1630,
      "gbasa": 1631,
      "idi": 1632,
      "sitere": 1633,
      "chọọchị": 1634,
      "ebonyi": 1635,
      "ọmụmụ": 1636,
      "Paul": 1637,
      "GA": 1638,
      "na-azọ": 1639,
      "liri": 1640,
      "ga-ebi": 1641,
      "butere": 1642,
      "atọ .": 1643,
      "2015": 1644,
      "ezum": 1645,
      "EFCC": 1646,
      "NA": 1647,
      "leba": 1648,
      "ogbe": 1649,
      "ndị )": 1650,
      "lụrụ": 1651,
      "ther": 1652,
      "State": 1653,
      "gwo": 1654,
      "ria": 1655,
      "kọọ": 1656,
      "merụrụ": 1657,
      "yin": 1658,
      "akwado": 1659,
      "fraị": 1660,
      "state": 1661,
      "Ihe": 1662,
      "latri": 1663,
      "fraịde": 1664,
      "23": 1665,
      "Go": 1666,
      "nyeere": 1667,
      "tic": 1668,
      "na-enyere": 1669,
      "ga-akpọ": 1670,
      "papa": 1671,
      "kịrị": 1672,
      "mmanya": 1673,
      "Inter": 1674,
      "pi": 1675,
      "2 ,": 1676,
      "san": 1677,
      "nwụchi": 1678,
      "iche ,": 1679,
      "ọda": 1680,
      "ofesi ,": 1681,
      "New": 1682,
      "senet": 1683,
      "Fu": 1684,
      "fa": 1685,
      "pụọ": 1686,
      "ịkwụ": 1687,
      "debe": 1688,
      "gachara": 1689,
      "ọṅụ": 1690,
      "nkịta": 1691,
      "okorobịa": 1692,
      "El-": 1693,
      "Bo": 1694,
      "Ike": 1695,
      "hab": 1696,
      "bra": 1697,
      "awa": 1698,
      "mbu": 1699,
      "nwaafọ": 1700,
      "ton": 1701,
      "Zak": 1702,
      "zaky": 1703,
      "Zakzaky": 1704,
      "..": 1705,
      "Au": 1706,
      "17": 1707,
      "gabe": 1708,
      "mbi": 1709,
      "yiri": 1710,
      "na-ekwe": 1711,
      "nue": 1712,
      "mpụtara": 1713,
      "dọla": 1714,
      "ebere": 1715,
      " - ": 1716,
      "ọkpara": 1717,
      "Saraki": 1718,
      "Mugabe": 1719,
      "na-aka": 1720,
      "gboo": 1721,
      "zuo": 1722,
      "kwanyere": 1723,
      "guzo": 1724,
      "ofufe": 1725,
      "fọrọ": 1726,
      "mụtara": 1727,
      "okwu .": 1728,
      "jehova .": 1729,
      "gbuola": 1730,
      "anwụchiela": 1731,
      "mọdụ": 1732,
      "Lagos": 1733,
      "Pa": 1734,
      "Di": 1735,
      "dị ,": 1736,
      "kwaa": 1737,
      "iku": 1738,
      "efe": 1739,
      "ọma ,": 1740,
      "ndụmọdụ": 1741,
      "18": 1742,
      "n' \"": 1743,
      "nrọ": 1744,
      "bụbu": 1745,
      "na-ada": 1746,
      "amata": 1747,
      "enweta": 1748,
      "agụụ": 1749,
      "nkata": 1750,
      "foto": 1751,
      "benue": 1752,
      "Cha": 1753,
      "ụmụafọ": 1754,
      "ife": 1755,
      "eto": 1756,
      "zutere": 1757,
      "Africa": 1758,
      "APGA": 1759,
      "ezumike": 1760,
      "baara": 1761,
      "azọ": 1762,
      " ? ”": 1763,
      "puta": 1764,
      "egosi": 1765,
      "mmepe": 1766,
      "agbụrụ": 1767,
      "kaduna": 1768,
      "Ta": 1769,
      "No": 1770,
      "ịny": 1771,
      "Ele": 1772,
      "anyị \"": 1773,
      "eso": 1774,
      "ga-akwụ": 1775,
      "akwụkwọ .": 1776,
      "apụta": 1777,
      "aghọ": 1778,
      "Mad": 1779,
      "ohu": 1780,
      "latrik": 1781,
      "Madrid": 1782,
      "Bri": 1783,
      "kwala": 1784,
      "miri": 1785,
      "mgbede": 1786,
      "mba .": 1787,
      "okenye": 1788,
      "amaokwu": 1789,
      "ndụ .": 1790,
      "ọkụkọ": 1791,
      "enyo": 1792,
      "ịṅụ": 1793,
      "ourt": 1794,
      "13": 1795,
      "dan": 1796,
      "ịzọ": 1797,
      "kwụọ": 1798,
      "nara": 1799,
      "akụrụ": 1800,
      "na-eme .": 1801,
      "okporoụzọ": 1802,
      "ọkachamara": 1803,
      "njikere": 1804,
      "mkparịtaụka": 1805,
      "ower": 1806,
      "Ru": 1807,
      "ona": 1808,
      "Ama": 1809,
      "ịba": 1810,
      "neti": 1811,
      "enyere": 1812,
      "ịnta": 1813,
      "na-etinye": 1814,
      "199": 1815,
      "wore": 1816,
      "ịntaneti": 1817,
      "Sowore": 1818,
      "jị": 1819,
      "Vi": 1820,
      "ụtụ": 1821,
      "ahị": 1822,
      "pụrụiche": 1823,
      "ịkwụsị": 1824,
      "enweghi": 1825,
      "olileanya": 1826,
      "ọdachi": 1827,
      "saa": 1828,
      "steeti ,": 1829,
      "agha .": 1830,
      "the": 1831,
      "ọdịda": 1832,
      "ịkwalite": 1833,
      "na-ekwuchitere": 1834,
      "Ihedio": 1835,
      "ọbasan": 1836,
      "Ibra": 1837,
      "ọbasanjọ": 1838,
      "AS": 1839,
      "ld": 1840,
      "jiji": 1841,
      "nata": 1842,
      "ese": 1843,
      "gun": 1844,
      "bụzị": 1845,
      "inweta": 1846,
      "na-akụzi": 1847,
      "mgbere": 1848,
      "Nwa": 1849,
      "Te": 1850,
      "Ge": 1851,
      "chịrị": 1852,
      "wene": 1853,
      "jide": 1854,
      "spe": 1855,
      "beghi": 1856,
      "Ga": 1857,
      "anyi": 1858,
      "apụ": 1859,
      "na-acha": 1860,
      "arịrị": 1861,
      "onyeozi": 1862,
      "merụ": 1863,
      "kwazie": 1864,
      "ịghọta": 1865,
      "na-akụziri": 1866,
      "na-arịọ": 1867,
      "wenezde": 1868,
      "qu": 1869,
      "ọkọ": 1870,
      "nchị": 1871,
      "ịkụ": 1872,
      "na-ede": 1873,
      "obibi": 1874,
      "Ghana": 1875,
      "stra": 1876,
      "na-asụ": 1877,
      "ngwụ": 1878,
      "ebido": 1879,
      "ịchụ": 1880,
      "Ibrahi": 1881,
      "up": 1882,
      "FA": 1883,
      "16": 1884,
      "sti": 1885,
      "ga-ebu": 1886,
      "ọọla": 1887,
      "boro": 1888,
      "igbo .": 1889,
      "ọkpọ": 1890,
      "Ife": 1891,
      "ọkara": 1892,
      "pase": 1893,
      "ọjị": 1894,
      "aṅụ": 1895,
      "osimiri": 1896,
      "ahịhịa": 1897,
      "ọk": 1898,
      "Is": 1899,
      "agw": 1900,
      "sịga": 1901,
      "akarị": 1902,
      "iso": 1903,
      "gen": 1904,
      "ezie": 1905,
      "inyere": 1906,
      "mkpọ": 1907,
      "omi": 1908,
      "mbụ .": 1909,
      "anwụrụ": 1910,
      "Fal": 1911,
      "na-akọwa": 1912,
      "ọkachasị": 1913,
      "Nwosu": 1914,
      "akụrụngwa": 1915,
      "mas": 1916,
      "gaara": 1917,
      "na-akwa": 1918,
      "ibi": 1919,
      "ndị \"": 1920,
      "ga-achị": 1921,
      "Olu": 1922,
      "sena": 1923,
      "mgbọ": 1924,
      "arụrụ": 1925,
      "ebum": 1926,
      "national": 1927,
      "National": 1928,
      "mọnde": 1929,
      "Ti": 1930,
      "US": 1931,
      "Wa": 1932,
      "4 .": 1933,
      "riri": 1934,
      "bia": 1935,
      "bwe": 1936,
      "lani": 1937,
      "na-ebo": 1938,
      "akwụsị": 1939,
      "na-eto": 1940,
      "na-enyo": 1941,
      "ga-abara": 1942,
      "kpebiri": 1943,
      "nrụrụ": 1944,
      "nkwekọrịta": 1945,
      "Zimba": 1946,
      "Ihedioha": 1947,
      "Ibrahim": 1948,
      "Zimbabwe": 1949,
      "Ah": 1950,
      "by": 1951,
      "are": 1952,
      "meere": 1953,
      "Pla": 1954,
      "kụzi": 1955,
      "ral": 1956,
      "kara": 1957,
      "pịa": 1958,
      "kwuo ,": 1959,
      "na-ajụ": 1960,
      "ọkụ .": 1961,
      "ejiri": 1962,
      "anambra ,": 1963,
      "gbanwee": 1964,
      "Madu": 1965,
      "Premi": 1966,
      "El-Zakzaky": 1967,
      "senatọ": 1968,
      "ON": 1969,
      "tela": 1970,
      "ubi": 1971,
      "mụọ": 1972,
      "ngo": 1973,
      "ịcha": 1974,
      "nwetere": 1975,
      "ọkafọ": 1976,
      "ụfọdụ ,": 1977,
      "asatara": 1978,
      "ọnwụ .": 1979,
      "ọzụ": 1980,
      "ịnya": 1981,
      "izuụka": 1982,
      "Nai": 1983,
      "League": 1984,
      "opekata": 1985,
      "30": 1986,
      "na-eti": 1987,
      "ute": 1988,
      "ule": 1989,
      "Emma": 1990,
      "ga-ewe": 1991,
      "egwu .": 1992,
      "agbaala": 1993,
      "ọchịchị .": 1994,
      "ekweghị": 1995,
      "ga-akwụsị": 1996,
      "na-elekọta": 1997,
      "maachị": 1998,
      "Harc": 1999,
      "  \" ọ \"": 2000,
      "Port": 2001,
      "International": 2002,
      "Harcourt": 2003,
      "ll": 2004,
      "12": 2005,
      "ero": 2006,
      "tuo": 2007,
      "na-eke": 2008,
      "Ale": 2009,
      "bish": 2010,
      "sịa": 2011,
      "ịmụ": 2012,
      "makwụ": 2013,
      "dee": 2014,
      "“ onye": 2015,
      "mita": 2016,
      "toba": 2017,
      "ịzụ": 2018,
      "Comm": 2019,
      "tọzde": 2020,
      "ọktoba": 2021,
      "kwa ,": 2022,
      "otu ,": 2023,
      "otu .": 2024,
      "mere ,": 2025,
      "kwanụ": 2026,
      "ga-achọ": 2027,
      "taa ,": 2028,
      "Jona": 2029,
      "ụgha": 2030,
      "oriakụ": 2031,
      "Premier": 2032,
      "makwụkwọ": 2033,
      "nba": 2034,
      "akọ": 2035,
      "lọta": 2036,
      "kụrụ": 2037,
      "kweere": 2038,
      "furu": 2039,
      "ụnyaahụ": 2040,
      "ekwesịghị": 2041,
      "Falcon": 2042,
      "1 .": 2043,
      "Ger": 2044,
      "med": 2045,
      "biga": 2046,
      "Bra": 2047,
      "rịọrọ": 2048,
      "afọ .": 2049,
      "ndi": 2050,
      "ya . ”": 2051,
      "ụbụrụ": 2052,
      "ụmụnwoke": 2053,
      "jụọ": 2054,
      "omebe": 2055,
      "ise .": 2056,
      "ncheta": 2057,
      "achịcha": 2058,
      "Mbaka": 2059,
      "nturu": 2060,
      "ọzụzụ": 2061,
      "Osinba": 2062,
      "Osinbajo": 2063,
      "St": 2064,
      "ụma": 2065,
      "na ,": 2066,
      "Aba": 2067,
      "na-akọ": 2068,
      "ihe \"": 2069,
      "Bro": 2070,
      "atọ ,": 2071,
      "agwụ": 2072,
      "na-enyocha": 2073,
      "arcel": 2074,
      "ctor": 2075,
      "Alex": 2076,
      "Onye": 2077,
      "mbe": 2078,
      "can": 2079,
      " , \"": 2080,
      "emere": 2081,
      "ghọọ": 2082,
      "bụ  \" ": 2083,
      "ore": 2084,
      "emi": 2085,
      "2016": 2086,
      "mkpamkpa": 2087,
      "mpion": 2088,
      "nsu": 2089,
      "akpara": 2090,
      "họpụtara": 2091,
      "Face": 2092,
      "Willi": 2093,
      "David": 2094,
      "Air": 2095,
      "John": 2096,
      "Emeka": 2097,
      "ịnyịnya": 2098,
      "nyụ": 2099,
      "MA": 2100,
      "ary": 2101,
      "nia": 2102,
      "ugbo": 2103,
      "obodo .": 2104,
      "Wor": 2105,
      "mozu": 2106,
      "mgbanwe": 2107,
      "ọgwụgwụ": 2108,
      "Camer": 2109,
      "ntọrị": 2110,
      "mgbasaozi": 2111,
      "awụ": 2112,
      "nnewi": 2113,
      "agbidi": 2114,
      "Jonatha": 2115,
      "William": 2116,
      "akwamozu": 2117,
      "Ha": 2118,
      "Ai": 2119,
      "arọ": 2120,
      "sịkwa": 2121,
      "rom": 2122,
      "s :": 2123,
      "day": 2124,
      "Con": 2125,
      "ego .": 2126,
      "aribe": 2127,
      "ahu": 2128,
      "ewere": 2129,
      "Bor": 2130,
      "ọbụla .": 2131,
      "idemmiri": 2132,
      "DSS": 2133,
      "ikuku": 2134,
      "Yo": 2135,
      "cho": 2136,
      "Ana": 2137,
      "maa": 2138,
      "la .": 2139,
      "sia": 2140,
      "ịta": 2141,
      "akaebe": 2142,
      "kweta": 2143,
      "mmi": 2144,
      "kwụsịrị": 2145,
      "jidere": 2146,
      "alth": 2147,
      "Sam": 2148,
      "na-anaghị": 2149,
      "Abdu": 2150,
      "sụgharịrị": 2151,
      "bert": 2152,
      "pita": 2153,
      "Fulani": 2154,
      "She": 2155,
      "Mba": 2156,
      "o \"": 2157,
      "isi ,": 2158,
      "Adi": 2159,
      "bre": 2160,
      "nzụ": 2161,
      "na-arịa": 2162,
      "Riva": 2163,
      "Feder": 2164,
      "julaị": 2165,
      "kansa": 2166,
      "Euro": 2167,
      "Naija": 2168,
      "Champion": 2169,
      "Abaribe": 2170,
      "jere": 2171,
      "lla": 2172,
      "rịrị": 2173,
      "mmasị": 2174,
      "pan": 2175,
      "tọọrọ": 2176,
      "enwere": 2177,
      "say": 2178,
      "ime .": 2179,
      "tụnyere": 2180,
      "na-emekwa": 2181,
      "“ ndị": 2182,
      "toro": 2183,
      "Del": 2184,
      "Timo": 2185,
      "ves": 2186,
      "kọmiti": 2187,
      "ga-ezute": 2188,
      "nchịkọta": 2189,
      "ngwụcha": 2190,
      "Iv": 2191,
      "He": 2192,
      "Ut": 2193,
      "ndị ,": 2194,
      "para": 2195,
      "pte": 2196,
      "anu": 2197,
      "na \"": 2198,
      "ga-eso": 2199,
      "chetara": 2200,
      "na-anụ": 2201,
      "kwesi": 2202,
      "pụta .": 2203,
      "2 )": 2204,
      "hoo": 2205,
      "meekwa": 2206,
      "nsogbu .": 2207,
      "na-agaghị": 2208,
      "na-enweta": 2209,
      "Eng": 2210,
      "kelere": 2211,
      "Falcons": 2212,
      "ers": 2213,
      "tti": 2214,
      "nke \"": 2215,
      "zọrọ": 2216,
      "ndo": 2217,
      "mecha": 2218,
      "Igbo": 2219,
      "okwu ,": 2220,
      "kwenyere": 2221,
      "mbụ ,": 2222,
      "Umu": 2223,
      "ejije": 2224,
      "Ben": 2225,
      "nwụchiri": 2226,
      "ụnyaahụ .": 2227,
      "Barcel": 2228,
      "Jonathan": 2229,
      "Barcelona": 2230,
      "dị .": 2231,
      "3 ,": 2232,
      "ntu": 2233,
      "gra": 2234,
      "na-anwụ": 2235,
      "ịnọ": 2236,
      "mpu": 2237,
      "“ ihe": 2238,
      "ritere": 2239,
      "ukwu .": 2240,
      "mee .": 2241,
      "anwụ .": 2242,
      "mgbakọ": 2243,
      "ghọtara": 2244,
      "emeri": 2245,
      "teau": 2246,
      "Donal": 2247,
      "Dani": 2248,
      "odeakwụkwọ": 2249,
      "West": 2250,
      "North": 2251,
      "nzụkọ": 2252,
      "Plateau": 2253,
      "Donald": 2254,
      "ok": 2255,
      "gbụ": 2256,
      "na-ebe": 2257,
      "na-ezi": 2258,
      "bụzi": 2259,
      "inọ": 2260,
      "ondo": 2261,
      "oon": 2262,
      "ga-abịa": 2263,
      "nwaanyị .": 2264,
      "mmer": 2265,
      "ọbụladị": 2266,
      "ọgwụgwọ": 2267,
      "taa :": 2268,
      "ọjọọ .": 2269,
      "Bay": 2270,
      "France": 2271,
      "jikọtara": 2272,
      "Umahi": 2273,
      "World": 2274,
      "sayen": 2275,
      "Cameroon": 2276,
      "2 .": 2277,
      "nkụ": 2278,
      "ili": 2279,
      "ga-eri": 2280,
      "“ m": 2281,
      "“ n'": 2282,
      "mbodo": 2283,
      "ebi .": 2284,
      "zaa": 2285,
      "echichi": 2286,
      "Lib": 2287,
      "The": 2288,
      "na-ebute": 2289,
      "ehihi": 2290,
      "Robert": 2291,
      "Delta": 2292,
      "Utd": 2293,
      "septe": 2294,
      "asambodo": 2295,
      "IM": 2296,
      "cu": 2297,
      "Shi": 2298,
      "-O": 2299,
      "25": 2300,
      "-ndị": 2301,
      "laa": 2302,
      "tus": 2303,
      "akatọ": 2304,
      "akwụkwọ ,": 2305,
      "aku": 2306,
      "ọnụ ,": 2307,
      "kama ,": 2308,
      "100": 2309,
      "na-abụghị": 2310,
      "kraịst ,": 2311,
      "ehu": 2312,
      "opekatampe": 2313,
      "Aisha": 2314,
      "Rivas": 2315,
      "Londo": 2316,
      "UK": 2317,
      "oma": 2318,
      "ịkwa": 2319,
      "cra": 2320,
      "daa": 2321,
      "zọpụta": 2322,
      "min": 2323,
      "thi": 2324,
      "mbido": 2325,
      "na-eyi": 2326,
      "ssion": 2327,
      "abụrụla": 2328,
      "ogbenye": 2329,
      "owerri": 2330,
      "ịchafụ": 2331,
      "agụmakwụkwọ": 2332,
      "sayensị": 2333,
      "Hu": 2334,
      "Tu": 2335,
      "maghị": 2336,
      "tiri": 2337,
      "Ibi": 2338,
      "lia": 2339,
      "Ebo": 2340,
      "ree": 2341,
      "jama": 2342,
      "nson": 2343,
      "ga-amalite": 2344,
      "amerịka .": 2345,
      "adịgboro": 2346,
      "nkume": 2347,
      "uhie": 2348,
      "ịmụta": 2349,
      "tten": 2350,
      "Christi": 2351,
      "toyin": 2352,
      "gachara ,": 2353,
      "inọk": 2354,
      "jamanị": 2355,
      "toyinbo": 2356,
      "hu": 2357,
      "lara": 2358,
      "ụta": 2359,
      "tum": 2360,
      "Oba": 2361,
      "gbaara": 2362,
      "ley": 2363,
      "dike": 2364,
      "họrọ": 2365,
      "lịa": 2366,
      "agbanye": 2367,
      "agbara": 2368,
      "mkpa .": 2369,
      "2019 :": 2370,
      "Niger": 2371,
      "afrịka .": 2372,
      "Real": 2373,
      "AFC": 2374,
      "____": 2375,
      "mgbochi": 2376,
      "Daniel": 2377,
      "Totten": 2378,
      "28": 2379,
      "-A": 2380,
      "pp": 2381,
      "ina": 2382,
      "6 ,": 2383,
      "mes": 2384,
      "te ,": 2385,
      "a \"": 2386,
      "Ara": 2387,
      "ghọrọ": 2388,
      "sọọ": 2389,
      "iche-": 2390,
      "sonyere": 2391,
      "ịda": 2392,
      "oge ,": 2393,
      "aghụ": 2394,
      "biko": 2395,
      "ndu": 2396,
      "zụrụ": 2397,
      "nuel": 2398,
      "jizọs ,": 2399,
      "ga-arụ": 2400,
      "ọbụghị": 2401,
      "2019 ,": 2402,
      "na-aṅụ": 2403,
      "nghọta": 2404,
      "ịhụna": 2405,
      "Okoro": 2406,
      "Demo": 2407,
      "ọnụọgụgụ": 2408,
      "nturuugo": 2409,
      "Facebo": 2410,
      "Commi": 2411,
      "Shehu": 2412,
      "Fatoyinbo": 2413,
      "AFCON": 2414,
      "aghụghọ": 2415,
      "Lu": 2416,
      "vs": 2417,
      "gri": 2418,
      "jikwa": 2419,
      "chite": 2420,
      "zọọ": 2421,
      "kra": 2422,
      "wanye": 2423,
      "ga-asị": 2424,
      "“ a": 2425,
      "egwu ,": 2426,
      "ja ,": 2427,
      "ụmụnna": 2428,
      "nweela": 2429,
      "azụma": 2430,
      "fuo": 2431,
      "ụdịrị": 2432,
      "osika": 2433,
      "ekpere ,": 2434,
      "Rev": 2435,
      "na-amasị": 2436,
      "arịrịọ": 2437,
      " .  \" ọ \"": 2438,
      "megidere": 2439,
      "Timoti": 2440,
      "ep": 2441,
      "AC": 2442,
      "Si": 2443,
      "gal": 2444,
      "sina": 2445,
      "ịkọ": 2446,
      "Dan": 2447,
      "ichi": 2448,
      "ndịda": 2449,
      "4 )": 2450,
      "amadi": 2451,
      "mmekọ": 2452,
      "ịchọ": 2453,
      "agha ,": 2454,
      "( n": 2455,
      "njiri": 2456,
      "ahịa .": 2457,
      "gbochie": 2458,
      "nwaada": 2459,
      "na-echeta": 2460,
      "Nigerian": 2461,
      "na-amaghị": 2462,
      "mwute": 2463,
      "njirimara": 2464,
      "oti": 2465,
      "dozi": 2466,
      "etinye": 2467,
      "mba ,": 2468,
      "nọ .": 2469,
      "kola": 2470,
      "ama .": 2471,
      "puru": 2472,
      "ụbọchị ,": 2473,
      "mmalite": 2474,
      "muel": 2475,
      "nri ,": 2476,
      "ejighị": 2477,
      "ation": 2478,
      "kọwaa": 2479,
      "Peop": 2480,
      "akụn'": 2481,
      "lement": 2482,
      "etinyela": 2483,
      "ọlaedo": 2484,
      "Ebre": 2485,
      "Tottenham": 2486,
      "Samuel": 2487,
      "akụn'ụba": 2488,
      "AN": 2489,
      "bụ .": 2490,
      "Ola": 2491,
      "Ste": 2492,
      "izi": 2493,
      "odo": 2494,
      "nkwụ": 2495,
      "okwute": 2496,
      "gakwara": 2497,
      "aza": 2498,
      "jehova ,": 2499,
      "ọkụ ,": 2500,
      "jizọs .": 2501,
      "gbagburu": 2502,
      "alo": 2503,
      "Agu": 2504,
      "ise ,": 2505,
      "kwadoro": 2506,
      "ọhụrụ .": 2507,
      "ga-enweta": 2508,
      "ghachiri": 2509,
      "tọhapụ": 2510,
      "nọve": 2511,
      "ọnatara": 2512,
      "kwuputara": 2513,
      "Election": 2514,
      "nrụrụaka": 2515,
      "bishọ": 2516,
      "Ahmed": 2517,
      "ekwensu": 2518,
      "Champions": 2519,
      "Japan": 2520,
      "Emmanuel": 2521,
      "Je": 2522,
      "is": 2523,
      "Ce": 2524,
      "3 .": 2525,
      "z .": 2526,
      "ose": 2527,
      "ahụ ?": 2528,
      "na-ewu": 2529,
      "ụzọ ,": 2530,
      "igosi": 2531,
      "anabata": 2532,
      "ọdịmma": 2533,
      "katọrọ": 2534,
      "onyeàmà": 2535,
      "onyeisioche": 2536,
      "Okon": 2537,
      "kpọkuo": 2538,
      "ress": 2539,
      "juun": 2540,
      "Okezie": 2541,
      "amalitela": 2542,
      "Ifeanyi": 2543,
      "Brother": 2544,
      "African": 2545,
      "agbanyeghi": 2546,
      "ọnatarachi": 2547,
      "bishọp": 2548,
      "kana": 2549,
      "mar": 2550,
      "Par": 2551,
      "gere": 2552,
      "Abi": 2553,
      "ụlọ ,": 2554,
      "ssa": 2555,
      "azu": 2556,
      "mmegbu": 2557,
      "kwupụtara": 2558,
      "ụzọ .": 2559,
      "Joe": 2560,
      "chụpụ": 2561,
      "ụtọ ,": 2562,
      "noa": 2563,
      "mechaa": 2564,
      "cia": 2565,
      "Adamu": 2566,
      "um": 2567,
      "-E": 2568,
      "ff": 2569,
      "5 .": 2570,
      "ịara": 2571,
      "ihere": 2572,
      "ọga": 2573,
      "tin": 2574,
      "pti": 2575,
      "wala": 2576,
      "rịcha": 2577,
      "na-emere": 2578,
      "afọ ,": 2579,
      "eje": 2580,
      "na-emepụta": 2581,
      "“ chineke": 2582,
      "nyekwara": 2583,
      "ịgwa": 2584,
      "emeghị": 2585,
      "masịrị": 2586,
      "And": 2587,
      " . ” ,": 2588,
      "ekwesi": 2589,
      "nrite": 2590,
      "ejide": 2591,
      "kilo": 2592,
      "Kano": 2593,
      "dịịrị": 2594,
      "spen": 2595,
      "agwala": 2596,
      "Europe": 2597,
      "eprel": 2598,
      "ee": 2599,
      "gy": 2600,
      "As": 2601,
      "CO": 2602,
      "gana": 2603,
      "Pri": 2604,
      "ote": 2605,
      "zil": 2606,
      "wan": 2607,
      "ga-aka": 2608,
      "kụọ": 2609,
      "doo": 2610,
      "Ali": 2611,
      "Mike": 2612,
      "ncha": 2613,
      "Ogbo": 2614,
      "kwesị": 2615,
      "n'obi": 2616,
      "sele": 2617,
      "kpee": 2618,
      "Ikpe": 2619,
      "daị": 2620,
      "ya .  \" ": 2621,
      "amara": 2622,
      "mili": 2623,
      "idu": 2624,
      "Tho": 2625,
      "ọgara": 2626,
      "lụọ": 2627,
      "ihu .": 2628,
      "jọn": 2629,
      "eju": 2630,
      "hibere": 2631,
      "Wol": 2632,
      "azịza": 2633,
      "Shia": 2634,
      "koria": 2635,
      " ...": 2636,
      "aghọta": 2637,
      "Williams": 2638,
      "England": 2639,
      "ehihie": 2640,
      "Facebook": 2641,
      "bapti": 2642,
      "ọmarịcha": 2643,
      "baptizi": 2644,
      "nkw": 2645,
      "11": 2646,
      "Id": 2647,
      "my": 2648,
      "24": 2649,
      "sere": 2650,
      "na-aba": 2651,
      "lin": 2652,
      "ga-ekwu": 2653,
      "mekwara": 2654,
      "mmechi": 2655,
      "tho": 2656,
      "Bel": 2657,
      "Baba": 2658,
      "na-agbalị": 2659,
      "Job": 2660,
      "ugwu .": 2661,
      "rọshịa": 2662,
      "River": 2663,
      "Obiano": 2664,
      "port": 2665,
      "nabatara": 2666,
      "nnọchite": 2667,
      "ọkpọka": 2668,
      "Borno": 2669,
      "ọgbụ": 2670,
      "Democra": 2671,
      "paradaị": 2672,
      "ọgbụgba": 2673,
      "50": 2674,
      "baa": 2675,
      "leta": 2676,
      "ka \"": 2677,
      "nel": 2678,
      "mgbu": 2679,
      "lian": 2680,
      "kọọrọ": 2681,
      "ude": 2682,
      "mmanwụ": 2683,
      "amadị": 2684,
      "anọ .": 2685,
      "ememme": 2686,
      "ndụ ,": 2687,
      "ndịozi": 2688,
      "ukwu ,": 2689,
      "ịjụ": 2690,
      "asaala": 2691,
      "egburu": 2692,
      "jupụtara": 2693,
      "jeru": 2694,
      "mebiri": 2695,
      "fran": 2696,
      "bọje": 2697,
      "alụkwaghị": 2698,
      "Yemi": 2699,
      "ot": 2700,
      "Do": 2701,
      "29": 2702,
      "7 ,": 2703,
      "car": 2704,
      "Sere": 2705,
      "arba": 2706,
      "iti": 2707,
      "kasị": 2708,
      "Sala": 2709,
      "igbe": 2710,
      "ọwa": 2711,
      "uni": 2712,
      "na-egwu": 2713,
      "bụ :": 2714,
      "ya :": 2715,
      "kwetara": 2716,
      "kpọpụta": 2717,
      "obodo ,": 2718,
      "tom": 2719,
      "ọgbara": 2720,
      "ụka .": 2721,
      "mechiri": 2722,
      "ogogo": 2723,
      "na-amụta": 2724,
      "Cong": 2725,
      "na-anọchite": 2726,
      "  \" n' \"": 2727,
      "Commission": 2728,
      "Clement": 2729,
      "Ikpeazu": 2730,
      "Idris": 2731,
      "jerusele": 2732,
      "Serena": 2733,
      "Congress": 2734,
      "Sy": 2735,
      "pere": 2736,
      "ba ,": 2737,
      "gbapụ": 2738,
      "ang": 2739,
      "acha": 2740,
      "abụbụ": 2741,
      "na-ese": 2742,
      "beri": 2743,
      "udu": 2744,
      "emee": 2745,
      "nso .": 2746,
      "Onwu": 2747,
      "na-ekwu .": 2748,
      "ịdọ": 2749,
      "gbalị": 2750,
      "win": 2751,
      "ịkwado": 2752,
      "God": 2753,
      "Sera": 2754,
      "Victor": 2755,
      "Igbokwe": 2756,
      "kọmpu": 2757,
      "Brazil": 2758,
      "ebumn'obi": 2759,
      "Em": 2760,
      "AR": 2761,
      "ịna": 2762,
      "w .": 2763,
      "anyụ": 2764,
      "tụọ": 2765,
      "gbala": 2766,
      "ble": 2767,
      "chi ,": 2768,
      "chee": 2769,
      "ụlọ .": 2770,
      "sola": 2771,
      "nọ ,": 2772,
      "ha ?": 2773,
      "mepụta": 2774,
      "dun": 2775,
      "febụ": 2776,
      "eme .": 2777,
      "ọchịchị ,": 2778,
      "asaa .": 2779,
      "vel": 2780,
      "nce": 2781,
      "ice": 2782,
      "zịkwa": 2783,
      "ebube": 2784,
      "Big": 2785,
      "Chibo": 2786,
      "ill": 2787,
      "198": 2788,
      "na-agbanyeghị": 2789,
      "mezuru": 2790,
      "laghachi": 2791,
      "India": 2792,
      "deine": 2793,
      "Kenya": 2794,
      "Nnamdi": 2795,
      "abuja .": 2796,
      "sọọsọ": 2797,
      "ịhụnanya": 2798,
      "Okonkwo": 2799,
      "kilomita": 2800,
      "febụwarị": 2801,
      "ght": 2802,
      "UN": 2803,
      "h ,": 2804,
      "si ,": 2805,
      "nkwu": 2806,
      "ịnwụ": 2807,
      "na-ezu": 2808,
      "kpata": 2809,
      "3 )": 2810,
      "anọghị": 2811,
      "“ o": 2812,
      "ọbụrụ": 2813,
      "kepu": 2814,
      "imi": 2815,
      "2014": 2816,
      "Cor": 2817,
      "ell": 2818,
      "na-ekwusa": 2819,
      "azụ .": 2820,
      "nri .": 2821,
      "mgbaghara": 2822,
      "awakpo": 2823,
      "tụbeghị": 2824,
      "kiti": 2825,
      "Cos": 2826,
      "ọdịnihu .": 2827,
      "ga-akpọlite": 2828,
      "Rehab": 2829,
      "  \" anyị \"": 2830,
      "pasentị": 2831,
      "  \" , \"": 2832,
      "Ibiam": 2833,
      "Johnson": 2834,
      "adịgboroja": 2835,
      "Okorocha": 2836,
      "mbịara": 2837,
      "Garba": 2838,
      "NL": 2839,
      "FF": 2840,
      "6 .": 2841,
      "gazi": 2842,
      "na-asị": 2843,
      "wetara": 2844,
      "rịtara": 2845,
      "Ugwu": 2846,
      "ezi .": 2847,
      "kpaa": 2848,
      "oke .": 2849,
      "na-eje": 2850,
      "amaala": 2851,
      "ntị .": 2852,
      "rutere": 2853,
      "kwasịrị": 2854,
      "ga-ebido": 2855,
      "ghachị": 2856,
      "okiri": 2857,
      "praị": 2858,
      "ịgbanwe": 2859,
      "196": 2860,
      "ekpere .": 2861,
      "Davi": 2862,
      "-anyanwụ": 2863,
      "Alla": 2864,
      "akpọọ": 2865,
      "ford": 2866,
      "nhazi": 2867,
      "2023": 2868,
      "gency": 2869,
      "Adichie": 2870,
      "iche-iche": 2871,
      "osikapa": 2872,
      "Ku": 2873,
      "Char": 2874,
      "bru": 2875,
      "kwaara": 2876,
      "kọb": 2877,
      "den": 2878,
      "gbatara": 2879,
      "kpebi": 2880,
      "5 )": 2881,
      "na-eme ,": 2882,
      "amam": 2883,
      "igbo ?": 2884,
      "bịa .": 2885,
      "depụtara": 2886,
      "emepụta": 2887,
      "nsonso": 2888,
      "ga-emecha": 2889,
      "Omo": 2890,
      "anwụọ": 2891,
      "ọjọọ ,": 2892,
      "ven": 2893,
      "ga-etinye": 2894,
      "na-echegbu": 2895,
      "kraịst .": 2896,
      "na-akpata": 2897,
      "Okoye": 2898,
      "cial": 2899,
      "nleta": 2900,
      "bịaru": 2901,
      "Joseph": 2902,
      "blic": 2903,
      "gbalịa": 2904,
      "Bukola": 2905,
      "nọvemba": 2906,
      "jekọb": 2907,
      "Oj": 2908,
      "An": 2909,
      "DC": 2910,
      "9 .": 2911,
      "na .": 2912,
      "Mer": 2913,
      "8 ,": 2914,
      "9 ,": 2915,
      "ji ,": 2916,
      "gasị": 2917,
      "ọsị": 2918,
      "ane": 2919,
      "Uche": 2920,
      "chaala": 2921,
      "ogbo": 2922,
      "merenụ": 2923,
      "mbo": 2924,
      "ilu": 2925,
      "gre": 2926,
      "ako": 2927,
      "gwakwara": 2928,
      "na-agbara": 2929,
      "ọbụla ,": 2930,
      "ekwesị": 2931,
      "tain": 2932,
      "chụọ": 2933,
      "Osu": 2934,
      "Ang": 2935,
      "197": 2936,
      "ịhapụ": 2937,
      "Union": 2938,
      "All": 2939,
      "Inno": 2940,
      "nwaagbọghọ": 2941,
      "ịlaị": 2942,
      "Udemba": 2943,
      "esem": 2944,
      "Ukra": 2945,
      "Ebreham": 2946,
      "Cent": 2947,
      "kọmputa": 2948,
      "NLC": 2949,
      "Ukraine": 2950,
      "og": 2951,
      "26": 2952,
      "o .": 2953,
      "0 .": 2954,
      "nrụ": 2955,
      "ba .": 2956,
      "teghị": 2957,
      "alakụ": 2958,
      "sokwa": 2959,
      "ikwe": 2960,
      "dise": 2961,
      "gị ?": 2962,
      "7 )": 2963,
      "na-emegbu": 2964,
      "anọ ,": 2965,
      "kpọm": 2966,
      "emebi": 2967,
      "ụka ,": 2968,
      "na-achụ": 2969,
      "ga-eru": 2970,
      "vice": 2971,
      "ọsọ .": 2972,
      "Nation": 2973,
      "kpọkuru": 2974,
      "wood": 2975,
      "cis": 2976,
      "olly": 2977,
      "Bio": 2978,
      "agbataobi": 2979,
      "gafee": 2980,
      "na-ewute": 2981,
      "fero": 2982,
      "London": 2983,
      "Wolves": 2984,
      "Allah": 2985,
      "ollywood": 2986,
      "akp": 2987,
      "ct": 2988,
      "dy": 2989,
      "Ume": 2990,
      "ahụghị": 2991,
      "Ban": 2992,
      "ga-egbu": 2993,
      "nwere .": 2994,
      "koro": 2995,
      "bụla .": 2996,
      "bụla ,": 2997,
      "2020": 2998,
      "mbara": 2999,
      "ozi .": 3000,
      "elu .": 3001,
      "zor": 3002,
      "mmiri .": 3003,
      "ekwela": 3004,
      "ace": 3005,
      "ọkaibe": 3006,
      "machiri": 3007,
      "Day": 3008,
      "ibute": 3009,
      "gụnyere :": 3010,
      "ahụhụ .": 3011,
      "na-efegharị": 3012,
      "ffi": 3013,
      "gbasaara": 3014,
      "ehab": 3015,
      "mezuo": 3016,
      "apụtaghị": 3017,
      "Maduka": 3018,
      "  \" nke \"": 3019,
      "mmerụ": 3020,
      "septemba": 3021,
      "akatọọla": 3022,
      "Party": 3023,
      "ọgaranya": 3024,
      "hibru": 3025,
      "aị": 3026,
      "nwo": 3027,
      "hr": 3028,
      "Aw": 3029,
      "Ed": 3030,
      "IS": 3031,
      "0 ,": 3032,
      "ịme": 3033,
      "tta": 3034,
      "sikwa": 3035,
      "San": 3036,
      "chebe": 3037,
      "jọrọ": 3038,
      "binyere": 3039,
      "Bre": 3040,
      "mmepụta": 3041,
      "ego ,": 3042,
      "kpuru": 3043,
      "wutere": 3044,
      "ahapụ": 3045,
      "ga-eme .": 3046,
      "chọrọ .": 3047,
      "ọnwụ ,": 3048,
      "eburu": 3049,
      "nchụ": 3050,
      "ngwaahịa": 3051,
      "nno": 3052,
      "Zam": 3053,
      "Dap": 3054,
      "bekee .": 3055,
      "ọcha ,": 3056,
      "ọcha .": 3057,
      "Akanu": 3058,
      "kris": 3059,
      "lọghachi": 3060,
      "ikpeazụ ,": 3061,
      "Sene": 3062,
      "Mini": 3063,
      "metụta": 3064,
      "Femi": 3065,
      "Guine": 3066,
      "ejirila": 3067,
      "ọganihu": 3068,
      "Democratic": 3069,
      "okirikiri": 3070,
      "Rohr": 3071,
      "Senegal": 3072,
      "ZA": 3073,
      "IV": 3074,
      "l .": 3075,
      "bụbụ": 3076,
      "nsi": 3077,
      "ji .": 3078,
      "len": 3079,
      "kwụnye": 3080,
      "Tra": 3081,
      "Cro": 3082,
      "bute": 3083,
      "nwere ,": 3084,
      "ịnụ": 3085,
      "abụ ,": 3086,
      "anyị ?": 3087,
      "Onu": 3088,
      "wepụta": 3089,
      "na-edu": 3090,
      "chụrụ": 3091,
      "ọka ,": 3092,
      "eze ,": 3093,
      "meru": 3094,
      "chael": 3095,
      "mejọ": 3096,
      "adọ": 3097,
      "ụlọahịa": 3098,
      "zụọ": 3099,
      "gbawara": 3100,
      "Ribe": 3101,
      "eruola": 3102,
      "Uzo": 3103,
      "echeta": 3104,
      "izugbe": 3105,
      "okpuruọchịchị": 3106,
      "- 3": 3107,
      "tigbuo": 3108,
      "Univer": 3109,
      "legọs .": 3110,
      "shop": 3111,
      "Umar": 3112,
      "Cup": 3113,
      "Commonwe": 3114,
      "akparala": 3115,
      "Kanu": 3116,
      "nkwarị": 3117,
      "Chibok": 3118,
      "Davido": 3119,
      "COZA": 3120,
      "Commonwealth": 3121,
      "nz": 3122,
      "ọt": 3123,
      "Fo": 3124,
      "fara": 3125,
      "Eji": 3126,
      "nkea": 3127,
      "ban": 3128,
      "ghị .": 3129,
      "weta": 3130,
      "lawa": 3131,
      "dina": 3132,
      "Aku": 3133,
      "eria": 3134,
      "nya .": 3135,
      "midi": 3136,
      "Cana": 3137,
      "zitere": 3138,
      "pho": 3139,
      "stle": 3140,
      "Mor": 3141,
      "teela": 3142,
      "dimkpa": 3143,
      "ntụnye": 3144,
      "Ogu": 3145,
      "bọọlụ .": 3146,
      "dozie": 3147,
      "ga-egosi": 3148,
      "amerịka ,": 3149,
      "kọwaara": 3150,
      "udo .": 3151,
      " ! ”": 3152,
      "urch": 3153,
      "gafere": 3154,
      "Tim": 3155,
      "na-akwanyere": 3156,
      "ASU": 3157,
      "Port ": 3158,
      "na-agabiga": 3159,
      "chool": 3160,
      "kwesili": 3161,
      "idemili": 3162,
      "akpọọla": 3163,
      "amamihe": 3164,
      "Francis": 3165,
      "Ribeka": 3166,
      "Nọt": 3167,
      "Port Harcourt": 3168,
      "nch": 3169,
      "21": 3170,
      "haa": 3171,
      "zite": 3172,
      "chekwa": 3173,
      "onyenwe": 3174,
      "nali": 3175,
      "del": 3176,
      "Ani": 3177,
      "“ mgbe": 3178,
      "na-asọ": 3179,
      "ọbịa": 3180,
      "nze": 3181,
      "ṅụrụ": 3182,
      "elu ,": 3183,
      "nsụ": 3184,
      "Ngi": 3185,
      "ntụliaka .": 3186,
      "na-efu": 3187,
      "Cou": 3188,
      "May": 3189,
      "Col": 3190,
      "nwebeghị": 3191,
      "jikọrọ": 3192,
      "not": 3193,
      "ịchọpụta": 3194,
      "East": 3195,
      "njọ .": 3196,
      "Miye": 3197,
      "kwazịrị": 3198,
      " .  \" anyị \"": 3199,
      "pasent": 3200,
      "aṅụrị": 3201,
      "  \" ndị \"": 3202,
      "  \" ihe \"": 3203,
      "Ethi": 3204,
      "Christian": 3205,
      "grik": 3206,
      "Leice": 3207,
      "esemokwu": 3208,
      "Ezekwesili": 3209,
      "Ngige": 3210,
      "Miyetti": 3211,
      "Leicester": 3212,
      "Cy": 3213,
      "tt": 3214,
      "Pu": 3215,
      "ka ,": 3216,
      "kla": 3217,
      "ịnye": 3218,
      "tek": 3219,
      "kele": 3220,
      "nsị": 3221,
      "na-apụ": 3222,
      "dọrọ": 3223,
      "kewa": 3224,
      "gbawa": 3225,
      "Fre": 3226,
      "oge .": 3227,
      "arịọ": 3228,
      "pute": 3229,
      "mic": 3230,
      "pụtara .": 3231,
      "ozigbo": 3232,
      "( N": 3233,
      "Imo": 3234,
      "dere ,": 3235,
      "ebi ,": 3236,
      "kwuburu": 3237,
      "chịburu": 3238,
      "ngwaagha": 3239,
      "zọgbuo": 3240,
      "Iran": 3241,
      "mkpọrọ .": 3242,
      "eluigwe ,": 3243,
      "asataghị": 3244,
      "kpebie": 3245,
      "Nwodo": 3246,
      "nwụọ .": 3247,
      "kpochapụ": 3248,
      "gwoju": 3249,
      "nwatakịrị": 3250,
      "ṅomi": 3251,
      "kụziiri": 3252,
      "gbalịrị": 3253,
      "Ojukwu": 3254,
      "Mercy": 3255,
      "ụgh": 3256,
      "om": 3257,
      "ef": 3258,
      "ID": 3259,
      "En": 3260,
      "AF": 3261,
      "nc": 3262,
      "Va": 3263,
      "shu": 3264,
      "7 .": 3265,
      "Her": 3266,
      "ahụla": 3267,
      "rite": 3268,
      "igba": 3269,
      "leke": 3270,
      "gola": 3271,
      "ọfọ": 3272,
      "Gra": 3273,
      "matara": 3274,
      "nin": 3275,
      "akwọ": 3276,
      "Ant": 3277,
      "abụ )": 3278,
      "owu": 3279,
      "hia": 3280,
      "agafe": 3281,
      "nahụrụ": 3282,
      "kpachara": 3283,
      "kpamkpa": 3284,
      "anụrị": 3285,
      "na-adọ": 3286,
      "ga-amata": 3287,
      "ganị": 3288,
      "ahịa ,": 3289,
      "zụta": 3290,
      "nụzụ": 3291,
      "na-ekiri": 3292,
      "ikiri": 3293,
      "kolo": 3294,
      "ọhụrụ ,": 3295,
      "oly": 3296,
      "nwụrụ ,": 3297,
      "ugwu ,": 3298,
      "nkọwa": 3299,
      "nsọ .": 3300,
      "ga-amụta": 3301,
      "Indi": 3302,
      "ọtọ .": 3303,
      "akpụkpọ": 3304,
      "King": 3305,
      "nlekọta": 3306,
      "2017 .": 3307,
      "isonye": 3308,
      "njedebe": 3309,
      "ọṅụṅụ": 3310,
      "merụọ": 3311,
      "  \" na \"": 3312,
      "IMN": 3313,
      "Shiite": 3314,
      "iberi": 3315,
      "SAR": 3316,
      "alakụba": 3317,
      "Service": 3318,
      "Dapchi": 3319,
      "HIV": 3320,
      "Bishop": 3321,
      "Ethiop": 3322,
      "teknụzụ": 3323,
      "SARS": 3324,
      "Os": 3325,
      "u ,": 3326,
      "5 ,": 3327,
      "gar": 3328,
      "ghere": 3329,
      "Ita": 3330,
      "-onye": 3331,
      "ọtụ": 3332,
      "zik": 3333,
      "Nwan": 3334,
      "e \"": 3335,
      "ọrọla": 3336,
      "nnwere": 3337,
      "ichekwa": 3338,
      "mon": 3339,
      "uru ,": 3340,
      "gasịrị": 3341,
      "ga-alụ": 3342,
      "Bur": 3343,
      "m . ”": 3344,
      "ihu ,": 3345,
      "ga-emezu": 3346,
      "kpụpụ": 3347,
      "pee": 3348,
      "gunyere": 3349,
      "eziokwu ?": 3350,
      "dabara": 3351,
      "zoro": 3352,
      "illa": 3353,
      "gbakọrọ": 3354,
      "esoro": 3355,
      "ụfụ": 3356,
      "Kogi": 3357,
      "na-abịa .": 3358,
      "ochie .": 3359,
      "asị .": 3360,
      "eluigwe .": 3361,
      "nọchitere": 3362,
      "umeala": 3363,
      "eboro": 3364,
      "bibie": 3365,
      "Frank": 3366,
      "ngwon": 3367,
      "Orji": 3368,
      "Ikechukwu": 3369,
      "Nwachukwu": 3370,
      " .  \" ndị \"": 3371,
      "Benja": 3372,
      "James": 3373,
      "Andre": 3374,
      "Mikel": 3375,
      "magazi": 3376,
      "Agency": 3377,
      "public": 3378,
      "gressi": 3379,
      "Britain": 3380,
      "disemba": 3381,
      "Biodun": 3382,
      "Church": 3383,
      "ASUU": 3384,
      "Dakolo": 3385,
      "ngwongwo": 3386,
      "Ad": 3387,
      "22": 3388,
      "SC": 3389,
      "Bar": 3390,
      "par": 3391,
      "rere": 3392,
      "yat": 3393,
      "mahụ": 3394,
      "chịkọ": 3395,
      "mne": 3396,
      "siiri": 3397,
      "side": 3398,
      "pro": 3399,
      "ga-emere": 3400,
      "' ?": 3401,
      "napụta": 3402,
      "depụta": 3403,
      "na-apụta": 3404,
      "fre": 3405,
      "ịbịa": 3406,
      "ụkwara": 3407,
      "dapụtara": 3408,
      "ement": 3409,
      "ahụ . ”": 3410,
      "kwuo .": 3411,
      "obiọma": 3412,
      "eze .": 3413,
      "hiwere": 3414,
      "ọnwụnwa": 3415,
      "taata": 3416,
      "enugwu .": 3417,
      "nọchiri": 3418,
      "kpọlitere": 3419,
      "Nigeria ,": 3420,
      "akọwa": 3421,
      "atọrọ": 3422,
      "ifo": 3423,
      "njikọ": 3424,
      "Kim": 3425,
      "nkwenye": 3426,
      "ọfụma .": 3427,
      "ga-ebibi": 3428,
      "gram": 3429,
      "People": 3430,
      "kanada": 3431,
      "  \" ka \"": 3432,
      "kọrịtara": 3433,
      "ọwụwa-anyanwụ": 3434,
      "Peace": 3435,
      "Michael": 3436,
      "penali": 3437,
      "Gernot": 3438,
      "magazin": 3439,
      "golayat": 3440,
      "penaliti": 3441,
      "Ex": 3442,
      "4 ,": 3443,
      "tụla": 3444,
      "onye \"": 3445,
      "anwa": 3446,
      "Eli": 3447,
      "ga-azọ": 3448,
      "lu ,": 3449,
      "di ,": 3450,
      "chineke ?": 3451,
      "oke ,": 3452,
      "mpịa": 3453,
      "“ ka": 3454,
      "nwaanyị ,": 3455,
      "Ndu": 3456,
      "chọtara": 3457,
      "chaa ,": 3458,
      "stri": 3459,
      "iju": 3460,
      "zịkwara": 3461,
      "gọzie": 3462,
      "enugwu-": 3463,
      "ụlọikpe .": 3464,
      "gaasị": 3465,
      "500": 3466,
      "nwụrụ .": 3467,
      "ga-aza": 3468,
      "nsọ ,": 3469,
      "amị": 3470,
      "tanka": 3471,
      "efere": 3472,
      "Secon": 3473,
      "opment": 3474,
      "2018 .": 3475,
      "belata": 3476,
      "aja .": 3477,
      "Soyin": 3478,
      "fraịde .": 3479,
      "jijiji": 3480,
      "Geor": 3481,
      "Kore": 3482,
      "Abdul": 3483,
      "emeriela": 3484,
      "socia": 3485,
      "Universi": 3486,
      "Zamfara": 3487,
      "Progressi": 3488,
      "velopment": 3489,
      "Associa": 3490,
      "Association": 3491,
      "ekp": 3492,
      "Ni": 3493,
      "FI": 3494,
      "ger": 3495,
      "pha": 3496,
      "here": 3497,
      "lan": 3498,
      "sime": 3499,
      "Nji": 3500,
      "ahụrụ": 3501,
      "tụta": 3502,
      "ịsị": 3503,
      "nkọ": 3504,
      "Tan": 3505,
      "mmachi": 3506,
      "nwete": 3507,
      "nesi": 3508,
      "Mala": 3509,
      "yanwa": 3510,
      "Ogbu": 3511,
      "iri .": 3512,
      "way": 3513,
      "lọtọ": 3514,
      "merela": 3515,
      "gwọọ": 3516,
      "gwuru": 3517,
      "ime ,": 3518,
      "okwe": 3519,
      "ọkpa": 3520,
      "9 )": 3521,
      "Odu": 3522,
      "too": 3523,
      "cto": 3524,
      "buuru": 3525,
      "hole": 3526,
      "rist": 3527,
      "aria": 3528,
      "mana \"": 3529,
      "zigara": 3530,
      "( A": 3531,
      "nnaya": 3532,
      "eld": 3533,
      "elsa": 3534,
      "mkpagbu": 3535,
      "mmiri ,": 3536,
      "iwe .": 3537,
      "ino": 3538,
      "ghapụ": 3539,
      "mechie": 3540,
      "Musa": 3541,
      "adaala": 3542,
      "inyocha": 3543,
      "isii ,": 3544,
      "enweela": 3545,
      "na-emegide": 3546,
      "atọhapụ": 3547,
      "tive": 3548,
      "ọkpụkpụ": 3549,
      "alụmdi": 3550,
      "kparịta": 3551,
      "na-eweta": 3552,
      "edeme": 3553,
      "gbatagbata": 3554,
      "na-ahazi": 3555,
      "League .": 3556,
      "ntakịrị": 3557,
      "ịkụziri": 3558,
      "roup": 3559,
      "Oluse": 3560,
      "Anaje": 3561,
      "Mz .": 3562,
      "Catho": 3563,
      "Bank": 3564,
      "castle": 3565,
      "Ethiopia": 3566,
      "Development": 3567,
      "ọkọlọtọ": 3568,
      "Bayelsa": 3569,
      "Catholic": 3570,
      "Pi": 3571,
      "Sp": 3572,
      "-N": 3573,
      "Yu": 3574,
      "Har": 3575,
      "Car": 3576,
      "ndịa": 3577,
      "rus": 3578,
      "kwukwa": 3579,
      "dụọ": 3580,
      "Chan": 3581,
      "wela": 3582,
      "buo": 3583,
      "kwuru :": 3584,
      "imeụlọ": 3585,
      "nọkwa": 3586,
      "jee": 3587,
      "jenụ": 3588,
      "kuzi": 3589,
      "ga-agwa": 3590,
      "mepụtara": 3591,
      "iwu .": 3592,
      "ikpe .": 3593,
      "emeka": 3594,
      "mber": 3595,
      "kwutere": 3596,
      "ozi ,": 3597,
      "iwere": 3598,
      "rael": 3599,
      "jọgburu": 3600,
      "Aja": 3601,
      "iwepụ": 3602,
      "guri": 3603,
      "cent": 3604,
      "ụzụ": 3605,
      "anambra .": 3606,
      "ruola": 3607,
      "nwụchie": 3608,
      "hazie": 3609,
      "rụtụrụ": 3610,
      "akpata": 3611,
      "echefu": 3612,
      "Kalu": 3613,
      "sụgharịa": 3614,
      "nwụọ ,": 3615,
      "ozugbo .": 3616,
      "ntụkwasị": 3617,
      "iteghe": 3618,
      "ọpị": 3619,
      "Good": 3620,
      "guzobe": 3621,
      "Sudan": 3622,
      "ebidola": 3623,
      "adọọla": 3624,
      "Alexand": 3625,
      "Yoru": 3626,
      "Sheka": 3627,
      "  \" o \"": 3628,
      "Libya": 3629,
      "Thomas": 3630,
      "paradaịs .": 3631,
      "jeruselem": 3632,
      "Busola": 3633,
      "Charles": 3634,
      "kpọmkwe": 3635,
      "Nations": 3636,
      "Canada": 3637,
      "edemede": 3638,
      "Olusegun": 3639,
      "jenụwarị": 3640,
      "Israel": 3641,
      "PC": 3642,
      "TV": 3643,
      "ern": 3644,
      "gas": 3645,
      "ọsi": 3646,
      "rin": 3647,
      "ukwa": 3648,
      "van": 3649,
      "Wike": 3650,
      "m :": 3651,
      "nụ .": 3652,
      "nnụ": 3653,
      "ege": 3654,
      "Are": 3655,
      "6 )": 3656,
      "’ )": 3657,
      "na-emebi": 3658,
      "chọta": 3659,
      "gafe": 3660,
      "gọzi": 3661,
      "ụbọchị .": 3662,
      "Pari": 3663,
      "ịsụ": 3664,
      "mkpa :": 3665,
      "emepe": 3666,
      "adịrị": 3667,
      "zịghị": 3668,
      "zụga": 3669,
      "nweekwa": 3670,
      "akwa .": 3671,
      "kụziri": 3672,
      "stan": 3673,
      "ration": 3674,
      "Ronal": 3675,
      "ṅụọ": 3676,
      "isii .": 3677,
      "ọgụ .": 3678,
      "achọpụta": 3679,
      "na-aghọta": 3680,
      "ochie ,": 3681,
      "ahịrị": 3682,
      "essi": 3683,
      "siriak": 3684,
      "Nnabu": 3685,
      "tiusde .": 3686,
      "2015 .": 3687,
      "mbuze": 3688,
      "Austra": 3689,
      "dibia": 3690,
      "na-ekele": 3691,
      "Germa": 3692,
      " .  \" o \"": 3693,
      "Airport": 3694,
      "nnọchiteanya": 3695,
      "Ugwuanyi": 3696,
      "praịm": 3697,
      "shiom": 3698,
      "mpịakọta": 3699,
      "Soyinka": 3700,
      "Newcastle": 3701,
      "shiomhole": 3702,
      "ọs": 3703,
      "nma": 3704,
      "8 .": 3705,
      "ke ,": 3706,
      "Tara": 3707,
      "la ,": 3708,
      "gad": 3709,
      "ọpụ": 3710,
      "ha \"": 3711,
      "- \"": 3712,
      "lli": 3713,
      "wa ,": 3714,
      "chaara": 3715,
      "imere": 3716,
      "natara": 3717,
      "obo": 3718,
      "ọkwọ": 3719,
      "int": 3720,
      "ga-agụ": 3721,
      "wuru": 3722,
      "larị": 3723,
      "bịa ,": 3724,
      "gbakwara": 3725,
      "agaala": 3726,
      "agadi": 3727,
      "otuto": 3728,
      "Mah": 3729,
      "fọdụrụ": 3730,
      "oziọma": 3731,
      "anya . ”": 3732,
      "For": 3733,
      "ork": 3734,
      "liela": 3735,
      "abata": 3736,
      "kọpa": 3737,
      "arịọla": 3738,
      "mmefu": 3739,
      "Benu": 3740,
      "olo": 3741,
      "na-aga ,": 3742,
      "ọchụ": 3743,
      "“ unu": 3744,
      "enugwu ,": 3745,
      "Gen": 3746,
      "ikpere": 3747,
      "na-aza": 3748,
      "enyocha": 3749,
      "na-echekwa": 3750,
      "kpọtụrụ": 3751,
      "asatọ ,": 3752,
      "Bori": 3753,
      "Sau": 3754,
      "apụtala": 3755,
      "Chad": 3756,
      "echiche .": 3757,
      "oyibo": 3758,
      "ijipt .": 3759,
      "twitter": 3760,
      "Haru": 3761,
      "1914": 3762,
      "phen": 3763,
      "juputara": 3764,
      "ọkpụrụ": 3765,
      "mgbidi": 3766,
      "agbagbuola": 3767,
      "apụghị": 3768,
      "Federal": 3769,
      "Abdulla": 3770,
      "Chioma": 3771,
      "________": 3772,
      "biko ,": 3773,
      "azụmahịa": 3774,
      "Egy": 3775,
      "Maidu": 3776,
      "Rivers": 3777,
      "Communi": 3778,
      "Jane": 3779,
      "Central": 3780,
      "Nollywood": 3781,
      "School": 3782,
      "nwụnahụrụ": 3783,
      "Benjamin": 3784,
      "ntara": 3785,
      "Shekau": 3786,
      "Stephen": 3787,
      "Egypt": 3788,
      "Maiduguri": 3789,
      "ntaramahụ": 3790,
      "ntaramahụhụ": 3791,
      "sho": 3792,
      "PS": 3793,
      "CB": 3794,
      "xi": 3795,
      "era": 3796,
      "o ,": 3797,
      " . ,": 3798,
      "laz": 3799,
      "nyekwa": 3800,
      "let": 3801,
      "bụ \"": 3802,
      "chel": 3803,
      "mesa": 3804,
      "Ibo": 3805,
      "imebi": 3806,
      "ga-ekwe": 3807,
      "bulu": 3808,
      "sekọ": 3809,
      "ezina": 3810,
      "ụkpa": 3811,
      "mma ?": 3812,
      "nuche": 3813,
      " . )": 3814,
      "leri": 3815,
      "duru": 3816,
      "chọghị": 3817,
      "nwuru": 3818,
      "nwoke ,": 3819,
      "nwoke .": 3820,
      "nweghịkwa": 3821,
      "onyeisiala .": 3822,
      "ndị ;": 3823,
      "ya ;": 3824,
      "Sal": 3825,
      "eral": 3826,
      "ọlị": 3827,
      "azụ ,": 3828,
      "ebibi": 3829,
      "arebi": 3830,
      "ous": 3831,
      "akwa ,": 3832,
      "sọnde": 3833,
      "stal": 3834,
      "adaba": 3835,
      "na-ezo": 3836,
      "400": 3837,
      "afrịka ,": 3838,
      "Ameri": 3839,
      "ding": 3840,
      "nkwanye": 3841,
      "rans": 3842,
      "asatọ .": 3843,
      "Lai": 3844,
      "amachiela": 3845,
      "ịdịna": 3846,
      "alaghachi": 3847,
      "lack": 3848,
      "na-erubere": 3849,
      "echeghị": 3850,
      "Econ": 3851,
      "ohi ,": 3852,
      "mbuli": 3853,
      "mbilite": 3854,
      "egosila": 3855,
      "ejidela": 3856,
      "Allian": 3857,
      "Nyako": 3858,
      "Innoson": 3859,
      "ịlaịja": 3860,
      "ncil": 3861,
      "ahia": 3862,
      "Republic": 3863,
      "University": 3864,
      "Group": 3865,
      "Oshiomhole": 3866,
      "Timgad": 3867,
      "Saudi": 3868,
      "Abdullahi": 3869,
      "lazarọ": 3870,
      "arebia": 3871,
      "Alliance": 3872,
      "at": 3873,
      "os": 3874,
      "Qu": 3875,
      "ks": 3876,
      "IC": 3877,
      "t .": 3878,
      "ser": 3879,
      "nahụ": 3880,
      "brụ": 3881,
      "tie": 3882,
      "te .": 3883,
      "chịa": 3884,
      "nes": 3885,
      "sala": 3886,
      "nụ ,": 3887,
      "na-asa": 3888,
      "ga-anwụ": 3889,
      "hobi": 3890,
      "bunyere": 3891,
      "ga-ada": 3892,
      "dada": 3893,
      "kwuru ?": 3894,
      "ture": 3895,
      "P )": 3896,
      "kuru": 3897,
      "ịna-eme": 3898,
      "a .  \" ": 3899,
      "igbochi": 3900,
      "“ e": 3901,
      "Mana": 3902,
      "agbala": 3903,
      "agbasa": 3904,
      "nyụrụ": 3905,
      "sụrụ": 3906,
      "ston": 3907,
      "sty": 3908,
      "mana ,": 3909,
      "ha . ”": 3910,
      "ikpo": 3911,
      "mee ,": 3912,
      "asaa ,": 3913,
      "chara ,": 3914,
      "na-akpụ": 3915,
      "inji": 3916,
      "adị .": 3917,
      "na-aga .": 3918,
      "chụpụrụ": 3919,
      "awara": 3920,
      "Mou": 3921,
      "Mada": 3922,
      "ezo": 3923,
      "ịza": 3924,
      "kno": 3925,
      "ga-ahapụ": 3926,
      "ogoogo": 3927,
      "enop": 3928,
      "Insta": 3929,
      "ịhọpụta": 3930,
      "achọpụtala": 3931,
      "izrel .": 3932,
      "achụọla": 3933,
      "bụrụgodị": 3934,
      "ịtụkwasị": 3935,
      "ship": 3936,
      "ụmụokorobịa": 3937,
      "na-ekwesịghị": 3938,
      "enwetala": 3939,
      "akparama": 3940,
      "Mbaise": 3941,
      "Obama": 3942,
      "otele": 3943,
      "nwaamadị": 3944,
      "Guinea": 3945,
      "mgbakwụnye": 3946,
      "Benin": 3947,
      "kwekọrịtara": 3948,
      "George": 3949,
      "There": 3950,
      "Bayern": 3951,
      "Ronaldo": 3952,
      "ọpụpụ": 3953,
      "  \" - \"": 3954,
      "ọkpụrụkpụ": 3955,
      "Mexi": 3956,
      "Economi": 3957,
      "Council": 3958,
      "febrụ": 3959,
      "enophobi": 3960,
      "Mexico": 3961,
      "febrụwarị": 3962,
      "id": 3963,
      "At": 3964,
      "CN": 3965,
      "madị": 3966,
      "Kha": 3967,
      "Uga": 3968,
      "Cri": 3969,
      "le ,": 3970,
      "na-edo": 3971,
      "mụwa": 3972,
      "ron": 3973,
      "gani": 3974,
      "ga-atụ": 3975,
      "ga-ata": 3976,
      "lege": 3977,
      "ọzọkwa": 3978,
      "di .": 3979,
      "Odi": 3980,
      "pụta ,": 3981,
      "8 )": 3982,
      "ama ,": 3983,
      "2013": 3984,
      "na-ewere": 3985,
      "ịgbara": 3986,
      "gbachara": 3987,
      "ga-emeli": 3988,
      "ga-emekwa": 3989,
      "kpọlite": 3990,
      "anwu": 3991,
      "abacha": 3992,
      "arụsị": 3993,
      "You": 3994,
      "sị :  \" ": 3995,
      "olution": 3996,
      "visa": 3997,
      "nwedịrị": 3998,
      "Gran": 3999
    },
    "merges": [
      "n a",
      "d ị",
      "k a",
      "m a",
      "  .",
      "n '",
      "b ụ",
      "e r",
      "  ,",
      "a r",
      "n dị",
      "k e",
      "h a",
      "na -",
      "er e",
      "ar a",
      "y a",
      "m e",
      "i h",
      "l a",
      "g a",
      "s i",
      "ny e",
      "j i",
      "h ụ",
      "t a",
      "ih e",
      "kw u",
      "r ụ",
      "r i",
      "a ny",
      "a hụ",
      "r u",
      "n ke",
      "r ị",
      "t u",
      "b a",
      "kw a",
      "o nye",
      "na- a",
      "na- e",
      "gh ị",
      "t ụ",
      "d ụ",
      "t i",
      "ga -",
      "t e",
      "gb a",
      "o tu",
      "l e",
      "b e",
      "b i",
      "z i",
      "any ị",
      "s ị",
      "m ma",
      "p ụ",
      "k ọ",
      "m ụ",
      "a n",
      "ch i",
      "ch ị",
      "  \"",
      "ch e",
      "nw e",
      "z ọ",
      "a ka",
      "l ọ",
      "r ọ",
      "k ụ",
      "d o",
      "ụ lọ",
      "w e",
      "n e",
      "kw ụ",
      "a la",
      "nw a",
      "g o",
      "f ọ",
      "gb u",
      "i si",
      "r a",
      "mma dụ",
      "l i",
      "gb e",
      "e be",
      "i ke",
      "ọ rọ",
      "i ri",
      "kwu ru",
      "w a",
      "d e",
      "ch a",
      "r o",
      "ma ka",
      "b u",
      "m gbe",
      "t ọ",
      "ga- e",
      "m ere",
      "s o",
      "t ara",
      "n i",
      "gb o",
      "ụ mụ",
      "rị a",
      "ọ ọ",
      "gw u",
      "ị a",
      "ọ rụ",
      "e ti",
      "nw ere",
      "ga- a",
      "  :",
      "n ụ",
      "s a",
      "g e",
      "ọ chị",
      "any a",
      "a fọ",
      "m ba",
      "b o",
      "i me",
      "o kwu",
      "nw ụ",
      "a bụ",
      "kw e",
      "a kụ",
      "ọ zọ",
      "g ị",
      "a kwụ",
      "l u",
      "ị ji",
      "na ịji",
      "naịji rịa",
      "n ọ",
      "   \"",
      "o bi",
      "kw ọ",
      "s e",
      "kp e",
      "z u",
      "d i",
      "e zi",
      "s te",
      "ne ke",
      "ste eti",
      "chi neke",
      "i che",
      "akwụ kwọ",
      "  \"  ",
      "kp a",
      "ny ere",
      "d a",
      "  ?",
      "i le",
      "n t",
      "n u",
      "dị ka",
      "pụ ta",
      "o ke",
      "r e",
      "ni ile",
      "o ge",
      "j e",
      "g ụ",
      "a gh",
      "tụ tụ",
      "  )",
      "w u",
      "k u",
      "ya  .",
      "abụ ọ",
      "akụ kọ",
      "ị bụ",
      "na-e me",
      "ar ị",
      "er i",
      "m p",
      "k o",
      "a  .",
      "a ma",
      "onye isi",
      "an ọ",
      "i gbo",
      "ọ tụtụ",
      "“  ",
      "o n",
      "  ”",
      "bụ rụ",
      "s ọ",
      "kp ọ",
      "b ịa",
      "nwa anyị",
      "kw ara",
      "bo do",
      "p u",
      "ịbụ l",
      "ba ịbụl",
      "m i",
      "ọ nụ",
      "bụ la",
      "m me",
      "d u",
      "o bodo",
      "a na",
      "e gwu",
      "2 0",
      "gb ọ",
      "i ji",
      "ch ọ",
      "f e",
      "ụ wa",
      "h i",
      "a ga",
      "gw a",
      "pụ tara",
      "i wu",
      "si ri",
      "i kpe",
      "t o",
      "ụ b",
      "z e",
      "e go",
      "e me",
      "m b",
      "a z",
      "u ru",
      "g ọ",
      "ụb ọchị",
      "nt ị",
      "a gba",
      "o nwe",
      "t ere",
      "a  ,",
      "h o",
      "ụ rụ",
      "s t",
      "ar i",
      "ih i",
      "n dụ",
      "ahụ  .",
      "o zi",
      "o ji",
      "u we",
      "ma na",
      "sị rị",
      "g ara",
      "ọchị chị",
      "a ha",
      "l ụ",
      "a tọ",
      "a h",
      "ụ zọ",
      "u kwu",
      "g ọọ",
      "m m",
      "gọọ me",
      "B u",
      "hụ rụ",
      "kp ọrọ",
      "e lu",
      "fọ dụ",
      "kwu o",
      "oji i",
      "ọ ka",
      "ya  ,",
      "nw oke",
      "j ụ",
      "ụ fọdụ",
      "ha  .",
      "kp o",
      "n d",
      "20 1",
      "ụ gbọ",
      "s ụ",
      "ọ ma",
      "s ara",
      "ahụ  ,",
      "n so",
      "e ze",
      "agh a",
      "o me",
      "me e",
      "w ere",
      "m er",
      "gb ara",
      " .  ”",
      "o r",
      "nwe ghị",
      "a sa",
      "ch ara",
      "ho v",
      "ih u",
      "h ari",
      "je hov",
      "Bu hari",
      "ga-e me",
      "ma ra",
      "gh arị",
      "ọ bụla",
      "g i",
      "u gbu",
      "ọ kụ",
      "(  ",
      "na kwa",
      "o lu",
      "gw ụ",
      "n na",
      "ny o",
      "ụ ka",
      "gba sara",
      "gw ara",
      "li te",
      "uwe ojii",
      "e l",
      "ma  ,",
      "onyeisi ala",
      "ch ọrọ",
      "o le",
      "ọ nwa",
      "e la",
      "nw u",
      "we e",
      "na-e kwu",
      "n ga",
      "m kpa",
      "jehov a",
      "zọ s",
      "a ba",
      "ji zọs",
      "n ta",
      "ji ri",
      "p a",
      "ar ụ",
      "a tụ",
      "gw e",
      "m bụ",
      "mm iri",
      "gọọme ntị",
      "n tụ",
      "an ụ",
      "gbu ru",
      "na-a gba",
      "v anọ",
      "mp i",
      "gọ vanọ",
      "pụ rụ",
      "kp ụ",
      "m o",
      "j ọ",
      "d ọ",
      "si te",
      "e kwe",
      "j a",
      "n ne",
      "  ;",
      "i we",
      "a nwụ",
      "ga-a ma",
      "a l",
      "n ị",
      "p e",
      "d ere",
      "l ị",
      "J o",
      "m gba",
      "g u",
      "i n",
      "j u",
      "ah ịa",
      "gw ọ",
      "a dị",
      "i se",
      "bi do",
      "kwa do",
      "k ị",
      "nd ọrọ",
      "o ko",
      "ezi okwu",
      "B B",
      "a sọ",
      "ny i",
      "any ere",
      "m u",
      "ntụ li",
      "ka rị",
      "gh ọ",
      "tu pu",
      "t h",
      "ọ nwụ",
      "az ụ",
      "i gwe",
      "m kp",
      "na- ahụ",
      "c e",
      "BB C",
      "z ị",
      "ọ la",
      "z ụ",
      "mb ra",
      "n ri",
      "ana mbra",
      "agh ara",
      "b ere",
      "ọ gwụ",
      "e bu",
      "ntụli aka",
      "asọ mpi",
      "o kp",
      "b ara",
      "ọ gba",
      "az ị",
      "nso gbu",
      "ru o",
      "ọ kwa",
      "f u",
      "e ji",
      "b ọọ",
      "ọ j",
      "gh ara",
      "n che",
      "e tu",
      "gh a",
      "b ị",
      "e nu",
      "nwu nye",
      "bọọ lụ",
      "re gwu",
      "egwu regwu",
      "k iri",
      "rị ka",
      "ta a",
      " .   \" ",
      "l o",
      "m mụ",
      "na-a ga",
      "ch ụ",
      "chi e",
      "o la",
      "i g",
      "y i",
      "ọ hụrụ",
      "u nu",
      "ma azị",
      "e bi",
      "ga-ama sị",
      "ka cha",
      "an ị",
      "nwe e",
      "na anị",
      "a f",
      "eti ti",
      "zi e",
      "w ara",
      "nwe ta",
      "i be",
      "o u",
      "enu gwu",
      "ny a",
      "a mer",
      "ezi gbo",
      "b anyere",
      "a kwa",
      "M a",
      "A P",
      "le e",
      "ch ukwu",
      "sị  :",
      "ọ bụ",
      "zi ri",
      "ọj ọọ",
      "s u",
      "ụlọ ọrụ",
      "ụmụ nwaanyị",
      "er u",
      "kwụ sị",
      "ụ tọ",
      "aga ghị",
      "a gụ",
      "n ti",
      "ra ị",
      "M u",
      "ị ka",
      "bu ru",
      "wa kpo",
      "gh i",
      "n de",
      "ụlọ ikpe",
      "aba lị",
      "s ta",
      "go si",
      "na rị",
      "e nye",
      "a da",
      "e n",
      "kwe sịrị",
      "ị gba",
      "ke mgbe",
      "201 9",
      "ana ghị",
      "kp ere",
      "o l",
      "go olu",
      "Ch i",
      "chi ri",
      "gị nị",
      "ti nye",
      "n gwa",
      "N ig",
      "amer ịka",
      "nọ dụ",
      "ga a",
      "ha  ,",
      "e kwuo",
      "a jụ",
      "z o",
      "0 0",
      "mb ọ",
      "ụ gwọ",
      "i l",
      "nwụ rụ",
      "na l",
      "nke ji",
      "af rịka",
      "z a",
      "ọ rịa",
      "k ere",
      "ru ru",
      "ọ nọdụ",
      "ga-e si",
      "che ta",
      "la ba",
      "kọ ta",
      "ti on",
      "ekwuo la",
      "go siri",
      "m eri",
      "bị ara",
      "R o",
      "ụ dị",
      "ba ta",
      "nyo cha",
      "ṅ ụ",
      "mp aghara",
      "nche kwa",
      "li tere",
      "v i",
      "ụgbọ elu",
      "be ghị",
      "n g",
      "n ụlọ",
      "ezi nụlọ",
      "ọ dị",
      "gị  :",
      "Nig eri",
      "na-a kpọ",
      "AP C",
      "n je",
      "nga laba",
      "kọ rọ",
      "so ro",
      "a sụ",
      "o si",
      "u gwu",
      "pu ku",
      "gọọme nti",
      "i t",
      "i zu",
      "ke e",
      "ome iwu",
      "okp uru",
      "isi i",
      "gbo ro",
      "n o",
      "bụ kwa",
      "e hi",
      "1 9",
      "i mo",
      "i ko",
      "na-a chị",
      "e nweghị",
      "bụ ghị",
      "e kpere",
      "a mụ",
      "n kiri",
      "bi ri",
      "na-e che",
      "o h",
      "m  ,",
      "k i",
      "m  .",
      "kọ wa",
      "M an",
      "n ku",
      "u che",
      "ọ sọ",
      "n zu",
      "ụgbọ ala",
      "kw ere",
      "ajụ jụ",
      "o zu",
      "ọ gụ",
      "v er",
      "dị rị",
      "ị ma",
      "abụ ghị",
      "raị st",
      "t er",
      "nye ghị",
      "ga-e ji",
      "S u",
      "asụ sụ",
      "k raịst",
      "e le",
      "e chi",
      "e nwe",
      "mmụ ọ",
      "R e",
      "mu me",
      "na- arụ",
      "na-a chọ",
      "atụ ma",
      "a bịa",
      "n nu",
      "atụma tụ",
      "-  ",
      "n sọ",
      "ole e",
      "asa a",
      "L i",
      "o ro",
      "mme mme",
      "a gwa",
      "ma ọbụ",
      "na-e nye",
      "gbu o",
      "Jo se",
      "na-a dị",
      "ụ kwụ",
      "o bere",
      "an o",
      "nga gharị",
      "kp ara",
      "a m",
      "n kwa",
      "gi de",
      "ọzọ  .",
      "a chọ",
      "karị rị",
      "tụ rụ",
      "t ọrọ",
      "adị ghị",
      "D a",
      "M o",
      "mkp ụrụ",
      "ụmụ aka",
      "anya  .",
      "a kpa",
      "e ke",
      "le s",
      "kwu kwara",
      "kọ wara",
      "ha pụ",
      "r an",
      "e nyi",
      "e gbe",
      "ọgba kọ",
      "na la",
      "asa tọ",
      "be kee",
      "B oko",
      "o f",
      "rị ta",
      "nwa ta",
      "à m",
      "H ara",
      "ma nụ",
      "ugbu a",
      "àm à",
      "p er",
      "Nigeri a",
      "C o",
      "h ịa",
      "ti nyere",
      "u gboro",
      "L a",
      "D P",
      "ch ere",
      "v e",
      "o fe",
      "ebu bo",
      "anụ manụ",
      "ụ kọ",
      "o kpo",
      "nje m",
      "h ọ",
      "na i",
      "o ri",
      "ma litere",
      "i to",
      "f ụ",
      "n ka",
      "na-a kpa",
      "kị ta",
      "k ike",
      "N a",
      "bido ro",
      "p o",
      "o gi",
      "ghọ ta",
      "nku zi",
      "mụ rụ",
      "U ni",
      "nnu kwu",
      "e zu",
      "ga-a bụ",
      "nta akụkọ",
      "Hara m",
      "P DP",
      "u do",
      "me chara",
      "na-a tụ",
      "hi e",
      "ka ma",
      "ka rịa",
      "agba nyeghị",
      "c a",
      "nai ra",
      "y e",
      "aka  .",
      "ọ kpụ",
      "d ara",
      "Jose f",
      "i bu",
      "m kpe",
      "L e",
      "ọ cha",
      "zu ru",
      "anya nwụ",
      "oh ere",
      "pa ti",
      "du m",
      "chọ pụta",
      "gọ s",
      "P e",
      "naịjirịa  .",
      "i kike",
      "ị hụ",
      "le gọs",
      "okpo ro",
      "gụ nyere",
      "e gbu",
      "t ị",
      "a u",
      "o go",
      "kwuru  ,",
      "ka nu",
      "ndị àmà",
      "ndọrọ ndọrọ",
      "Mu ha",
      "  !",
      "m di",
      "a bu",
      "ito olu",
      "A l",
      "u s",
      "O B",
      "mma nụ",
      "ahụ hụ",
      "I P",
      "Muha mma",
      "E C",
      "e kwu",
      "ch ọọ",
      "ma lite",
      "oko ro",
      "na-a kụ",
      "ike  .",
      "cha a",
      "kacha sị",
      "w o",
      "na-e le",
      "o che",
      "ụkọ chukwu",
      "n ọrọ",
      "i de",
      "steeti  .",
      "na-a bịa",
      "mm eri",
      "chi ela",
      "E a",
      "ma ta",
      "na-e ji",
      " .  \"",
      "ofe si",
      "Muhamma du",
      "sịrị  :",
      "o p",
      "ị dị",
      "mi ni",
      "ri s",
      "IP OB",
      "gha chi",
      "ụlọ omeiwu",
      "a chị",
      "F a",
      "u go",
      "li e",
      "sa ụ",
      "kwe siri",
      "st er",
      "ma ha",
      "niile  .",
      "p ọ",
      "mma  .",
      "ar ịa",
      "ti ku",
      "i a",
      "ụmụ akwụkwọ",
      "mụ ta",
      "so te",
      "n kwado",
      "e si",
      "gba a",
      "ụ tụtụ",
      "kọ rịta",
      "A tiku",
      "ụ ba",
      "a gb",
      "i nye",
      "re l",
      "o chie",
      "ogi ge",
      "b ọ",
      "anya  ,",
      "ikpe azụ",
      "o nal",
      "ọ dụ",
      "okp u",
      "I n",
      "mmụ ta",
      "n tọ",
      "ama ghị",
      "nzu kọ",
      "h e",
      "ọ ha",
      "ala eze",
      "ị rị",
      "osi si",
      "Su per",
      "c k",
      "ba nye",
      "ọzọ  ,",
      "họ pụta",
      "mgba sa",
      "o sote",
      "na-a ma",
      "ka tọ",
      "A da",
      "ga-a dị",
      "bụrụ kwa",
      "anyị  .",
      "a lụ",
      "maha dum",
      "a sị",
      "di a",
      "ah ọ",
      "m kpọrọ",
      "mini sta",
      "saụ t",
      "e  ,",
      "sh ịa",
      "A r",
      "te d",
      "nwe kwara",
      "mer iri",
      "ị rụ",
      "T ru",
      "na ghị",
      "aka ra",
      "ọ tọ",
      "na-e fe",
      "a ja",
      "obi ano",
      "O ko",
      "na-e nwe",
      "na- eru",
      "na-a gụ",
      "a jọ",
      "si e",
      "elu igwe",
      "dọ kịta",
      "f i",
      "ọ na",
      "o ku",
      "amụ ma",
      "ome nala",
      "ị ga",
      "kpa tara",
      "pụta la",
      "ga ghị",
      "ọ dọ",
      "S o",
      "e che",
      "t y",
      "kọ mi",
      "bụ  ,",
      "okwu kwe",
      "ọma  .",
      "nt oro",
      "a d",
      "A b",
      "ọ ba",
      "anyị  ,",
      "ọka cha",
      "ntoro bịa",
      "I N",
      "na-e bu",
      "W il",
      "c o",
      "i kwu",
      "Ea g",
      "e s",
      "ta n",
      "ga wa",
      "IN EC",
      "F C",
      "ga-e nye",
      "j ụrụ",
      "Tru mp",
      "rụ rụ",
      "nwe tara",
      "a kpụ",
      "m wakpo",
      "vi d",
      "ọ hịa",
      "A f",
      "  \"  . \"",
      "ebi ghị",
      "Uni ted",
      "nw an",
      "o mume",
      "ike  ,",
      "u soro",
      "it y",
      "ngagharị iwe",
      " \"  \"",
      "baịbụl  .",
      "K a",
      "S a",
      "onwe ghị",
      "N e",
      "A de",
      "nọ chi",
      "kpọ ku",
      "ihe  .",
      "n jọ",
      "S e",
      "do ro",
      "ga-a gba",
      "Eag les",
      "s s",
      "te n",
      "i z",
      "go ro",
      "o d",
      "ba ka",
      "echi che",
      "nna mdi",
      "v o",
      "R i",
      "ọ w",
      "M i",
      "me tụ",
      "akụ kụ",
      "obi  .",
      "ọ gọ",
      "ụlọ ụka",
      "ke dụ",
      "O bi",
      "an i",
      "li k",
      "chineke  ,",
      "arị ta",
      "u r",
      "f o",
      "u me",
      "tu ru",
      "ị tụ",
      "a  :",
      "wakpo ro",
      "an d",
      "ọw ụwa",
      "B a",
      "p t",
      "n da",
      "el se",
      "i r",
      "na-e gosi",
      "ọ fụ",
      "pọ l",
      "f ere",
      "e bo",
      "c on",
      "chọ pụtara",
      "i yi",
      "meri e",
      "na-e si",
      "Ch else",
      "w ụ",
      "di o",
      "o hi",
      "C ity",
      "i ne",
      "na-e so",
      "ọ gbọ",
      "iz rel",
      "katọ lik",
      "so n",
      "chineke  .",
      "la nd",
      "kwa lite",
      "o nyi",
      "enye maka",
      "e mume",
      "ta ghị",
      "n ihu",
      "ụ nya",
      "abu ja",
      "i nwe",
      "eziokwu  .",
      "Mo ha",
      "po ol",
      "ti onal",
      "20 0",
      "na-a kwado",
      "Li ver",
      "ori ri",
      "Liver pool",
      "o li",
      "shịa l",
      "isi okwu",
      "f ada",
      "na-adị ghị",
      "D e",
      "c i",
      "n ji",
      "pụ la",
      "e we",
      "a kị",
      "a chụ",
      "S ou",
      "so shịal",
      "na-e kpe",
      "gụ ọ",
      "o gbu",
      "z de",
      "Af ri",
      "C a",
      "'  .",
      "j eri",
      "a gu",
      "ọ mụ",
      "j uru",
      "ọka iwu",
      "Chelse a",
      "onyi nye",
      "t ri",
      "o yi",
      "kp ọọ",
      "a kpọ",
      "na-a gwa",
      "in g",
      "o de",
      "ụlọ akwụkwọ",
      "e  .",
      "isi  .",
      "mmadụ  .",
      "iche  .",
      "o nyo",
      "2019  .",
      " \" \"  ",
      "ar c",
      "sị ghị",
      "aka  ,",
      "e kpe",
      "ọgba aghara",
      "onyo nyo",
      "ch u",
      "T o",
      "ha m",
      "me nt",
      "ugbu a ,",
      "na- ere",
      "rị ọ",
      "sị  ,",
      "ne t",
      "a gbọ",
      "m gb",
      "na-e we",
      "ọ bara",
      "Man che",
      "Manche ster",
      "kwuru  .",
      "mme d",
      "w it",
      "gh arịa",
      "nwan ne",
      "ma ma",
      "ọ  \"",
      "ụwa  .",
      "or t",
      "Sou th",
      "i te",
      "ma du",
      "201 8",
      "dị ghị",
      "bi e",
      "ge e",
      "abụọ  .",
      "ala  .",
      "ụ ra",
      "okoro cha",
      "okpu kpe",
      "a k",
      "E l",
      "J a",
      "l y",
      "go dị",
      "ọ gbu",
      "r y",
      "Nw o",
      "S ta",
      "cha s",
      "mb ere",
      "kpọrọ   \" ",
      "ome ka",
      "ọ nị",
      "vo otu",
      "Ro chas",
      "ọnị cha",
      "na-e kwuru",
      "f or",
      "nye la",
      "ya  ?",
      "aga  .",
      "o pe",
      "ọchị ehi",
      "F ran",
      "Ar se",
      "v a",
      "B i",
      "na-a ta",
      "e de",
      "mbere de",
      "kp u",
      "d er",
      "b ri",
      "n le",
      "ga-a ga",
      "aga  ,",
      "agbọ ghọ",
      "Arse nal",
      "F e",
      "nụ rụ",
      "akị rịka",
      "Moha mmed",
      "nwụ ọ",
      "“  ọ",
      "eme ela",
      "Pe ter",
      "iji pt",
      "'  ,",
      "gba ta",
      "n ọọ",
      "ju u",
      "se tan",
      "kọ tara",
      "gharị rị",
      "k y",
      "1 0",
      "s  ,",
      "ọka mmụta",
      "ta la",
      "ba tara",
      "ị kpa",
      "on g",
      "atụ  ,",
      "00 0",
      "E kwere",
      "wit ter",
      "Ekwere madu",
      "K e",
      "b er",
      "P re",
      "na- eri",
      "ta a .",
      "anwụ ọla",
      "eke le",
      "n họpụta",
      "kọmi sh",
      "omeka ome",
      "w i",
      "s  .",
      "ala  ,",
      "A bu",
      "ụwa  ,",
      "E ze",
      "gi dere",
      "u ju",
      "ou r",
      "mkp arịta",
      "c y",
      "ar u",
      "m pụ",
      "ọrụ  .",
      "ozu gbo",
      "kọmish ọna",
      "e h",
      "j o",
      "na-a bụ",
      "a  ?",
      "ị lụ",
      "na eze",
      "eziokwu  ,",
      "mkp u",
      "1  ,",
      "rụ ọ",
      "kwa sị",
      "nwere ike",
      " )  .",
      "ị kpọ",
      "zị rị",
      "n  ,",
      "i ro",
      "ọka ikpe",
      "ni gwe",
      "ọgụ gụ",
      "ogbu nigwe",
      "i m",
      "w arị",
      "ọha naeze",
      "e do",
      "kwụ rụ",
      "ahụ ike",
      "ga-e nwe",
      "i je",
      " . ”  )",
      "n kị",
      "mme hie",
      "n  .",
      "w er",
      "ihe  ,",
      "we pụtara",
      "me gide",
      "1 4",
      "s si",
      "ọrụ  ,",
      "Jo h",
      "egbu ola",
      "ọdị nihu",
      "ha pụrụ",
      "mi dia",
      "ma ara",
      "ha zi",
      "baịbụl  ,",
      "gh e",
      "i gbu",
      "maka na",
      " )  ,",
      "e wu",
      "ndị igbo",
      "enye la",
      "Chi na",
      "mkpe bi",
      "1 5",
      "ta  .",
      "mma  ,",
      "f ra",
      "i re",
      "mp e",
      "atụ rụ",
      "ịma ta",
      "nọchi te",
      "E me",
      "n kwe",
      "ndị agha",
      "W e",
      "M ar",
      "O ke",
      "ru e",
      "mmadụ  ,",
      "niile  ,",
      "na- arị",
      "ụ jọ",
      "ụlọ ọgwụ",
      "de vid",
      "bịa fra",
      "B e",
      "p h",
      "_ _",
      "na-a mụ",
      "nwa y",
      "achọ ghị",
      "metụ tara",
      "nway ọọ",
      "a ta",
      "sa tọ",
      "ga- anọ",
      "agba ta",
      "N or",
      "na-e nweghị",
      "ama lite",
      "gburu gburu",
      "n gw",
      "gị  ,",
      "ga-e nyere",
      "c tion",
      "satọ de",
      "Z i",
      "S S",
      "S ara",
      "nt er",
      "fe e",
      "ụtọ  .",
      "Ch ris",
      "sh i",
      "m ị",
      "N na",
      "z ara",
      "kwa ghị",
      "du na",
      "R a",
      "ri d",
      "i ru",
      "ụlọ akụ",
      "egwuregwu  ,",
      "ọdị nala",
      "ti us",
      "Le agu",
      "m ọ",
      "na-e gbu",
      "obi  ,",
      "ị gụ",
      "ele kere",
      "S er",
      "la ta",
      "cha pụ",
      "201 7",
      "na-a zụ",
      "fu fe",
      "na ụba",
      "sh a",
      "t ha",
      "ka ta",
      "li c",
      "gị  .",
      "j a .",
      "na bata",
      "nzu zo",
      "La go",
      "ọfụ ma",
      "la ị",
      "O si",
      "na-e bi",
      "na-a tọ",
      "na   \" ",
      "uru  .",
      "Ch ukwu",
      "a kpọrọ",
      "a gwọ",
      "ọgbu gbu",
      "akụ naụba",
      "ka n",
      "abụ rụ",
      "pu tara",
      "ugbu a .",
      "ekwe ntị",
      "P au",
      "tius de",
      "J u",
      "kw o",
      "O r",
      "ị chị",
      "igbo  ,",
      "ọnụ  .",
      "na-a lụ",
      "Wil lie",
      "FC C",
      "nkị tị",
      "p ị",
      "l ere",
      "ri e",
      "na-a kwụ",
      "gbo chi",
      "naịjirịa  ,",
      "ụ da",
      "gụ rụ",
      "wu te",
      "ụmụ nne",
      "ọdọ ụgbọelu",
      "ọgọ st",
      "s onye",
      "na-a nọ",
      "iche iche",
      "abụọ  ,",
      "to r",
      "chi tere",
      "kp ụrụ",
      "agụ mba",
      "n chọpụta",
      "y o",
      "ar d",
      "dị kwa",
      "cha ghị",
      "m fe",
      "i tinye",
      "n nyocha",
      "baka r",
      "i jeri",
      "U ma",
      "we pụ",
      "we ere",
      "U de",
      "P ro",
      "1  )",
      "mba ụwa",
      "mkpe sa",
      "Ada m",
      "oli le",
      "n nọọ",
      "T witter",
      "ma n",
      "zu te",
      "e fu",
      "lo go",
      "bụkwa nụ",
      "mme kọrịta",
      "bri ten",
      "Abu bakar",
      "ogo logo",
      "G u",
      "M e",
      "k  ,",
      "ga- ahụ",
      "u ro",
      "mere  .",
      "gba sa",
      "i di",
      "si tere",
      "chọọ chị",
      "ebo nyi",
      "ọmụ mụ",
      "Pau l",
      "G A",
      "na-a zọ",
      "li ri",
      "ga-e bi",
      "bu tere",
      "atọ  .",
      "201 5",
      "ezu m",
      "E FCC",
      "N A",
      "le ba",
      "o gbe",
      "ndị  )",
      "l ụrụ",
      "th er",
      "Sta te",
      "gw o",
      "ri a",
      "kọ ọ",
      "mer ụrụ",
      "y in",
      "a kwado",
      "f raị",
      "sta te",
      "I he",
      "la tri",
      "fraị de",
      "2 3",
      "G o",
      "nye ere",
      "ti c",
      "na-e nyere",
      "ga-a kpọ",
      "pa pa",
      "kị rị",
      "mma nya",
      "I nter",
      "p i",
      "2  ,",
      "s an",
      "nwụ chi",
      "iche  ,",
      "ọ da",
      "ofesi  ,",
      "Ne w",
      "se net",
      "F u",
      "f a",
      "pụ ọ",
      "ị kwụ",
      "d ebe",
      "ga chara",
      "ọ ṅụ",
      "n kịta",
      "okoro bịa",
      "El -",
      "B o",
      "I ke",
      "ha b",
      "b ra",
      "a wa",
      "m bu",
      "nwa afọ",
      "t on",
      "Z ak",
      "za ky",
      "Zak zaky",
      ". .",
      "A u",
      "1 7",
      "ga be",
      "m bi",
      "y iri",
      "na-e kwe",
      "nu e",
      "m pụtara",
      "dọ la",
      "e bere",
      "  - ",
      "ọ kpara",
      "Sara ki",
      "Mu gabe",
      "na-a ka",
      "gbo o",
      "zu o",
      "kw anyere",
      "gu zo",
      "o fufe",
      "fọ rọ",
      "mụ tara",
      "okwu  .",
      "jehov a .",
      "gbu ola",
      "anwụ chiela",
      "m ọdụ",
      "Lago s",
      "P a",
      "D i",
      "dị  ,",
      "kwa a",
      "i ku",
      "e fe",
      "ọma  ,",
      "ndụ mọdụ",
      "1 8",
      "n'  \"",
      "n rọ",
      "bụ bu",
      "na-a da",
      "ama ta",
      "e nweta",
      "agụ ụ",
      "nka ta",
      "fo to",
      "be nue",
      "Ch a",
      "ụmụ afọ",
      "i fe",
      "e to",
      "zu tere",
      "Afri ca",
      "AP GA",
      "ezum ike",
      "ba ara",
      "a zọ",
      " ?  ”",
      "pu ta",
      "ego si",
      "mme pe",
      "agb ụrụ",
      "ka duna",
      "T a",
      "N o",
      "ị ny",
      "E le",
      "anyị  \"",
      "e so",
      "ga-a kwụ",
      "akwụkwọ  .",
      "a pụta",
      "agh ọ",
      "Ma d",
      "oh u",
      "latri k",
      "Mad rid",
      "B ri",
      "kwa la",
      "m iri",
      "mgbe de",
      "mba  .",
      "oke nye",
      "ama okwu",
      "ndụ  .",
      "ọkụ kọ",
      "e nyo",
      "ị ṅụ",
      "our t",
      "1 3",
      "d an",
      "ị zọ",
      "kwụ ọ",
      "na ra",
      "akụ rụ",
      "na-eme  .",
      "okporo ụzọ",
      "ọkacha mara",
      "nji kere",
      "mkparịta ụka",
      "o wer",
      "R u",
      "o na",
      "A ma",
      "ị ba",
      "ne ti",
      "e nyere",
      "ị nta",
      "na-e tinye",
      "19 9",
      "wo re",
      "ịnta neti",
      "So wore",
      "j ị",
      "V i",
      "ụ tụ",
      "ah ị",
      "pụrụ iche",
      "ị kwụsị",
      "enwe ghi",
      "olile anya",
      "ọda chi",
      "sa a",
      "steeti  ,",
      "agh a .",
      "th e",
      "ọdị da",
      "ị kwalite",
      "na-ekwu chitere",
      "Ihe dio",
      "ọba san",
      "I bra",
      "ọbasan jọ",
      "A S",
      "l d",
      "ji ji",
      "na ta",
      "e se",
      "gu n",
      "bụ zị",
      "i nweta",
      "na-akụ zi",
      "mgb ere",
      "Nw a",
      "T e",
      "G e",
      "chị rị",
      "we ne",
      "ji de",
      "s pe",
      "be ghi",
      "G a",
      "any i",
      "a pụ",
      "na-a cha",
      "arị rị",
      "onye ozi",
      "mer ụ",
      "kwa zie",
      "ị ghọta",
      "na-akụ ziri",
      "na-arị ọ",
      "wene zde",
      "q u",
      "ọ kọ",
      "n chị",
      "ị kụ",
      "na-e de",
      "obi bi",
      "Gh ana",
      "st ra",
      "na-a sụ",
      "n gwụ",
      "e bido",
      "ị chụ",
      "Ibra hi",
      "u p",
      "F A",
      "1 6",
      "s ti",
      "ga-e bu",
      "ọọ la",
      "bo ro",
      "igbo  .",
      "ọ kpọ",
      "I fe",
      "ọka ra",
      "pa se",
      "ọj ị",
      "a ṅụ",
      "osi miri",
      "ahị hịa",
      "ọ k",
      "I s",
      "a gw",
      "sị ga",
      "aka rị",
      "i so",
      "ge n",
      "ezi e",
      "i nyere",
      "m kpọ",
      "o mi",
      "mbụ  .",
      "anwụ rụ",
      "F al",
      "na-a kọwa",
      "ọkacha sị",
      "Nwo su",
      "akụrụ ngwa",
      "ma s",
      "ga ara",
      "na-a kwa",
      "i bi",
      "ndị  \"",
      "ga-a chị",
      "O lu",
      "se na",
      "m gbọ",
      "ar ụrụ",
      "ebu m",
      "na tional",
      "Na tional",
      "mọ nde",
      "T i",
      "U S",
      "W a",
      "4  .",
      "ri ri",
      "bi a",
      "b we",
      "la ni",
      "na-e bo",
      "akwụ sị",
      "na-e to",
      "na-e nyo",
      "ga-a bara",
      "kpe biri",
      "n rụrụ",
      "nkwe kọrịta",
      "Zi mba",
      "Ihedio ha",
      "Ibrahi m",
      "Zimba bwe",
      "A h",
      "b y",
      "ar e",
      "me ere",
      "P la",
      "kụ zi",
      "ra l",
      "ka ra",
      "p ịa",
      "kwuo  ,",
      "na-a jụ",
      "ọkụ  .",
      "e jiri",
      "anambra  ,",
      "gba nwee",
      "Ma du",
      "Pre mi",
      "El- Zakzaky",
      "sena tọ",
      "O N",
      "te la",
      "u bi",
      "mụ ọ",
      "n go",
      "ị cha",
      "nwe tere",
      "ọka fọ",
      "ụfọdụ  ,",
      "asa tara",
      "ọnwụ  .",
      "ọ zụ",
      "ị nya",
      "izu ụka",
      "Na i",
      "Leagu e",
      "ope kata",
      "3 0",
      "na-e ti",
      "u te",
      "u le",
      "E mma",
      "ga-e we",
      "egwu  .",
      "agba ala",
      "ọchịchị  .",
      "ekwe ghị",
      "ga-a kwụsị",
      "na-ele kọta",
      "ma achị",
      "H arc",
      "  \"  ọ \"",
      "P ort",
      "Inter national",
      "Harc ourt",
      "l l",
      "1 2",
      "er o",
      "tu o",
      "na-e ke",
      "A le",
      "bi sh",
      "sị a",
      "ị mụ",
      "ma kwụ",
      "de e",
      "“  onye",
      "mi ta",
      "to ba",
      "ị zụ",
      "Co mm",
      "tọ zde",
      "ọk toba",
      "kwa  ,",
      "otu  ,",
      "otu  .",
      "mere  ,",
      "kwa nụ",
      "ga-a chọ",
      "ta a ,",
      "Jo na",
      "ụ gha",
      "ori akụ",
      "Premi er",
      "makwụ kwọ",
      "n ba",
      "a kọ",
      "lọ ta",
      "kụ rụ",
      "kwe ere",
      "f uru",
      "ụnya ahụ",
      "ekwe sịghị",
      "Fal con",
      "1  .",
      "G er",
      "me d",
      "bi ga",
      "B ra",
      "rị ọrọ",
      "afọ  .",
      "n di",
      "ya .  ”",
      "ụ bụrụ",
      "ụmụ nwoke",
      "jụ ọ",
      "ome be",
      "ise  .",
      "nche ta",
      "achị cha",
      "M baka",
      "n turu",
      "ọzụ zụ",
      "Osi nba",
      "Osinba jo",
      "S t",
      "ụ ma",
      "na  ,",
      "A ba",
      "na-a kọ",
      "ihe  \"",
      "B ro",
      "atọ  ,",
      "a gwụ",
      "na-e nyocha",
      "arc el",
      "c tor",
      "Ale x",
      "O nye",
      "m be",
      "c an",
      " ,  \"",
      "e mere",
      "gh ọọ",
      "bụ   \" ",
      "o re",
      "e mi",
      "201 6",
      "mkpa mkpa",
      "mpi on",
      "n su",
      "a kpara",
      "họ pụtara",
      "Fa ce",
      "Wil li",
      "Da vid",
      "A ir",
      "Joh n",
      "Eme ka",
      "ịny ịnya",
      "ny ụ",
      "M A",
      "ar y",
      "ni a",
      "u gbo",
      "obodo  .",
      "W or",
      "mo zu",
      "mgba nwe",
      "ọgwụ gwụ",
      "C amer",
      "ntọ rị",
      "mgbasa ozi",
      "a wụ",
      "nne wi",
      "agb idi",
      "Jona tha",
      "Willi am",
      "akwa mozu",
      "H a",
      "A i",
      "ar ọ",
      "sị kwa",
      "ro m",
      "s  :",
      "da y",
      "C on",
      "ego  .",
      "ari be",
      "ah u",
      "e were",
      "B or",
      "ọbụla  .",
      "ide mmiri",
      "D SS",
      "iku ku",
      "Y o",
      "ch o",
      "A na",
      "ma a",
      "la  .",
      "si a",
      "ị ta",
      "aka ebe",
      "kwe ta",
      "m mi",
      "kwụ sịrị",
      "ji dere",
      "al th",
      "S am",
      "na-a naghị",
      "Ab du",
      "sụ gharịrị",
      "ber t",
      "pi ta",
      "Fu lani",
      "Sh e",
      "M ba",
      "o  \"",
      "isi  ,",
      "A di",
      "b re",
      "n zụ",
      "na- arịa",
      "Ri va",
      "Fe der",
      "ju laị",
      "kan sa",
      "E uro",
      "Nai ja",
      "Cha mpion",
      "Ab aribe",
      "j ere",
      "l la",
      "rị rị",
      "mma sị",
      "p an",
      "tọ ọrọ",
      "e nwere",
      "sa y",
      "ime  .",
      "tụ nyere",
      "na-eme kwa",
      "“  ndị",
      "to ro",
      "D el",
      "T imo",
      "ve s",
      "kọmi ti",
      "ga-e zute",
      "nchị kọta",
      "ngwụ cha",
      "I v",
      "H e",
      "U t",
      "ndị  ,",
      "p ara",
      "p te",
      "an u",
      "na  \"",
      "ga-e so",
      "che tara",
      "na-a nụ",
      "kwe si",
      "pụta  .",
      "2  )",
      "ho o",
      "mee kwa",
      "nsogbu  .",
      "na-aga ghị",
      "na-e nweta",
      "E ng",
      "ke lere",
      "Falcon s",
      "er s",
      "t ti",
      "nke  \"",
      "zọ rọ",
      "n do",
      "me cha",
      "I gbo",
      "okwu  ,",
      "kwe nyere",
      "mbụ  ,",
      "U mu",
      "eji je",
      "B en",
      "nwụ chiri",
      "ụnya ahụ .",
      "B arcel",
      "Jonatha n",
      "Barcel ona",
      "dị  .",
      "3  ,",
      "n tu",
      "g ra",
      "na-a nwụ",
      "ị nọ",
      "mp u",
      "“  ihe",
      "ri tere",
      "ukwu  .",
      "mee  .",
      "anwụ  .",
      "mgba kọ",
      "ghọ tara",
      "e meri",
      "te au",
      "D onal",
      "D ani",
      "ode akwụkwọ",
      "We st",
      "Nor th",
      "nzụ kọ",
      "Pla teau",
      "Donal d",
      "o k",
      "gb ụ",
      "na-e be",
      "na-e zi",
      "bụ zi",
      "i nọ",
      "on do",
      "o on",
      "ga-a bịa",
      "nwaanyị  .",
      "mm er",
      "ọbụla dị",
      "ọgwụ gwọ",
      "taa  :",
      "ọjọọ  .",
      "Ba y",
      "Fran ce",
      "ji kọtara",
      "Uma hi",
      "Wor ld",
      "say en",
      "Camer oon",
      "2  .",
      "n kụ",
      "i li",
      "ga- eri",
      "“  m",
      "“  n'",
      "m bodo",
      "ebi  .",
      "za a",
      "echi chi",
      "Li b",
      "T he",
      "na-ebu te",
      "eh ihi",
      "Ro bert",
      "Del ta",
      "Ut d",
      "se pte",
      "asa mbodo",
      "I M",
      "c u",
      "Sh i",
      "- O",
      "2 5",
      "- ndị",
      "la a",
      "tu s",
      "aka tọ",
      "akwụkwọ  ,",
      "a ku",
      "ọnụ  ,",
      "ka ma ,",
      "1 00",
      "na-a bụghị",
      "kraịst  ,",
      "eh u",
      "opekata mpe",
      "Ai sha",
      "Riva s",
      "L ondo",
      "U K",
      "o ma",
      "ị kwa",
      "c ra",
      "da a",
      "zọ pụta",
      "mi n",
      "t hi",
      "m bido",
      "na-e yi",
      "ssi on",
      "abụrụ la",
      "ogbe nye",
      "ower ri",
      "ịcha fụ",
      "agụ makwụkwọ",
      "sayen sị",
      "H u",
      "T u",
      "ma ghị",
      "ti ri",
      "I bi",
      "li a",
      "E bo",
      "re e",
      "j ama",
      "nso n",
      "ga-ama lite",
      "amerịka  .",
      "adị gboro",
      "nku me",
      "u hie",
      "ị mụta",
      "t ten",
      "Chris ti",
      "to yin",
      "gachara  ,",
      "inọ k",
      "jama nị",
      "toyin bo",
      "h u",
      "l ara",
      "ụ ta",
      "tu m",
      "O ba",
      "gba ara",
      "le y",
      "d ike",
      "h ọrọ",
      "l ịa",
      "agba nye",
      "a gbara",
      "mkpa  .",
      "2019  :",
      "Nig er",
      "afrịka  .",
      "Re al",
      "A FC",
      "__ __",
      "m gbochi",
      "Dani el",
      "To tten",
      "2 8",
      "- A",
      "p p",
      "i na",
      "6  ,",
      "me s",
      "te  ,",
      "a  \"",
      "A ra",
      "gh ọrọ",
      "s ọọ",
      "iche -",
      "so nyere",
      "ị da",
      "oge  ,",
      "agh ụ",
      "bi ko",
      "n du",
      "z ụrụ",
      "nu el",
      "jizọs  ,",
      "ga- arụ",
      "ọbụ ghị",
      "2019  ,",
      "na-a ṅụ",
      "n ghọta",
      "ịhụ na",
      "Oko ro",
      "De mo",
      "ọnụ ọgụgụ",
      "nturu ugo",
      "Face bo",
      "Co mmi",
      "Sh ehu",
      "Fa toyinbo",
      "AFC ON",
      "aghụ ghọ",
      "L u",
      "v s",
      "g ri",
      "ji kwa",
      "chi te",
      "zọ ọ",
      "k ra",
      "wa nye",
      "ga-a sị",
      "“  a",
      "egwu  ,",
      "j a ,",
      "ụmụ nna",
      "nwe ela",
      "azụ ma",
      "fu o",
      "ụdị rị",
      "osi ka",
      "ekpere  ,",
      "Re v",
      "na-ama sị",
      "arị rịọ",
      " .  \"  ọ \"",
      "me gidere",
      "Timo ti",
      "e p",
      "A C",
      "S i",
      "ga l",
      "si na",
      "ị kọ",
      "D an",
      "i chi",
      "ndị da",
      "4  )",
      "ama di",
      "mme kọ",
      "ị chọ",
      "agh a ,",
      "(  n",
      "n jiri",
      "ahịa  .",
      "gbo chie",
      "nwa ada",
      "na-e cheta",
      "Nigeri an",
      "na-ama ghị",
      "m wute",
      "njiri mara",
      "o ti",
      "do zi",
      "eti nye",
      "mba  ,",
      "nọ  .",
      "ko la",
      "ama  .",
      "pu ru",
      "ụbọchị  ,",
      "mma lite",
      "mu el",
      "nri  ,",
      "eji ghị",
      "a tion",
      "kọwa a",
      "Pe op",
      "akụ n'",
      "le ment",
      "eti nyela",
      "ọla edo",
      "E bre",
      "Totten ham",
      "Sa muel",
      "akụn' ụba",
      "A N",
      "bụ  .",
      "O la",
      "S te",
      "i zi",
      "o do",
      "n kwụ",
      "okwu te",
      "ga kwara",
      "az a",
      "jehov a ,",
      "ọkụ  ,",
      "jizọs  .",
      "gba gburu",
      "al o",
      "A gu",
      "ise  ,",
      "kwado ro",
      "ọhụrụ  .",
      "ga-e nweta",
      "gha chiri",
      "tọ hapụ",
      "nọ ve",
      "ọna tara",
      "kwu putara",
      "Ele ction",
      "nrụrụ aka",
      "bish ọ",
      "Ah med",
      "ekwe nsu",
      "Champion s",
      "Ja pan",
      "Emma nuel",
      "J e",
      "i s",
      "C e",
      "3  .",
      "z  .",
      "o se",
      "ahụ  ?",
      "na-e wu",
      "ụzọ  ,",
      "i gosi",
      "ana bata",
      "ọdị mma",
      "ka tọrọ",
      "onye àmà",
      "onyeisi oche",
      "Oko n",
      "kpọku o",
      "re ss",
      "juu n",
      "Oke zie",
      "amalite la",
      "Ife anyi",
      "Bro ther",
      "Afri can",
      "agbanye ghi",
      "ọnatara chi",
      "bishọ p",
      "ka na",
      "ma r",
      "P ar",
      "g ere",
      "A bi",
      "ụlọ  ,",
      "s sa",
      "a zu",
      "mme gbu",
      "kwu pụtara",
      "ụzọ  .",
      "Jo e",
      "chụ pụ",
      "ụtọ  ,",
      "no a",
      "me chaa",
      "c ia",
      "Ada mu",
      "u m",
      "- E",
      "f f",
      "5  .",
      "ị ara",
      "ih ere",
      "ọ ga",
      "ti n",
      "p ti",
      "w ala",
      "rị cha",
      "na-e mere",
      "afọ  ,",
      "e je",
      "na-eme pụta",
      "“  chineke",
      "nye kwara",
      "ị gwa",
      "eme ghị",
      "ma sịrị",
      "A nd",
      " . ”  ,",
      "ekwe si",
      "nri te",
      "eji de",
      "ki lo",
      "K ano",
      "dị ịrị",
      "spe n",
      "agw ala",
      "Euro pe",
      "ep rel",
      "e e",
      "g y",
      "A s",
      "C O",
      "ga na",
      "P ri",
      "o te",
      "zi l",
      "w an",
      "ga- aka",
      "kụ ọ",
      "do o",
      "A li",
      "M ike",
      "n cha",
      "O gbo",
      "kwe sị",
      "n' obi",
      "se le",
      "kpe e",
      "I kpe",
      "da ị",
      "ya .   \" ",
      "ama ra",
      "mi li",
      "i du",
      "T ho",
      "ọ gara",
      "lụ ọ",
      "ihu  .",
      "jọ n",
      "e ju",
      "hi bere",
      "W ol",
      "azị za",
      "Sh ia",
      "ko ria",
      " . ..",
      "aghọ ta",
      "William s",
      "Eng land",
      "ehihi e",
      "Facebo ok",
      "ba pti",
      "ọma rịcha",
      "bapti zi",
      "n kw",
      "1 1",
      "I d",
      "m y",
      "2 4",
      "s ere",
      "na-a ba",
      "li n",
      "ga-e kwu",
      "me kwara",
      "mme chi",
      "t ho",
      "B el",
      "B aba",
      "na-agba lị",
      "Jo b",
      "ugwu  .",
      "rọ shịa",
      "Ri ver",
      "Obi ano",
      "p ort",
      "na batara",
      "n nọchite",
      "ọkpọ ka",
      "Bor no",
      "ọ gbụ",
      "Demo cra",
      "para daị",
      "ọgbụ gba",
      "5 0",
      "ba a",
      "le ta",
      "ka  \"",
      "ne l",
      "m gbu",
      "li an",
      "kọ ọrọ",
      "u de",
      "mma nwụ",
      "ama dị",
      "anọ  .",
      "eme mme",
      "ndụ  ,",
      "ndị ozi",
      "ukwu  ,",
      "ị jụ",
      "asa ala",
      "e gburu",
      "ju pụtara",
      "j eru",
      "me biri",
      "f ran",
      "bọ je",
      "alụ kwaghị",
      "Y emi",
      "o t",
      "D o",
      "2 9",
      "7  ,",
      "c ar",
      "S ere",
      "ar ba",
      "i ti",
      "ka sị",
      "S ala",
      "i gbe",
      "ọ wa",
      "u ni",
      "na-e gwu",
      "bụ  :",
      "ya  :",
      "kwe tara",
      "kpọ pụta",
      "obodo  ,",
      "to m",
      "ọ gbara",
      "ụka  .",
      "me chiri",
      "ogo go",
      "na-a mụta",
      "C ong",
      "na-a nọchite",
      "  \"  n' \"",
      "Commi ssion",
      "C lement",
      "Ikpe azu",
      "Id ris",
      "jeru sele",
      "Sere na",
      "Cong ress",
      "S y",
      "p ere",
      "ba  ,",
      "gba pụ",
      "an g",
      "a cha",
      "abụ bụ",
      "na-e se",
      "b eri",
      "u du",
      "eme e",
      "nso  .",
      "O nwu",
      "na-ekwu  .",
      "ị dọ",
      "gba lị",
      "w in",
      "ị kwado",
      "G od",
      "Ser a",
      "Vi ctor",
      "Igbo kwe",
      "kọ mpu",
      "Bra zil",
      "ebum n'obi",
      "E m",
      "A R",
      "ị na",
      "w  .",
      "any ụ",
      "tụ ọ",
      "gba la",
      "b le",
      "chi  ,",
      "che e",
      "ụlọ  .",
      "so la",
      "nọ  ,",
      "ha  ?",
      "me pụta",
      "du n",
      "fe bụ",
      "eme  .",
      "ọchịchị  ,",
      "asa a .",
      "v el",
      "n ce",
      "i ce",
      "zị kwa",
      "ebu be",
      "B ig",
      "Chi bo",
      "il l",
      "19 8",
      "na-agba nyeghị",
      "me zuru",
      "la ghachi",
      "In dia",
      "de ine",
      "Ke nya",
      "Nna mdi",
      "abu ja .",
      "sọọ sọ",
      "ịhụna nya",
      "Okon kwo",
      "kilo mita",
      "febụ warị",
      "gh t",
      "U N",
      "h  ,",
      "si  ,",
      "n kwu",
      "ị nwụ",
      "na-e zu",
      "kpa ta",
      "3  )",
      "anọ ghị",
      "“  o",
      "ọ bụrụ",
      "ke pu",
      "i mi",
      "201 4",
      "C or",
      "el l",
      "na-ekwu sa",
      "azụ  .",
      "nri  .",
      "mgba ghara",
      "a wakpo",
      "tụ beghị",
      "ki ti",
      "Co s",
      "ọdịnihu  .",
      "ga-akpọ lite",
      "Re hab",
      "  \"  anyị \"",
      "pase ntị",
      "  \"  , \"",
      "Ibi am",
      "Joh nson",
      "adịgboro ja",
      "Okoro cha",
      "mb ịara",
      "G arba",
      "N L",
      "F F",
      "6  .",
      "ga zi",
      "na-a sị",
      "we tara",
      "rị tara",
      "U gwu",
      "ezi  .",
      "kpa a",
      "oke  .",
      "na-e je",
      "ama ala",
      "ntị  .",
      "ru tere",
      "kwa sịrị",
      "ga-e bido",
      "gha chị",
      "o kiri",
      "p raị",
      "ịgba nwe",
      "19 6",
      "ekpere  .",
      "Da vi",
      "- anyanwụ",
      "Al la",
      "a kpọọ",
      "for d",
      "n hazi",
      "20 23",
      "gen cy",
      "Adi chie",
      "iche- iche",
      "osika pa",
      "K u",
      "Ch ar",
      "b ru",
      "kwa ara",
      "kọ b",
      "de n",
      "gba tara",
      "kpe bi",
      "5  )",
      "na-eme  ,",
      "ama m",
      "igbo  ?",
      "bịa  .",
      "de pụtara",
      "eme pụta",
      "nso nso",
      "ga-eme cha",
      "O mo",
      "anwụ ọ",
      "ọjọọ  ,",
      "v en",
      "ga-e tinye",
      "na-eche gbu",
      "kraịst  .",
      "na-akpa ta",
      "Oko ye",
      "ci al",
      "nle ta",
      "bị aru",
      "Jose ph",
      "b lic",
      "gba lịa",
      "Bu kola",
      "nọve mba",
      "je kọb",
      "O j",
      "A n",
      "D C",
      "9  .",
      "na  .",
      "M er",
      "8  ,",
      "9  ,",
      "ji  ,",
      "ga sị",
      "ọ sị",
      "an e",
      "U che",
      "cha ala",
      "o gbo",
      "mere nụ",
      "m bo",
      "i lu",
      "g re",
      "a ko",
      "gwa kwara",
      "na-a gbara",
      "ọbụla  ,",
      "ekwe sị",
      "ta in",
      "chụ ọ",
      "O su",
      "A ng",
      "19 7",
      "ị hapụ",
      "Uni on",
      "Al l",
      "In no",
      "nwa agbọghọ",
      "ị laị",
      "Ude mba",
      "ese m",
      "U kra",
      "Ebre ham",
      "Ce nt",
      "kọmpu ta",
      "NL C",
      "Ukra ine",
      "o g",
      "2 6",
      "o  .",
      "0  .",
      "n rụ",
      "ba  .",
      "te ghị",
      "ala kụ",
      "so kwa",
      "i kwe",
      "di se",
      "gị  ?",
      "7  )",
      "na-eme gbu",
      "anọ  ,",
      "kpọ m",
      "eme bi",
      "ụka  ,",
      "na-a chụ",
      "ga- eru",
      "vi ce",
      "ọsọ  .",
      "Na tion",
      "kpọku ru",
      "wo od",
      "ci s",
      "ol ly",
      "Bi o",
      "agbata obi",
      "ga fee",
      "na-e wute",
      "f ero",
      "Londo n",
      "Wol ves",
      "Alla h",
      "olly wood",
      "a kp",
      "c t",
      "d y",
      "U me",
      "ahụ ghị",
      "B an",
      "ga-e gbu",
      "nwere  .",
      "ko ro",
      "bụla  .",
      "bụla  ,",
      "20 20",
      "mb ara",
      "ozi  .",
      "elu  .",
      "z or",
      "mmiri  .",
      "ekwe la",
      "a ce",
      "ọka ibe",
      "ma chiri",
      "Da y",
      "ibu te",
      "gụnyere  :",
      "ahụhụ  .",
      "na-efe gharị",
      "f fi",
      "gbasa ara",
      "e hab",
      "me zuo",
      "apụta ghị",
      "Madu ka",
      "  \"  nke \"",
      "mmer ụ",
      "septe mba",
      "akatọ ọla",
      "Par ty",
      "ọgara nya",
      "hi bru",
      "a ị",
      "nw o",
      "h r",
      "A w",
      "E d",
      "I S",
      "0  ,",
      "ị me",
      "t ta",
      "si kwa",
      "S an",
      "che be",
      "j ọrọ",
      "bi nyere",
      "B re",
      "mme pụta",
      "ego  ,",
      "kp uru",
      "wu tere",
      "aha pụ",
      "ga-eme  .",
      "chọrọ  .",
      "ọnwụ  ,",
      "ebu ru",
      "n chụ",
      "ngwa ahịa",
      "n no",
      "Z am",
      "Da p",
      "bekee  .",
      "ọcha  ,",
      "ọcha  .",
      "A kanu",
      "k ris",
      "lọ ghachi",
      "ikpeazụ  ,",
      "Se ne",
      "Mi ni",
      "metụ ta",
      "Fe mi",
      "Gu ine",
      "ejiri la",
      "ọga nihu",
      "Democra tic",
      "okiri kiri",
      "Ro hr",
      "Sene gal",
      "Z A",
      "I V",
      "l  .",
      "bụ bụ",
      "n si",
      "ji  .",
      "le n",
      "kwụ nye",
      "T ra",
      "C ro",
      "bu te",
      "nwere  ,",
      "ị nụ",
      "abụ  ,",
      "anyị  ?",
      "O nu",
      "we pụta",
      "na-e du",
      "ch ụrụ",
      "ọka  ,",
      "eze  ,",
      "mer u",
      "cha el",
      "me jọ",
      "a dọ",
      "ụlọ ahịa",
      "zụ ọ",
      "gba wara",
      "R ibe",
      "eru ola",
      "U zo",
      "e cheta",
      "izu gbe",
      "okpuru ọchịchị",
      "-  3",
      "ti gbuo",
      "Uni ver",
      "legọs  .",
      "sh op",
      "Uma r",
      "C up",
      "Comm onwe",
      "akpara la",
      "K anu",
      "nkw arị",
      "Chibo k",
      "Davi do",
      "CO ZA",
      "Commonwe alth",
      "n z",
      "ọ t",
      "F o",
      "f ara",
      "E ji",
      "nke a",
      "ba n",
      "ghị  .",
      "we ta",
      "la wa",
      "di na",
      "A ku",
      "eri a",
      "ny a .",
      "mi di",
      "C ana",
      "zi tere",
      "p ho",
      "st le",
      "M or",
      "te ela",
      "di mkpa",
      "ntụ nye",
      "O gu",
      "bọọlụ  .",
      "do zie",
      "ga-e gosi",
      "amerịka  ,",
      "kọwa ara",
      "udo  .",
      " !  ”",
      "ur ch",
      "ga fere",
      "T im",
      "na-a kwanyere",
      "AS U",
      "Port  ",
      "na-aga biga",
      "cho ol",
      "kwesi li",
      "ide mili",
      "akpọọ la",
      "amam ihe",
      "Fran cis",
      "Ribe ka",
      "N ọt",
      "Port  Harcourt",
      "n ch",
      "2 1",
      "ha a",
      "zi te",
      "che kwa",
      "onye nwe",
      "na li",
      "de l",
      "A ni",
      "“  mgbe",
      "na-a sọ",
      "ọ bịa",
      "n ze",
      "ṅ ụrụ",
      "elu  ,",
      "n sụ",
      "N gi",
      "ntụliaka  .",
      "na-e fu",
      "C ou",
      "Ma y",
      "C ol",
      "nwe beghị",
      "ji kọrọ",
      "no t",
      "ị chọpụta",
      "Ea st",
      "njọ  .",
      "Mi ye",
      "kwa zịrị",
      " .  \"  anyị \"",
      "pase nt",
      "aṅụ rị",
      "  \"  ndị \"",
      "  \"  ihe \"",
      "E thi",
      "Christi an",
      "gri k",
      "Le ice",
      "esem okwu",
      "Eze kwesili",
      "Ngi ge",
      "Miye tti",
      "Leice ster",
      "C y",
      "t t",
      "P u",
      "ka  ,",
      "k la",
      "ị nye",
      "te k",
      "ke le",
      "n sị",
      "na-a pụ",
      "d ọrọ",
      "ke wa",
      "gba wa",
      "F re",
      "oge  .",
      "arị ọ",
      "pu te",
      "mi c",
      "pụtara  .",
      "ozi gbo",
      "(  N",
      "I mo",
      "dere  ,",
      "ebi  ,",
      "kwu buru",
      "chị buru",
      "ngwa agha",
      "zọ gbuo",
      "I ran",
      "mkpọrọ  .",
      "eluigwe  ,",
      "asa taghị",
      "kpe bie",
      "Nwo do",
      "nwụọ  .",
      "kpo chapụ",
      "gwo ju",
      "nwata kịrị",
      "ṅ omi",
      "kụzi iri",
      "gbalị rị",
      "Oj ukwu",
      "Mer cy",
      "ụ gh",
      "o m",
      "e f",
      "I D",
      "E n",
      "A F",
      "n c",
      "V a",
      "sh u",
      "7  .",
      "H er",
      "ahụ la",
      "ri te",
      "i gba",
      "le ke",
      "go la",
      "ọ fọ",
      "G ra",
      "ma tara",
      "ni n",
      "a kwọ",
      "A nt",
      "abụ  )",
      "o wu",
      "hi a",
      "aga fe",
      "na hụrụ",
      "kpa chara",
      "kpa mkpa",
      "anụ rị",
      "na-a dọ",
      "ga-ama ta",
      "ga nị",
      "ahịa  ,",
      "zụ ta",
      "nụ zụ",
      "na-e kiri",
      "i kiri",
      "ko lo",
      "ọhụrụ  ,",
      "ol y",
      "nwụrụ  ,",
      "ugwu  ,",
      "n kọwa",
      "nsọ  .",
      "ga-a mụta",
      "In di",
      "ọtọ  .",
      "akpụ kpọ",
      "K ing",
      "nle kọta",
      "2017  .",
      "i sonye",
      "nje debe",
      "ọṅụ ṅụ",
      "merụ ọ",
      "  \"  na \"",
      "IM N",
      "Shi ite",
      "i beri",
      "S AR",
      "alakụ ba",
      "Ser vice",
      "Dap chi",
      "H IV",
      "Bi shop",
      "Ethi op",
      "tek nụzụ",
      "SAR S",
      "O s",
      "u  ,",
      "5  ,",
      "g ar",
      "gh ere",
      "I ta",
      "- onye",
      "ọ tụ",
      "zi k",
      "Nw an",
      "e  \"",
      "ọrọ la",
      "n nwere",
      "iche kwa",
      "m on",
      "uru  ,",
      "ga sịrị",
      "ga-a lụ",
      "Bu r",
      "m  . ”",
      "ihu  ,",
      "ga-eme zu",
      "kpụ pụ",
      "pe e",
      "gu nyere",
      "eziokwu  ?",
      "da bara",
      "zo ro",
      "il la",
      "gba kọrọ",
      "e soro",
      "ụ fụ",
      "K ogi",
      "na-abịa  .",
      "ochie  .",
      "asị  .",
      "eluigwe  .",
      "nọchi tere",
      "ume ala",
      "ebo ro",
      "bi bie",
      "Fran k",
      "ngw on",
      "Or ji",
      "Ike chukwu",
      "Nwa chukwu",
      " .  \"  ndị \"",
      "Ben ja",
      "Ja mes",
      "And re",
      "Mike l",
      "ma gazi",
      "A gency",
      "pu blic",
      "gre ssi",
      "Bri tain",
      "dise mba",
      "Bio dun",
      "Ch urch",
      "ASU U",
      "Da kolo",
      "ngwon gwo",
      "A d",
      "2 2",
      "S C",
      "B ar",
      "p ar",
      "r ere",
      "ya t",
      "ma hụ",
      "chị kọ",
      "m ne",
      "si iri",
      "si de",
      "p ro",
      "ga-e mere",
      "'  ?",
      "na pụta",
      "de pụta",
      "na-a pụta",
      "f re",
      "ị bịa",
      "ụ kwara",
      "da pụtara",
      "eme nt",
      "ahụ .  ”",
      "kwuo  .",
      "obi ọma",
      "eze  .",
      "hi were",
      "ọnwụ nwa",
      "taa ta",
      "enugwu  .",
      "nọ chiri",
      "kpọ litere",
      "Nigeri a ,",
      "a kọwa",
      "a tọrọ",
      "i fo",
      "nji kọ",
      "K im",
      "nkwe nye",
      "ọfụma  .",
      "ga-ebi bi",
      "gra m",
      "Peop le",
      "kana da",
      "  \"  ka \"",
      "kọ rịtara",
      "ọwụwa -anyanwụ",
      "Pe ace",
      "Mi chael",
      "pe nali",
      "Ger not",
      "magazi n",
      "gola yat",
      "penali ti",
      "E x",
      "4  ,",
      "tụ la",
      "onye  \"",
      "a nwa",
      "E li",
      "ga-a zọ",
      "lu  ,",
      "di  ,",
      "chineke  ?",
      "oke  ,",
      "mp ịa",
      "“  ka",
      "nwaanyị  ,",
      "N du",
      "chọ tara",
      "cha a ,",
      "st ri",
      "i ju",
      "zị kwara",
      "gọ zie",
      "enugwu -",
      "ụlọikpe  .",
      "gaa sị",
      "5 00",
      "nwụrụ  .",
      "ga-a za",
      "nsọ  ,",
      "am ị",
      "ta nka",
      "e fere",
      "Se con",
      "op ment",
      "2018  .",
      "be lata",
      "a ja .",
      "So yin",
      "fraịde  .",
      "jiji ji",
      "Ge or",
      "K ore",
      "Abdu l",
      "emeri ela",
      "so cia",
      "Univer si",
      "Zam fara",
      "Pro gressi",
      "vel opment",
      "As socia",
      "Associa tion",
      "e kp",
      "N i",
      "F I",
      "g er",
      "p ha",
      "h ere",
      "la n",
      "si me",
      "N ji",
      "ahụ rụ",
      "tụ ta",
      "ị sị",
      "n kọ",
      "T an",
      "mma chi",
      "nwe te",
      "ne si",
      "M ala",
      "ya nwa",
      "O gbu",
      "iri  .",
      "wa y",
      "lọ tọ",
      "mere la",
      "gw ọọ",
      "gwu ru",
      "ime  ,",
      "o kwe",
      "ọ kpa",
      "9  )",
      "O du",
      "to o",
      "c to",
      "bu uru",
      "ho le",
      "ri st",
      "ari a",
      "mana  \"",
      "zi gara",
      "(  A",
      "nna ya",
      "el d",
      "el sa",
      "mkpa gbu",
      "mmiri  ,",
      "iwe  .",
      "in o",
      "gha pụ",
      "me chie",
      "Mu sa",
      "ada ala",
      "i nyocha",
      "isii  ,",
      "enwe ela",
      "na-eme gide",
      "atọ hapụ",
      "ti ve",
      "ọkpụ kpụ",
      "alụ mdi",
      "kp arịta",
      "na-ewe ta",
      "ede me",
      "gbata gbata",
      "na-a hazi",
      "Leagu e .",
      "nta kịrị",
      "ịkụ ziri",
      "ro up",
      "Olu se",
      "Ana je",
      "M z .",
      "Ca tho",
      "Ban k",
      "ca stle",
      "Ethiop ia",
      "De velopment",
      "ọkọ lọtọ",
      "Bay elsa",
      "Catho lic",
      "P i",
      "S p",
      "- N",
      "Y u",
      "H ar",
      "C ar",
      "ndị a",
      "ru s",
      "kwu kwa",
      "dụ ọ",
      "Ch an",
      "we la",
      "bu o",
      "kwuru  :",
      "ime ụlọ",
      "nọ kwa",
      "je e",
      "je nụ",
      "ku zi",
      "ga-a gwa",
      "me pụtara",
      "iwu  .",
      "ikpe  .",
      "eme ka",
      "mb er",
      "kwu tere",
      "ozi  ,",
      "i were",
      "ra el",
      "jọ gburu",
      "A ja",
      "iwe pụ",
      "gu ri",
      "ce nt",
      "ụ zụ",
      "anambra  .",
      "ruo la",
      "nwụ chie",
      "ha zie",
      "rụ tụrụ",
      "akpa ta",
      "eche fu",
      "Ka lu",
      "sụ gharịa",
      "nwụọ  ,",
      "ozugbo  .",
      "ntụ kwasị",
      "ite ghe",
      "ọ pị",
      "Go od",
      "guzo be",
      "Su dan",
      "ebido la",
      "ad ọọla",
      "Alex and",
      "Yo ru",
      "She ka",
      "  \"  o \"",
      "Lib ya",
      "Tho mas",
      "paradaị s .",
      "jerusele m",
      "Bu sola",
      "Char les",
      "kpọm kwe",
      "Nation s",
      "Cana da",
      "edeme de",
      "Oluse gun",
      "jenụ warị",
      "Is rael",
      "P C",
      "T V",
      "er n",
      "ga s",
      "ọ si",
      "ri n",
      "u kwa",
      "v an",
      "W ike",
      "m  :",
      "nụ  .",
      "n nụ",
      "e ge",
      "A re",
      "6  )",
      "’  )",
      "na-eme bi",
      "chọ ta",
      "ga fe",
      "gọ zi",
      "ụbọchị  .",
      "P ari",
      "ị sụ",
      "mkpa  :",
      "eme pe",
      "adị rị",
      "zị ghị",
      "zụ ga",
      "nwee kwa",
      "akwa  .",
      "kụ ziri",
      "sta n",
      "ra tion",
      "Ro nal",
      "ṅụ ọ",
      "isii  .",
      "ọgụ  .",
      "achọ pụta",
      "na-a ghọta",
      "ochie  ,",
      "ah ịrị",
      "es si",
      "siri ak",
      "Nna bu",
      "tiusde  .",
      "2015  .",
      "mbu ze",
      "Au stra",
      "di bia",
      "na-eke le",
      "Ger ma",
      " .  \"  o \"",
      "Air port",
      "nnọchite anya",
      "Ugwu anyi",
      "praị m",
      "shi om",
      "mpịa kọta",
      "Soyin ka",
      "New castle",
      "shiom hole",
      "ọ s",
      "n ma",
      "8  .",
      "ke  ,",
      "T ara",
      "la  ,",
      "ga d",
      "ọ pụ",
      "ha  \"",
      "-  \"",
      "l li",
      "wa  ,",
      "cha ara",
      "i mere",
      "na tara",
      "o bo",
      "ọ kwọ",
      "i nt",
      "ga-a gụ",
      "wu ru",
      "l arị",
      "bịa  ,",
      "gba kwara",
      "aga ala",
      "aga di",
      "otu to",
      "M ah",
      "fọdụ rụ",
      "ozi ọma",
      "anya  . ”",
      "F or",
      "or k",
      "li ela",
      "aba ta",
      "kọ pa",
      "arị ọla",
      "mme fu",
      "B enu",
      "o lo",
      "na-aga  ,",
      "ọ chụ",
      "“  unu",
      "enugwu  ,",
      "G en",
      "i kpere",
      "na-a za",
      "e nyocha",
      "na-eche kwa",
      "kpọ tụrụ",
      "asatọ  ,",
      "B ori",
      "S au",
      "a pụtala",
      "Ch ad",
      "echiche  .",
      "oyi bo",
      "ijipt  .",
      "t witter",
      "H aru",
      "19 14",
      "ph en",
      "ju putara",
      "ọ kpụrụ",
      "mgb idi",
      "agba gbuola",
      "apụ ghị",
      "Feder al",
      "Abdu lla",
      "Chi oma",
      "____ ____",
      "biko  ,",
      "azụma hịa",
      "E gy",
      "Ma idu",
      "River s",
      "Comm uni",
      "J ane",
      "Cent ral",
      "N ollywood",
      "S chool",
      "nwụ nahụrụ",
      "Benja min",
      "n tara",
      "Sheka u",
      "Ste phen",
      "Egy pt",
      "Maidu guri",
      "ntara mahụ",
      "ntaramahụ hụ",
      "sh o",
      "P S",
      "C B",
      "x i",
      "er a",
      "o  ,",
      " .  ,",
      "la z",
      "nye kwa",
      "le t",
      "bụ  \"",
      "che l",
      "me sa",
      "I bo",
      "ime bi",
      "ga-e kwe",
      "bu lu",
      "se kọ",
      "ezi na",
      "ụ kpa",
      "mma  ?",
      "nu che",
      " .  )",
      "l eri",
      "du ru",
      "chọ ghị",
      "nw uru",
      "nwoke  ,",
      "nwoke  .",
      "nweghị kwa",
      "onyeisiala  .",
      "ndị  ;",
      "ya  ;",
      "S al",
      "er al",
      "ọ lị",
      "azụ  ,",
      "ebi bi",
      "ar ebi",
      "ou s",
      "akwa  ,",
      "sọ nde",
      "sta l",
      "ada ba",
      "na-e zo",
      "4 00",
      "afrịka  ,",
      "A meri",
      "di ng",
      "nkwa nye",
      "ran s",
      "asatọ  .",
      "La i",
      "ama chiela",
      "ịdị na",
      "ala ghachi",
      "la ck",
      "na-eru bere",
      "eche ghị",
      "E con",
      "ohi  ,",
      "mbu li",
      "mbi lite",
      "egosi la",
      "ejide la",
      "Al lian",
      "Ny ako",
      "Inno son",
      "ịlaị ja",
      "nc il",
      "a hia",
      "Re public",
      "Universi ty",
      "G roup",
      "O shiomhole",
      "Tim gad",
      "Sau di",
      "Abdulla hi",
      "laz arọ",
      "arebi a",
      "Allian ce",
      "a t",
      "o s",
      "Q u",
      "k s",
      "I C",
      "t  .",
      "s er",
      "na hụ",
      "b rụ",
      "ti e",
      "te  .",
      "chị a",
      "ne s",
      "s ala",
      "nụ  ,",
      "na-a sa",
      "ga-a nwụ",
      "h obi",
      "bu nyere",
      "ga-a da",
      "da da",
      "kwuru  ?",
      "tu re",
      "P  )",
      "ku ru",
      "ị na-eme",
      "a .   \" ",
      "igbo chi",
      "“  e",
      "M ana",
      "agba la",
      "agba sa",
      "ny ụrụ",
      "s ụrụ",
      "st on",
      "st y",
      "mana  ,",
      "ha .  ”",
      "i kpo",
      "mee  ,",
      "asa a ,",
      "chara  ,",
      "na-a kpụ",
      "in ji",
      "adị  .",
      "na-aga  .",
      "chụ pụrụ",
      "a wara",
      "M ou",
      "Ma da",
      "e zo",
      "ị za",
      "k no",
      "ga-a hapụ",
      "ogo ogo",
      "en op",
      "In sta",
      "ị họpụta",
      "achọ pụtala",
      "izrel  .",
      "achụ ọla",
      "bụrụ godị",
      "ịtụ kwasị",
      "shi p",
      "ụmụ okorobịa",
      "na-ekwe sịghị",
      "enweta la",
      "akpara ma",
      "Mba ise",
      "Oba ma",
      "ote le",
      "nwa amadị",
      "Guine a",
      "mgba kwụnye",
      "Be nin",
      "kwe kọrịtara",
      "Geor ge",
      "T here",
      "Bay ern",
      "Ronal do",
      "ọpụ pụ",
      "  \"  - \"",
      "ọkpụrụ kpụ",
      "Me xi",
      "Econ omi",
      "Cou ncil",
      "fe brụ",
      "enop hobi",
      "Mexi co",
      "febrụ warị",
      "i d",
      "A t",
      "C N",
      "ma dị",
      "K ha",
      "U ga",
      "C ri",
      "le  ,",
      "na-e do",
      "mụ wa",
      "ro n",
      "ga ni",
      "ga-a tụ",
      "ga-a ta",
      "le ge",
      "ọzọ kwa",
      "di  .",
      "O di",
      "pụta  ,",
      "8  )",
      "ama  ,",
      "201 3",
      "na-e were",
      "ị gbara",
      "gba chara",
      "ga-eme li",
      "ga-eme kwa",
      "kpọ lite",
      "a nwu",
      "aba cha",
      "arụ sị",
      "Y ou",
      "sị :   \" ",
      "olu tion",
      "vi sa",
      "nwe dịrị",
      "G ran"
    ]
  }
}