{
  "<unk>": 0,
  "<s>": 1,
  "</s>": 2,
  "<pad>": 3,
  "<mask morph>": 4,
  " ": 5,
  "!": 6,
  "\"": 7,
  "#": 8,
  "$": 9,
  "%": 10,
  "&": 11,
  "'": 12,
  "(": 13,
  ")": 14,
  "*": 15,
  ",": 16,
  "-": 17,
  ".": 18,
  "/": 19,
  "0": 20,
  "1": 21,
  "2": 22,
  "3": 23,
  "4": 24,
  "5": 25,
  "6": 26,
  "7": 27,
  "8": 28,
  "9": 29,
  ":": 30,
  ";": 31,
  "<": 32,
  "=": 33,
  ">": 34,
  "?": 35,
  "@": 36,
  "A": 37,
  "B": 38,
  "C": 39,
  "CH": 40,
  "Ch": 41,
  "D": 42,
  "E": 43,
  "F": 44,
  "G": 45,
  "GB": 46,
  "Gb": 47,
  "Gh": 48,
  "Gw": 49,
  "H": 50,
  "I": 51,
  "J": 52,
  "K": 53,
  "KP": 54,
  "Kp": 55,
  "Kw": 56,
  "L": 57,
  "M": 58,
  "N": 59,
  "NW": 60,
  "NY": 61,
  "Nw": 62,
  "Ny": 63,
  "O": 64,
  "P": 65,
  "Q": 66,
  "R": 67,
  "S": 68,
  "SH": 69,
  "Sh": 70,
  "T": 71,
  "U": 72,
  "V": 73,
  "W": 74,
  "X": 75,
  "Y": 76,
  "Z": 77,
  "[": 78,
  "]": 79,
  "^": 80,
  "_": 81,
  "`": 82,
  "a": 83,
  "b": 84,
  "c": 85,
  "ch": 86,
  "d": 87,
  "e": 88,
  "f": 89,
  "g": 90,
  "gb": 91,
  "gh": 92,
  "gw": 93,
  "h": 94,
  "i": 95,
  "j": 96,
  "k": 97,
  "kp": 98,
  "kw": 99,
  "l": 100,
  "m": 101,
  "n": 102,
  "nw": 103,
  "ny": 104,
  "o": 105,
  "p": 106,
  "q": 107,
  "r": 108,
  "s": 109,
  "sh": 110,
  "t": 111,
  "u": 112,
  "v": 113,
  "w": 114,
  "x": 115,
  "y": 116,
  "z": 117,
  "{": 118,
  "|": 119,
  "}": 120,
  "£": 121,
  "®": 122,
  "·": 123,
  "É": 124,
  "Ö": 125,
  "×": 126,
  "à": 127,
  "á": 128,
  "ã": 129,
  "ä": 130,
  "å": 131,
  "æ": 132,
  "ç": 133,
  "è": 134,
  "é": 135,
  "ì": 136,
  "í": 137,
  "ï": 138,
  "ñ": 139,
  "ó": 140,
  "ô": 141,
  "ö": 142,
  "ø": 143,
  "ù": 144,
  "ú": 145,
  "ü": 146,
  "ć": 147,
  "č": 148,
  "ğ": 149,
  "ń": 150,
  "ş": 151,
  "š": 152,
  "ż": 153,
  "ž": 154,
  "̀": 155,
  "́": 156,
  "ׁ": 157,
  "ה": 158,
  "נ": 159,
  "פ": 160,
  "ש": 161,
  "ṅ": 162,
  "ạ": 163,
  "ẹ": 164,
  "Ị": 165,
  "ị": 166,
  "Ọ": 167,
  "ọ": 168,
  "Ụ": 169,
  "ụ": 170,
  "–": 171,
  "—": 172,
  "‘": 173,
  "’": 174,
  "“": 175,
  "”": 176,
  "•": 177,
  "₦": 178,
  "€": 179,
  "■": 180,
  "●": 181,
  "": 182,
  "na": 183,
  "dị": 184,
  "ka": 185,
  "ma": 186,
  " .": 187,
  "n'": 188,
  "bụ": 189,
  "er": 190,
  " ,": 191,
  "ar": 192,
  "ndị": 193,
  "ke": 194,
  "ha": 195,
  "na-": 196,
  "ere": 197,
  "ara": 198,
  "ya": 199,
  "me": 200,
  "ih": 201,
  "la": 202,
  "ga": 203,
  "si": 204,
  "nye": 205,
  "ji": 206,
  "hụ": 207,
  "ta": 208,
  "ihe": 209,
  "kwu": 210,
  "rụ": 211,
  "ri": 212,
  "any": 213,
  "ahụ": 214,
  "ru": 215,
  "nke": 216,
  "rị": 217,
  "tu": 218,
  "ba": 219,
  "kwa": 220,
  "onye": 221,
  "na-a": 222,
  "na-e": 223,
  "ghị": 224,
  "tụ": 225,
  "dụ": 226,
  "ti": 227,
  "ga-": 228,
  "te": 229,
  "gba": 230,
  "otu": 231,
  "le": 232,
  "be": 233,
  "bi": 234,
  "zi": 235,
  "anyị": 236,
  "sị": 237,
  "mma": 238,
  "pụ": 239,
  "kọ": 240,
  "mụ": 241,
  "an": 242,
  "chi": 243,
  "chị": 244,
  " \"": 245,
  "che": 246,
  "nwe": 247,
  "zọ": 248,
  "aka": 249,
  "lọ": 250,
  "rọ": 251,
  "kụ": 252,
  "do": 253,
  "ụlọ": 254,
  "we": 255,
  "ne": 256,
  "kwụ": 257,
  "ala": 258,
  "nwa": 259,
  "go": 260,
  "fọ": 261,
  "gbu": 262,
  "isi": 263,
  "ra": 264,
  "mmadụ": 265,
  "li": 266,
  "gbe": 267,
  "ebe": 268,
  "ike": 269,
  "ọrọ": 270,
  "iri": 271,
  "kwuru": 272,
  "wa": 273,
  "de": 274,
  "cha": 275,
  "ro": 276,
  "maka": 277,
  "bu": 278,
  "mgbe": 279,
  "tọ": 280,
  "ga-e": 281,
  "mere": 282,
  "so": 283,
  "tara": 284,
  "ni": 285,
  "gbo": 286,
  "ụmụ": 287,
  "rịa": 288,
  "ọọ": 289,
  "gwu": 290,
  "ịa": 291,
  "ọrụ": 292,
  "eti": 293,
  "nwere": 294,
  "ga-a": 295,
  " :": 296,
  "nụ": 297,
  "sa": 298,
  "ge": 299,
  "ọchị": 300,
  "anya": 301,
  "afọ": 302,
  "mba": 303,
  "bo": 304,
  "ime": 305,
  "okwu": 306,
  "nwụ": 307,
  "abụ": 308,
  "kwe": 309,
  "akụ": 310,
  "ọzọ": 311,
  "gị": 312,
  "akwụ": 313,
  "lu": 314,
  "ịji": 315,
  "naịji": 316,
  "naịjirịa": 317,
  "nọ": 318,
  "  \"": 319,
  "obi": 320,
  "kwọ": 321,
  "se": 322,
  "kpe": 323,
  "zu": 324,
  "di": 325,
  "ezi": 326,
  "ste": 327,
  "neke": 328,
  "steeti": 329,
  "chineke": 330,
  "iche": 331,
  "akwụkwọ": 332,
  "  \" ": 333,
  "kpa": 334,
  "nyere": 335,
  "da": 336,
  " ?": 337,
  "ile": 338,
  "nt": 339,
  "nu": 340,
  "dịka": 341,
  "pụta": 342,
  "oke": 343,
  "re": 344,
  "niile": 345,
  "oge": 346,
  "je": 347,
  "gụ": 348,
  "agh": 349,
  "tụtụ": 350,
  " )": 351,
  "wu": 352,
  "ku": 353,
  "ya .": 354,
  "abụọ": 355,
  "akụkọ": 356,
  "ịbụ": 357,
  "na-eme": 358,
  "arị": 359,
  "eri": 360,
  "mp": 361,
  "ko": 362,
  "a .": 363,
  "ama": 364,
  "onyeisi": 365,
  "anọ": 366,
  "igbo": 367,
  "ọtụtụ": 368,
  "“ ": 369,
  "on": 370,
  " ”": 371,
  "bụrụ": 372,
  "sọ": 373,
  "kpọ": 374,
  "bịa": 375,
  "nwaanyị": 376,
  "kwara": 377,
  "bodo": 378,
  "pu": 379,
  "ịbụl": 380,
  "baịbụl": 381,
  "mi": 382,
  "ọnụ": 383,
  "bụla": 384,
  "mme": 385,
  "du": 386,
  "obodo": 387,
  "ana": 388,
  "egwu": 389,
  "20": 390,
  "gbọ": 391,
  "iji": 392,
  "chọ": 393,
  "fe": 394,
  "ụwa": 395,
  "hi": 396,
  "aga": 397,
  "gwa": 398,
  "pụtara": 399,
  "iwu": 400,
  "siri": 401,
  "ikpe": 402,
  "to": 403,
  "ụb": 404,
  "ze": 405,
  "ego": 406,
  "eme": 407,
  "mb": 408,
  "az": 409,
  "uru": 410,
  "gọ": 411,
  "ụbọchị": 412,
  "ntị": 413,
  "agba": 414,
  "onwe": 415,
  "tere": 416,
  "a ,": 417,
  "ho": 418,
  "ụrụ": 419,
  "st": 420,
  "ari": 421,
  "ihi": 422,
  "ndụ": 423,
  "ahụ .": 424,
  "ozi": 425,
  "oji": 426,
  "uwe": 427,
  "mana": 428,
  "sịrị": 429,
  "gara": 430,
  "ọchịchị": 431,
  "aha": 432,
  "lụ": 433,
  "atọ": 434,
  "ah": 435,
  "ụzọ": 436,
  "ukwu": 437,
  "gọọ": 438,
  "mm": 439,
  "gọọme": 440,
  "Bu": 441,
  "hụrụ": 442,
  "kpọrọ": 443,
  "elu": 444,
  "fọdụ": 445,
  "kwuo": 446,
  "ojii": 447,
  "ọka": 448,
  "ya ,": 449,
  "nwoke": 450,
  "jụ": 451,
  "ụfọdụ": 452,
  "ha .": 453,
  "kpo": 454,
  "nd": 455,
  "201": 456,
  "ụgbọ": 457,
  "sụ": 458,
  "ọma": 459,
  "sara": 460,
  "ahụ ,": 461,
  "nso": 462,
  "eze": 463,
  "agha": 464,
  "ome": 465,
  "mee": 466,
  "were": 467,
  "mer": 468,
  "gbara": 469,
  " . ”": 470,
  "or": 471,
  "nweghị": 472,
  "asa": 473,
  "chara": 474,
  "hov": 475,
  "ihu": 476,
  "hari": 477,
  "jehov": 478,
  "Buhari": 479,
  "ga-eme": 480,
  "mara": 481,
  "gharị": 482,
  "ọbụla": 483,
  "gi": 484,
  "ugbu": 485,
  "ọkụ": 486,
  "( ": 487,
  "nakwa": 488,
  "olu": 489,
  "gwụ": 490,
  "nna": 491,
  "nyo": 492,
  "ụka": 493,
  "gbasara": 494,
  "gwara": 495,
  "lite": 496,
  "uweojii": 497,
  "el": 498,
  "ma ,": 499,
  "onyeisiala": 500,
  "chọrọ": 501,
  "ole": 502,
  "ọnwa": 503,
  "ela": 504,
  "nwu": 505,
  "wee": 506,
  "na-ekwu": 507,
  "nga": 508,
  "mkpa": 509,
  "jehova": 510,
  "zọs": 511,
  "aba": 512,
  "jizọs": 513,
  "nta": 514,
  "jiri": 515,
  "pa": 516,
  "arụ": 517,
  "atụ": 518,
  "gwe": 519,
  "mbụ": 520,
  "mmiri": 521,
  "gọọmentị": 522,
  "ntụ": 523,
  "anụ": 524,
  "gburu": 525,
  "na-agba": 526,
  "vanọ": 527,
  "mpi": 528,
  "gọvanọ": 529,
  "pụrụ": 530,
  "kpụ": 531,
  "mo": 532,
  "jọ": 533,
  "dọ": 534,
  "site": 535,
  "ekwe": 536,
  "ja": 537,
  "nne": 538,
  " ;": 539,
  "iwe": 540,
  "anwụ": 541,
  "ga-ama": 542,
  "al": 543,
  "nị": 544,
  "pe": 545,
  "dere": 546,
  "lị": 547,
  "Jo": 548,
  "mgba": 549,
  "gu": 550,
  "in": 551,
  "ju": 552,
  "ahịa": 553,
  "gwọ": 554,
  "adị": 555,
  "ise": 556,
  "bido": 557,
  "kwado": 558,
  "kị": 559,
  "ndọrọ": 560,
  "oko": 561,
  "eziokwu": 562,
  "BB": 563,
  "asọ": 564,
  "nyi": 565,
  "anyere": 566,
  "mu": 567,
  "ntụli": 568,
  "karị": 569,
  "ghọ": 570,
  "tupu": 571,
  "th": 572,
  "ọnwụ": 573,
  "azụ": 574,
  "igwe": 575,
  "mkp": 576,
  "na-ahụ": 577,
  "ce": 578,
  "BBC": 579,
  "zị": 580,
  "ọla": 581,
  "zụ": 582,
  "mbra": 583,
  "nri": 584,
  "anambra": 585,
  "aghara": 586,
  "bere": 587,
  "ọgwụ": 588,
  "ebu": 589,
  "ntụliaka": 590,
  "asọmpi": 591,
  "okp": 592,
  "bara": 593,
  "ọgba": 594,
  "azị": 595,
  "nsogbu": 596,
  "ruo": 597,
  "ọkwa": 598,
  "fu": 599,
  "eji": 600,
  "bọọ": 601,
  "ọj": 602,
  "ghara": 603,
  "nche": 604,
  "etu": 605,
  "gha": 606,
  "bị": 607,
  "enu": 608,
  "nwunye": 609,
  "bọọlụ": 610,
  "regwu": 611,
  "egwuregwu": 612,
  "kiri": 613,
  "rịka": 614,
  "taa": 615,
  " .  \" ": 616,
  "lo": 617,
  "mmụ": 618,
  "na-aga": 619,
  "chụ": 620,
  "chie": 621,
  "ola": 622,
  "ig": 623,
  "yi": 624,
  "ọhụrụ": 625,
  "unu": 626,
  "maazị": 627,
  "ebi": 628,
  "ga-amasị": 629,
  "kacha": 630,
  "anị": 631,
  "nwee": 632,
  "naanị": 633,
  "af": 634,
  "etiti": 635,
  "zie": 636,
  "wara": 637,
  "nweta": 638,
  "ibe": 639,
  "ou": 640,
  "enugwu": 641,
  "nya": 642,
  "amer": 643,
  "ezigbo": 644,
  "banyere": 645,
  "akwa": 646,
  "Ma": 647,
  "AP": 648,
  "lee": 649,
  "chukwu": 650,
  "sị :": 651,
  "ọbụ": 652,
  "ziri": 653,
  "ọjọọ": 654,
  "su": 655,
  "ụlọọrụ": 656,
  "ụmụnwaanyị": 657,
  "eru": 658,
  "kwụsị": 659,
  "ụtọ": 660,
  "agaghị": 661,
  "agụ": 662,
  "nti": 663,
  "raị": 664,
  "Mu": 665,
  "ịka": 666,
  "buru": 667,
  "wakpo": 668,
  "ghi": 669,
  "nde": 670,
  "ụlọikpe": 671,
  "abalị": 672,
  "sta": 673,
  "gosi": 674,
  "narị": 675,
  "enye": 676,
  "ada": 677,
  "en": 678,
  "kwesịrị": 679,
  "ịgba": 680,
  "kemgbe": 681,
  "2019": 682,
  "anaghị": 683,
  "kpere": 684,
  "ol": 685,
  "goolu": 686,
  "Chi": 687,
  "chiri": 688,
  "gịnị": 689,
  "tinye": 690,
  "ngwa": 691,
  "Nig": 692,
  "amerịka": 693,
  "nọdụ": 694,
  "gaa": 695,
  "ha ,": 696,
  "ekwuo": 697,
  "ajụ": 698,
  "zo": 699,
  "00": 700,
  "mbọ": 701,
  "ụgwọ": 702,
  "il": 703,
  "nwụrụ": 704,
  "nal": 705,
  "nkeji": 706,
  "afrịka": 707,
  "za": 708,
  "ọrịa": 709,
  "kere": 710,
  "ruru": 711,
  "ọnọdụ": 712,
  "ga-esi": 713,
  "cheta": 714,
  "laba": 715,
  "kọta": 716,
  "tion": 717,
  "ekwuola": 718,
  "gosiri": 719,
  "meri": 720,
  "bịara": 721,
  "Ro": 722,
  "ụdị": 723,
  "bata": 724,
  "nyocha": 725,
  "ṅụ": 726,
  "mpaghara": 727,
  "nchekwa": 728,
  "litere": 729,
  "vi": 730,
  "ụgbọelu": 731,
  "beghị": 732,
  "ng": 733,
  "nụlọ": 734,
  "ezinụlọ": 735,
  "ọdị": 736,
  "gị :": 737,
  "Nigeri": 738,
  "na-akpọ": 739,
  "APC": 740,
  "nje": 741,
  "ngalaba": 742,
  "kọrọ": 743,
  "soro": 744,
  "asụ": 745,
  "osi": 746,
  "ugwu": 747,
  "puku": 748,
  "gọọmenti": 749,
  "it": 750,
  "izu": 751,
  "kee": 752,
  "omeiwu": 753,
  "okpuru": 754,
  "isii": 755,
  "gboro": 756,
  "no": 757,
  "bụkwa": 758,
  "ehi": 759,
  "19": 760,
  "imo": 761,
  "iko": 762,
  "na-achị": 763,
  "enweghị": 764,
  "bụghị": 765,
  "ekpere": 766,
  "amụ": 767,
  "nkiri": 768,
  "biri": 769,
  "na-eche": 770,
  "oh": 771,
  "m ,": 772,
  "ki": 773,
  "m .": 774,
  "kọwa": 775,
  "Man": 776,
  "nku": 777,
  "uche": 778,
  "ọsọ": 779,
  "nzu": 780,
  "ụgbọala": 781,
  "kwere": 782,
  "ajụjụ": 783,
  "ozu": 784,
  "ọgụ": 785,
  "ver": 786,
  "dịrị": 787,
  "ịma": 788,
  "abụghị": 789,
  "raịst": 790,
  "ter": 791,
  "nyeghị": 792,
  "ga-eji": 793,
  "Su": 794,
  "asụsụ": 795,
  "kraịst": 796,
  "ele": 797,
  "echi": 798,
  "enwe": 799,
  "mmụọ": 800,
  "Re": 801,
  "mume": 802,
  "na-arụ": 803,
  "na-achọ": 804,
  "atụma": 805,
  "abịa": 806,
  "nnu": 807,
  "atụmatụ": 808,
  "- ": 809,
  "nsọ": 810,
  "olee": 811,
  "asaa": 812,
  "Li": 813,
  "oro": 814,
  "mmemme": 815,
  "agwa": 816,
  "maọbụ": 817,
  "na-enye": 818,
  "gbuo": 819,
  "Jose": 820,
  "na-adị": 821,
  "ụkwụ": 822,
  "obere": 823,
  "ano": 824,
  "ngagharị": 825,
  "kpara": 826,
  "am": 827,
  "nkwa": 828,
  "gide": 829,
  "ọzọ .": 830,
  "achọ": 831,
  "karịrị": 832,
  "tụrụ": 833,
  "tọrọ": 834,
  "adịghị": 835,
  "Da": 836,
  "Mo": 837,
  "mkpụrụ": 838,
  "ụmụaka": 839,
  "anya .": 840,
  "akpa": 841,
  "eke": 842,
  "les": 843,
  "kwukwara": 844,
  "kọwara": 845,
  "hapụ": 846,
  "ran": 847,
  "enyi": 848,
  "egbe": 849,
  "ọgbakọ": 850,
  "nala": 851,
  "asatọ": 852,
  "bekee": 853,
  "Boko": 854,
  "of": 855,
  "rịta": 856,
  "nwata": 857,
  "àm": 858,
  "Hara": 859,
  "manụ": 860,
  "ugbua": 861,
  "àmà": 862,
  "per": 863,
  "Nigeria": 864,
  "Co": 865,
  "hịa": 866,
  "tinyere": 867,
  "ugboro": 868,
  "La": 869,
  "DP": 870,
  "chere": 871,
  "ve": 872,
  "ofe": 873,
  "ebubo": 874,
  "anụmanụ": 875,
  "ụkọ": 876,
  "okpo": 877,
  "njem": 878,
  "họ": 879,
  "nai": 880,
  "ori": 881,
  "malitere": 882,
  "ito": 883,
  "fụ": 884,
  "nka": 885,
  "na-akpa": 886,
  "kịta": 887,
  "kike": 888,
  "Na": 889,
  "bidoro": 890,
  "po": 891,
  "ogi": 892,
  "ghọta": 893,
  "nkuzi": 894,
  "mụrụ": 895,
  "Uni": 896,
  "nnukwu": 897,
  "ezu": 898,
  "ga-abụ": 899,
  "ntaakụkọ": 900,
  "Haram": 901,
  "PDP": 902,
  "udo": 903,
  "mechara": 904,
  "na-atụ": 905,
  "hie": 906,
  "kama": 907,
  "karịa": 908,
  "agbanyeghị": 909,
  "ca": 910,
  "naira": 911,
  "ye": 912,
  "aka .": 913,
  "ọkpụ": 914,
  "dara": 915,
  "Josef": 916,
  "ibu": 917,
  "mkpe": 918,
  "Le": 919,
  "ọcha": 920,
  "zuru": 921,
  "anyanwụ": 922,
  "ohere": 923,
  "pati": 924,
  "dum": 925,
  "chọpụta": 926,
  "gọs": 927,
  "Pe": 928,
  "naịjirịa .": 929,
  "ikike": 930,
  "ịhụ": 931,
  "legọs": 932,
  "okporo": 933,
  "gụnyere": 934,
  "egbu": 935,
  "tị": 936,
  "au": 937,
  "ogo": 938,
  "kwuru ,": 939,
  "kanu": 940,
  "ndịàmà": 941,
  "ndọrọndọrọ": 942,
  "Muha": 943,
  " !": 944,
  "mdi": 945,
  "abu": 946,
  "itoolu": 947,
  "Al": 948,
  "us": 949,
  "OB": 950,
  "mmanụ": 951,
  "ahụhụ": 952,
  "IP": 953,
  "Muhamma": 954,
  "EC": 955,
  "ekwu": 956,
  "chọọ": 957,
  "malite": 958,
  "okoro": 959,
  "na-akụ": 960,
  "ike .": 961,
  "chaa": 962,
  "kachasị": 963,
  "wo": 964,
  "na-ele": 965,
  "oche": 966,
  "ụkọchukwu": 967,
  "nọrọ": 968,
  "ide": 969,
  "steeti .": 970,
  "na-abịa": 971,
  "mmeri": 972,
  "chiela": 973,
  "Ea": 974,
  "mata": 975,
  "na-eji": 976,
  " . \"": 977,
  "ofesi": 978,
  "Muhammadu": 979,
  "sịrị :": 980,
  "op": 981,
  "ịdị": 982,
  "mini": 983,
  "ris": 984,
  "IPOB": 985,
  "ghachi": 986,
  "ụlọomeiwu": 987,
  "achị": 988,
  "Fa": 989,
  "ugo": 990,
  "lie": 991,
  "saụ": 992,
  "kwesiri": 993,
  "ster": 994,
  "maha": 995,
  "niile .": 996,
  "pọ": 997,
  "mma .": 998,
  "arịa": 999,
  "tiku": 1000,
  "ia": 1001,
  "ụmụakwụkwọ": 1002,
  "mụta": 1003,
  "sote": 1004,
  "nkwado": 1005,
  "esi": 1006,
  "gbaa": 1007,
  "ụtụtụ": 1008,
  "kọrịta": 1009,
  "Atiku": 1010,
  "ụba": 1011,
  "agb": 1012,
  "inye": 1013,
  "rel": 1014,
  "ochie": 1015,
  "ogige": 1016,
  "bọ": 1017,
  "anya ,": 1018,
  "ikpeazụ": 1019,
  "onal": 1020,
  "ọdụ": 1021,
  "okpu": 1022,
  "In": 1023,
  "mmụta": 1024,
  "ntọ": 1025,
  "amaghị": 1026,
  "nzukọ": 1027,
  "he": 1028,
  "ọha": 1029,
  "alaeze": 1030,
  "ịrị": 1031,
  "osisi": 1032,
  "Super": 1033,
  "ck": 1034,
  "banye": 1035,
  "ọzọ ,": 1036,
  "họpụta": 1037,
  "mgbasa": 1038,
  "osote": 1039,
  "na-ama": 1040,
  "katọ": 1041,
  "Ada": 1042,
  "ga-adị": 1043,
  "bụrụkwa": 1044,
  "anyị .": 1045,
  "alụ": 1046,
  "mahadum": 1047,
  "asị": 1048,
  "dia": 1049,
  "ahọ": 1050,
  "mkpọrọ": 1051,
  "minista": 1052,
  "saụt": 1053,
  "e ,": 1054,
  "shịa": 1055,
  "Ar": 1056,
  "ted": 1057,
  "nwekwara": 1058,
  "meriri": 1059,
  "ịrụ": 1060,
  "Tru": 1061,
  "naghị": 1062,
  "akara": 1063,
  "ọtọ": 1064,
  "na-efe": 1065,
  "aja": 1066,
  "obiano": 1067,
  "Oko": 1068,
  "na-enwe": 1069,
  "na-eru": 1070,
  "na-agụ": 1071,
  "ajọ": 1072,
  "sie": 1073,
  "eluigwe": 1074,
  "dọkịta": 1075,
  "fi": 1076,
  "ọna": 1077,
  "oku": 1078,
  "amụma": 1079,
  "omenala": 1080,
  "ịga": 1081,
  "kpatara": 1082,
  "pụtala": 1083,
  "gaghị": 1084,
  "ọdọ": 1085,
  "So": 1086,
  "eche": 1087,
  "ty": 1088,
  "kọmi": 1089,
  "bụ ,": 1090,
  "okwukwe": 1091,
  "ọma .": 1092,
  "ntoro": 1093,
  "ad": 1094,
  "Ab": 1095,
  "ọba": 1096,
  "anyị ,": 1097,
  "ọkacha": 1098,
  "ntorobịa": 1099,
  "IN": 1100,
  "na-ebu": 1101,
  "Wil": 1102,
  "co": 1103,
  "ikwu": 1104,
  "Eag": 1105,
  "es": 1106,
  "tan": 1107,
  "gawa": 1108,
  "INEC": 1109,
  "FC": 1110,
  "ga-enye": 1111,
  "jụrụ": 1112,
  "Trump": 1113,
  "rụrụ": 1114,
  "nwetara": 1115,
  "akpụ": 1116,
  "mwakpo": 1117,
  "vid": 1118,
  "ọhịa": 1119,
  "Af": 1120,
  "  \" . \"": 1121,
  "ebighị": 1122,
  "United": 1123,
  "nwan": 1124,
  "omume": 1125,
  "ike ,": 1126,
  "usoro": 1127,
  "ity": 1128,
  "ngagharịiwe": 1129,
  " \" \"": 1130,
  "baịbụl .": 1131,
  "Ka": 1132,
  "Sa": 1133,
  "onweghị": 1134,
  "Ne": 1135,
  "Ade": 1136,
  "nọchi": 1137,
  "kpọku": 1138,
  "ihe .": 1139,
  "njọ": 1140,
  "Se": 1141,
  "doro": 1142,
  "ga-agba": 1143,
  "Eagles": 1144,
  "ss": 1145,
  "ten": 1146,
  "iz": 1147,
  "goro": 1148,
  "od": 1149,
  "baka": 1150,
  "echiche": 1151,
  "nnamdi": 1152,
  "vo": 1153,
  "Ri": 1154,
  "ọw": 1155,
  "Mi": 1156,
  "metụ": 1157,
  "akụkụ": 1158,
  "obi .": 1159,
  "ọgọ": 1160,
  "ụlọụka": 1161,
  "kedụ": 1162,
  "Obi": 1163,
  "ani": 1164,
  "lik": 1165,
  "chineke ,": 1166,
  "arịta": 1167,
  "ur": 1168,
  "fo": 1169,
  "ume": 1170,
  "turu": 1171,
  "ịtụ": 1172,
  "a :": 1173,
  "wakporo": 1174,
  "and": 1175,
  "ọwụwa": 1176,
  "Ba": 1177,
  "pt": 1178,
  "nda": 1179,
  "else": 1180,
  "ir": 1181,
  "na-egosi": 1182,
  "ọfụ": 1183,
  "pọl": 1184,
  "fere": 1185,
  "ebo": 1186,
  "con": 1187,
  "chọpụtara": 1188,
  "iyi": 1189,
  "merie": 1190,
  "na-esi": 1191,
  "Chelse": 1192,
  "wụ": 1193,
  "dio": 1194,
  "ohi": 1195,
  "City": 1196,
  "ine": 1197,
  "na-eso": 1198,
  "ọgbọ": 1199,
  "izrel": 1200,
  "katọlik": 1201,
  "son": 1202,
  "chineke .": 1203,
  "land": 1204,
  "kwalite": 1205,
  "onyi": 1206,
  "enyemaka": 1207,
  "emume": 1208,
  "taghị": 1209,
  "nihu": 1210,
  "ụnya": 1211,
  "abuja": 1212,
  "inwe": 1213,
  "eziokwu .": 1214,
  "Moha": 1215,
  "pool": 1216,
  "tional": 1217,
  "200": 1218,
  "na-akwado": 1219,
  "Liver": 1220,
  "oriri": 1221,
  "Liverpool": 1222,
  "oli": 1223,
  "shịal": 1224,
  "isiokwu": 1225,
  "fada": 1226,
  "na-adịghị": 1227,
  "De": 1228,
  "ci": 1229,
  "nji": 1230,
  "pụla": 1231,
  "ewe": 1232,
  "akị": 1233,
  "achụ": 1234,
  "Sou": 1235,
  "soshịal": 1236,
  "na-ekpe": 1237,
  "gụọ": 1238,
  "ogbu": 1239,
  "zde": 1240,
  "Afri": 1241,
  "Ca": 1242,
  "' .": 1243,
  "jeri": 1244,
  "agu": 1245,
  "ọmụ": 1246,
  "juru": 1247,
  "ọkaiwu": 1248,
  "Chelsea": 1249,
  "onyinye": 1250,
  "tri": 1251,
  "oyi": 1252,
  "kpọọ": 1253,
  "akpọ": 1254,
  "na-agwa": 1255,
  "ing": 1256,
  "ode": 1257,
  "ụlọakwụkwọ": 1258,
  "e .": 1259,
  "isi .": 1260,
  "mmadụ .": 1261,
  "iche .": 1262,
  "onyo": 1263,
  "2019 .": 1264,
  " \" \" ": 1265,
  "arc": 1266,
  "sịghị": 1267,
  "aka ,": 1268,
  "ekpe": 1269,
  "ọgbaaghara": 1270,
  "onyonyo": 1271,
  "chu": 1272,
  "To": 1273,
  "ham": 1274,
  "ment": 1275,
  "ugbua ,": 1276,
  "na-ere": 1277,
  "rịọ": 1278,
  "sị ,": 1279,
  "net": 1280,
  "agbọ": 1281,
  "mgb": 1282,
  "na-ewe": 1283,
  "ọbara": 1284,
  "Manche": 1285,
  "Manchester": 1286,
  "kwuru .": 1287,
  "mmed": 1288,
  "wit": 1289,
  "gharịa": 1290,
  "nwanne": 1291,
  "mama": 1292,
  "ọ \"": 1293,
  "ụwa .": 1294,
  "ort": 1295,
  "South": 1296,
  "ite": 1297,
  "madu": 1298,
  "2018": 1299,
  "dịghị": 1300,
  "bie": 1301,
  "gee": 1302,
  "abụọ .": 1303,
  "ala .": 1304,
  "ụra": 1305,
  "okorocha": 1306,
  "okpukpe": 1307,
  "ak": 1308,
  "El": 1309,
  "Ja": 1310,
  "ly": 1311,
  "godị": 1312,
  "ọgbu": 1313,
  "ry": 1314,
  "Nwo": 1315,
  "Sta": 1316,
  "chas": 1317,
  "mbere": 1318,
  "kpọrọ  \" ": 1319,
  "omeka": 1320,
  "ọnị": 1321,
  "vootu": 1322,
  "Rochas": 1323,
  "ọnịcha": 1324,
  "na-ekwuru": 1325,
  "for": 1326,
  "nyela": 1327,
  "ya ?": 1328,
  "aga .": 1329,
  "ope": 1330,
  "ọchịehi": 1331,
  "Fran": 1332,
  "Arse": 1333,
  "va": 1334,
  "Bi": 1335,
  "na-ata": 1336,
  "ede": 1337,
  "mberede": 1338,
  "kpu": 1339,
  "der": 1340,
  "bri": 1341,
  "nle": 1342,
  "ga-aga": 1343,
  "aga ,": 1344,
  "agbọghọ": 1345,
  "Arsenal": 1346,
  "Fe": 1347,
  "nụrụ": 1348,
  "akịrịka": 1349,
  "Mohammed": 1350,
  "nwụọ": 1351,
  "“ ọ": 1352,
  "emeela": 1353,
  "Peter": 1354,
  "ijipt": 1355,
  "' ,": 1356,
  "gbata": 1357,
  "nọọ": 1358,
  "juu": 1359,
  "setan": 1360,
  "kọtara": 1361,
  "gharịrị": 1362,
  "ky": 1363,
  "10": 1364,
  "s ,": 1365,
  "ọkammụta": 1366,
  "tala": 1367,
  "batara": 1368,
  "ịkpa": 1369,
  "ong": 1370,
  "atụ ,": 1371,
  "000": 1372,
  "Ekwere": 1373,
  "witter": 1374,
  "Ekweremadu": 1375,
  "Ke": 1376,
  "ber": 1377,
  "Pre": 1378,
  "na-eri": 1379,
  "taa .": 1380,
  "anwụọla": 1381,
  "ekele": 1382,
  "nhọpụta": 1383,
  "kọmish": 1384,
  "omekaome": 1385,
  "wi": 1386,
  "s .": 1387,
  "ala ,": 1388,
  "Abu": 1389,
  "ụwa ,": 1390,
  "Eze": 1391,
  "gidere": 1392,
  "uju": 1393,
  "our": 1394,
  "mkparịta": 1395,
  "cy": 1396,
  "aru": 1397,
  "mpụ": 1398,
  "ọrụ .": 1399,
  "ozugbo": 1400,
  "kọmishọna": 1401,
  "eh": 1402,
  "jo": 1403,
  "na-abụ": 1404,
  "a ?": 1405,
  "ịlụ": 1406,
  "naeze": 1407,
  "eziokwu ,": 1408,
  "mkpu": 1409,
  "1 ,": 1410,
  "rụọ": 1411,
  "kwasị": 1412,
  "nwereike": 1413,
  " ) .": 1414,
  "ịkpọ": 1415,
  "zịrị": 1416,
  "n ,": 1417,
  "iro": 1418,
  "ọkaikpe": 1419,
  "nigwe": 1420,
  "ọgụgụ": 1421,
  "ogbunigwe": 1422,
  "im": 1423,
  "warị": 1424,
  "ọhanaeze": 1425,
  "edo": 1426,
  "kwụrụ": 1427,
  "ahụike": 1428,
  "ga-enwe": 1429,
  "ije": 1430,
  " . ” )": 1431,
  "nkị": 1432,
  "mmehie": 1433,
  "n .": 1434,
  "wer": 1435,
  "ihe ,": 1436,
  "wepụtara": 1437,
  "megide": 1438,
  "14": 1439,
  "ssi": 1440,
  "ọrụ ,": 1441,
  "Joh": 1442,
  "egbuola": 1443,
  "ọdịnihu": 1444,
  "hapụrụ": 1445,
  "midia": 1446,
  "maara": 1447,
  "hazi": 1448,
  "baịbụl ,": 1449,
  "ghe": 1450,
  "igbu": 1451,
  "makana": 1452,
  " ) ,": 1453,
  "ewu": 1454,
  "ndịigbo": 1455,
  "enyela": 1456,
  "China": 1457,
  "mkpebi": 1458,
  "15": 1459,
  "ta .": 1460,
  "mma ,": 1461,
  "fra": 1462,
  "ire": 1463,
  "mpe": 1464,
  "atụrụ": 1465,
  "ịmata": 1466,
  "nọchite": 1467,
  "Eme": 1468,
  "nkwe": 1469,
  "ndịagha": 1470,
  "We": 1471,
  "Mar": 1472,
  "Oke": 1473,
  "rue": 1474,
  "mmadụ ,": 1475,
  "niile ,": 1476,
  "na-arị": 1477,
  "ụjọ": 1478,
  "ụlọọgwụ": 1479,
  "devid": 1480,
  "bịafra": 1481,
  "Be": 1482,
  "ph": 1483,
  "__": 1484,
  "na-amụ": 1485,
  "nway": 1486,
  "achọghị": 1487,
  "metụtara": 1488,
  "nwayọọ": 1489,
  "ata": 1490,
  "satọ": 1491,
  "ga-anọ": 1492,
  "agbata": 1493,
  "Nor": 1494,
  "na-enweghị": 1495,
  "amalite": 1496,
  "gburugburu": 1497,
  "ngw": 1498,
  "gị ,": 1499,
  "ga-enyere": 1500,
  "ction": 1501,
  "satọde": 1502,
  "Zi": 1503,
  "SS": 1504,
  "Sara": 1505,
  "nter": 1506,
  "fee": 1507,
  "ụtọ .": 1508,
  "Chris": 1509,
  "shi": 1510,
  "mị": 1511,
  "Nna": 1512,
  "zara": 1513,
  "kwaghị": 1514,
  "duna": 1515,
  "Ra": 1516,
  "rid": 1517,
  "iru": 1518,
  "ụlọakụ": 1519,
  "egwuregwu ,": 1520,
  "ọdịnala": 1521,
  "tius": 1522,
  "Leagu": 1523,
  "mọ": 1524,
  "na-egbu": 1525,
  "obi ,": 1526,
  "ịgụ": 1527,
  "elekere": 1528,
  "Ser": 1529,
  "lata": 1530,
  "chapụ": 1531,
  "2017": 1532,
  "na-azụ": 1533,
  "fufe": 1534,
  "naụba": 1535,
  "sha": 1536,
  "tha": 1537,
  "kata": 1538,
  "lic": 1539,
  "gị .": 1540,
  "ja .": 1541,
  "nabata": 1542,
  "nzuzo": 1543,
  "Lago": 1544,
  "ọfụma": 1545,
  "laị": 1546,
  "Osi": 1547,
  "na-ebi": 1548,
  "na-atọ": 1549,
  "na  \" ": 1550,
  "uru .": 1551,
  "Chukwu": 1552,
  "akpọrọ": 1553,
  "agwọ": 1554,
  "ọgbugbu": 1555,
  "akụnaụba": 1556,
  "kan": 1557,
  "abụrụ": 1558,
  "putara": 1559,
  "ugbua .": 1560,
  "ekwentị": 1561,
  "Pau": 1562,
  "tiusde": 1563,
  "Ju": 1564,
  "kwo": 1565,
  "Or": 1566,
  "ịchị": 1567,
  "igbo ,": 1568,
  "ọnụ .": 1569,
  "na-alụ": 1570,
  "Willie": 1571,
  "FCC": 1572,
  "nkịtị": 1573,
  "pị": 1574,
  "lere": 1575,
  "rie": 1576,
  "na-akwụ": 1577,
  "gbochi": 1578,
  "naịjirịa ,": 1579,
  "ụda": 1580,
  "gụrụ": 1581,
  "wute": 1582,
  "ụmụnne": 1583,
  "ọdọụgbọelu": 1584,
  "ọgọst": 1585,
  "sonye": 1586,
  "na-anọ": 1587,
  "icheiche": 1588,
  "abụọ ,": 1589,
  "tor": 1590,
  "chitere": 1591,
  "kpụrụ": 1592,
  "agụmba": 1593,
  "nchọpụta": 1594,
  "yo": 1595,
  "ard": 1596,
  "dịkwa": 1597,
  "chaghị": 1598,
  "mfe": 1599,
  "itinye": 1600,
  "nnyocha": 1601,
  "bakar": 1602,
  "ijeri": 1603,
  "Uma": 1604,
  "wepụ": 1605,
  "weere": 1606,
  "Ude": 1607,
  "Pro": 1608,
  "1 )": 1609,
  "mbaụwa": 1610,
  "mkpesa": 1611,
  "Adam": 1612,
  "olile": 1613,
  "nnọọ": 1614,
  "Twitter": 1615,
  "man": 1616,
  "zute": 1617,
  "efu": 1618,
  "logo": 1619,
  "bụkwanụ": 1620,
  "mmekọrịta": 1621,
  "briten": 1622,
  "Abubakar": 1623,
  "ogologo": 1624,
  "Gu": 1625,
  "Me": 1626,
  "k ,": 1627,
  "ga-ahụ": 1628,
  "uro": 1629,
  "mere .": 1630,
  "gbasa": 1631,
  "idi": 1632,
  "sitere": 1633,
  "chọọchị": 1634,
  "ebonyi": 1635,
  "ọmụmụ": 1636,
  "Paul": 1637,
  "GA": 1638,
  "na-azọ": 1639,
  "liri": 1640,
  "ga-ebi": 1641,
  "butere": 1642,
  "atọ .": 1643,
  "2015": 1644,
  "ezum": 1645,
  "EFCC": 1646,
  "NA": 1647,
  "leba": 1648,
  "ogbe": 1649,
  "ndị )": 1650,
  "lụrụ": 1651,
  "ther": 1652,
  "State": 1653,
  "gwo": 1654,
  "ria": 1655,
  "kọọ": 1656,
  "merụrụ": 1657,
  "yin": 1658,
  "akwado": 1659,
  "fraị": 1660,
  "state": 1661,
  "Ihe": 1662,
  "latri": 1663,
  "fraịde": 1664,
  "23": 1665,
  "Go": 1666,
  "nyeere": 1667,
  "tic": 1668,
  "na-enyere": 1669,
  "ga-akpọ": 1670,
  "papa": 1671,
  "kịrị": 1672,
  "mmanya": 1673,
  "Inter": 1674,
  "pi": 1675,
  "2 ,": 1676,
  "san": 1677,
  "nwụchi": 1678,
  "iche ,": 1679,
  "ọda": 1680,
  "ofesi ,": 1681,
  "New": 1682,
  "senet": 1683,
  "Fu": 1684,
  "fa": 1685,
  "pụọ": 1686,
  "ịkwụ": 1687,
  "debe": 1688,
  "gachara": 1689,
  "ọṅụ": 1690,
  "nkịta": 1691,
  "okorobịa": 1692,
  "El-": 1693,
  "Bo": 1694,
  "Ike": 1695,
  "hab": 1696,
  "bra": 1697,
  "awa": 1698,
  "mbu": 1699,
  "nwaafọ": 1700,
  "ton": 1701,
  "Zak": 1702,
  "zaky": 1703,
  "Zakzaky": 1704,
  "..": 1705,
  "Au": 1706,
  "17": 1707,
  "gabe": 1708,
  "mbi": 1709,
  "yiri": 1710,
  "na-ekwe": 1711,
  "nue": 1712,
  "mpụtara": 1713,
  "dọla": 1714,
  "ebere": 1715,
  " - ": 1716,
  "ọkpara": 1717,
  "Saraki": 1718,
  "Mugabe": 1719,
  "na-aka": 1720,
  "gboo": 1721,
  "zuo": 1722,
  "kwanyere": 1723,
  "guzo": 1724,
  "ofufe": 1725,
  "fọrọ": 1726,
  "mụtara": 1727,
  "okwu .": 1728,
  "jehova .": 1729,
  "gbuola": 1730,
  "anwụchiela": 1731,
  "mọdụ": 1732,
  "Lagos": 1733,
  "Pa": 1734,
  "Di": 1735,
  "dị ,": 1736,
  "kwaa": 1737,
  "iku": 1738,
  "efe": 1739,
  "ọma ,": 1740,
  "ndụmọdụ": 1741,
  "18": 1742,
  "n' \"": 1743,
  "nrọ": 1744,
  "bụbu": 1745,
  "na-ada": 1746,
  "amata": 1747,
  "enweta": 1748,
  "agụụ": 1749,
  "nkata": 1750,
  "foto": 1751,
  "benue": 1752,
  "Cha": 1753,
  "ụmụafọ": 1754,
  "ife": 1755,
  "eto": 1756,
  "zutere": 1757,
  "Africa": 1758,
  "APGA": 1759,
  "ezumike": 1760,
  "baara": 1761,
  "azọ": 1762,
  " ? ”": 1763,
  "puta": 1764,
  "egosi": 1765,
  "mmepe": 1766,
  "agbụrụ": 1767,
  "kaduna": 1768,
  "Ta": 1769,
  "No": 1770,
  "ịny": 1771,
  "Ele": 1772,
  "anyị \"": 1773,
  "eso": 1774,
  "ga-akwụ": 1775,
  "akwụkwọ .": 1776,
  "apụta": 1777,
  "aghọ": 1778,
  "Mad": 1779,
  "ohu": 1780,
  "latrik": 1781,
  "Madrid": 1782,
  "Bri": 1783,
  "kwala": 1784,
  "miri": 1785,
  "mgbede": 1786,
  "mba .": 1787,
  "okenye": 1788,
  "amaokwu": 1789,
  "ndụ .": 1790,
  "ọkụkọ": 1791,
  "enyo": 1792,
  "ịṅụ": 1793,
  "ourt": 1794,
  "13": 1795,
  "dan": 1796,
  "ịzọ": 1797,
  "kwụọ": 1798,
  "nara": 1799,
  "akụrụ": 1800,
  "na-eme .": 1801,
  "okporoụzọ": 1802,
  "ọkachamara": 1803,
  "njikere": 1804,
  "mkparịtaụka": 1805,
  "ower": 1806,
  "Ru": 1807,
  "ona": 1808,
  "Ama": 1809,
  "ịba": 1810,
  "neti": 1811,
  "enyere": 1812,
  "ịnta": 1813,
  "na-etinye": 1814,
  "199": 1815,
  "wore": 1816,
  "ịntaneti": 1817,
  "Sowore": 1818,
  "jị": 1819,
  "Vi": 1820,
  "ụtụ": 1821,
  "ahị": 1822,
  "pụrụiche": 1823,
  "ịkwụsị": 1824,
  "enweghi": 1825,
  "olileanya": 1826,
  "ọdachi": 1827,
  "saa": 1828,
  "steeti ,": 1829,
  "agha .": 1830,
  "the": 1831,
  "ọdịda": 1832,
  "ịkwalite": 1833,
  "na-ekwuchitere": 1834,
  "Ihedio": 1835,
  "ọbasan": 1836,
  "Ibra": 1837,
  "ọbasanjọ": 1838,
  "AS": 1839,
  "ld": 1840,
  "jiji": 1841,
  "nata": 1842,
  "ese": 1843,
  "gun": 1844,
  "bụzị": 1845,
  "inweta": 1846,
  "na-akụzi": 1847,
  "mgbere": 1848,
  "Nwa": 1849,
  "Te": 1850,
  "Ge": 1851,
  "chịrị": 1852,
  "wene": 1853,
  "jide": 1854,
  "spe": 1855,
  "beghi": 1856,
  "Ga": 1857,
  "anyi": 1858,
  "apụ": 1859,
  "na-acha": 1860,
  "arịrị": 1861,
  "onyeozi": 1862,
  "merụ": 1863,
  "kwazie": 1864,
  "ịghọta": 1865,
  "na-akụziri": 1866,
  "na-arịọ": 1867,
  "wenezde": 1868,
  "qu": 1869,
  "ọkọ": 1870,
  "nchị": 1871,
  "ịkụ": 1872,
  "na-ede": 1873,
  "obibi": 1874,
  "Ghana": 1875,
  "stra": 1876,
  "na-asụ": 1877,
  "ngwụ": 1878,
  "ebido": 1879,
  "ịchụ": 1880,
  "Ibrahi": 1881,
  "up": 1882,
  "FA": 1883,
  "16": 1884,
  "sti": 1885,
  "ga-ebu": 1886,
  "ọọla": 1887,
  "boro": 1888,
  "igbo .": 1889,
  "ọkpọ": 1890,
  "Ife": 1891,
  "ọkara": 1892,
  "pase": 1893,
  "ọjị": 1894,
  "aṅụ": 1895,
  "osimiri": 1896,
  "ahịhịa": 1897,
  "ọk": 1898,
  "Is": 1899,
  "agw": 1900,
  "sịga": 1901,
  "akarị": 1902,
  "iso": 1903,
  "gen": 1904,
  "ezie": 1905,
  "inyere": 1906,
  "mkpọ": 1907,
  "omi": 1908,
  "mbụ .": 1909,
  "anwụrụ": 1910,
  "Fal": 1911,
  "na-akọwa": 1912,
  "ọkachasị": 1913,
  "Nwosu": 1914,
  "akụrụngwa": 1915,
  "mas": 1916,
  "gaara": 1917,
  "na-akwa": 1918,
  "ibi": 1919,
  "ndị \"": 1920,
  "ga-achị": 1921,
  "Olu": 1922,
  "sena": 1923,
  "mgbọ": 1924,
  "arụrụ": 1925,
  "ebum": 1926,
  "national": 1927,
  "National": 1928,
  "mọnde": 1929,
  "Ti": 1930,
  "US": 1931,
  "Wa": 1932,
  "4 .": 1933,
  "riri": 1934,
  "bia": 1935,
  "bwe": 1936,
  "lani": 1937,
  "na-ebo": 1938,
  "akwụsị": 1939,
  "na-eto": 1940,
  "na-enyo": 1941,
  "ga-abara": 1942,
  "kpebiri": 1943,
  "nrụrụ": 1944,
  "nkwekọrịta": 1945,
  "Zimba": 1946,
  "Ihedioha": 1947,
  "Ibrahim": 1948,
  "Zimbabwe": 1949,
  "Ah": 1950,
  "by": 1951,
  "are": 1952,
  "meere": 1953,
  "Pla": 1954,
  "kụzi": 1955,
  "ral": 1956,
  "kara": 1957,
  "pịa": 1958,
  "kwuo ,": 1959,
  "na-ajụ": 1960,
  "ọkụ .": 1961,
  "ejiri": 1962,
  "anambra ,": 1963,
  "gbanwee": 1964,
  "Madu": 1965,
  "Premi": 1966,
  "El-Zakzaky": 1967,
  "senatọ": 1968,
  "ON": 1969,
  "tela": 1970,
  "ubi": 1971,
  "mụọ": 1972,
  "ngo": 1973,
  "ịcha": 1974,
  "nwetere": 1975,
  "ọkafọ": 1976,
  "ụfọdụ ,": 1977,
  "asatara": 1978,
  "ọnwụ .": 1979,
  "ọzụ": 1980,
  "ịnya": 1981,
  "izuụka": 1982,
  "Nai": 1983,
  "League": 1984,
  "opekata": 1985,
  "30": 1986,
  "na-eti": 1987,
  "ute": 1988,
  "ule": 1989,
  "Emma": 1990,
  "ga-ewe": 1991,
  "egwu .": 1992,
  "agbaala": 1993,
  "ọchịchị .": 1994,
  "ekweghị": 1995,
  "ga-akwụsị": 1996,
  "na-elekọta": 1997,
  "maachị": 1998,
  "Harc": 1999,
  "  \" ọ \"": 2000,
  "Port": 2001,
  "International": 2002,
  "Harcourt": 2003,
  "ll": 2004,
  "12": 2005,
  "ero": 2006,
  "tuo": 2007,
  "na-eke": 2008,
  "Ale": 2009,
  "bish": 2010,
  "sịa": 2011,
  "ịmụ": 2012,
  "makwụ": 2013,
  "dee": 2014,
  "“ onye": 2015,
  "mita": 2016,
  "toba": 2017,
  "ịzụ": 2018,
  "Comm": 2019,
  "tọzde": 2020,
  "ọktoba": 2021,
  "kwa ,": 2022,
  "otu ,": 2023,
  "otu .": 2024,
  "mere ,": 2025,
  "kwanụ": 2026,
  "ga-achọ": 2027,
  "taa ,": 2028,
  "Jona": 2029,
  "ụgha": 2030,
  "oriakụ": 2031,
  "Premier": 2032,
  "makwụkwọ": 2033,
  "nba": 2034,
  "akọ": 2035,
  "lọta": 2036,
  "kụrụ": 2037,
  "kweere": 2038,
  "furu": 2039,
  "ụnyaahụ": 2040,
  "ekwesịghị": 2041,
  "Falcon": 2042,
  "1 .": 2043,
  "Ger": 2044,
  "med": 2045,
  "biga": 2046,
  "Bra": 2047,
  "rịọrọ": 2048,
  "afọ .": 2049,
  "ndi": 2050,
  "ya . ”": 2051,
  "ụbụrụ": 2052,
  "ụmụnwoke": 2053,
  "jụọ": 2054,
  "omebe": 2055,
  "ise .": 2056,
  "ncheta": 2057,
  "achịcha": 2058,
  "Mbaka": 2059,
  "nturu": 2060,
  "ọzụzụ": 2061,
  "Osinba": 2062,
  "Osinbajo": 2063,
  "St": 2064,
  "ụma": 2065,
  "na ,": 2066,
  "Aba": 2067,
  "na-akọ": 2068,
  "ihe \"": 2069,
  "Bro": 2070,
  "atọ ,": 2071,
  "agwụ": 2072,
  "na-enyocha": 2073,
  "arcel": 2074,
  "ctor": 2075,
  "Alex": 2076,
  "Onye": 2077,
  "mbe": 2078,
  "can": 2079,
  " , \"": 2080,
  "emere": 2081,
  "ghọọ": 2082,
  "bụ  \" ": 2083,
  "ore": 2084,
  "emi": 2085,
  "2016": 2086,
  "mkpamkpa": 2087,
  "mpion": 2088,
  "nsu": 2089,
  "akpara": 2090,
  "họpụtara": 2091,
  "Face": 2092,
  "Willi": 2093,
  "David": 2094,
  "Air": 2095,
  "John": 2096,
  "Emeka": 2097,
  "ịnyịnya": 2098,
  "nyụ": 2099,
  "MA": 2100,
  "ary": 2101,
  "nia": 2102,
  "ugbo": 2103,
  "obodo .": 2104,
  "Wor": 2105,
  "mozu": 2106,
  "mgbanwe": 2107,
  "ọgwụgwụ": 2108,
  "Camer": 2109,
  "ntọrị": 2110,
  "mgbasaozi": 2111,
  "awụ": 2112,
  "nnewi": 2113,
  "agbidi": 2114,
  "Jonatha": 2115,
  "William": 2116,
  "akwamozu": 2117,
  "Ha": 2118,
  "Ai": 2119,
  "arọ": 2120,
  "sịkwa": 2121,
  "rom": 2122,
  "s :": 2123,
  "day": 2124,
  "Con": 2125,
  "ego .": 2126,
  "aribe": 2127,
  "ahu": 2128,
  "ewere": 2129,
  "Bor": 2130,
  "ọbụla .": 2131,
  "idemmiri": 2132,
  "DSS": 2133,
  "ikuku": 2134,
  "Yo": 2135,
  "cho": 2136,
  "Ana": 2137,
  "maa": 2138,
  "la .": 2139,
  "sia": 2140,
  "ịta": 2141,
  "akaebe": 2142,
  "kweta": 2143,
  "mmi": 2144,
  "kwụsịrị": 2145,
  "jidere": 2146,
  "alth": 2147,
  "Sam": 2148,
  "na-anaghị": 2149,
  "Abdu": 2150,
  "sụgharịrị": 2151,
  "bert": 2152,
  "pita": 2153,
  "Fulani": 2154,
  "She": 2155,
  "Mba": 2156,
  "o \"": 2157,
  "isi ,": 2158,
  "Adi": 2159,
  "bre": 2160,
  "nzụ": 2161,
  "na-arịa": 2162,
  "Riva": 2163,
  "Feder": 2164,
  "julaị": 2165,
  "kansa": 2166,
  "Euro": 2167,
  "Naija": 2168,
  "Champion": 2169,
  "Abaribe": 2170,
  "jere": 2171,
  "lla": 2172,
  "rịrị": 2173,
  "mmasị": 2174,
  "pan": 2175,
  "tọọrọ": 2176,
  "enwere": 2177,
  "say": 2178,
  "ime .": 2179,
  "tụnyere": 2180,
  "na-emekwa": 2181,
  "“ ndị": 2182,
  "toro": 2183,
  "Del": 2184,
  "Timo": 2185,
  "ves": 2186,
  "kọmiti": 2187,
  "ga-ezute": 2188,
  "nchịkọta": 2189,
  "ngwụcha": 2190,
  "Iv": 2191,
  "He": 2192,
  "Ut": 2193,
  "ndị ,": 2194,
  "para": 2195,
  "pte": 2196,
  "anu": 2197,
  "na \"": 2198,
  "ga-eso": 2199,
  "chetara": 2200,
  "na-anụ": 2201,
  "kwesi": 2202,
  "pụta .": 2203,
  "2 )": 2204,
  "hoo": 2205,
  "meekwa": 2206,
  "nsogbu .": 2207,
  "na-agaghị": 2208,
  "na-enweta": 2209,
  "Eng": 2210,
  "kelere": 2211,
  "Falcons": 2212,
  "ers": 2213,
  "tti": 2214,
  "nke \"": 2215,
  "zọrọ": 2216,
  "ndo": 2217,
  "mecha": 2218,
  "Igbo": 2219,
  "okwu ,": 2220,
  "kwenyere": 2221,
  "mbụ ,": 2222,
  "Umu": 2223,
  "ejije": 2224,
  "Ben": 2225,
  "nwụchiri": 2226,
  "ụnyaahụ .": 2227,
  "Barcel": 2228,
  "Jonathan": 2229,
  "Barcelona": 2230,
  "dị .": 2231,
  "3 ,": 2232,
  "ntu": 2233,
  "gra": 2234,
  "na-anwụ": 2235,
  "ịnọ": 2236,
  "mpu": 2237,
  "“ ihe": 2238,
  "ritere": 2239,
  "ukwu .": 2240,
  "mee .": 2241,
  "anwụ .": 2242,
  "mgbakọ": 2243,
  "ghọtara": 2244,
  "emeri": 2245,
  "teau": 2246,
  "Donal": 2247,
  "Dani": 2248,
  "odeakwụkwọ": 2249,
  "West": 2250,
  "North": 2251,
  "nzụkọ": 2252,
  "Plateau": 2253,
  "Donald": 2254,
  "ok": 2255,
  "gbụ": 2256,
  "na-ebe": 2257,
  "na-ezi": 2258,
  "bụzi": 2259,
  "inọ": 2260,
  "ondo": 2261,
  "oon": 2262,
  "ga-abịa": 2263,
  "nwaanyị .": 2264,
  "mmer": 2265,
  "ọbụladị": 2266,
  "ọgwụgwọ": 2267,
  "taa :": 2268,
  "ọjọọ .": 2269,
  "Bay": 2270,
  "France": 2271,
  "jikọtara": 2272,
  "Umahi": 2273,
  "World": 2274,
  "sayen": 2275,
  "Cameroon": 2276,
  "2 .": 2277,
  "nkụ": 2278,
  "ili": 2279,
  "ga-eri": 2280,
  "“ m": 2281,
  "“ n'": 2282,
  "mbodo": 2283,
  "ebi .": 2284,
  "zaa": 2285,
  "echichi": 2286,
  "Lib": 2287,
  "The": 2288,
  "na-ebute": 2289,
  "ehihi": 2290,
  "Robert": 2291,
  "Delta": 2292,
  "Utd": 2293,
  "septe": 2294,
  "asambodo": 2295,
  "IM": 2296,
  "cu": 2297,
  "Shi": 2298,
  "-O": 2299,
  "25": 2300,
  "-ndị": 2301,
  "laa": 2302,
  "tus": 2303,
  "akatọ": 2304,
  "akwụkwọ ,": 2305,
  "aku": 2306,
  "ọnụ ,": 2307,
  "kama ,": 2308,
  "100": 2309,
  "na-abụghị": 2310,
  "kraịst ,": 2311,
  "ehu": 2312,
  "opekatampe": 2313,
  "Aisha": 2314,
  "Rivas": 2315,
  "Londo": 2316,
  "UK": 2317,
  "oma": 2318,
  "ịkwa": 2319,
  "cra": 2320,
  "daa": 2321,
  "zọpụta": 2322,
  "min": 2323,
  "thi": 2324,
  "mbido": 2325,
  "na-eyi": 2326,
  "ssion": 2327,
  "abụrụla": 2328,
  "ogbenye": 2329,
  "owerri": 2330,
  "ịchafụ": 2331,
  "agụmakwụkwọ": 2332,
  "sayensị": 2333,
  "Hu": 2334,
  "Tu": 2335,
  "maghị": 2336,
  "tiri": 2337,
  "Ibi": 2338,
  "lia": 2339,
  "Ebo": 2340,
  "ree": 2341,
  "jama": 2342,
  "nson": 2343,
  "ga-amalite": 2344,
  "amerịka .": 2345,
  "adịgboro": 2346,
  "nkume": 2347,
  "uhie": 2348,
  "ịmụta": 2349,
  "tten": 2350,
  "Christi": 2351,
  "toyin": 2352,
  "gachara ,": 2353,
  "inọk": 2354,
  "jamanị": 2355,
  "toyinbo": 2356,
  "hu": 2357,
  "lara": 2358,
  "ụta": 2359,
  "tum": 2360,
  "Oba": 2361,
  "gbaara": 2362,
  "ley": 2363,
  "dike": 2364,
  "họrọ": 2365,
  "lịa": 2366,
  "agbanye": 2367,
  "agbara": 2368,
  "mkpa .": 2369,
  "2019 :": 2370,
  "Niger": 2371,
  "afrịka .": 2372,
  "Real": 2373,
  "AFC": 2374,
  "____": 2375,
  "mgbochi": 2376,
  "Daniel": 2377,
  "Totten": 2378,
  "28": 2379,
  "-A": 2380,
  "pp": 2381,
  "ina": 2382,
  "6 ,": 2383,
  "mes": 2384,
  "te ,": 2385,
  "a \"": 2386,
  "Ara": 2387,
  "ghọrọ": 2388,
  "sọọ": 2389,
  "iche-": 2390,
  "sonyere": 2391,
  "ịda": 2392,
  "oge ,": 2393,
  "aghụ": 2394,
  "biko": 2395,
  "ndu": 2396,
  "zụrụ": 2397,
  "nuel": 2398,
  "jizọs ,": 2399,
  "ga-arụ": 2400,
  "ọbụghị": 2401,
  "2019 ,": 2402,
  "na-aṅụ": 2403,
  "nghọta": 2404,
  "ịhụna": 2405,
  "Okoro": 2406,
  "Demo": 2407,
  "ọnụọgụgụ": 2408,
  "nturuugo": 2409,
  "Facebo": 2410,
  "Commi": 2411,
  "Shehu": 2412,
  "Fatoyinbo": 2413,
  "AFCON": 2414,
  "aghụghọ": 2415,
  "Lu": 2416,
  "vs": 2417,
  "gri": 2418,
  "jikwa": 2419,
  "chite": 2420,
  "zọọ": 2421,
  "kra": 2422,
  "wanye": 2423,
  "ga-asị": 2424,
  "“ a": 2425,
  "egwu ,": 2426,
  "ja ,": 2427,
  "ụmụnna": 2428,
  "nweela": 2429,
  "azụma": 2430,
  "fuo": 2431,
  "ụdịrị": 2432,
  "osika": 2433,
  "ekpere ,": 2434,
  "Rev": 2435,
  "na-amasị": 2436,
  "arịrịọ": 2437,
  " .  \" ọ \"": 2438,
  "megidere": 2439,
  "Timoti": 2440,
  "ep": 2441,
  "AC": 2442,
  "Si": 2443,
  "gal": 2444,
  "sina": 2445,
  "ịkọ": 2446,
  "Dan": 2447,
  "ichi": 2448,
  "ndịda": 2449,
  "4 )": 2450,
  "amadi": 2451,
  "mmekọ": 2452,
  "ịchọ": 2453,
  "agha ,": 2454,
  "( n": 2455,
  "njiri": 2456,
  "ahịa .": 2457,
  "gbochie": 2458,
  "nwaada": 2459,
  "na-echeta": 2460,
  "Nigerian": 2461,
  "na-amaghị": 2462,
  "mwute": 2463,
  "njirimara": 2464,
  "oti": 2465,
  "dozi": 2466,
  "etinye": 2467,
  "mba ,": 2468,
  "nọ .": 2469,
  "kola": 2470,
  "ama .": 2471,
  "puru": 2472,
  "ụbọchị ,": 2473,
  "mmalite": 2474,
  "muel": 2475,
  "nri ,": 2476,
  "ejighị": 2477,
  "ation": 2478,
  "kọwaa": 2479,
  "Peop": 2480,
  "akụn'": 2481,
  "lement": 2482,
  "etinyela": 2483,
  "ọlaedo": 2484,
  "Ebre": 2485,
  "Tottenham": 2486,
  "Samuel": 2487,
  "akụn'ụba": 2488,
  "AN": 2489,
  "bụ .": 2490,
  "Ola": 2491,
  "Ste": 2492,
  "izi": 2493,
  "odo": 2494,
  "nkwụ": 2495,
  "okwute": 2496,
  "gakwara": 2497,
  "aza": 2498,
  "jehova ,": 2499,
  "ọkụ ,": 2500,
  "jizọs .": 2501,
  "gbagburu": 2502,
  "alo": 2503,
  "Agu": 2504,
  "ise ,": 2505,
  "kwadoro": 2506,
  "ọhụrụ .": 2507,
  "ga-enweta": 2508,
  "ghachiri": 2509,
  "tọhapụ": 2510,
  "nọve": 2511,
  "ọnatara": 2512,
  "kwuputara": 2513,
  "Election": 2514,
  "nrụrụaka": 2515,
  "bishọ": 2516,
  "Ahmed": 2517,
  "ekwensu": 2518,
  "Champions": 2519,
  "Japan": 2520,
  "Emmanuel": 2521,
  "Je": 2522,
  "is": 2523,
  "Ce": 2524,
  "3 .": 2525,
  "z .": 2526,
  "ose": 2527,
  "ahụ ?": 2528,
  "na-ewu": 2529,
  "ụzọ ,": 2530,
  "igosi": 2531,
  "anabata": 2532,
  "ọdịmma": 2533,
  "katọrọ": 2534,
  "onyeàmà": 2535,
  "onyeisioche": 2536,
  "Okon": 2537,
  "kpọkuo": 2538,
  "ress": 2539,
  "juun": 2540,
  "Okezie": 2541,
  "amalitela": 2542,
  "Ifeanyi": 2543,
  "Brother": 2544,
  "African": 2545,
  "agbanyeghi": 2546,
  "ọnatarachi": 2547,
  "bishọp": 2548,
  "kana": 2549,
  "mar": 2550,
  "Par": 2551,
  "gere": 2552,
  "Abi": 2553,
  "ụlọ ,": 2554,
  "ssa": 2555,
  "azu": 2556,
  "mmegbu": 2557,
  "kwupụtara": 2558,
  "ụzọ .": 2559,
  "Joe": 2560,
  "chụpụ": 2561,
  "ụtọ ,": 2562,
  "noa": 2563,
  "mechaa": 2564,
  "cia": 2565,
  "Adamu": 2566,
  "um": 2567,
  "-E": 2568,
  "ff": 2569,
  "5 .": 2570,
  "ịara": 2571,
  "ihere": 2572,
  "ọga": 2573,
  "tin": 2574,
  "pti": 2575,
  "wala": 2576,
  "rịcha": 2577,
  "na-emere": 2578,
  "afọ ,": 2579,
  "eje": 2580,
  "na-emepụta": 2581,
  "“ chineke": 2582,
  "nyekwara": 2583,
  "ịgwa": 2584,
  "emeghị": 2585,
  "masịrị": 2586,
  "And": 2587,
  " . ” ,": 2588,
  "ekwesi": 2589,
  "nrite": 2590,
  "ejide": 2591,
  "kilo": 2592,
  "Kano": 2593,
  "dịịrị": 2594,
  "spen": 2595,
  "agwala": 2596,
  "Europe": 2597,
  "eprel": 2598,
  "ee": 2599,
  "gy": 2600,
  "As": 2601,
  "CO": 2602,
  "gana": 2603,
  "Pri": 2604,
  "ote": 2605,
  "zil": 2606,
  "wan": 2607,
  "ga-aka": 2608,
  "kụọ": 2609,
  "doo": 2610,
  "Ali": 2611,
  "Mike": 2612,
  "ncha": 2613,
  "Ogbo": 2614,
  "kwesị": 2615,
  "n'obi": 2616,
  "sele": 2617,
  "kpee": 2618,
  "Ikpe": 2619,
  "daị": 2620,
  "ya .  \" ": 2621,
  "amara": 2622,
  "mili": 2623,
  "idu": 2624,
  "Tho": 2625,
  "ọgara": 2626,
  "lụọ": 2627,
  "ihu .": 2628,
  "jọn": 2629,
  "eju": 2630,
  "hibere": 2631,
  "Wol": 2632,
  "azịza": 2633,
  "Shia": 2634,
  "koria": 2635,
  " ...": 2636,
  "aghọta": 2637,
  "Williams": 2638,
  "England": 2639,
  "ehihie": 2640,
  "Facebook": 2641,
  "bapti": 2642,
  "ọmarịcha": 2643,
  "baptizi": 2644,
  "nkw": 2645,
  "11": 2646,
  "Id": 2647,
  "my": 2648,
  "24": 2649,
  "sere": 2650,
  "na-aba": 2651,
  "lin": 2652,
  "ga-ekwu": 2653,
  "mekwara": 2654,
  "mmechi": 2655,
  "tho": 2656,
  "Bel": 2657,
  "Baba": 2658,
  "na-agbalị": 2659,
  "Job": 2660,
  "ugwu .": 2661,
  "rọshịa": 2662,
  "River": 2663,
  "Obiano": 2664,
  "port": 2665,
  "nabatara": 2666,
  "nnọchite": 2667,
  "ọkpọka": 2668,
  "Borno": 2669,
  "ọgbụ": 2670,
  "Democra": 2671,
  "paradaị": 2672,
  "ọgbụgba": 2673,
  "50": 2674,
  "baa": 2675,
  "leta": 2676,
  "ka \"": 2677,
  "nel": 2678,
  "mgbu": 2679,
  "lian": 2680,
  "kọọrọ": 2681,
  "ude": 2682,
  "mmanwụ": 2683,
  "amadị": 2684,
  "anọ .": 2685,
  "ememme": 2686,
  "ndụ ,": 2687,
  "ndịozi": 2688,
  "ukwu ,": 2689,
  "ịjụ": 2690,
  "asaala": 2691,
  "egburu": 2692,
  "jupụtara": 2693,
  "jeru": 2694,
  "mebiri": 2695,
  "fran": 2696,
  "bọje": 2697,
  "alụkwaghị": 2698,
  "Yemi": 2699,
  "ot": 2700,
  "Do": 2701,
  "29": 2702,
  "7 ,": 2703,
  "car": 2704,
  "Sere": 2705,
  "arba": 2706,
  "iti": 2707,
  "kasị": 2708,
  "Sala": 2709,
  "igbe": 2710,
  "ọwa": 2711,
  "uni": 2712,
  "na-egwu": 2713,
  "bụ :": 2714,
  "ya :": 2715,
  "kwetara": 2716,
  "kpọpụta": 2717,
  "obodo ,": 2718,
  "tom": 2719,
  "ọgbara": 2720,
  "ụka .": 2721,
  "mechiri": 2722,
  "ogogo": 2723,
  "na-amụta": 2724,
  "Cong": 2725,
  "na-anọchite": 2726,
  "  \" n' \"": 2727,
  "Commission": 2728,
  "Clement": 2729,
  "Ikpeazu": 2730,
  "Idris": 2731,
  "jerusele": 2732,
  "Serena": 2733,
  "Congress": 2734,
  "Sy": 2735,
  "pere": 2736,
  "ba ,": 2737,
  "gbapụ": 2738,
  "ang": 2739,
  "acha": 2740,
  "abụbụ": 2741,
  "na-ese": 2742,
  "beri": 2743,
  "udu": 2744,
  "emee": 2745,
  "nso .": 2746,
  "Onwu": 2747,
  "na-ekwu .": 2748,
  "ịdọ": 2749,
  "gbalị": 2750,
  "win": 2751,
  "ịkwado": 2752,
  "God": 2753,
  "Sera": 2754,
  "Victor": 2755,
  "Igbokwe": 2756,
  "kọmpu": 2757,
  "Brazil": 2758,
  "ebumn'obi": 2759,
  "Em": 2760,
  "AR": 2761,
  "ịna": 2762,
  "w .": 2763,
  "anyụ": 2764,
  "tụọ": 2765,
  "gbala": 2766,
  "ble": 2767,
  "chi ,": 2768,
  "chee": 2769,
  "ụlọ .": 2770,
  "sola": 2771,
  "nọ ,": 2772,
  "ha ?": 2773,
  "mepụta": 2774,
  "dun": 2775,
  "febụ": 2776,
  "eme .": 2777,
  "ọchịchị ,": 2778,
  "asaa .": 2779,
  "vel": 2780,
  "nce": 2781,
  "ice": 2782,
  "zịkwa": 2783,
  "ebube": 2784,
  "Big": 2785,
  "Chibo": 2786,
  "ill": 2787,
  "198": 2788,
  "na-agbanyeghị": 2789,
  "mezuru": 2790,
  "laghachi": 2791,
  "India": 2792,
  "deine": 2793,
  "Kenya": 2794,
  "Nnamdi": 2795,
  "abuja .": 2796,
  "sọọsọ": 2797,
  "ịhụnanya": 2798,
  "Okonkwo": 2799,
  "kilomita": 2800,
  "febụwarị": 2801,
  "ght": 2802,
  "UN": 2803,
  "h ,": 2804,
  "si ,": 2805,
  "nkwu": 2806,
  "ịnwụ": 2807,
  "na-ezu": 2808,
  "kpata": 2809,
  "3 )": 2810,
  "anọghị": 2811,
  "“ o": 2812,
  "ọbụrụ": 2813,
  "kepu": 2814,
  "imi": 2815,
  "2014": 2816,
  "Cor": 2817,
  "ell": 2818,
  "na-ekwusa": 2819,
  "azụ .": 2820,
  "nri .": 2821,
  "mgbaghara": 2822,
  "awakpo": 2823,
  "tụbeghị": 2824,
  "kiti": 2825,
  "Cos": 2826,
  "ọdịnihu .": 2827,
  "ga-akpọlite": 2828,
  "Rehab": 2829,
  "  \" anyị \"": 2830,
  "pasentị": 2831,
  "  \" , \"": 2832,
  "Ibiam": 2833,
  "Johnson": 2834,
  "adịgboroja": 2835,
  "Okorocha": 2836,
  "mbịara": 2837,
  "Garba": 2838,
  "NL": 2839,
  "FF": 2840,
  "6 .": 2841,
  "gazi": 2842,
  "na-asị": 2843,
  "wetara": 2844,
  "rịtara": 2845,
  "Ugwu": 2846,
  "ezi .": 2847,
  "kpaa": 2848,
  "oke .": 2849,
  "na-eje": 2850,
  "amaala": 2851,
  "ntị .": 2852,
  "rutere": 2853,
  "kwasịrị": 2854,
  "ga-ebido": 2855,
  "ghachị": 2856,
  "okiri": 2857,
  "praị": 2858,
  "ịgbanwe": 2859,
  "196": 2860,
  "ekpere .": 2861,
  "Davi": 2862,
  "-anyanwụ": 2863,
  "Alla": 2864,
  "akpọọ": 2865,
  "ford": 2866,
  "nhazi": 2867,
  "2023": 2868,
  "gency": 2869,
  "Adichie": 2870,
  "iche-iche": 2871,
  "osikapa": 2872,
  "Ku": 2873,
  "Char": 2874,
  "bru": 2875,
  "kwaara": 2876,
  "kọb": 2877,
  "den": 2878,
  "gbatara": 2879,
  "kpebi": 2880,
  "5 )": 2881,
  "na-eme ,": 2882,
  "amam": 2883,
  "igbo ?": 2884,
  "bịa .": 2885,
  "depụtara": 2886,
  "emepụta": 2887,
  "nsonso": 2888,
  "ga-emecha": 2889,
  "Omo": 2890,
  "anwụọ": 2891,
  "ọjọọ ,": 2892,
  "ven": 2893,
  "ga-etinye": 2894,
  "na-echegbu": 2895,
  "kraịst .": 2896,
  "na-akpata": 2897,
  "Okoye": 2898,
  "cial": 2899,
  "nleta": 2900,
  "bịaru": 2901,
  "Joseph": 2902,
  "blic": 2903,
  "gbalịa": 2904,
  "Bukola": 2905,
  "nọvemba": 2906,
  "jekọb": 2907,
  "Oj": 2908,
  "An": 2909,
  "DC": 2910,
  "9 .": 2911,
  "na .": 2912,
  "Mer": 2913,
  "8 ,": 2914,
  "9 ,": 2915,
  "ji ,": 2916,
  "gasị": 2917,
  "ọsị": 2918,
  "ane": 2919,
  "Uche": 2920,
  "chaala": 2921,
  "ogbo": 2922,
  "merenụ": 2923,
  "mbo": 2924,
  "ilu": 2925,
  "gre": 2926,
  "ako": 2927,
  "gwakwara": 2928,
  "na-agbara": 2929,
  "ọbụla ,": 2930,
  "ekwesị": 2931,
  "tain": 2932,
  "chụọ": 2933,
  "Osu": 2934,
  "Ang": 2935,
  "197": 2936,
  "ịhapụ": 2937,
  "Union": 2938,
  "All": 2939,
  "Inno": 2940,
  "nwaagbọghọ": 2941,
  "ịlaị": 2942,
  "Udemba": 2943,
  "esem": 2944,
  "Ukra": 2945,
  "Ebreham": 2946,
  "Cent": 2947,
  "kọmputa": 2948,
  "NLC": 2949,
  "Ukraine": 2950,
  "og": 2951,
  "26": 2952,
  "o .": 2953,
  "0 .": 2954,
  "nrụ": 2955,
  "ba .": 2956,
  "teghị": 2957,
  "alakụ": 2958,
  "sokwa": 2959,
  "ikwe": 2960,
  "dise": 2961,
  "gị ?": 2962,
  "7 )": 2963,
  "na-emegbu": 2964,
  "anọ ,": 2965,
  "kpọm": 2966,
  "emebi": 2967,
  "ụka ,": 2968,
  "na-achụ": 2969,
  "ga-eru": 2970,
  "vice": 2971,
  "ọsọ .": 2972,
  "Nation": 2973,
  "kpọkuru": 2974,
  "wood": 2975,
  "cis": 2976,
  "olly": 2977,
  "Bio": 2978,
  "agbataobi": 2979,
  "gafee": 2980,
  "na-ewute": 2981,
  "fero": 2982,
  "London": 2983,
  "Wolves": 2984,
  "Allah": 2985,
  "ollywood": 2986,
  "akp": 2987,
  "ct": 2988,
  "dy": 2989,
  "Ume": 2990,
  "ahụghị": 2991,
  "Ban": 2992,
  "ga-egbu": 2993,
  "nwere .": 2994,
  "koro": 2995,
  "bụla .": 2996,
  "bụla ,": 2997,
  "2020": 2998,
  "mbara": 2999,
  "ozi .": 3000,
  "elu .": 3001,
  "zor": 3002,
  "mmiri .": 3003,
  "ekwela": 3004,
  "ace": 3005,
  "ọkaibe": 3006,
  "machiri": 3007,
  "Day": 3008,
  "ibute": 3009,
  "gụnyere :": 3010,
  "ahụhụ .": 3011,
  "na-efegharị": 3012,
  "ffi": 3013,
  "gbasaara": 3014,
  "ehab": 3015,
  "mezuo": 3016,
  "apụtaghị": 3017,
  "Maduka": 3018,
  "  \" nke \"": 3019,
  "mmerụ": 3020,
  "septemba": 3021,
  "akatọọla": 3022,
  "Party": 3023,
  "ọgaranya": 3024,
  "hibru": 3025,
  "aị": 3026,
  "nwo": 3027,
  "hr": 3028,
  "Aw": 3029,
  "Ed": 3030,
  "IS": 3031,
  "0 ,": 3032,
  "ịme": 3033,
  "tta": 3034,
  "sikwa": 3035,
  "San": 3036,
  "chebe": 3037,
  "jọrọ": 3038,
  "binyere": 3039,
  "Bre": 3040,
  "mmepụta": 3041,
  "ego ,": 3042,
  "kpuru": 3043,
  "wutere": 3044,
  "ahapụ": 3045,
  "ga-eme .": 3046,
  "chọrọ .": 3047,
  "ọnwụ ,": 3048,
  "eburu": 3049,
  "nchụ": 3050,
  "ngwaahịa": 3051,
  "nno": 3052,
  "Zam": 3053,
  "Dap": 3054,
  "bekee .": 3055,
  "ọcha ,": 3056,
  "ọcha .": 3057,
  "Akanu": 3058,
  "kris": 3059,
  "lọghachi": 3060,
  "ikpeazụ ,": 3061,
  "Sene": 3062,
  "Mini": 3063,
  "metụta": 3064,
  "Femi": 3065,
  "Guine": 3066,
  "ejirila": 3067,
  "ọganihu": 3068,
  "Democratic": 3069,
  "okirikiri": 3070,
  "Rohr": 3071,
  "Senegal": 3072,
  "ZA": 3073,
  "IV": 3074,
  "l .": 3075,
  "bụbụ": 3076,
  "nsi": 3077,
  "ji .": 3078,
  "len": 3079,
  "kwụnye": 3080,
  "Tra": 3081,
  "Cro": 3082,
  "bute": 3083,
  "nwere ,": 3084,
  "ịnụ": 3085,
  "abụ ,": 3086,
  "anyị ?": 3087,
  "Onu": 3088,
  "wepụta": 3089,
  "na-edu": 3090,
  "chụrụ": 3091,
  "ọka ,": 3092,
  "eze ,": 3093,
  "meru": 3094,
  "chael": 3095,
  "mejọ": 3096,
  "adọ": 3097,
  "ụlọahịa": 3098,
  "zụọ": 3099,
  "gbawara": 3100,
  "Ribe": 3101,
  "eruola": 3102,
  "Uzo": 3103,
  "echeta": 3104,
  "izugbe": 3105,
  "okpuruọchịchị": 3106,
  "- 3": 3107,
  "tigbuo": 3108,
  "Univer": 3109,
  "legọs .": 3110,
  "shop": 3111,
  "Umar": 3112,
  "Cup": 3113,
  "Commonwe": 3114,
  "akparala": 3115,
  "Kanu": 3116,
  "nkwarị": 3117,
  "Chibok": 3118,
  "Davido": 3119,
  "COZA": 3120,
  "Commonwealth": 3121,
  "nz": 3122,
  "ọt": 3123,
  "Fo": 3124,
  "fara": 3125,
  "Eji": 3126,
  "nkea": 3127,
  "ban": 3128,
  "ghị .": 3129,
  "weta": 3130,
  "lawa": 3131,
  "dina": 3132,
  "Aku": 3133,
  "eria": 3134,
  "nya .": 3135,
  "midi": 3136,
  "Cana": 3137,
  "zitere": 3138,
  "pho": 3139,
  "stle": 3140,
  "Mor": 3141,
  "teela": 3142,
  "dimkpa": 3143,
  "ntụnye": 3144,
  "Ogu": 3145,
  "bọọlụ .": 3146,
  "dozie": 3147,
  "ga-egosi": 3148,
  "amerịka ,": 3149,
  "kọwaara": 3150,
  "udo .": 3151,
  " ! ”": 3152,
  "urch": 3153,
  "gafere": 3154,
  "Tim": 3155,
  "na-akwanyere": 3156,
  "ASU": 3157,
  "Port ": 3158,
  "na-agabiga": 3159,
  "chool": 3160,
  "kwesili": 3161,
  "idemili": 3162,
  "akpọọla": 3163,
  "amamihe": 3164,
  "Francis": 3165,
  "Ribeka": 3166,
  "Nọt": 3167,
  "Port Harcourt": 3168,
  "nch": 3169,
  "21": 3170,
  "haa": 3171,
  "zite": 3172,
  "chekwa": 3173,
  "onyenwe": 3174,
  "nali": 3175,
  "del": 3176,
  "Ani": 3177,
  "“ mgbe": 3178,
  "na-asọ": 3179,
  "ọbịa": 3180,
  "nze": 3181,
  "ṅụrụ": 3182,
  "elu ,": 3183,
  "nsụ": 3184,
  "Ngi": 3185,
  "ntụliaka .": 3186,
  "na-efu": 3187,
  "Cou": 3188,
  "May": 3189,
  "Col": 3190,
  "nwebeghị": 3191,
  "jikọrọ": 3192,
  "not": 3193,
  "ịchọpụta": 3194,
  "East": 3195,
  "njọ .": 3196,
  "Miye": 3197,
  "kwazịrị": 3198,
  " .  \" anyị \"": 3199,
  "pasent": 3200,
  "aṅụrị": 3201,
  "  \" ndị \"": 3202,
  "  \" ihe \"": 3203,
  "Ethi": 3204,
  "Christian": 3205,
  "grik": 3206,
  "Leice": 3207,
  "esemokwu": 3208,
  "Ezekwesili": 3209,
  "Ngige": 3210,
  "Miyetti": 3211,
  "Leicester": 3212,
  "Cy": 3213,
  "tt": 3214,
  "Pu": 3215,
  "ka ,": 3216,
  "kla": 3217,
  "ịnye": 3218,
  "tek": 3219,
  "kele": 3220,
  "nsị": 3221,
  "na-apụ": 3222,
  "dọrọ": 3223,
  "kewa": 3224,
  "gbawa": 3225,
  "Fre": 3226,
  "oge .": 3227,
  "arịọ": 3228,
  "pute": 3229,
  "mic": 3230,
  "pụtara .": 3231,
  "ozigbo": 3232,
  "( N": 3233,
  "Imo": 3234,
  "dere ,": 3235,
  "ebi ,": 3236,
  "kwuburu": 3237,
  "chịburu": 3238,
  "ngwaagha": 3239,
  "zọgbuo": 3240,
  "Iran": 3241,
  "mkpọrọ .": 3242,
  "eluigwe ,": 3243,
  "asataghị": 3244,
  "kpebie": 3245,
  "Nwodo": 3246,
  "nwụọ .": 3247,
  "kpochapụ": 3248,
  "gwoju": 3249,
  "nwatakịrị": 3250,
  "ṅomi": 3251,
  "kụziiri": 3252,
  "gbalịrị": 3253,
  "Ojukwu": 3254,
  "Mercy": 3255,
  "ụgh": 3256,
  "om": 3257,
  "ef": 3258,
  "ID": 3259,
  "En": 3260,
  "AF": 3261,
  "nc": 3262,
  "Va": 3263,
  "shu": 3264,
  "7 .": 3265,
  "Her": 3266,
  "ahụla": 3267,
  "rite": 3268,
  "igba": 3269,
  "leke": 3270,
  "gola": 3271,
  "ọfọ": 3272,
  "Gra": 3273,
  "matara": 3274,
  "nin": 3275,
  "akwọ": 3276,
  "Ant": 3277,
  "abụ )": 3278,
  "owu": 3279,
  "hia": 3280,
  "agafe": 3281,
  "nahụrụ": 3282,
  "kpachara": 3283,
  "kpamkpa": 3284,
  "anụrị": 3285,
  "na-adọ": 3286,
  "ga-amata": 3287,
  "ganị": 3288,
  "ahịa ,": 3289,
  "zụta": 3290,
  "nụzụ": 3291,
  "na-ekiri": 3292,
  "ikiri": 3293,
  "kolo": 3294,
  "ọhụrụ ,": 3295,
  "oly": 3296,
  "nwụrụ ,": 3297,
  "ugwu ,": 3298,
  "nkọwa": 3299,
  "nsọ .": 3300,
  "ga-amụta": 3301,
  "Indi": 3302,
  "ọtọ .": 3303,
  "akpụkpọ": 3304,
  "King": 3305,
  "nlekọta": 3306,
  "2017 .": 3307,
  "isonye": 3308,
  "njedebe": 3309,
  "ọṅụṅụ": 3310,
  "merụọ": 3311,
  "  \" na \"": 3312,
  "IMN": 3313,
  "Shiite": 3314,
  "iberi": 3315,
  "SAR": 3316,
  "alakụba": 3317,
  "Service": 3318,
  "Dapchi": 3319,
  "HIV": 3320,
  "Bishop": 3321,
  "Ethiop": 3322,
  "teknụzụ": 3323,
  "SARS": 3324,
  "Os": 3325,
  "u ,": 3326,
  "5 ,": 3327,
  "gar": 3328,
  "ghere": 3329,
  "Ita": 3330,
  "-onye": 3331,
  "ọtụ": 3332,
  "zik": 3333,
  "Nwan": 3334,
  "e \"": 3335,
  "ọrọla": 3336,
  "nnwere": 3337,
  "ichekwa": 3338,
  "mon": 3339,
  "uru ,": 3340,
  "gasịrị": 3341,
  "ga-alụ": 3342,
  "Bur": 3343,
  "m . ”": 3344,
  "ihu ,": 3345,
  "ga-emezu": 3346,
  "kpụpụ": 3347,
  "pee": 3348,
  "gunyere": 3349,
  "eziokwu ?": 3350,
  "dabara": 3351,
  "zoro": 3352,
  "illa": 3353,
  "gbakọrọ": 3354,
  "esoro": 3355,
  "ụfụ": 3356,
  "Kogi": 3357,
  "na-abịa .": 3358,
  "ochie .": 3359,
  "asị .": 3360,
  "eluigwe .": 3361,
  "nọchitere": 3362,
  "umeala": 3363,
  "eboro": 3364,
  "bibie": 3365,
  "Frank": 3366,
  "ngwon": 3367,
  "Orji": 3368,
  "Ikechukwu": 3369,
  "Nwachukwu": 3370,
  " .  \" ndị \"": 3371,
  "Benja": 3372,
  "James": 3373,
  "Andre": 3374,
  "Mikel": 3375,
  "magazi": 3376,
  "Agency": 3377,
  "public": 3378,
  "gressi": 3379,
  "Britain": 3380,
  "disemba": 3381,
  "Biodun": 3382,
  "Church": 3383,
  "ASUU": 3384,
  "Dakolo": 3385,
  "ngwongwo": 3386,
  "Ad": 3387,
  "22": 3388,
  "SC": 3389,
  "Bar": 3390,
  "par": 3391,
  "rere": 3392,
  "yat": 3393,
  "mahụ": 3394,
  "chịkọ": 3395,
  "mne": 3396,
  "siiri": 3397,
  "side": 3398,
  "pro": 3399,
  "ga-emere": 3400,
  "' ?": 3401,
  "napụta": 3402,
  "depụta": 3403,
  "na-apụta": 3404,
  "fre": 3405,
  "ịbịa": 3406,
  "ụkwara": 3407,
  "dapụtara": 3408,
  "ement": 3409,
  "ahụ . ”": 3410,
  "kwuo .": 3411,
  "obiọma": 3412,
  "eze .": 3413,
  "hiwere": 3414,
  "ọnwụnwa": 3415,
  "taata": 3416,
  "enugwu .": 3417,
  "nọchiri": 3418,
  "kpọlitere": 3419,
  "Nigeria ,": 3420,
  "akọwa": 3421,
  "atọrọ": 3422,
  "ifo": 3423,
  "njikọ": 3424,
  "Kim": 3425,
  "nkwenye": 3426,
  "ọfụma .": 3427,
  "ga-ebibi": 3428,
  "gram": 3429,
  "People": 3430,
  "kanada": 3431,
  "  \" ka \"": 3432,
  "kọrịtara": 3433,
  "ọwụwa-anyanwụ": 3434,
  "Peace": 3435,
  "Michael": 3436,
  "penali": 3437,
  "Gernot": 3438,
  "magazin": 3439,
  "golayat": 3440,
  "penaliti": 3441,
  "Ex": 3442,
  "4 ,": 3443,
  "tụla": 3444,
  "onye \"": 3445,
  "anwa": 3446,
  "Eli": 3447,
  "ga-azọ": 3448,
  "lu ,": 3449,
  "di ,": 3450,
  "chineke ?": 3451,
  "oke ,": 3452,
  "mpịa": 3453,
  "“ ka": 3454,
  "nwaanyị ,": 3455,
  "Ndu": 3456,
  "chọtara": 3457,
  "chaa ,": 3458,
  "stri": 3459,
  "iju": 3460,
  "zịkwara": 3461,
  "gọzie": 3462,
  "enugwu-": 3463,
  "ụlọikpe .": 3464,
  "gaasị": 3465,
  "500": 3466,
  "nwụrụ .": 3467,
  "ga-aza": 3468,
  "nsọ ,": 3469,
  "amị": 3470,
  "tanka": 3471,
  "efere": 3472,
  "Secon": 3473,
  "opment": 3474,
  "2018 .": 3475,
  "belata": 3476,
  "aja .": 3477,
  "Soyin": 3478,
  "fraịde .": 3479,
  "jijiji": 3480,
  "Geor": 3481,
  "Kore": 3482,
  "Abdul": 3483,
  "emeriela": 3484,
  "socia": 3485,
  "Universi": 3486,
  "Zamfara": 3487,
  "Progressi": 3488,
  "velopment": 3489,
  "Associa": 3490,
  "Association": 3491,
  "ekp": 3492,
  "Ni": 3493,
  "FI": 3494,
  "ger": 3495,
  "pha": 3496,
  "here": 3497,
  "lan": 3498,
  "sime": 3499,
  "Nji": 3500,
  "ahụrụ": 3501,
  "tụta": 3502,
  "ịsị": 3503,
  "nkọ": 3504,
  "Tan": 3505,
  "mmachi": 3506,
  "nwete": 3507,
  "nesi": 3508,
  "Mala": 3509,
  "yanwa": 3510,
  "Ogbu": 3511,
  "iri .": 3512,
  "way": 3513,
  "lọtọ": 3514,
  "merela": 3515,
  "gwọọ": 3516,
  "gwuru": 3517,
  "ime ,": 3518,
  "okwe": 3519,
  "ọkpa": 3520,
  "9 )": 3521,
  "Odu": 3522,
  "too": 3523,
  "cto": 3524,
  "buuru": 3525,
  "hole": 3526,
  "rist": 3527,
  "aria": 3528,
  "mana \"": 3529,
  "zigara": 3530,
  "( A": 3531,
  "nnaya": 3532,
  "eld": 3533,
  "elsa": 3534,
  "mkpagbu": 3535,
  "mmiri ,": 3536,
  "iwe .": 3537,
  "ino": 3538,
  "ghapụ": 3539,
  "mechie": 3540,
  "Musa": 3541,
  "adaala": 3542,
  "inyocha": 3543,
  "isii ,": 3544,
  "enweela": 3545,
  "na-emegide": 3546,
  "atọhapụ": 3547,
  "tive": 3548,
  "ọkpụkpụ": 3549,
  "alụmdi": 3550,
  "kparịta": 3551,
  "na-eweta": 3552,
  "edeme": 3553,
  "gbatagbata": 3554,
  "na-ahazi": 3555,
  "League .": 3556,
  "ntakịrị": 3557,
  "ịkụziri": 3558,
  "roup": 3559,
  "Oluse": 3560,
  "Anaje": 3561,
  "Mz .": 3562,
  "Catho": 3563,
  "Bank": 3564,
  "castle": 3565,
  "Ethiopia": 3566,
  "Development": 3567,
  "ọkọlọtọ": 3568,
  "Bayelsa": 3569,
  "Catholic": 3570,
  "Pi": 3571,
  "Sp": 3572,
  "-N": 3573,
  "Yu": 3574,
  "Har": 3575,
  "Car": 3576,
  "ndịa": 3577,
  "rus": 3578,
  "kwukwa": 3579,
  "dụọ": 3580,
  "Chan": 3581,
  "wela": 3582,
  "buo": 3583,
  "kwuru :": 3584,
  "imeụlọ": 3585,
  "nọkwa": 3586,
  "jee": 3587,
  "jenụ": 3588,
  "kuzi": 3589,
  "ga-agwa": 3590,
  "mepụtara": 3591,
  "iwu .": 3592,
  "ikpe .": 3593,
  "emeka": 3594,
  "mber": 3595,
  "kwutere": 3596,
  "ozi ,": 3597,
  "iwere": 3598,
  "rael": 3599,
  "jọgburu": 3600,
  "Aja": 3601,
  "iwepụ": 3602,
  "guri": 3603,
  "cent": 3604,
  "ụzụ": 3605,
  "anambra .": 3606,
  "ruola": 3607,
  "nwụchie": 3608,
  "hazie": 3609,
  "rụtụrụ": 3610,
  "akpata": 3611,
  "echefu": 3612,
  "Kalu": 3613,
  "sụgharịa": 3614,
  "nwụọ ,": 3615,
  "ozugbo .": 3616,
  "ntụkwasị": 3617,
  "iteghe": 3618,
  "ọpị": 3619,
  "Good": 3620,
  "guzobe": 3621,
  "Sudan": 3622,
  "ebidola": 3623,
  "adọọla": 3624,
  "Alexand": 3625,
  "Yoru": 3626,
  "Sheka": 3627,
  "  \" o \"": 3628,
  "Libya": 3629,
  "Thomas": 3630,
  "paradaịs .": 3631,
  "jeruselem": 3632,
  "Busola": 3633,
  "Charles": 3634,
  "kpọmkwe": 3635,
  "Nations": 3636,
  "Canada": 3637,
  "edemede": 3638,
  "Olusegun": 3639,
  "jenụwarị": 3640,
  "Israel": 3641,
  "PC": 3642,
  "TV": 3643,
  "ern": 3644,
  "gas": 3645,
  "ọsi": 3646,
  "rin": 3647,
  "ukwa": 3648,
  "van": 3649,
  "Wike": 3650,
  "m :": 3651,
  "nụ .": 3652,
  "nnụ": 3653,
  "ege": 3654,
  "Are": 3655,
  "6 )": 3656,
  "’ )": 3657,
  "na-emebi": 3658,
  "chọta": 3659,
  "gafe": 3660,
  "gọzi": 3661,
  "ụbọchị .": 3662,
  "Pari": 3663,
  "ịsụ": 3664,
  "mkpa :": 3665,
  "emepe": 3666,
  "adịrị": 3667,
  "zịghị": 3668,
  "zụga": 3669,
  "nweekwa": 3670,
  "akwa .": 3671,
  "kụziri": 3672,
  "stan": 3673,
  "ration": 3674,
  "Ronal": 3675,
  "ṅụọ": 3676,
  "isii .": 3677,
  "ọgụ .": 3678,
  "achọpụta": 3679,
  "na-aghọta": 3680,
  "ochie ,": 3681,
  "ahịrị": 3682,
  "essi": 3683,
  "siriak": 3684,
  "Nnabu": 3685,
  "tiusde .": 3686,
  "2015 .": 3687,
  "mbuze": 3688,
  "Austra": 3689,
  "dibia": 3690,
  "na-ekele": 3691,
  "Germa": 3692,
  " .  \" o \"": 3693,
  "Airport": 3694,
  "nnọchiteanya": 3695,
  "Ugwuanyi": 3696,
  "praịm": 3697,
  "shiom": 3698,
  "mpịakọta": 3699,
  "Soyinka": 3700,
  "Newcastle": 3701,
  "shiomhole": 3702,
  "ọs": 3703,
  "nma": 3704,
  "8 .": 3705,
  "ke ,": 3706,
  "Tara": 3707,
  "la ,": 3708,
  "gad": 3709,
  "ọpụ": 3710,
  "ha \"": 3711,
  "- \"": 3712,
  "lli": 3713,
  "wa ,": 3714,
  "chaara": 3715,
  "imere": 3716,
  "natara": 3717,
  "obo": 3718,
  "ọkwọ": 3719,
  "int": 3720,
  "ga-agụ": 3721,
  "wuru": 3722,
  "larị": 3723,
  "bịa ,": 3724,
  "gbakwara": 3725,
  "agaala": 3726,
  "agadi": 3727,
  "otuto": 3728,
  "Mah": 3729,
  "fọdụrụ": 3730,
  "oziọma": 3731,
  "anya . ”": 3732,
  "For": 3733,
  "ork": 3734,
  "liela": 3735,
  "abata": 3736,
  "kọpa": 3737,
  "arịọla": 3738,
  "mmefu": 3739,
  "Benu": 3740,
  "olo": 3741,
  "na-aga ,": 3742,
  "ọchụ": 3743,
  "“ unu": 3744,
  "enugwu ,": 3745,
  "Gen": 3746,
  "ikpere": 3747,
  "na-aza": 3748,
  "enyocha": 3749,
  "na-echekwa": 3750,
  "kpọtụrụ": 3751,
  "asatọ ,": 3752,
  "Bori": 3753,
  "Sau": 3754,
  "apụtala": 3755,
  "Chad": 3756,
  "echiche .": 3757,
  "oyibo": 3758,
  "ijipt .": 3759,
  "twitter": 3760,
  "Haru": 3761,
  "1914": 3762,
  "phen": 3763,
  "juputara": 3764,
  "ọkpụrụ": 3765,
  "mgbidi": 3766,
  "agbagbuola": 3767,
  "apụghị": 3768,
  "Federal": 3769,
  "Abdulla": 3770,
  "Chioma": 3771,
  "________": 3772,
  "biko ,": 3773,
  "azụmahịa": 3774,
  "Egy": 3775,
  "Maidu": 3776,
  "Rivers": 3777,
  "Communi": 3778,
  "Jane": 3779,
  "Central": 3780,
  "Nollywood": 3781,
  "School": 3782,
  "nwụnahụrụ": 3783,
  "Benjamin": 3784,
  "ntara": 3785,
  "Shekau": 3786,
  "Stephen": 3787,
  "Egypt": 3788,
  "Maiduguri": 3789,
  "ntaramahụ": 3790,
  "ntaramahụhụ": 3791,
  "sho": 3792,
  "PS": 3793,
  "CB": 3794,
  "xi": 3795,
  "era": 3796,
  "o ,": 3797,
  " . ,": 3798,
  "laz": 3799,
  "nyekwa": 3800,
  "let": 3801,
  "bụ \"": 3802,
  "chel": 3803,
  "mesa": 3804,
  "Ibo": 3805,
  "imebi": 3806,
  "ga-ekwe": 3807,
  "bulu": 3808,
  "sekọ": 3809,
  "ezina": 3810,
  "ụkpa": 3811,
  "mma ?": 3812,
  "nuche": 3813,
  " . )": 3814,
  "leri": 3815,
  "duru": 3816,
  "chọghị": 3817,
  "nwuru": 3818,
  "nwoke ,": 3819,
  "nwoke .": 3820,
  "nweghịkwa": 3821,
  "onyeisiala .": 3822,
  "ndị ;": 3823,
  "ya ;": 3824,
  "Sal": 3825,
  "eral": 3826,
  "ọlị": 3827,
  "azụ ,": 3828,
  "ebibi": 3829,
  "arebi": 3830,
  "ous": 3831,
  "akwa ,": 3832,
  "sọnde": 3833,
  "stal": 3834,
  "adaba": 3835,
  "na-ezo": 3836,
  "400": 3837,
  "afrịka ,": 3838,
  "Ameri": 3839,
  "ding": 3840,
  "nkwanye": 3841,
  "rans": 3842,
  "asatọ .": 3843,
  "Lai": 3844,
  "amachiela": 3845,
  "ịdịna": 3846,
  "alaghachi": 3847,
  "lack": 3848,
  "na-erubere": 3849,
  "echeghị": 3850,
  "Econ": 3851,
  "ohi ,": 3852,
  "mbuli": 3853,
  "mbilite": 3854,
  "egosila": 3855,
  "ejidela": 3856,
  "Allian": 3857,
  "Nyako": 3858,
  "Innoson": 3859,
  "ịlaịja": 3860,
  "ncil": 3861,
  "ahia": 3862,
  "Republic": 3863,
  "University": 3864,
  "Group": 3865,
  "Oshiomhole": 3866,
  "Timgad": 3867,
  "Saudi": 3868,
  "Abdullahi": 3869,
  "lazarọ": 3870,
  "arebia": 3871,
  "Alliance": 3872,
  "at": 3873,
  "os": 3874,
  "Qu": 3875,
  "ks": 3876,
  "IC": 3877,
  "t .": 3878,
  "ser": 3879,
  "nahụ": 3880,
  "brụ": 3881,
  "tie": 3882,
  "te .": 3883,
  "chịa": 3884,
  "nes": 3885,
  "sala": 3886,
  "nụ ,": 3887,
  "na-asa": 3888,
  "ga-anwụ": 3889,
  "hobi": 3890,
  "bunyere": 3891,
  "ga-ada": 3892,
  "dada": 3893,
  "kwuru ?": 3894,
  "ture": 3895,
  "P )": 3896,
  "kuru": 3897,
  "ịna-eme": 3898,
  "a .  \" ": 3899,
  "igbochi": 3900,
  "“ e": 3901,
  "Mana": 3902,
  "agbala": 3903,
  "agbasa": 3904,
  "nyụrụ": 3905,
  "sụrụ": 3906,
  "ston": 3907,
  "sty": 3908,
  "mana ,": 3909,
  "ha . ”": 3910,
  "ikpo": 3911,
  "mee ,": 3912,
  "asaa ,": 3913,
  "chara ,": 3914,
  "na-akpụ": 3915,
  "inji": 3916,
  "adị .": 3917,
  "na-aga .": 3918,
  "chụpụrụ": 3919,
  "awara": 3920,
  "Mou": 3921,
  "Mada": 3922,
  "ezo": 3923,
  "ịza": 3924,
  "kno": 3925,
  "ga-ahapụ": 3926,
  "ogoogo": 3927,
  "enop": 3928,
  "Insta": 3929,
  "ịhọpụta": 3930,
  "achọpụtala": 3931,
  "izrel .": 3932,
  "achụọla": 3933,
  "bụrụgodị": 3934,
  "ịtụkwasị": 3935,
  "ship": 3936,
  "ụmụokorobịa": 3937,
  "na-ekwesịghị": 3938,
  "enwetala": 3939,
  "akparama": 3940,
  "Mbaise": 3941,
  "Obama": 3942,
  "otele": 3943,
  "nwaamadị": 3944,
  "Guinea": 3945,
  "mgbakwụnye": 3946,
  "Benin": 3947,
  "kwekọrịtara": 3948,
  "George": 3949,
  "There": 3950,
  "Bayern": 3951,
  "Ronaldo": 3952,
  "ọpụpụ": 3953,
  "  \" - \"": 3954,
  "ọkpụrụkpụ": 3955,
  "Mexi": 3956,
  "Economi": 3957,
  "Council": 3958,
  "febrụ": 3959,
  "enophobi": 3960,
  "Mexico": 3961,
  "febrụwarị": 3962,
  "id": 3963,
  "At": 3964,
  "CN": 3965,
  "madị": 3966,
  "Kha": 3967,
  "Uga": 3968,
  "Cri": 3969,
  "le ,": 3970,
  "na-edo": 3971,
  "mụwa": 3972,
  "ron": 3973,
  "gani": 3974,
  "ga-atụ": 3975,
  "ga-ata": 3976,
  "lege": 3977,
  "ọzọkwa": 3978,
  "di .": 3979,
  "Odi": 3980,
  "pụta ,": 3981,
  "8 )": 3982,
  "ama ,": 3983,
  "2013": 3984,
  "na-ewere": 3985,
  "ịgbara": 3986,
  "gbachara": 3987,
  "ga-emeli": 3988,
  "ga-emekwa": 3989,
  "kpọlite": 3990,
  "anwu": 3991,
  "abacha": 3992,
  "arụsị": 3993,
  "You": 3994,
  "sị :  \" ": 3995,
  "olution": 3996,
  "visa": 3997,
  "nwedịrị": 3998,
  "Gran": 3999,
  "ezughị": 4000,
  "Oye": 4001,
  "latị": 4002,
  "Alg": 4003,
  "ikpeazụ .": 4004,
  "echiche ,": 4005,
  "Sunda": 4006,
  "ekpebi": 4007,
  "Chimama": 4008,
  "ụra ,": 4009,
  "ọnịcha ,": 4010,
  "Pope": 4011,
  "ataala": 4012,
  "na-amị": 4013,
  "egbochi": 4014,
  "Power": 4015,
  "Ogun": 4016,
  "Isla": 4017,
  "mkpọtụ": 4018,
  "ewerela": 4019,
  "ntutu": 4020,
  "European": 4021,
  "Ortom": 4022,
  "FIFA": 4023,
  "Christ": 4024,
  "dayọsi": 4025,
  "wezụga": 4026,
  "Boris": 4027,
  "Haruna": 4028,
  "Tekno": 4029,
  "Theresa": 4030,
  "Xenophobi": 4031,
  "Revolution": 4032,
  "Chimamanda": 4033,
  "igh": 4034,
  "AM": 4035,
  "Nu": 4036,
  "OW": 4037,
  "r .": 4038,
  "ket": 4039,
  "Nke": 4040,
  "Zara": 4041,
  "ta ,": 4042,
  "dụrụ": 4043,
  "kwute": 4044,
  "rute": 4045,
  "lekwa": 4046,
  "bi .": 4047,
  "jizi": 4048,
  "masị": 4049,
  "kọba": 4050,
  "ora": 4051,
  "ịwa": 4052,
  "Ode": 4053,
  "sa ,": 4054,
  "saị": 4055,
  "Ndi": 4056,
  "ya  \" ": 4057,
  "sị  \" ": 4058,
  "kpam": 4059,
  "anya ?": 4060,
  "dịka \"": 4061,
  "ngụ": 4062,
  "akụkọ \"": 4063,
  "’ ”": 4064,
  "ọchịchọ": 4065,
  "chọkwara": 4066,
  "iwu ,": 4067,
  "emezu": 4068,
  "agbanwe": 4069,
  "nya ,": 4070,
  "ekpo": 4071,
  "org": 4072,
  "Bal": 4073,
  "cal": 4074,
  "vin": 4075,
  "Enyi": 4076,
  "na-abara": 4077,
  "ọkwa .": 4078,
  "gbaghara": 4079,
  "bọọlụ ,": 4080,
  "ọnya": 4081,
  "Nsu": 4082,
  "agụm": 4083,
  "ụmụada": 4084,
  "anwụchiri": 4085,
  "2000": 4086,
  "ọrịa .": 4087,
  "na-abata": 4088,
  "ring": 4089,
  "na-akọrọ": 4090,
  "ọbọ": 4091,
  "luck": 4092,
  "na-akatọ": 4093,
  "ụnyaahụ ,": 4094,
  "uchu": 4095,
  "2018 ,": 4096,
  "ụra .": 4097,
  "Kenne": 4098,
  "lican": 4099,
  "mak ,": 4100,
  "na-arụrụ": 4101,
  "St .": 4102,
  "EMA": 4103,
  "na-ejere": 4104,
  "peration": 4105,
  "baptizim": 4106,
  "Emlin": 4107,
  "codeine": 4108,
  "NFF": 4109,
  "ụgha .": 4110,
  "Chief": 4111,
  "tiu ,": 4112,
  "Preside": 4113,
  "Njikọ": 4114,
  "dinma": 4115,
  "PSG": 4116,
  "Aguleri": 4117,
  "Black": 4118,
  "Sunday": 4119,
  "ECOW": 4120,
  "ECOWAS": 4121,
  "37": 4122,
  "Za": 4123,
  "Ze": 4124,
  "Che": 4125,
  "UE": 4126,
  "II": 4127,
  "y ,": 4128,
  "nyahụ": 4129,
  "mekwa": 4130,
  "na-ana": 4131,
  "na-etu": 4132,
  "tee": 4133,
  "ziga": 4134,
  "Ezi": 4135,
  "one": 4136,
  "isiala": 4137,
  "ura": 4138,
  "diri": 4139,
  "iri ,": 4140,
  "wa .": 4141,
  "na-ege": 4142,
  "nkwọ": 4143,
  "icheta": 4144,
  "naịjirịa ?": 4145,
  "nupụ": 4146,
  "kparị": 4147,
  "amasị": 4148,
  "Rama": 4149,
  "mila": 4150,
  "edu": 4151,
  "na-ehi": 4152,
  "gwụrụ": 4153,
  "omen": 4154,
  "olulu": 4155,
  "Solu": 4156,
  "Mela": 4157,
  "na-ekwusi": 4158,
  "nupụrụ": 4159,
  "gbapụrụ": 4160,
  "kpụọ": 4161,
  "ga-amasi": 4162,
  "na-ahụta": 4163,
  "cese": 4164,
  "arụọla": 4165,
  "ejiji": 4166,
  "pou": 4167,
  "kelee": 4168,
  "meziri": 4169,
  "akụziri": 4170,
  "ngosi": 4171,
  "gosikwara": 4172,
  "ghen": 4173,
  "Chine": 4174,
  "ụgwọ .": 4175,
  "nkeji :": 4176,
  "sing": 4177,
  "Ono": 4178,
  "amụta": 4179,
  "ịkọwa": 4180,
  "abịa .": 4181,
  "metụrụ": 4182,
  "ofor": 4183,
  "bulie": 4184,
  "Tur": 4185,
  "Cali": 4186,
  "ingland": 4187,
  "mebie": 4188,
  "akpọrọ  \" ": 4189,
  "ụmụagbọghọ": 4190,
  "wich": 4191,
  "jairo": 4192,
  "satọde .": 4193,
  "ridge": 4194,
  "na-akwụwa": 4195,
  "mfe .": 4196,
  "Augu": 4197,
  "ọrụugbo": 4198,
  "yahoo": 4199,
  "App": 4200,
  "bọjetị": 4201,
  "Salah": 4202,
  "Juven": 4203,
  "ọsịsọ": 4204,
  "Osun": 4205,
  "Onno": 4206,
  "nzagha": 4207,
  "Adeleke": 4208,
  "Tanz": 4209,
  "CBN": 4210,
  "Uganda": 4211,
  "Islamic": 4212,
  "dayọsiisi": 4213,
  "Goodluck": 4214,
  "Kenneth": 4215,
  "Anglican": 4216,
  "matiu ,": 4217,
  "UEFA": 4218,
  "Onnoghen": 4219,
  "lt": 4220,
  "m-": 4221,
  "33": 4222,
  "WA": 4223,
  "wn": 4224,
  "FD": 4225,
  "Aka": 4226,
  "ka .": 4227,
  "l ,": 4228,
  "aro": 4229,
  "ere .": 4230,
  "Ala": 4231,
  "ga .": 4232,
  "tra": 4233,
  "li .": 4234,
  "ga-ele": 4235,
  "nis": 4236,
  "igwu": 4237,
  "ga-ekpe": 4238,
  "imezu": 4239,
  "data": 4240,
  "aka ?": 4241,
  "ileta": 4242,
  "chaa .": 4243,
  "amaw": 4244,
  "pụtara ,": 4245,
  "pụtara ?": 4246,
  "sto": 4247,
  "gbụrụ": 4248,
  "bigara": 4249,
  "ụfọdụ .": 4250,
  "kporo": 4251,
  "meela": 4252,
  "nwechara": 4253,
  "Buhari ,": 4254,
  "Amara": 4255,
  "gharịị": 4256,
  "anwụ ,": 4257,
  "kin": 4258,
  "Soko": 4259,
  "ga-aghọ": 4260,
  "eruo": 4261,
  "agaghi": 4262,
  "goolu .": 4263,
  "tinyekwara": 4264,
  "ọsọ ,": 4265,
  "nsọpụrụ": 4266,
  "Josef .": 4267,
  "ibuso": 4268,
  "Rus": 4269,
  "emechiela": 4270,
  "ịbanye": 4271,
  "rity": 4272,
  "Abra": 4273,
  "nwanna": 4274,
  "Poli": 4275,
  "jeriko": 4276,
  "ọmụgwọ": 4277,
  "yode": 4278,
  "weregodị": 4279,
  "abanyela": 4280,
  "Jong": 4281,
  "lọta .": 4282,
  "Kaduna": 4283,
  "lịkan": 4284,
  "pịara": 4285,
  "nwụchikọrọ": 4286,
  "na-ekweghị": 4287,
  "ọkọchị": 4288,
  "akwụsịla": 4289,
  "kụziere": 4290,
  "Nnia": 4291,
  "Health": 4292,
  "Ebonyi": 4293,
  "Bello": 4294,
  "alụkwaghịm": 4295,
  "maọbụrụ": 4296,
  "Achebe": 4297,
  "midia .": 4298,
  "phosa": 4299,
  "klaasị": 4300,
  "Progressive": 4301,
  "Yusu": 4302,
  "Yoruba": 4303,
  "Messi": 4304,
  "Ibom": 4305,
  "Instagram": 4306,
  "College": 4307,
  "Grand": 4308,
  "ụnyahụ": 4309,
  "Melaye": 4310,
  "WAEC": 4311,
  "Ramaphosa": 4312,
  "sy": 4313,
  "Ji": 4314,
  "NB": 4315,
  "Igh": 4316,
  "mah": 4317,
  "t ,": 4318,
  "bar": 4319,
  "Oha": 4320,
  "nwara": 4321,
  "uba": 4322,
  "makwa": 4323,
  "ga-ere": 4324,
  "Can": 4325,
  "rọrọ": 4326,
  "dne": 4327,
  "rala": 4328,
  "lighị": 4329,
  "Uwa": 4330,
  "lọtara": 4331,
  "dọọ": 4332,
  "bon": 4333,
  "akụnụ": 4334,
  "naịjirịa-": 4335,
  "mezu": 4336,
  "Idi": 4337,
  " :  \" ": 4338,
  "da ,": 4339,
  "ọzọ ?": 4340,
  "gbapụta": 4341,
  "A )": 4342,
  "na-emetụ": 4343,
  "tarị": 4344,
  " , ”": 4345,
  "a . ”": 4346,
  "akwara": 4347,
  "mina": 4348,
  "tọgbọ": 4349,
  "ụwa ?": 4350,
  "gwakwa": 4351,
  "ntị ,": 4352,
  "hony": 4353,
  "na-ekpo": 4354,
  "chara .": 4355,
  "achọrọ": 4356,
  "etiela": 4357,
  "Spa": 4358,
  "ụgbọmmiri": 4359,
  "na-agbasi": 4360,
  "iwe ,": 4361,
  "mgbapụta": 4362,
  "abara": 4363,
  "ejima": 4364,
  "abị": 4365,
  "unu .": 4366,
  "ọbụna": 4367,
  "ụmụnwaanyị .": 4368,
  "kwụsị .": 4369,
  "chiburu": 4370,
  "nyochaa": 4371,
  "nchekwa ,": 4372,
  "amabeghị": 4373,
  "ling": 4374,
  "akọrọ": 4375,
  "xit": 4376,
  "na-achịkọta": 4377,
  "mmụọ .": 4378,
  "Dabiri": 4379,
  "bekee ,": 4380,
  "echere": 4381,
  "poli": 4382,
  "na-ejighị": 4383,
  "mahadu": 4384,
  "ụlọmkpọrọ": 4385,
  "ezie ,": 4386,
  "fim": 4387,
  "ọhịa .": 4388,
  "ọwụwaanyanwụ": 4389,
  "leagu": 4390,
  "na-echu": 4391,
  "legodị": 4392,
  "stry": 4393,
  "ịhazi": 4394,
  "arụkwaghị": 4395,
  "urop": 4396,
  " \" \" n' \"": 4397,
  "ajị": 4398,
  "ga-ebute": 4399,
  "30 ,": 4400,
  "Yobe": 4401,
  "nzọpụta": 4402,
  "Adesina": 4403,
  "mepere": 4404,
  "Onwuama": 4405,
  "Ekiti": 4406,
  "Omoy": 4407,
  "ịna-echegbu": 4408,
  "ekwesị .": 4409,
  "nsibi": 4410,
  "Cross": 4411,
  "Oscar": 4412,
  "Italy": 4413,
  "Azik": 4414,
  "Dino": 4415,
  "nnụnụ": 4416,
  "Taraba": 4417,
  "ebumnuche": 4418,
  "lazarọs": 4419,
  "Madagas": 4420,
  "akparamagwa": 4421,
  "tụmadị": 4422,
  "Uzodinma": 4423,
  "nupụụrụ": 4424,
  "Norwich": 4425,
  "Abraham": 4426,
  "Anthony": 4427,
  "Brexit": 4428,
  "yurop": 4429,
  "Omoyele": 4430,
  "ag": 4431,
  "hị": 4432,
  "cc": 4433,
  "40": 4434,
  "fị": 4435,
  "kah": 4436,
  "cer": 4437,
  "na-ara": 4438,
  "ya-": 4439,
  "mel": 4440,
  "gala": 4441,
  "sila": 4442,
  "Bru": 4443,
  "chi .": 4444,
  "nwekwa": 4445,
  "nzọ": 4446,
  "Edo": 4447,
  "mewe": 4448,
  "nwa .": 4449,
  "chasị": 4450,
  "buka": 4451,
  "nọchị": 4452,
  "na-akwọ": 4453,
  "sse": 4454,
  "ga-apụta": 4455,
  "Gre": 4456,
  "gụtara": 4457,
  "eku": 4458,
  "Don": 4459,
  "on ,": 4460,
  "Mon": 4461,
  "baịbụl ?": 4462,
  "20 ,": 4463,
  "emela": 4464,
  "suru": 4465,
  "degara": 4466,
  "mma . ”": 4467,
  "niile . ”": 4468,
  "nor": 4469,
  "janụ": 4470,
  "napụrụ": 4471,
  "dọtara": 4472,
  "Ope": 4473,
  "adịla": 4474,
  "mkparị": 4475,
  "na-abị": 4476,
  "ebi . ”": 4477,
  "ence": 4478,
  "Den": 4479,
  "na-ekpere": 4480,
  "ilekọta": 4481,
  "vie": 4482,
  "ịkọrọ": 4483,
  "ga-adịrị": 4484,
  "elekọta": 4485,
  "na-arụpụta": 4486,
  "Bles": 4487,
  "enyi ,": 4488,
  "nchere": 4489,
  "Dave": 4490,
  "Togo": 4491,
  "Adama": 4492,
  "ga-adịkwa": 4493,
  "na-ebuso": 4494,
  "Kat": 4495,
  "kpọkuola": 4496,
  "ohi .": 4497,
  "ewepụ": 4498,
  "ọmụma": 4499,
  "oyiegwu": 4500,
  "kpuo": 4501,
  "uju .": 4502,
  "mezịrị": 4503,
  "15 ,": 4504,
  "Action": 4505,
  "tics": 4506,
  "na-akasi": 4507,
  " .  \" n' \"": 4508,
  "Ezeife": 4509,
  "Tacha": 4510,
  "Amaechi": 4511,
  "wenezde .": 4512,
  "mọnde .": 4513,
  "tọzde .": 4514,
  " .  \" ihe \"": 4515,
  "agwụla": 4516,
  "2016 .": 4517,
  "Congo": 4518,
  "ntuzi": 4519,
  "  \" a \"": 4520,
  "aja ,": 4521,
  "otiegwu": 4522,
  "Peoples": 4523,
  "bọjet": 4524,
  "Norway": 4525,
  "Anajemba": 4526,
  "Channel": 4527,
  "Chukwuemeka": 4528,
  "Germany": 4529,
  "York": 4530,
  "General": 4531,
  "injin": 4532,
  "Economic": 4533,
  "Algeria": 4534,
  "Operation": 4535,
  "Njikọka": 4536,
  "NAFD": 4537,
  "gabigara": 4538,
  "Sokoto": 4539,
  "Ighalo": 4540,
  "janụwarị": 4541,
  "NAFDAC": 4542,
  "un": 4543,
  "Po": 4544,
  "ls": 4545,
  "60": 4546,
  "AT": 4547,
  "FB": 4548,
  "ima": 4549,
  "bụna": 4550,
  "lle": 4551,
  "kwube": 4552,
  "zighị": 4553,
  "ando": 4554,
  "Udo": 4555,
  "Oli": 4556,
  "buike": 4557,
  "bur": 4558,
  "Aso": 4559,
  "oni": 4560,
  "Osa": 4561,
  "ọchị .": 4562,
  "luk": 4563,
  "ịkpe": 4564,
  "bụ ?": 4565,
  "vre": 4566,
  "chọwa": 4567,
  "hiwe": 4568,
  "nyegara": 4569,
  "jụụ": 4570,
  "kpoko": 4571,
  "gharịala": 4572,
  "wulite": 4573,
  "magburu": 4574,
  "mkpị": 4575,
  "kọọla": 4576,
  "Flo": 4577,
  "buola": 4578,
  "ezigbote": 4579,
  "osu": 4580,
  "abalị ,": 4581,
  "anaghịkwa": 4582,
  "Gol": 4583,
  "Chidi": 4584,
  "Chido": 4585,
  "ekere": 4586,
  "ga-emeri": 4587,
  "selitere": 4588,
  "APC .": 4589,
  "194": 4590,
  "iko .": 4591,
  "Ever": 4592,
  "chere ?": 4593,
  "nka ,": 4594,
  "ga-aghọta": 4595,
  "Cus": 4596,
  "saụdi": 4597,
  "ụtụtụ ,": 4598,
  "agbụ": 4599,
  "abụbọ": 4600,
  "Road": 4601,
  "Fes": 4602,
  "gawa ,": 4603,
  " \" \" . \"": 4604,
  "anish": 4605,
  "bour": 4606,
  "ume .": 4607,
  "achụm": 4608,
  "onyinye ,": 4609,
  "icheiche .": 4610,
  "akwụsịghị": 4611,
  "kwesịghị": 4612,
  "Hope": 4613,
  "nyefee": 4614,
  "mịnị": 4615,
  "Osita": 4616,
  "na-ebipụta": 4617,
  "ọgọst ,": 4618,
  "buliri": 4619,
  "fai": 4620,
  "nwaokorobịa": 4621,
  "Now": 4622,
  "Nyeso": 4623,
  "ịntaneti .": 4624,
  "na-anata": 4625,
  "spen .": 4626,
  "listra": 4627,
  "stine": 4628,
  "Wat": 4629,
  "ball": 4630,
  "Fore": 4631,
  "Samson": 4632,
  "Ondo": 4633,
  "riterela": 4634,
  "IMF": 4635,
  "ww": 4636,
  "jw .": 4637,
  "Codeine": 4638,
  "Cosmas": 4639,
  "nrụrịta": 4640,
  "krismas": 4641,
  "Foot": 4642,
  "bedel": 4643,
  "agafeela": 4644,
  "iberibe": 4645,
  "Nwankwo": 4646,
  "Community": 4647,
  "rystal": 4648,
  "Trans": 4649,
  "Organi": 4650,
  "JAM": 4651,
  "Obiora": 4652,
  "Enyinnaya": 4653,
  "Women": 4654,
  "Turke": 4655,
  "Kayode": 4656,
  "Channels": 4657,
  "FBI": 4658,
  "Everton": 4659,
  "Custom": 4660,
  "Spanish": 4661,
  "mịnịst": 4662,
  "Rufai": 4663,
  "Nyesom": 4664,
  "www .": 4665,
  "JAMB": 4666,
  "mịnịstrị": 4667,
  "bn": 4668,
  "Ko": 4669,
  "Ash": 4670,
  "Ph": 4671,
  "EU": 4672,
  "27": 4673,
  "py": 4674,
  "--": 4675,
  "Mna": 4676,
  "ma .": 4677,
  "Ber": 4678,
  "keke": 4679,
  "Tha": 4680,
  "nha": 4681,
  "ha-": 4682,
  "hụla": 4683,
  "tany": 4684,
  "Ekwu": 4685,
  "Iba": 4686,
  "Ibe": 4687,
  "Lan": 4688,
  "ma \"": 4689,
  "kwuwe": 4690,
  "ne ,": 4691,
  "ọkwụ": 4692,
  "alaala": 4693,
  "kali": 4694,
  "Chike": 4695,
  "tọọ": 4696,
  "nich": 4697,
  "onwere": 4698,
  "ga-aba": 4699,
  "na-anya": 4700,
  "Obo": 4701,
  "akwụna": 4702,
  "ses": 4703,
  "ezi ,": 4704,
  "obi ?": 4705,
  "lint": 4706,
  "“ ị": 4707,
  "sion": 4708,
  "ga-asọ": 4709,
  "dunyere": 4710,
  "Phi": 4711,
  "hiere": 4712,
  "bipụtara": 4713,
  "na-esiri": 4714,
  "ikpe ,": 4715,
  "ato": 4716,
  "Buru": 4717,
  "stru": 4718,
  "list": 4719,
  "ahụ .  \" ": 4720,
  "ahazi": 4721,
  "ụlọelu": 4722,
  "ya ,  \" ": 4723,
  "nso ,": 4724,
  "ga-ewere": 4725,
  "dowere": 4726,
  "ngagwa": 4727,
  "mkpa ,": 4728,
  "na-agbasa": 4729,
  "mkpụ": 4730,
  "ekweta": 4731,
  "iwepụta": 4732,
  "ogu": 4733,
  "jupụta": 4734,
  "ọnụahịa": 4735,
  "gbanyere": 4736,
  "karịchara": 4737,
  "alace": 4738,
  "babị": 4739,
  "kirie": 4740,
  "shola": 4741,
  "enwee": 4742,
  "isu": 4743,
  "erughị": 4744,
  "agaghịkwa": 4745,
  "Inde": 4746,
  "pende": 4747,
  "Musta": 4748,
  "gosipụta": 4749,
  "ịgbaghara": 4750,
  "ille": 4751,
  "imeri": 4752,
  "chabeghị": 4753,
  "kọwaa ,": 4754,
  "ịmalite": 4755,
  "Regi": 4756,
  "gworo": 4757,
  "adịghị .": 4758,
  "ụmụaka .": 4759,
  "egbe .": 4760,
  "udo ,": 4761,
  "ibu .": 4762,
  "tozuru": 4763,
  "ofesi .": 4764,
  "Sia": 4765,
  "abọ": 4766,
  "nzukọ .": 4767,
  "ịrịọ": 4768,
  "Solo": 4769,
  "esonye": 4770,
  "ekwetaghị": 4771,
  "ahapụla": 4772,
  "na-ekpegara": 4773,
  "aljeri": 4774,
  "Ojo": 4775,
  "Okechukwu": 4776,
  "ụlọọgwụ .": 4777,
  "ngwan": 4778,
  "Keshi": 4779,
  "ward": 4780,
  "ga-ewepụ": 4781,
  "tical": 4782,
  "Boy": 4783,
  "ghton": 4784,
  "aghọtaghị": 4785,
  "Ruga": 4786,
  "ụtụisi": 4787,
  "wenezde ,": 4788,
  "Equ": 4789,
  "mọnde ,": 4790,
  "uteeze": 4791,
  "Ebola": 4792,
  "na-edozi": 4793,
  "Federation": 4794,
  "laghachiri": 4795,
  "Abike": 4796,
  "ustin": 4797,
  "Prima": 4798,
  "Rwan": 4799,
  "tụkwasịrị": 4800,
  "Goog": 4801,
  "mgbagwoju": 4802,
  "Grace": 4803,
  "Villa": 4804,
  "NYSC": 4805,
  "Second": 4806,
  "Australia": 4807,
  "ezinaụlọ": 4808,
  "America": 4809,
  "mnesty": 4810,
  "Soludo": 4811,
  "Juventus": 4812,
  "Spain": 4813,
  "Azikiwe": 4814,
  "ntuziaka": 4815,
  "injinịa": 4816,
  "Lef": 4817,
  "Crystal": 4818,
  "Turkey": 4819,
  "Netany": 4820,
  "Munich": 4821,
  "Burundi": 4822,
  "Mnangagwa": 4823,
  "babịlọ": 4824,
  "aljeria": 4825,
  "Google": 4826,
  "Lefè": 4827,
  "Netanyahu": 4828,
  "Lefèvre": 4829,
  "-U": 4830,
  "ms": 4831,
  "dg": 4832,
  "Gi": 4833,
  "45": 4834,
  "kap": 4835,
  "’ ,": 4836,
  "gan": 4837,
  "ril": 4838,
  "uri": 4839,
  "Abe": 4840,
  "bi ,": 4841,
  "napụ": 4842,
  "ịpụ": 4843,
  "chan": 4844,
  "ya \"": 4845,
  "kụta": 4846,
  "Bala": 4847,
  "Ngo": 4848,
  "nisi": 4849,
  "cha ,": 4850,
  "bughị": 4851,
  "mgbe \"": 4852,
  "som": 4853,
  "gbanwere": 4854,
  "akwụghị": 4855,
  "manyere": 4856,
  "gụwa": 4857,
  "ọrụ )": 4858,
  "teri": 4859,
  "amanye": 4860,
  "“ obi": 4861,
  "“ anyị": 4862,
  "“ otu": 4863,
  "Kon": 4864,
  "mbịa": 4865,
  "bịaara": 4866,
  "mmezu": 4867,
  "ijide": 4868,
  "zọpụtara": 4869,
  "esiri": 4870,
  "huru": 4871,
  "na-agọ": 4872,
  "gara ,": 4873,
  "agara": 4874,
  "ọchịchịrị": 4875,
  "aha .": 4876,
  "ọka .": 4877,
  "mkpo": 4878,
  "ndọ": 4879,
  "Jor": 4880,
  "nyochara": 4881,
  "eriela": 4882,
  "abanye": 4883,
  "abaala": 4884,
  "jirikwa": 4885,
  "zipụrụ": 4886,
  "ịkpụ": 4887,
  " ; )": 4888,
  "Wal": 4889,
  "agbalị": 4890,
  "mgbali": 4891,
  "ụmụahịa": 4892,
  "ibido": 4893,
  "na-emekarị": 4894,
  "atụọla": 4895,
  "debere": 4896,
  "chebara": 4897,
  "nsogbu ,": 4898,
  "taa ?": 4899,
  "Magu": 4900,
  "suo": 4901,
  "na-akpọtụ": 4902,
  "biri .": 4903,
  "ozuzo": 4904,
  "na-achọghị": 4905,
  "gbagbuo": 4906,
  "kwukwara ,": 4907,
  "ogidi": 4908,
  "ibuli": 4909,
  "bilie": 4910,
  "ania": 4911,
  "shia": 4912,
  "esila": 4913,
  "ntọala": 4914,
  "na-erubeghị": 4915,
  "kasie": 4916,
  "ịkpatara": 4917,
  "esere": 4918,
  "Sey": 4919,
  "chutu": 4920,
  "2018 :": 4921,
  "10 ,": 4922,
  "nwayọọ ,": 4923,
  "satọdee": 4924,
  "mọn": 4925,
  "2017 ,": 4926,
  "luk ,": 4927,
  "fraịde ,": 4928,
  "mbize": 4929,
  "ohu .": 4930,
  "Udemba .": 4931,
  "2014 .": 4932,
  "oleekwanụ": 4933,
  "nyụọ": 4934,
  "awụsa": 4935,
  "Federer": 4936,
  "anusi": 4937,
  "Yaku": 4938,
  "Maina": 4939,
  "Arabi": 4940,
  "baptizim ,": 4941,
  "fransị": 4942,
  "awakpoola": 4943,
  "Ange": 4944,
  "Awgu": 4945,
  "mejọrọ": 4946,
  "nchụaja": 4947,
  "French": 4948,
  "nnwereonwe": 4949,
  "vement": 4950,
  "Korea": 4951,
  "kpọmkwem": 4952,
  "rinho": 4953,
  "Osho": 4954,
  "  \" bụ \"": 4955,
  "chelles": 4956,
  "mesaya": 4957,
  "Que": 4958,
  "High": 4959,
  "Yusuf": 4960,
  "nsibidi": 4961,
  "kamel": 4962,
  "Blessing": 4963,
  "Watford": 4964,
  "papy": 4965,
  "Independe": 4966,
  "Brighton": 4967,
  "Tunisi": 4968,
  "Tanzania": 4969,
  "Yakubu": 4970,
  "Mourinho": 4971,
  "Seychelles": 4972,
  "papyrus": 4973,
  "44": 4974,
  "Sha": 4975,
  "VC": 4976,
  "AI": 4977,
  "nan": 4978,
  "dịna": 4979,
  "er ,": 4980,
  "Cla": 4981,
  "ga ,": 4982,
  "Fri": 4983,
  "nkem": 4984,
  "bal": 4985,
  "ụkwa": 4986,
  "ghịkwa": 4987,
  "tia": 4988,
  "ube": 4989,
  " \" ": 4990,
  "nwa ,": 4991,
  "rah": 4992,
  "sọrọ": 4993,
  "mgbe ,": 4994,
  "nie": 4995,
  "ogwu": 4996,
  "ndịọrụ": 4997,
  "ga-akwa": 4998,
  "satara": 4999,
  "bor": 5000,
  "akwụwa": 5001,
  "ndị  \" ": 5002,
  "dah": 5003,
  "m ?": 5004,
  "kwupụta": 5005,
  "mpụta": 5006,
  "pre": 5007,
  "Ire": 5008,
  " ) \"": 5009,
  "aron": 5010,
  "Ami": 5011,
  "Whi": 5012,
  "mmy": 5013,
  "ha .  \" ": 5014,
  "ndrị": 5015,
  "chineke . ”": 5016,
  "por": 5017,
  "ord": 5018,
  "( S": 5019,
  "  \" ( ": 5020,
  "chọrọ ,": 5021,
  "oleezi": 5022,
  "mbụ :": 5023,
  "anụ .": 5024,
  "mou": 5025,
  "juo": 5026,
  "Amu": 5027,
  "na-aghọ": 5028,
  "ọghọ": 5029,
  "dịzị": 5030,
  "akụọla": 5031,
  "zụtara": 5032,
  "ful": 5033,
  "ichefu": 5034,
  "agbaghara": 5035,
  "na-agagharị": 5036,
  "machie": 5037,
  "etiti .": 5038,
  "fọdụzie": 5039,
  "mezie": 5040,
  "ịnweta": 5041,
  "Hou": 5042,
  "Anya": 5043,
  "okwuchukwu": 5044,
  "Anti": 5045,
  "na-awakpo": 5046,
  "abalị .": 5047,
  "gosipụtara": 5048,
  "Hen": 5049,
  "anaghịzi": 5050,
  "oloko": 5051,
  "gbochiri": 5052,
  "ga-echeta": 5053,
  "na-akpọ  \" ": 5054,
  "izu ,": 5055,
  "195": 5056,
  "ịna-eche": 5057,
  "Oki": 5058,
  "ụkwụ .": 5059,
  "obere .": 5060,
  "“ mkpụrụ": 5061,
  "Nigeria :": 5062,
  "Law": 5063,
  "na-akpatara": 5064,
  "na-atụghị": 5065,
  "Hau": 5066,
  "Jide": 5067,
  "nebọ": 5068,
  "osisi ,": 5069,
  "ọtọ ,": 5070,
  "obiano ,": 5071,
  "ahụike ,": 5072,
  "izrel ,": 5073,
  "ewepụtala": 5074,
  "achụpụla": 5075,
  "Camp": 5076,
  "gement": 5077,
  "mgbọrọ": 5078,
  "chegodị": 5079,
  "11 ,": 5080,
  "tụkwasị": 5081,
  "imiri": 5082,
  "gburugburu ,": 5083,
  "SSOB": 5084,
  "akpụrụ": 5085,
  "Oyo": 5086,
  "2015 ,": 5087,
  "gboo ,": 5088,
  "Patri": 5089,
  "Isaa": 5090,
  "emerụ": 5091,
  "que": 5092,
  "ọstra": 5093,
  "Tiwa": 5094,
  "Mohamed": 5095,
  "ndina": 5096,
  "BBNaija": 5097,
  "ga-abụrịrị": 5098,
  "sley": 5099,
  "nghọtahie": 5100,
  "abuja ,": 5101,
  "Martin": 5102,
  "ekwesighị": 5103,
  "kwesịkwara": 5104,
  "Rang": 5105,
  "ịnapụ": 5106,
  "Umeh": 5107,
  "2020 .": 5108,
  "part": 5109,
  "Ndubu": 5110,
  "ekperi": 5111,
  "jenesi": 5112,
  "ndagwuru": 5113,
  "Electo": 5114,
  "Sheffi": 5115,
  "tọghapụ": 5116,
  "agbarụọla": 5117,
  "Gabon": 5118,
  "Ministry": 5119,
  "Katsina": 5120,
  "Festus": 5121,
  "Forest": 5122,
  "Customs": 5123,
  "Ibadan": 5124,
  "gwon": 5125,
  "dgz .": 5126,
  "Queen": 5127,
  "sekọndrị": 5128,
  "MASSOB": 5129,
  "Isaac": 5130,
  "Rangers": 5131,
  "ndagwurugwu": 5132,
  "Electoral": 5133,
  "Sheffield": 5134,
  "gwongworo": 5135,
  "as": 5136,
  "ọb": 5137,
  "oo": 5138,
  "Ci": 5139,
  "Lo": 5140,
  "IA": 5141,
  "yị": 5142,
  "kaa": 5143,
  "ker": 5144,
  "War": 5145,
  "Jere": 5146,
  "men": 5147,
  "meya": 5148,
  "lam": 5149,
  "Isi": 5150,
  "rish": 5151,
  "rahụ": 5152,
  "Dru": 5153,
  "marị": 5154,
  "ctu": 5155,
  "Uba": 5156,
  "ahụkwa": 5157,
  "ete": 5158,
  "lebe": 5159,
  "bee": 5160,
  "pụ .": 5161,
  "nweere": 5162,
  "neu": 5163,
  "gbu .": 5164,
  "Dike": 5165,
  "bọrọ": 5166,
  "gọrọ": 5167,
  "ga-eke": 5168,
  "buso": 5169,
  "hụtara": 5170,
  "jọọ": 5171,
  "zịa": 5172,
  "ha :": 5173,
  "gbanụ": 5174,
  "kwusa": 5175,
  "ge :": 5176,
  "rumba": 5177,
  "ime-": 5178,
  "gịnwa": 5179,
  "ikpa": 5180,
  "ga-akpa": 5181,
  "mmadụ ?": 5182,
  "ntọrọ": 5183,
  "pụtaghị": 5184,
  "na-emezu": 5185,
  "“ na-": 5186,
  "dekwara": 5187,
  "mmebi": 5188,
  "andu": 5189,
  "lụwa": 5190,
  "hibe": 5191,
  "agaa": 5192,
  "kpọpụtara": 5193,
  "eme ,": 5194,
  "kwetere": 5195,
  "tụụrụ": 5196,
  "ost": 5197,
  "ozizi": 5198,
  "asịrị": 5199,
  "nwakpo": 5200,
  "aland": 5201,
  "nkeọma": 5202,
  "ọchịagha": 5203,
  "aka . ”": 5204,
  "nweghịzi": 5205,
  "ga-agwụ": 5206,
  "dinta": 5207,
  "pas": 5208,
  "gọọmentị ,": 5209,
  "na-agba .": 5210,
  "Amo": 5211,
  "soja": 5212,
  " ; ,": 5213,
  "Mal": 5214,
  "gua": 5215,
  "oju": 5216,
  "na-emefu": 5217,
  "ghaara": 5218,
  "nwunye .": 5219,
  "eyi": 5220,
  "afụ": 5221,
  "gharazie": 5222,
  "akwalite": 5223,
  "agaghịzi": 5224,
  "ịwakpo": 5225,
  "enyeghị": 5226,
  "col": 5227,
  "nwuchiri": 5228,
  "gịnị ?": 5229,
  "ngwa ,": 5230,
  "ọrịa ,": 5231,
  "ịbata": 5232,
  "nzuzu": 5233,
  "enwebeghị": 5234,
  "mmụọ ,": 5235,
  "na-arụkọ": 5236,
  "kagbuo": 5237,
  "nka .": 5238,
  "ekike": 5239,
  "Nasara": 5240,
  "yemi": 5241,
  "nụ !": 5242,
  "lius": 5243,
  "ekwughị": 5244,
  "pọtị": 5245,
  "Indo": 5246,
  "ee ,": 5247,
  "jisie": 5248,
  "Ney": 5249,
  "2007": 5250,
  "akpụpụla": 5251,
  "ekpenta": 5252,
  "Achu": 5253,
  "sị ,  \" ": 5254,
  "kpuchie": 5255,
  "briel": 5256,
  "14 )": 5257,
  "Okeke": 5258,
  "gburugburu .": 5259,
  "ngwere": 5260,
  "na-anabata": 5261,
  "gbasaa": 5262,
  "Gover": 5263,
  "ịkwụwa": 5264,
  "gboo .": 5265,
  "kwuputa": 5266,
  "Tech": 5267,
  "amabeghi": 5268,
  "apụọla": 5269,
  "ọktoba .": 5270,
  "Abacha": 5271,
  "Onyema": 5272,
  " \" \" na \"": 5273,
  "mechakwara": 5274,
  "inab": 5275,
  "Arabia": 5276,
  "chefuo": 5277,
  "zipuru": 5278,
  "emeodo": 5279,
  "Syria": 5280,
  "mepụtagoro": 5281,
  "kpataara": 5282,
  "anwụọ .": 5283,
  "bịaruo": 5284,
  "ọsịsa": 5285,
  "akpịrị": 5286,
  "Ejike": 5287,
  "hoohaa": 5288,
  "shua": 5289,
  "Andrew": 5290,
  "bịakwutere": 5291,
  "iteghete ,": 5292,
  "Paris": 5293,
  "Nnabuihe": 5294,
  "Khafi": 5295,
  "Kukah": 5296,
  "ekeresime": 5297,
  "Moses": 5298,
  "Rwanda": 5299,
  "Cyril": 5300,
  "Movement": 5301,
  "Jideọfọ": 5302,
  "imirikiti": 5303,
  "Zealand": 5304,
  "ojuju": 5305,
  "Neymar": 5306,
  "Gabriel": 5307,
  "Zainab": 5308,
  "aa": 5309,
  "ul": 5310,
  "akw": 5311,
  "yu": 5312,
  "Fi": 5313,
  "kh": 5314,
  "HO": 5315,
  "UT": 5316,
  "Mc": 5317,
  "47": 5318,
  "NN": 5319,
  "mam": 5320,
  "Per": 5321,
  "uke": 5322,
  "ila": 5323,
  "ịla": 5324,
  "Asi": 5325,
  "jie": 5326,
  "bụru": 5327,
  "rula": 5328,
  "sighị": 5329,
  "an ,": 5330,
  "dor": 5331,
  "sịala": 5332,
  "Bebe": 5333,
  "gbọrọ": 5334,
  "tro": 5335,
  "latara": 5336,
  "Agbo": 5337,
  "kweghị": 5338,
  "akụzi": 5339,
  "melu": 5340,
  "ala ?": 5341,
  "Chile": 5342,
  "nubu": 5343,
  "ure": 5344,
  "niile ?": 5345,
  "ana-eme": 5346,
  "mpị": 5347,
  "kamp": 5348,
  "lia .": 5349,
  "gaa .": 5350,
  "“ ha": 5351,
  "wepu": 5352,
  "kasiri": 5353,
  "tuuru": 5354,
  "pa ,": 5355,
  "ihiwe": 5356,
  "2012": 5357,
  "anyị . ”": 5358,
  "ọzọ . ”": 5359,
  "asaba": 5360,
  "kwuchara": 5361,
  "mara ,": 5362,
  "marakwa": 5363,
  "Wole": 5364,
  "ọnwa .": 5365,
  "gburu .": 5366,
  "chapụrụ": 5367,
  "ụdọ": 5368,
  "ha ;": 5369,
  "anwụchi": 5370,
  "ga-akwado": 5371,
  "eziokwu . ”": 5372,
  "nkarị": 5373,
  "thy": 5374,
  "rịọkwa": 5375,
  "bịbịa": 5376,
  "loma": 5377,
  "chụsa": 5378,
  "yie": 5379,
  "ebiri": 5380,
  "Mat": 5381,
  "Mali": 5382,
  "gwaziri": 5383,
  "emeghi": 5384,
  "ejighi": 5385,
  "ịgbasa": 5386,
  "penal": 5387,
  "lekọta": 5388,
  "onwebeghị": 5389,
  "( APC": 5390,
  "njem .": 5391,
  "ụgbọala .": 5392,
  "ọgụ ,": 5393,
  "ters": 5394,
  "abịaghị": 5395,
  "abịa ,": 5396,
  "nnupụ": 5397,
  "Moro": 5398,
  "agwaala": 5399,
  "na-enyekwa": 5400,
  "mkpụrụ .": 5401,
  "akpaego": 5402,
  "enyi .": 5403,
  "Haram .": 5404,
  "ugbua ?": 5405,
  "ugboro .": 5406,
  "na-atụnye": 5407,
  "na-atụbata": 5408,
  "itoolu ,": 5409,
  "Alha": 5410,
  "Al-": 5411,
  "ahụhụ ,": 5412,
  "na-ejikwa": 5413,
  "ghachite": 5414,
  "esighị": 5415,
  "Rock": 5416,
  "fiele": 5417,
  "ọdọahịa": 5418,
  "cco": 5419,
  "omume .": 5420,
  "Kabi": 5421,
  "njọ ,": 5422,
  "ga-agbanwe": 5423,
  "Bale": 5424,
  "iyi .": 5425,
  "ụlọoriri": 5426,
  "achụpụ": 5427,
  "shing": 5428,
  "ders": 5429,
  "nọgidere": 5430,
  "14 ,": 5431,
  "ụjọ .": 5432,
  "ngwa .": 5433,
  "election": 5434,
  "ifufe": 5435,
  "Chukwuma": 5436,
  "nkịtị .": 5437,
  "ga-eleba": 5438,
  "akwadola": 5439,
  "Auba": 5440,
  "Zidan": 5441,
  "ịnata": 5442,
  "sịga ,": 5443,
  "maachị .": 5444,
  "Abang": 5445,
  "ugbo ,": 5446,
  "ugbog": 5447,
  "pital": 5448,
  "Otti": 5449,
  "Emmer": 5450,
  "ga-erite": 5451,
  "paradaịs": 5452,
  "Lio": 5453,
  "udele": 5454,
  "abụbụọrụ": 5455,
  "windo": 5456,
  "mbịarambịara": 5457,
  "eburula": 5458,
  "mmanya .": 5459,
  "Morsi": 5460,
  "ṅomie": 5461,
  "chịkọbara": 5462,
  "enugwu-ukwu": 5463,
  "ụgwọọ": 5464,
  " .  \" mana \"": 5465,
  "Xenophobia": 5466,
  "Bridge": 5467,
  "Russia": 5468,
  "Anglịkan": 5469,
  "Onwuamaegbu": 5470,
  "nchekwube": 5471,
  "burg": 5472,
  "nwamkpị": 5473,
  "achụmnta": 5474,
  "Palace": 5475,
  "Siasia": 5476,
  "Solomon": 5477,
  "Secondary": 5478,
  "Ngozi": 5479,
  "Jordan": 5480,
  "Ireland": 5481,
  "ọghọm": 5482,
  "Powerful": 5483,
  "Management": 5484,
  "mgbọrọgwụ": 5485,
  "meyang": 5486,
  "neumo": 5487,
  "ọrumba": 5488,
  "NNPC": 5489,
  "Tinubu": 5490,
  "kampanọ": 5491,
  "penalty": 5492,
  "Emefiele": 5493,
  "Emmerson": 5494,
  "Lionel": 5495,
  "Aubameyang": 5496,
  "oj": 5497,
  "CC": 5498,
  "yọ": 5499,
  "35": 5500,
  "90": 5501,
  "ka-": 5502,
  "mad": 5503,
  "Kar": 5504,
  "arch": 5505,
  "jara": 5506,
  "yabụ": 5507,
  "yana": 5508,
  "arala": 5509,
  "sir": 5510,
  "sin": 5511,
  "manye": 5512,
  "ọta": 5513,
  "pta": 5514,
  "Ari": 5515,
  "atu": 5516,
  "utu": 5517,
  "kwa .": 5518,
  "tute": 5519,
  "nte": 5520,
  "bez": 5521,
  "rube": 5522,
  "mebi": 5523,
  "Van": 5524,
  "na-echi": 5525,
  "ịnwe": 5526,
  "dobe": 5527,
  "gbado": 5528,
  "na-anwa": 5529,
  "mụnwa": 5530,
  "gbago": 5531,
  "ndịisi": 5532,
  "ebe ,": 5533,
  "eriri": 5534,
  "waa": 5535,
  "wal": 5536,
  "ga-eli": 5537,
  "ni ,": 5538,
  "ga-atọ": 5539,
  "ịsa": 5540,
  "sanya": 5541,
  "lue": 5542,
  "ga-ezu": 5543,
  "odi": 5544,
  "Akpa": 5545,
  "kpakp": 5546,
  "nyerela": 5547,
  "nant": 5548,
  "ogene": 5549,
  "m )": 5550,
  "“ dị": 5551,
  "“ mmadụ": 5552,
  "zon": 5553,
  " ” .": 5554,
  "sọl": 5555,
  "nchọ": 5556,
  "life": 5557,
  "Thi": 5558,
  "rụpụtara": 5559,
  "gwupụtara": 5560,
  "siriri": 5561,
  "mato": 5562,
  "agọ": 5563,
  "wụrụ": 5564,
  "kwuokwa": 5565,
  "ga-ajụ": 5566,
  "kpor": 5567,
  "kachara": 5568,
  "Buhari .": 5569,
  "( $": 5570,
  "( gbara": 5571,
  "nna ,": 5572,
  "na-ekwu ,": 5573,
  "arụ .": 5574,
  "gọọmentị .": 5575,
  "ga-anụ": 5576,
  "mgbago": 5577,
  "ịghọ": 5578,
  "igwe ,": 5579,
  "ọgwụ ,": 5580,
  "ebute": 5581,
  "Ilo": 5582,
  "bụrụzie": 5583,
  "kewara": 5584,
  "haziri": 5585,
  "ezighi": 5586,
  "ịgbaso": 5587,
  "kemgbe .": 5588,
  "Chinwe": 5589,
  "ahụbeghị": 5590,
  "na-akpọku": 5591,
  "ehi ,": 5592,
  "amụrụ": 5593,
  "Sule": 5594,
  "egbuo": 5595,
  "ụkwụ ,": 5596,
  "ojiegbe": 5597,
  "na-echere": 5598,
  "malitere .": 5599,
  "mechara ,": 5600,
  "mkpegharị": 5601,
  "Leah": 5602,
  "lee !": 5603,
  "ekwupu": 5604,
  "matakwa": 5605,
  "ọdụm": 5606,
  "erịrị": 5607,
  "okeosisi": 5608,
  "na-abanye": 5609,
  "dee ,": 5610,
  "na-agụsi": 5611,
  "ụlọikwu": 5612,
  "ries": 5613,
  "omume ,": 5614,
  "megoro": 5615,
  "kedụ \"": 5616,
  "jani": 5617,
  "Arth": 5618,
  "ebola": 5619,
  "mson": 5620,
  "na-akwalite": 5621,
  "enyemaka .": 5622,
  "odee": 5623,
  "ọnịcha .": 5624,
  "ekpu": 5625,
  "ijipt ,": 5626,
  "ekwetala": 5627,
  "gbaru": 5628,
  "nkịrị": 5629,
  "China .": 5630,
  "ịnọchite": 5631,
  "Weah": 5632,
  "Rabi": 5633,
  "Radio": 5634,
  "ekwo": 5635,
  "na-egbochi": 5636,
  "card": 5637,
  "11 )": 5638,
  "nwụchikọ": 5639,
  "pụọ ,": 5640,
  "Bob": 5641,
  "2 - ": 5642,
  "13 )": 5643,
  "kpọkukwazie": 5644,
  "na-asụgharị": 5645,
  "Adinu": 5646,
  " .  \" nke \"": 5647,
  "onyendu": 5648,
  "azụmaahịa": 5649,
  "idozi": 5650,
  "Election :": 5651,
  "Lassa": 5652,
  "2023 .": 5653,
  "Emzor": 5654,
  "Allen": 5655,
  "Kanu :": 5656,
  "nsụgharị": 5657,
  "frey": 5658,
  "Eliza": 5659,
  "Odume": 5660,
  "atọhapụla": 5661,
  "na-akparịta": 5662,
  "kuziere": 5663,
  "llion": 5664,
  "Hos": 5665,
  "anwuchiela": 5666,
  "latịn": 5667,
  "ekpebiela": 5668,
  "Nsuk": 5669,
  "diocese": 5670,
  "Ejiofor": 5671,
  "nebuka": 5672,
  "Golden": 5673,
  "El-Rufai": 5674,
  "Phili": 5675,
  "Fashola": 5676,
  "Mustapha": 5677,
  "Regina": 5678,
  "ngwangwa": 5679,
  "Amnesty": 5680,
  "babịlọn": 5681,
  "kapito": 5682,
  "Independent": 5683,
  "Kingsley": 5684,
  "cturing": 5685,
  "pastọ": 5686,
  "ọbịbịa": 5687,
  "Washing": 5688,
  "ụgwọọnwa": 5689,
  "Pneumo": 5690,
  "bezbọ": 5691,
  "kpakpando": 5692,
  "ụlọikwuu": 5693,
  "Arthur": 5694,
  "Thomson": 5695,
  "nebukadne": 5696,
  "Washington": 5697,
  "Pneumonia": 5698,
  "aṅ": 5699,
  "43": 5700,
  "39": 5701,
  "ts": 5702,
  "Of": 5703,
  "-I": 5704,
  "1.": 5705,
  "Ter": 5706,
  "zere": 5707,
  "yan": 5708,
  "Aya": 5709,
  "lap": 5710,
  "dịla": 5711,
  "Oga": 5712,
  "ganye": 5713,
  "kwu ,": 5714,
  "oba": 5715,
  "na-ala": 5716,
  "meghị": 5717,
  "baghị": 5718,
  "tel": 5719,
  "bio": 5720,
  "ị \"": 5721,
  "ene": 5722,
  "ga-ala": 5723,
  "mago": 5724,
  "kafọ": 5725,
  "ali": 5726,
  "ebe \"": 5727,
  "ebee": 5728,
  "gakwuru": 5729,
  "rụwa": 5730,
  "nkewa": 5731,
  "Ide": 5732,
  "bu .": 5733,
  "bunye": 5734,
  "ịtọ": 5735,
  "ga-eche": 5736,
  "nic": 5737,
  "2 :": 5738,
  "Asa": 5739,
  "kwenye": 5740,
  "nnọ": 5741,
  "nọghị": 5742,
  "die": 5743,
  " ,  \" ": 5744,
  "nuk": 5745,
  "res": 5746,
  "oge \"": 5747,
  "Ije": 5748,
  "aghọọ": 5749,
  "s )": 5750,
  "na-eku": 5751,
  "keri": 5752,
  "“ i": 5753,
  "“ nke": 5754,
  "ision": 5755,
  "chịbụrụ": 5756,
  "dibịa": 5757,
  "mi ,": 5758,
  "mmekpa": 5759,
  "ijikọ": 5760,
  "emeli": 5761,
  "uru ?": 5762,
  "ast": 5763,
  "kwuola": 5764,
  "ọha .": 5765,
  "ezenwaanyị": 5766,
  "werekwa": 5767,
  "mwere": 5768,
  "Emer": 5769,
  "meruru": 5770,
  "ndụ . ”": 5771,
  "obi . ”": 5772,
  "ory": 5773,
  "ga-emebi": 5774,
  "ga-eme ,": 5775,
  "uweojii ,": 5776,
  "onyeisiala ,": 5777,
  "atụ .": 5778,
  "gọọmentị \"": 5779,
  "ahụ ;": 5780,
  "mepe": 5781,
  "adị ,": 5782,
  "Nwoko": 5783,
  "umu": 5784,
  "na-ekwukarị": 5785,
  "zịe": 5786,
  "lebara": 5787,
  "los": 5788,
  "na-agakwa": 5789,
  "sus": 5790,
  "ụtọ . ”": 5791,
  "Mur": 5792,
  "na-eburu": 5793,
  "burula": 5794,
  "stant": 5795,
  "Bol": 5796,
  "Chinu": 5797,
  "ajụla": 5798,
  "Roma": 5799,
  "Roti": 5800,
  "ga-enyocha": 5801,
  "amalitere": 5802,
  "ụgbọelu .": 5803,
  "ikom": 5804,
  "na-echebara": 5805,
  "uche .": 5806,
  "ụgbọala ,": 5807,
  "ịmachi": 5808,
  "kraịst . ”": 5809,
  "enwete": 5810,
  "Red": 5811,
  "oleekwa": 5812,
  "agwaghị": 5813,
  "achọpụtara": 5814,
  "Mogha": 5815,
  "rance": 5816,
  "anụmanụ .": 5817,
  "PDP .": 5818,
  "na-eleba": 5819,
  "nwụchiela": 5820,
  "agbari": 5821,
  "na-abọ": 5822,
  "asị ,": 5823,
  "media": 5824,
  "mkpọrọ ,": 5825,
  "ga-akara": 5826,
  "ọbaego": 5827,
  "tico": 5828,
  "ikwusa": 5829,
  "kpọkuzie": 5830,
  "gbagoro": 5831,
  "Fani": 5832,
  "ghani": 5833,
  "ịtụna": 5834,
  "Vir": 5835,
  "ga-awụ": 5836,
  "oriri .": 5837,
  "ewepụta": 5838,
  "ezie .": 5839,
  "megharịa": 5840,
  "South ,": 5841,
  "Binta": 5842,
  "mberede .": 5843,
  "nlegharị": 5844,
  "gbakọtara": 5845,
  "10 )": 5846,
  "bịafra .": 5847,
  "ga-anọchi": 5848,
  "nzuzo ,": 5849,
  "tiusde ,": 5850,
  "ịchị .": 5851,
  "Adams": 5852,
  "therland": 5853,
  "mpton": 5854,
  "gboo ?": 5855,
  "esoghị": 5856,
  "esoghi": 5857,
  "kwekwazie": 5858,
  "akarị .": 5859,
  "ibibi": 5860,
  "Ango": 5861,
  "karịsịa": 5862,
  "alọta": 5863,
  "Onyebu": 5864,
  "Border": 5865,
  "ikweta": 5866,
  "na-ezighị": 5867,
  " .  \" a \"": 5868,
  "ga-anọchite": 5869,
  "agbanweela": 5870,
  "ndịda-": 5871,
  "ịchọta": 5872,
  "FAAN": 5873,
  "Elkana": 5874,
  "eprel ,": 5875,
  "frans": 5876,
  "kpọpụtasịrị": 5877,
  "Godwin": 5878,
  "ga-ekpebi": 5879,
  "anwụọ ,": 5880,
  "Day :": 5881,
  "na-asọpụrụ": 5882,
  "CAF": 5883,
  "iberiibe": 5884,
  "akọwaala": 5885,
  "Milan": 5886,
  "alụmdina": 5887,
  "Harry": 5888,
  "Innocent": 5889,
  "ilding": 5890,
  " .  \" akụkọ \"": 5891,
  "curity": 5892,
  "Idigo": 5893,
  "ụtarị": 5894,
  "mahadum ,": 5895,
  "agọrọla": 5896,
  "fịọ": 5897,
  "Open": 5898,
  "riterela :": 5899,
  "Football": 5900,
  "abakali": 5901,
  "Chisom": 5902,
  "Sanusi": 5903,
  "kenan": 5904,
  "Henry": 5905,
  "nebọt": 5906,
  "ekperima": 5907,
  "praịmarị": 5908,
  "ime-ime": 5909,
  "pọtịfa": 5910,
  "Joshua": 5911,
  "ekeresimesi": 5912,
  "WHO": 5913,
  "Uloma": 5914,
  "nnupụisi": 5915,
  "Alhaji": 5916,
  "Morocco": 5917,
  "Highlife": 5918,
  "tomato": 5919,
  "Odumegwu": 5920,
  "structuring": 5921,
  "Ọkafọ": 5922,
  "Rotimi": 5923,
  "abakaliki": 5924,
  "ọn": 5925,
  "ut": 5926,
  "ex": 5927,
  "Chu": 5928,
  "Ye": 5929,
  "ER": 5930,
  "Us": 5931,
  "88": 5932,
  "BS": 5933,
  "Ky": 5934,
  "77": 5935,
  "PP": 5936,
  "Ly": 5937,
  "kach": 5938,
  "Oma": 5939,
  "Mma": 5940,
  "Eri": 5941,
  "jighị": 5942,
  "tụnye": 5943,
  "teta": 5944,
  "Agba": 5945,
  "Ebe": 5946,
  "bel": 5947,
  "binye": 5948,
  "zia": 5949,
  "an .": 5950,
  "Pan": 5951,
  "blọ": 5952,
  "dowe": 5953,
  "haala": 5954,
  "rate": 5955,
  "sli": 5956,
  "line": 5957,
  "na-eli": 5958,
  "cha .": 5959,
  "maka \"": 5960,
  "amaka": 5961,
  "obu": 5962,
  "kwaso": 5963,
  "ngwu": 5964,
  "te :": 5965,
  "ikesa": 5966,
  "nkesa": 5967,
  "kwete": 5968,
  "zuga": 5969,
  "otu  \" ": 5970,
  "ha  \" ": 5971,
  "kwụnyere": 5972,
  "mere ?": 5973,
  "ileba": 5974,
  "imepụta": 5975,
  "awu": 5976,
  "“ ma": 5977,
  "“ okwu": 5978,
  "hụkwara": 5979,
  "mmetọ": 5980,
  "anata": 5981,
  "chọro": 5982,
  "ga-ehi": 5983,
  "gụpụtara": 5984,
  "gbapụtara": 5985,
  "ize": 5986,
  "ndụ ?": 5987,
  "Mozi": 5988,
  "ojii ,": 5989,
  "nder": 5990,
  "aghaghị": 5991,
  "gbarala": 5992,
  "ụwa . ”": 5993,
  "ihe . ”": 5994,
  "ga-eme ?": 5995,
  "“ nna": 5996,
  "elari": 5997,
  "ole .": 5998,
  "na-ekwukwa": 5999,
  "jizọs ?": 6000,
  "ntabi": 6001,
  "anụ ,": 6002,
  "na-agbanwe": 6003,
  "wepụrụ": 6004,
  "mola": 6005,
  "jaa": 6006,
  "nnes": 6007,
  "iweta": 6008,
  "rial": 6009,
  "dere .": 6010,
  "lịka": 6011,
  "ngwọ": 6012,
  "na-agwọ": 6013,
  "ikwado": 6014,
  "asọpụrụ": 6015,
  "unyi": 6016,
  "nwụọla": 6017,
  "ntụliaka ,": 6018,
  "bara .": 6019,
  "ga-achụ": 6020,
  "oland": 6021,
  "ig .": 6022,
  "unu . ”": 6023,
  "unu ,": 6024,
  "ebi ?": 6025,
  "kachasi": 6026,
  "ntial": 6027,
  "tunde": 6028,
  "kpọchiri": 6029,
  "wuchiri": 6030,
  "zoo": 6031,
  "nza": 6032,
  "ruru ,": 6033,
  "chetaara": 6034,
  "lation": 6035,
  "sation": 6036,
  "merichara": 6037,
  "nnabata": 6038,
  "nchekwa .": 6039,
  "izu .": 6040,
  "izuu": 6041,
  "agboro": 6042,
  "19 )": 6043,
  "Nimo": 6044,
  "ham ,": 6045,
  "ekwere": 6046,
  "tter": 6047,
  "enwela": 6048,
  "tụrụla": 6049,
  "ụmụaka ,": 6050,
  "ekewa": 6051,
  "na-ahapụ": 6052,
  "na-ekwurịta": 6053,
  "ebidoro": 6054,
  "oye": 6055,
  "Josef ,": 6056,
  "legọs ,": 6057,
  "egbughị": 6058,
  "Bau": 6059,
  "Awo": 6060,
  "Bara": 6061,
  "alụm": 6062,
  "ahọpụta": 6063,
  "ekwupụtala": 6064,
  "echekwa": 6065,
  "echetara": 6066,
  "city": 6067,
  "lass": 6068,
  "awakporo": 6069,
  "kanda": 6070,
  "refere": 6071,
  "na-awụ": 6072,
  "Sadio": 6073,
  "rison": 6074,
  "Soci": 6075,
  "Sci": 6076,
  "Afric": 6077,
  "Fly": 6078,
  "kunle": 6079,
  "Hong": 6080,
  "Ekweremadu :": 6081,
  "anwụọla .": 6082,
  "ozugbo ,": 6083,
  "imon": 6084,
  "oghe": 6085,
  "15 )": 6086,
  "Mary": 6087,
  "ngwọrọ": 6088,
  "Jud": 6089,
  "ọgọst .": 6090,
  "efu .": 6091,
  "nwụchikọọ": 6092,
  "News": 6093,
  "face": 6094,
  "17 )": 6095,
  "ebere ,": 6096,
  "1 - ": 6097,
  "187": 6098,
  "ịnara": 6099,
  "Cathe": 6100,
  "bụzịkwa": 6101,
  "Gea": 6102,
  "nwụchịrị": 6103,
  "umengwụ": 6104,
  "ga-achịpụ": 6105,
  "ga-achịwa": 6106,
  "-Olu": 6107,
  "Oby": 6108,
  "dral": 6109,
  "ga-eweta": 6110,
  "rituo": 6111,
  "ndidi": 6112,
  "Onyeama": 6113,
  "awụọla": 6114,
  "owerri ,": 6115,
  "izizi": 6116,
  "azaghị": 6117,
  "Ogbodo": 6118,
  "Ogbonna": 6119,
  "na-egwupụta": 6120,
  "Syri": 6121,
  "gbanyụ": 6122,
  "gbalahụ": 6123,
  "Bill": 6124,
  "ịnwụ .": 6125,
  "dịgasị": 6126,
  "Uchendu": 6127,
  "ogiri": 6128,
  "Sanche": 6129,
  "merube": 6130,
  "bank": 6131,
  "na-edina": 6132,
  "gafere ,": 6133,
  "Poly": 6134,
  "Holy": 6135,
  "Burnle": 6136,
  "karịchaa ,": 6137,
  "Evan": 6138,
  "________________": 6139,
  "ozubulu": 6140,
  "Ndidi": 6141,
  "pound": 6142,
  "FaceApp": 6143,
  "Police": 6144,
  "league": 6145,
  "Labour": 6146,
  "Thai": 6147,
  "Klint": 6148,
  "kpasuo": 6149,
  "Tunisia": 6150,
  "PVC": 6151,
  "AIT": 6152,
  "Friday": 6153,
  "Gandu": 6154,
  "Nasarawa": 6155,
  "Onwuemeodo": 6156,
  "mamịrị": 6157,
  "Ahmad": 6158,
  "Adinuba": 6159,
  "Afghani": 6160,
  "Netherland": 6161,
  "ndịda-ọwụwa": 6162,
  "Security": 6163,
  "Presidential": 6164,
  "Barack": 6165,
  "Flying": 6166,
  "Simon": 6167,
  "Cathedral": 6168,
  "Sanchez": 6169,
  "Burnley": 6170,
  "nk": 6171,
  "Ya": 6172,
  "Dr": 6173,
  "''": 6174,
  "9.": 6175,
  "MM": 6176,
  "55": 6177,
  "TA": 6178,
  "FR": 6179,
  "maị": 6180,
  "bụdị": 6181,
  "erị": 6182,
  "ndị .": 6183,
  "ara ,": 6184,
  "hara": 6185,
  "lag": 6186,
  "si .": 6187,
  "siere": 6188,
  "jisi": 6189,
  "Akwu": 6190,
  "gaba": 6191,
  "kwaga": 6192,
  "ghị ,": 6193,
  "kwughị": 6194,
  "tebụ": 6195,
  "gbaba": 6196,
  "tle": 6197,
  "tule": 6198,
  "be .": 6199,
  "Kan": 6200,
  "Achi": 6201,
  "akari": 6202,
  "tado": 6203,
  "Swe": 6204,
  "Ugo": 6205,
  "lis": 6206,
  "ga-ebe": 6207,
  "okwuru": 6208,
  "kwụwa": 6209,
  "chịwa": 6210,
  "mgbe .": 6211,
  "tara ,": 6212,
  "gbo ,": 6213,
  "gwuo": 6214,
  "ga-amụ": 6215,
  "ige": 6216,
  "ọchị ,": 6217,
  "anyasị": 6218,
  "alu": 6219,
  "ase": 6220,
  "adi": 6221,
  "ardi": 6222,
  "kpawa": 6223,
  "kwunyere": 6224,
  "da .": 6225,
  "okwu ?": 6226,
  "ọrụ ?": 6227,
  "ike ?": 6228,
  "inu": 6229,
  "dịka  \" ": 6230,
  "dịkarị": 6231,
  "tre": 6232,
  "erre": 6233,
  "ya . ,": 6234,
  "na-emekpa": 6235,
  "Iko": 6236,
  "nko": 6237,
  "“ abụ": 6238,
  "kpọwa": 6239,
  "kpọta": 6240,
  "pụtakwara": 6241,
  "Okwara": 6242,
  "Emi": 6243,
  "isiobodo": 6244,
  "20 )": 6245,
  "kwusiri": 6246,
  "ikpebi": 6247,
  "ọnụego": 6248,
  "emecha": 6249,
  "putere": 6250,
  "gbari": 6251,
  "aris": 6252,
  "sịrị ,": 6253,
  "kwagara": 6254,
  "atọọrọ": 6255,
  "kwuoro": 6256,
  "sụọ": 6257,
  "zagha": 6258,
  "gbara .": 6259,
  "ike . ”": 6260,
  "gị . ”": 6261,
  "Por": 6262,
  "uweojii .": 6263,
  "nwute": 6264,
  "mkpata": 6265,
  "inta": 6266,
  "apa": 6267,
  "tọgburu": 6268,
  "kagburu": 6269,
  "ekwesiri": 6270,
  "nne ,": 6271,
  "nnekwu": 6272,
  "na-ebido": 6273,
  "Ath": 6274,
  "beth": 6275,
  "akwụọla": 6276,
  "asọmpi .": 6277,
  "nche ,": 6278,
  "nwunye ,": 6279,
  "olas": 6280,
  "tuola": 6281,
  "etiti ,": 6282,
  "gawara": 6283,
  "bịaziri": 6284,
  "ụmụnwaanyị ,": 6285,
  "gbaburu": 6286,
  "iburu": 6287,
  "jichiri": 6288,
  "ekwuona": 6289,
  "ụgwọ ,": 6290,
  "Bil": 6291,
  "cheta \"": 6292,
  "zation": 6293,
  "bịara ,": 6294,
  "welitere": 6295,
  "ga-abụkwa": 6296,
  "na-achị .": 6297,
  "bibiri": 6298,
  "ekwenyeghị": 6299,
  "na-arụ .": 6300,
  "akpati": 6301,
  "Lamp": 6302,
  "anụmanụ ,": 6303,
  "nkasi": 6304,
  "nkuzi ,": 6305,
  "cation": 6306,
  "zuruike": 6307,
  "patị": 6308,
  "deau": 6309,
  "rụchaa": 6310,
  "ejichiela": 6311,
  "fia": 6312,
  "alụghị": 6313,
  "ghe ,": 6314,
  "ịrụsi": 6315,
  "mọtọ": 6316,
  "gaghịkwa": 6317,
  "echegbu": 6318,
  "fety": 6319,
  "Stan": 6320,
  "mood": 6321,
  "Bash": 6322,
  "Fir": 6323,
  "Gir": 6324,
  "oyi ,": 6325,
  "ekpebiri": 6326,
  "na-ewepụta": 6327,
  "chegharịa": 6328,
  "tụdịghị": 6329,
  "Sava": 6330,
  "berg": 6331,
  "bagidere": 6332,
  "na-abụkarị": 6333,
  "kpọkuzịrị": 6334,
  "edozi": 6335,
  "Fire": 6336,
  "atụrụ ,": 6337,
  "Mark": 6338,
  "bịafra ,": 6339,
  "ịnabata": 6340,
  "ekwentị ,": 6341,
  "Okorie": 6342,
  "na-anọghị": 6343,
  "tors": 6344,
  "mwepụ": 6345,
  "ogologo .": 6346,
  "kọọ ,": 6347,
  "akwadoghị": 6348,
  "Fund": 6349,
  "pụọ .": 6350,
  "ebere .": 6351,
  "guzoro": 6352,
  "Paki": 6353,
  "Dick": 6354,
  "azọpụtala": 6355,
  "Court": 6356,
  "ngozi": 6357,
  "tọzde ,": 6358,
  "tufuru": 6359,
  "ga-abịa .": 6360,
  "London .": 6361,
  "jamanị .": 6362,
  "huabu": 6363,
  "mmekọahụ": 6364,
  "Asse": 6365,
  "England .": 6366,
  "Belgi": 6367,
  "alụkwaghịm .": 6368,
  "udummiri": 6369,
  "ghts": 6370,
  "nkwupụta": 6371,
  "na-ezughị": 6372,
  "kepukepu": 6373,
  "Corpo": 6374,
  "social": 6375,
  "Social": 6376,
  "Centre": 6377,
  "Hollywood": 6378,
  "aịza": 6379,
  "nnochite": 6380,
  "na-eduhie": 6381,
  "Leban": 6382,
  "Cyber": 6383,
  "Indigen": 6384,
  "Lagar": 6385,
  "esorola": 6386,
  "Romne": 6387,
  "fred": 6388,
  "atọrọla": 6389,
  "nwetụla": 6390,
  "ogidi ,": 6391,
  "amịtaghị": 6392,
  "Secondu": 6393,
  "Malay": 6394,
  "Maria": 6395,
  "Ajayi": 6396,
  "ga-akụziri": 6397,
  "Benue ,": 6398,
  "tebulu": 6399,
  "Eid": 6400,
  "Atle": 6401,
  "Ball": 6402,
  "Danda": 6403,
  "Califor": 6404,
  "abịala": 6405,
  "Oscars": 6406,
  "ssey": 6407,
  "akpọkuola": 6408,
  "mwulite": 6409,
  "pụtakarịchara": 6410,
  "Edward": 6411,
  "Austin": 6412,
  "  \" . \" \" ": 6413,
  "Aminu": 6414,
  "Depart": 6415,
  "jenesis": 6416,
  "Jeremy": 6417,
  "Techno": 6418,
  "( APC )": 6419,
  "Zidane": 6420,
  "kampanọs": 6421,
  "Nasir": 6422,
  "Adesanya": 6423,
  "Tijani": 6424,
  "Nsukka": 6425,
  "lapse": 6426,
  "vision": 6427,
  "surance": 6428,
  "Usman": 6429,
  "Selari": 6430,
  "Morrison": 6431,
  "Evans": 6432,
  "Ganduje": 6433,
  "Okwaraji": 6434,
  "intanet": 6435,
  "Lampard": 6436,
  "Mahmood": 6437,
  "Savage": 6438,
  "Indigenous": 6439,
  "Lagarde": 6440,
  "Atletico": 6441,
  "Dandaura": 6442,
  "Department": 6443,
  "rd": 6444,
  "ab": 6445,
  "EF": 6446,
  "sk": 6447,
  "80": 6448,
  "85": 6449,
  "OG": 6450,
  "EE": 6451,
  "46": 6452,
  "-bụ": 6453,
  "ner": 6454,
  "zer": 6455,
  "art": 6456,
  "Tar": 6457,
  "Eke": 6458,
  "kaara": 6459,
  "onye .": 6460,
  "adụ": 6461,
  "n'otu": 6462,
  "bisi": 6463,
  "anti": 6464,
  "mechi": 6465,
  "ịche": 6466,
  "akasi": 6467,
  "lewe": 6468,
  "isisi": 6469,
  "Ira": 6470,
  "rac": 6471,
  "nike": 6472,
  "anọrọ": 6473,
  "kwuru \"": 6474,
  "kawa": 6475,
  "Awa": 6476,
  "ga-ezi": 6477,
  "soo": 6478,
  "ụsa": 6479,
  "sa .": 6480,
  "nwụchị": 6481,
  "nwụnye": 6482,
  "sepụ": 6483,
  "Azu": 6484,
  "udi": 6485,
  "okeala": 6486,
  "wuo": 6487,
  "na-emekọ": 6488,
  "na-emezi": 6489,
  "laa .": 6490,
  "daa .": 6491,
  "“ mụ": 6492,
  "bịam": 6493,
  "sịkwara": 6494,
  "mise": 6495,
  "ọnụnụ": 6496,
  "ga-edu": 6497,
  "ana ,": 6498,
  "ụbọ": 6499,
  "emegbu": 6500,
  "ngọ": 6501,
  "agbaa": 6502,
  "nwereonwe": 6503,
  "wetere": 6504,
  "nkea ,": 6505,
  "lari": 6506,
  "Shari": 6507,
  "ozie": 6508,
  "ojiego": 6509,
  "eruwe": 6510,
  "bugara": 6511,
  "aha ,": 6512,
  "hụrụ .": 6513,
  "ojii .": 6514,
  "2011": 6515,
  "ga-emer": 6516,
  "baịbụl . ”": 6517,
  "hovah": 6518,
  "-Buhari": 6519,
  "mara .": 6520,
  "gidi": 6521,
  "mọkụ": 6522,
  "na-agwụ": 6523,
  "inyo": 6524,
  "-uweojii": 6525,
  "hel": 6526,
  "emenwu": 6527,
  "na-ekwu ?": 6528,
  "pal": 6529,
  "arụpụta": 6530,
  "-gọọmentị": 6531,
  "na-agbakwa": 6532,
  "ga-akpụ": 6533,
  "na-ajọ": 6534,
  "1 ;": 6535,
  "sị ;": 6536,
  "abụ ;": 6537,
  "a ;": 6538,
  "Cal": 6539,
  "edere": 6540,
  "gue": 6541,
  "gu ,": 6542,
  "Fin": 6543,
  "ịgwọ": 6544,
  "adị ?": 6545,
  "zị ,": 6546,
  "kụọla": 6547,
  "mefu": 6548,
  "egwuregwu .": 6549,
  "llo": 6550,
  "nwuchie": 6551,
  "nọchie": 6552,
  "Lig": 6553,
  "ebinye": 6554,
  "Laf": 6555,
  "APT": 6556,
  "chukwu ,": 6557,
  "kuziri": 6558,
  "kwuziri": 6559,
  "maburu": 6560,
  "ebighi": 6561,
  "ụlọikpe ,": 6562,
  "Ken": 6563,
  "ịgbalị": 6564,
  "sochiri": 6565,
  "kpachiri": 6566,
  "gịnị \"": 6567,
  "ngwaọrụ": 6568,
  "kọtala": 6569,
  "na-emeri": 6570,
  "ning": 6571,
  "nger": 6572,
  "Nigeria .": 6573,
  "zukọrọ": 6574,
  "puku ,": 6575,
  "iko ,": 6576,
  "Aki": 6577,
  "rom .": 6578,
  "ụlọozu": 6579,
  "kwudịrị": 6580,
  "na-adịrị": 6581,
  "eleghị": 6582,
  "Rede": 6583,
  "- 5": 6584,
  "obere ,": 6585,
  "nọgide": 6586,
  "imegide": 6587,
  "rant": 6588,
  "kwurịta": 6589,
  "malitere ,": 6590,
  "PDP ,": 6591,
  "anyanwụ ,": 6592,
  "ga-achọpụta": 6593,
  "gụnyere ;": 6594,
  "ahụhụ ?": 6595,
  "ekwupụta": 6596,
  "na-eleta": 6597,
  "nọrọla": 6598,
  "mmeri .": 6599,
  "na-ejide": 6600,
  "Cris": 6601,
  "na-esote": 6602,
  "ụtụtụ .": 6603,
  "katọọ": 6604,
  "Adam .": 6605,
  "na-enwekwa": 6606,
  "na-erughị": 6607,
  "ahọpụtala": 6608,
  "okwukwe .": 6609,
  "Sco": 6610,
  "ga-enyekwa": 6611,
  "ọhịa ,": 6612,
  "Adeye": 6613,
  "nnọchi": 6614,
  "gbadoro": 6615,
  "lagoro": 6616,
  "Rita": 6617,
  "ụlọụka .": 6618,
  "inwete": 6619,
  "-ọkaiwu": 6620,
  "ctri": 6621,
  "nment": 6622,
  "na-ewetara": 6623,
  "ebinyela": 6624,
  "Sky": 6625,
  "abatala": 6626,
  "Ekweremadu .": 6627,
  "mmehie .": 6628,
  "ọdịnihu ?": 6629,
  "tọhapụrụ": 6630,
  "eghe": 6631,
  "ịmatakwu": 6632,
  "metụtara .": 6633,
  "satọdee .": 6634,
  "ọmị": 6635,
  "agakwaghị": 6636,
  "Ray": 6637,
  "irubere": 6638,
  "na-egbuke": 6639,
  "ga-anabata": 6640,
  "Chukwudi": 6641,
  "Ayo": 6642,
  "Twitter .": 6643,
  "na-edebe": 6644,
  "Boni": 6645,
  "mbugharị": 6646,
  "...": 6647,
  "mbinye": 6648,
  "tozuo": 6649,
  "akagbuola": 6650,
  "Tai": 6651,
  "Nwagbara": 6652,
  "anọọla": 6653,
  "agwọọla": 6654,
  "akarịala": 6655,
  "areth": 6656,
  "ubi ,": 6657,
  "agbamakwụkwọ": 6658,
  "ụbụrụisi": 6659,
  " \" \" , \"": 6660,
  "ọnyụ": 6661,
  "Anao": 6662,
  "julaị .": 6663,
  "ijere": 6664,
  "septemba .": 6665,
  "akatọla": 6666,
  "adịgboroja .": 6667,
  "inọk .": 6668,
  "Obama ,": 6669,
  "nduru": 6670,
  "Sick": 6671,
  "2013 .": 6672,
  "anabatala": 6673,
  "dium": 6674,
  "gbalaga": 6675,
  "Bible": 6676,
  "Light": 6677,
  "nzere": 6678,
  "midia ,": 6679,
  "Valen": 6680,
  "kpamkpam": 6681,
  "kpamkpam .": 6682,
  "oghere": 6683,
  "aịzik": 6684,
  "ga-akpụpụ": 6685,
  "mepee": 6686,
  "prote": 6687,
  "ụmụntakịrị": 6688,
  "Ajax": 6689,
  "Alexandra": 6690,
  "ịsụgharị": 6691,
  "Okeke ,": 6692,
  "ebuliela": 6693,
  "Benue": 6694,
  "Boston": 6695,
  "Aston": 6696,
  "YouTu": 6697,
  "Fr .": 6698,
  "Odekpe": 6699,
  "saịt": 6700,
  "ngụkọ": 6701,
  "President": 6702,
  "Amaraizu": 6703,
  "Jong-": 6704,
  "Onumah": 6705,
  "arụkwaghịm": 6706,
  "Madagaska": 6707,
  "Adamawa": 6708,
  "Tammy": 6709,
  "mouth": 6710,
  "House": 6711,
  "Patrick": 6712,
  "Queens": 6713,
  "Julius": 6714,
  "eturula": 6715,
  "chụsasịa": 6716,
  "Amazon": 6717,
  "Primaries": 6718,
  "Hospital": 6719,
  "Philip": 6720,
  "nebukadneza": 6721,
  "Akpabio": 6722,
  "Moghalu": 6723,
  "Virgi": 6724,
  "Angola": 6725,
  "Onyebuchi": 6726,
  "alụmdinanwunye": 6727,
  "Building": 6728,
  "kachanụ": 6729,
  "Equato": 6730,
  "Babatunde": 6731,
  "Organisation": 6732,
  "Science": 6733,
  "Thailand": 6734,
  "Afghanistan": 6735,
  "urtado": 6736,
  "Sweden": 6737,
  "Safety": 6738,
  "Bashir": 6739,
  "huabunwa": 6740,
  "Bassey": 6741,
  "Iraq": 6742,
  "  \" kwuru \"": 6743,
  "ụbịam": 6744,
  "Promise": 6745,
  "APTIP": 6746,
  "Sickle": 6747,
  "Jong-un": 6748,
  "Equatorial": 6749,
  "ọf": 6750,
  "ịs": 6751,
  "dd": 6752,
  "32": 6753,
  "NC": 6754,
  "Zu": 6755,
  "8.": 6756,
  "95": 6757,
  "Py": 6758,
  "wọ": 6759,
  "Ona": 6760,
  "oka": 6761,
  "Oka": 6762,
  "ert": 6763,
  "Jer": 6764,
  "Fer": 6765,
  "ị ,": 6766,
  "ar .": 6767,
  "arma": 6768,
  "ke .": 6769,
  "erere": 6770,
  "ara .": 6771,
  "Kwara": 6772,
  "Iya": 6773,
  "ihụ": 6774,
  "hụta": 6775,
  "Okwu": 6776,
  "pri": 6777,
  "Sri": 6778,
  "Ori": 6779,
  "ahụta": 6780,
  "nke ,": 6781,
  "kwaba": 6782,
  "Akwa": 6783,
  "hụkwa": 6784,
  "rụtụ": 6785,
  "na-ete": 6786,
  "bela": 6787,
  "mebe": 6788,
  "ans": 6789,
  "chịm": 6790,
  "otu \"": 6791,
  "m \"": 6792,
  "cheba": 6793,
  "dom": 6794,
  "Odo": 6795,
  "Owe": 6796,
  "Cala": 6797,
  "nwaa": 6798,
  "nwale": 6799,
  "ebe .": 6800,
  "ikele": 6801,
  "na-awa": 6802,
  "deji": 6803,
  "bụcha": 6804,
  "nyemaka": 6805,
  "so .": 6806,
  "katara": 6807,
  "mani": 6808,
  "egbo": 6809,
  "Agwu": 6810,
  "anọchị": 6811,
  "kwee": 6812,
  "lub": 6813,
  "kpeere": 6814,
  "Izu": 6815,
  "dic": 6816,
  "dili": 6817,
  "ichegbu": 6818,
  "tunyere": 6819,
  "nto": 6820,
  "onu": 6821,
  "ịpụta": 6822,
  "re :": 6823,
  "ren": 6824,
  "jewe": 6825,
  "jekwu": 6826,
  "N )": 6827,
  "ga-arị": 6828,
  "Cheri": 6829,
  "mpany": 6830,
  "alaigbo": 6831,
  "“ ezi": 6832,
  "“ oge": 6833,
  "nton": 6834,
  "sọlọ": 6835,
  "chekwara": 6836,
  "nmi": 6837,
  "napụtara": 6838,
  "mapụtara": 6839,
  "siria": 6840,
  "tozu": 6841,
  "Seme": 6842,
  "emene": 6843,
  "ruuru": 6844,
  "agbaghị": 6845,
  "gaa ,": 6846,
  "sts": 6847,
  "garala": 6848,
  "gọọla": 6849,
  "ọma ?": 6850,
  "uru . ”": 6851,
  "mmadụ . ”": 6852,
  "or ,": 6853,
  "rụchara": 6854,
  "Buhari :": 6855,
  "( nke": 6856,
  "niel": 6857,
  "Cole": 6858,
  "atụla": 6859,
  "ntụzi": 6860,
  "na-agbata": 6861,
  "kpọpụrụ": 6862,
  "kụpụrụ": 6863,
  "iwetara": 6864,
  "Joha": 6865,
  "mgbawa": 6866,
  "mgbagbu": 6867,
  "Pin": 6868,
  "inde": 6869,
  "mus": 6870,
  "igwe .": 6871,
  "ọgbata": 6872,
  "na-agbaghara": 6873,
  "plo": 6874,
  "zuola": 6875,
  "fuola": 6876,
  "afa": 6877,
  "akwaala": 6878,
  "Mata": 6879,
  "Maku": 6880,
  "ọjọọ ?": 6881,
  "ụtọ ?": 6882,
  "ekweghi": 6883,
  "sista": 6884,
  "ada .": 6885,
  "Chieji": 6886,
  "Chika": 6887,
  "“ gịnị": 6888,
  "Ozo": 6889,
  "mbọmbọ": 6890,
  "ering": 6891,
  "na-akpọkwa": 6892,
  "sorokwa": 6893,
  "izute": 6894,
  "ehi .": 6895,
  "ekpere ?": 6896,
  "kọwakwara": 6897,
  "ozuzu": 6898,
  "Cele": 6899,
  "echi .": 6900,
  "echi ,": 6901,
  "woro": 6902,
  "mmemme .": 6903,
  "mmemme ,": 6904,
  "Lam": 6905,
  "achọta": 6906,
  "tọrọla": 6907,
  "akpaabụ": 6908,
  "ekesa": 6909,
  "egbe ,": 6910,
  "rịtaụka": 6911,
  "nwata ,": 6912,
  "Code": 6913,
  "Cove": 6914,
  "okike": 6915,
  "ngapo": 6916,
  "ezuru": 6917,
  "anca": 6918,
  "nica": 6919,
  "kwuru ,  \" ": 6920,
  "Nwabu": 6921,
  "itoolu .": 6922,
  "Muhammad": 6923,
  "karịchaa": 6924,
  "ewo": 6925,
  "na-abịa ,": 6926,
  "( IPOB": 6927,
  "Fai": 6928,
  "kwesiri .": 6929,
  "na-agụrụ": 6930,
  "gbasie": 6931,
  "ader": 6932,
  "akpụ .": 6933,
  "anwan": 6934,
  "ssan": 6935,
  "Obina": 6936,
  "ịtụnyere": 6937,
  "wụọ": 6938,
  "redio": 6939,
  "katọlik ,": 6940,
  "olili": 6941,
  "akpọlite": 6942,
  "Tony": 6943,
  "ikpu": 6944,
  "akịrịka .": 6945,
  "hong": 6946,
  "000 )": 6947,
  "mpụ ,": 6948,
  "maara ?": 6949,
  "Emema": 6950,
  "March": 6951,
  "USS": 6952,
  "Natha": 6953,
  "nzuzo .": 6954,
  "Lagos ,": 6955,
  "na  \" ọ \"": 6956,
  "apị": 6957,
  "na-esonye": 6958,
  "ụkpụrụ": 6959,
  "Twitter ,": 6960,
  "briten ,": 6961,
  "gwoo": 6962,
  "akwadoghi": 6963,
  "Iheana": 6964,
  "latrik ,": 6965,
  "nọnyeere": 6966,
  "gachara .": 6967,
  "akwanyere": 6968,
  "adagbuola": 6969,
  "Pales": 6970,
  "chekwaa": 6971,
  "nrọ .": 6972,
  "amatali": 6973,
  "apụta .": 6974,
  "enyerela": 6975,
  "1999": 6976,
  "Old": 6977,
  "aghọọla": 6978,
  "sịga .": 6979,
  "gbarụrụ": 6980,
  "arụrụala": 6981,
  "na-ekesa": 6982,
  "bishop": 6983,
  "ịzụta": 6984,
  "ọktoba ,": 6985,
  "nnewi ,": 6986,
  "mechaa ,": 6987,
  "-Umu": 6988,
  "gramme": 6989,
  "ọgwụgwọ .": 6990,
  "Yoaku": 6991,
  "Hunt": 6992,
  "Benson": 6993,
  "Fina": 6994,
  "Luka": 6995,
  "CAN": 6996,
  "nkwụcha": 6997,
  "Aguata": 6998,
  "anabataghị": 6999,
  "kpọkuokwa": 7000,
  "Jeff": 7001,
  "akọwala": 7002,
  "Kano ,": 7003,
  "Job ,": 7004,
  "Muell": 7005,
  "Cosch": 7006,
  "sị :  \" anyị \"": 7007,
  "Okorocha :": 7008,
  "nhazigharị": 7009,
  "Ambo": 7010,
  "ttack": 7011,
  "Minimu": 7012,
  "Foru": 7013,
  "ziteere": 7014,
  "ga-echekwa": 7015,
  "na-agbagwoju": 7016,
  "Herọ": 7017,
  "owuwe": 7018,
  " .  \" e \"": 7019,
  "  \" e \"": 7020,
  "gbapee": 7021,
  "cement": 7022,
  "field": 7023,
  "obosi": 7024,
  "ọchụchụ": 7025,
  "ọlị .": 7026,
  "server": 7027,
  "Championship": 7028,
  "mmanya ,": 7029,
  "NEMA": 7030,
  "na-akparị": 7031,
  "imemila": 7032,
  "August": 7033,
  "sult": 7034,
  "tenis": 7035,
  "amawbịa ,": 7036,
  "NBC": 7037,
  "illing": 7038,
  "Madagascar": 7039,
  "na-arahụ": 7040,
  "Monday": 7041,
  "Augustine": 7042,
  "ọchan": 7043,
  "  \" mgbe \"": 7044,
  "terite": 7045,
  "uhuru": 7046,
  "eserese": 7047,
  "Amuneke": 7048,
  "emerụọla": 7049,
  "ọbọgwụ": 7050,
  "Ghost": 7051,
  "Aliyu": 7052,
  "osikapa ,": 7053,
  "ojoro": 7054,
  "Geof": 7055,
  "nuklia": 7056,
  "mwereonwe": 7057,
  "Mmaku": 7058,
  "blọk": 7059,
  "Poland": 7060,
  "Unilag": 7061,
  "tlehe": 7062,
  "Guardi": 7063,
  "Elizabeth": 7064,
  "Stanley": 7065,
  "Girls": 7066,
  "Assemb": 7067,
  "Corporation": 7068,
  "aịzaya": 7069,
  "collapse": 7070,
  "Insurance": 7071,
  "Selariọs": 7072,
  "EEDC": 7073,
  "Sharibu": 7074,
  "Jehovah": 7075,
  "Cristi": 7076,
  "webụ": 7077,
  "Primaries :": 7078,
  "Furtado": 7079,
  "Calabar": 7080,
  "Johannes": 7081,
  "ọgbatauhie": 7082,
  "Covenant": 7083,
  "Singapo": 7084,
  "Bianca": 7085,
  "USSD": 7086,
  "Nathaniel": 7087,
  "Iheanacho": 7088,
  "Ambode": 7089,
  "Minimum": 7090,
  "Herọd": 7091,
  "ọchanja": 7092,
  "Geoffrey": 7093,
  "Cristiano": 7094,
  "webụsaịt": 7095,
  "Singapore": 7096,
  "Am": 7097,
  "Ak": 7098,
  "70": 7099,
  "Wo": 7100,
  "ịị": 7101,
  "Er": 7102,
  "31": 7103,
  "Du": 7104,
  "PF": 7105,
  "Nj": 7106,
  "38": 7107,
  "84": 7108,
  "97": 7109,
  "LE": 7110,
  "kadị": 7111,
  "fer": 7112,
  "rara": 7113,
  "las": 7114,
  "pla": 7115,
  "sic": 7116,
  "bsi": 7117,
  "Oji": 7118,
  "Ata": 7119,
  "kwunye": 7120,
  "itu": 7121,
  "bas": 7122,
  "hụghị": 7123,
  "na-adụ": 7124,
  "tis": 7125,
  "dịzi": 7126,
  "anyị-": 7127,
  "pụghị": 7128,
  "Nan": 7129,
  "ant": 7130,
  "achi": 7131,
  "chighị": 7132,
  "cheghị": 7133,
  "akasị": 7134,
  "Baka": 7135,
  "lọt": 7136,
  "dola": 7137,
  "Ado": 7138,
  "chewe": 7139,
  "ne .": 7140,
  "Nne": 7141,
  "ikwụ": 7142,
  "kwaala": 7143,
  "Gala": 7144,
  "goo": 7145,
  "gote": 7146,
  "tali": 7147,
  "lish": 7148,
  "Nike": 7149,
  "isiike": 7150,
  "waala": 7151,
  "ịbu": 7152,
  "sowe": 7153,
  "tụtara": 7154,
  "niu": 7155,
  "mgbo": 7156,
  "na-enwere": 7157,
  "kesa": 7158,
  "Isa": 7159,
  "sal": 7160,
  "mbata": 7161,
  "imechi": 7162,
  "Sime": 7163,
  "abụba": 7164,
  "lum": 7165,
  "nọbu": 7166,
  "nse": 7167,
  "Ekpe": 7168,
  "s  \" ": 7169,
  "Okpa": 7170,
  "denyere": 7171,
  "daara": 7172,
  "ihe ?": 7173,
  "ntụtụ": 7174,
  "ya . )": 7175,
  "akụkọ ,": 7176,
  "arịala": 7177,
  "za .": 7178,
  "ọtụtụ .": 7179,
  "Son": 7180,
  "ụsọ": 7181,
  "kpọọrọ": 7182,
  "kpọkwara": 7183,
  "sepu": 7184,
  "ọnụma": 7185,
  "anara": 7186,
  "Fiji": 7187,
  "jụwa": 7188,
  "phi": 7189,
  "Maga": 7190,
  "sirila": 7191,
  "Nze": 7192,
  "bitere": 7193,
  "za ,": 7194,
  "Mari": 7195,
  "ojiri": 7196,
  "kasịrị": 7197,
  "na-agara": 7198,
  "Bul": 7199,
  "kpọrọ ,": 7200,
  "2010": 7201,
  "ọsụ": 7202,
  "ghasa": 7203,
  "nchara": 7204,
  "achara": 7205,
  "gụchara": 7206,
  "mụchara": 7207,
  "emechara": 7208,
  "Buhari \"": 7209,
  "ịmara": 7210,
  "gine": 7211,
  "( 3": 7212,
  "iwulite": 7213,
  "keela": 7214,
  "aba ,": 7215,
  "atụghị": 7216,
  "na-agbaso": 7217,
  "na-agbawa": 7218,
  "gọvanọ \"": 7219,
  "kpụpụrụ": 7220,
  "sekpụ": 7221,
  "na-aja": 7222,
  "Anne": 7223,
  "Ral": 7224,
  "real": 7225,
  "na-agbape": 7226,
  "mgba .": 7227,
  "Vin": 7228,
  "ga-agwọ": 7229,
  "bidokwara": 7230,
  "tice": 7231,
  "nọzị": 7232,
  "hazị": 7233,
  "rubere": 7234,
  "fun": 7235,
  "ifu": 7236,
  "weghara": 7237,
  "chigha": 7238,
  "na-agha": 7239,
  "atọgha": 7240,
  "amaegwuregwu": 7241,
  "ọzọ .  \" ": 7242,
  "clo": 7243,
  "na-agafe": 7244,
  "gbachie": 7245,
  "Baf": 7246,
  "gozie": 7247,
  "Fou": 7248,
  "bidoziri": 7249,
  "gọziri": 7250,
  "musu": 7251,
  "nkwụsị": 7252,
  "agụ ,": 7253,
  "agụma": 7254,
  "ntina": 7255,
  "Pen": 7256,
  "gbachiri": 7257,
  "tinyekwa": 7258,
  "ịtinye": 7259,
  "vil": 7260,
  "iza": 7261,
  "jikọta": 7262,
  "na-abịara": 7263,
  "Rog": 7264,
  "bata .": 7265,
  "webata": 7266,
  "ting": 7267,
  "now": 7268,
  "19 ,": 7269,
  "amụtara": 7270,
  "dum .": 7271,
  "Mane": 7272,
  "dịrịghị": 7273,
  "eleta": 7274,
  "na-arụsi": 7275,
  "Limi": 7276,
  "gooro": 7277,
  "agwaetiti": 7278,
  "na-adịkwu": 7279,
  "kpara .": 7280,
  "jigide": 7281,
  "mmegide": 7282,
  "ịtọrọ": 7283,
  "Most": 7284,
  "Nweke": 7285,
  "ekene": 7286,
  "gbahapụ": 7287,
  "ọgbakọ .": 7288,
  "pope": 7289,
  "ezu .": 7290,
  "ntaakụkọ .": 7291,
  "Aca": 7292,
  "chụdara": 7293,
  "ga-ezuru": 7294,
  "anyanwụ .": 7295,
  "chọpụtakwara": 7296,
  "mba !": 7297,
  "ekwusi": 7298,
  "imalite": 7299,
  "na-elekwa": 7300,
  "Bide": 7301,
  "na-ejikarị": 7302,
  "Easter": 7303,
  "okpukpere": 7304,
  "nzukọ ,": 7305,
  "Adam ,": 7306,
  "daalụ": 7307,
  "asịsa": 7308,
  "ahọpụtara": 7309,
  "Arge": 7310,
  "naghịkwa": 7311,
  "fite": 7312,
  "ety": 7313,
  "obiọma .": 7314,
  "ties": 7315,
  "gawa .": 7316,
  "INEC ,": 7317,
  "Kachi": 7318,
  "ness": 7319,
  "ọgọdọ": 7320,
  "Sand": 7321,
  "ọfụma ,": 7322,
  "nyefere": 7323,
  "200 ,": 7324,
  "anapụla": 7325,
  "eweta": 7326,
  "ogbugbu": 7327,
  "cking": 7328,
  "ee .": 7329,
  "rịọkwara": 7330,
  "ọbara .": 7331,
  "Muhammed": 7332,
  "tụgharịa": 7333,
  "mbaụwa .": 7334,
  "vootu .": 7335,
  "akịrịka ,": 7336,
  "risky": 7337,
  "ịkpata": 7338,
  "1000": 7339,
  "ekele ,": 7340,
  "Bour": 7341,
  "Cour": 7342,
  "aruo": 7343,
  "ịkpọpụta": 7344,
  "ọhanaeze ,": 7345,
  "ọkwụrụ": 7346,
  "Ower": 7347,
  "ghee": 7348,
  "ụlọọgwụ ,": 7349,
  "devid .": 7350,
  "devid ,": 7351,
  "satọde ,": 7352,
  "Christo": 7353,
  "ụmị": 7354,
  "ọzara": 7355,
  "nwekwaghị": 7356,
  "ibelata": 7357,
  "Southa": 7358,
  "ekwentị .": 7359,
  "iman": 7360,
  "efu ,": 7361,
  "briten .": 7362,
  "lebagodị": 7363,
  "nkịta .": 7364,
  "guzobere": 7365,
  "Papa": 7366,
  "ikuchi": 7367,
  "( APGA": 7368,
  "jịkọrọ": 7369,
  "Child": 7370,
  "Squ": 7371,
  "16 )": 7372,
  "16 ,": 7373,
  "listi": 7374,
  "sting": 7375,
  "ga-akarị": 7376,
  "degaara": 7377,
  "na-akwanye": 7378,
  "ebutela": 7379,
  "wetuo": 7380,
  "bishọọ": 7381,
  "lọta ,": 7382,
  "Broad": 7383,
  "tary": 7384,
  "Hadi": 7385,
  "na-arọ": 7386,
  "meela .": 7387,
  "Sambi": 7388,
  "Opara": 7389,
  "2013 ,": 7390,
  "Plateau :": 7391,
  "gbadaa": 7392,
  "ogbenye .": 7393,
  "Gree": 7394,
  "uhie ,": 7395,
  "Christine": 7396,
  "tumtum": 7397,
  "abalịa": 7398,
  "28 ,": 7399,
  "Commit": 7400,
  "kawanye": 7401,
  "Rev .": 7402,
  "Danju": 7403,
  "septemba ,": 7404,
  "Balo": 7405,
  "oteela": 7406,
  "ga-akasi": 7407,
  "29 )": 7408,
  "27 ,": 7409,
  "VAR": 7410,
  "UNI": 7411,
  "2014 ,": 7412,
  "awakpola": 7413,
  "ga-abịaru": 7414,
  "ADC": 7415,
  "merenụ ,": 7416,
  "1970": 7417,
  "2010 .": 7418,
  "emebiela": 7419,
  "ject": 7420,
  "Lady": 7421,
  "okpokoro": 7422,
  "Offi": 7423,
  "krisma": 7424,
  "lọghachite": 7425,
  "Traffi": 7426,
  "Kanu .": 7427,
  "na-apụghị": 7428,
  "ga-azụta": 7429,
  "njedebe .": 7430,
  "gasịrị ,": 7431,
  "anyaụfụ": 7432,
  "Nic": 7433,
  "ga-emetụta": 7434,
  "tịnkọ": 7435,
  "Ogbonnaya": 7436,
  "mberg": 7437,
  "otuto .": 7438,
  "1914 .": 7439,
  "sekọndị": 7440,
  "na-emenụ ,": 7441,
  "Oyede": 7442,
  "Black \"": 7443,
  "nzaghachi": 7444,
  "nzaghachi ,": 7445,
  "stone": 7446,
  "Bruce": 7447,
  "kpasuru": 7448,
  "York .": 7449,
  "bụnadị": 7450,
  "Flori": 7451,
  "Ojoto": 7452,
  "Kongo": 7453,
  "Walter": 7454,
  "Ndubuaku": 7455,
  "mbanụ !": 7456,
  "na-ekwesighị": 7457,
  "anwụchikọọla": 7458,
  "Matthe": 7459,
  "ugboguru .": 7460,
  "ukpor": 7461,
  "Rabiu": 7462,
  "Ayamelu": 7463,
  "adres": 7464,
  "ga-ehichapụ": 7465,
  "Mozis": 7466,
  "izuuka .": 7467,
  "Ebreham ,": 7468,
  "Bauchi": 7469,
  "Netherlands": 7470,
  "tebụl": 7471,
  "Trudeau": 7472,
  "Motors": 7473,
  "witzer": 7474,
  "nozie": 7475,
  "Redeeme": 7476,
  "Electri": 7477,
  "Boniface": 7478,
  "Gareth": 7479,
  "nemouth": 7480,
  "Ohuabunwa": 7481,
  "NAPTIP": 7482,
  "alert": 7483,
  "Celestine": 7484,
  "( IPOB )": 7485,
  "Faith": 7486,
  "Ememanka": 7487,
  "Palesti": 7488,
  "Programme": 7489,
  "Yoakum": 7490,
  "Lukaku": 7491,
  "Assembly": 7492,
  "nwịị": 7493,
  "Engine": 7494,
  "Bafana": 7495,
  "Rogers": 7496,
  "Limited": 7497,
  "Acade": 7498,
  "okpukperechi": 7499,
  "Society": 7500,
  "Bobrisky": 7501,
  "Christoph": 7502,
  "Southampton": 7503,
  "filisti": 7504,
  "bishọọpụ": 7505,
  "sekọndịrị": 7506,
  "Matthew": 7507,
  "Redeemed": 7508,
  "Bournemouth": 7509,
  "Christopher": 7510,
  "filistia": 7511,
  "ez": 7512,
  "ekw": 7513,
  "ụkp": 7514,
  "Oy": 7515,
  "Wi": 7516,
  "Fr": 7517,
  "-S": 7518,
  "36": 7519,
  "Eu": 7520,
  "AK": 7521,
  "Iw": 7522,
  "CS": 7523,
  "DR": 7524,
  "2.": 7525,
  "MT": 7526,
  "ler": 7527,
  "her": 7528,
  "Dar": 7529,
  "ars": 7530,
  "Far": 7531,
  "mech": 7532,
  "erela": 7533,
  "sla": 7534,
  "Tri": 7535,
  "hụru": 7536,
  "nkey": 7537,
  "tutu": 7538,
  "metu": 7539,
  "onye ,": 7540,
  "tụghị": 7541,
  "tiu": 7542,
  "tech": 7543,
  "nate": 7544,
  "Ote": 7545,
  "gba ,": 7546,
  "be ,": 7547,
  "mma-": 7548,
  "mmanye": 7549,
  "Ichi": 7550,
  "dị \"": 7551,
  "Uzọ": 7552,
  "alọ": 7553,
  "makụ": 7554,
  "Fala": 7555,
  "hanwa": 7556,
  "Ora": 7557,
  "dra": 7558,
  "ariri": 7559,
  "Amaka": 7560,
  "bubu": 7561,
  "jibu": 7562,
  "sor": 7563,
  "kwatara": 7564,
  "ketara": 7565,
  "akaọrụ": 7566,
  "ga-apụ": 7567,
  "aka :": 7568,
  "dge": 7569,
  "gege": 7570,
  "Mbo": 7571,
  "ụnwụ": 7572,
  "gịga": 7573,
  "naịjirịa \"": 7574,
  "nọzi": 7575,
  "ịkwọ": 7576,
  "use": 7577,
  "see": 7578,
  "etinyere": 7579,
  "ime ?": 7580,
  "nus": 7581,
  "nugwu": 7582,
  "wapụta": 7583,
  "red": 7584,
  "rewa": 7585,
  "E )": 7586,
  "wuji": 7587,
  "abụọ )": 7588,
  "agharị": 7589,
  "mpa": 7590,
  "-onyeisi": 7591,
  "“ nwa": 7592,
  "“ ụmụ": 7593,
  "“ ya": 7594,
  " ” ,": 7595,
  "ya ”": 7596,
  "ịsọ": 7597,
  "kpọghị": 7598,
  "sikwara": 7599,
  "takwara": 7600,
  "nọkwara": 7601,
  "pula": 7602,
  "memi": 7603,
  "Dana": 7604,
  "“ ụwa": 7605,
  "agawa": 7606,
  "agada": 7607,
  "gwaghị": 7608,
  "chepụtara": 7609,
  "jisiri": 7610,
  "metere": 7611,
  "onyekwuo": 7612,
  "jụkwara": 7613,
  "erend": 7614,
  "Rome": 7615,
  "nọ . ”": 7616,
  "ọma . ”": 7617,
  "ala . ”": 7618,
  "Buhari ?": 7619,
  "ga-emezi": 7620,
  "sụgharị": 7621,
  "( U": 7622,
  "( ma": 7623,
  "( bụ": 7624,
  "( ya": 7625,
  "litela": 7626,
  "Nel": 7627,
  "na-ekwupụta": 7628,
  "nta ,": 7629,
  "paị": 7630,
  "mbụ ?": 7631,
  "na-agba ,": 7632,
  "dọkwara": 7633,
  " ; ;": 7634,
  "' ;": 7635,
  "anwụ ?": 7636,
  "alla": 7637,
  "gbape": 7638,
  "Spe": 7639,
  "agbape": 7640,
  "mgba ,": 7641,
  "mgbachi": 7642,
  "gugu": 7643,
  "Lin": 7644,
  "bidokwa": 7645,
  "wanyere": 7646,
  "ghọgburu": 7647,
  "ọnwụ ?": 7648,
  "ceu": 7649,
  "kọbara": 7650,
  "fughị": 7651,
  "ejidere": 7652,
  "Glo": 7653,
  "Olo": 7654,
  "kpọchie": 7655,
  "ga-eyi": 7656,
  "ebili": 7657,
  "mụwara": 7658,
  "you": 7659,
  "Dou": 7660,
  "Mac": 7661,
  "suji": 7662,
  "sun": 7663,
  "na-esu": 7664,
  "leru": 7665,
  "agụ .": 7666,
  "gbanarị": 7667,
  "enyem": 7668,
  "adaa": 7669,
  "Nada": 7670,
  "kwesịrị .": 7671,
  "2019 ?": 7672,
  "anaghịzị": 7673,
  "ọha ,": 7674,
  "izo": 7675,
  "800": 7676,
  "zaghị": 7677,
  "jikere": 7678,
  "chịkọta": 7679,
  "tion :": 7680,
  "via": 7681,
  "viso": 7682,
  "rubeghị": 7683,
  "ọdịghị": 7684,
  "-APC": 7685,
  "na-achị ,": 7686,
  "enweghịzị": 7687,
  "enweghịzi": 7688,
  "na-echetara": 7689,
  "njem ,": 7690,
  "iki": 7691,
  "kpam .": 7692,
  "kọwapụtara": 7693,
  "n'uche": 7694,
  "ọsọndụ": 7695,
  "nzute": 7696,
  "ịma .": 7697,
  "  \" ele": 7698,
  "Tele": 7699,
  "Lion": 7700,
  "foro": 7701,
  "Toro": 7702,
  "nkwalite": 7703,
  "adịghị ,": 7704,
  "eke ,": 7705,
  "Haram ,": 7706,
  "pper": 7707,
  "sper": 7708,
  "super": 7709,
  "Live": 7710,
  "sive": 7711,
  "ụmụanụmanụ": 7712,
  "na-afụ": 7713,
  "nkatọ": 7714,
  "bidoro .": 7715,
  "nkuzi .": 7716,
  "( PDP": 7717,
  "naira .": 7718,
  "ụdara": 7719,
  "ọlaọcha": 7720,
  "Pep": 7721,
  " ! !": 7722,
  "m !": 7723,
  "mmanụ .": 7724,
  "ekwusa": 7725,
  "cop": 7726,
  "esiji": 7727,
  "ịbọ": 7728,
  "osisi .": 7729,
  "tock": 7730,
  "ga-abanye": 7731,
  "lebanye": 7732,
  "na-amanye": 7733,
  "Adazi": 7734,
  "emeriri": 7735,
  "ịrụzi": 7736,
  "Abba": 7737,
  "na-ebugharị": 7738,
  "akpụ ,": 7739,
  "ya  \" . \"": 7740,
  "ngagharịiwe .": 7741,
  "Sadi": 7742,
  "Adebo": 7743,
  "na-anọchi": 7744,
  "nọgoro": 7745,
  "Evo": 7746,
  "Obidi": 7747,
  "ịtụbata": 7748,
  "ndaba": 7749,
  "ferela": 7750,
  "merie .": 7751,
  "City .": 7752,
  "katọlik .": 7753,
  "achịtaghị": 7754,
  "2009": 7755,
  "oyi .": 7756,
  "king": 7757,
  "ving": 7758,
  "dịghịkwa": 7759,
  "vaị": 7760,
  "na-ata ,": 7761,
  "Mohammed ,": 7762,
  "setan .": 7763,
  "10 .": 7764,
  "amụtala": 7765,
  "Keya": 7766,
  "Preci": 7767,
  "Press": 7768,
  "ency": 7769,
  "mpụ .": 7770,
  "Jim": 7771,
  "mmehie ,": 7772,
  "ọdịnihu ,": 7773,
  "ihazi": 7774,
  "mkpughe": 7775,
  "ewu .": 7776,
  "Dire": 7777,
  "ga-anọgide": 7778,
  "mịta": 7779,
  "Nnaji": 7780,
  "ụlọakụ ,": 7781,
  "Serge": 7782,
  "na-ebi .": 7783,
  "ịchịkọta": 7784,
  "na-alụ .": 7785,
  "nwechaghị": 7786,
  "adịchaghị": 7787,
  "na-ezute": 7788,
  "Abubakar ,": 7789,
  "eliri": 7790,
  "ga-ebinye": 7791,
  "lebaa": 7792,
  "Father": 7793,
  "22 ,": 7794,
  "12 ,": 7795,
  "nkịta ,": 7796,
  "mbibi": 7797,
  "guzosie": 7798,
  "Dio": 7799,
  "180": 7800,
  "enwetaghị": 7801,
  "azọpụta": 7802,
  "latrik .": 7803,
  "ọkụkọ ,": 7804,
  "ịzọpụta": 7805,
  "Visa": 7806,
  "ọdachi .": 7807,
  "ịchụpụ": 7808,
  "Insti": 7809,
  "omimi": 7810,
  "anwụrụla": 7811,
  "Nwosu ,": 7812,
  "ibinye": 7813,
  "National \"": 7814,
  "na-etolite": 7815,
  "na-eto ,": 7816,
  "nrụrụaka .": 7817,
  "baby": 7818,
  "ịpịa": 7819,
  "CON": 7820,
  "30 )": 7821,
  "12 )": 7822,
  "NoBra": 7823,
  "ya . ” )": 7824,
  "Abate": 7825,
  "na-emenyụ": 7826,
  "Europa": 7827,
  "Abaribe ,": 7828,
  "na-agaghịzi": 7829,
  "ejije .": 7830,
  "escu": 7831,
  "-Ob": 7832,
  "25 ,": 7833,
  "ịchafụ .": 7834,
  "Free": 7835,
  "ụtazị": 7836,
  "ịhọrọ": 7837,
  "Niger ,": 7838,
  "iche-iche ,": 7839,
  "nghọta .": 7840,
  "aghụghọ .": 7841,
  "gbafuo": 7842,
  "AAC": 7843,
  "ejeghi": 7844,
  "Abagana": 7845,
  "ga-akacha": 7846,
  "ejula": 7847,
  "aghọtachaghị": 7848,
  "nkwarụ": 7849,
  "50 ,": 7850,
  "alụkwaghịm ,": 7851,
  "Dogara": 7852,
  "jeruselem .": 7853,
  "will": 7854,
  "Cell": 7855,
  "Cosby": 7856,
  "Okorocha ,": 7857,
  "FFK": 7858,
  "dakwasịrị": 7859,
  "ọdịda-anyanwụ": 7860,
  "Okoye ,": 7861,
  "2009 .": 7862,
  "Uchenna": 7863,
  "Uzor": 7864,
  "mezuo .": 7865,
  "nwogharị": 7866,
  "ttah": 7867,
  "kristi": 7868,
  "- 35": 7869,
  "lawa .": 7870,
  "Liberia": 7871,
  "Ogunye": 7872,
  "school": 7873,
  "Abdel": 7874,
  "kewapụ": 7875,
  "Freedo": 7876,
  "ga-arịọ": 7877,
  "Imohi": 7878,
  "iṅomi": 7879,
  "shuga": 7880,
  "Shiites": 7881,
  "Nwachukwu ,": 7882,
  " .  \" onye \"": 7883,
  "  \" onye \"": 7884,
  "kpọkuzịkwara": 7885,
  "Progressives": 7886,
  "ekpili": 7887,
  "Ogbuata": 7888,
  "gbabuuru": 7889,
  "Mahre": 7890,
  "Force": 7891,
  "ga-anwụ .": 7892,
  "Mexico .": 7893,
  "visa \" \" ": 7894,
  "Market": 7895,
  "bịakwute": 7896,
  "ịchịkọba": 7897,
  " .  \" dịka \"": 7898,
  "na-enupụrụ": 7899,
  "Chinedu": 7900,
  "Onoja": 7901,
  "Town": 7902,
  "Alade": 7903,
  "imezupụta": 7904,
  "leruo": 7905,
  "Zuba": 7906,
  "anarala": 7907,
  "akụnụba .": 7908,
  "Italy .": 7909,
  "yurop .": 7910,
  "nahị": 7911,
  "Acc": 7912,
  "na-anọchị": 7913,
  "Okpoko": 7914,
  "kpokobara": 7915,
  "RevolutionNow": 7916,
  "nrụrịtaụka": 7917,
  "  \" ma \"": 7918,
  "kwuwe ,": 7919,
  "esonyela": 7920,
  "Mauri": 7921,
  "ịgbakụta": 7922,
  "Kondu": 7923,
  "Oshodi": 7924,
  "Oshoala": 7925,
  "nitia": 7926,
  "Aaron": 7927,
  "Hausa": 7928,
  "aịrish": 7929,
  "kwusawa": 7930,
  "Cul": 7931,
  "Timothy": 7932,
  "na-akpụdobe": 7933,
  "odibo": 7934,
  "ekwuputala": 7935,
  "ga-enw": 7936,
  "ogbaru": 7937,
  "Vene": 7938,
  "Emergency": 7939,
  "Ivory": 7940,
  "Jesus": 7941,
  "ịtụnanya": 7942,
  "Restructuring": 7943,
  "ABS": 7944,
  "Kyari": 7945,
  "Achuzia": 7946,
  "Akwete": 7947,
  "wezuga": 7948,
  "Ademola": 7949,
  "Africa .": 7950,
  "Sanwo": 7951,
  "Syria .": 7952,
  "Drunk": 7953,
  "FRSC": 7954,
  "Akwuke": 7955,
  "kwuputere": 7956,
  "Portu": 7957,
  "Athle": 7958,
  " .  \" cheta \"": 7959,
  "Organization": 7960,
  "Dickson": 7961,
  "Belgium": 7962,
  "Romney": 7963,
  "Secondus": 7964,
  "Malaysia": 7965,
  "Ballon": 7966,
  "ojiegoachụ": 7967,
  "Lafia": 7968,
  "Adeyeye": 7969,
  "Government": 7970,
  "Valencia": 7971,
  "YouTube": 7972,
  "Onaga": 7973,
  "chaị ,": 7974,
  "Pharma": 7975,
  "ga-anọchị": 7976,
  "Club": 7977,
  "Company": 7978,
  "agọọla": 7979,
  "ndọrịtaụka": 7980,
  "Coscharis": 7981,
  "Johannesburg": 7982,
  "English": 7983,
  "Bulg": 7984,
  "Vincent": 7985,
  "elị": 7986,
  "Courto": 7987,
  "Suleiman": 7988,
  "Papado": 7989,
  "Broadca": 7990,
  "Committee": 7991,
  "Danjuma": 7992,
  "Oyedepo": 7993,
  "Switzer": 7994,
  "Oparanozie": 7995,
  "Farou": 7996,
  "Uzọma": 7997,
  "onyekwuouche": 7998,
  "Reverend": 7999,
  "paịlet": 8000,
  "ceutical": 8001,
  "-Osuji": 8002,
  "Nadal": 8003,
  "visory": 8004,
  "Keyamo": 8005,
  "Precious": 8006,
  "Director": 8007,
  "Diocese": 8008,
  "Andreescu": 8009,
  "nitiative": 8010,
  "aịrish .": 8011,
  "ga-enwerịrị": 8012,
  "Sanwo-Olu": 8013,
  "elịiza": 8014,
  "Broadcasting": 8015,
  "Switzerland": 8016,
  "Pharmaceutical": 8017,
  "BC": 8018,
  "ịkp": 8019,
  "ọm": 8020,
  "et": 8021,
  "ed": 8022,
  "ps": 8023,
  "Vo": 8024,
  "OP": 8025,
  "-ọ": 8026,
  "DJ": 8027,
  "DA": 8028,
  "EP": 8029,
  "My": 8030,
  "ND": 8031,
  "MS": 8032,
  "ígw": 8033,
  "c .": 8034,
  "M .": 8035,
  "Ver": 8036,
  "far": 8037,
  "gbere": 8038,
  "Kara": 8039,
  "naara": 8040,
  "me ,": 8041,
  "ụla": 8042,
  "tal": 8043,
  "kwu .": 8044,
  "ịkwu": 8045,
  "kwas": 8046,
  "kwanye": 8047,
  "tụba": 8048,
  "tiv": 8049,
  "Eti": 8050,
  "ate": 8051,
  "tena": 8052,
  "otutu": 8053,
  "sle": 8054,
  "obe": 8055,
  "pụkwa": 8056,
  "s \"": 8057,
  "zọta": 8058,
  "ụrọ": 8059,
  "siwe": 8060,
  "yne": 8061,
  "ney": 8062,
  "alaka": 8063,
  "gosị": 8064,
  "gbue": 8065,
  "isiri": 8066,
  "ra ,": 8067,
  "rapụ": 8068,
  "lix": 8069,
  "gwọrọ": 8070,
  "Siri": 8071,
  "ekwuru": 8072,
  "kụwa": 8073,
  "dela": 8074,
  "deta": 8075,
  "chacha": 8076,
  "Aro": 8077,
  "dro": 8078,
  "bu ,": 8079,
  "buga": 8080,
  "tọpụ": 8081,
  "ụtara": 8082,
  "agwu": 8083,
  "ga-ana": 8084,
  "5 :": 8085,
  "4 :": 8086,
  "gbo :": 8087,
  "mere :": 8088,
  "ahụ :": 8089,
  "sapụ": 8090,
  "sasị": 8091,
  "kwasa": 8092,
  "sale": 8093,
  "ga-ege": 8094,
  "Chime": 8095,
  "akụ ,": 8096,
  "akwụ .": 8097,
  "clu": 8098,
  "kwelu": 8099,
  "sen": 8100,
  "Ese": 8101,
  "dine": 8102,
  "godi": 8103,
  "n'akwụkwọ": 8104,
  "a  \" ": 8105,
  "nke  \" ": 8106,
  "mụnyere": 8107,
  "anda": 8108,
  "dị ?": 8109,
  "otu ?": 8110,
  "steeti ?": 8111,
  "bipụta": 8112,
  "rụpụta": 8113,
  "cre": 8114,
  "jeere": 8115,
  "gaje": 8116,
  "gụpụta": 8117,
  "kun": 8118,
  "abụọ :": 8119,
  "na-emenụ": 8120,
  "erila": 8121,
  "erie": 8122,
  "ko ,": 8123,
  "a . )": 8124,
  "pa .": 8125,
  "Sama": 8126,
  "igbo :": 8127,
  "“ [": 8128,
  "“ si": 8129,
  "“ ebe": 8130,
  "niile ”": 8131,
  "kpọtara": 8132,
  "bịawa": 8133,
  "kwekwara": 8134,
  "zipu": 8135,
  "ọnụ-": 8136,
  "egwuri": 8137,
  "Efe": 8138,
  "femi": 8139,
  "fewe": 8140,
  "Saga": 8141,
  "agala": 8142,
  "ga-esiri": 8143,
  "gbasiri": 8144,
  "chọsiri": 8145,
  "agba .": 8146,
  "anụrụ": 8147,
  "st :": 8148,
  "pari": 8149,
  "gbagara": 8150,
  "ikpegara": 8151,
  "ọlụ": 8152,
  "belụ": 8153,
  "ọnụụzọ": 8154,
  "na-akpọrọ": 8155,
  "dọka": 8156,
  "ụsụ": 8157,
  "kesara": 8158,
  "“ agha": 8159,
  "omen'": 8160,
  "meenụ": 8161,
  "mewere": 8162,
  "ukwu . ”": 8163,
  "lụchara": 8164,
  "nyechara": 8165,
  "gharị .": 8166,
  "( C": 8167,
  "boolu": 8168,
  "ọnwa ,": 8169,
  "zuela": 8170,
  "jiela": 8171,
  "na-enwu": 8172,
  "ikenga": 8173,
  "abaghị": 8174,
  "nta .": 8175,
  "gbarụ": 8176,
  "atụnyere": 8177,
  "egwe": 8178,
  "mpio": 8179,
  "-gọvanọ": 8180,
  "gọvanọ .": 8181,
  "gọvanọ ,": 8182,
  "site \"": 8183,
  "20 ;": 8184,
  "niile ;": 8185,
  "abụọ ;": 8186,
  "ọrụ ;": 8187,
  "Val": 8188,
  "ipe": 8189,
  "Jos": 8190,
  "na-eju": 8191,
  "kaadị": 8192,
  "chibido": 8193,
  "okooko": 8194,
  "mund": 8195,
  "ath": 8196,
  "ọnwụ . ”": 8197,
  "kigwe": 8198,
  "ga-azụ": 8199,
  "aghara .": 8200,
  "ebuso": 8201,
  "peeji": 8202,
  "lo ,": 8203,
  "talo": 8204,
  "lobe": 8205,
  "loja": 8206,
  "ịna-aga": 8207,
  "ichie": 8208,
  "Kola": 8209,
  "doola": 8210,
  "Tig": 8211,
  "Nwaf": 8212,
  "nwetakwa": 8213,
  "ibe ,": 8214,
  "Main": 8215,
  "tụlee": 8216,
  "nachukwu": 8217,
  "gbaziri": 8218,
  "nweziri": 8219,
  "Jeru": 8220,
  "na-akwụsị": 8221,
  "uruagụ": 8222,
  "ntion": 8223,
  "lụburu": 8224,
  "ga-eburu": 8225,
  "adịghi": 8226,
  "ịgbagha": 8227,
  "kpochiri": 8228,
  "gịnịzi": 8229,
  "ajụghị": 8230,
  "ajụọ": 8231,
  "600": 8232,
  "300": 8233,
  "700": 8234,
  "ily": 8235,
  "Sil": 8236,
  "nwụrụla": 8237,
  "keredo": 8238,
  "bata ,": 8239,
  "ga-aṅụ": 8240,
  "gbalitere": 8241,
  "kpalitere": 8242,
  "beghị .": 8243,
  "beghị ,": 8244,
  "ng-": 8245,
  "kwakọrọ": 8246,
  "Mit": 8247,
  "Eno": 8248,
  "190": 8249,
  "na-achịpụ": 8250,
  "nkiri :": 8251,
  "chebiri": 8252,
  "na-echebe": 8253,
  "kki": 8254,
  "ikwere": 8255,
  "ajụjụ .": 8256,
  "ajụjụọnụ": 8257,
  "Sun": 8258,
  "eleba": 8259,
  "Kele": 8260,
  "na-achọkwa": 8261,
  "- 6": 8262,
  "na-enyekwara": 8263,
  "Ogbuo": 8264,
  "magbuo": 8265,
  "Ham": 8266,
  "nkwa .": 8267,
  "emegide": 8268,
  "akpa .": 8269,
  "less": 8270,
  "Colo": 8271,
  "ugboro ,": 8272,
  "Lake": 8273,
  "chere ,": 8274,
  "chere .": 8275,
  "itozu": 8276,
  "na-akpa .": 8277,
  "ghọtakwuo": 8278,
  "onyenkuzi": 8279,
  "mụrụ .": 8280,
  "ezughi": 8281,
  "ntaakụkọ ,": 8282,
  "na-atụkwa": 8283,
  "njehie": 8284,
  "karịa .": 8285,
  "ibu ,": 8286,
  "ibutere": 8287,
  "zuruoke": 8288,
  "chọpụtala": 8289,
  "atị": 8290,
  "Jus": 8291,
  "chọọ .": 8292,
  "malitela": 8293,
  "na-eleda": 8294,
  "kpọghachi": 8295,
  "ekwekọrịta": 8296,
  "ikpeazụ . ”": 8297,
  "ọdụ ,": 8298,
  "ọdụ .": 8299,
  "Inf": 8300,
  "idebanye": 8301,
  "katọkwara": 8302,
  "mpe ,": 8303,
  "emee ,": 8304,
  "ọtọsị": 8305,
  "obiano .": 8306,
  "na-agụ .": 8307,
  "ga-akpatara": 8308,
  "amapụtala": 8309,
  "adala": 8310,
  "Bad": 8311,
  "coal": 8312,
  "jụrụ .": 8313,
  "jụrụ ,": 8314,
  "Trump ,": 8315,
  "United ,": 8316,
  "Kate": 8317,
  "Adele": 8318,
  "Sex": 8319,
  "ga-agbalị": 8320,
  "rigoro": 8321,
  "Mic": 8322,
  "ndapụta": 8323,
  "standa": 8324,
  "City ,": 8325,
  "Zine": 8326,
  "ikwalite": 8327,
  "onyinyo": 8328,
  "njinji": 8329,
  "ezipụla": 8330,
  "njeri": 8331,
  "akpọpụtala": 8332,
  "ghe .": 8333,
  "ọgbaaghara .": 8334,
  "Tochukwu": 8335,
  "Monet": 8336,
  "ọbara ,": 8337,
  "tory": 8338,
  "omekatara": 8339,
  "ede ,": 8340,
  "nwụọ ?": 8341,
  "setan ,": 8342,
  "chegharịrị": 8343,
  "lụgharịrị": 8344,
  "atala": 8345,
  "achọtala": 8346,
  "anatala": 8347,
  "na-erizi": 8348,
  "swi": 8349,
  "Ezenwa": 8350,
  "mkpu ,": 8351,
  "jọn ,": 8352,
  "werere": 8353,
  "wepụtara ,": 8354,
  "ewu ,": 8355,
  "amalitego": 8356,
  "satọdee ,": 8357,
  "Sarah": 8358,
  "ọdịnala ,": 8359,
  "Sergi": 8360,
  "na-ebibi": 8361,
  "Juan": 8362,
  "Jude": 8363,
  "pịm": 8364,
  "ga-esonye": 8365,
  "nator": 8366,
  "yoyo": 8367,
  "wayo": 8368,
  "olileanya .": 8369,
  "ga-enyeliri": 8370,
  "biliri": 8371,
  "weliri": 8372,
  "gbakọọ": 8373,
  "23 )": 8374,
  "2012 ,": 8375,
  "ịnwụchi": 8376,
  "fat": 8377,
  "fair": 8378,
  "ọṅụ .": 8379,
  "Ikeokwu": 8380,
  "Ehab": 8381,
  "Audu": 8382,
  "17 :": 8383,
  "Saraki ,": 8384,
  "ịkwanyere": 8385,
  "Dij": 8386,
  "18 )": 8387,
  "amatabeghị": 8388,
  "bọọlụnkata": 8389,
  "eto .": 8390,
  "etoola": 8391,
  "egosipụta": 8392,
  "ịnyịny": 8393,
  "ohu ,": 8394,
  "13 ,": 8395,
  "Amaju": 8396,
  "ịntaneti ,": 8397,
  "ọpụrụiche": 8398,
  "ọmajiji": 8399,
  "ga-anata": 8400,
  "Tex": 8401,
  "kparịrị": 8402,
  "dụkwazie": 8403,
  "obibi .": 8404,
  "160": 8405,
  "agwa .": 8406,
  "Timi": 8407,
  "Nwabia": 8408,
  "Olani": 8409,
  "Zimbabwe .": 8410,
  "Ahmadu": 8411,
  "kụziwere": 8412,
  "karat": 8413,
  "enwetela": 8414,
  "eritela": 8415,
  "ga-ewepụta": 8416,
  "maachị ,": 8417,
  "ya .  \" ọ \"": 8418,
  "Jero": 8419,
  "akọọla": 8420,
  "mefuru": 8421,
  "ụbụrụ .": 8422,
  "agwụ .": 8423,
  "Gombe": 8424,
  "mbele": 8425,
  "ugbo .": 8426,
  "awụchiela": 8427,
  "kansa .": 8428,
  "challa": 8429,
  "Iv ,": 8430,
  "kwesi .": 8431,
  "mechaakwa": 8432,
  "na-ezisa": 8433,
  "nkụ ,": 8434,
  "ecu": 8435,
  "25 )": 8436,
  "enugwu-ndị": 8437,
  "26 ,": 8438,
  "Games": 8439,
  "Agri": 8440,
  "Demokra": 8441,
  "Udemba ,": 8442,
  "mmalite ,": 8443,
  "Kizi": 8444,
  "Wis": 8445,
  "igosipụta": 8446,
  "Abiy": 8447,
  "Gassa": 8448,
  "shee": 8449,
  "logy": 8450,
  "makụọ": 8451,
  "ncha .": 8452,
  "iduhie": 8453,
  "Amy": 8454,
  "lins": 8455,
  "na-agbalịsi": 8456,
  "Sport": 8457,
  "mgbu .": 8458,
  "ịjụ ,": 8459,
  "frans .": 8460,
  "Domini": 8461,
  "jeruselem ,": 8462,
  "gbapere": 8463,
  "gbapụ .": 8464,
  "Obiang": 8465,
  "laghachite": 8466,
  "febụwarị .": 8467,
  "kwurịtara": 8468,
  "1967": 8469,
  "Charly": 8470,
  "Uchechi": 8471,
  "arachaala": 8472,
  "Osuji": 8473,
  "ịlaịsha": 8474,
  "too .": 8475,
  "Umeh ,": 8476,
  "dimkpa ,": 8477,
  "Port Harcourt .": 8478,
  "ịchekwa": 8479,
  "Mayor": 8480,
  "ikpochapụ": 8481,
  "ụgha ,": 8482,
  "Vatic": 8483,
  "India ,": 8484,
  "Services": 8485,
  "SARS :": 8486,
  "ichekwaba": 8487,
  "Burna": 8488,
  "Church ,": 8489,
  "Barwin": 8490,
  "ifo .": 8491,
  "Elisha": 8492,
  "strike": 8493,
  "Distri": 8494,
  "Abdulra": 8495,
  "Nich": 8496,
  "mkpịsị": 8497,
  "Octo": 8498,
  "ehiwela": 8499,
  "adịrịkwa": 8500,
  "kpachaara": 8501,
  "ọkwọụgbọala": 8502,
  "Saint": 8503,
  "larịị": 8504,
  "Janet": 8505,
  "School ,": 8506,
  "Eaglet": 8507,
  " \" \" bụ \"": 8508,
  "adabaghị": 8509,
  "Qat": 8510,
  "iteghete .": 8511,
  "Jones": 8512,
  "nwụchara ,": 8513,
  "na-edowe": 8514,
  "Iron": 8515,
  "Young": 8516,
  "latịn .": 8517,
  "Nure": 8518,
  "Nkechi": 8519,
  "Nsugbe": 8520,
  "Daura": 8521,
  "jiofor": 8522,
  "amawbịa": 8523,
  "Ebonyi ,": 8524,
  "NBS": 8525,
  "akụnụba ,": 8526,
  "mahadum .": 8527,
  "ịhazigharị": 8528,
  "ekuola": 8529,
  "na-abịanụ": 8530,
  "lakpuo": 8531,
  "ATM": 8532,
  "VAT": 8533,
  "Oliver": 8534,
  "Transfor": 8535,
  "Lanka": 8536,
  "sion :": 8537,
  "mehiere": 8538,
  "Udeogu": 8539,
  "jems": 8540,
  " .  \" ya \"": 8541,
  "eshia": 8542,
  "Anyaoku": 8543,
  "ọstralia": 8544,
  "Ndubuisi": 8545,
  "Love": 8546,
  "IAAF": 8547,
  "ọyị": 8548,
  "Slam": 8549,
  "Drug": 8550,
  "Ubani": 8551,
  "lebe \"": 8552,
  "Fayemi": 8553,
  "Governor": 8554,
  "akwọrọ": 8555,
  "Bebel": 8556,
  "ọstralia .": 8557,
  "rịọkwazie": 8558,
  "Kabir": 8559,
  "Basin": 8560,
  "ojiegbeezu": 8561,
  "nsọ—": 8562,
  "Coali": 8563,
  "Ijeoma": 8564,
  "poulos": 8565,
  "Fani-": 8566,
  "Lyon": 8567,
  "Omamba": 8568,
  "Panther": 8569,
  "Ute :": 8570,
  "Zakari": 8571,
  "gbakwunyere": 8572,
  "Pierre": 8573,
  "Awada": 8574,
  "ga-emerịrị": 8575,
  "okpomọkụ": 8576,
  "Jollo": 8577,
  "ọnyụpa": 8578,
  "jọst": 8579,
  "Pyrite": 8580,
  "awọ": 8581,
  "Chukwujekwu": 8582,
  "Brenton": 8583,
  "ndeewo": 8584,
  "Hassan": 8585,
  "Mueller": 8586,
  "Forum": 8587,
  "collapse :": 8588,
  "PFN": 8589,
  "bsidy": 8590,
  "atọghapụla": 8591,
  "amusu": 8592,
  "Argentina": 8593,
  "ọgbaa": 8594,
  "Project": 8595,
  "tịnkọm": 8596,
  "MTN": 8597,
  "Matiu": 8598,
  "Otedola": 8599,
  "akụmakụ": 8600,
  "dget": 8601,
  "Omo-A": 8602,
  "Agbogugu": 8603,
  "akọn'uche": 8604,
  "bụrụ  \" ele": 8605,
  "Institute": 8606,
  "Ogunyemi": 8607,
  "Bulgaria": 8608,
  "Advisory": 8609,
  "ígwé": 8610,
  "Felix": 8611,
  "Venezuela": 8612,
  "Catalo": 8613,
  "Chukwulobe": 8614,
  "Jerusale": 8615,
  "vention": 8616,
  "Ogbuokiri": 8617,
  "shless": 8618,
  "standadị": 8619,
  "Monetary": 8620,
  "Execu": 8621,
  "Demokrat": 8622,
  "Kizito": 8623,
  "Collins": 8624,
  "October": 8625,
  "Nuremberg": 8626,
  "nsọ—nsụgharị": 8627,
  "Coalition": 8628,
  "Fani-Kayode": 8629,
  "Pierre-E": 8630,
  "Jollof": 8631,
  "jọstịs": 8632,
  "ọgbaatumtum": 8633,
  "Omo-Agege": 8634,
  "Pierre-Emeri": 8635,
  "Pierre-Emerick": 8636,
  "em": 8637,
  "ns": 8638,
  "Ag": 8639,
  "AA": 8640,
  "sp": 8641,
  "ft": 8642,
  "Xa": 8643,
  "ngh": 8644,
  "Cu": 8645,
  "69": 8646,
  "Iy": 8647,
  "ES": 8648,
  "7.": 8649,
  "MW": 8650,
  "ZI": 8651,
  "Aị": 8652,
  "SP": 8653,
  "66": 8654,
  "Gọ": 8655,
  "kal": 8656,
  "ery": 8657,
  "v ,": 8658,
  "tar": 8659,
  "ame": 8660,
  "Sla": 8661,
  "ri ,": 8662,
  "nkenke": 8663,
  "bba": 8664,
  "takwa": 8665,
  "Oti": 8666,
  "tish": 8667,
  "tte": 8668,
  "gbanye": 8669,
  "-otu": 8670,
  "otua": 8671,
  "Ile": 8672,
  "gbazi": 8673,
  "tụpụ": 8674,
  "Han": 8675,
  "te \"": 8676,
  "' \"": 8677,
  "gbanwe": 8678,
  "kewe": 8679,
  "kwụsi": 8680,
  "chala": 8681,
  "igo": 8682,
  "Ogo": 8683,
  "go ,": 8684,
  "megbu": 8685,
  "gbu ,": 8686,
  "ebewe": 8687,
  "kwọrọ": 8688,
  "irite": 8689,
  "dịwa": 8690,
  "wale": 8691,
  "dịcha": 8692,
  "ro ,": 8693,
  "bro": 8694,
  "Tro": 8695,
  "Obu": 8696,
  "bucha": 8697,
  "tọn": 8698,
  "ga-edo": 8699,
  "so ,": 8700,
  "meso": 8701,
  "nite": 8702,
  "Oni": 8703,
  "kwọọ": 8704,
  "ga-akọ": 8705,
  "ga-achi": 8706,
  "t :": 8707,
  "3 :": 8708,
  "sam": 8709,
  "dege": 8710,
  "nwamba": 8711,
  "Abo": 8712,
  "Time": 8713,
  "n'ime": 8714,
  "abụ .": 8715,
  "kwe ,": 8716,
  "steeti :": 8717,
  "weda": 8718,
  "ida": 8719,
  "nu ,": 8720,
  "mapụta": 8721,
  "Eje": 8722,
  "jeso": 8723,
  "ụgụ": 8724,
  "C )": 8725,
  " ) :": 8726,
  "akụkọ .": 8727,
  "na-emeso": 8728,
  "na-emeghị": 8729,
  "erighị": 8730,
  "Emp": 8731,
  "eko": 8732,
  "bia .": 8733,
  "Dama": 8734,
  "ọtụtụ \"": 8735,
  "“ mba": 8736,
  "“ oke": 8737,
  "“ ọtụtụ": 8738,
  "Bon": 8739,
  "fon": 8740,
  " ” ?": 8741,
  "bụrụla": 8742,
  "kpọtụ": 8743,
  "kpọpụ": 8744,
  "kpọga": 8745,
  "tọkwara": 8746,
  "bịakwara": 8747,
  "dokwara": 8748,
  "nụkwara": 8749,
  "mie": 8750,
  "godu": 8751,
  "du ,": 8752,
  "duka": 8753,
  "“ iji": 8754,
  "fela": 8755,
  "ga-efe": 8756,
  "chụwa": 8757,
  "ego ?": 8758,
  "“ ụbọchị": 8759,
  "agbago": 8760,
  "agba ,": 8761,
  "daa ,": 8762,
  "bụụrụ": 8763,
  "azụrụ": 8764,
  "garaaga": 8765,
  "igboukwu": 8766,
  "dịkwuo": 8767,
  "ha . ,": 8768,
  "tokpo": 8769,
  "End": 8770,
  "kwasara": 8771,
  "agha ?": 8772,
  "mee ?": 8773,
  "ga-agbara": 8774,
  "nso . ”": 8775,
  "asata": 8776,
  "dechara": 8777,
  "richara": 8778,
  "ngharị": 8779,
  "ggi": 8780,
  "gie": 8781,
  "( 4": 8782,
  "( D": 8783,
  "( ọ": 8784,
  "( P": 8785,
  "( G": 8786,
  "( n'": 8787,
  "ịgwụ": 8788,
  "elo": 8789,
  "Kel": 8790,
  "Dole": 8791,
  "ntụgharị": 8792,
  "ntụ .": 8793,
  "“ anụ": 8794,
  "megburu": 8795,
  "gedọ": 8796,
  "ụja": 8797,
  "akaja": 8798,
  "nne .": 8799,
  " ) ;": 8800,
  "all": 8801,
  "Tal": 8802,
  "na-emepe": 8803,
  "lịn": 8804,
  "mgbata": 8805,
  "igu": 8806,
  "in ,": 8807,
  "bido .": 8808,
  "“ ọnwụ": 8809,
  "mkpiri": 8810,
  "nri ?": 8811,
  "ebuli": 8812,
  "ebule": 8813,
  "bara ,": 8814,
  "ichebara": 8815,
  "ruokwa": 8816,
  "ọkwa ,": 8817,
  "Ofu": 8818,
  "imefu": 8819,
  "fur": 8820,
  "ejikwa": 8821,
  "bọọlu": 8822,
  "nche .": 8823,
  "Alo": 8824,
  "Clo": 8825,
  "Dunu": 8826,
  "ebiela": 8827,
  "ount": 8828,
  "akwammiri": 8829,
  "tulee": 8830,
  "kwụsịkwara": 8831,
  "kwụsịghị": 8832,
  "ịkasi": 8833,
  "burukwa": 8834,
  "wakpoo": 8835,
  "ndekọ": 8836,
  "abalị :": 8837,
  "Ista": 8838,
  "hen": 8839,
  "ịgba .": 8840,
  "Sol": 8841,
  "Chize": 8842,
  "Chima": 8843,
  "mbọ .": 8844,
  "Hil": 8845,
  "Okere": 8846,
  "ọnọdụ .": 8847,
  "abịara": 8848,
  "batala": 8849,
  "nyocha .": 8850,
  "ṅụchara": 8851,
  "erubeghị": 8852,
  "anụbeghị": 8853,
  "ijing": 8854,
  "eting": 8855,
  "APC ,": 8856,
  "ngalaba  \" ": 8857,
  "ọkọrọ": 8858,
  "mposi": 8859,
  "bụkwazị": 8860,
  "Simo": 8861,
  "enweghịkwa": 8862,
  "bụghịzi": 8863,
  "ibiri": 8864,
  "na-eche ,": 8865,
  "kim": 8866,
  "kina": 8867,
  "Man .": 8868,
  "ozu ,": 8869,
  "godịrị": 8870,
  "gwadịrị": 8871,
  "etinyeghị": 8872,
  "Rec": 8873,
  "na-achọsi": 8874,
  "- 4": 8875,
  "“ olee": 8876,
  "sooro": 8877,
  "ghọgbuo": 8878,
  "na-adịkwa": 8879,
  "“ ụkwụ": 8880,
  "dịgide": 8881,
  "adịghịkwa": 8882,
  "akpa ,": 8883,
  "Nigeria \"": 8884,
  "Com": 8885,
  "Comma": 8886,
  "nhịa": 8887,
  "na-akpagbu": 8888,
  "na-akpali": 8889,
  "pota": 8890,
  "Apo": 8891,
  "pox": 8892,
  "mụrụ ,": 8893,
  "ezu ,": 8894,
  "Eye": 8895,
  "toye": 8896,
  "naiye": 8897,
  "dara ,": 8898,
  "Lent": 8899,
  "Pete": 8900,
  "egbuke": 8901,
  "Bure": 8902,
  "malitekwara": 8903,
  "na-amalite": 8904,
  "ụkọchukwu .": 8905,
  "na-amata": 8906,
  "IPOB ,": 8907,
  "IPOB :": 8908,
  "nyeghachi": 8909,
  "-ụlọomeiwu": 8910,
  "ugoeze": 8911,
  "ugo .": 8912,
  "pọnd": 8913,
  "nkwado ,": 8914,
  "nkwadobe": 8915,
  "Atiku ,": 8916,
  "wụba": 8917,
  "ụbụ": 8918,
  "ntọọ": 8919,
  "Buck": 8920,
  "ga-ahọpụta": 8921,
  "họpụtala": 8922,
  "bụrụkwanụ": 8923,
  "alụọla": 8924,
  "Arch": 8925,
  "meriri ,": 8926,
  "ọtọ . ”": 8927,
  "ịna-enwe": 8928,
  "eluigwe ?": 8929,
  "omenala ,": 8930,
  "Soma": 8931,
  "lity": 8932,
  "na-ebubata": 8933,
  "Wes": 8934,
  "Jes": 8935,
  "Sali": 8936,
  "ga-agbaghara": 8937,
  "ssy": 8938,
  "Avo": 8939,
  "Rich": 8940,
  "Obigwe": 8941,
  "Kur": 8942,
  "gbaturu": 8943,
  "na-egosipụta": 8944,
  "na-esikwa": 8945,
  "na-esikarị": 8946,
  "dioka": 8947,
  "City :": 8948,
  "ọgbọegwuregwu": 8949,
  "land .": 8950,
  "ga-akwalite": 8951,
  "Kaoli": 8952,
  "njide": 8953,
  "chapụla": 8954,
  "ewepu": 8955,
  "ewepụla": 8956,
  "akpọtụ": 8957,
  "na-agwakwa": 8958,
  "chuola": 8959,
  "Toni": 8960,
  "na-eresi": 8961,
  "gagharịa": 8962,
  "Stand": 8963,
  "vootu ,": 8964,
  "ya ? ”": 8965,
  "na-atagbu": 8966,
  "Arsenal .": 8967,
  "Peters": 8968,
  "nọọsụ": 8969,
  "110": 8970,
  "ịkpasu": 8971,
  "000 .": 8972,
  "000 ,": 8973,
  "berto": 8974,
  "Uber": 8975,
  "Ezeagu": 8976,
  "mgbaru": 8977,
  "mkpuchi": 8978,
  "dakwasị": 8979,
  "ịkpọlite": 8980,
  "edoghị": 8981,
  "ịkwụrụ": 8982,
  "kwụrụ ,": 8983,
  "ije ,": 8984,
  "ijem": 8985,
  "niile . ” )": 8986,
  "na-eghe": 8987,
  "China ,": 8988,
  "mpempe": 8989,
  "atụrụ .": 8990,
  "Marti": 8991,
  "Okey": 8992,
  "amalitekwa": 8993,
  "action": 8994,
  "inter": 8995,
  "ịmị": 8996,
  "Jairu": 8997,
  "Isha": 8998,
  "na-atọkwa": 8999,
  "na-ekwo": 9000,
  "na-alụghị": 9001,
  "nkịtị ,": 9002,
  "ga-ewute": 9003,
  "Prote": 9004,
  "21 )": 9005,
  "ga-ebili": 9006,
  "ezumike .": 9007,
  "lụrụ .": 9008,
  "ga-akpọpụta": 9009,
  "wakịrị": 9010,
  "Ful": 9011,
  "idebe": 9012,
  "Ikedi": 9013,
  "ton ,": 9014,
  "- 17": 9015,
  " - 0": 9016,
  "nwekwaa": 9017,
  "rukwaa": 9018,
  "18 ,": 9019,
  "agụụ .": 9020,
  "Noa .": 9021,
  "Madrid ,": 9022,
  "Briga": 9023,
  "meekwala": 9024,
  "gwụkwala": 9025,
  "enyo .": 9026,
  "dinara": 9027,
  "Rube": 9028,
  "Dona": 9029,
  "ịbagide": 9030,
  "natachara": 9031,
  "esepu": 9032,
  "esepụla": 9033,
  "Get": 9034,
  "apụl": 9035,
  "tarịrị": 9036,
  "na-emerụ": 9037,
  "sịkwazie": 9038,
  "sikwazie": 9039,
  "kwukwazie": 9040,
  "obibi ,": 9041,
  "Ghana .": 9042,
  "ọkara-": 9043,
  "aṅụọla": 9044,
  "ahịhịa ,": 9045,
  "mgbọ .": 9046,
  "Water": 9047,
  "Care": 9048,
  "gbanwee .": 9049,
  "El-Zakzaky-": 9050,
  "ezutela": 9051,
  "sị ,  \" ọ \"": 9052,
  "chutuo": 9053,
  "kwanụghị": 9054,
  "kwanụ ?": 9055,
  "agabiga": 9056,
  "Stra": 9057,
  "Marcel": 9058,
  "nyụchaa": 9059,
  "Cameron": 9060,
  "arọ .": 9061,
  "ga-ekweta": 9062,
  "Shei": 9063,
  "Span": 9064,
  "22 )": 9065,
  "Orla": 9066,
  "Umuokpu": 9067,
  "ejije ,": 9068,
  "ntule": 9069,
  "ịnọgide": 9070,
  "France .": 9071,
  "2012 .": 9072,
  "Libya .": 9073,
  "ehihie .": 9074,
  "Ecu": 9075,
  "London ,": 9076,
  "Eboe": 9077,
  "ụtalị": 9078,
  "agbarala": 9079,
  "28 )": 9080,
  "Klo": 9081,
  "bụ  \" a \"": 9082,
  "Faceboo": 9083,
  "AFCON :": 9084,
  "chiteọnụ": 9085,
  "Sinai": 9086,
  "azụmaahịa .": 9087,
  "Nigerian \"": 9088,
  "Olau": 9089,
  "odogwu": 9090,
  "lọghachiri": 9091,
  "Japan .": 9092,
  "His": 9093,
  "mart": 9094,
  "Ruff": 9095,
  "ihere .": 9096,
  "agbawala": 9097,
  " , ...": 9098,
  "na-abaghị": 9099,
  "Metho": 9100,
  "rọshịa .": 9101,
  "ọkpọka :": 9102,
  "Lilian": 9103,
  "mmanwụ ,": 9104,
  "29 ;": 9105,
  "na-echekasị": 9106,
  "yuni": 9107,
  "kpọpụtasịa": 9108,
  "na-amụtakwu": 9109,
  "Syl": 9110,
  "Brazil .": 9111,
  "na-anyụ": 9112,
  "rence": 9113,
  "Chibok ,": 9114,
  "mgbaghara .": 9115,
  "2006 .": 9116,
  "laghachị": 9117,
  "ncial": 9118,
  "akwụna .": 9119,
  "na-emegasị": 9120,
  "merenụ .": 9121,
  "26 )": 9122,
  "peace": 9123,
  "mmerụaka": 9124,
  "hibru .": 9125,
  "Award": 9126,
  "Edgal": 9127,
  "Trade": 9128,
  "meruo": 9129,
  "wetaara": 9130,
  "Akure": 9131,
  "Anichukwu": 9132,
  "mekwazịrị": 9133,
  "Punch": 9134,
  "klas": 9135,
  "kewaa": 9136,
  "Imoh": 9137,
  "Vale": 9138,
  "kpamkpam ,": 9139,
  "anụrị .": 9140,
  "ga-amatali": 9141,
  "India .": 9142,
  "Dapchi :": 9143,
  "meghere": 9144,
  "nwegasịrị": 9145,
  "villa": 9146,
  "2004 ,": 9147,
  "Roger": 9148,
  "simentị": 9149,
  "mmetụta": 9150,
  "  \" mana \"": 9151,
  "Carl": 9152,
  "Change": 9153,
  "Alexander": 9154,
  "jenụwarị ,": 9155,
  "na-emenụ .": 9156,
  "Area": 9157,
  "ga-agọzi": 9158,
  "na-agọzi": 9159,
  "Parish": 9160,
  "Nnabuife": 9161,
  "Germain": 9162,
  "Soyinka :": 9163,
  " .  \" ha \"": 9164,
  "obosara": 9165,
  "obosi ,": 9166,
  "work": 9167,
  "ology": 9168,
  "1914 ,": 9169,
  "sọnde .": 9170,
  "400 ,": 9171,
  "Americ": 9172,
  "ga-alaghachi": 9173,
  "UNIC": 9174,
  "Rt .": 9175,
  "na-ekuru": 9176,
  "Odion": 9177,
  "Balara": 9178,
  "vince": 9179,
  "eduola": 9180,
  "Camb": 9181,
  "ịna-akwụwa": 9182,
  "gharịị .": 9183,
  "Kaduna .": 9184,
  "rịpọ": 9185,
  "ezumezu": 9186,
  "Dabiri-E": 9187,
  "Napoli": 9188,
  "policy": 9189,
  "league .": 9190,
  "Cancer": 9191,
  "Green": 9192,
  "Pati": 9193,
  "Gene": 9194,
  "ọmụmaatụ": 9195,
  "Pogba": 9196,
  "Antoni": 9197,
  "Osadebe": 9198,
  "Adeosu": 9199,
  "Berna": 9200,
  "Berger": 9201,
  "nhatan": 9202,
  "Obono": 9203,
  "Justin": 9204,
  "Primary": 9205,
  "Jong-U": 9206,
  "Abeoku": 9207,
  "agaraghị": 9208,
  "ịchutu": 9209,
  "ichutu": 9210,
  "Arabik": 9211,
  "rahman": 9212,
  "Inie": 9213,
  "ga-akwata": 9214,
  "borghi": 9215,
  "Sharon": 9216,
  "Okiyi": 9217,
  "akpụrụakpụ": 9218,
  "guage": 9219,
  "gbaghaara": 9220,
  "Indonesi": 9221,
  "Indone": 9222,
  "tọgbọrọ": 9223,
  "CCTV": 9224,
  "search": 9225,
  "ịkọpta": 9226,
  "Thiba": 9227,
  "million": 9228,
  "bezbọl": 9229,
  "  \" ị \"": 9230,
  "Murtala": 9231,
  "Ebele": 9232,
  "gbakwụnyere": 9233,
  "nzacha": 9234,
  "referen": 9235,
  "1879 .": 9236,
  "maịl": 9237,
  "jisiike": 9238,
  "na-atule": 9239,
  "Ugochukwu": 9240,
  "ga-ebelata": 9241,
  "na-adịkarị": 9242,
  "First": 9243,
  "Pakistan": 9244,
  "Rights": 9245,
  "California": 9246,
  "Denner": 9247,
  "racle": 9248,
  "Ogbunike": 9249,
  "Azubuike": 9250,
  "Gana ,": 9251,
  "Ayogu": 9252,
  "Benue :": 9253,
  "ọfala": 9254,
  "Owelle": 9255,
  "Okwudili": 9256,
  "sure :": 9257,
  "sọlọmọn": 9258,
  "Akinwu": 9259,
  "Pinni": 9260,
  "Chiejine": 9261,
  "Obinagu": 9262,
  "archbishop": 9263,
  "laterite": 9264,
  "Betlehe": 9265,
  "Music": 9266,
  "Bakare": 9267,
  "Josephi": 9268,
  "Ency": 9269,
  "agụmaakwụkwọ": 9270,
  "jigidesie": 9271,
  "Biden": 9272,
  "Ifite": 9273,
  "( APGA )": 9274,
  "Balogun": 9275,
  "ga-abịarukwa": 9276,
  "Trafficking": 9277,
  "Palestine": 9278,
  "Iwobi": 9279,
  "technic": 9280,
  "Macron": 9281,
  "ikikere": 9282,
  "Television": 9283,
  "( PDP )": 9284,
  "Sergeant": 9285,
  "Fattah": 9286,
  "Mahrez": 9287,
  "na-anọchịte": 9288,
  "ABSUT": 9289,
  "Courtois": 9290,
  "Farouq": 9291,
  "Initiative": 9292,
  "Chekwas": 9293,
  "sleeti": 9294,
  "Sirika": 9295,
  "ogbugbo :": 9296,
  "clusive": 9297,
  "ọkaipe": 9298,
  "Nwafor": 9299,
  "Daily": 9300,
  "Kelechi": 9301,
  "omekataraihe": 9302,
  "swidi": 9303,
  "Arafat": 9304,
  "Dijk": 9305,
  "Gassama": 9306,
  "Nicholas": 9307,
  "Transforma": 9308,
  "Papadopoulos": 9309,
  "subsidy": 9310,
  "bụrụ  \" elelebe \"": 9311,
  "Catalonia": 9312,
  "Executive": 9313,
  "Xavi": 9314,
  "Iyke": 9315,
  "UNIZI": 9316,
  "Aịrish": 9317,
  "British": 9318,
  "Dunuko": 9319,
  "Beijing": 9320,
  "ọkọrọtọ": 9321,
  "Burkina": 9322,
  "Bureau": 9323,
  "ụbụbọ": 9324,
  "Avomi": 9325,
  "Richard": 9326,
  "Kaolin": 9327,
  "ọkara-ikpeazụ": 9328,
  "Sheikh": 9329,
  "Orlando": 9330,
  "Ecua": 9331,
  "Eboe-Osuji": 9332,
  "Klopp": 9333,
  "Facebook ,": 9334,
  "nkwuchiteọnụ": 9335,
  "Olaudah": 9336,
  "Financial": 9337,
  "Valenti": 9338,
  "UNICEF": 9339,
  "Cambridge": 9340,
  "rịpọb": 9341,
  "Dabiri-Erewa": 9342,
  "Patience": 9343,
  "Genevie": 9344,
  "Antonio": 9345,
  "Obono-Ob": 9346,
  "Iniesta": 9347,
  "Lamborghi": 9348,
  "Indonesia": 9349,
  "helịkọpta": 9350,
  "referendum": 9351,
  "Dennerby": 9352,
  "Akinwunmi": 9353,
  "Pinnick": 9354,
  "Betlehem .": 9355,
  "Encyclo": 9356,
  "ABSUTH": 9357,
  "swidin .": 9358,
  "UNIZIK": 9359,
  "Valentine": 9360,
  "rịpọblịkan": 9361,
  "Genevieve": 9362,
  "Encyclope": 9363,
  "Encyclopedia": 9364,
  "iny": 9365,
  "rn": 9366,
  "ip": 9367,
  "UC": 9368,
  "Om": 9369,
  "Ow": 9370,
  "Ki": 9371,
  "SA": 9372,
  "68": 9373,
  "49": 9374,
  "NU": 9375,
  "TD": 9376,
  "she": 9377,
  "34": 9378,
  "91": 9379,
  "TE": 9380,
  "Gy": 9381,
  "Ts": 9382,
  "OA": 9383,
  "nam": 9384,
  "i .": 9385,
  "y .": 9386,
  "i ,": 9387,
  "z ,": 9388,
  "d ,": 9389,
  "c ,": 9390,
  "ndịna": 9391,
  "Uke": 9392,
  "han": 9393,
  "na-er": 9394,
  "rya": 9395,
  "lay": 9396,
  "kanye": 9397,
  "ọhụ": 9398,
  "lahụ": 9399,
  "arahụ": 9400,
  "irụ": 9401,
  "fri": 9402,
  "Gri": 9403,
  "Uru": 9404,
  "rị .": 9405,
  "Otu": 9406,
  "bama": 9407,
  "gakwa": 9408,
  "konye": 9409,
  "Tonye": 9410,
  "itụ": 9411,
  "tii": 9412,
  "kete": 9413,
  "bale": 9414,
  "bitu": 9415,
  "ziere": 9416,
  "na-anyị": 9417,
  "pụsị": 9418,
  "pụl": 9419,
  "kọrị": 9420,
  "jan": 9421,
  "anga": 9422,
  "machi": 9423,
  "kachi": 9424,
  "hachị": 9425,
  "cheere": 9426,
  "Ọzọ": 9427,
  "aka \"": 9428,
  "lọọ": 9429,
  "klọ": 9430,
  "rọọ": 9431,
  "rọba": 9432,
  "prọ": 9433,
  "kụpụ": 9434,
  "mado": 9435,
  "do ,": 9436,
  "owe": 9437,
  "nyewe": 9438,
  "awe": 9439,
  "ruwe": 9440,
  "Iwe": 9441,
  "nwewe": 9442,
  "kwụna": 9443,
  "kwụru": 9444,
  "kpala": 9445,
  "ghala": 9446,
  "anyịnwa": 9447,
  "Egbu": 9448,
  "ray": 9449,
  "Pra": 9450,
  "li ,": 9451,
  "Mgbe": 9452,
  "gbene": 9453,
  "Ogbe": 9454,
  "ebela": 9455,
  "Rebe": 9456,
  "rụọrọ": 9457,
  "irikọ": 9458,
  "hiri": 9459,
  "ruwa": 9460,
  "tụwa": 9461,
  "hụwa": 9462,
  "des": 9463,
  "deere": 9464,
  "icha": 9465,
  "ụcha": 9466,
  "chawa": 9467,
  "jicha": 9468,
  "ubu": 9469,
  "buli": 9470,
  "ga-eti": 9471,
  "ga-echi": 9472,
  "sona": 9473,
  "gbaso": 9474,
  "metara": 9475,
  "zọtara": 9476,
  "ụmụ ,": 9477,
  "rịawa": 9478,
  "gbọọ": 9479,
  "tịa": 9480,
  "ọrụaka": 9481,
  "ga-anwa": 9482,
  "ga-asa": 9483,
  "akwụọ": 9484,
  "akwụ ,": 9485,
  "Ulu": 9486,
  "gbolu": 9487,
  "obi :": 9488,
  "lobi": 9489,
  "obi \"": 9490,
  "dis": 9491,
  "dim": 9492,
  "medi": 9493,
  "chineke :": 9494,
  "ndịiche": 9495,
  "maka  \" ": 9496,
  "kpachi": 9497,
  "nyere ,": 9498,
  "dale": 9499,
  "Ida": 9500,
  "akwụ ?": 9501,
  "Rile": 9502,
  "nukwu": 9503,
  "dịka :": 9504,
  "pụtakwa": 9505,
  "resi": 9506,
  "ga-eje": 9507,
  "% )": 9508,
  "kubi": 9509,
  "ku ,": 9510,
  "na-emesi": 9511,
  "na-emebu": 9512,
  "mpo": 9513,
  "koba": 9514,
  "chako": 9515,
  "amaara": 9516,
  "“ na": 9517,
  "Gon": 9518,
  "non": 9519,
  "pụkwara": 9520,
  "gbukwara": 9521,
  "kwaranụ": 9522,
  "sọkwara": 9523,
  "Edu": 9524,
  "duu": 9525,
  "“ ana": 9526,
  "Bana": 9527,
  "egwu-": 9528,
  "202": 9529,
  "Ahi": 9530,
  "agadị": 9531,
  "tụpụtara": 9532,
  "ze ,": 9533,
  "ego :": 9534,
  "emetụ": 9535,
  "emekwa": 9536,
  "emeso": 9537,
  "emechi": 9538,
  "emezi": 9539,
  "agba  \" ": 9540,
  "tereni": 9541,
  "ria ,": 9542,
  "Pho": 9543,
  "st ,": 9544,
  "Est": 9545,
  "n'ihi": 9546,
  "ihiala": 9547,
  "kpọgara": 9548,
  "Yaha": 9549,
  "Bah": 9550,
  "sikwuo": 9551,
  "nwoke \"": 9552,
  "kpoo": 9553,
  "ga-ekpo": 9554,
  "iche . ”": 9555,
  "jor": 9556,
  "nwụchara": 9557,
  "kechara": 9558,
  "gharị ,": 9559,
  "emegharị": 9560,
  "ngi": 9561,
  "“ ugbu": 9562,
  "( R": 9563,
  "( £": 9564,
  "( onye": 9565,
  "welite": 9566,
  "pel": 9567,
  "el-": 9568,
  "ole ,": 9569,
  "biela": 9570,
  "feela": 9571,
  "pela": 9572,
  "nwuchi": 9573,
  "nwu ,": 9574,
  "enwu": 9575,
  "abala": 9576,
  "Yaba": 9577,
  "ntal": 9578,
  "jirila": 9579,
  "pay": 9580,
  "ụpa": 9581,
  "arụ ,": 9582,
  "arụghị": 9583,
  "anyammiri": 9584,
  "na-agbakọ": 9585,
  "nkpụ": 9586,
  "jọlọ": 9587,
  "ekwe .": 9588,
  "iwepu": 9589,
  "als": 9590,
  "ppe": 9591,
  "Joy": 9592,
  "Win": 9593,
  "Uju": 9594,
  "na-akarị": 9595,
  "azụta": 9596,
  "ces": 9597,
  "zị .": 9598,
  "dụọla": 9599,
  "ọgwụ .": 9600,
  "ebughị": 9601,
  "ruo ,": 9602,
  "leghara": 9603,
  "nchegbu": 9604,
  "tọgha": 9605,
  "mgbagha": 9606,
  "ekiri": 9607,
  "ọma .  \" ": 9608,
  "ọrụ .  \" ": 9609,
  "m .  \" ": 9610,
  "anya .  \" ": 9611,
  "low": 9612,
  "na-agakarị": 9613,
  "wig": 9614,
  "ga-amasị :": 9615,
  "ziekwa": 9616,
  "kwuzie": 9617,
  "jirizie": 9618,
  "warala": 9619,
  "chọwara": 9620,
  "oui": 9621,
  "enugwu ?": 9622,
  "Nma": 9623,
  "ọjọọ . ”": 9624,
  "Isu": 9625,
  "sum": 9626,
  "ụmụnwaanyị ?": 9627,
  "kwụsịtụ": 9628,
  "kwụsị ?": 9629,
  "agụrụ": 9630,
  "ịkatọ": 9631,
  "rụburu": 9632,
  "cheburu": 9633,
  "iwakpo": 9634,
  "wakpoola": 9635,
  "ụlọikpe ?": 9636,
  "gosikwa": 9637,
  "enyena": 9638,
  "Bada": 9639,
  "Ven": 9640,
  "Jen": 9641,
  "Ten": 9642,
  "ịgba ,": 9643,
  "ịgbasi": 9644,
  "kemgbe ,": 9645,
  "anaghị \"": 9646,
  "Chibu": 9647,
  "nọdụrụ": 9648,
  "ga-ezo": 9649,
  "bunal": 9650,
  "kere .": 9651,
  "toruru": 9652,
  "Rob": 9653,
  "bubata": 9654,
  "ga-abata": 9655,
  "ebubata": 9656,
  "ntụbata": 9657,
  "ngarị": 9658,
  "ezinụlọ .": 9659,
  "kọrọ ,": 9660,
  "kpasoro": 9661,
  "busoro": 9662,
  "ehibere": 9663,
  "bụghịkwa": 9664,
  "muoh": 9665,
  "Man ": 9666,
  "ịmachị": 9667,
  "Regu": 9668,
  "na-achọkarị": 9669,
  "nnupu": 9670,
  "atụmatụ  \" ": 9671,
  "atụmatụ ,": 9672,
  "- 8": 9673,
  "orola": 9674,
  "Tam": 9675,
  "nkwafu": 9676,
  "nkwa ,": 9677,
  "kwụsịtụrụ": 9678,
  "na-atụrụ": 9679,
  "tọrọkpụ": 9680,
  "Momo": 9681,
  "akpagharị": 9682,
  "hapụla": 9683,
  "nwata .": 9684,
  "Coal": 9685,
  "orie": 9686,
  "na-akpagharị": 9687,
  "nnukwute": 9688,
  "ezuola": 9689,
  "ezute": 9690,
  "ga-abụ .": 9691,
  "udo ?": 9692,
  "mehie": 9693,
  "cca": 9694,
  "ibunye": 9695,
  "ibubata": 9696,
  "ibugharị": 9697,
  "legọs :": 9698,
  "tịala": 9699,
  "ekwute": 9700,
  "ekwughi": 9701,
  "ekwurịta": 9702,
  "na-akụrụ": 9703,
  "gbachaa": 9704,
  "na-elegharị": 9705,
  "ụkọchukwu ,": 9706,
  "Gide": 9707,
  "mmeri ,": 9708,
  "machiela": 9709,
  "ịdị .": 9710,
  "IPOB .": 9711,
  "kwụghachi": 9712,
  "achịkọta": 9713,
  "Faso": 9714,
  "Dia": 9715,
  "mụtakwuo": 9716,
  "mụtakwara": 9717,
  "esikwa": 9718,
  "kwekọrịta": 9719,
  "Atiku :": 9720,
  "bọl": 9721,
  "Inve": 9722,
  "Indu": 9723,
  "nyịrị": 9724,
  "debanye": 9725,
  "ilebanye": 9726,
  "ga-adịgide": 9727,
  "minista .": 9728,
  "merie ,": 9729,
  "ịrụgharị": 9730,
  "ịrụpụta": 9731,
  "Trust": 9732,
  "ọtọ ?": 9733,
  "Okoi": 9734,
  "na-agụpụta": 9735,
  "dosie": 9736,
  "offi": 9737,
  "amụma .": 9738,
  "anapụtala": 9739,
  "Unity": 9740,
  "nkeọma .": 9741,
  "adọrọ": 9742,
  "Abbo": 9743,
  "ntorobịa .": 9744,
  "cob": 9745,
  "coa": 9746,
  "ikwupụta": 9747,
  "megawa": 9748,
  "( INEC": 9749,
  "Afara": 9750,
  "ha  \" . \"": 9751,
  "Kaori": 9752,
  "Adegbo": 9753,
  "Eagles ,": 9754,
  "nyegoro": 9755,
  "lood": 9756,
  "hood": 9757,
  "kedụzị": 9758,
  "Obi-": 9759,
  "cur": 9760,
  "kwaturu": 9761,
  "gbuturu": 9762,
  "ga-eturu": 9763,
  "ịtụnye": 9764,
  "wụsa": 9765,
  "2005": 9766,
  "2004": 9767,
  "2006": 9768,
  "ewepụtara": 9769,
  "na-ekpebi": 9770,
  "Bode": 9771,
  "ụlọakwụkwọ .": 9772,
  "pụrụiche .": 9773,
  "akaekpe": 9774,
  "Tom": 9775,
  "arụsị ,": 9776,
  "ọbaraọcha": 9777,
  "ụwa . ,": 9778,
  "ekpebie": 9779,
  "mily": 9780,
  "burugodị": 9781,
  "Stam": 9782,
  "na-ata .": 9783,
  "na-ekpu": 9784,
  "nledo": 9785,
  "agbọghọbịa": 9786,
  "chịkọtara": 9787,
  "tụkọtara": 9788,
  "tụgharịrị": 9789,
  "Toky": 9790,
  "ịkpaoke": 9791,
  "na-erite": 9792,
  "anwụọla ,": 9793,
  "ihiala ,": 9794,
  "Ezeani": 9795,
  "Ezenne": 9796,
  "tụgidere": 9797,
  "a ? ”": 9798,
  "ịlụso": 9799,
  "juun ,": 9800,
  "Cairo": 9801,
  "ọgụgụ .": 9802,
  "ọgụgụ ,": 9803,
  "ije .": 9804,
  "iden .": 9805,
  "power": 9806,
  "wepụtara .": 9807,
  "Assi": 9808,
  "ga-emeghe": 9809,
  "ndịigbo .": 9810,
  "nkata .": 9811,
  "ekweta .": 9812,
  "taata .": 9813,
  "ire ,": 9814,
  "ụjọ ,": 9815,
  "Bene": 9816,
  "Beni": 9817,
  "Alph": 9818,
  "achọghịzị": 9819,
  "achọghịzi": 9820,
  "metụtara ,": 9821,
  "Zik": 9822,
  "Zion": 9823,
  "irube": 9824,
  "ụlọakụ .": 9825,
  "League ,": 9826,
  "mọkpọ": 9827,
  "pekata": 9828,
  "Lagos .": 9829,
  "Chukwueze": 9830,
  "abụrụkwa": 9831,
  "June": 9832,
  "nlere": 9833,
  "amachaghị": 9834,
  "mfe ,": 9835,
  "mkpesa .": 9836,
  "zman": 9837,
  "efuola": 9838,
  "ogologo ,": 9839,
  "Media": 9840,
  "Duro": 9841,
  "maliri": 9842,
  "mabutere": 9843,
  "DNA": 9844,
  "gbagwo": 9845,
  "naiji": 9846,
  "jikọọ": 9847,
  "kịrịkịrị": 9848,
  "Boe": 9849,
  "Ikeaz": 9850,
  "Ikeme": 9851,
  "170": 9852,
  "mbipụta": 9853,
  "Paci": 9854,
  "184": 9855,
  "na-adapụta": 9856,
  "nkata ,": 9857,
  "etozu": 9858,
  "azọpụtara": 9859,
  " ? ” )": 9860,
  "m ? ”": 9861,
  "ekwuputa": 9862,
  "meputa": 9863,
  "Not": 9864,
  "Madrid .": 9865,
  "mgbede ,": 9866,
  "okenye .": 9867,
  "ọkụkọ .": 9868,
  "na-anara": 9869,
  "Ruga-": 9870,
  "Sowore :": 9871,
  "kwusaa": 9872,
  "Segun": 9873,
  "na-akụzi .": 9874,
  "Team": 9875,
  "jidela": 9876,
  "ụy": 9877,
  "ministra": 9878,
  "jọọla": 9879,
  "ọjị .": 9880,
  "gence": 9881,
  "Jur": 9882,
  "ezie ?": 9883,
  "zigaara": 9884,
  "Baby": 9885,
  "Weare": 9886,
  "Plan": 9887,
  "tural": 9888,
  "Madumere": 9889,
  "El-Zakzaky .": 9890,
  "na-etiri": 9891,
  "sị  \" ọ \"": 9892,
  "Harcourt .": 9893,
  "doll": 9894,
  "12 :": 9895,
  "kutuo": 9896,
  "ọzọkwa ,": 9897,
  "ga-achọta": 9898,
  "ga-alọta": 9899,
  "kweere .": 9900,
  "gbafuru": 9901,
  "achịcha ,": 9902,
  "ụma .": 9903,
  "Haw": 9904,
  "Confe": 9905,
  "Asia": 9906,
  "kwetakwara": 9907,
  "Mbakwe": 9908,
  "na-arịa .": 9909,
  "Iv .": 9910,
  "depụta .": 9911,
  "ga-azọrọ": 9912,
  "ndokwa": 9913,
  "-West": 9914,
  "Cameroon ,": 9915,
  "nkụ .": 9916,
  "cul": 9917,
  "dulaa": 9918,
  "ga-azọpụta": 9919,
  "min ) .": 9920,
  "ogbenye ,": 9921,
  "ịchafụ :": 9922,
  "Human": 9923,
  "Hung": 9924,
  "ga-amalitekwa": 9925,
  "Christie": 9926,
  "Daniel ,": 9927,
  "2006 ,": 9928,
  "Arab": 9929,
  "na-aṅụkwa": 9930,
  "Shehu ,": 9931,
  "grik ,": 9932,
  "na-agawanye": 9933,
  "“ ụmụnna": 9934,
  "tufuo": 9935,
  "ịkọpụta": 9936,
  "bukola": 9937,
  "nupuru": 9938,
  "ANU": 9939,
  "( AN": 9940,
  "Stella": 9941,
  "okwute .": 9942,
  "Aguero": 9943,
  "nọvemba .": 9944,
  "ose ,": 9945,
  "Okonjo": 9946,
  "ga-achụpụ": 9947,
  "Off": 9948,
  "hịara": 9949,
  "Andy": 9950,
  "ekwesighi": 9951,
  "Europe .": 9952,
  "eprel .": 9953,
  "Prime": 9954,
  "nchawa": 9955,
  "ncha ,": 9956,
  "amara ,": 9957,
  "baptizim .": 9958,
  "myr": 9959,
  "na-abagide": 9960,
  "ga-ekwu .": 9961,
  "na-agbalịkwa": 9962,
  "shot": 9963,
  "ya :  \" ": 9964,
  "beria": 9965,
  "Godson": 9966,
  "Marble": 9967,
  "Prince": 9968,
  "ebube .": 9969,
  "iller": 9970,
  "Hill": 9971,
  "Corne": 9972,
  "na-ahụtụbeghị": 9973,
  "rutere ,": 9974,
  "alaghachị": 9975,
  "nyekwaara": 9976,
  "35 )": 9977,
  "- 5 )": 9978,
  "1999 .": 9979,
  "mbombo": 9980,
  "mpako": 9981,
  "nwaagbọghọbịa": 9982,
  "shog": 9983,
  "27 )": 9984,
  "ga-erube": 9985,
  "na-ewutekwa": 9986,
  "duct": 9987,
  "ISIS": 9988,
  "Minister": 9989,
  "tel .": 9990,
  "Crow": 9991,
  "Cup :": 9992,
  "Tali": 9993,
  "ọgaranya .": 9994,
  "Nnadozie": 9995,
  "gafere .": 9996,
  "nsụnsụ": 9997,
  "Count": 9998,
  "gbanwebeghị": 9999,
  "agbanwebeghị": 10000,
  "ttlement": 10001,
  "gbawaa": 10002,
  "ozigbo .": 10003,
  "Imo ,": 10004,
  "akpụkpọụkwụ": 10005,
  "kwụrụ  \" na \"": 10006,
  "( IMN": 10007,
  "garuru": 10008,
  "mond": 10009,
  "depụtaghachiri": 10010,
  "ga-aza ?": 10011,
  "eferela": 10012,
  "Korea .": 10013,
  "ngwuru": 10014,
  "kpọmkwem .": 10015,
  "Teodo": 10016,
  "ration \"": 10017,
  "Jessi": 10018,
  "Timgad .": 10019,
  "ICPC": 10020,
  "service": 10021,
  "gbanahụ": 10022,
  "PP )": 10023,
  "menyụrụ": 10024,
  "ịhọpụtagharị": 10025,
  "Premiership": 10026,
  "Crime": 10027,
  "Crimes": 10028,
  "ndidi .": 10029,
  "Odinga": 10030,
  "Youth": 10031,
  "Xenophobia :": 10032,
  "Dr .": 10033,
  "nchịkọba": 10034,
  "saịrọ": 10035,
  "  \" dịka \"": 10036,
  "ịhụnanya ,": 10037,
  "ekpofu": 10038,
  "2000 ,": 10039,
  "Aguleri ,": 10040,
  "oney": 10041,
  "Onoh": 10042,
  "gbalaga .": 10043,
  "Mali .": 10044,
  "gbadata": 10045,
  "okokporo": 10046,
  "Akin": 10047,
  "Jigawa": 10048,
  "barrel": 10049,
  "nchara .": 10050,
  "bụ  \" ụmụada": 10051,
  "ebugala": 10052,
  "na-abịakarị": 10053,
  "607": 10054,
  "Olimpi": 10055,
  "Chibuike": 10056,
  "Chidiebere": 10057,
  "Codeine :": 10058,
  "Spanish .": 10059,
  "Ekwueme": 10060,
  "Clint": 10061,
  "Lille": 10062,
  "ville": 10063,
  "change": 10064,
  "mbịambịa": 10065,
  "mmezu .": 10066,
  "mgbalienu": 10067,
  "Peshia": 10068,
  "menyụọ": 10069,
  "Clay": 10070,
  "Nebal": 10071,
  "Croa": 10072,
  "akwụwaghị": 10073,
  "mpụtagharị": 10074,
  "Supre": 10075,
  "Whit": 10076,
  "na-abịanụ .": 10077,
  "agbagharala": 10078,
  "Martins": 10079,
  "Warri": 10080,
  "- 14 )": 10081,
  "Asisa": 10082,
  "trous": 10083,
  "nwamkpị .": 10084,
  "anyarala": 10085,
  "Lawal": 10086,
  "ga-ezukọ": 10087,
  "nchọnchọ": 10088,
  "“ lee !": 10089,
  "ekwuputela": 10090,
  "  \" kedụ \"": 10091,
  "kọnkịrị": 10092,
  "ịnwụchikọ": 10093,
  "bezbọl .": 10094,
  "Asagwara": 10095,
  "nnọkọ": 10096,
  "amaburula": 10097,
  "Chinua": 10098,
  "enweteghi": 10099,
  "iberiibe .": 10100,
  "Chuks": 10101,
  "ERAP": 10102,
  "Jezi": 10103,
  "bụrụhaala": 10104,
  "rates": 10105,
  "ngwupụta": 10106,
  "Hutter": 10107,
  "glass": 10108,
  "referee": 10109,
  "Ibikunle": 10110,
  "________________________________": 10111,
  "pounds": 10112,
  "akpamamịrị": 10113,
  "MATA": 10114,
  "zaghachi": 10115,
  "uwa": 10116,
  "Uwazuruike": 10117,
  "nkwụmọtọ": 10118,
  "echegbula": 10119,
  "Lebanon": 10120,
  "Wilfred": 10121,
  "Technova": 10122,
  "CHOG": 10123,
  "Heart": 10124,
  "ịdịn'otu": 10125,
  "Ndubisi": 10126,
  "Callis": 10127,
  "Ngue": 10128,
  "Tarrant": 10129,
  "Scot": 10130,
  "Anaocha": 10131,
  "Virgil": 10132,
  "Ferna": 10133,
  "Nnamani": 10134,
  "Rafa": 10135,
  "anwansi": 10136,
  "ikpuchi": 10137,
  "attack": 10138,
  "Result": 10139,
  "Guardiola": 10140,
  "Wood": 10141,
  "LEA": 10142,
  "aching": 10143,
  "goolụ": 10144,
  "Universal": 10145,
  "achakeela": 10146,
  "Ralph": 10147,
  "Founda": 10148,
  "Civil": 10149,
  "Snow": 10150,
  "Kachikwu": 10151,
  "siness": 10152,
  "Rotary": 10153,
  "krismas .": 10154,
  "ga-ehichapụkwa": 10155,
  "Electricity": 10156,
  "Academy": 10157,
  "Diez": 10158,
  "Senate": 10159,
  "mma-Klint": 10160,
  "  \" dị \"": 10161,
  "Mbonu": 10162,
  "Enugwu": 10163,
  "Nzewuji": 10164,
  "Nelson": 10165,
  "Linda": 10166,
  "na-eleru": 10167,
  "Adazi-N": 10168,
  "Sadiya": 10169,
  "Adeboye": 10170,
  "Living": 10171,
  "vaịn": 10172,
  "Abatete": 10173,
  "Imohimi": 10174,
  "  \" visa \" \" ": 10175,
  "Konduga": 10176,
  "Portugal": 10177,
  "Athletics": 10178,
  "ojiegoachụego": 10179,
  "ịkpakwụ": 10180,
  "Voice": 10181,
  "Arochukwu": 10182,
  "Maduagwu": 10183,
  "Chimezie": 10184,
  "parish": 10185,
  "omen'ụgha": 10186,
  "Silva": 10187,
  "Akeredo": 10188,
  "Lekki": 10189,
  "Justice": 10190,
  "ekwekọrịtala": 10191,
  "Badmus": 10192,
  "alaọmajiji": 10193,
  "Jerom": 10194,
  "Achalla": 10195,
  "Wisdom": 10196,
  "Dominic": 10197,
  "Vatican": 10198,
  "Ifejiofor": 10199,
  "Omambala": 10200,
  "cashless": 10201,
  "UNES": 10202,
  "Gọv": 10203,
  "ọtọmegbu": 10204,
  "egedege": 10205,
  "Times": 10206,
  "okpotokpo": 10207,
  "amagedọ": 10208,
  "dọb": 10209,
  "Frankfur": 10210,
  "Simone": 10211,
  "chebagodịrị": 10212,
  "Record": 10213,
  "nkeypox": 10214,
  "naiyekan": 10215,
  "Bucknor": 10216,
  "Wesley": 10217,
  "Salisu": 10218,
  "umudioka": 10219,
  "Standard": 10220,
  "Roberto": 10221,
  "Fulham": 10222,
  "Ruben": 10223,
  "Spann": 10224,
  "Methodi": 10225,
  "Airpeace": 10226,
  "Balarabe": 10227,
  "nhatanha": 10228,
  "language": 10229,
  "Closure :": 10230,
  "conclusive": 10231,
  "Transformation": 10232,
  "Ecuador": 10233,
  "Lamborghini": 10234,
  "friji": 10235,
  "pọpụl": 10236,
  "klọb": 10237,
  "prọfe": 10238,
  "Ulumma": 10239,
  "Ahiara": 10240,
  "meditereni": 10241,
  "jọlọf": 10242,
  "Nmachukwu": 10243,
  "Nnamuoh": 10244,
  "ọkpụtọrọkpụ": 10245,
  "Jacob": 10246,
  "megawatt": 10247,
  "Adegboruwa": 10248,
  "Stamford": 10249,
  "Durotoye": 10250,
  "gbagwojuru": 10251,
  "naijiria": 10252,
  "Boeing": 10253,
  "ụyọkọ": 10254,
  "Administra": 10255,
  "Jurgen": 10256,
  "dollar": 10257,
  "Khashog": 10258,
  "Taliban": 10259,
  "( IMN )": 10260,
  "Teodorin": 10261,
  "Jessica": 10262,
  "saịrọs": 10263,
  "bụ  \" ụmụada \" \" n' \"": 10264,
  "Olimpiks": 10265,
  "Croatia": 10266,
  "Supreme": 10267,
  "Asisat": 10268,
  "Jezibel": 10269,
  "uwazuruike": 10270,
  "CHOGM": 10271,
  "Callistus": 10272,
  "Nguema": 10273,
  "Rafael": 10274,
  "Foundation": 10275,
  "Diezani": 10276,
  "UNESCO": 10277,
  "dọblịn": 10278,
  "Frankfurt": 10279,
  "Khashoggi": 10280,
  "ek": 10281,
  "SU": 10282,
  "ghụ": 10283,
  "Ik": 10284,
  "73": 10285,
  "56": 10286,
  "On": 10287,
  "Ev": 10288,
  "ME": 10289,
  "83": 10290,
  "tz": 10291,
  "FM": 10292,
  "Qa": 10293,
  "72": 10294,
  "nyu": 10295,
  "tn": 10296,
  "Ish": 10297,
  "dh": 10298,
  "Cho": 10299,
  "Dy": 10300,
  "AZ": 10301,
  "74": 10302,
  "OR": 10303,
  "Ic": 10304,
  "Ty": 10305,
  "án": 10306,
  "UA": 10307,
  "ghu": 10308,
  "TB": 10309,
  "RB": 10310,
  "nah": 10311,
  "naz": 10312,
  "C .": 10313,
  "S .": 10314,
  "T .": 10315,
  "’ .": 10316,
  "J .": 10317,
  "bụọ": 10318,
  "Der": 10319,
  "r ,": 10320,
  "har": 10321,
  "Sar": 10322,
  "Lar": 10323,
  "ke-": 10324,
  "kha": 10325,
  "Aha": 10326,
  "ịha": 10327,
  "Wha": 10328,
  "Pere": 10329,
  "Cara": 10330,
  "Aga": 10331,
  "uta": 10332,
  "tai": 10333,
  "rụta": 10334,
  "marụ": 10335,
  "cri": 10336,
  "bao": 10337,
  "ikwa": 10338,
  "bakwa": 10339,
  "aghị": 10340,
  "dịtụ": 10341,
  "cti": 10342,
  "gbaka": 10343,
  "ugba": 10344,
  "Ole": 10345,
  "lena": 10346,
  "tele": 10347,
  "bena": 10348,
  "bin": 10349,
  "bbi": 10350,
  "nkebi": 10351,
  "azi": 10352,
  "zig": 10353,
  "ziz": 10354,
  "zinye": 10355,
  "nzi": 10356,
  "Imma": 10357,
  "ikọ": 10358,
  "kọsị": 10359,
  "Ụmụ": 10360,
  "mmachị": 10361,
  "? \"": 10362,
  "daka": 10363,
  "akaghị": 10364,
  "ido": 10365,
  "dow": 10366,
  "ddo": 10367,
  "wetu": 10368,
  "tiwe": 10369,
  "Ene": 10370,
  "ne \"": 10371,
  "new": 10372,
  "Ane": 10373,
  "kwụ ,": 10374,
  "mkwụ": 10375,
  "rịala": 10376,
  "gbaala": 10377,
  "nwala": 10378,
  "Visi": 10379,
  "erra": 10380,
  "raa": 10381,
  "lima": 10382,
  "lim": 10383,
  "ghiri": 10384,
  "kwurula": 10385,
  "tawa": 10386,
  "lade": 10387,
  "rade": 10388,
  "Ede": 10389,
  "roke": 10390,
  "makarị": 10391,
  "tọwa": 10392,
  "tọ ,": 10393,
  "Iso": 10394,
  "socha": 10395,
  "tetara": 10396,
  "Ugbo": 10397,
  "ụmụ-": 10398,
  "ịrịa": 10399,
  "inwere": 10400,
  "ga-akụ": 10401,
  "6 :": 10402,
  "saala": 10403,
  "busa": 10404,
  "sata": 10405,
  "ange": 10406,
  "uge": 10407,
  "gge": 10408,
  "imesi": 10409,
  "Ọnwụ": 10410,
  "nwụru": 10411,
  "akụ .": 10412,
  "ọzọ-": 10413,
  "lus": 10414,
  "ọnọ": 10415,
  "Robi": 10416,
  "nobi": 10417,
  "Ose": 10418,
  "sex": 10419,
  "Ezu": 10420,
  "rizu": 10421,
  "edi": 10422,
  "ịdi": 10423,
  "dian": 10424,
  "ezighị": 10425,
  "Miche": 10426,
  "ichewe": 10427,
  "ji  \" ": 10428,
  "ọrụ  \" ": 10429,
  "naịjirịa  \" ": 10430,
  "nyere .": 10431,
  "dam": 10432,
  "daba": 10433,
  "dawa": 10434,
  "ilele": 10435,
  "Gile": 10436,
  "na-enu": 10437,
  "dịka ,": 10438,
  "dapụta": 10439,
  "Ore": 10440,
  "je ,": 10441,
  "Aje": 10442,
  "Agụ": 10443,
  "tụtụrụ": 10444,
  "wunye": 10445,
  "ga-ewu": 10446,
  "kulu": 10447,
  "na-eme ?": 10448,
  "garị": 10449,
  "erizi": 10450,
  "Ako": 10451,
  "chịa .": 10452,
  "nia .": 10453,
  "amachị": 10454,
  "amala": 10455,
  "Jama": 10456,
  "m ”": 10457,
  "ga-abụrụ": 10458,
  "kpọsa": 10459,
  "kpọro": 10460,
  "nwaanyị ?": 10461,
  "kwụkwara": 10462,
  "kọkwara": 10463,
  "na-emekwara": 10464,
  "dịkwara": 10465,
  "puo": 10466,
  "ọnụ ?": 10467,
  "kedu": 10468,
  "Adu": 10469,
  "anapụ": 10470,
  "ana .": 10471,
  "120": 10472,
  "nyefe": 10473,
  "feere": 10474,
  "agaara": 10475,
  "aga ?": 10476,
  "nupụtara": 10477,
  "rapụtara": 10478,
  "tto": 10479,
  "kato": 10480,
  "tomi": 10481,
  "tola": 10482,
  "ụbara": 10483,
  "zeere": 10484,
  "ego \"": 10485,
  "emenụ": 10486,
  "emewe": 10487,
  "emebu": 10488,
  "eme ?": 10489,
  "aruru": 10490,
  "ntị ?": 10491,
  "agbakụ": 10492,
  "agbagbu": 10493,
  "agbam": 10494,
  "sotere": 10495,
  "nia ,": 10496,
  "ia ,": 10497,
  "sia ,": 10498,
  "sha ,": 10499,
  "lia ,": 10500,
  "Rho": 10501,
  "zho": 10502,
  "fụrụ": 10503,
  "rụụrụ": 10504,
  "ghari": 10505,
  "tari": 10506,
  "ahụ . ,": 10507,
  "“ ozi": 10508,
  "chasịrị": 10509,
  "akwụsịrị": 10510,
  "ezigara": 10511,
  "gara .": 10512,
  "wegara": 10513,
  "Maha": 10514,
  "lụtara": 10515,
  "miah": 10516,
  "ahara": 10517,
  "ahọrọ": 10518,
  "kpọrọ .": 10519,
  "ịkpọrọ": 10520,
  "dakpọrọ": 10521,
  "Okwuo": 10522,
  "kwuo-": 10523,
  "dokwuo": 10524,
  "ọkasị": 10525,
  "jụru": 10526,
  "ụfọdụ \"": 10527,
  "nds": 10528,
  "kpasara": 10529,
  "na-ahụ ,": 10530,
  "eze-": 10531,
  "onyeagha": 10532,
  "Home": 10533,
  "dewere": 10534,
  "agbanweghị": 10535,
  "gbuchara": 10536,
  "ọkachara": 10537,
  "dachara": 10538,
  "ga-emechi": 10539,
  "ga-emegharị": 10540,
  "gagharị": 10541,
  "onyeọbụla": 10542,
  "sugbu": 10543,
  "( 5": 10544,
  "( 7": 10545,
  "( dịka": 10546,
  "  \" nakwa": 10547,
  "olu .": 10548,
  "olu ,": 10549,
  "gwụla": 10550,
  "tolite": 10551,
  "ziela": 10552,
  "hiela": 10553,
  "nwu .": 10554,
  "nwughị": 10555,
  "nwuri": 10556,
  "nga .": 10557,
  "gbajiri": 10558,
  "ppa": 10559,
  "arụzi": 10560,
  "Igwe": 10561,
  "mpic": 10562,
  "mpi .": 10563,
  "emo": 10564,
  "mont": 10565,
  "dọnyere": 10566,
  "ekwetara": 10567,
  "ekwenye": 10568,
  "ekwete": 10569,
  "ekwenyere": 10570,
  "ya . ;": 10571,
  "ụwa ;": 10572,
  "ike ;": 10573,
  "anyị ;": 10574,
  "yiwe": 10575,
  "anwụghị": 10576,
  "ga-amagbu": 10577,
  "ald": 10578,
  "alara": 10579,
  "al-": 10580,
  "imepe": 10581,
  "ga-emepe": 10582,
  "mgbada": 10583,
  "mgbape": 10584,
  "main": 10585,
  "ga-eju": 10586,
  "juda": 10587,
  "adịkwa": 10588,
  "adịcha": 10589,
  "kwadoo": 10590,
  "ntamu": 10591,
  "dith": 10592,
  "ce ,": 10593,
  "BBC \"": 10594,
  "sizị": 10595,
  "okpụrụ": 10596,
  "ịbara": 10597,
  "nsogbu ?": 10598,
  "ejila": 10599,
  "gharakwa": 10600,
  "ịgha": 10601,
  "bịrị": 10602,
  "enue": 10603,
  "egwuregwu :": 10604,
  "taam": 10605,
  "mmadụ .  \" ": 10606,
  "naịjirịa .  \" ": 10607,
  "logi": 10608,
  "ilo": 10609,
  "Bola": 10610,
  "“ naanị": 10611,
  "sizie": 10612,
  "dọwara": 10613,
  "Awara": 10614,
  "cou": 10615,
  "Zou": 10616,
  "Tou": 10617,
  "nwalee": 10618,
  "gaziri": 10619,
  "isiụlọọrụ": 10620,
  "ụmụnwaanyị \"": 10621,
  "erubere": 10622,
  "kwụsịla": 10623,
  "kwụsịnụ": 10624,
  "agụọ": 10625,
  "penti": 10626,
  "nweburu": 10627,
  "erughi": 10628,
  "Bunde": 10629,
  "ịgosi": 10630,
  "enyeela": 10631,
  "ịgbape": 10632,
  "ịgbaziri": 10633,
  "kemgbe \"": 10634,
  "Vol": 10635,
  "Chia": 10636,
  "chiri .": 10637,
  "gịnịdị": 10638,
  "( gaa": 10639,
  "Oil": 10640,
  "Mail": 10641,
  "bail": 10642,
  "Anal": 10643,
  "sonal": 10644,
  "nkeji .": 10645,
  "mbaza": 10646,
  "bution": 10647,
  "meri .": 10648,
  "erimeri": 10649,
  "Roch": 10650,
  "vita": 10651,
  "dịbeghị": 10652,
  "mabeghị": 10653,
  "hụbeghị": 10654,
  "nting": 10655,
  "APC :": 10656,
  "ọgbanje": 10657,
  "kpụkọrọ": 10658,
  "asụọla": 10659,
  "gbakee": 10660,
  "na-egboro": 10661,
  "Nno": 10662,
  "amụọla": 10663,
  "biri ,": 10664,
  "um ,": 10665,
  "Nki": 10666,
  "oki": 10667,
  "um .": 10668,
  "ham .": 10669,
  "ga-akọwa": 10670,
  "kọwa ,": 10671,
  "ntozu": 10672,
  "vers": 10673,
  "ịdịrị": 10674,
  "abụghịzi": 10675,
  "eleke": 10676,
  "echiela": 10677,
  "na-arụkwa": 10678,
  "na-achọpụta": 10679,
  "- 19": 10680,
  "nsọ ?": 10681,
  "Lie": 10682,
  "oroma": 10683,
  "gbuona": 10684,
  "Ram": 10685,
  "legide": 10686,
  "achọ .": 10687,
  "ịtụrụ": 10688,
  "na-atọrọ": 10689,
  "Mos": 10690,
  "Mona": 10691,
  "mkpụrụ ,": 10692,
  "ekeghị": 10693,
  "ịkọwara": 10694,
  "Cont": 10695,
  "Costa": 10696,
  "DP )": 10697,
  "ichere": 10698,
  "vez": 10699,
  "nkakwụ": 10700,
  "ụlọntaakụkọ": 10701,
  "Haram ?": 10702,
  "na-atụle": 10703,
  "yede": 10704,
  "ọkpụkpọ": 10705,
  "ibupu": 10706,
  "ịhụta": 10707,
  "ọtị": 10708,
  "tịn": 10709,
  "ya !": 10710,
  "cha !": 10711,
  "mmanụ ,": 10712,
  "ekwulọ": 10713,
  "malitezie": 10714,
  "rachaa": 10715,
  "ocheeze": 10716,
  "matakwuo": 10717,
  "lie ,": 10718,
  "okwesiri": 10719,
  "nkwado .": 10720,
  "Desi": 10721,
  "-Atiku": 10722,
  "ụba .": 10723,
  "ochie ?": 10724,
  "mmụta .": 10725,
  "amaghịkwa": 10726,
  "amaghị .": 10727,
  "amaghịzị": 10728,
  "pịrị": 10729,
  "Super \"": 10730,
  "cker": 10731,
  "ibanye": 10732,
  "alụọ": 10733,
  "mgbaasị": 10734,
  "rie ,": 10735,
  "ịrụ .": 10736,
  "ịrụrụ": 10737,
  "akara .": 10738,
  "na-efekọ": 10739,
  "Okoli": 10740,
  "na-erula": 10741,
  "na-agụ ,": 10742,
  "na-agụkọ": 10743,
  "ntifi": 10744,
  "oku ,": 10745,
  "omenala .": 10746,
  "ịgafe": 10747,
  "arụpụtala": 10748,
  "ọgaghị": 10749,
  "echezọ": 10750,
  "adọọ": 10751,
  "Abr": 10752,
  "coma": 10753,
  "com": 10754,
  "teco": 10755,
  "coin": 10756,
  "ga-enyeaka": 10757,
  "ajụrụ": 10758,
  "rụrụ .": 10759,
  "akpụkọ": 10760,
  "mwakpo .": 10761,
  "a  \" . \"": 10762,
  "Wike ,": 10763,
  "Say": 10764,
  "ịnọchi": 10765,
  "odoro": 10766,
  "ga-agbachi": 10767,
  "Eagles .": 10768,
  "mass": 10769,
  "Nass": 10770,
  "pass": 10771,
  "sigoro": 10772,
  "Mila": 10773,
  "ụlọụka ,": 10774,
  "Sani": 10775,
  "“ chineke ,": 10776,
  "Jour": 10777,
  "Our": 10778,
  "na-efo": 10779,
  "fooro": 10780,
  "Arar": 10781,
  "ituru": 10782,
  "buturu": 10783,
  "sand": 10784,
  "Baịbụl": 10785,
  "chọpụtarala": 10786,
  "iyi ,": 10787,
  "Chelsea .": 10788,
  "Chelsea ,": 10789,
  "diora": 10790,
  "na-esonụ": 10791,
  "enyemaka ,": 10792,
  "taghị .": 10793,
  "Mohamma": 10794,
  "2003": 10795,
  "kpụpụla": 10796,
  "kpọọkwa": 10797,
  "akpọla": 10798,
  "akpọghị": 10799,
  "na-agwaghị": 10800,
  "emee .": 10801,
  " , \" \" ": 10802,
  "ekpe .": 10803,
  "chuo": 10804,
  "chu ,": 10805,
  "echu": 10806,
  "rịọrịọ": 10807,
  "akwụsị ,": 10808,
  "fort": 10809,
  "dịghịrị": 10810,
  "agaala .": 10811,
  "Nwora": 10812,
  "Nwoye": 10813,
  "dera": 10814,
  "Fee": 10815,
  "bugharịrị": 10816,
  "Kong": 10817,
  "along": 10818,
  "Nyong": 10819,
  "Ekweremadu ,": 10820,
  "Kemi": 10821,
  "nhọpụta ,": 10822,
  "Abule": 10823,
  "Ezeobi": 10824,
  "dịgidere": 10825,
  "dagidere": 10826,
  "Garu": 10827,
  "( 1 ,": 10828,
  "2011 ,": 10829,
  "000 ) .": 10830,
  "gazịrị": 10831,
  "iro .": 10832,
  "ga-akwụrụ": 10833,
  "ga-enwekwa": 10834,
  "juun .": 10835,
  "stan .": 10836,
  "ssia": 10837,
  "m ) ,": 10838,
  "150": 10839,
  "ire .": 10840,
  "Marco": 10841,
  "Bea": 10842,
  "Best": 10843,
  "iru .": 10844,
  "welata": 10845,
  "Betha": 10846,
  "Osim": 10847,
  "Chukwuka": 10848,
  "ugbua .  \" ": 10849,
  "ịpị": 10850,
  "pịala": 10851,
  "Prie": 10852,
  "ụgụrụ": 10853,
  "ekwuchitere": 10854,
  "Fayo": 10855,
  "Uyo": 10856,
  "Toyo": 10857,
  "Card": 10858,
  "nnyocha ,": 10859,
  "seman": 10860,
  "Gui": 10861,
  "Guma": 10862,
  "Medi": 10863,
  "gbasakwara": 10864,
  "kpaliri": 10865,
  "ga-ebikwa": 10866,
  "Norther": 10867,
  "State :": 10868,
  "state :": 10869,
  "23 ,": 10870,
  "Ikenna": 10871,
  "awa .": 10872,
  "17 ;": 10873,
  "17 ,": 10874,
  "ofufe ,": 10875,
  "Pat": 10876,
  "Pas": 10877,
  "Dix": 10878,
  "amadị ,": 10879,
  "efe .": 10880,
  "na-adabara": 10881,
  "agụụ ,": 10882,
  "Chapo": 10883,
  "na-egosiputa": 10884,
  "egosighị": 10885,
  "Nove": 10886,
  "apụta ,": 10887,
  "Britan": 10888,
  "Bring": 10889,
  "enyo ,": 10890,
  "- 13": 10891,
  "113": 10892,
  "okporoụzọ ,": 10893,
  "Amadi": 10894,
  "na-etinyekwa": 10895,
  "jịkọtara": 10896,
  "na-akụzi ,": 10897,
  "spen ,": 10898,
  "erubeghi": 10899,
  "Gail": 10900,
  "kpekwazie": 10901,
  "ịghọtakwu": 10902,
  "Ghana ,": 10903,
[...]
