{
  "<unk>": 0,
  "<s>": 1,
  "</s>": 2,
  "<pad>": 3,
  "<mask morph>": 4,
  " ": 5,
  "!": 6,
  "\"": 7,
  "#": 8,
  "$": 9,
  "%": 10,
  "&": 11,
  "'": 12,
  "(": 13,
  ")": 14,
  "*": 15,
  ",": 16,
  "-": 17,
  ".": 18,
  "/": 19,
  "0": 20,
  "1": 21,
  "2": 22,
  "3": 23,
  "4": 24,
  "5": 25,
  "6": 26,
  "7": 27,
  "8": 28,
  "9": 29,
  ":": 30,
  ";": 31,
  "<": 32,
  "=": 33,
  ">": 34,
  "?": 35,
  "@": 36,
  "A": 37,
  "B": 38,
  "C": 39,
  "CH": 40,
  "Ch": 41,
  "D": 42,
  "E": 43,
  "F": 44,
  "G": 45,
  "GB": 46,
  "Gb": 47,
  "Gh": 48,
  "Gw": 49,
  "H": 50,
  "I": 51,
  "J": 52,
  "K": 53,
  "KP": 54,
  "Kp": 55,
  "Kw": 56,
  "L": 57,
  "M": 58,
  "N": 59,
  "NW": 60,
  "NY": 61,
  "Nw": 62,
  "Ny": 63,
  "O": 64,
  "P": 65,
  "Q": 66,
  "R": 67,
  "S": 68,
  "SH": 69,
  "Sh": 70,
  "T": 71,
  "U": 72,
  "V": 73,
  "W": 74,
  "X": 75,
  "Y": 76,
  "Z": 77,
  "[": 78,
  "]": 79,
  "^": 80,
  "_": 81,
  "`": 82,
  "a": 83,
  "b": 84,
  "c": 85,
  "ch": 86,
  "d": 87,
  "e": 88,
  "f": 89,
  "g": 90,
  "gb": 91,
  "gh": 92,
  "gw": 93,
  "h": 94,
  "i": 95,
  "j": 96,
  "k": 97,
  "kp": 98,
  "kw": 99,
  "l": 100,
  "m": 101,
  "n": 102,
  "nw": 103,
  "ny": 104,
  "o": 105,
  "p": 106,
  "q": 107,
  "r": 108,
  "s": 109,
  "sh": 110,
  "t": 111,
  "u": 112,
  "v": 113,
  "w": 114,
  "x": 115,
  "y": 116,
  "z": 117,
  "{": 118,
  "|": 119,
  "}": 120,
  "£": 121,
  "®": 122,
  "·": 123,
  "É": 124,
  "Ö": 125,
  "×": 126,
  "à": 127,
  "á": 128,
  "ã": 129,
  "ä": 130,
  "å": 131,
  "æ": 132,
  "ç": 133,
  "è": 134,
  "é": 135,
  "ì": 136,
  "í": 137,
  "ï": 138,
  "ñ": 139,
  "ó": 140,
  "ô": 141,
  "ö": 142,
  "ø": 143,
  "ù": 144,
  "ú": 145,
  "ü": 146,
  "ć": 147,
  "č": 148,
  "ğ": 149,
  "ń": 150,
  "ş": 151,
  "š": 152,
  "ż": 153,
  "ž": 154,
  "̀": 155,
  "́": 156,
  "ׁ": 157,
  "ה": 158,
  "נ": 159,
  "פ": 160,
  "ש": 161,
  "ṅ": 162,
  "ạ": 163,
  "ẹ": 164,
  "Ị": 165,
  "ị": 166,
  "Ọ": 167,
  "ọ": 168,
  "Ụ": 169,
  "ụ": 170,
  "–": 171,
  "—": 172,
  "‘": 173,
  "’": 174,
  "“": 175,
  "”": 176,
  "•": 177,
  "₦": 178,
  "€": 179,
  "■": 180,
  "●": 181,
  "": 182,
  "na": 183,
  "dị": 184,
  "ka": 185,
  "ma": 186,
  " .": 187,
  "n'": 188,
  "bụ": 189,
  " ,": 190,
  "ndị": 191,
  "ke": 192,
  "ra": 193,
  "me": 194,
  "ha": 195,
  "re": 196,
  "na-": 197,
  "ta": 198,
  "nye": 199,
  "ya": 200,
  "ga": 201,
  "la": 202,
  "ri": 203,
  "ih": 204,
  "si": 205,
  "ji": 206,
  "hụ": 207,
  "rụ": 208,
  "ihe": 209,
  "kwu": 210,
  "rị": 211,
  "ru": 212,
  "ba": 213,
  "kwa": 214,
  "any": 215,
  "te": 216,
  "na-a": 217,
  "nke": 218,
  "ahụ": 219,
  "tu": 220,
  "nwe": 221,
  "na-e": 222,
  "gba": 223,
  "onye": 224,
  "ghị": 225,
  "be": 226,
  "tụ": 227,
  "dụ": 228,
  "ti": 229,
  "ga-": 230,
  "le": 231,
  "otu": 232,
  "bi": 233,
  "zi": 234,
  "anyị": 235,
  "sị": 236,
  "pụ": 237,
  "mma": 238,
  "kọ": 239,
  "mụ": 240,
  "chi": 241,
  "che": 242,
  "we": 243,
  "chị": 244,
  " \"": 245,
  "zọ": 246,
  "aka": 247,
  "lọ": 248,
  "rọ": 249,
  "cha": 250,
  "nọ": 251,
  "de": 252,
  "kụ": 253,
  "ne": 254,
  "do": 255,
  "nwa": 256,
  "wa": 257,
  "ụlọ": 258,
  "kwụ": 259,
  "go": 260,
  "fọ": 261,
  "gbu": 262,
  "isi": 263,
  "gha": 264,
  "mmadụ": 265,
  "sa": 266,
  "li": 267,
  "gbe": 268,
  "ebe": 269,
  "ike": 270,
  "nụ": 271,
  "ro": 272,
  "tọ": 273,
  "ni": 274,
  "mgbe": 275,
  "maka": 276,
  "ge": 277,
  "bu": 278,
  "so": 279,
  "ala": 280,
  "ịa": 281,
  "ga-e": 282,
  "gbo": 283,
  "ụmụ": 284,
  "ga-a": 285,
  "gwu": 286,
  "iri": 287,
  "ọrụ": 288,
  "rịa": 289,
  " :": 290,
  "kwe": 291,
  "kpe": 292,
  "ọchị": 293,
  "kpọ": 294,
  "eti": 295,
  "kpa": 296,
  "anya": 297,
  "afọ": 298,
  "mba": 299,
  "bo": 300,
  "okwu": 301,
  "nwụ": 302,
  "da": 303,
  "ọzọ": 304,
  "ste": 305,
  "gị": 306,
  "se": 307,
  "akụ": 308,
  "lu": 309,
  "chọ": 310,
  "gọ": 311,
  "naị": 312,
  "naịji": 313,
  "naịjirịa": 314,
  "kwọ": 315,
  "  \"": 316,
  "obi": 317,
  "zu": 318,
  "gwa": 319,
  "di": 320,
  "akwụ": 321,
  "neke": 322,
  "steeti": 323,
  "chineke": 324,
  "an": 325,
  "akwụkwọ": 326,
  "  \" ": 327,
  "je": 328,
  " ?": 329,
  "ezi": 330,
  "iche": 331,
  "abụ": 332,
  "nu": 333,
  "bịa": 334,
  "ile": 335,
  "oke": 336,
  "nt": 337,
  "oge": 338,
  "niile": 339,
  "gụ": 340,
  "tụtụ": 341,
  " )": 342,
  "va": 343,
  "wu": 344,
  "ku": 345,
  "ya .": 346,
  "abụọ": 347,
  "akụkọ": 348,
  "dịka": 349,
  "ko": 350,
  "mp": 351,
  "sọ": 352,
  "fe": 353,
  "mme": 354,
  "ọtụtụ": 355,
  "“ ": 356,
  "igbo": 357,
  " ”": 358,
  "on": 359,
  "nwaanyị": 360,
  "bodo": 361,
  "pu": 362,
  "bụl": 363,
  "ịbụl": 364,
  "dọ": 365,
  "baịbụl": 366,
  "mi": 367,
  "a .": 368,
  "gbọ": 369,
  "ọnụ": 370,
  "obodo": 371,
  "du": 372,
  "20": 373,
  "egwu": 374,
  "hi": 375,
  "ụwa": 376,
  "ze": 377,
  "ikpe": 378,
  "to": 379,
  "iwu": 380,
  "ụb": 381,
  "ụbọchị": 382,
  "ntị": 383,
  "zụ": 384,
  "lụ": 385,
  "jọ": 386,
  "ho": 387,
  "bọ": 388,
  "jụ": 389,
  "ndụ": 390,
  "ahụ .": 391,
  "ego": 392,
  "zị": 393,
  "ozi": 394,
  "ihi": 395,
  "mana": 396,
  "oji": 397,
  "uwe": 398,
  "uha": 399,
  "ọchịchị": 400,
  "a ,": 401,
  "ụzọ": 402,
  "er": 403,
  "ukwu": 404,
  "ọme": 405,
  "kpụ": 406,
  "gọọme": 407,
  "elu": 408,
  "aha": 409,
  "onyeisi": 410,
  "ojii": 411,
  "onwe": 412,
  "atọ": 413,
  "ya ,": 414,
  "fọdụ": 415,
  "nwoke": 416,
  "ụfọdụ": 417,
  "kpo": 418,
  "sụ": 419,
  "ha .": 420,
  "st": 421,
  "201": 422,
  "ụgbọ": 423,
  "ọka": 424,
  "ọma": 425,
  "ahụ ,": 426,
  "bụla": 427,
  "nso": 428,
  "eze": 429,
  "rịka": 430,
  " . ”": 431,
  "hịa": 432,
  "or": 433,
  "hova": 434,
  "ihu": 435,
  "jehova": 436,
  "agha": 437,
  "uhari": 438,
  "Buhari": 439,
  "gwụ": 440,
  "ọbụla": 441,
  "nna": 442,
  "gi": 443,
  "ọkụ": 444,
  "pa": 445,
  "( ": 446,
  "ugbu": 447,
  "olu": 448,
  "ome": 449,
  "nyo": 450,
  "uru": 451,
  "ma ,": 452,
  "mkpa": 453,
  "ụka": 454,
  "mm": 455,
  "ghọ": 456,
  "nne": 457,
  "el": 458,
  "nwu": 459,
  "ọnwa": 460,
  "ana": 461,
  "ole": 462,
  "nga": 463,
  "ju": 464,
  "ja": 465,
  "nta": 466,
  "asa": 467,
  "zọs": 468,
  "jizọs": 469,
  "gwe": 470,
  "pe": 471,
  "mbụ": 472,
  "mmiri": 473,
  "gọọmentị": 474,
  "lị": 475,
  "yi": 476,
  "vanọ": 477,
  "mpi": 478,
  "gọvanọ": 479,
  "gwọ": 480,
  "bra": 481,
  "Ma": 482,
  " ;": 483,
  "ntụ": 484,
  "ara": 485,
  "nị": 486,
  "maa": 487,
  "gu": 488,
  "Jo": 489,
  "za": 490,
  "aba": 491,
  "ise": 492,
  "mo": 493,
  "ndọ": 494,
  "ahịa": 495,
  "nk": 496,
  "fu": 497,
  "ndọrọ": 498,
  "oko": 499,
  "eziokwu": 500,
  "BB": 501,
  "nyi": 502,
  "he": 503,
  "ce": 504,
  "mu": 505,
  "anụ": 506,
  "tupu": 507,
  "igwe": 508,
  "ọnwụ": 509,
  "BBC": 510,
  "mbra": 511,
  "asọ": 512,
  "lo": 513,
  "nri": 514,
  "anambra": 515,
  "azụ": 516,
  "ntụli": 517,
  "ntụliaka": 518,
  "asọmpi": 519,
  "ọgba": 520,
  "iwe": 521,
  "chụ": 522,
  "atụ": 523,
  "okp": 524,
  "ọgwụ": 525,
  "nsogbu": 526,
  "in": 527,
  "ame": 528,
  "nya": 529,
  "nkwa": 530,
  "bọọ": 531,
  "nche": 532,
  "mgba": 533,
  "nwunye": 534,
  "bọọlụ": 535,
  "regwu": 536,
  "egwuregwu": 537,
  "enu": 538,
  "aghara": 539,
  " .  \" ": 540,
  "ibe": 541,
  "ar": 542,
  "ria": 543,
  "mmụ": 544,
  "họ": 545,
  "etu": 546,
  "ọhụ": 547,
  "ọhụrụ": 548,
  "unu": 549,
  "ọkwa": 550,
  "maazị": 551,
  "th": 552,
  "anị": 553,
  "naanị": 554,
  "su": 555,
  "etiti": 556,
  "enugwu": 557,
  "ezigbo": 558,
  "ngwa": 559,
  "sị :": 560,
  "ama": 561,
  "af": 562,
  "AP": 563,
  "Ni": 564,
  "chukwu": 565,
  "al": 566,
  "ọjọ": 567,
  "ọjọọ": 568,
  "ou": 569,
  "nde": 570,
  "ụtọ": 571,
  "abalị": 572,
  "raị": 573,
  "nti": 574,
  "ghi": 575,
  "sta": 576,
  "Chi": 577,
  "ekpe": 578,
  "bere": 579,
  "kemgbe": 580,
  "2019": 581,
  "goolu": 582,
  "narị": 583,
  "gịnị": 584,
  "ol": 585,
  "ter": 586,
  "ụgwọ": 587,
  "Nige": 588,
  "amerịka": 589,
  "ṅụ": 590,
  "kị": 591,
  "ha ,": 592,
  "gide": 593,
  "zo": 594,
  "mbọ": 595,
  "00": 596,
  "nkeji": 597,
  "nal": 598,
  "afrịka": 599,
  "ọrịa": 600,
  "il": 601,
  "akwa": 602,
  "ọnọ": 603,
  "ọnọdụ": 604,
  "agba": 605,
  "tion": 606,
  "ozu": 607,
  "ụdị": 608,
  "mpaghara": 609,
  "no": 610,
  "nchekwa": 611,
  "ọsọ": 612,
  "nje": 613,
  "vi": 614,
  "ngala": 615,
  "nụlọ": 616,
  "ezinụlọ": 617,
  "Ro": 618,
  "gị :": 619,
  "ki": 620,
  "APC": 621,
  "ngalaba": 622,
  "ng": 623,
  "ugwu": 624,
  "puku": 625,
  "gọọmenti": 626,
  "Da": 627,
  "omeiwu": 628,
  "okpuru": 629,
  "it": 630,
  "ebu": 631,
  "ra ,": 632,
  "19": 633,
  "isii": 634,
  "osi": 635,
  "iko": 636,
  "ekpere": 637,
  "ve": 638,
  "ọdị": 639,
  "ugbo": 640,
  "nkiri": 641,
  "nd": 642,
  "kpụrụ": 643,
  "ụlọikpe": 644,
  "m ,": 645,
  "izu": 646,
  "gharị": 647,
  "imo": 648,
  "uche": 649,
  "m .": 650,
  "nku": 651,
  "ajụ": 652,
  "ụgbọala": 653,
  "nzu": 654,
  "ọgụ": 655,
  "ye": 656,
  "ajụjụ": 657,
  "pụta": 658,
  "asụ": 659,
  "raịst": 660,
  "olee": 661,
  "Re": 662,
  "asụsụ": 663,
  "ver": 664,
  "karị": 665,
  "kraịst": 666,
  "Man": 667,
  "ehi": 668,
  "Su": 669,
  "mmụọ": 670,
  "ada": 671,
  "mume": 672,
  "echi": 673,
  "e .": 674,
  "atụma": 675,
  "atụmatụ": 676,
  "Li": 677,
  "- ": 678,
  "nnu": 679,
  "nsọ": 680,
  "mmemme": 681,
  "asaa": 682,
  "ọba": 683,
  "Mo": 684,
  "Jose": 685,
  "ụkwụ": 686,
  "obere": 687,
  "ngagharị": 688,
  "ano": 689,
  "ru ,": 690,
  "rịọ": 691,
  "e ,": 692,
  "ọzọ .": 693,
  "les": 694,
  "ik": 695,
  "ekwe": 696,
  "mkpụrụ": 697,
  "nka": 698,
  "ụmụaka": 699,
  "anya .": 700,
  "In": 701,
  "re .": 702,
  "enyi": 703,
  "egbe": 704,
  "agụ": 705,
  "ra .": 706,
  "ọgbakọ": 707,
  "La": 708,
  "nala": 709,
  "fụ": 710,
  "beke": 711,
  "asatọ": 712,
  "Hara": 713,
  "Co": 714,
  "Boko": 715,
  "àm": 716,
  "àmà": 717,
  "manụ": 718,
  "Se": 719,
  "Nigeria": 720,
  "of": 721,
  "nwata": 722,
  "kpu": 723,
  "ugboro": 724,
  "nai": 725,
  "DP": 726,
  "ofe": 727,
  "ebubo": 728,
  "anụmanụ": 729,
  "re ,": 730,
  "okpo": 731,
  "njem": 732,
  "ime": 733,
  "ụkọ": 734,
  "ris": 735,
  "po": 736,
  "here": 737,
  "Sa": 738,
  "robịa": 739,
  "ogi": 740,
  "nkuzi": 741,
  "Pe": 742,
  "nnukwu": 743,
  "Uni": 744,
  "ntaakụkọ": 745,
  "PDP": 746,
  "Haram": 747,
  "ca": 748,
  "Na": 749,
  "per": 750,
  "ito": 751,
  "ta .": 752,
  "kama": 753,
  "Le": 754,
  "hu": 755,
  "udo": 756,
  "ọkpụ": 757,
  "aka .": 758,
  "Josef": 759,
  "ikike": 760,
  "eke": 761,
  "abịa": 762,
  "ọcha": 763,
  "ori": 764,
  "anyanwụ": 765,
  "pati": 766,
  "ran": 767,
  "naira": 768,
  "gọs": 769,
  "dum": 770,
  "naịjirịa .": 771,
  "legọs": 772,
  "njọ": 773,
  "tị": 774,
  "okporo": 775,
  "ohere": 776,
  "rịta": 777,
  "mkpọ": 778,
  "ogo": 779,
  "wo": 780,
  "ndịàmà": 781,
  "kanu": 782,
  "Fa": 783,
  "ndọrọndọrọ": 784,
  "hie": 785,
  "akpa": 786,
  "Muha": 787,
  "karịa": 788,
  " !": 789,
  "mkpe": 790,
  "itoolu": 791,
  "abu": 792,
  "Al": 793,
  "bekee": 794,
  "mmanụ": 795,
  "OB": 796,
  "ahụhụ": 797,
  "us": 798,
  "IP": 799,
  "Muhamma": 800,
  "EC": 801,
  "ike .": 802,
  "en": 803,
  "ụkọchukwu": 804,
  "steeti .": 805,
  "oche": 806,
  "mmeri": 807,
  "rị :": 808,
  "a :": 809,
  "Ea": 810,
  "ofesi": 811,
  "Muhammadu": 812,
  "ry": 813,
  "mini": 814,
  " . \"": 815,
  "IPOB": 816,
  "ije": 817,
  "Mu": 818,
  "saụ": 819,
  "mdi": 820,
  "Pa": 821,
  "ru .": 822,
  "niile .": 823,
  "maha": 824,
  "ugo": 825,
  "pọ": 826,
  "mma .": 827,
  "ster": 828,
  "ochi": 829,
  "Ati": 830,
  "ụtụtụ": 831,
  "Atiku": 832,
  "ogige": 833,
  "rel": 834,
  "onal": 835,
  "ikpeazụ": 836,
  "anya ,": 837,
  "ọdụ": 838,
  "okpu": 839,
  "amụ": 840,
  "Ba": 841,
  "ụba": 842,
  "nkwado": 843,
  "nzukọ": 844,
  "nkị": 845,
  "ci": 846,
  "nto": 847,
  "ọha": 848,
  "oso": 849,
  "osisi": 850,
  "Super": 851,
  "ọzọ ,": 852,
  "am": 853,
  "uso": 854,
  "rt": 855,
  "mmụta": 856,
  "fi": 857,
  "osote": 858,
  "co": 859,
  "kere": 860,
  "mgbasa": 861,
  "ga ,": 862,
  "Ada": 863,
  "ck": 864,
  "ga .": 865,
  "nji": 866,
  "mahadum": 867,
  "anyị .": 868,
  "saụt": 869,
  "mkpọrọ": 870,
  "minista": 871,
  "ted": 872,
  "shịa": 873,
  "pị": 874,
  "Tru": 875,
  "Ka": 876,
  "obiano": 877,
  "ọtọ": 878,
  "dia": 879,
  "Oko": 880,
  "dọkị": 881,
  "aja": 882,
  "So": 883,
  "omenala": 884,
  "oku": 885,
  "nda": 886,
  "eluigwe": 887,
  "ele": 888,
  "bụ ,": 889,
  "amụma": 890,
  "ajọ": 891,
  "shọ": 892,
  "gburu": 893,
  "Bi": 894,
  "ọdọ": 895,
  "me .": 896,
  "dọkịta": 897,
  "kọmi": 898,
  "illi": 899,
  "ọma .": 900,
  "okwukwe": 901,
  "Ar": 902,
  "wụ": 903,
  "ur": 904,
  "ntorobịa": 905,
  "gbụ": 906,
  "anyị ,": 907,
  "ty": 908,
  "IN": 909,
  "op": 910,
  "Eag": 911,
  "ọhịa": 912,
  "INEC": 913,
  "fo": 914,
  "Trump": 915,
  "FC": 916,
  "vid": 917,
  "ike ,": 918,
  "  \" . \"": 919,
  "United": 920,
  "omume": 921,
  "Ne": 922,
  "usoro": 923,
  "rocha": 924,
  "lite": 925,
  "ity": 926,
  "baịbụl .": 927,
  "De": 928,
  " \" \"": 929,
  "akara": 930,
  "Af": 931,
  "Ade": 932,
  "ihe .": 933,
  "land": 934,
  "Eagles": 935,
  "ten": 936,
  "Mi": 937,
  "nnamdi": 938,
  "mị": 939,
  "echiche": 940,
  "vo": 941,
  "tan": 942,
  "rụ .": 943,
  "ment": 944,
  "baka": 945,
  "Willi": 946,
  "sị ,": 947,
  "nnọ": 948,
  "iz": 949,
  "Ri": 950,
  "ụlọụka": 951,
  "ọgọ": 952,
  "obi .": 953,
  "akụkụ": 954,
  "Obi": 955,
  "lik": 956,
  "kedụ": 957,
  "chineke ,": 958,
  "od": 959,
  "o ,": 960,
  "ọw": 961,
  "yọ": 962,
  "ọwụwa": 963,
  "dio": 964,
  "pt": 965,
  "jị": 966,
  "else": 967,
  "ede": 968,
  "ọfụ": 969,
  "pọl": 970,
  "mara": 971,
  "ghe": 972,
  "con": 973,
  "ọkacha": 974,
  "ta ,": 975,
  "Chelse": 976,
  "ọgbọ": 977,
  "ohi": 978,
  "ah": 979,
  "City": 980,
  "tọlik": 981,
  "kọrịta": 982,
  "katọlik": 983,
  "izrel": 984,
  "son": 985,
  "enye": 986,
  "chineke .": 987,
  "Ca": 988,
  "onyi": 989,
  "iyi": 990,
  "emume": 991,
  "ss": 992,
  "ochie": 993,
  "ụnya": 994,
  "nihu": 995,
  "ine": 996,
  "ide": 997,
  "abuja": 998,
  "a ?": 999,
  "tional": 1000,
  "pool": 1001,
  "ir": 1002,
  "eziokwu .": 1003,
  "enyemaka": 1004,
  "Moha": 1005,
  "verpool": 1006,
  "oriri": 1007,
  "Liverpool": 1008,
  "200": 1009,
  "shịal": 1010,
  "ssi": 1011,
  "iji": 1012,
  "Me": 1013,
  "soshịal": 1014,
  "fada": 1015,
  "akị": 1016,
  "To": 1017,
  "Sou": 1018,
  "ogbu": 1019,
  "ụgbọelu": 1020,
  "ọla": 1021,
  "zde": 1022,
  "oyi": 1023,
  "ntu": 1024,
  "chu": 1025,
  "Afri": 1026,
  "ul": 1027,
  "' .": 1028,
  "ọkaiwu": 1029,
  "onyinye": 1030,
  "oli": 1031,
  "agu": 1032,
  "Chelsea": 1033,
  "ọmụ": 1034,
  "tri": 1035,
  "okpukpe": 1036,
  "isi .": 1037,
  "and": 1038,
  "onyo": 1039,
  "ntọ": 1040,
  "mmadụ .": 1041,
  "iche .": 1042,
  "ala .": 1043,
  "2019 .": 1044,
  " \" \" ": 1045,
  "ọgbaaghara": 1046,
  "onyonyo": 1047,
  "net": 1048,
  "akpụ": 1049,
  "ham": 1050,
  "ọ \"": 1051,
  "ume": 1052,
  "chester": 1053,
  "Manchester": 1054,
  "wit": 1055,
  "nwanne": 1056,
  "mmed": 1057,
  "godị": 1058,
  "eji": 1059,
  "aka ,": 1060,
  "ụwa .": 1061,
  "ụlọakwụkwọ": 1062,
  "ort": 1063,
  "mama": 1064,
  "madu": 1065,
  "agwa": 1066,
  "South": 1067,
  "Eme": 1068,
  "bri": 1069,
  "Sta": 1070,
  "2018": 1071,
  "ode": 1072,
  "n ,": 1073,
  "abụọ .": 1074,
  "okorocha": 1075,
  "eme": 1076,
  "Ja": 1077,
  "rọ  \" ": 1078,
  "la .": 1079,
  "Nwo": 1080,
  "El": 1081,
  "ọnị": 1082,
  "ọnịcha": 1083,
  "vootu": 1084,
  "nyụ": 1085,
  "mbere": 1086,
  "chas": 1087,
  "Rochas": 1088,
  "ite": 1089,
  "for": 1090,
  "arc": 1091,
  "ọchịehi": 1092,
  "ya ?": 1093,
  "ral": 1094,
  "ia": 1095,
  "agbọ": 1096,
  "Arse": 1097,
  "omeka": 1098,
  "n .": 1099,
  "mberede": 1100,
  "agbọghọ": 1101,
  "Arsenal": 1102,
  "Aba": 1103,
  "ọgbu": 1104,
  "akịrịka": 1105,
  "Mohammed": 1106,
  "Ekwe": 1107,
  "“ ọ": 1108,
  "rụ ,": 1109,
  "mbi": 1110,
  "ijipt": 1111,
  "Peter": 1112,
  "wi": 1113,
  "setan": 1114,
  "juu": 1115,
  "anọ": 1116,
  "' ,": 1117,
  "kwado": 1118,
  "ok": 1119,
  "o .": 1120,
  "nhọ": 1121,
  "ky": 1122,
  "ing": 1123,
  "ala ,": 1124,
  "10": 1125,
  "witter": 1126,
  "remadu": 1127,
  "Ke": 1128,
  "Ekweremadu": 1129,
  "000": 1130,
  "ọkammụta": 1131,
  "taa .": 1132,
  "s .": 1133,
  "omekaome": 1134,
  "nhọpụta": 1135,
  "kọmishọ": 1136,
  "atụ ,": 1137,
  "asị": 1138,
  "Pre": 1139,
  "ọrụ .": 1140,
  "uju": 1141,
  "Eze": 1142,
  "Abu": 1143,
  "ụwa ,": 1144,
  "s ,": 1145,
  "ozugbo": 1146,
  "kọmishọna": 1147,
  "im": 1148,
  "cy": 1149,
  "Bo": 1150,
  "ọbara": 1151,
  "ong": 1152,
  "naeze": 1153,
  "mkpu": 1154,
  "kele": 1155,
  "jo": 1156,
  "eziokwu ,": 1157,
  "ope": 1158,
  "ly": 1159,
  "1 ,": 1160,
  " ) .": 1161,
  "ọrụ ,": 1162,
  "ọkaikpe": 1163,
  "ọgụgụ": 1164,
  "ọ ,": 1165,
  "ogbuni": 1166,
  "ogbunigwe": 1167,
  "nle": 1168,
  "ọhanaeze": 1169,
  "iro": 1170,
  "She": 1171,
  "mpe": 1172,
  "mpụ": 1173,
  "bonyi": 1174,
  "Za": 1175,
  "We": 1176,
  " . ” )": 1177,
  "ọkpa": 1178,
  "ihe ,": 1179,
  "alụ": 1180,
  "ọdịnihu": 1181,
  "warị": 1182,
  "Joh": 1183,
  "Cha": 1184,
  "Bu": 1185,
  "14": 1186,
  "nyocha": 1187,
  "gwo": 1188,
  "ekele": 1189,
  "Ra": 1190,
  "baịbụl ,": 1191,
  "nchọ": 1192,
  "mkpebi": 1193,
  "China": 1194,
  " ) ,": 1195,
  "ọ .": 1196,
  "mma ,": 1197,
  "midia": 1198,
  "15": 1199,
  "ụlọọgwụ": 1200,
  "ụjọ": 1201,
  "niile ,": 1202,
  "nkwe": 1203,
  "mmadụ ,": 1204,
  "devid": 1205,
  "bịaf": 1206,
  "Oke": 1207,
  "Ge": 1208,
  "Be": 1209,
  "nwayọ": 1210,
  "__": 1211,
  "satọ": 1212,
  "Nor": 1213,
  "ụda": 1214,
  "satọde": 1215,
  "gị ,": 1216,
  "ction": 1217,
  "bi .": 1218,
  "arị": 1219,
  "ụtọ .": 1220,
  "shi": 1221,
  "malite": 1222,
  "ghị .": 1223,
  "ezu": 1224,
  "Sara": 1225,
  "SS": 1226,
  "Ha": 1227,
  "Chris": 1228,
  "sha": 1229,
  "duna": 1230,
  "bịa .": 1231,
  "ahị": 1232,
  "Nna": 1233,
  "ụlọakụ": 1234,
  "ọdịnala": 1235,
  "tius": 1236,
  "mọ": 1237,
  "egwuregwu ,": 1238,
  "Leagu": 1239,
  "obi ,": 1240,
  "dị ,": 1241,
  "laị": 1242,
  "elekere": 1243,
  "2017": 1244,
  "ọfụma": 1245,
  "ri .": 1246,
  "ph": 1247,
  "nzuzo": 1248,
  "na  \" ": 1249,
  "ja .": 1250,
  "gị .": 1251,
  "fufe": 1252,
  "fa": 1253,
  "Osi": 1254,
  "Mar": 1255,
  "Lago": 1256,
  "ọgbugbu": 1257,
  "tha": 1258,
  "Chukwu": 1259,
  "wer": 1260,
  "tiusde": 1261,
  "rị .": 1262,
  "kan": 1263,
  "ekwentị": 1264,
  "Zi": 1265,
  "ọnụ .": 1266,
  "nkịtị": 1267,
  "igbo ,": 1268,
  "Willie": 1269,
  "FCC": 1270,
  "ụmụnne": 1271,
  "ụgha": 1272,
  "ọgọst": 1273,
  "naịjirịa ,": 1274,
  "can": 1275,
  "Bri": 1276,
  "tor": 1277,
  "nchọpụta": 1278,
  "man": 1279,
  "icheiche": 1280,
  "ewu": 1281,
  "agụmba": 1282,
  "abụọ ,": 1283,
  "Ihe": 1284,
  "Fran": 1285,
  "nnyocha": 1286,
  "ijeri": 1287,
  "bia": 1288,
  "bakar": 1289,
  "Or": 1290,
  "Di": 1291,
  "pụrụ": 1292,
  "olile": 1293,
  "nrụ": 1294,
  "mkpesa": 1295,
  "mfe": 1296,
  "Uma": 1297,
  "Ude": 1298,
  "Twitter": 1299,
  "Pro": 1300,
  "Je": 1301,
  "Adam": 1302,
  "1 )": 1303,
  "uru .": 1304,
  "ogolo": 1305,
  "ogologo": 1306,
  "briten": 1307,
  "Paul": 1308,
  "Ju": 1309,
  "Gu": 1310,
  "Abubakar": 1311,
  "ọmụmụ": 1312,
  "uro": 1313,
  "mmehie": 1314,
  "kọta": 1315,
  "isiokwu": 1316,
  "gbi": 1317,
  "ebonyi": 1318,
  "dị .": 1319,
  "chọọchị": 1320,
  "trik": 1321,
  "rọ .": 1322,
  "nnọọ": 1323,
  "kwo": 1324,
  "ezum": 1325,
  "atọ .": 1326,
  "GA": 1327,
  "EFCC": 1328,
  "2015": 1329,
  "ogbe": 1330,
  "ndị )": 1331,
  "State": 1332,
  "NA": 1333,
  "ther": 1334,
  "state": 1335,
  "raịde": 1336,
  "ngo": 1337,
  "latrik": 1338,
  "fraịde": 1339,
  "Go": 1340,
  "ọga": 1341,
  "papa": 1342,
  "mmanya": 1343,
  "Nigeri": 1344,
  "Inter": 1345,
  "Ab": 1346,
  "23": 1347,
  "senet": 1348,
  "ofesi ,": 1349,
  "nyị": 1350,
  "nwayọọ": 1351,
  "iche ,": 1352,
  "dri": 1353,
  "atụrụ": 1354,
  "New": 1355,
  "2 ,": 1356,
  "okorobịa": 1357,
  "meri": 1358,
  "gbidi": 1359,
  "El-": 1360,
  "“ a": 1361,
  "ọṅụ": 1362,
  "zaky": 1363,
  "pi": 1364,
  "nwaafọ": 1365,
  "mgbọ": 1366,
  "mbe": 1367,
  "kzaky": 1368,
  "hab": 1369,
  "Zakzaky": 1370,
  "Ike": 1371,
  "Fe": 1372,
  "yo": 1373,
  "nue": 1374,
  "gabe": 1375,
  "agbụ": 1376,
  "Saraki": 1377,
  "Mugabe": 1378,
  "Ga": 1379,
  "Au": 1380,
  "17": 1381,
  "..": 1382,
  " - ": 1383,
  "ọda": 1384,
  "taa": 1385,
  "ton": 1386,
  "rịtaụka": 1387,
  "rị ,": 1388,
  "ofufe": 1389,
  "okwu .": 1390,
  "nwụ .": 1391,
  "nsị": 1392,
  "mọdụ": 1393,
  "Ta": 1394,
  "Lagos": 1395,
  "ọma ,": 1396,
  "ndụmọdụ": 1397,
  "akwụkwọ .": 1398,
  "the": 1399,
  "ration": 1400,
  "n' \"": 1401,
  "foto": 1402,
  "efu": 1403,
  "bịafra": 1404,
  "benue": 1405,
  "agụụ": 1406,
  "18": 1407,
  "ụra": 1408,
  "tic": 1409,
  "nia": 1410,
  "mmekọrịta": 1411,
  "ezumike": 1412,
  "Africa": 1413,
  "APGA": 1414,
  "ọkpara": 1415,
  "mmepe": 1416,
  "kaduna": 1417,
  "He": 1418,
  "Fu": 1419,
  "ribe": 1420,
  "jehova .": 1421,
  "drid": 1422,
  "anyị \"": 1423,
  "Madrid": 1424,
  "Ele": 1425,
  " ? ”": 1426,
  "ọkụkọ": 1427,
  "rs": 1428,
  "ourt": 1429,
  "okenye": 1430,
  "ndụ .": 1431,
  "mgbede": 1432,
  "mba .": 1433,
  "iru": 1434,
  "dọla": 1435,
  "ower": 1436,
  "njikere": 1437,
  "au": 1438,
  "anwụ": 1439,
  "No": 1440,
  "13": 1441,
  "ọkachamara": 1442,
  "ọkpọ": 1443,
  "ịnta": 1444,
  "ịntane": 1445,
  "ịntaneti": 1446,
  "ohu": 1447,
  "igbo .": 1448,
  "Sowo": 1449,
  "Ru": 1450,
  "Ama": 1451,
  "199": 1452,
  "ọdachi": 1453,
  "olileanya": 1454,
  "nkata": 1455,
  "me ,": 1456,
  "ife": 1457,
  "Wa": 1458,
  "Te": 1459,
  "ụtụ": 1460,
  "ọdịda": 1461,
  "ọbasa": 1462,
  "ọbasanjọ": 1463,
  "ọkọ": 1464,
  "steeti ,": 1465,
  "miri": 1466,
  "mbu": 1467,
  "ld": 1468,
  "kịrị": 1469,
  "Ihedio": 1470,
  "Ibra": 1471,
  "spe": 1472,
  "nwaanyị .": 1473,
  "jiji": 1474,
  "edo": 1475,
  "Vi": 1476,
  "AS": 1477,
  "wene": 1478,
  "gun": 1479,
  "agbụrụ": 1480,
  "wenezde": 1481,
  "omi": 1482,
  "k ,": 1483,
  "gburugburu": 1484,
  "anyi": 1485,
  "sị .": 1486,
  "ri ,": 1487,
  "qu": 1488,
  "nrọ": 1489,
  "ngwụ": 1490,
  "late": 1491,
  "lla": 1492,
  "agha .": 1493,
  "Ibrahi": 1494,
  "Ghana": 1495,
  "up": 1496,
  "pase": 1497,
  "osimiri": 1498,
  "na ,": 1499,
  "mgbere": 1500,
  "bi ,": 1501,
  "ahịhịa": 1502,
  "Sowore": 1503,
  "Ife": 1504,
  "FA": 1505,
  "16": 1506,
  "ọk": 1507,
  "ọjị": 1508,
  "rụngwa": 1509,
  "mbụ .": 1510,
  "akụrụngwa": 1511,
  "ad": 1512,
  "Ti": 1513,
  "Nwosu": 1514,
  "Is": 1515,
  "Fal": 1516,
  "ụbụ": 1517,
  "ọkachasị": 1518,
  "sena": 1519,
  "s :": 1520,
  "pụrụiche": 1521,
  "nkịta": 1522,
  "ndị \"": 1523,
  "national": 1524,
  "ndo": 1525,
  "mọnde": 1526,
  "mas": 1527,
  "kwa ,": 1528,
  "guzo": 1529,
  "Olu": 1530,
  "National": 1531,
  "“ onye": 1532,
  "ịnyị": 1533,
  "nrụrụ": 1534,
  "mbab": 1535,
  "mbabwe": 1536,
  "lani": 1537,
  "elo": 1538,
  "Zimbabwe": 1539,
  "US": 1540,
  "Ihedioha": 1541,
  "Ibrahim": 1542,
  "4 .": 1543,
  "ọkụ .": 1544,
  "zie": 1545,
  "ute": 1546,
  "senatọ": 1547,
  "rom": 1548,
  "mkparịtaụka": 1549,
  "by": 1550,
  "anambra ,": 1551,
  "arụ": 1552,
  "Premi": 1553,
  "Madu": 1554,
  "El-Zakzaky": 1555,
  "Ah": 1556,
  "ụfọdụ ,": 1557,
  "ọnwụ .": 1558,
  "ọkafọ": 1559,
  "ọzụ": 1560,
  "ule": 1561,
  "toba": 1562,
  "izuụka": 1563,
  "gen": 1564,
  "ON": 1565,
  "Nai": 1566,
  "League": 1567,
  "ụta": 1568,
  "ọchịchị .": 1569,
  "maachị": 1570,
  "lic": 1571,
  "kata": 1572,
  "egwu .": 1573,
  "arcourt": 1574,
  "achị": 1575,
  "Port": 1576,
  "International": 1577,
  "Harcourt": 1578,
  "Emma": 1579,
  "30": 1580,
  "  \" ọ \"": 1581,
  "ọktoba": 1582,
  "tọzde": 1583,
  "bụ  \" ": 1584,
  "Ale": 1585,
  "12": 1586,
  "taa ,": 1587,
  "sti": 1588,
  "ssa": 1589,
  "otu .": 1590,
  "otu ,": 1591,
  "oriakụ": 1592,
  "nchị": 1593,
  "nba": 1594,
  "mita": 1595,
  "chite": 1596,
  "cho": 1597,
  "bị": 1598,
  "Premier": 1599,
  "Jona": 1600,
  "Comm": 1601,
  "ụnyaahụ": 1602,
  "stra": 1603,
  "nkwekọrịta": 1604,
  "kiri": 1605,
  "gboro": 1606,
  "Falcon": 1607,
  "Bra": 1608,
  "ọzụzụ": 1609,
  "ya . ”": 1610,
  "nturu": 1611,
  "ncheta": 1612,
  "ndi": 1613,
  "med": 1614,
  "la ,": 1615,
  "ise .": 1616,
  "afọ .": 1617,
  "Osinba": 1618,
  "Onye": 1619,
  "Mbaka": 1620,
  "1 .": 1621,
  "ụma": 1622,
  "ọkara": 1623,
  "ka \"": 1624,
  "ihe \"": 1625,
  "ctor": 1626,
  "atọ ,": 1627,
  "Nwa": 1628,
  "Bro": 1629,
  "Alex": 1630,
  "ịnyịnya": 1631,
  "rama": 1632,
  "rd": 1633,
  "na \"": 1634,
  "mpion": 1635,
  "mkpamkpa": 1636,
  "kuku": 1637,
  "achịcha": 1638,
  "Yo": 1639,
  "John": 1640,
  "Face": 1641,
  "Emeka": 1642,
  "David": 1643,
  "Air": 1644,
  "2016": 1645,
  "ọgwụgwụ": 1646,
  "te ,": 1647,
  "obodo .": 1648,
  "nnewi": 1649,
  "mgbanwe": 1650,
  "isi ,": 1651,
  "efe": 1652,
  "amero": 1653,
  "agbidi": 1654,
  "William": 1655,
  "Wor": 1656,
  "MA": 1657,
  "Ko": 1658,
  "Jonatha": 1659,
  "Camero": 1660,
  "ọbụla .": 1661,
  "re :": 1662,
  "niel": 1663,
  "nha": 1664,
  "mgbo": 1665,
  "idemmiri": 1666,
  "ikuku": 1667,
  "ego .": 1668,
  "ekwu": 1669,
  "agụma": 1670,
  "adị": 1671,
  "Mba": 1672,
  "DSS": 1673,
  "Con": 1674,
  "Bor": 1675,
  "Ana": 1676,
  "o \"": 1677,
  "mmi": 1678,
  "ebere": 1679,
  "bert": 1680,
  "alth": 1681,
  "St": 1682,
  "Fulani": 1683,
  "Abdu": 1684,
  "Ai": 1685,
  " , \"": 1686,
  "ren": 1687,
  "obibi": 1688,
  "kwu .": 1689,
  "kansa": 1690,
  "julaị": 1691,
  "eh": 1692,
  "bụ .": 1693,
  "Riva": 1694,
  "Osinbajo": 1695,
  "Naija": 1696,
  "Ger": 1697,
  "Fede": 1698,
  "Euro": 1699,
  "Champion": 1700,
  "Abaribe": 1701,
  "Adi": 1702,
  "“ ndị": 1703,
  "ves": 1704,
  "ngwụcha": 1705,
  "nzụ": 1706,
  "mmasị": 1707,
  "kọmiti": 1708,
  "ime .": 1709,
  "bre": 1710,
  "Timo": 1711,
  "Do": 1712,
  "Del": 1713,
  "ubi": 1714,
  "rie": 1715,
  "pte": 1716,
  "opekata": 1717,
  "okwu ,": 1718,
  "nsogbu .": 1719,
  "ndị ,": 1720,
  "nkọ": 1721,
  "ghụ": 1722,
  "anwụrụ": 1723,
  "Ut": 1724,
  "Falcons": 1725,
  "Barc": 1726,
  "Ara": 1727,
  "2 )": 1728,
  "ụnyaahụ .": 1729,
  "ụbụrụ": 1730,
  "tti": 1731,
  "saye": 1732,
  "pan": 1733,
  "nke \"": 1734,
  "nchịkọta": 1735,
  "nsu": 1736,
  "mbụ ,": 1737,
  "hoo": 1738,
  "ejije": 1739,
  "aga": 1740,
  "Umu": 1741,
  "Jonathan": 1742,
  "Igbo": 1743,
  "Eng": 1744,
  "Barcelo": 1745,
  "Ben": 1746,
  "“ ihe": 1747,
  "ukwu .": 1748,
  "pita": 1749,
  "onald": 1750,
  "odeakwụkwọ": 1751,
  "nzụkọ": 1752,
  "mpu": 1753,
  "mgbakọ": 1754,
  "lateau": 1755,
  "bishọ": 1756,
  "West": 1757,
  "Plateau": 1758,
  "North": 1759,
  "Donald": 1760,
  "3 ,": 1761,
  "“ m": 1762,
  "ọjọọ .": 1763,
  "ọgwụgwọ": 1764,
  "ọbụladị": 1765,
  "wa ,": 1766,
  "taa :": 1767,
  "sia": 1768,
  "rọ ,": 1769,
  "ondo": 1770,
  "inọ": 1771,
  "ghị ,": 1772,
  "gbata": 1773,
  "gra": 1774,
  "chafụ": 1775,
  "car": 1776,
  "anu": 1777,
  "Ye": 1778,
  "World": 1779,
  "Umahi": 1780,
  "The": 1781,
  "Iv": 1782,
  "France": 1783,
  "Cameroon": 1784,
  "“ n'": 1785,
  "yin": 1786,
  "septe": 1787,
  "mbodo": 1788,
  "gboo": 1789,
  "ehihi": 1790,
  "echichi": 1791,
  "asambodo": 1792,
  "Utd": 1793,
  "Ser": 1794,
  "Robert": 1795,
  "Ce": 1796,
  "Barcelona": 1797,
  "Bay": 1798,
  "2 .": 1799,
  "ọna": 1800,
  "tara": 1801,
  "opekatampe": 1802,
  "nọ .": 1803,
  "ll": 1804,
  "kraịst ,": 1805,
  "kama ,": 1806,
  "akwụkwọ ,": 1807,
  "Shi": 1808,
  "Rivas": 1809,
  "Oba": 1810,
  "Londo": 1811,
  "IM": 1812,
  "Gra": 1813,
  "Aisha": 1814,
  "25": 1815,
  "100": 1816,
  "  \" a": 1817,
  "ọnụ ,": 1818,
  "ịchafụ": 1819,
  "thi": 1820,
  "sho": 1821,
  "sayensị": 1822,
  "ogbenye": 1823,
  "nghọ": 1824,
  "ncha": 1825,
  "mbido": 1826,
  "kwụkwọ": 1827,
  "agụmakwụkwọ": 1828,
  "UK": 1829,
  "Fo": 1830,
  "yinbo": 1831,
  "toyinbo": 1832,
  "tten": 1833,
  "nson": 1834,
  "manị": 1835,
  "jamanị": 1836,
  "ja ,": 1837,
  "inọk": 1838,
  "cu": 1839,
  "cra": 1840,
  "ber": 1841,
  "amerịka .": 1842,
  "adịgboro": 1843,
  "Tu": 1844,
  "Ibi": 1845,
  "Hu": 1846,
  "Christi": 1847,
  "ụzọ ,": 1848,
  "tum": 1849,
  "ssion": 1850,
  "rimara": 1851,
  "mkpa .": 1852,
  "min": 1853,
  "mgbochi": 1854,
  "mwu": 1855,
  "ley": 1856,
  "afrịka .": 1857,
  "____": 1858,
  "Totten": 1859,
  "Real": 1860,
  "Niger": 1861,
  "Daniel": 1862,
  "AFC": 1863,
  "2019 :": 1864,
  "ọnụọgụgụ": 1865,
  "ịhụ": 1866,
  "ịhụna": 1867,
  "oge ,": 1868,
  "oma": 1869,
  "nuel": 1870,
  "nturuugo": 1871,
  "nri ,": 1872,
  "ndịda": 1873,
  "ndu": 1874,
  "mbịa": 1875,
  "jizọs ,": 1876,
  "ghụghọ": 1877,
  "ese": 1878,
  "ep": 1879,
  "dike": 1880,
  "chie": 1881,
  "book": 1882,
  "biko": 1883,
  "Shehu": 1884,
  "Facebook": 1885,
  "Fatoyinbo": 1886,
  "Delta": 1887,
  "Demo": 1888,
  "Commi": 1889,
  "AFCON": 1890,
  "Abi": 1891,
  "6 ,": 1892,
  "2019 ,": 1893,
  "28": 1894,
  "ụmụnna": 1895,
  "vs": 1896,
  "pp": 1897,
  "osika": 1898,
  "nkụ": 1899,
  "ina": 1900,
  "gri": 1901,
  "ekpere ,": 1902,
  "egwu ,": 1903,
  "der": 1904,
  "arịrịọ": 1905,
  "aghụghọ": 1906,
  "Timoti": 1907,
  "Lu": 1908,
  " .  \" ọ \"": 1909,
  "ụzọ .": 1910,
  "ịdị": 1911,
  "si ,": 1912,
  "nwaada": 1913,
  "njirimara": 1914,
  "kra": 1915,
  "gal": 1916,
  "amadi": 1917,
  "agha ,": 1918,
  "Sam": 1919,
  "Nigerian": 1920,
  "AC": 1921,
  "4 )": 1922,
  "ụdịrị": 1923,
  "ụbọchị ,": 1924,
  "ọlaedo": 1925,
  "muel": 1926,
  "mmalite": 1927,
  "mba ,": 1928,
  "lia": 1929,
  "kola": 1930,
  "elu .": 1931,
  "dan": 1932,
  "Tottenham": 1933,
  "Samuel": 1934,
  "Peop": 1935,
  "Ebre": 1936,
  "Agu": 1937,
  "( n": 1938,
  "ọkụ ,": 1939,
  "ọhụrụ .": 1940,
  "zịza": 1941,
  "z .": 1942,
  "sịga": 1943,
  "sina": 1944,
  "rena": 1945,
  "nọve": 1946,
  "nrụrụaka": 1947,
  "mwute": 1948,
  "lement": 1949,
  "jizọs .": 1950,
  "jehova ,": 1951,
  "ise ,": 1952,
  "ekwensu": 1953,
  "chi ,": 1954,
  "bịa ,": 1955,
  "ama .": 1956,
  "are": 1957,
  "Ste": 1958,
  "Si": 1959,
  "Japan": 1960,
  "Emmanuel": 1961,
  "Election": 1962,
  "Dan": 1963,
  "Champions": 1964,
  "Ahmed": 1965,
  "AN": 1966,
  "ọnatara": 1967,
  "ọdịmma": 1968,
  "ress": 1969,
  "rea": 1970,
  "para": 1971,
  "onyeàmà": 1972,
  "okwute": 1973,
  "odo": 1974,
  "nkume": 1975,
  "juun": 1976,
  "cia": 1977,
  "bishọp": 1978,
  "arịrị": 1979,
  "ahụ ?": 1980,
  "Okon": 1981,
  "Ola": 1982,
  "Ifeanyi": 1983,
  "Brother": 1984,
  "African": 1985,
  "3 .": 1986,
  "ụtọ ,": 1987,
  "ụlọ ,": 1988,
  "ọnatarachi": 1989,
  "wa .": 1990,
  "re ?": 1991,
  "okiri": 1992,
  "ose": 1993,
  "nụwarị": 1994,
  "nụ .": 1995,
  "nọ ,": 1996,
  "noa": 1997,
  "kana": 1998,
  "gwon": 1999,
  "ghara": 2000,
  "ba ,": 2001,
  "azu": 2002,
  "Par": 2003,
  "Joe": 2004,
  "Adamu": 2005,
  "“ chineke": 2006,
  "tin": 2007,
  "spen": 2008,
  "ree": 2009,
  "pti": 2010,
  "nrite": 2011,
  "mbo": 2012,
  "ls": 2013,
  "kpị": 2014,
  "kilo": 2015,
  "ka ,": 2016,
  "gwongwo": 2017,
  "eprel": 2018,
  "debe": 2019,
  "afọ ,": 2020,
  "Osu": 2021,
  "Kano": 2022,
  "Europe": 2023,
  "Ali": 2024,
  "5 .": 2025,
  " . ” ,": 2026,
  "ọmarị": 2027,
  "ọmarịcha": 2028,
  "zil": 2029,
  "sele": 2030,
  "ptizi": 2031,
  "nge": 2032,
  "mili": 2033,
  "koria": 2034,
  "jọn": 2035,
  "ihu .": 2036,
  "is": 2037,
  "gana": 2038,
  "gy": 2039,
  "ehihie": 2040,
  "den": 2041,
  "daị": 2042,
  "baptizi": 2043,
  "ba .": 2044,
  "azịza": 2045,
  "Williams": 2046,
  "Wol": 2047,
  "Tho": 2048,
  "Shia": 2049,
  "Pri": 2050,
  "Onwu": 2051,
  "Ogbo": 2052,
  "Mike": 2053,
  "Ikpe": 2054,
  "England": 2055,
  "CO": 2056,
  "  \" anyị \"": 2057,
  "ụka .": 2058,
  "ụkwa": 2059,
  "ọgara": 2060,
  "ọgbụ": 2061,
  "ọgbụgba": 2062,
  "ugwu .": 2063,
  "um": 2064,
  "shop": 2065,
  "rọshịa": 2066,
  "ra ?": 2067,
  "paradaị": 2068,
  "port": 2069,
  "nnọchite": 2070,
  "mmegbu": 2071,
  "mmechi": 2072,
  "h ,": 2073,
  "Sala": 2074,
  "River": 2075,
  "Obiano": 2076,
  "Job": 2077,
  "Id": 2078,
  "Democra": 2079,
  "Borno": 2080,
  "Baba": 2081,
  "And": 2082,
  "24": 2083,
  "11": 2084,
  "  \" n' \"": 2085,
  "“ e": 2086,
  "ọwa": 2087,
  "win": 2088,
  "ukwu ,": 2089,
  "ude": 2090,
  "tho": 2091,
  "nụ ,": 2092,
  "ndụ ,": 2093,
  "nze": 2094,
  "nsi": 2095,
  "my": 2096,
  "lian": 2097,
  "ememme": 2098,
  "bọje": 2099,
  "ble": 2100,
  "anọ .": 2101,
  "amadị": 2102,
  "ahịa .": 2103,
  "aku": 2104,
  "Yemi": 2105,
  "50": 2106,
  "zor": 2107,
  "ya :": 2108,
  "uni": 2109,
  "tom": 2110,
  "rusele": 2111,
  "r .": 2112,
  "ongress": 2113,
  "ogogo": 2114,
  "obodo ,": 2115,
  "nkwụ": 2116,
  "lin": 2117,
  "jerusele": 2118,
  "igbe": 2119,
  "ice": 2120,
  "bụ :": 2121,
  "arba": 2122,
  "Serena": 2123,
  "Rev": 2124,
  "Okezie": 2125,
  "Ikpeazu": 2126,
  "Idris": 2127,
  "Congress": 2128,
  "Clement": 2129,
  "As": 2130,
  "9 ,": 2131,
  "7 ,": 2132,
  "udu": 2133,
  "nso .": 2134,
  "kọmpu": 2135,
  "fran": 2136,
  "eri": 2137,
  "e \"": 2138,
  "dy": 2139,
  "agbata": 2140,
  "abụbụ": 2141,
  "ahu": 2142,
  "Victor": 2143,
  "Sera": 2144,
  "Sy": 2145,
  "Lib": 2146,
  "Igbokwe": 2147,
  "God": 2148,
  "Cou": 2149,
  "Brazil": 2150,
  "ụlọ .": 2151,
  "ọchịchị ,": 2152,
  "ịhụnanya": 2153,
  "w .": 2154,
  "uhie": 2155,
  "r ,": 2156,
  "mmanwụ": 2157,
  "ji ,": 2158,
  "ha ?": 2159,
  "febụ": 2160,
  "febụwarị": 2161,
  "ebube": 2162,
  "dun": 2163,
  "deine": 2164,
  "asaa .": 2165,
  "abuja .": 2166,
  "Sha": 2167,
  "Nnamdi": 2168,
  "Kenya": 2169,
  "Em": 2170,
  "Commission": 2171,
  "Chibo": 2172,
  "AR": 2173,
  "198": 2174,
  "“ o": 2175,
  "ụka ,": 2176,
  "ọkpọka": 2177,
  "ọdịnihu .": 2178,
  "ron": 2179,
  "pasentị": 2180,
  "nwaanyị ,": 2181,
  "nri .": 2182,
  "kiti": 2183,
  "kepu": 2184,
  "igbo ?": 2185,
  "ght": 2186,
  "ekpere .": 2187,
  "eju": 2188,
  "azụ .": 2189,
  "adịgboroja": 2190,
  "UN": 2191,
  "Rehab": 2192,
  "Okorocha": 2193,
  "Oj": 2194,
  "Johnson": 2195,
  "Ibiam": 2196,
  "Garba": 2197,
  "Cos": 2198,
  "Cor": 2199,
  "Big": 2200,
  "Bel": 2201,
  "9 .": 2202,
  "3 )": 2203,
  "2014": 2204,
  "  \" , \"": 2205,
  "ọsọ .": 2206,
  "praị": 2207,
  "ozi .": 2208,
  "owerri": 2209,
  "osikapa": 2210,
  "oke .": 2211,
  "ntị .": 2212,
  "nhazi": 2213,
  "ji .": 2214,
  "illa": 2215,
  "imi": 2216,
  "gency": 2217,
  "ford": 2218,
  "ezi .": 2219,
  "ee": 2220,
  "day": 2221,
  "aṅụ": 2222,
  "Ume": 2223,
  "Ugwu": 2224,
  "Spa": 2225,
  "Ope": 2226,
  "NL": 2227,
  "Ku": 2228,
  "FF": 2229,
  "Davi": 2230,
  "Ban": 2231,
  "Alla": 2232,
  "6 .": 2233,
  "2023": 2234,
  "196": 2235,
  "ọjọọ ,": 2236,
  "ya .  \" ": 2237,
  "vel": 2238,
  "te .": 2239,
  "sọọsọ": 2240,
  "one": 2241,
  "nọvemba": 2242,
  "nya .": 2243,
  "nwo": 2244,
  "nsonso": 2245,
  "nghọta": 2246,
  "na .": 2247,
  "nzọ": 2248,
  "kọb": 2249,
  "kraịst .": 2250,
  "jekọb": 2251,
  "cial": 2252,
  "Okoye": 2253,
  "Omo": 2254,
  "India": 2255,
  "Char": 2256,
  "Bukola": 2257,
  "5 )": 2258,
  "ọbụla ,": 2259,
  "ọsị": 2260,
  "ịlaị": 2261,
  "ogbo": 2262,
  "nleta": 2263,
  "kraine": 2264,
  "ff": 2265,
  "ames": 2266,
  "ako": 2267,
  "Union": 2268,
  "Udemba": 2269,
  "Ukraine": 2270,
  "Uche": 2271,
  "Tim": 2272,
  "NLC": 2273,
  "Mer": 2274,
  "Inno": 2275,
  "Ebreham": 2276,
  "DC": 2277,
  "Cent": 2278,
  "Ang": 2279,
  "8 ,": 2280,
  "197": 2281,
  "ụlọọrụ": 2282,
  "ọọ": 2283,
  "wood": 2284,
  "vice": 2285,
  "udi": 2286,
  "tus": 2287,
  "sili": 2288,
  "olly": 2289,
  "ollywood": 2290,
  "mgbu": 2291,
  "gị ?": 2292,
  "ghị \"": 2293,
  "fero": 2294,
  "ffi": 2295,
  "esem": 2296,
  "dise": 2297,
  "cis": 2298,
  "anọ ,": 2299,
  "Wolves": 2300,
  "San": 2301,
  "Nation": 2302,
  "London": 2303,
  "Bio": 2304,
  "Allah": 2305,
  "All": 2306,
  "9 )": 2307,
  "7 )": 2308,
  "26": 2309,
  "0 .": 2310,
  "ọkaibe": 2311,
  "ọgaranya": 2312,
  "tta": 2313,
  "som": 2314,
  "siria": 2315,
  "septemba": 2316,
  "ot": 2317,
  "mmiri .": 2318,
  "midi": 2319,
  "hib": 2320,
  "ehab": 2321,
  "bụla .": 2322,
  "bụla ,": 2323,
  "ahụhụ .": 2324,
  "ace": 2325,
  "Party": 2326,
  "Okonkwo": 2327,
  "Joseph": 2328,
  "Day": 2329,
  "2020": 2330,
  "  \" nke \"": 2331,
  "ọnwụ ,": 2332,
  "ọganihu": 2333,
  "ọcha .": 2334,
  "ọcha ,": 2335,
  "okirikiri": 2336,
  "nwere": 2337,
  "negal": 2338,
  "mmepụta": 2339,
  "lan": 2340,
  "kris": 2341,
  "iwe .": 2342,
  "ikpeazụ ,": 2343,
  "ihere": 2344,
  "ilu": 2345,
  "gazi": 2346,
  "eze ,": 2347,
  "ego ,": 2348,
  "egbu": 2349,
  "bekee .": 2350,
  "aị": 2351,
  "Zam": 2352,
  "Senegal": 2353,
  "Roh": 2354,
  "Ogbu": 2355,
  "Mini": 2356,
  "IS": 2357,
  "Guine": 2358,
  "Femi": 2359,
  "Eji": 2360,
  "Ed": 2361,
  "Democratic": 2362,
  "Dap": 2363,
  "Akanu": 2364,
  "0 ,": 2365,
  "ọka ,": 2366,
  "ọt": 2367,
  "ṅomi": 2368,
  "udo .": 2369,
  "pho": 2370,
  "onwealth": 2371,
  "ngwaahịa": 2372,
  "nno": 2373,
  "nchụ": 2374,
  "legọs .": 2375,
  "izugbe": 2376,
  "gre": 2377,
  "chael": 2378,
  "anyị ?": 2379,
  "abụ ,": 2380,
  "ZA": 2381,
  "Va": 2382,
  "Univer": 2383,
  "Uzo": 2384,
  "Ribe": 2385,
  "Onu": 2386,
  "Maduka": 2387,
  "Kanu": 2388,
  "IV": 2389,
  "Davido": 2390,
  "Commonwealth": 2391,
  "Chibok": 2392,
  "COZA": 2393,
  "Cup": 2394,
  "Cro": 2395,
  "- 3": 2396,
  "ọpụ": 2397,
  "ọbọ": 2398,
  "urch": 2399,
  "tain": 2400,
  "stle": 2401,
  "pụ .": 2402,
  "oti": 2403,
  "ntụnye": 2404,
  "not": 2405,
  "nce": 2406,
  "mbara": 2407,
  "mar": 2408,
  "kọmputa": 2409,
  "kwesili": 2410,
  "idemili": 2411,
  "eze .": 2412,
  "elu ,": 2413,
  "es": 2414,
  "dimkpa": 2415,
  "chị .": 2416,
  "chool": 2417,
  "bọọlụ .": 2418,
  "amerịka ,": 2419,
  "akọ": 2420,
  "Tra": 2421,
  "Rohr": 2422,
  "Ribeka": 2423,
  "Port ": 2424,
  "Port Harcourt": 2425,
  "Ogu": 2426,
  "Nọt": 2427,
  "Mor": 2428,
  "Indi": 2429,
  "Francis": 2430,
  "Cana": 2431,
  "Adichie": 2432,
  "ASU": 2433,
  " ! ”": 2434,
  "“ mgbe": 2435,
  "yetti": 2436,
  "si .": 2437,
  "pasent": 2438,
  "ntụliaka .": 2439,
  "njọ .": 2440,
  "nali": 2441,
  "mbịara": 2442,
  "l .": 2443,
  "icester": 2444,
  "hia": 2445,
  "grik": 2446,
  "gige": 2447,
  "fara": 2448,
  "esemokwu": 2449,
  "enyo": 2450,
  "do ,": 2451,
  "del": 2452,
  "ct": 2453,
  "blic": 2454,
  "aṅụrị": 2455,
  "asị .": 2456,
  "Ngige": 2457,
  "Miyetti": 2458,
  "May": 2459,
  "Leicester": 2460,
  "Ezekwesili": 2461,
  "East": 2462,
  "Ethi": 2463,
  "Christian": 2464,
  "Col": 2465,
  "Bre": 2466,
  "Ani": 2467,
  "Aku": 2468,
  "Ad": 2469,
  "21": 2470,
  "( N": 2471,
  "  \" ndị \"": 2472,
  "  \" ihe \"": 2473,
  "ụlọahịa": 2474,
  "ọtụ": 2475,
  "tek": 2476,
  "tt": 2477,
  "rin": 2478,
  "rank": 2479,
  "ozigbo": 2480,
  "oge .": 2481,
  "nkwu": 2482,
  "mkpọrọ .": 2483,
  "mic": 2484,
  "mgbaghara": 2485,
  "len": 2486,
  "kla": 2487,
  "eluigwe ,": 2488,
  "Ojukwu": 2489,
  "Mercy": 2490,
  "Mai": 2491,
  "Iran": 2492,
  "Imo": 2493,
  "Ebo": 2494,
  "Cy": 2495,
  "( A": 2496,
  " .  \" anyị \"": 2497,
  "“ ị": 2498,
  "ọṅụṅụ": 2499,
  "ọtọ .": 2500,
  "ọhụrụ ,": 2501,
  "ọfọ": 2502,
  "ọbịa": 2503,
  "yinka": 2504,
  "way": 2505,
  "ugwu ,": 2506,
  "teknụ": 2507,
  "teknụzụ": 2508,
  "shu": 2509,
  "ro ,": 2510,
  "ring": 2511,
  "ozi ,": 2512,
  "og": 2513,
  "nsọ .": 2514,
  "nlekọta": 2515,
  "njedebe": 2516,
  "nsụ": 2517,
  "leke": 2518,
  "kpamkpa": 2519,
  "kolo": 2520,
  "gburugbu": 2521,
  "ganị": 2522,
  "dge": 2523,
  "bu .": 2524,
  "akpụkpọ": 2525,
  "abụ )": 2526,
  "Shiite": 2527,
  "Service": 2528,
  "SAR": 2529,
  "SARS": 2530,
  "King": 2531,
  "IMN": 2532,
  "ID": 2533,
  "HIV": 2534,
  "Ethiop": 2535,
  "Dapchi": 2536,
  "Bishop": 2537,
  "Aja": 2538,
  "AF": 2539,
  "7 .": 2540,
  "2017 .": 2541,
  "  \" na \"": 2542,
  "ọbụ": 2543,
  "zik": 2544,
  "umeala": 2545,
  "u ,": 2546,
  "side": 2547,
  "ru ?": 2548,
  "pha": 2549,
  "oly": 2550,
  "ochie .": 2551,
  "owu": 2552,
  "nkọwa": 2553,
  "nkwarị": 2554,
  "nin": 2555,
  "nnwere": 2556,
  "magazi": 2557,
  "mon": 2558,
  "mkwe": 2559,
  "m . ”": 2560,
  "lle": 2561,
  "kwaghị": 2562,
  "ikiri": 2563,
  "ihu ,": 2564,
  "gressi": 2565,
  "gola": 2566,
  "eziokwu ?": 2567,
  "eluigwe .": 2568,
  "disemba": 2569,
  "Orji": 2570,
  "Nwachukwu": 2571,
  "Nwan": 2572,
  "Mikel": 2573,
  "Kogi": 2574,
  "James": 2575,
  "Ikechukwu": 2576,
  "Ita": 2577,
  "Frank": 2578,
  "Eli": 2579,
  "Dakolo": 2580,
  "Church": 2581,
  "Britain": 2582,
  "Biodun": 2583,
  "Benja": 2584,
  "ASUU": 2585,
  "Agency": 2586,
  "5 ,": 2587,
  "22": 2588,
  " ...": 2589,
  "“ ka": 2590,
  "ọnwụnwa": 2591,
  "ọfụma .": 2592,
  "yat": 2593,
  "scar": 2594,
  "penali": 2595,
  "penaliti": 2596,
  "pro": 2597,
  "phe": 2598,
  "obiọma": 2599,
  "ote": 2600,
  "nwatakịrị": 2601,
  "nkwenye": 2602,
  "njikọ": 2603,
  "ngwongwo": 2604,
  "nc": 2605,
  "magazin": 2606,
  "ma .": 2607,
  "mne": 2608,
  "kwu ,": 2609,
  "kanada": 2610,
  "ifo": 2611,
  "gram": 2612,
  "golayat": 2613,
  "fre": 2614,
  "enugwu .": 2615,
  "ef": 2616,
  "ard": 2617,
  "ahụ . ”": 2618,
  "ahịa ,": 2619,
  "a \"": 2620,
  "Umar": 2621,
  "SC": 2622,
  "People": 2623,
  "Peace": 2624,
  "Pu": 2625,
  "Nigeria ,": 2626,
  "Michael": 2627,
  "Kim": 2628,
  "Gernot": 2629,
  "Fi": 2630,
  "En": 2631,
  "-E": 2632,
  "' ?": 2633,
  " .  \" ndị \"": 2634,
  "  \" ka \"": 2635,
  "ụlọikpe .": 2636,
  "velop": 2637,
  "velopment": 2638,
  "tanka": 2639,
  "socia": 2640,
  "sociation": 2641,
  "onye \"": 2642,
  "oke ,": 2643,
  "nsọ ,": 2644,
  "nnaya": 2645,
  "lu ,": 2646,
  "jijiji": 2647,
  "fraịde .": 2648,
  "di ,": 2649,
  "chineke ?": 2650,
  "ata": 2651,
  "aja .": 2652,
  "Zamfara": 2653,
  "Universi": 2654,
  "Soyinka": 2655,
  "Secon": 2656,
  "Progressi": 2657,
  "Pi": 2658,
  "Ndu": 2659,
  "Geor": 2660,
  "Ex": 2661,
  "Bur": 2662,
  "Association": 2663,
  "Abdul": 2664,
  "500": 2665,
  "4 ,": 2666,
  "2018 .": 2667,
  "ọkọlọ": 2668,
  "ọkọlọtọ": 2669,
  "ọkpụkpụ": 2670,
  "ịgba": 2671,
  "uru ,": 2672,
  "tive": 2673,
  "tholic": 2674,
  "sime": 2675,
  "sse": 2676,
  "ru :": 2677,
  "roup": 2678,
  "rist": 2679,
  "nesi": 2680,
  "mmiri ,": 2681,
  "mkpagbu": 2682,
  "mana \"": 2683,
  "lican": 2684,
  "lli": 2685,
  "isii ,": 2686,
  "hole": 2687,
  "gbatagbata": 2688,
  "elsa": 2689,
  "eld": 2690,
  "edeme": 2691,
  "castle": 2692,
  "cto": 2693,
  "bụ \"": 2694,
  "alụm": 2695,
  "Sheka": 2696,
  "Po": 2697,
  "Oluse": 2698,
  "Odu": 2699,
  "Nji": 2700,
  "Musa": 2701,
  "Mz .": 2702,
  "Mala": 2703,
  "League .": 2704,
  "FI": 2705,
  "Ethiopia": 2706,
  "Development": 2707,
  "Catholic": 2708,
  "Bayelsa": 2709,
  "Bank": 2710,
  "Anaje": 2711,
  "Aw": 2712,
  "ụzụ": 2713,
  "ụfụ": 2714,
  "ọpị": 2715,
  "taata": 2716,
  "rish": 2717,
  "rael": 2718,
  "paradaịs .": 2719,
  "ozugbo .": 2720,
  "om": 2721,
  "mbuli": 2722,
  "mwe": 2723,
  "kpụrụkpụ": 2724,
  "kpọmkwe": 2725,
  "jeruselem": 2726,
  "jenụwarị": 2727,
  "iwu .": 2728,
  "iteghe": 2729,
  "ime ,": 2730,
  "ikpe .": 2731,
  "edemede": 2732,
  "cent": 2733,
  "anambra .": 2734,
  "Yoru": 2735,
  "Thomas": 2736,
  "Tan": 2737,
  "Olusegun": 2738,
  "Nwodo": 2739,
  "Nations": 2740,
  "Libya": 2741,
  "Kalu": 2742,
  "Israel": 2743,
  "Good": 2744,
  "Gene": 2745,
  "Charles": 2746,
  "Chan": 2747,
  "Canada": 2748,
  "Buso": 2749,
  " .  \" o \"": 2750,
  "’ )": 2751,
  "ụbọchị .": 2752,
  "ọgụ .": 2753,
  "ọkwụ": 2754,
  "xi": 2755,
  "ukwa": 2756,
  "tiusde .": 2757,
  "stan": 2758,
  "siriak": 2759,
  "shiom": 2760,
  "shiomhole": 2761,
  "rọs": 2762,
  "rus": 2763,
  "praịm": 2764,
  "ochie ,": 2765,
  "okwe": 2766,
  "nnọchiteanya": 2767,
  "nnụ": 2768,
  "mkpa :": 2769,
  "mbuze": 2770,
  "m :": 2771,
  "l ,": 2772,
  "ka .": 2773,
  "isii .": 2774,
  "ino": 2775,
  "hụhụ": 2776,
  "gaasị": 2777,
  "ern": 2778,
  "dibia": 2779,
  "chi .": 2780,
  "alụkwaghị": 2781,
  "a .  \" ": 2782,
  "Yu": 2783,
  "Wike": 2784,
  "Ugwuanyi": 2785,
  "TV": 2786,
  "Ronal": 2787,
  "PC": 2788,
  "Oshiomhole": 2789,
  "Nnabu": 2790,
  "Newcastle": 2791,
  "Germa": 2792,
  "Busola": 2793,
  "Bar": 2794,
  "Austra": 2795,
  "Airport": 2796,
  "Awa": 2797,
  "6 )": 2798,
  "2015 .": 2799,
  "“ unu": 2800,
  "ụkpa": 2801,
  "ọkwọ": 2802,
  "ọchụ": 2803,
  "to ,": 2804,
  "twitter": 2805,
  "ro .": 2806,
  "rest": 2807,
  "ramahụhụ": 2808,
  "oziọma": 2809,
  "oyibo": 2810,
  "obo": 2811,
  "nya ,": 2812,
  "nwoke .": 2813,
  "nwoke ,": 2814,
  "nwaagbọghọ": 2815,
  "ntaramahụhụ": 2816,
  "ntakịrị": 2817,
  "mahịa": 2818,
  "mgbidi": 2819,
  "laza": 2820,
  "kọpa": 2821,
  "ke ,": 2822,
  "iri .": 2823,
  "ikpere": 2824,
  "ijipt .": 2825,
  "int": 2826,
  "hibru": 2827,
  "ha \"": 2828,
  "hị": 2829,
  "gypt": 2830,
  "gad": 2831,
  "enugwu ,": 2832,
  "echiche .": 2833,
  "ek": 2834,
  "dugu": 2835,
  "biko ,": 2836,
  "azụmahịa": 2837,
  "asatọ ,": 2838,
  "anya . ”": 2839,
  "akwa .": 2840,
  "agadi": 2841,
  "________": 2842,
  "Tara": 2843,
  "Stephe": 2844,
  "Shekau": 2845,
  "School": 2846,
  "Rivers": 2847,
  "Oye": 2848,
  "Nollywood": 2849,
  "NFF": 2850,
  "Maidugu": 2851,
  "Haru": 2852,
  "Federal": 2853,
  "For": 2854,
  "Egypt": 2855,
  "Communi": 2856,
  "Chioma": 2857,
  "Chad": 2858,
  "Central": 2859,
  "Benjamin": 2860,
  "Benu": 2861,
  "Agule": 2862,
  "Abdulla": 2863,
  "Ameri": 2864,
  "8 .": 2865,
  "29": 2866,
  "1914": 2867,
  "- \"": 2868,
  "ịlaịja": 2869,
  "ịdịna": 2870,
  "ya ;": 2871,
  "ya  \" ": 2872,
  "van": 2873,
  "sọnde": 2874,
  "sị  \" ": 2875,
  "sekọ": 2876,
  "sto": 2877,
  "rans": 2878,
  "public": 2879,
  "our": 2880,
  "ojii ,": 2881,
  "ohi ,": 2882,
  "nwụ ,": 2883,
  "nuche": 2884,
  "nkwanye": 2885,
  "ndị ;": 2886,
  "ncil": 2887,
  "mma ?": 2888,
  "maahịa": 2889,
  "mkpị": 2890,
  "liance": 2891,
  "li .": 2892,
  "lack": 2893,
  "ezina": 2894,
  "ding": 2895,
  "din": 2896,
  "dne": 2897,
  "conomi": 2898,
  "chebe": 2899,
  "bulu": 2900,
  "bon": 2901,
  "azụmaahịa": 2902,
  "azụ ,": 2903,
  "asatọ .": 2904,
  "arebia": 2905,
  "afrịka ,": 2906,
  "ahia": 2907,
  "University": 2908,
  "Timgad": 2909,
  "Saudi": 2910,
  "PS": 2911,
  "Nyako": 2912,
  "Mou": 2913,
  "Lai": 2914,
  "Innoson": 2915,
  "Isa": 2916,
  "Ibo": 2917,
  "Group": 2918,
  "CB": 2919,
  "Alliance": 2920,
  "Abdullahi": 2921,
  "Abra": 2922,
  "400": 2923,
  "“ i": 2924,
  "ụkwara": 2925,
  "ụra .": 2926,
  "ọpụpụ": 2927,
  "ọlị": 2928,
  "ọkpụrụkpụ": 2929,
  "xico": 2930,
  "sty": 2931,
  "ston": 2932,
  "ship": 2933,
  "ser": 2934,
  "sa ,": 2935,
  "stus": 2936,
  "rụwarị": 2937,
  "rity": 2938,
  "rite": 2939,
  "rg": 2940,
  "phobi": 2941,
  "ogoogo": 2942,
  "nophobi": 2943,
  "ngwọ": 2944,
  "mesa": 2945,
  "mana ,": 2946,
  "kno": 2947,
  "izrel .": 2948,
  "iwe ,": 2949,
  "inji": 2950,
  "ille": 2951,
  "ill": 2952,
  "ikpeazụ .": 2953,
  "ig": 2954,
  "ha . ”": 2955,
  "feb": 2956,
  "febrụwarị": 2957,
  "emeka": 2958,
  "ell": 2959,
  "ebum": 2960,
  "enophobi": 2961,
  "chel": 2962,
  "cha ,": 2963,
  "asaa ,": 2964,
  "akparama": 2965,
  "You": 2966,
  "There": 2967,
  "Qu": 2968,
  "P )": 2969,
  "Obama": 2970,
  "Mexico": 2971,
  "Mbaise": 2972,
  "Mah": 2973,
  "Mada": 2974,
  "Mana": 2975,
  "Kha": 2976,
  "Insta": 2977,
  "IC": 2978,
  "Hi": 2979,
  "Har": 2980,
  "Guinea": 2981,
  "George": 2982,
  "Economi": 2983,
  "Council": 2984,
  "Benin": 2985,
  "Bayern": 2986,
  "  \" a \"": 2987,
  "  \" - \"": 2988,
  "ụra ,": 2989,
  "ọrịa .": 2990,
  "ọnịcha ,": 2991,
  "yọsi": 2992,
  "visa": 2993,
  "ventu": 2994,
  "vin": 2995,
  "t .": 2996,
  "stal": 2997,
  "rou": 2998,
  "otele": 2999,
  "ork": 3000,
  "olution": 3001,
  "ntutu": 3002,
  "ne ,": 3003,
  "nz": 3004,
  "mkpọtụ": 3005,
  "mamanda": 3006,
  "list": 3007,
  "lege": 3008,
  "latị": 3009,
  "kwasị": 3010,
  "ks": 3011,
  "ger": 3012,
  "gar": 3013,
  "gani": 3014,
  "echiche ,": 3015,
  "e ?": 3016,
  "di .": 3017,
  "dayọsi": 3018,
  "bi . ”": 3019,
  "alakụ": 3020,
  "ahịrị": 3021,
  "ac": 3022,
  "Xenophobi": 3023,
  "Uwa": 3024,
  "Theresa": 3025,
  "Tekno": 3026,
  "Sunda": 3027,
  "Stephen": 3028,
  "Sal": 3029,
  "Revolution": 3030,
  "Ran": 3031,
  "Power": 3032,
  "Pope": 3033,
  "Ortom": 3034,
  "Ogun": 3035,
  "Odi": 3036,
  "Isla": 3037,
  "Haruna": 3038,
  "FIFA": 3039,
  "European": 3040,
  "Chimamanda": 3041,
  "Christ": 3042,
  "Cri": 3043,
  "CN": 3044,
  "Boris": 3045,
  "Bala": 3046,
  "Alge": 3047,
  "At": 3048,
  "Ant": 3049,
  "Ala": 3050,
  "AM": 3051,
  "8 )": 3052,
  "2013": 3053,
  "’ ”": 3054,
  "ụwa ?": 3055,
  "ụnyaahụ ,": 3056,
  "ụmụada": 3057,
  "ọkwa .": 3058,
  "ọchịchọ": 3059,
  "uchu": 3060,
  "tụma": 3061,
  "to .": 3062,
  "tiu ,": 3063,
  "sị :  \" ": 3064,
  "saị": 3065,
  "ous": 3066,
  "org": 3067,
  "olo": 3068,
  "oghe": 3069,
  "ntụkwasị": 3070,
  "mmefu": 3071,
  "mak ,": 3072,
  "luck": 3073,
  "let": 3074,
  "kpam": 3075,
  "ket": 3076,
  "iwu ,": 3077,
  "id": 3078,
  "gwuru": 3079,
  "ganda": 3080,
  "da ,": 3081,
  "codeine": 3082,
  "cha .": 3083,
  "cal": 3084,
  "bọọlụ ,": 3085,
  "biri": 3086,
  "baptizim": 3087,
  "anya ?": 3088,
  "akụkọ \"": 3089,
  "abụbọ": 3090,
  "ama ,": 3091,
  "Zara": 3092,
  "WAS": 3093,
  "Sunday": 3094,
  "St .": 3095,
  "Ruga": 3096,
  "Preside": 3097,
  "PSG": 3098,
  "Obio": 3099,
  "Oha": 3100,
  "Ode": 3101,
  "OWAS": 3102,
  "Njikọ": 3103,
  "Nu": 3104,
  "Nsu": 3105,
  "Nnia": 3106,
  "Nke": 3107,
  "Ndi": 3108,
  "NB": 3109,
  "Messi": 3110,
  "Kenne": 3111,
  "Emlin": 3112,
  "ECOWAS": 3113,
  "Enyi": 3114,
  "EMA": 3115,
  "Chief": 3116,
  "Black": 3117,
  "2018 ,": 3118,
  "2000": 3119,
  "ụgwọ .": 3120,
  "ọsịsọ": 3121,
  "ọnya": 3122,
  "wich": 3123,
  "stri": 3124,
  "sing": 3125,
  "satọde .": 3126,
  "sley": 3127,
  "rial": 3128,
  "riko": 3129,
  "pou": 3130,
  "omen": 3131,
  "olulu": 3132,
  "ojii .": 3133,
  "ofor": 3134,
  "os": 3135,
  "nzagha": 3136,
  "nyahụ": 3137,
  "nnogh": 3138,
  "nnoghen": 3139,
  "nkeji :": 3140,
  "nish": 3141,
  "nis": 3142,
  "naịjirịa ?": 3143,
  "mfe .": 3144,
  "me ?": 3145,
  "matiu ,": 3146,
  "laye": 3147,
  "jairo": 3148,
  "ingland": 3149,
  "ejiji": 3150,
  "do .": 3151,
  "dinma": 3152,
  "dayọsiisi": 3153,
  "dada": 3154,
  "cese": 3155,
  "cer": 3156,
  "bọjetị": 3157,
  "bi ?": 3158,
  "Ze": 3159,
  "Uganda": 3160,
  "UE": 3161,
  "UEFA": 3162,
  "Tanza": 3163,
  "Tur": 3164,
  "Sudan": 3165,
  "Salah": 3166,
  "Solu": 3167,
  "Rama": 3168,
  "Osun": 3169,
  "Ono": 3170,
  "Onnoghen": 3171,
  "Maiduguri": 3172,
  "Kenneth": 3173,
  "Juventu": 3174,
  "Islamic": 3175,
  "II": 3176,
  "Goodluck": 3177,
  "Ezi": 3178,
  "Chine": 3179,
  "Chike": 3180,
  "Cali": 3181,
  "CBN": 3182,
  "Car": 3183,
  "Augu": 3184,
  "Anglican": 3185,
  "Algeria": 3186,
  "Adeleke": 3187,
  "App": 3188,
  "Aka": 3189,
  "37": 3190,
  "ụgha .": 3191,
  "ụfọdụ .": 3192,
  "ụnyahụ": 3193,
  "ọsọ ,": 3194,
  "ọmụgwọ": 3195,
  "ọs": 3196,
  "zu .": 3197,
  "yahoo": 3198,
  "yode": 3199,
  "ura": 3200,
  "res": 3201,
  "rah": 3202,
  "ra \"": 3203,
  "phosa": 3204,
  "nwanna": 3205,
  "nwa .": 3206,
  "ngosi": 3207,
  "mmehi": 3208,
  "midia .": 3209,
  "lịkan": 3210,
  "jeriko": 3211,
  "goolu .": 3212,
  "chị ,": 3213,
  "ban": 3214,
  "ang": 3215,
  "amaw": 3216,
  "akwa ,": 3217,
  "akparamagwa": 3218,
  "aka ?": 3219,
  "ajị": 3220,
  "Yusu": 3221,
  "Yoruba": 3222,
  "WA": 3223,
  "WAEC": 3224,
  "Soko": 3225,
  "Ramaphosa": 3226,
  "Rus": 3227,
  "Progressive": 3228,
  "Poli": 3229,
  "NAF": 3230,
  "Melaye": 3231,
  "Kaduna": 3232,
  "Josef .": 3233,
  "Jong": 3234,
  "Ji": 3235,
  "Instagram": 3236,
  "Ibom": 3237,
  "Health": 3238,
  "Grand": 3239,
  "Ebonyi": 3240,
  "College": 3241,
  "Buhari ,": 3242,
  "Bello": 3243,
  "Bru": 3244,
  "Alexand": 3245,
  "Amara": 3246,
  "Achebe": 3247,
  "33": 3248,
  "-O": 3249,
  "ụgbọmmiri": 3250,
  "ọzọ ?": 3251,
  "ọhịa .": 3252,
  "ọbụna": 3253,
  "zuru": 3254,
  "yele": 3255,
  "yuro": 3256,
  "yurop": 3257,
  "xit": 3258,
  "vie": 3259,
  "unu .": 3260,
  "uba": 3261,
  "tụmadị": 3262,
  "stry": 3263,
  "rer": 3264,
  "poli": 3265,
  "py": 3266,
  "nzọpụta": 3267,
  "ntị ,": 3268,
  "nsibi": 3269,
  "nnụnụ": 3270,
  "nchekwa ,": 3271,
  "nkwọ": 3272,
  "mọnde .": 3273,
  "mmụọ .": 3274,
  "mmer": 3275,
  "mahadu": 3276,
  "mah": 3277,
  "leagu": 3278,
  "lazarọs": 3279,
  "las": 3280,
  "kwa .": 3281,
  "izi": 3282,
  "hony": 3283,
  "gers": 3284,
  "gba .": 3285,
  "fim": 3286,
  "fị": 3287,
  "ezie ,": 3288,
  "ebumnuche": 3289,
  "ctu": 3290,
  "bụ ?": 3291,
  "bekee ,": 3292,
  "arụsị": 3293,
  "akụnụ": 3294,
  "aro": 3295,
  "Yobe": 3296,
  "Villa": 3297,
  "Taraba": 3298,
  "Ronaldo": 3299,
  "Paris": 3300,
  "Onwuama": 3301,
  "Omoyele": 3302,
  "Oscar": 3303,
  "Norwich": 3304,
  "Madaga": 3305,
  "Italy": 3306,
  "Idi": 3307,
  "Ekiti": 3308,
  "Dabiri": 3309,
  "Dino": 3310,
  "DAC": 3311,
  "Cross": 3312,
  "Chido": 3313,
  "Che": 3314,
  "Can": 3315,
  "Brexit": 3316,
  "Anthony": 3317,
  "Adesina": 3318,
  "Azik": 3319,
  "An": 3320,
  "Ami": 3321,
  "A )": 3322,
  "30 ,": 3323,
  " \" \" n' \"": 3324,
  "  \" ma": 3325,
  "ụlọmkpọrọ": 3326,
  "wenezde .": 3327,
  "uju .": 3328,
  "udo ,": 3329,
  "ume .": 3330,
  "tọzde .": 3331,
  "tics": 3332,
  "tine": 3333,
  "so .": 3334,
  "part": 3335,
  "on ,": 3336,
  "ohi .": 3337,
  "ogu": 3338,
  "nwe .": 3339,
  "nka ,": 3340,
  "niile . ”": 3341,
  "nor": 3342,
  "ngụ": 3343,
  "mma . ”": 3344,
  "kame": 3345,
  "kah": 3346,
  "janụwarị": 3347,
  "iri ,": 3348,
  "injin": 3349,
  "ghalo": 3350,
  "gbu .": 3351,
  "enyi ,": 3352,
  "ejima": 3353,
  "dị ?": 3354,
  "bọjet": 3355,
  "buka": 3356,
  "baịbụl ?": 3357,
  "agbara": 3358,
  "a . ”": 3359,
  "awa": 3360,
  "aja ,": 3361,
  "Uzodinma": 3362,
  "Togo": 3363,
  "Republic": 3364,
  "Peoples": 3365,
  "Operation": 3366,
  "Osa": 3367,
  "Ondo": 3368,
  "Norway": 3369,
  "Njikọka": 3370,
  "NAFDAC": 3371,
  "Mon": 3372,
  "Ighalo": 3373,
  "Iba": 3374,
  "Germany": 3375,
  "General": 3376,
  "Ezeife": 3377,
  "Economic": 3378,
  "Dave": 3379,
  "Don": 3380,
  "Congo": 3381,
  "Chukwuemeka": 3382,
  "Channe": 3383,
  "Bles": 3384,
  "Anajemba": 3385,
  "Amaechi": 3386,
  "Adama": 3387,
  "Abraham": 3388,
  "Action": 3389,
  "40": 3390,
  "2016 .": 3391,
  "20 ,": 3392,
  "15 ,": 3393,
  "-A": 3394,
  " .  \" n' \"": 3395,
  " .  \" ihe \"": 3396,
  "“ ma": 3397,
  "ụtụtụ ,": 3398,
  "ụlọọgwụ .": 3399,
  "ọgọst ,": 3400,
  "ọchị .": 3401,
  "ịntaneti .": 3402,
  "ịkpe": 3403,
  "ziaka": 3404,
  "ya ,  \" ": 3405,
  "yị": 3406,
  "y ,": 3407,
  "ww .": 3408,
  "www .": 3409,
  "wn": 3410,
  "verton": 3411,
  "vre": 3412,
  "ustom": 3413,
  "strị": 3414,
  "spen .": 3415,
  "saụdi": 3416,
  "sy": 3417,
  "re \"": 3418,
  "por": 3419,
  "onyinye ,": 3420,
  "osu": 3421,
  "nịstrị": 3422,
  "mịnịstrị": 3423,
  "luk": 3424,
  "le ,": 3425,
  "krismas": 3426,
  "jụụ": 3427,
  "jw .": 3428,
  "iko .": 3429,
  "icheiche .": 3430,
  "iberibe": 3431,
  "fai": 3432,
  "ezigbote": 3433,
  "ezi ,": 3434,
  "esom": 3435,
  "buike": 3436,
  "bour": 3437,
  "bedel": 3438,
  "anụrị": 3439,
  "all": 3440,
  "abalị ,": 3441,
  "awụ": 3442,
  "arọ": 3443,
  "York": 3444,
  "Wat": 3445,
  "Women": 3446,
  "Ve": 3447,
  "Turke": 3448,
  "Trans": 3449,
  "Spanish": 3450,
  "Samson": 3451,
  "Rufai": 3452,
  "Road": 3453,
  "Osita": 3454,
  "Organi": 3455,
  "Oli": 3456,
  "Nyesom": 3457,
  "Now": 3458,
  "Kayode": 3459,
  "JAM": 3460,
  "JAMB": 3461,
  "IMF": 3462,
  "Hope": 3463,
  "Gol": 3464,
  "Foot": 3465,
  "Flo": 3466,
  "FB": 3467,
  "FBI": 3468,
  "Enyinnaya": 3469,
  "Everton": 3470,
  "EU": 3471,
  "Cosmas": 3472,
  "Community": 3473,
  "Codeine": 3474,
  "Chidi": 3475,
  "Channels": 3476,
  "Custom": 3477,
  "Cla": 3478,
  "America": 3479,
  "Abike": 3480,
  "APC .": 3481,
  "Are": 3482,
  "AT": 3483,
  "60": 3484,
  "194": 3485,
  " \" \" . \"": 3486,
  "ụmụaka .": 3487,
  "ụlọelu": 3488,
  "ọnụahịa": 3489,
  "èvre": 3490,
  "wenezde ,": 3491,
  "ward": 3492,
  "wanda": 3493,
  "uteeze": 3494,
  "ustin": 3495,
  "urundi": 3496,
  "tical": 3497,
  "tanya": 3498,
  "tanyahu": 3499,
  "taa ?": 3500,
  "ta ?": 3501,
  "ses": 3502,
  "rystal": 3503,
  "pende": 3504,
  "ogle": 3505,
  "ofesi .": 3506,
  "obi ?": 3507,
  "nụ !": 3508,
  "nzukọ .": 3509,
  "nwa ,": 3510,
  "ntuziaka": 3511,
  "nso ,": 3512,
  "nich": 3513,
  "ni ,": 3514,
  "ngagwa": 3515,
  "nes": 3516,
  "nangagwa": 3517,
  "mọnde ,": 3518,
  "mnesty": 3519,
  "mkpa ,": 3520,
  "mb": 3521,
  "lint": 3522,
  "kwu ?": 3523,
  "klaasị": 3524,
  "keke": 3525,
  "kali": 3526,
  "jeria": 3527,
  "isiala": 3528,
  "injinịa": 3529,
  "ikpe ,": 3530,
  "ikwu": 3531,
  "ibu .": 3532,
  "ghton": 3533,
  "gara": 3534,
  "gan": 3535,
  "fèvre": 3536,
  "ezinaụlọ": 3537,
  "ence": 3538,
  "egbe .": 3539,
  "ders": 3540,
  "bịlọ": 3541,
  "bel": 3542,
  "babịlọ": 3543,
  "bn": 3544,
  "alakụba": 3545,
  "alace": 3546,
  "aljeria": 3547,
  "akwụna": 3548,
  "ahụ .  \" ": 3549,
  "aha .": 3550,
  "abacha": 3551,
  "Udo": 3552,
  "Turkey": 3553,
  "Tha": 3554,
  "Spain": 3555,
  "Solo": 3556,
  "Sia": 3557,
  "Regi": 3558,
  "Rwanda": 3559,
  "Roge": 3560,
  "Prima": 3561,
  "Phi": 3562,
  "Okechukwu": 3563,
  "Obo": 3564,
  "Netanyahu": 3565,
  "NYSC": 3566,
  "Musta": 3567,
  "Munich": 3568,
  "Mnangagwa": 3569,
  "Lefèvre": 3570,
  "Lan": 3571,
  "Keshi": 3572,
  "Kat": 3573,
  "Juventus": 3574,
  "Inde": 3575,
  "Ibe": 3576,
  "Grace": 3577,
  "Google": 3578,
  "Gi": 3579,
  "Federation": 3580,
  "Ebola": 3581,
  "Equ": 3582,
  "Ekwu": 3583,
  "Boy": 3584,
  "Burundi": 3585,
  "Ber": 3586,
  "Azikiwe": 3587,
  "Awgu": 3588,
  "Australia": 3589,
  "Andre": 3590,
  "Aso": 3591,
  "Ash": 3592,
  "Asa": 3593,
  "Amnesty": 3594,
  "27": 3595,
  "--": 3596,
  " :  \" ": 3597,
  "“ otu": 3598,
  "“ obi": 3599,
  "“ anyị": 3600,
  "’ ,": 3601,
  "ụmụahịa": 3602,
  "ọrụ )": 3603,
  "ọka .": 3604,
  "zu ,": 3605,
  "ya \"": 3606,
  "ychel": 3607,
  "ychelles": 3608,
  "vement": 3609,
  "ugbo ,": 3610,
  "tte": 3611,
  "satọdee": 3612,
  "sa .": 3613,
  "rinho": 3614,
  "ril": 3615,
  "rench": 3616,
  "red": 3617,
  "pyrus": 3618,
  "papyrus": 3619,
  "ozuzo": 3620,
  "ohu .": 3621,
  "ogidi": 3622,
  "nye .": 3623,
  "nwayọọ ,": 3624,
  "ntọala": 3625,
  "nsogbu ,": 3626,
  "nsibidi": 3627,
  "nnwereonwe": 3628,
  "nchụaja": 3629,
  "nisi": 3630,
  "mgbe \"": 3631,
  "mesaya": 3632,
  "mbize": 3633,
  "ms": 3634,
  "m ?": 3635,
  "luk ,": 3636,
  "lestine": 3637,
  "kọp": 3638,
  "kpọmkwem": 3639,
  "kamel": 3640,
  "kin": 3641,
  "fraịde ,": 3642,
  "fransị": 3643,
  "ekere": 3644,
  "dary": 3645,
  "dg": 3646,
  "baptizim ,": 3647,
  "asị ,": 3648,
  "akpị": 3649,
  "Yusuf": 3650,
  "Yaku": 3651,
  "Watford": 3652,
  "Udemba .": 3653,
  "Tunisi": 3654,
  "Tanzania": 3655,
  "Tacha": 3656,
  "Seychelles": 3657,
  "Que": 3658,
  "Osho": 3659,
  "Ngo": 3660,
  "Mourinho": 3661,
  "Maina": 3662,
  "Magu": 3663,
  "Korea": 3664,
  "Kon": 3665,
  "Jong-": 3666,
  "Jane": 3667,
  "Jor": 3668,
  "Independe": 3669,
  "High": 3670,
  "Hou": 3671,
  "Federer": 3672,
  "French": 3673,
  "Edo": 3674,
  "Crystal": 3675,
  "Brighton": 3676,
  "Blessing": 3677,
  "Arabi": 3678,
  "Anya": 3679,
  "Ange": 3680,
  "45": 3681,
  "2018 :": 3682,
  "2017 ,": 3683,
  "2014 .": 3684,
  "10 ,": 3685,
  " ; )": 3686,
  "  \" bụ \"": 3687,
  "“ mkpụrụ": 3688,
  "“ ha": 3689,
  "ụkwụ .": 3690,
  "ọtọ ,": 3691,
  "ọstra": 3692,
  "ọghọ": 3693,
  "ṅa": 3694,
  "zi .": 3695,
  "uri": 3696,
  "un": 3697,
  "ube": 3698,
  "tia": 3699,
  "tary": 3700,
  "ta \"": 3701,
  "tra": 3702,
  "shola": 3703,
  "sekọnd": 3704,
  "ru \"": 3705,
  "riri": 3706,
  "rima": 3707,
  "que": 3708,
  "pito": 3709,
  "osisi ,": 3710,
  "ord": 3711,
  "oloko": 3712,
  "okwuchukwu": 3713,
  "obiano ,": 3714,
  "obere .": 3715,
  "ogwu": 3716,
  "nic": 3717,
  "ngwa ,": 3718,
  "nebọ": 3719,
  "ndina": 3720,
  "ndagwuru": 3721,
  "ndagwurugwu": 3722,
  "nan": 3723,
  "ngwe": 3724,
  "mou": 3725,
  "mmy": 3726,
  "mi ,": 3727,
  "mgbọrọ": 3728,
  "mgbe ,": 3729,
  "mbụ :": 3730,
  "mkpụ": 3731,
  "lari": 3732,
  "kpọ  \" ": 3733,
  "jenesi": 3734,
  "izu ,": 3735,
  "izrel ,": 3736,
  "imiri": 3737,
  "iberi": 3738,
  "hooha": 3739,
  "ha .  \" ": 3740,
  "ha :": 3741,
  "gwongworo": 3742,
  "gburugburu ,": 3743,
  "gboo ,": 3744,
  "gba ,": 3745,
  "ful": 3746,
  "ffield": 3747,
  "etiti .": 3748,
  "ebe ,": 3749,
  "e !": 3750,
  "dgz .": 3751,
  "dah": 3752,
  "da .": 3753,
  "ctoral": 3754,
  "chineke . ”": 3755,
  "bu ,": 3756,
  "be .": 3757,
  "ball": 3758,
  "bal": 3759,
  "arụrụ": 3760,
  "anusi": 3761,
  "ahụike ,": 3762,
  "abuja ,": 3763,
  "abalị .": 3764,
  "Whi": 3765,
  "Wal": 3766,
  "VC": 3767,
  "Umeh": 3768,
  "Tiwa": 3769,
  "Sheffield": 3770,
  "SSOB": 3771,
  "Rangers": 3772,
  "Queen": 3773,
  "Patri": 3774,
  "Oki": 3775,
  "Nigeria :": 3776,
  "Ndubu": 3777,
  "Nan": 3778,
  "Mohamed": 3779,
  "Ministry": 3780,
  "Martin": 3781,
  "MASSOB": 3782,
  "Law": 3783,
  "Lo": 3784,
  "Katsina": 3785,
  "Jide": 3786,
  "Isaac": 3787,
  "Ire": 3788,
  "Hen": 3789,
  "Gabon": 3790,
  "Forest": 3791,
  "Festus": 3792,
  "Fri": 3793,
  "Electoral": 3794,
  "Customs": 3795,
  "Camp": 3796,
  "BBNaija": 3797,
  "Aguleri": 3798,
  "Anti": 3799,
  "Amu": 3800,
  "AI": 3801,
  "44": 3802,
  "2020 .": 3803,
  "2015 ,": 3804,
  "195": 3805,
  "11 ,": 3806,
  "( S": 3807,
  " ) \"": 3808,
  " \" ": 3809,
  "  \" ( ": 3810,
  "“ na-": 3811,
  "ọrịa ,": 3812,
  "ọnwa .": 3813,
  "ọktoba .": 3814,
  "ọchịagha": 3815,
  "ọsụ": 3816,
  "ugboro .": 3817,
  "uke": 3818,
  "soja": 3819,
  "sion": 3820,
  "shua": 3821,
  "rumba": 3822,
  "rance": 3823,
  "pọtị": 3824,
  "pas": 3825,
  "omume .": 3826,
  "omume ,": 3827,
  "ost": 3828,
  "oo": 3829,
  "nye ,": 3830,
  "nwunye .": 3831,
  "nsọpụrụ": 3832,
  "nka .": 3833,
  "nie": 3834,
  "neu": 3835,
  "ndị  \" ": 3836,
  "mmụọ ,": 3837,
  "mmekọ": 3838,
  "mmebi": 3839,
  "mmadụ ?": 3840,
  "meya": 3841,
  "lius": 3842,
  "li ,": 3843,
  "lation": 3844,
  "la \"": 3845,
  "iteghete ,": 3846,
  "inab": 3847,
  "imirikiti": 3848,
  "hoohaa": 3849,
  "gọọmentị ,": 3850,
  "gịnị ?": 3851,
  "gua": 3852,
  "gement": 3853,
  "gburugburu .": 3854,
  "gboo .": 3855,
  "emeodo": 3856,
  "ekpenta": 3857,
  "ekeresime": 3858,
  "ee ,": 3859,
  "col": 3860,
  "briel": 3861,
  "asara": 3862,
  "aland": 3863,
  "aka . ”": 3864,
  "ato": 3865,
  "a  \" ": 3866,
  "Zealand": 3867,
  "Zainab": 3868,
  "Yakubu": 3869,
  "War": 3870,
  "Uba": 3871,
  "Tech": 3872,
  "Syria": 3873,
  "Osuji": 3874,
  "Onyema": 3875,
  "Onwuemeodo": 3876,
  "Okeke": 3877,
  "Oyo": 3878,
  "Ojo": 3879,
  "Nwankwo": 3880,
  "Nnabuihe": 3881,
  "Ney": 3882,
  "Movement": 3883,
  "Moses": 3884,
  "Kukah": 3885,
  "Khafi": 3886,
  "Jideọfọ": 3887,
  "Jere": 3888,
  "Indo": 3889,
  "Isi": 3890,
  "Ilo": 3891,
  "IA": 3892,
  "Gover": 3893,
  "Gabriel": 3894,
  "Ejike": 3895,
  "Dru": 3896,
  "Dike": 3897,
  "Cyril": 3898,
  "Arabia": 3899,
  "Andrew": 3900,
  "Abacha": 3901,
  "Amo": 3902,
  "Agba": 3903,
  "Achu": 3904,
  "2007": 3905,
  "14 )": 3906,
  " ; ,": 3907,
  " \" \" na \"": 3908,
  "“ dị": 3909,
  "ụjọ .": 3910,
  "ụgbọala .": 3911,
  "ụdọ": 3912,
  "ọzọ . ”": 3913,
  "ọsịsa": 3914,
  "ọgụ ,": 3915,
  "ọghọm": 3916,
  "ọrumba": 3917,
  "yu": 3918,
  "wan": 3919,
  "ugbog": 3920,
  "udele": 3921,
  "thy": 3922,
  "ters": 3923,
  "te \"": 3924,
  "t ,": 3925,
  "sịga ,": 3926,
  "shing": 3927,
  "ska": 3928,
  "rụ ?": 3929,
  "pital": 3930,
  "penal": 3931,
  "penalty": 3932,
  "paradaịs": 3933,
  "pre": 3934,
  "ozizi": 3935,
  "onel": 3936,
  "oju": 3937,
  "ojuju": 3938,
  "nubu": 3939,
  "nkịtị .": 3940,
  "njọ ,": 3941,
  "njem .": 3942,
  "niile ?": 3943,
  "ngwa .": 3944,
  "nghọtahie": 3945,
  "neumo": 3946,
  "nder": 3947,
  "nchekwu": 3948,
  "mọn": 3949,
  "mpị": 3950,
  "mpanọ": 3951,
  "mmerson": 3952,
  "mmerụ": 3953,
  "mmanya .": 3954,
  "mkpụrụ .": 3955,
  "mkparị": 3956,
  "mgbọrọgwụ": 3957,
  "mgbali": 3958,
  "meyang": 3959,
  "melu": 3960,
  "maachị .": 3961,
  "m )": 3962,
  "loma": 3963,
  "lip": 3964,
  "lia .": 3965,
  "koro": 3966,
  "kemgbe .": 3967,
  "kampanọ": 3968,
  "ka  \" ": 3969,
  "iyi .": 3970,
  "itoolu ,": 3971,
  "ifufe": 3972,
  "har": 3973,
  "ha ;": 3974,
  "huru": 3975,
  "ge :": 3976,
  "fiele": 3977,
  "eziokwu . ”": 3978,
  "enyi .": 3979,
  "elị": 3980,
  "et": 3981,
  "bịbịa": 3982,
  "burg": 3983,
  "bar": 3984,
  "bameyang": 3985,
  "asaba": 3986,
  "anyị . ”": 3987,
  "ahụhụ ,": 3988,
  "alo": 3989,
  "Zida": 3990,
  "Xenophobia": 3991,
  "Wole": 3992,
  "Wil": 3993,
  "UT": 3994,
  "Tinubu": 3995,
  "Solomon": 3996,
  "Siasia": 3997,
  "Secondary": 3998,
  "Russia": 3999,
  "Rock": 4000,
  "Rabi": 4001,
  "Powerful": 4002,
  "Per": 4003,
  "Palace": 4004,
  "Onwuamaegbu": 4005,
  "Obiora": 4006,
  "Otti": 4007,
  "Okwu": 4008,
  "Ngozi": 4009,
  "Neymar": 4010,
  "Nasara": 4011,
  "NPC": 4012,
  "NNPC": 4013,
  "Morsi": 4014,
  "Management": 4015,
  "Mc": 4016,
  "Lionel": 4017,
  "Kabi": 4018,
  "Ireland": 4019,
  "Haram .": 4020,
  "Hau": 4021,
  "HO": 4022,
  "Gan": 4023,
  "Emefiele": 4024,
  "Emmerson": 4025,
  "Chukwuma": 4026,
  "Chile": 4027,
  "Bridge": 4028,
  "Bale": 4029,
  "Bebe": 4030,
  "Aubameyang": 4031,
  "Anglịkan": 4032,
  "Alha": 4033,
  "Al-": 4034,
  "Abang": 4035,
  "Asi": 4036,
  "Akpa": 4037,
  "Agbo": 4038,
  "Abe": 4039,
  "47": 4040,
  "2012": 4041,
  "14 ,": 4042,
  "( gba": 4043,
  "( APC": 4044,
  " .  \" mana \"": 4045,
  "  \" o \"": 4046,
  "  \" dị": 4047,
  "“ na-e": 4048,
  "“ mmadụ": 4049,
  "“ le": 4050,
  "ụlọikwu": 4051,
  "ụlọikwuu": 4052,
  "ụkwụ ,": 4053,
  "ọrụ ?": 4054,
  "ọnịcha .": 4055,
  "ọdụm": 4056,
  "ọchịchịrị": 4057,
  "ọbịbịa": 4058,
  "ịba": 4059,
  "ị \"": 4060,
  "zon": 4061,
  "zbọ": 4062,
  "yemi": 4063,
  "we ,": 4064,
  "wal": 4065,
  "utu": 4066,
  "thur": 4067,
  "sọl": 4068,
  "sul": 4069,
  "siriri": 4070,
  "sir": 4071,
  "sin": 4072,
  "shington": 4073,
  "shia": 4074,
  "sanya": 4075,
  "ructu": 4076,
  "roc": 4077,
  "ribu": 4078,
  "reen": 4079,
  "re ;": 4080,
  "pastọ": 4081,
  "oriri .": 4082,
  "ogene": 4083,
  "odee": 4084,
  "odi": 4085,
  "nsụgharị": 4086,
  "nnupụ": 4087,
  "nna ,": 4088,
  "nkịrị": 4089,
  "ngwangwa": 4090,
  "neumonia": 4091,
  "nebuka": 4092,
  "nebukadne": 4093,
  "nchekwube": 4094,
  "nant": 4095,
  "nmi": 4096,
  "nja": 4097,
  "mad": 4098,
  "mson": 4099,
  "llion": 4100,
  "line": 4101,
  "life": 4102,
  "latịn": 4103,
  "la :": 4104,
  "kpando": 4105,
  "kpakpando": 4106,
  "kpi": 4107,
  "kedụ \"": 4108,
  "ker": 4109,
  "kara": 4110,
  "kapito": 4111,
  "ijipt ,": 4112,
  "ihe . ”": 4113,
  "igwe ,": 4114,
  "ire": 4115,
  "gọọmentị .": 4116,
  "frey": 4117,
  "fer": 4118,
  "enyemaka .": 4119,
  "election": 4120,
  "ekike": 4121,
  "ehi ,": 4122,
  "ekwo": 4123,
  "ebi": 4124,
  "diocese": 4125,
  "cie": 4126,
  "card": 4127,
  "bezbọ": 4128,
  "babịlọn": 4129,
  "awụsa": 4130,
  "asịrị": 4131,
  "arch": 4132,
  "anụmanụ .": 4133,
  "ala ?": 4134,
  "akwara": 4135,
  "Ya": 4136,
  "Weah": 4137,
  "Washington": 4138,
  "Thomson": 4139,
  "Thi": 4140,
  "Sule": 4141,
  "Sokoto": 4142,
  "Sla": 4143,
  "Regina": 4144,
  "Rede": 4145,
  "Radio": 4146,
  "Pneumonia": 4147,
  "Odume": 4148,
  "Oga": 4149,
  "Nsuk": 4150,
  "Mustapha": 4151,
  "Mat": 4152,
  "Leah": 4153,
  "Lassa": 4154,
  "Kingsley": 4155,
  "Kanu :": 4156,
  "Independent": 4157,
  "Hos": 4158,
  "Golden": 4159,
  "Fre": 4160,
  "Emzor": 4161,
  "Eliza": 4162,
  "Election :": 4163,
  "El-Rufai": 4164,
  "Ejiofor": 4165,
  "China .": 4166,
  "CC": 4167,
  "Buhari .": 4168,
  "Bob": 4169,
  "Arthur": 4170,
  "Allen": 4171,
  "Adinu": 4172,
  "90": 4173,
  "35": 4174,
  "2023 .": 4175,
  "2 - ": 4176,
  "13 )": 4177,
  "11 )": 4178,
  "( $": 4179,
  " ” .": 4180,
  " .  \" nke \"": 4181,
  "  \" e": 4182,
  "“ nke": 4183,
  "“ na-a": 4184,
  "ụtọ . ”": 4185,
  "ụgbọala ,": 4186,
  "ọkọchị": 4187,
  "ọta": 4188,
  "ọ ?": 4189,
  "Ọka": 4190,
  "Ọkafọ": 4191,
  "ịtụ": 4192,
  "ịtụna": 4193,
  "zara": 4194,
  "windo": 4195,
  "uru ?": 4196,
  "ultu": 4197,
  "uche .": 4198,
  "ut": 4199,
  "umu": 4200,
  "toma": 4201,
  "tiusde ,": 4202,
  "timi": 4203,
  "tico": 4204,
  "therland": 4205,
  "tel": 4206,
  "te :": 4207,
  "sus": 4208,
  "stant": 4209,
  "sman": 4210,
  "s )": 4211,
  "ructuring": 4212,
  "rocco": 4213,
  "ria .": 4214,
  "ria ,": 4215,
  "rate": 4216,
  "pụl": 4217,
  "pọtịfa": 4218,
  "praịma": 4219,
  "pse": 4220,
  "pper": 4221,
  "ory": 4222,
  "ole .": 4223,
  "oge \"": 4224,
  "obi . ”": 4225,
  "oba": 4226,
  "nzuzo ,": 4227,
  "nzuzu": 4228,
  "nwamkpị": 4229,
  "nuk": 4230,
  "nnupụisi": 4231,
  "nebọt": 4232,
  "ndụ . ”": 4233,
  "ndịisi": 4234,
  "nte": 4235,
  "mwere": 4236,
  "mpton": 4237,
  "mmehie .": 4238,
  "mkpọrọ ,": 4239,
  "mgbago": 4240,
  "men": 4241,
  "media": 4242,
  "mberede .": 4243,
  "mahadum ,": 4244,
  "lue": 4245,
  "los": 4246,
  "listra": 4247,
  "lebe": 4248,
  "lass": 4249,
  "kuzi": 4250,
  "kraịst . ”": 4251,
  "kenan": 4252,
  "kaliki": 4253,
  "jụ ,": 4254,
  "ision": 4255,
  "ilding": 4256,
  "ikom": 4257,
  "iberiibe": 4258,
  "gọọmentị \"": 4259,
  "ghani": 4260,
  "gboo ?": 4261,
  "frans": 4262,
  "ezie .": 4263,
  "eriri": 4264,
  "eprel ,": 4265,
  "ekperima": 4266,
  "efu .": 4267,
  "ebe \"": 4268,
  "ed": 4269,
  "dibịa": 4270,
  "curity": 4271,
  "che ,": 4272,
  "cou": 4273,
  "ca .": 4274,
  "bịafra .": 4275,
  "bio": 4276,
  "atụ .": 4277,
  "anyanwụ ,": 4278,
  "amaokwu": 4279,
  "ahụ ;": 4280,
  "abakaliki": 4281,
  "at": 4282,
  "agwọ": 4283,
  "WHO": 4284,
  "Vene": 4285,
  "Vir": 4286,
  "Uloma": 4287,
  "Ter": 4288,
  "South ,": 4289,
  "Soludo": 4290,
  "Swe": 4291,
  "Sanusi": 4292,
  "Rotimi": 4293,
  "Roma": 4294,
  "Red": 4295,
  "PDP .": 4296,
  "Open": 4297,
  "Onyebu": 4298,
  "Odumegwu": 4299,
  "Oma": 4300,
  "Of": 4301,
  "Odo": 4302,
  "Nwoko": 4303,
  "Mur": 4304,
  "Morocco": 4305,
  "Mogha": 4306,
  "Milan": 4307,
  "Mary": 4308,
  "Libe": 4309,
  "Joshua": 4310,
  "Innocent": 4311,
  "Idigo": 4312,
  "Ibadan": 4313,
  "Ije": 4314,
  "Ide": 4315,
  "Highlife": 4316,
  "Henry": 4317,
  "Harry": 4318,
  "Godwin": 4319,
  "Fashola": 4320,
  "Fani": 4321,
  "FAAN": 4322,
  "Elkana": 4323,
  "Emi": 4324,
  "Day :": 4325,
  "Den": 4326,
  "Coa": 4327,
  "Chisom": 4328,
  "Chinu": 4329,
  "Cathe": 4330,
  "CAF": 4331,
  "Border": 4332,
  "Binta": 4333,
  "Bol": 4334,
  "Alhaji": 4335,
  "Adams": 4336,
  "Achuzi": 4337,
  "Aya": 4338,
  "Ari": 4339,
  "Ango": 4340,
  "43": 4341,
  "39": 4342,
  "2 :": 4343,
  "10 )": 4344,
  "1.": 4345,
  " .  \" akụkọ \"": 4346,
  " .  \" a \"": 4347,
  "“ okwu": 4348,
  "“ nna": 4349,
  "ụwa . ”": 4350,
  "ụmụaka ,": 4351,
  "ụgwọ ,": 4352,
  "ọmụma": 4353,
  "ọhịa ,": 4354,
  "ọgọst .": 4355,
  "ọgwụ ,": 4356,
  "ọha .": 4357,
  "ị ,": 4358,
  "zị ,": 4359,
  "ying": 4360,
  "unu . ”": 4361,
  "unu ,": 4362,
  "umengwụ": 4363,
  "ulga": 4364,
  "ugbo .": 4365,
  "unyi": 4366,
  "uhi": 4367,
  "tunde": 4368,
  "tebụl": 4369,
  "tter": 4370,
  "sị ,  \" ": 4371,
  "stitu": 4372,
  "sation": 4373,
  "s \"": 4374,
  "rison": 4375,
  "rence": 4376,
  "refe": 4377,
  "praịmarị": 4378,
  "pound": 4379,
  "ozugbo ,": 4380,
  "ozubulu": 4381,
  "owerri ,": 4382,
  "otuto": 4383,
  "otu  \" ": 4384,
  "ogiri": 4385,
  "oye": 4386,
  "obu": 4387,
  "nụ ?": 4388,
  "nwe ,": 4389,
  "ntụliaka ,": 4390,
  "ntial": 4391,
  "nnochite": 4392,
  "nnes": 4393,
  "nley": 4394,
  "nkewa": 4395,
  "ning": 4396,
  "ndụ ?": 4397,
  "ndidi": 4398,
  "nchekwa .": 4399,
  "nkarị": 4400,
  "ngọ": 4401,
  "ngwu": 4402,
  "mola": 4403,
  "mbịarambịara": 4404,
  "maka \"": 4405,
  "mamị": 4406,
  "lụ .": 4407,
  "lịka": 4408,
  "legọs ,": 4409,
  "league": 4410,
  "la ?": 4411,
  "lying": 4412,
  "kwara": 4413,
  "kunle": 4414,
  "kanda": 4415,
  "jizọs ?": 4416,
  "izuu": 4417,
  "izu .": 4418,
  "izizi": 4419,
  "imon": 4420,
  "ig .": 4421,
  "ham ,": 4422,
  "gbu ,": 4423,
  "gbo ,": 4424,
  "ggi": 4425,
  "fia": 4426,
  "fe .": 4427,
  "face": 4428,
  "etiti ,": 4429,
  "elle": 4430,
  "ekeresimesi": 4431,
  "ebere .": 4432,
  "ebere ,": 4433,
  "ebee": 4434,
  "ebe .": 4435,
  "ex": 4436,
  "em": 4437,
  "dor": 4438,
  "dral": 4439,
  "dd": 4440,
  "chez": 4441,
  "city": 4442,
  "blọ": 4443,
  "arack": 4444,
  "ase": 4445,
  "arụ .": 4446,
  "agboro": 4447,
  "________________": 4448,
  "Van": 4449,
  "Uchendu": 4450,
  "Tunisia": 4451,
  "Thai": 4452,
  "Security": 4453,
  "Sanchez": 4454,
  "Sadio": 4455,
  "Simon": 4456,
  "Presidential": 4457,
  "Police": 4458,
  "Poly": 4459,
  "Pan": 4460,
  "PVC": 4461,
  "PP": 4462,
  "Onyeama": 4463,
  "Ogbonna": 4464,
  "Ogbodo": 4465,
  "Oby": 4466,
  "Nimo": 4467,
  "Netherland": 4468,
  "Ndidi": 4469,
  "Mali": 4470,
  "Mozi": 4471,
  "Mma": 4472,
  "Labour": 4473,
  "Ly": 4474,
  "Kore": 4475,
  "Klint": 4476,
  "Josef ,": 4477,
  "Iya": 4478,
  "Hong": 4479,
  "Holy": 4480,
  "Gea": 4481,
  "Gandu": 4482,
  "Gana": 4483,
  "Friday": 4484,
  "FaceApp": 4485,
  "Flying": 4486,
  "Ekweremadu :": 4487,
  "Evan": 4488,
  "Eri": 4489,
  "Eke": 4490,
  "Ebe": 4491,
  "ER": 4492,
  "Cathedral": 4493,
  "Ci": 4494,
  "Burnley": 4495,
  "Bau": 4496,
  "Barack": 4497,
  "Ahmad": 4498,
  "Afghani": 4499,
  "Adinuba": 4500,
  "AIT": 4501,
  "Azu": 4502,
  "Awo": 4503,
  "Achi": 4504,
  "88": 4505,
  "77": 4506,
  "19 )": 4507,
  "187": 4508,
  "17 )": 4509,
  "15 )": 4510,
  "1 - ": 4511,
  "...": 4512,
  "-Olu": 4513,
  "“ si": 4514,
  "“ mụ": 4515,
  "ụgụ": 4516,
  "ọchị ,": 4517,
  "ọbọgwụ": 4518,
  "zuruike": 4519,
  "zation": 4520,
  "ya . ,": 4521,
  "ven": 4522,
  "vage": 4523,
  "vision": 4524,
  "ugbua": 4525,
  "tọzde ,": 4526,
  "tors": 4527,
  "thle": 4528,
  "tebulu": 4529,
  "sị ;": 4530,
  "surance": 4531,
  "stone": 4532,
  "ssey": 4533,
  "social": 4534,
  "shir": 4535,
  "sekọndrị": 4536,
  "rant": 4537,
  "pụ ,": 4538,
  "partment": 4539,
  "patị": 4540,
  "pa ,": 4541,
  "oyi ,": 4542,
  "okwu ?": 4543,
  "ogologo .": 4544,
  "ogidi ,": 4545,
  "ojo": 4546,
  "nwunye ,": 4547,
  "ntọrọ": 4548,
  "ntanet": 4549,
  "nnekwu": 4550,
  "nne ,": 4551,
  "nkwupụta": 4552,
  "nkuzi ,": 4553,
  "nkesa": 4554,
  "ngwere": 4555,
  "ngozi": 4556,
  "ndị .": 4557,
  "nche ,": 4558,
  "na-i": 4559,
  "mpard": 4560,
  "mood": 4561,
  "mmekọahụ": 4562,
  "mgbe .": 4563,
  "mgbagha": 4564,
  "mber": 4565,
  "lity": 4566,
  "letico": 4567,
  "land .": 4568,
  "lapse": 4569,
  "lag": 4570,
  "kọpta": 4571,
  "kwụ .": 4572,
  "kwaraji": 4573,
  "kpa .": 4574,
  "kirie": 4575,
  "kepukepu": 4576,
  "kampanọs": 4577,
  "ka-": 4578,
  "jenesis": 4579,
  "jamanị .": 4580,
  "jani": 4581,
  "ike ?": 4582,
  "ike . ”": 4583,
  "isu": 4584,
  "intanet": 4585,
  "huabu": 4586,
  "gị . ”": 4587,
  "ghts": 4588,
  "ghe ,": 4589,
  "genous": 4590,
  "garde": 4591,
  "gawa": 4592,
  "fịọ": 4593,
  "fu .": 4594,
  "fred": 4595,
  "fety": 4596,
  "esere": 4597,
  "ekwentị ,": 4598,
  "ero": 4599,
  "deau": 4600,
  "daura": 4601,
  "cation": 4602,
  "bịafra ,": 4603,
  "berg": 4604,
  "beth": 4605,
  "be ,": 4606,
  "bank": 4607,
  "aịza": 4608,
  "atụrụ ,": 4609,
  "asọmpi .": 4610,
  "anụmanụ ,": 4611,
  "anyanwụ .": 4612,
  "anyasị": 4613,
  "an ,": 4614,
  "alụkwaghịm .": 4615,
  "akpati": 4616,
  "as": 4617,
  "apa": 4618,
  "a ;": 4619,
  "Zidane": 4620,
  "Usman": 4621,
  "Ugo": 4622,
  "Techno": 4623,
  "TA": 4624,
  "Social": 4625,
  "Secondu": 4626,
  "Selari": 4627,
  "Savage": 4628,
  "Stan": 4629,
  "Romne": 4630,
  "Paki": 4631,
  "Por": 4632,
  "Oscars": 4633,
  "Okorie": 4634,
  "Okwaraji": 4635,
  "Okpa": 4636,
  "Ohuabu": 4637,
  "Nasarawa": 4638,
  "Nasir": 4639,
  "NC": 4640,
  "NAP": 4641,
  "Morrison": 4642,
  "Mark": 4643,
  "Malay": 4644,
  "Mahmood": 4645,
  "Maria": 4646,
  "MM": 4647,
  "London .": 4648,
  "Leban": 4649,
  "Lampard": 4650,
  "Lagarde": 4651,
  "Kwara": 4652,
  "Jeremy": 4653,
  "Indigenous": 4654,
  "Iko": 4655,
  "Hollywood": 4656,
  "Ganduje": 4657,
  "Gir": 4658,
  "Fund": 4659,
  "Football": 4660,
  "Fai": 4661,
  "Fir": 4662,
  "FR": 4663,
  "England .": 4664,
  "Edward": 4665,
  "Eid": 4666,
  "Dick": 4667,
  "Department": 4668,
  "Dandaura": 4669,
  "Dr": 4670,
  "Cyber": 4671,
  "Crime": 4672,
  "Corpo": 4673,
  "Califor": 4674,
  "Court": 4675,
  "Benue ,": 4676,
  "Belgi": 4677,
  "Bill": 4678,
  "Ball": 4679,
  "Atletico": 4680,
  "Asse": 4681,
  "Aminu": 4682,
  "Ajayi": 4683,
  "Adesanya": 4684,
  "Austin": 4685,
  "Akwu": 4686,
  "Ac": 4687,
  "9.": 4688,
  "55": 4689,
  "20 )": 4690,
  "-N": 4691,
  "( APC )": 4692,
  "''": 4693,
  "  \" . \" \" ": 4694,
  "“ abụ": 4695,
  "ụtụtụ .": 4696,
  "ụlọụka .": 4697,
  "ụlọikpe ,": 4698,
  "ụsa": 4699,
  "ụbịa": 4700,
  "ụbịam": 4701,
  "ọnụnụ": 4702,
  "ọnụma": 4703,
  "ọdịnihu ?": 4704,
  "ọnyụ": 4705,
  "ọmị": 4706,
  "zue": 4707,
  "yan": 4708,
  "welle": 4709,
  "urta": 4710,
  "urtado": 4711,
  "ubi ,": 4712,
  "ts": 4713,
  "tle": 4714,
  "sic": 4715,
  "septemba .": 4716,
  "saịt": 4717,
  "satọdee .": 4718,
  "sal": 4719,
  "sk": 4720,
  "rụ  \" ": 4721,
  "rum": 4722,
  "rom .": 4723,
  "risti": 4724,
  "ries :": 4725,
  "ries": 4726,
  "reth": 4727,
  "raq": 4728,
  "rac": 4729,
  "puku ,": 4730,
  "prote": 4731,
  "pal": 4732,
  "ozu ,": 4733,
  "ozie": 4734,
  "okwukwe .": 4735,
  "obere ,": 4736,
  "onu": 4737,
  "nzere": 4738,
  "nwaanyị ?": 4739,
  "nnọchi": 4740,
  "nnaba": 4741,
  "nite": 4742,
  "ngụkọ": 4743,
  "nger": 4744,
  "ng :": 4745,
  "nebukadneza": 4746,
  "nment": 4747,
  "nko": 4748,
  "nike": 4749,
  "mpa": 4750,
  "mouth": 4751,
  "mmeri .": 4752,
  "midia ,": 4753,
  "mise": 4754,
  "mamịrị": 4755,
  "maị": 4756,
  "mpụta": 4757,
  "ling": 4758,
  "llo": 4759,
  "kọrị": 4760,
  "kpamkpam .": 4761,
  "kpamkpam": 4762,
  "julaị .": 4763,
  "inọk .": 4764,
  "iko ,": 4765,
  "ijere": 4766,
  "igbo :": 4767,
  "ila": 4768,
  "ha  \" ": 4769,
  "gịnị \"": 4770,
  "gu ,": 4771,
  "gidi": 4772,
  "egwuregwu .": 4773,
  "dium": 4774,
  "dian": 4775,
  "ckle": 4776,
  "cience": 4777,
  "chukwu ,": 4778,
  "ctri": 4779,
  "baịbụl . ”": 4780,
  "bsi": 4781,
  "aịzik": 4782,
  "atorial": 4783,
  "anti": 4784,
  "ant": 4785,
  "akpụ .": 4786,
  "akpịrị": 4787,
  "akari": 4788,
  "ahụhụ ?": 4789,
  "aha ,": 4790,
  "adịgboroja .": 4791,
  "abụ ;": 4792,
  "anwa": 4793,
  "ani": 4794,
  "aa": 4795,
  "YouTu": 4796,
  "Wo": 4797,
  "Virgi": 4798,
  "Valen": 4799,
  "Twitter .": 4800,
  "Tijani": 4801,
  "Tammy": 4802,
  "Tai": 4803,
  "Tar": 4804,
  "TIP": 4805,
  "Sweden": 4806,
  "Sickle": 4807,
  "Safety": 4808,
  "Sky": 4809,
  "Sco": 4810,
  "Science": 4811,
  "Rita": 4812,
  "Ray": 4813,
  "Queens": 4814,
  "Promise": 4815,
  "President": 4816,
  "Philip": 4817,
  "Patrick": 4818,
  "PDP ,": 4819,
  "Organisation": 4820,
  "Onyebuchi": 4821,
  "Onumah": 4822,
  "Okeke ,": 4823,
  "Ohuabunwa": 4824,
  "Odekpe": 4825,
  "Obama ,": 4826,
  "Okpo": 4827,
  "Oka": 4828,
  "Ok": 4829,
  "OG": 4830,
  "Nwagbara": 4831,
  "Nsukka": 4832,
  "Nigeria .": 4833,
  "News": 4834,
  "NBC": 4835,
  "NAPTIP": 4836,
  "NEMA": 4837,
  "Moghalu": 4838,
  "Madagaska": 4839,
  "Liberia": 4840,
  "Light": 4841,
  "Lig": 4842,
  "Laf": 4843,
  "Ken": 4844,
  "Julius": 4845,
  "Jordan": 4846,
  "Jong-un": 4847,
  "Jessi": 4848,
  "Iraq": 4849,
  "House": 4850,
  "Hospital": 4851,
  "Fire": 4852,
  "Fr .": 4853,
  "Fou": 4854,
  "Fin": 4855,
  "Evans": 4856,
  "Equatorial": 4857,
  "Ekweremadu .": 4858,
  "EF": 4859,
  "EE": 4860,
  "Chukwudi": 4861,
  "Chu": 4862,
  "Centre": 4863,
  "Cal": 4864,
  "Building": 4865,
  "Boston": 4866,
  "Boni": 4867,
  "Bible": 4868,
  "Babatunde": 4869,
  "Bassey": 4870,
  "Bashir": 4871,
  "BS": 4872,
  "Augusti": 4873,
  "Angola": 4874,
  "Anao": 4875,
  "Amaraizu": 4876,
  "Amazon": 4877,
  "Alexandra": 4878,
  "Akpabio": 4879,
  "Ajax": 4880,
  "Afghanistan": 4881,
  "Adeye": 4882,
  "Adamawa": 4883,
  "Adam .": 4884,
  "Ayo": 4885,
  "Aston": 4886,
  "Akwa": 4887,
  "Aki": 4888,
  "85": 4889,
  "80": 4890,
  "46": 4891,
  "2013 .": 4892,
  "2011": 4893,
  "1 ;": 4894,
  "- 5": 4895,
  " .  \" a": 4896,
  " \" \" , \"": 4897,
  "  \" ma \"": 4898,
  "  \" kwu": 4899,
  "“ oge": 4900,
  "“ gịnị": 4901,
  "“ ezi": 4902,
  "ụtọ ?": 4903,
  "ụtarị": 4904,
  "ụlọọgwụ ,": 4905,
  "ụbọ": 4906,
  "ụkpụrụ": 4907,
  "ọma ?": 4908,
  "ọlị .": 4909,
  "ọktoba ,": 4910,
  "ọjọọ ?": 4911,
  "ọgwụgwọ .": 4912,
  "ọgbata": 4913,
  "ọchụchụ": 4914,
  "ọchanja": 4915,
  "ọf": 4916,
  "ịs": 4917,
  "zo .": 4918,
  "zi ,": 4919,
  "zer": 4920,
  "za .": 4921,
  "webụ": 4922,
  "webụsaịt": 4923,
  "wọ": 4924,
  "via": 4925,
  "venant": 4926,
  "uru . ”": 4927,
  "ure": 4928,
  "ukpo": 4929,
  "uhuru": 4930,
  "tọ ,": 4931,
  "ttack": 4932,
  "tomato": 4933,
  "tlehe": 4934,
  "thaniel": 4935,
  "tenis": 4936,
  "te ?": 4937,
  "sọlọ": 4938,
  "sị :  \" anyị \"": 4939,
  "sịga .": 4940,
  "sts": 4941,
  "ssy": 4942,
  "sola": 4943,
  "sista": 4944,
  "server": 4945,
  "sara": 4946,
  "scu": 4947,
  "rọd": 4948,
  "ru ,  \" ": 4949,
  "ristiano": 4950,
  "ret": 4951,
  "rector": 4952,
  "plo": 4953,
  "owuwe": 4954,
  "otu \"": 4955,
  "osikapa ,": 4956,
  "onye .": 4957,
  "olili": 4958,
  "okike": 4959,
  "oghere": 4960,
  "offrey": 4961,
  "obosi": 4962,
  "nzuzo .": 4963,
  "nwata ,": 4964,
  "nwaa": 4965,
  "nuklia": 4966,
  "nta ,": 4967,
  "nton": 4968,
  "nnewi ,": 4969,
  "nke ,": 4970,
  "nica": 4971,
  "nhata": 4972,
  "ngapo": 4973,
  "na  \" ọ \"": 4974,
  "nse": 4975,
  "ns": 4976,
  "nrọ .": 4977,
  "mwereonwe": 4978,
  "mum": 4979,
  "mpụ ,": 4980,
  "mpany": 4981,
  "mmemme .": 4982,
  "mmemme ,": 4983,
  "mmadụ . ”": 4984,
  "mmanya ,": 4985,
  "mer": 4986,
  "mbọmbọ": 4987,
  "mbode": 4988,
  "m !": 4989,
  "lụ ,": 4990,
  "lum": 4991,
  "lub": 4992,
  "listi": 4993,
  "lim": 4994,
  "latrik ,": 4995,
  "kọ .": 4996,
  "kpo ,": 4997,
  "ke .": 4998,
  "katọlik ,": 4999,
  "itoolu .": 5000,
  "isisi": 5001,
  "inde": 5002,
  "ihe ?": 5003,
  "igwe .": 5004,
  "ichi": 5005,
  "hannes": 5006,
  "hong": 5007,
  "gue": 5008,
  "gramme": 5009,
  "gbụrụ": 5010,
  "ga ?": 5011,
  "field": 5012,
  "fe ,": 5013,
  "eserese": 5014,
  "emene": 5015,
  "ekpere ?": 5016,
  "ehi .": 5017,
  "egbe ,": 5018,
  "echi .": 5019,
  "echi ,": 5020,
  "ege": 5021,
  "ebo": 5022,
  "dom": 5023,
  "deji": 5024,
  "d ,": 5025,
  "collapse": 5026,
  "charis": 5027,
  "cement": 5028,
  "briten ,": 5029,
  "bor": 5030,
  "blọk": 5031,
  "bishop": 5032,
  "aịzaya": 5033,
  "arụrụala": 5034,
  "anca": 5035,
  "amawbịa ,": 5036,
  "amam": 5037,
  "akịrịka .": 5038,
  "akum": 5039,
  "ahụike": 5040,
  "ada .": 5041,
  "ale": 5042,
  "acha": 5043,
  "Zu": 5044,
  "Yoakum": 5045,
  "Unilag": 5046,
  "USS": 5047,
  "USSD": 5048,
  "Twitter ,": 5049,
  "Tony": 5050,
  "Thailand": 5051,
  "Stanley": 5052,
  "Singapo": 5053,
  "Sharibu": 5054,
  "Selariọs": 5055,
  "Seme": 5056,
  "Sri": 5057,
  "Primaries :": 5058,
  "Okorocha :": 5059,
  "Obina": 5060,
  "Ozo": 5061,
  "Ori": 5062,
  "Ona": 5063,
  "Old": 5064,
  "Offi": 5065,
  "Nwabu": 5066,
  "Nathaniel": 5067,
  "N )": 5068,
  "Muelle": 5069,
  "Monday": 5070,
  "Mmaku": 5071,
  "Minimum": 5072,
  "March": 5073,
  "Madagascar": 5074,
  "Mata": 5075,
  "Mal": 5076,
  "Maku": 5077,
  "Luka": 5078,
  "Lagos ,": 5079,
  "Lin": 5080,
  "Kano ,": 5081,
  "Job ,": 5082,
  "Johannes": 5083,
  "Jehova": 5084,
  "Insurance": 5085,
  "Iheana": 5086,
  "Izu": 5087,
  "Hunt": 5088,
  "Herọd": 5089,
  "Guar": 5090,
  "Girls": 5091,
  "Ghost": 5092,
  "Geoffrey": 5093,
  "Furtado": 5094,
  "Fina": 5095,
  "Fer": 5096,
  "Emema": 5097,
  "Elizabeth": 5098,
  "EEDC": 5099,
  "Ekpe": 5100,
  "Coscharis": 5101,
  "Corporation": 5102,
  "Corne": 5103,
  "Confe": 5104,
  "Covenant": 5105,
  "Code": 5106,
  "Chika": 5107,
  "Chieji": 5108,
  "Championship": 5109,
  "Cristiano": 5110,
  "Cole": 5111,
  "Cala": 5112,
  "CAN": 5113,
  "Buhari :": 5114,
  "Bianca": 5115,
  "Benson": 5116,
  "Augustine": 5117,
  "August": 5118,
  "Assemb": 5119,
  "Amuneke": 5120,
  "Aliyu": 5121,
  "Ata": 5122,
  "Anne": 5123,
  "Ambode": 5124,
  "Agwu": 5125,
  "95": 5126,
  "8.": 5127,
  "32": 5128,
  "1999": 5129,
  "000 )": 5130,
  "( nke": 5131,
  "( IPOB": 5132,
  " .  \" e \"": 5133,
  "“ ụmụ": 5134,
  "“ nwa": 5135,
  "“ ga-": 5136,
  "ụsọ": 5137,
  "ụmị": 5138,
  "ọzọ .  \" ": 5139,
  "ọtụtụ .": 5140,
  "ọhanaeze ,": 5141,
  "ọgọdọ": 5142,
  "ọgbatauhie": 5143,
  "ọgbakọ .": 5144,
  "ọfụma ,": 5145,
  "ọbara .": 5146,
  "ọzara": 5147,
  "ịị": 5148,
  "ị .": 5149,
  "za ,": 5150,
  "ya . )": 5151,
  "witzer": 5152,
  "vootu .": 5153,
  "vere": 5154,
  "uhie ,": 5155,
  "ugboguru .": 5156,
  "use": 5157,
  "ud": 5158,
  "tịnkọ": 5159,
  "tumtum": 5160,
  "ttee": 5161,
  "toph": 5162,
  "topher": 5163,
  "tis": 5164,
  "tice": 5165,
  "thew": 5166,
  "thampton": 5167,
  "sting": 5168,
  "ssan": 5169,
  "so ,": 5170,
  "septemba ,": 5171,
  "sekọndị": 5172,
  "sekọndịrị": 5173,
  "satọde ,": 5174,
  "risky": 5175,
  "ri ?": 5176,
  "rency": 5177,
  "redio": 5178,
  "rechi": 5179,
  "real": 5180,
  "re-": 5181,
  "re . ”": 5182,
  "re  \" ": 5183,
  "ranozie": 5184,
  "ra  \" ": 5185,
  "rto": 5186,
  "rgency": 5187,
  "pope": 5188,
  "paị": 5189,
  "pịa": 5190,
  "pri": 5191,
  "phi": 5192,
  "ozuzu": 5193,
  "ourne": 5194,
  "ournemouth": 5195,
  "otuto .": 5196,
  "okpukperechi": 5197,
  "okpokoro": 5198,
  "ojoro": 5199,
  "ogbenye .": 5200,
  "obiọma .": 5201,
  "oro": 5202,
  "oka": 5203,
  "nzukọ ,": 5204,
  "nzaghachi ,": 5205,
  "nzaghachi": 5206,
  "nwaanyị \"": 5207,
  "nwịị": 5208,
  "ntina": 5209,
  "ntaakụkọ .": 5210,
  "now": 5211,
  "nnabata": 5212,
  "nkịta .": 5213,
  "nkwụsị": 5214,
  "nkuzi .": 5215,
  "njedebe .": 5216,
  "niu": 5217,
  "nia .": 5218,
  "ndapụta": 5219,
  "ntụtụ": 5220,
  "mwepụ": 5221,
  "musu": 5222,
  "mmezu": 5223,
  "mited": 5224,
  "mgba .": 5225,
  "mberg": 5226,
  "mba !": 5227,
  "maatụ": 5228,
  "mani": 5229,
  "maja": 5230,
  "mkp": 5231,
  "lọt": 5232,
  "listia": 5233,
  "lish": 5234,
  "kọ ,": 5235,
  "kwo ,": 5236,
  "krisma": 5237,
  "jekwu": 5238,
  "ject": 5239,
  "izuuka .": 5240,
  "iza": 5241,
  "iman": 5242,
  "hụ .": 5243,
  "hụ ,": 5244,
  "her": 5245,
  "gụ .": 5246,
  "gọvanọ \"": 5247,
  "gịnwa": 5248,
  "gwụ .": 5249,
  "gine": 5250,
  "gege": 5251,
  "fite": 5252,
  "filistia": 5253,
  "emed": 5254,
  "ekwentị .": 5255,
  "ekele ,": 5256,
  "ekene": 5257,
  "eke ,": 5258,
  "efu ,": 5259,
  "ewo": 5260,
  "ee .": 5261,
  "e-": 5262,
  "e :": 5263,
  "dum .": 5264,
  "devid .": 5265,
  "devid ,": 5266,
  "de ,": 5267,
  "daalụ": 5268,
  "cking": 5269,
  "ciety": 5270,
  "chọ .": 5271,
  "cade": 5272,
  "cord": 5273,
  "clo": 5274,
  "briten .": 5275,
  "bishọọpụ": 5276,
  "bisi": 5277,
  "bas": 5278,
  "alert": 5279,
  "akụkọ ,": 5280,
  "akịrịka ,": 5281,
  "agụ ,": 5282,
  "agwaetiti": 5283,
  "afụ": 5284,
  "afana": 5285,
  "adres": 5286,
  "abụba": 5287,
  "ane": 5288,
  "York .": 5289,
  "Walter": 5290,
  "Vin": 5291,
  "VAR": 5292,
  "UNI": 5293,
  "Trudeau": 5294,
  "Traffi": 5295,
  "Tarrant": 5296,
  "Southampton": 5297,
  "Society": 5298,
  "Sambi": 5299,
  "Squ": 5300,
  "Sp": 5301,
  "Son": 5302,
  "Sime": 5303,
  "Rogers": 5304,
  "Rev .": 5305,
  "Redeemed": 5306,
  "Rabiu": 5307,
  "Ral": 5308,
  "Programme": 5309,
  "Plateau :": 5310,
  "Papa": 5311,
  "Py": 5312,
  "PF": 5313,
  "Oyede": 5314,
  "Ogbonnaya": 5315,
  "Ower": 5316,
  "Opa": 5317,
  "Ome": 5318,
  "Oji": 5319,
  "Netherlands": 5320,
  "Ndubuaku": 5321,
  "NBS": 5322,
  "Nze": 5323,
  "Nne": 5324,
  "Nike": 5325,
  "Muhammad": 5326,
  "Muhammed": 5327,
  "Mozis": 5328,
  "Motors": 5329,
  "Most": 5330,
  "Mone": 5331,
  "Matthew": 5332,
  "Marc": 5333,
  "Madume": 5334,
  "Mane": 5335,
  "Lukaku": 5336,
  "Limited": 5337,
  "Lady": 5338,
  "LE": 5339,
  "Kongo": 5340,
  "Kanu .": 5341,
  "Kachi": 5342,
  "Kan": 5343,
  "Janet": 5344,
  "INEC ,": 5345,
  "Iwe": 5346,
  "Hadi": 5347,
  "Gareth": 5348,
  "Gree": 5349,
  "Gala": 5350,
  "Flori": 5351,
  "Faith": 5352,
  "Fiji": 5353,
  "Engine": 5354,
  "Ememanka": 5355,
  "Electri": 5356,
  "Ebreham ,": 5357,
  "Easter": 5358,
  "Danju": 5359,
  "Dou": 5360,
  "Christine": 5361,
  "Christopher": 5362,
  "Chinua": 5363,
  "Chinwe": 5364,
  "Child": 5365,
  "Cheri": 5366,
  "Celestine": 5367,
  "Buhari \"": 5368,
  "Bruce": 5369,
  "Broad": 5370,
  "Boniface": 5371,
  "Bobrisky": 5372,
  "Black \"": 5373,
  "Bauchi": 5374,
  "Balo": 5375,
  "Bournemouth": 5376,
  "Baka": 5377,
  "Bafana": 5378,
  "Ayamelu": 5379,
  "Assembly": 5380,
  "Arge": 5381,
  "Adam ,": 5382,
  "Am": 5383,
  "Ak": 5384,
  "Ado": 5385,
  "Acade": 5386,
  "ADC": 5387,
  "97": 5388,
  "84": 5389,
  "70": 5390,
  "38": 5391,
  "31": 5392,
  "28 ,": 5393,
  "2014 ,": 5394,
  "2013 ,": 5395,
  "2010 .": 5396,
  "2010": 5397,
  "200 ,": 5398,
  "29 )": 5399,
  "27 ,": 5400,
  "1970": 5401,
  "1914 .": 5402,
  "19 ,": 5403,
  "16 ,": 5404,
  "16 )": 5405,
  "1000": 5406,
  "-Ob": 5407,
  "( IPOB )": 5408,
  "( ma": 5409,
  "( bụ": 5410,
  "( APGA": 5411,
  "( 3": 5412,
  " .  \" dị": 5413,
  "  \" mgbe \"": 5414,
  "“ ụwa": 5415,
  "“ ya": 5416,
  "ụtazị": 5417,
  "ụlọakụ ,": 5418,
  "ụkp": 5419,
  "ọṅụ .": 5420,
  "ọrụ  \" ": 5421,
  "ọnwụ ?": 5422,
  "ọma . ”": 5423,
  "ọlaọcha": 5424,
  "ọkụkọ ,": 5425,
  "ọdịnihu ,": 5426,
  "ọdachi .": 5427,
  "ọbara ,": 5428,
  "ọha ,": 5429,
  "ịtụnanya": 5430,
  "ịchafụ .": 5431,
  "zọma": 5432,
  "zị .": 5433,
  "yurop .": 5434,
  "ya . ” )": 5435,
  "yamo": 5436,
  "ya ”": 5437,
  "ya  \" . \"": 5438,
  "you": 5439,
  "wuji": 5440,
  "wei": 5441,
  "will": 5442,
  "visa \" \" ": 5443,
  "viso": 5444,
  "visory": 5445,
  "verend": 5446,
  "vaị": 5447,
  "vation": 5448,
  "ving": 5449,
  "vil": 5450,
  "utical": 5451,
  "tutu": 5452,
  "ttah": 5453,
  "tock": 5454,
  "tiative": 5455,
  "tiu": 5456,
  "ting": 5457,
  "tere": 5458,
  "tech": 5459,
  "tar": 5460,
  "tro": 5461,
  "sị ?": 5462,
  "sult": 5463,
  "super": 5464,
  "sun": 5465,
  "structuring": 5466,
  "shuga": 5467,
  "setan .": 5468,
  "sper": 5469,
  "sle": 5470,
  "school": 5471,
  "rish .": 5472,
  "risi": 5473,
  "rick": 5474,
  "reescu": 5475,
  "paịlet": 5476,
  "pla": 5477,
  "oyi .": 5478,
  "osisi .": 5479,
  "or ,": 5480,
  "onye ,": 5481,
  "omimi": 5482,
  "okpom": 5483,
  "okoro": 5484,
  "ogbugbu": 5485,
  "odibo": 5486,
  "oni": 5487,
  "ogba": 5488,
  "ogbaru": 5489,
  "ocese": 5490,
  "nọ . ”": 5491,
  "nzute": 5492,
  "nwo-Olu": 5493,
  "nus": 5494,
  "nta .": 5495,
  "nrụrụaka .": 5496,
  "nrụrịtaụka": 5497,
  "nkịta ,": 5498,
  "nkwalite": 5499,
  "nkey": 5500,
  "nkatọ": 5501,
  "njem ,": 5502,
  "nitiative": 5503,
  "nio": 5504,
  "ngwọrọ": 5505,
  "nghọta .": 5506,
  "ney": 5507,
  "nduru": 5508,
  "ndaba": 5509,
  "nchara": 5510,
  "naịjirịa \"": 5511,
  "naira .": 5512,
  "nator": 5513,
  "nza": 5514,
  "ngi": 5515,
  "mus": 5516,
  "mpụ .": 5517,
  "mmehie ,": 5518,
  "mmanụ .": 5519,
  "mkpughe": 5520,
  "mgba ,": 5521,
  "medi": 5522,
  "mbụ ?": 5523,
  "mace": 5524,
  "maceutical": 5525,
  "lobe": 5526,
  "llam": 5527,
  "latrik .": 5528,
  "kwete": 5529,
  "kwa \"": 5530,
  "kristi": 5531,
  "kpo .": 5532,
  "kpam .": 5533,
  "ko ,": 5534,
  "katọlik .": 5535,
  "kh": 5536,
  "jeruselem .": 5537,
  "ime ?": 5538,
  "heli": 5539,
  "harmaceutical": 5540,
  "gịga": 5541,
  "gugu": 5542,
  "gozie": 5543,
  "gbị": 5544,
  "ewu .": 5545,
  "elịiza": 5546,
  "ejula": 5547,
  "ejije .": 5548,
  "ebili": 5549,
  "enwe": 5550,
  "ekpi": 5551,
  "du ,": 5552,
  "de .": 5553,
  "dan .": 5554,
  "cious": 5555,
  "chaị ,": 5556,
  "casting": 5557,
  "c .": 5558,
  "baby": 5559,
  "aịrish .": 5560,
  "ara ,": 5561,
  "art": 5562,
  "alụkwaghịm ,": 5563,
  "ala . ”": 5564,
  "alla": 5565,
  "al-": 5566,
  "akụnụba .": 5567,
  "akpụ ,": 5568,
  "aka :": 5569,
  "agụ .": 5570,
  "aghụghọ .": 5571,
  "adal": 5572,
  "abụọ )": 5573,
  "abụ .": 5574,
  "aba ,": 5575,
  "amaka": 5576,
  "akpụrụ": 5577,
  "agwu": 5578,
  "achi": 5579,
  "abọ": 5580,
  "Zuba": 5581,
  "YouTube": 5582,
  "Wi": 5583,
  "Vincent": 5584,
  "Visa": 5585,
  "Valencia": 5586,
  "Vale": 5587,
  "Uchenna": 5588,
  "Uzọma": 5589,
  "Uzor": 5590,
  "Toro": 5591,
  "Timothy": 5592,
  "Tele": 5593,
  "Syria .": 5594,
  "Suleiman": 5595,
  "Shiites": 5596,
  "Serge": 5597,
  "Secondus": 5598,
  "Sanwo-Olu": 5599,
  "Sali": 5600,
  "Sadi": 5601,
  "Switzer": 5602,
  "Spe": 5603,
  "Sil": 5604,
  "Romney": 5605,
  "RevolutionNow": 5606,
  "Reverend": 5607,
  "Restructuring": 5608,
  "Rome": 5609,
  "Pun": 5610,
  "Progressives": 5611,
  "Press": 5612,
  "Precious": 5613,
  "Portu": 5614,
  "Pier": 5615,
  "Pep": 5616,
  "Papado": 5617,
  "Palestine": 5618,
  "Pin": 5619,
  "Pharmaceutical": 5620,
  "Oyedepo": 5621,
  "Oshodi": 5622,
  "Oshoala": 5623,
  "Organization": 5624,
  "Oparanozie": 5625,
  "Onoja": 5626,
  "Onaga": 5627,
  "Okoye ,": 5628,
  "Okorocha ,": 5629,
  "Okoro": 5630,
  "Ogunye": 5631,
  "Ogbuata": 5632,
  "Obidi": 5633,
  "Ote": 5634,
  "Ora": 5635,
  "Olo": 5636,
  "Nwosu ,": 5637,
  "Nwachukwu ,": 5638,
  "Nweke": 5639,
  "NoBra": 5640,
  "Nnaji": 5641,
  "Niger ,": 5642,
  "National \"": 5643,
  "Nel": 5644,
  "Nadal": 5645,
  "Mohammed ,": 5646,
  "Mexico .": 5647,
  "Market": 5648,
  "Malaysia": 5649,
  "Mahre": 5650,
  "Mauri": 5651,
  "Mac": 5652,
  "Mbo": 5653,
  "MT": 5654,
  "Live": 5655,
  "Lion": 5656,
  "Lafia": 5657,
  "Kondu": 5658,
  "Keyamo": 5659,
  "Kya": 5660,
  "Johannesburg": 5661,
  "Jehovah": 5662,
  "Jesus": 5663,
  "Jim": 5664,
  "Ivory": 5665,
  "Italy .": 5666,
  "Institu": 5667,
  "Imohi": 5668,
  "Iheanacho": 5669,
  "Iw": 5670,
  "Ichi": 5671,
  "Heran": 5672,
  "Hausa": 5673,
  "Haram ,": 5674,
  "Her": 5675,
  "Han": 5676,
  "Government": 5677,
  "Freedo": 5678,
  "Force": 5679,
  "Forum": 5680,
  "Feli": 5681,
  "Father": 5682,
  "Farou": 5683,
  "FRSC": 5684,
  "FFK": 5685,
  "Free": 5686,
  "Fala": 5687,
  "Ezenwa": 5688,
  "Europa": 5689,
  "English": 5690,
  "Emergency": 5691,
  "Elisha": 5692,
  "Evo": 5693,
  "Eu": 5694,
  "Er": 5695,
  "E )": 5696,
  "Drunk": 5697,
  "Dogara": 5698,
  "Dickson": 5699,
  "Director": 5700,
  "Diocese": 5701,
  "Danjuma": 5702,
  "Du": 5703,
  "Dar": 5704,
  "Dana": 5705,
  "DR": 5706,
  "Courto": 5707,
  "Cosby": 5708,
  "Committee": 5709,
  "Company": 5710,
  "City .": 5711,
  "Chinedu": 5712,
  "Cata": 5713,
  "Club": 5714,
  "Cam": 5715,
  "CS": 5716,
  "CON": 5717,
  "Buhari ?": 5718,
  "Broadcasting": 5719,
  "Belgium": 5720,
  "Ballon": 5721,
  "Bulga": 5722,
  "Azubuike": 5723,
  "Andreescu": 5724,
  "Alade": 5725,
  "Akwuke": 5726,
  "Aguata": 5727,
  "Africa .": 5728,
  "Adeyeye": 5729,
  "Ademola": 5730,
  "Adebo": 5731,
  "Adazi": 5732,
  "Achuzia": 5733,
  "Abubakar ,": 5734,
  "Abaribe ,": 5735,
  "Abate": 5736,
  "Abagana": 5737,
  "Abdel": 5738,
  "Abba": 5739,
  "Athle": 5740,
  "Anto": 5741,
  "Amaka": 5742,
  "Akwete": 5743,
  "Aa": 5744,
  "AK": 5745,
  "ABS": 5746,
  "AAC": 5747,
  "800": 5748,
  "50 ,": 5749,
  "30 )": 5750,
  "36": 5751,
  "25 ,": 5752,
  "2019 ?": 5753,
  "2009 .": 5754,
  "2009": 5755,
  "22 ,": 5756,
  "2.": 5757,
  "180": 5758,
  "12 )": 5759,
  "10 .": 5760,
  "12 ,": 5761,
  "- 35": 5762,
  "( ya": 5763,
  "( U": 5764,
  "( PDP": 5765,
  "' ;": 5766,
  " ” ,": 5767,
  " ; ;": 5768,
  " .  \" onye \"": 5769,
  " .  \" che": 5770,
  " . )": 5771,
  " ! !": 5772,
  "  \" onye \"": 5773,
  "“ ugbu": 5774,
  "“ mba": 5775,
  "“ ebe": 5776,
  "“ bi": 5777,
  "“ agha": 5778,
  "“ [": 5779,
  "ụtara": 5780,
  "ụgha ,": 5781,
  "ụbụrụ .": 5782,
  "ụsụ": 5783,
  "ụrọ": 5784,
  "ọstralia .": 5785,
  "ọstralia": 5786,
  "ọrụ ;": 5787,
  "ọnyụpa": 5788,
  "ọnwụ . ”": 5789,
  "ọnwa ,": 5790,
  "ọmụmaatụ": 5791,
  "ọmajiji": 5792,
  "ọkai": 5793,
  "ọgbaaghara .": 5794,
  "ọgbaa": 5795,
  "ọgbaatumtum": 5796,
  "ọdụ .": 5797,
  "ọdụ ,": 5798,
  "ọdịnala ,": 5799,
  "ọyị": 5800,
  "ọpụrụiche": 5801,
  "ọn": 5802,
  "ịntaneti ,": 5803,
  "ịlaịsha": 5804,
  "ígw": 5805,
  "ígwé": 5806,
  "za ?": 5807,
  "ya .  \" ọ \"": 5808,
  "yne": 5809,
  "venti": 5810,
  "vention": 5811,
  "uruagụ": 5812,
  "ukwu . ”": 5813,
  "ugboro ,": 5814,
  "ugba": 5815,
  "tụ ,": 5816,
  "tịnkọm": 5817,
  "tory": 5818,
  "ties": 5819,
  "tican": 5820,
  "tala": 5821,
  "tal": 5822,
  "strike": 5823,
  "steeti ?": 5824,
  "standa": 5825,
  "standadị": 5826,
  "stịs": 5827,
  "ssama": 5828,
  "sion :": 5829,
  "sive": 5830,
  "shles": 5831,
  "shless": 5832,
  "shee": 5833,
  "setan ,": 5834,
  "satọdee ,": 5835,
  "san": 5836,
  "sale": 5837,
  "swi": 5838,
  "sso": 5839,
  "sli": 5840,
  "sla": 5841,
  "rusale": 5842,
  "re-Eme": 5843,
  "re-Emerick": 5844,
  "rey": 5845,
  "rewa": 5846,
  "remberg": 5847,
  "rable": 5848,
  "rby": 5849,
  "pịm": 5850,
  "poulos": 5851,
  "peeji": 5852,
  "pe ,": 5853,
  "ps": 5854,
  "otutu": 5855,
  "otu ?": 5856,
  "onyinyo": 5857,
  "olileanya .": 5858,
  "okpomọkụ": 5859,
  "okooko": 5860,
  "ohu ,": 5861,
  "ogbugbo": 5862,
  "obiano .": 5863,
  "obibi .": 5864,
  "ore": 5865,
  "onwu": 5866,
  "ona": 5867,
  "ola": 5868,
  "oh": 5869,
  "obe": 5870,
  "nyu": 5871,
  "nwụ ?": 5872,
  "nugwu": 5873,
  "ntaakụkọ ,": 5874,
  "nkwa .": 5875,
  "nkiri :": 5876,
  "nke  \" ": 5877,
  "njinji": 5878,
  "njeri": 5879,
  "njehie": 5880,
  "niile ”": 5881,
  "niile ;": 5882,
  "nian": 5883,
  "ng-": 5884,
  "ndọrịtaụka": 5885,
  "ndeewo": 5886,
  "ncha .": 5887,
  "nate": 5888,
  "nachukwu": 5889,
  "mund": 5890,
  "mpio": 5891,
  "mpe ,": 5892,
  "mmegide": 5893,
  "mmalite ,": 5894,
  "mkpu ,": 5895,
  "mgbu .": 5896,
  "mbọ .": 5897,
  "mbibi": 5898,
  "mbele": 5899,
  "mahadum .": 5900,
  "maachị ,": 5901,
  "loja": 5902,
  "logy": 5903,
  "lo ,": 5904,
  "llof": 5905,
  "lins": 5906,
  "lition": 5907,
  "lie": 5908,
  "lebe \"": 5909,
  "latịn .": 5910,
  "kọm": 5911,
  "kwelu": 5912,
  "kun": 5913,
  "krat": 5914,
  "kporo": 5915,
  "keredo": 5916,
  "karat": 5917,
  "kansa .": 5918,
  "kaadị": 5919,
  "ka :": 5920,
  "kki": 5921,
  "jọstịs": 5922,
  "jọn ,": 5923,
  "jiofor": 5924,
  "jeruselem ,": 5925,
  "jems": 5926,
  "izito": 5927,
  "iteghete .": 5928,
  "irika": 5929,
  "in ,": 5930,
  "ily": 5931,
  "ikpeazụ . ”": 5932,
  "ikenga": 5933,
  "ifo .": 5934,
  "ibe ,": 5935,
  "ibu ,": 5936,
  "hara": 5937,
  "gụ ,": 5938,
  "gọvanọ .": 5939,
  "gọvanọ ,": 5940,
  "gwụ ,": 5941,
  "goo": 5942,
  "godi": 5943,
  "ghe .": 5944,
  "gene": 5945,
  "gbere": 5946,
  "gration": 5947,
  "frans .": 5948,
  "febụwarị .": 5949,
  "femi": 5950,
  "fat": 5951,
  "fair": 5952,
  "ezie": 5953,
  "ewu ,": 5954,
  "erry": 5955,
  "elelebe \"": 5956,
  "ekpili": 5957,
  "egwuri": 5958,
  "ede ,": 5959,
  "eshia": 5960,
  "ecu": 5961,
  "dị . ”": 5962,
  "dola": 5963,
  "dimkpa ,": 5964,
  "dine": 5965,
  "dget": 5966,
  "dro": 5967,
  "dra": 5968,
  "ctober": 5969,
  "conc": 5970,
  "collapse :": 5971,
  "coal": 5972,
  "che .": 5973,
  "challa": 5974,
  "ca ,": 5975,
  "bịa ?": 5976,
  "bsidy": 5977,
  "bridge": 5978,
  "boolu": 5979,
  "belụ": 5980,
  "amawbịa": 5981,
  "alaka": 5982,
  "akụnụba ,": 5983,
  "akụ ,": 5984,
  "akpa .": 5985,
  "ajụjụọnụ": 5986,
  "ajụjụ .": 5987,
  "ahụ :": 5988,
  "agwa .": 5989,
  "aghara .": 5990,
  "agba .": 5991,
  "afor": 5992,
  "afa": 5993,
  "achara": 5994,
  "abụọ ;": 5995,
  "abụọ :": 5996,
  "atị": 5997,
  "amusu": 5998,
  "agọ": 5999,
  "Zimbabwe .": 6000,
  "Zine": 6001,
  "Young": 6002,
  "Wis": 6003,
  "Venezue": 6004,
  "Vatican": 6005,
  "Vo": 6006,
  "VAT": 6007,
  "United ,": 6008,
  "Umeh ,": 6009,
  "Udeogu": 6010,
  "Udemba ,": 6011,
  "Uchechi": 6012,
  "Ubani": 6013,
  "Ute :": 6014,
  "Trump ,": 6015,
  "Transfor": 6016,
  "Toronto": 6017,
  "Tochukwu": 6018,
  "Timi": 6019,
  "Tex": 6020,
  "Teodo": 6021,
  "Switzerland": 6022,
  "Sun": 6023,
  "Slam": 6024,
  "Singapore": 6025,
  "Services": 6026,
  "Sergi": 6027,
  "Sex": 6028,
  "School ,": 6029,
  "Saraki ,": 6030,
  "Sarah": 6031,
  "Saint": 6032,
  "SARS :": 6033,
  "Sport": 6034,
  "Sand": 6035,
  "Sama": 6036,
  "Qata": 6037,
  "Pyrite": 6038,
  "Project": 6039,
  "Port Harcourt .": 6040,
  "Pierre-Emerick": 6041,
  "Panther": 6042,
  "PFN": 6043,
  "Ph": 6044,
  "Otedola": 6045,
  "Omo-A": 6046,
  "Omo-Agege": 6047,
  "Omamba": 6048,
  "Oliver": 6049,
  "Okpoko": 6050,
  "Okigwe": 6051,
  "Ojoto": 6052,
  "Ogunyemi": 6053,
  "Ogbuokiri": 6054,
  "Obiang": 6055,
  "Oy": 6056,
  "Otu": 6057,
  "Olani": 6058,
  "October": 6059,
  "Obu": 6060,
  "OP": 6061,
  "Nwabia": 6062,
  "Nuremberg": 6063,
  "Nsugbe": 6064,
  "Not": 6065,
  "Noa .": 6066,
  "Nkechi": 6067,
  "Nico": 6068,
  "Nicho": 6069,
  "Ndubuisi": 6070,
  "ND": 6071,
  "Mueller": 6072,
  "Monetary": 6073,
  "Mayor": 6074,
  "Matiu": 6075,
  "Main": 6076,
  "MTN": 6077,
  "My": 6078,
  "Mit": 6079,
  "MS": 6080,
  "M .": 6081,
  "Lyon": 6082,
  "Love": 6083,
  "Lanka": 6084,
  "Lambo": 6085,
  "Lake": 6086,
  "Kola": 6087,
  "Kabir": 6088,
  "Kate": 6089,
  "Kizito": 6090,
  "Ki": 6091,
  "Kele": 6092,
  "Kara": 6093,
  "June": 6094,
  "Jude": 6095,
  "Jud": 6096,
  "Juan": 6097,
  "Jos": 6098,
  "Jones": 6099,
  "Jollof": 6100,
  "Jerusale": 6101,
  "Jus": 6102,
  "Iv ,": 6103,
  "Institute": 6104,
  "India .": 6105,
  "India ,": 6106,
  "Inf": 6107,
  "Ikeokwu": 6108,
  "Ijeoma": 6109,
  "IAAF": 6110,
  "Isha": 6111,
  "Iron": 6112,
  "Ifite": 6113,
  "Hassan": 6114,
  "Governor": 6115,
  "Gombe": 6116,
  "Gassama": 6117,
  "Glo": 6118,
  "Games": 6119,
  "Freedom": 6120,
  "Felix": 6121,
  "Fani-": 6122,
  "Fani-Kayode": 6123,
  "Fr": 6124,
  "Execu": 6125,
  "Ekwueme": 6126,
  "Ebonyi ,": 6127,
  "Eaglet": 6128,
  "Eti": 6129,
  "Ese": 6130,
  "Eno": 6131,
  "Ehab": 6132,
  "Efe": 6133,
  "EP": 6134,
  "Drug": 6135,
  "Domini": 6136,
  "Distri": 6137,
  "Dij": 6138,
  "Demokrat": 6139,
  "Dango": 6140,
  "DJ": 6141,
  "DA": 6142,
  "Collins": 6143,
  "Coalition": 6144,
  "Colo": 6145,
  "City ,": 6146,
  "Church ,": 6147,
  "Chukwulobe": 6148,
  "Chime": 6149,
  "Charly": 6150,
  "Catalo": 6151,
  "Cultu": 6152,
  "Cell": 6153,
  "C )": 6154,
  "Burna": 6155,
  "Bulgaria": 6156,
  "Brenton": 6157,
  "Bebel": 6158,
  "Barwin": 6159,
  "Basin": 6160,
  "Bad": 6161,
  "Awada": 6162,
  "Audu": 6163,
  "Argentina": 6164,
  "Anyaoku": 6165,
  "Amaju": 6166,
  "Ahmadu": 6167,
  "Agbogugu": 6168,
  "Adele": 6169,
  "Advisory": 6170,
  "Abiy": 6171,
  "Abdulra": 6172,
  "Aaron": 6173,
  "ATM": 6174,
  "Aro": 6175,
  "Amy": 6176,
  "Agri": 6177,
  "Ag": 6178,
  "Abo": 6179,
  "700": 6180,
  "600": 6181,
  "5 :": 6182,
  "4 :": 6183,
  "300": 6184,
  "25 )": 6185,
  "23 )": 6186,
  "2012 ,": 6187,
  "20 ;": 6188,
  "26 ,": 6189,
  "1967": 6190,
  "190": 6191,
  "18 )": 6192,
  "17 :": 6193,
  "160": 6194,
  "13 ,": 6195,
  "- 6": 6196,
  "-U": 6197,
  "( onye": 6198,
  "( dị": 6199,
  "( C": 6200,
  " .  \" ya \"": 6201,
  " \" \" bụ \"": 6202,
  "  \" dị \"": 6203,
  "  \" e \"": 6204,
  "“ ụkwụ": 6205,
  "“ ụbọchị": 6206,
  "“ ọtụtụ": 6207,
  "“ ọnwụ": 6208,
  "“ we": 6209,
  "“ olee": 6210,
  "“ oke": 6211,
  "“ na": 6212,
  "“ hụ": 6213,
  "“ bịa": 6214,
  "“ anụ": 6215,
  "ụtalị": 6216,
  "ụkọchukwu .": 6217,
  "ụdara": 6218,
  "ụbụbọ": 6219,
  "ụja": 6220,
  "ọtụtụ \"": 6221,
  "ọtọ . ”": 6222,
  "ọrụ .  \" ": 6223,
  "ọnọdụ .": 6224,
  "ọkọrọ": 6225,
  "ọkọrọtọ": 6226,
  "ọkwụrụ": 6227,
  "ọkwa ,": 6228,
  "ọkpọka :": 6229,
  "ọfala": 6230,
  "ọm": 6231,
  "ọlụ": 6232,
  "ịgba .": 6233,
  "ịrish": 6234,
  "zi ?": 6235,
  "z ,": 6236,
  "ya ? ”": 6237,
  "yuni": 6238,
  "yke": 6239,
  "wuru": 6240,
  "well": 6241,
  "we ?": 6242,
  "wale": 6243,
  "vootu ,": 6244,
  "vomi": 6245,
  "vince": 6246,
  "vieve": 6247,
  "ville": 6248,
  "villa": 6249,
  "v ,": 6250,
  "unuko": 6251,
  "ugo .": 6252,
  "udah": 6253,
  "ubu": 6254,
  "tụta": 6255,
  "tọrọ": 6256,
  "tọn": 6257,
  "ton ,": 6258,
  "toye": 6259,
  "tlehem .": 6260,
  "tish": 6261,
  "tience": 6262,
  "technic": 6263,
  "teria": 6264,
  "ta . ”": 6265,
  "sọnde .": 6266,
  "sọlọmọn": 6267,
  "sị ,  \" ọ \"": 6268,
  "swidi": 6269,
  "swidin .": 6270,
  "sure :": 6271,
  "subsidy": 6272,
  "steeti :": 6273,
  "st :": 6274,
  "st ,": 6275,
  "sleeti": 6276,
  "simentị": 6277,
  "sine": 6278,
  "sen": 6279,
  "search": 6280,
  "sam": 6281,
  "rụ  \" elelebe \"": 6282,
  "rụ \"": 6283,
  "rọshịa .": 6284,
  "rọs ,": 6285,
  "rịpọ": 6286,
  "rịpọb": 6287,
  "rịpọblịkan": 6288,
  "ruwa": 6289,
  "rose": 6290,
  "rine": 6291,
  "rendum": 6292,
  "referendum": 6293,
  "reau": 6294,
  "ration \"": 6295,
  "rates": 6296,
  "rahman": 6297,
  "racle": 6298,
  "ray": 6299,
  "ra :": 6300,
  "rya": 6301,
  "rn": 6302,
  "rghi": 6303,
  "pọnd": 6304,
  "policy": 6305,
  "pox": 6306,
  "pota": 6307,
  "pedia": 6308,
  "peace": 6309,
  "opi": 6310,
  "omenala ,": 6311,
  "ology": 6312,
  "olin": 6313,
  "ogbugbo :": 6314,
  "odogwu": 6315,
  "oche ,": 6316,
  "obosi ,": 6317,
  "obibi ,": 6318,
  "nọọsụ": 6319,
  "nyocha .": 6320,
  "nye \"": 6321,
  "nwunmi": 6322,
  "nwamba": 6323,
  "nu ,": 6324,
  "ntụgharị": 6325,
  "ntụ .": 6326,
  "ntule": 6327,
  "ntine": 6328,
  "ntakị": 6329,
  "nso . ”": 6330,
  "nri ?": 6331,
  "no-Ob": 6332,
  "nnerby": 6333,
  "nne .": 6334,
  "nkụ ,": 6335,
  "nkịtị ,": 6336,
  "nkwuchite": 6337,
  "nkwado ,": 6338,
  "nkwarụ": 6339,
  "nkenke": 6340,
  "nki": 6341,
  "njide": 6342,
  "niile . ” )": 6343,
  "niesta": 6344,
  "nick": 6345,
  "nia ,": 6346,
  "ngwaọrụ": 6347,
  "ngalaba  \" ": 6348,
  "nesia": 6349,
  "ner": 6350,
  "ndekọ": 6351,
  "nche .": 6352,
  "naiye": 6353,
  "nhịa": 6354,
  "ncial": 6355,
  "mpempe": 6356,
  "mposi": 6357,
  "mpo": 6358,
  "mmụta .": 6359,
  "mmetụta": 6360,
  "mmanwụ ,": 6361,
  "mkpịsị": 6362,
  "mkpuchi": 6363,
  "mkpiri": 6364,
  "million": 6365,
  "mgbọ .": 6366,
  "mgbaghara .": 6367,
  "mestone": 6368,
  "me . ”": 6369,
  "mbipụta": 6370,
  "maịl": 6371,
  "mart": 6372,
  "lịn": 6373,
  "lusive": 6374,
  "lopp": 6375,
  "league .": 6376,
  "laterite": 6377,
  "lando": 6378,
  "kwe ,": 6379,
  "kwas": 6380,
  "kpọ ,": 6381,
  "kpamkpam ,": 6382,
  "klas": 6383,
  "kina": 6384,
  "kim": 6385,
  "kal": 6386,
  "king": 6387,
  "jenụwarị ,": 6388,
  "jeso": 6389,
  "je ,": 6390,
  "joko": 6391,
  "jo ,": 6392,
  "isi \"": 6393,
  "inter": 6394,
  "illing": 6395,
  "ikikere": 6396,
  "ikh": 6397,
  "ijing": 6398,
  "ije ,": 6399,
  "ihere .": 6400,
  "igboukwu": 6401,
  "iti": 6402,
  "hibru .": 6403,
  "hen": 6404,
  "ha . ,": 6405,
  "helị": 6406,
  "helịkọpta": 6407,
  "guage": 6408,
  "godu": 6409,
  "godo": 6410,
  "go ,": 6411,
  "ghị ?": 6412,
  "ghị . ”": 6413,
  "ghu": 6414,
  "gedọ": 6415,
  "gba  \" ": 6416,
  "gbụgbọ": 6417,
  "garaaga": 6418,
  "ft": 6419,
  "fri": 6420,
  "fon": 6421,
  "ezumike .": 6422,
  "ezume": 6423,
  "enyo .": 6424,
  "eluigwe ?": 6425,
  "ejije ,": 6426,
  "ehihie .": 6427,
  "ego ?": 6428,
  "egede": 6429,
  "egbuke": 6430,
  "ebule": 6431,
  "e-Osuji": 6432,
  "duka": 6433,
  "dozie": 6434,
  "dioka": 6435,
  "dili": 6436,
  "dic": 6437,
  "dent": 6438,
  "dan ,": 6439,
  "cyclo": 6440,
  "cyclopedia": 6441,
  "cua": 6442,
  "count": 6443,
  "chard": 6444,
  "cca": 6445,
  "bụ  \" a \"": 6446,
  "bụrụ  \" elelebe \"": 6447,
  "bọọlu": 6448,
  "bn )": 6449,
  "bia .": 6450,
  "bezbọl": 6451,
  "berto": 6452,
  "bba": 6453,
  "azụmaahịa .": 6454,
  "atụrụ .": 6455,
  "archbishop": 6456,
  "ara .": 6457,
  "anụrị .": 6458,
  "anụ ,": 6459,
  "anwansi": 6460,
  "ander": 6461,
  "alụkwaghịm": 6462,
  "akụkọ .": 6463,
  "akwụna .": 6464,
  "akpa ,": 6465,
  "ahịhịa ,": 6466,
  "agụụ .": 6467,
  "agụmaakwụkwọ": 6468,
  "agha ?": 6469,
  "agba ,": 6470,
  "afi": 6471,
  "achịcha ,": 6472,
  "abalị :": 6473,
  "awu": 6474,
  "avi": 6475,
  "atu": 6476,
  "ate": 6477,
  "arọ .": 6478,
  "apụl": 6479,
  "action": 6480,
  "Zakari": 6481,
  "ZI": 6482,
  "ZIK": 6483,
  "Xavi": 6484,
  "Water": 6485,
  "Valentine": 6486,
  "Ver": 6487,
  "Umuokpu": 6488,
  "Umuchu": 6489,
  "Ugochukwu": 6490,
  "UTH": 6491,
  "UNIZIK": 6492,
  "UNIC": 6493,
  "UNICEF": 6494,
  "Uber": 6495,
  "Transforma": 6496,
  "Trafficking": 6497,
  "Trade": 6498,
  "Town": 6499,
  "Toni": 6500,
  "Thiba": 6501,
  "Television": 6502,
  "Tro": 6503,
  "Time": 6504,
  "Tal": 6505,
  "Syl": 6506,
  "Standa": 6507,
  "Stra": 6508,
  "Soyinka :": 6509,
  "Soma": 6510,
  "Silva": 6511,
  "Sinai": 6512,
  "Sheikh": 6513,
  "Sharon": 6514,
  "Sergeant": 6515,
  "Saga": 6516,
  "Span": 6517,
  "Sirika": 6518,
  "Simo": 6519,
  "SP": 6520,
  "Ruff": 6521,
  "Rube": 6522,
  "Roger": 6523,
  "Rights": 6524,
  "Richard": 6525,
  "Rt .": 6526,
  "Punch": 6527,
  "Prote": 6528,
  "Primary": 6529,
  "Poland": 6530,
  "Pogba": 6531,
  "Pinnick": 6532,
  "Peters": 6533,
  "Pete": 6534,
  "Papadopoulos": 6535,
  "Pakistan": 6536,
  "Patience": 6537,
  "Parish": 6538,
  "Plan": 6539,
  "Osadebe": 6540,
  "Orlando": 6541,
  "Olaudah": 6542,
  "Okwudili": 6543,
  "Okiyi": 6544,
  "Okey": 6545,
  "Ogbunike": 6546,
  "Odion": 6547,
  "Obono-Ob": 6548,
  "Obinagu": 6549,
  "Obigwe": 6550,
  "Owelle": 6551,
  "Oti": 6552,
  "Os": 6553,
  "Ore": 6554,
  "Oni": 6555,
  "Onaiye": 6556,
  "Okere": 6557,
  "Ogo": 6558,
  "Ofu": 6559,
  "Nwafor": 6560,
  "Nnabuife": 6561,
  "Nigerian \"": 6562,
  "Nigeria \"": 6563,
  "Nicholas": 6564,
  "Napoli": 6565,
  "NCDC": 6566,
  "Nj": 6567,
  "Murtala": 6568,
  "Music": 6569,
  "Metho": 6570,
  "Medi": 6571,
  "Marcel": 6572,
  "Man .": 6573,
  "Mahrez": 6574,
  "Madrid ,": 6575,
  "Macron": 6576,
  "Mus": 6577,
  "MW": 6578,
  "London ,": 6579,
  "Libya .": 6580,
  "Lilian": 6581,
  "Lent": 6582,
  "Lea": 6583,
  "Lamborghi": 6584,
  "Kyari": 6585,
  "Kelechi": 6586,
  "Kaduna .": 6587,
  "Kaolin": 6588,
  "Klopp": 6589,
  "Kel": 6590,
  "Josephi": 6591,
  "Jong-U": 6592,
  "Japan .": 6593,
  "Jairu": 6594,
  "Justin": 6595,
  "Iwobi": 6596,
  "Isiguzo": 6597,
  "Indonesia": 6598,
  "Indonesi": 6599,
  "Imoh": 6600,
  "Ikedi": 6601,
  "IPOB :": 6602,
  "IPOB ,": 6603,
  "Iyke": 6604,
  "Ista": 6605,
  "Initiative": 6606,
  "Iniesta": 6607,
  "Ile": 6608,
  "His": 6609,
  "Ham": 6610,
  "Ghana .": 6611,
  "Germain": 6612,
  "Genevieve": 6613,
  "Get": 6614,
  "Gana ,": 6615,
  "Gọ": 6616,
  "Green": 6617,
  "France .": 6618,
  "First": 6619,
  "Financial": 6620,
  "Farouq": 6621,
  "Facebook ,": 6622,
  "Fattah": 6623,
  "Ful": 6624,
  "Executive": 6625,
  "Encyclopedia": 6626,
  "Edgal": 6627,
  "Eboe-Osuji": 6628,
  "Ebele": 6629,
  "Eye": 6630,
  "End": 6631,
  "Eje": 6632,
  "Ecua": 6633,
  "ES": 6634,
  "Dona": 6635,
  "Dijk": 6636,
  "Dennerby": 6637,
  "Dapchi :": 6638,
  "Dabiri-E": 6639,
  "Dabiri-Erewa": 6640,
  "Daily": 6641,
  "Dunuko": 6642,
  "Dole": 6643,
  "Dama": 6644,
  "Courtois": 6645,
  "Comma": 6646,
  "Com": 6647,
  "City :": 6648,
  "Chukwujekwu": 6649,
  "China ,": 6650,
  "Chiejine": 6651,
  "Chibok ,": 6652,
  "Chize": 6653,
  "Chima": 6654,
  "Chekwas": 6655,
  "Change": 6656,
  "Catalonia": 6657,
  "Carl": 6658,
  "Cancer": 6659,
  "Cameron": 6660,
  "Cambridge": 6661,
  "California": 6662,
  "Calabar": 6663,
  "Care": 6664,
  "CCTV": 6665,
  "Clo": 6666,
  "Cen": 6667,
  "Burkina": 6668,
  "Bureau": 6669,
  "Buck": 6670,
  "British": 6671,
  "Briga": 6672,
  "Brazil .": 6673,
  "Biden": 6674,
  "Berna": 6675,
  "Benue :": 6676,
  "Betlehem .": 6677,
  "Beijing": 6678,
  "Balogun": 6679,
  "Balara": 6680,
  "Bakare": 6681,
  "Bon": 6682,
  "Bil": 6683,
  "Ayogu": 6684,
  "Award": 6685,
  "Atiku ,": 6686,
  "Arsenal .": 6687,
  "Arabik": 6688,
  "Arafat": 6689,
  "Arch": 6690,
  "Antonio": 6691,
  "Anichukwu": 6692,
  "Alexander": 6693,
  "Akinwunmi": 6694,
  "Adeosu": 6695,
  "Abeoku": 6696,
  "APC ,": 6697,
  "AFCON :": 6698,
  "ABSUTH": 6699,
  "Aịrish": 6700,
  "Avomi": 6701,
  "Area": 6702,
  "Apo": 6703,
  "Alo": 6704,
  "Akeredo": 6705,
  "AA": 6706,
  "7.": 6707,
  "69": 6708,
  "66": 6709,
  "400 ,": 6710,
  "4 - ": 6711,
  "3 :": 6712,
  "29 ;": 6713,
  "28 )": 6714,
  "26 )": 6715,
  "2012 .": 6716,
  "2006 .": 6717,
  "2004 ,": 6718,
  "22 )": 6719,
  "21 )": 6720,
  "1914 ,": 6721,
  "1879 .": 6722,
  "18 ,": 6723,
  "17 ;": 6724,
  "110": 6725,
  "000 .": 6726,
  "000 ,": 6727,
  "- 4": 6728,
  "( PDP )": 6729,
  "( APGA )": 6730,
  "( ọ": 6731,
  "( n'": 6732,
  "( P": 6733,
  "( G": 6734,
  "' \"": 6735,
  " ” ?": 6736,
  " .  \" ha \"": 6737,
  " ) :": 6738,
  "  \" ị \"": 6739,
  "  \" si": 6740,
  "  \" na": 6741,
  "  \" mana \"": 6742,
  "“ ụmụnna": 6743,
  "“ ji": 6744,
  "“ ga": 6745,
  "ụwa . ,": 6746,
  "ụwa ;": 6747,
  "ụmụada \" \" n' \"": 6748,
  "ụmụ ,": 6749,
  "ụma .": 6750,
  "ụlọikpe ?": 6751,
  "ụlọakụ .": 6752,
  "ụlọakwụkwọ .": 6753,
  "ụkọchukwu ,": 6754,
  "ụjọ ,": 6755,
  "ụyọ": 6756,
  "ụyọkọ": 6757,
  "ụpa": 6758,
  "ụnwụ": 6759,
  "ụcha": 6760,
  "ọtọ ?": 6761,
  "ọma .  \" ": 6762,
  "ọkụkọ .": 6763,
  "ọkpụtọrọ": 6764,
  "ọkpụtọrọkpụ": 6765,
  "ọjọọ . ”": 6766,
  "ọjị .": 6767,
  "ọgụgụ .": 6768,
  "ọgụgụ ,": 6769,
  "ọgwụ .": 6770,
  "ọgaranya .": 6771,
  "ọrọ": 6772,
  "ọlọ": 6773,
  "Ọzọ": 6774,
  "ịhụnanya ,": 6775,
  "ịgba ,": 6776,
  "ịchafụ :": 6777,
  "zuruoke": 6778,
  "zuzu": 6779,
  "zor ,": 6780,
  "zone": 6781,
  "ze ,": 6782,
  "zani": 6783,
  "zman": 6784,
  "yoyo": 6785,
  "yi .": 6786,
  "yer": 6787,
  "y .": 6788,
  "wu ,": 6789,
  "wig": 6790,
  "wazuruike": 6791,
  "wayo": 6792,
  "wor": 6793,
  "vaịn": 6794,
  "urotoye": 6795,
  "urgen": 6796,
  "umudioka": 6797,
  "ugoeze": 6798,
  "udo ?": 6799,
  "uwazuruike": 6800,
  "uf": 6801,
  "tumen": 6802,
  "ttacks :": 6803,
  "ttlement": 6804,
  "tiri": 6805,
  "tii": 6806,
  "terenian": 6807,
  "tel .": 6808,
  "taata .": 6809,
  "ta  \" ": 6810,
  "trou": 6811,
  "trea": 6812,
  "sị  \" ọ \"": 6813,
  "sum": 6814,
  "sther": 6815,
  "sona": 6816,
  "siness": 6817,
  "sig": 6818,
  "shoggi": 6819,
  "she": 6820,
  "service": 6821,
  "se ,": 6822,
  "saịrọs": 6823,
  "sat": 6824,
  "sar": 6825,
  "sand": 6826,
  "sco": 6827,
  "rụ  \" na \"": 6828,
  "rọfe": 6829,
  "rọba": 6830,
  "ruba": 6831,
  "ro \"": 6832,
  "referee": 6833,
  "re .  \" ": 6834,
  "rade": 6835,
  "ra . ”": 6836,
  "pọpụl": 6837,
  "pub": 6838,
  "publican": 6839,
  "preme": 6840,
  "pounds": 6841,
  "power": 6842,
  "pay": 6843,
  "parish": 6844,
  "par": 6845,
  "prọfe": 6846,
  "ppe": 6847,
  "pino": 6848,
  "ozigbo .": 6849,
  "ose ,": 6850,
  "orie": 6851,
  "oney": 6852,
  "omekatara": 6853,
  "ole ,": 6854,
  "okwute .": 6855,
  "okpoto": 6856,
  "okokporo": 6857,
  "okenye .": 6858,
  "ogologo ,": 6859,
  "ogbenye ,": 6860,
  "offi": 6861,
  "obi :": 6862,
  "obi \"": 6863,
  "ohe": 6864,
  "nọvemba .": 6865,
  "nọọ": 6866,
  "nwụ . ”": 6867,
  "nwoke \"": 6868,
  "nwata .": 6869,
  "nwamkpị .": 6870,
  "nwaamadị": 6871,
  "nukwu": 6872,
  "ntorobịa .": 6873,
  "ntal": 6874,
  "nsụnsụ": 6875,
  "nsọpụ": 6876,
  "nnọkọ": 6877,
  "nledo": 6878,
  "nkụ .": 6879,
  "nkwafu": 6880,
  "nkwa ,": 6881,
  "nkeypox": 6882,
  "nkata .": 6883,
  "nkata ,": 6884,
  "ngwupụta": 6885,
  "ngarị": 6886,
  "ndokwa": 6887,
  "ndidi .": 6888,
  "ndation": 6889,
  "nchọnchọ": 6890,
  "nchegbu": 6891,
  "nchara .": 6892,
  "ncha ,": 6893,
  "nce :": 6894,
  "naiji": 6895,
  "naijiria": 6896,
  "na  \" ndị \"": 6897,
  "non": 6898,
  "nkpụ": 6899,
  "ngwuru": 6900,
  "mụrụ": 6901,
  "myr": 6902,
  "mpiks": 6903,
  "mpịa": 6904,
  "mpako": 6905,
  "mond": 6906,
  "mmeri ,": 6907,
  "mmezu .": 6908,
  "mkpesa .": 6909,
  "minista .": 6910,
  "min ) .": 6911,
  "mina": 6912,
  "mily": 6913,
  "mgbede ,": 6914,
  "mfe ,": 6915,
  "mediterenian": 6916,
  "menta": 6917,
  "megbu": 6918,
  "megawa": 6919,
  "megawatt": 6920,
  "me .  \" ": 6921,
  "mbịambịa": 6922,
  "mbombo": 6923,
  "maka  \" ": 6924,
  "machukwu": 6925,
  "ma \"": 6926,
  "mole": 6927,
  "mford": 6928,
  "m ? ”": 6929,
  "m .  \" ": 6930,
  "lọf": 6931,
  "lọb": 6932,
  "lumma": 6933,
  "low": 6934,
  "lood": 6935,
  "llar": 6936,
  "listus": 6937,
  "liban": 6938,
  "legọs :": 6939,
  "language": 6940,
  "lay": 6941,
  "kọrịta .": 6942,
  "kọnkịrị": 6943,
  "kwụrụ  \" na \"": 6944,
  "kwụ ?": 6945,
  "kwụ ,": 6946,
  "ku ,": 6947,
  "krismas .": 6948,
  "kpọmkwem .": 6949,
  "kemgbe ,": 6950,
  "kasị": 6951,
  "kadị": 6952,
  "kachi": 6953,
  "klọb": 6954,
  "jọlọf": 6955,
  "juun ,": 6956,
  "ji  \" ": 6957,
  "jee": 6958,
  "jor": 6959,
  "jan": 6960,
  "iro ,": 6961,
  "iner": 6962,
  "ije .": 6963,
  "ihiala ,": 6964,
  "ihiala": 6965,
  "iden .": 6966,
  "iche . ”": 6967,
  "iberiibe .": 6968,
  "ip": 6969,
  "ichie": 6970,
  "ibu": 6971,
  "hood": 6972,
  "hiara": 6973,
  "heem": 6974,
  "han": 6975,
  "ha  \" . \"": 6976,
  "guema": 6977,
  "grik ,": 6978,
  "goolụ": 6979,
  "gie": 6980,
  "gence": 6981,
  "gboruwa": 6982,
  "gbolu": 6983,
  "gbene": 6984,
  "gas": 6985,
  "glass": 6986,
  "furt": 6987,
  "friji": 6988,
  "ezumezu": 6989,
  "ezinụlọ .": 6990,
  "ezie ?": 6991,
  "ezibel": 6992,
  "eprel .": 6993,
  "enugwu ?": 6994,
  "eleke": 6995,
  "ekwe .": 6996,
  "ego :": 6997,
  "egedege": 6998,
  "ebube .": 6999,
  "ezani": 7000,
  "eing": 7001,
  "egbo": 7002,
  "e . ”": 7003,
  "dọb": 7004,
  "dọblịn": 7005,
  "duct": 7006,
  "dollar": 7007,
  "dela": 7008,
  "ddle": 7009,
  "data": 7010,
  "dale": 7011,
  "conclusive": 7012,
  "cob": 7013,
  "coa": 7014,
  "cine": 7015,
  "chineke :": 7016,
  "change": 7017,
  "cashless": 7018,
  "bụ ...": 7019,
  "bụ  \" ụmụada \" \" n' \"": 7020,
  "bọl": 7021,
  "bukola": 7022,
  "bezbọl .": 7023,
  "barrel": 7024,
  "baptizim .": 7025,
  "bale": 7026,
  "bro": 7027,
  "bbi": 7028,
  "bbe": 7029,
  "awara": 7030,
  "atụmatụ ,": 7031,
  "atụmatụ  \" ": 7032,
  "arụsị ,": 7033,
  "anya .  \" ": 7034,
  "anyụ": 7035,
  "anga": 7036,
  "amụma .": 7037,
  "amara ,": 7038,
  "amagedọ": 7039,
  "akwụ ,": 7040,
  "aka \"": 7041,
  "agadị": 7042,
  "afael": 7043,
  "a ? ”": 7044,
  "a . )": 7045,
  "atia": 7046,
  "ast": 7047,
  "arụ ,": 7048,
  "afe": 7049,
  "a !": 7050,
  "a  \" . \"": 7051,
  "________________________________": 7052,
  "Zion": 7053,
  "Zik": 7054,
  "Youth": 7055,
  "Yaha": 7056,
  "Yaba": 7057,
  "Xenophobia :": 7058,
  "Wood": 7059,
  "Wisdom": 7060,
  "Wilfred": 7061,
  "Whit": 7062,
  "Wesley": 7063,
  "Weare": 7064,
  "Warri": 7065,
  "Voice": 7066,
  "Virgil": 7067,
  "Val": 7068,
  "Uwazuruike": 7069,
  "Universal": 7070,
  "Unity": 7071,
  "UNES": 7072,
  "UNESCO": 7073,
  "Uru": 7074,
  "Ulumma": 7075,
  "Uke": 7076,
  "Uju": 7077,
  "UJ": 7078,
  "UC": 7079,
  "Trust": 7080,
  "Transformation": 7081,
  "Tom": 7082,
  "Toky": 7083,
  "Timgad .": 7084,
  "Times": 7085,
  "Teodorin": 7086,
  "Technovation": 7087,
  "Team": 7088,
  "Taliban": 7089,
  "Tou": 7090,
  "Tonye": 7091,
  "Ten": 7092,
  "Tam": 7093,
  "TE": 7094,
  "TD": 7095,
  "Supreme": 7096,
  "Stella": 7097,
  "Standard": 7098,
  "Stamford": 7099,
  "Spanish .": 7100,
  "Spann": 7101,
  "Sowore :": 7102,
  "Simone": 7103,
  "Shehu ,": 7104,
  "Segun": 7105,
  "Scot": 7106,
  "Salisu": 7107,
  "Sadiya": 7108,
  "Snow": 7109,
  "SER": 7110,
  "SA": 7111,
  "Ruben": 7112,
  "Rotary": 7113,
  "Roberto": 7114,
  "Republican": 7115,
  "Regu": 7116,
  "Record": 7117,
  "Ralph": 7118,
  "Rile": 7119,
  "Rebe": 7120,
  "Rafael": 7121,
  "Prince": 7122,
  "Prime": 7123,
  "Premiership": 7124,
  "Portugal": 7125,
  "Peshia": 7126,
  "Pho": 7127,
  "PP )": 7128,
  "Onoh": 7129,
  "Onaiyekan": 7130,
  "Omambala": 7131,
  "Olimpiks": 7132,
  "Okonjo": 7133,
  "Okoi": 7134,
  "Odinga": 7135,
  "Obi-": 7136,
  "OGM": 7137,
  "Ogbe": 7138,
  "OA": 7139,
  "Nzewuji": 7140,
  "Nnamu": 7141,
  "Nnamani": 7142,
  "Nnadozie": 7143,
  "Nelson": 7144,
  "Nebal": 7145,
  "Ndubisi": 7146,
  "Nmachukwu": 7147,
  "Nguema": 7148,
  "Momo": 7149,
  "Minister": 7150,
  "Mic": 7151,
  "Methodi": 7152,
  "Mbonu": 7153,
  "Mbakwe": 7154,
  "Martins": 7155,
  "Marble": 7156,
  "Man ": 7157,
  "Madumere": 7158,
  "Maduagwu": 7159,
  "Madrid .": 7160,
  "Mali .": 7161,
  "MATA": 7162,
  "Mgbe": 7163,
  "Linda": 7164,
  "Living": 7165,
  "Lebanon": 7166,
  "League ,": 7167,
  "Lekki": 7168,
  "Lamborghini": 7169,
  "Lagos .": 7170,
  "Lawal": 7171,
  "LEA": 7172,
  "Lille": 7173,
  "Korea .": 7174,
  "Konduga": 7175,
  "Khashoggi": 7176,
  "Kachikwu": 7177,
  "Kaori": 7178,
  "Justice": 7179,
  "Joy": 7180,
  "Jigawa": 7181,
  "Jessica": 7182,
  "Jerom": 7183,
  "Jef": 7184,
  "Jacob": 7185,
  "Jurgen": 7186,
  "Jezibel": 7187,
  "Jen": 7188,
  "Iv .": 7189,
  "Inve": 7190,
  "Indu": 7191,
  "Imohimi": 7192,
  "Imo ,": 7193,
  "Ikeme": 7194,
  "Ikea": 7195,
  "Ifejiofor": 7196,
  "Ibikunle": 7197,
  "ISIS": 7198,
  "IPOB .": 7199,
  "IMN )": 7200,
  "ICPC": 7201,
  "Isu": 7202,
  "Iso": 7203,
  "Ida": 7204,
  "Hutter": 7205,
  "Hunga": 7206,
  "Human": 7207,
  "Heart": 7208,
  "Harcourt .": 7209,
  "Haw": 7210,
  "Hil": 7211,
  "Gọv": 7212,
  "Guardio": 7213,
  "Gui": 7214,
  "Godson": 7215,
  "Gy": 7216,
  "Gri": 7217,
  "Gon": 7218,
  "Gide": 7219,
  "Fulham": 7220,
  "Frankfurt": 7221,
  "Foundation": 7222,
  "Ferna": 7223,
  "Fayemi": 7224,
  "Faso": 7225,
  "Ezenne": 7226,
  "Europe .": 7227,
  "Electricity": 7228,
  "El-Zakzaky .": 7229,
  "Ecuador": 7230,
  "Eagles ,": 7231,
  "Esther": 7232,
  "Enugwu": 7233,
  "Egwu": 7234,
  "Egbu": 7235,
  "Edu": 7236,
  "Dominic": 7237,
  "Diezani": 7238,
  "Daniel ,": 7239,
  "Daura": 7240,
  "Dani": 7241,
  "Durotoye": 7242,
  "Dr .": 7243,
  "Dia": 7244,
  "DNA": 7245,
  "Cup :": 7246,
  "Crow": 7247,
  "Croatia": 7248,
  "Crimes": 7249,
  "Count": 7250,
  "Codeine :": 7251,
  "Coal": 7252,
  "Closure :": 7253,
  "Clay": 7254,
  "Civil": 7255,
  "Chukwueze": 7256,
  "Chuks": 7257,
  "Christie": 7258,
  "Chidiebere": 7259,
  "Chieme": 7260,
  "Chibuike": 7261,
  "Chibu": 7262,
  "Cameroon ,": 7263,
  "Callistus": 7264,
  "Caro": 7265,
  "CHOGM": 7266,
  "Clint": 7267,
  "Bucknor": 7268,
  "Boeing": 7269,
  "Beni": 7270,
  "Bene": 7271,
  "Balarabe": 7272,
  "Bah": 7273,
  "Baby": 7274,
  "Bode": 7275,
  "Bana": 7276,
  "Bada": 7277,
  "BC": 7278,
  "Atiku :": 7279,
  "Athletics": 7280,
  "Asisat": 7281,
  "Asagwa": 7282,
  "Arochukwu": 7283,
  "Arewa": 7284,
  "Arab": 7285,
  "Andy": 7286,
  "Anaocha": 7287,
  "Alph": 7288,
  "Akure": 7289,
  "Airpeace": 7290,
  "Aguleri ,": 7291,
  "Aguero": 7292,
  "Afara": 7293,
  "Adichi": 7294,
  "Adeboye": 7295,
  "Adegboruwa": 7296,
  "Adazi-N": 7297,
  "Admini": 7298,
  "Academy": 7299,
  "Abatete": 7300,
  "Abbo": 7301,
  "ANU": 7302,
  "Assi": 7303,
  "Asia": 7304,
  "Akin": 7305,
  "Aje": 7306,
  "Ahiara": 7307,
  "Afe": 7308,
  "Achalla": 7309,
  "Abia": 7310,
  "91": 7311,
  "607": 7312,
  "68": 7313,
  "49": 7314,
  "35 )": 7315,
  "3 - ": 7316,
  "2000 ,": 7317,
  "2006 ,": 7318,
  "2006": 7319,
  "2005": 7320,
  "2004": 7321,
  "202": 7322,
  "27 )": 7323,
  "1999 .": 7324,
  "184": 7325,
  "170": 7326,
  "12 :": 7327,
  "- 8": 7328,
  "- 5 )": 7329,
  "- 14 )": 7330,
  "-West": 7331,
  "( £": 7332,
  "( R": 7333,
  "( INEC": 7334,
  "( IMN )": 7335,
  "( D": 7336,
  "( AN": 7337,
  "( 4": 7338,
  "% )": 7339,
  " ? ” )": 7340,
  "  \" i": 7341,
  "“ mkpụrụ ”": 7342,
  "“ ozi": 7343,
  "“ naanị": 7344,
  "“ chineke ,": 7345,
  "“ biko ,": 7346,
  "’ .": 7347,
  "ụmụahịa ,": 7348,
  "ụlọụka ,": 7349,
  "ụka  \" ": 7350,
  "ụfụ ,": 7351,
  "ụfọdụ \"": 7352,
  "ụba .": 7353,
  "Ụmụ": 7354,
  "ọnụ ?": 7355,
  "ọmịiko": 7356,
  "ọlaedo ,": 7357,
  "ọkọchị ,": 7358,
  "ọkpụkpọ": 7359,
  "ọgwụgwụ .": 7360,
  "ọgbara": 7361,
  "ọgbanje": 7362,
  "ọfọka": 7363,
  "ọtị": 7364,
  "ọ  \" ": 7365,
  "Ọnwụ": 7366,
  "ịnyịnya .": 7367,
  "ịkpeazụ": 7368,
  "ịhụnanya .": 7369,
  "ịchafụ ,": 7370,
  "ịdi": 7371,
  "án": 7372,
  "zụ .": 7373,
  "ziz": 7374,
  "zig": 7375,
  "zho": 7376,
  "yuniọn": 7377,
  "yota": 7378,
  "yede": 7379,
  "ya :  \" ": 7380,
  "ya .  \" ihe \"": 7381,
  "ya . ;": 7382,
  "ya )": 7383,
  "ya !": 7384,
  "xto": 7385,
  "xon": 7386,
  "work": 7387,
  "wka": 7388,
  "viet": 7389,
  "vita": 7390,
  "viron": 7391,
  "vez": 7392,
  "val": 7393,
  "vac": 7394,
  "vus": 7395,
  "vol": 7396,
  "urrency": 7397,
  "ult": 7398,
  "ukpor": 7399,
  "ugboguru": 7400,
  "udiri": 7401,
  "uta": 7402,
  "utazi": 7403,
  "um .": 7404,
  "um ,": 7405,
  "uge": 7406,
  "ugegbe": 7407,
  "tịn": 7408,
  "tomi": 7409,
  "tola": 7410,
  "tion :": 7411,
  "tives": 7412,
  "tima": 7413,
  "thern": 7414,
  "thany": 7415,
  "tes": 7416,
  "tenaị": 7417,
  "telli": 7418,
  "telligence": 7419,
  "tele": 7420,
  "tatenaị": 7421,
  "tai": 7422,
  "ta !": 7423,
  "tz": 7424,
  "tn": 7425,
  "t :": 7426,
  "sọnde ,": 7427,
  "sị ,  \" anyị \"": 7428,
  "syn": 7429,
  "strike :": 7430,
  "storation \"": 7431,
  "stique": 7432,
  "state :": 7433,
  "stan .": 7434,
  "stries": 7435,
  "stration": 7436,
  "ssor": 7437,
  "ssia": 7438,
  "ssport": 7439,
  "spen ,": 7440,
  "sonal": 7441,
  "sia ,": 7442,
  "shot": 7443,
  "sheed": 7444,
  "sha ,": 7445,
  "sex": 7446,
  "seman": 7447,
  "swill": 7448,
  "spor": 7449,
  "rụ . ”": 7450,
  "rọ ?": 7451,
  "rịọrịọ": 7452,
  "rume": 7453,
  "roui": 7454,
  "rothy": 7455,
  "roke": 7456,
  "risii": 7457,
  "rizu": 7458,
  "ri \"": 7459,
  "ri  \" ": 7460,
  "restructuring": 7461,
  "republic": 7462,
  "ramado": 7463,
  "rald": 7464,
  "ramic": 7465,
  "rai": 7466,
  "rah ,": 7467,
  "pọnti": 7468,
  "pọntiọs": 7469,
  "pọint": 7470,
  "prọfesọ": 7471,
  "plosion :": 7472,
  "photo": 7473,
  "pers": 7474,
  "penti": 7475,
  "pentikọ": 7476,
  "papers": 7477,
  "psum": 7478,
  "ppa": 7479,
  "pel": 7480,
  "pa .": 7481,
  "ozu .": 7482,
  "otuto ,": 7483,
  "osimiri .": 7484,
  "osebu": 7485,
  "oseburụ": 7486,
  "oroma": 7487,
  "onugbu": 7488,
  "omenala .": 7489,
  "omeiwu .": 7490,
  "olu .": 7491,
  "olu ,": 7492,
  "ologbo": 7493,
  "oku ,": 7494,
  "okorobịa .": 7495,
  "ofufe ,": 7496,
  "odide": 7497,
  "ochie ?": 7498,
  "obosara": 7499,
  "oki": 7500,
  "o ?": 7501,
  "o !": 7502,
  "nzọụkwụ": 7503,
  "nze ,": 7504,
  "nwunye ?": 7505,
  "nwu ,": 7506,
  "ntị ?": 7507,
  "nting": 7508,
  "ntifi": 7509,
  "nteco": 7510,
  "ntamu": 7511,
  "ntozu": 7512,
  "nsọ ?": 7513,
  "nsogbu ?": 7514,
  "nrụrụaka ,": 7515,
  "nrụpụta": 7516,
  "nofia": 7517,
  "nnyocha ,": 7518,
  "nkwekọrịta .": 7519,
  "nkwado .": 7520,
  "nkeji .": 7521,
  "nker": 7522,
  "nkebi": 7523,
  "njedebe ,": 7524,
  "nife": 7525,
  "nical": 7526,
  "nhọpụta ,": 7527,
  "nghọta ,": 7528,
  "nga .": 7529,
  "new": 7530,
  "nel": 7531,
  "ndesli": 7532,
  "ndede": 7533,
  "nds": 7534,
  "nchụaja ,": 7535,
  "naịjirịa .  \" ": 7536,
  "nator ,": 7537,
  "naly": 7538,
  "na  \" ihe \"": 7539,
  "naza": 7540,
  "nam": 7541,
  "nru": 7542,
  "nobi": 7543,
  "nn": 7544,
  "nguzo": 7545,
  "nguzobe": 7546,
  "mọkpọ": 7547,
  "mị ,": 7548,
  "msby": 7549,
  "mpic": 7550,
  "mpi .": 7551,
  "mont": 7552,
  "mmigration": 7553,
  "mmanụ ,": 7554,
  "mmadụ .  \" ": 7555,
  "mmad": 7556,
  "mkpụrụ ,": 7557,
  "minium": 7558,
  "miliano": 7559,
  "minal": 7560,
  "miah": 7561,
  "mgbochi .": 7562,
  "mgbada": 7563,
  "meri .": 7564,
  "mbịarambịa": 7565,
  "mbido .": 7566,
  "mbido ,": 7567,
  "mbinye": 7568,
  "mbilite": 7569,
  "mbaza": 7570,
  "mark": 7571,
  "maọ": 7572,
  "mass": 7573,
  "make": 7574,
  "main": 7575,
  "mago": 7576,
  "made": 7577,
  "mor": 7578,
  "mkpo": 7579,
  "m ”": 7580,
  "m ) ,": 7581,
  "lọọlọ": 7582,
  "lịkalịka": 7583,
  "lus": 7584,
  "luminium": 7585,
  "logi": 7586,
  "ller": 7587,
  "lima": 7588,
  "lia ,": 7589,
  "lena": 7590,
  "lazarọs ,": 7591,
  "lady": 7592,
  "kọrịnt": 7593,
  "kịrịkịrị": 7594,
  "kwo .": 7595,
  "kulu": 7596,
  "kpọmkwem ,": 7597,
  "kpe .": 7598,
  "koba": 7599,
  "kemgbe \"": 7600,
  "kedu": 7601,
  "kadịnal": 7602,
  "kil": 7603,
  "khi": 7604,
  "juun .": 7605,
  "juda": 7606,
  "izugbe .": 7607,
  "iyi ,": 7608,
  "isi ?": 7609,
  "ipzig": 7610,
  "indy": 7611,
  "inconclusive": 7612,
  "imi ,": 7613,
  "iller": 7614,
  "ilele": 7615,
  "ilead": 7616,
  "ike ;": 7617,
  "ike \"": 7618,
  "idemmiri .": 7619,
  "iru .": 7620,
  "ire .": 7621,
  "ire ,": 7622,
  "ilo": 7623,
  "ia ,": 7624,
  "i .": 7625,
  "hode": 7626,
  "helikọpta": 7627,
  "ham .": 7628,
  "hel": 7629,
  "graph": 7630,
  "gide .": 7631,
  "ghiri": 7632,
  "gbụrụgbụrụ": 7633,
  "gbuo": 7634,
  "gbanụ": 7635,
  "gbinde": 7636,
  "gazine": 7637,
  "gard": 7638,
  "gna": 7639,
  "gge": 7640,
  "forcement": 7641,
  "fo-": 7642,
  "fo-Ad": 7643,
  "fite ,": 7644,
  "farisii": 7645,
  "fort": 7646,
  "fford": 7647,
  "explosion :": 7648,
  "eting": 7649,
  "erimeri": 7650,
  "erra": 7651,
  "er ,": 7652,
  "enyo ,": 7653,
  "enyemaka ,": 7654,
  "enue": 7655,
  "ella": 7656,
  "ekwulọ": 7657,
  "ekwensu ,": 7658,
  "ekpe .": 7659,
  "ekpe ,": 7660,
  "egwuregwu :": 7661,
  "ego \"": 7662,
  "ebelebe": 7663,
  "ez": 7664,
  "emo": 7665,
  "emi": 7666,
  "dow": 7667,
  "diora": 7668,
  "dith": 7669,
  "dis": 7670,
  "dimkpa .": 7671,
  "dim": 7672,
  "dier": 7673,
  "deration": 7674,
  "dera": 7675,
  "day .": 7676,
  "dam": 7677,
  "copper": 7678,
  "coma": 7679,
  "com": 7680,
  "coin": 7681,
  "cha !": 7682,
  "ce ,": 7683,
  "carpe": 7684,
  "cup": 7685,
  "cultu": 7686,
  "class": 7687,
  "c ,": 7688,
  "bịa . ”": 7689,
  "bution": 7690,
  "budget": 7691,
  "border": 7692,
  "bonch": 7693,
  "bin": 7694,
  "billion": 7695,
  "bill": 7696,
  "betel .": 7697,
  "bena": 7698,
  "bao": 7699,
  "bail": 7700,
  "azụmaahịa ,": 7701,
  "arụma": 7702,
  "ary": 7703,
  "anụ .": 7704,
  "anyị ;": 7705,
  "antino": 7706,
  "amala": 7707,
  "amadị ,": 7708,
  "ala \"": 7709,
  "along": 7710,
  "akụnụba": 7711,
  "akụ .": 7712,
  "akara .": 7713,
  "ahụ . ,": 7714,
  "ahịhịa .": 7715,
  "agụụ ,": 7716,
  "agụmakwụkwọ .": 7717,
  "afikpo": 7718,
  "aching": 7719,
  "azi": 7720,
  "awọ": 7721,
  "awa .": 7722,
  "ath": 7723,
  "akp": 7724,
  "a ”": 7725,
  "a ! ”": 7726,
  "Zubair": 7727,
  "Zimbabwe ,": 7728,
  "Zou": 7729,
  "Yahaya": 7730,
  "Yor": 7731,
  "YPP": 7732,
  "Wealth": 7733,
  "Wales": 7734,
  "Wage :": 7735,
  "Win": 7736,
  "Wike ,": 7737,
  "Wha": 7738,
  "Version": 7739,
  "Venezuela": 7740,
  "Venerable": 7741,
  "Vol": 7742,
  "Visi": 7743,
  "Uzoho": 7744,
  "Uwaifo": 7745,
  "USA": 7746,
  "US .": 7747,
  "Uhuru": 7748,
  "Ugbo": 7749,
  "UA": 7750,
  "Trafford": 7751,
  "Toyota": 7752,
  "Texas": 7753,
  "Technology": 7754,
  "Taiwo": 7755,
  "Ty": 7756,
  "TUC": 7757,
  "TCN": 7758,
  "TB": 7759,
  "T .": 7760,
  "Super \"": 7761,
  "State :": 7762,
  "Staff": 7763,
  "Stadium": 7764,
  "Spring": 7765,
  "Soviet": 7766,
  "Snowden": 7767,
  "Simeon": 7768,
  "Sierra": 7769,
  "Service ,": 7770,
  "Sergio": 7771,
  "Settlement": 7772,
  "Scott": 7773,
  "Sambisa": 7774,
  "Sani": 7775,
  "SERAP": 7776,
  "Swi": 7777,
  "Stock": 7778,
  "Sir": 7779,
  "Sar": 7780,
  "SU": 7781,
  "SON": 7782,
  "S .": 7783,
  "Ruffcoin": 7784,
  "Rooney": 7785,
  "Roch": 7786,
  "Riley": 7787,
  "Rehab .": 7788,
  "Rebecca": 7789,
  "Reube": 7790,
  "Result": 7791,
  "Restoration \"": 7792,
  "Rechel": 7793,
  "Raila": 7794,
  "Robi": 7795,
  "Rhode": 7796,
  "Ram": 7797,
  "RB": 7798,
  "Qa": 7799,
  "Public": 7800,
  "Province": 7801,
  "Polytechnic": 7802,
  "Plateau ,": 7803,
  "Penteco": 7804,
  "Patricia": 7805,
  "Pat": 7806,
  "Pas": 7807,
  "Paci": 7808,
  "Prie": 7809,
  "Pra": 7810,
  "Oyo-": 7811,
  "Oyemade": 7812,
  "Osim": 7813,
  "Open .": 7814,
  "Onigbinde": 7815,
  "Okwuo": 7816,
  "Okpaleke": 7817,
  "Okoli": 7818,
  "Okezi": 7819,
  "Ogakwu": 7820,
  "Officer": 7821,
  "Odekpe ,": 7822,
  "Odedeji": 7823,
  "Obono-Obla": 7824,
  "Out": 7825,
  "Our": 7826,
  "Ose": 7827,
  "Ole": 7828,
  "Oil": 7829,
  "Ogba": 7830,
  "Off": 7831,
  "OR": 7832,
  "Nyong": 7833,
  "Nwoye": 7834,
  "Nwodo ,": 7835,
  "Nwabueze": 7836,
  "Nuella": 7837,
  "North .": 7838,
  "North ,": 7839,
  "Northern": 7840,
  "Nove": 7841,
  "Nnamuoh": 7842,
  "Nnaemeka": 7843,
  "Nkemdi": 7844,
  "Nimo ,": 7845,
  "Niger .": 7846,
  "Nicolas": 7847,
  "Ngige ,": 7848,
  "Newspapers": 7849,
  "Naija .": 7850,
  "NDLEA": 7851,
  "Nno": 7852,
  "Nkwe": 7853,
  "Nki": 7854,
  "Ndo": 7855,
  "Mystique": 7856,
  "Muslim": 7857,
  "Mohammad": 7858,
  "Mona": 7859,
  "Miracle": 7860,
  "Mila": 7861,
  "Megan": 7862,
  "Media": 7863,
  "Marti": 7864,
  "Marco": 7865,
  "Man City": 7866,
  "Mandela": 7867,
  "Malami": 7868,
  "Malta": 7869,
  "Mau": 7870,
  "Matịn": 7871,
  "Mari": 7872,
  "Mallam": 7873,
  "Mail": 7874,
  "Magazine": 7875,
  "Miche": 7876,
  "Maha": 7877,
  "Lupita": 7878,
  "Loveth": 7879,
  "Light ,": 7880,
  "Libya ,": 7881,
  "Leone": 7882,
  "Leipzig": 7883,
  "Lau": 7884,
  "Late": 7885,
  "Los": 7886,
  "Lord": 7887,
  "Lar": 7888,
  "Korea ,": 7889,
  "Kelvin": 7890,
  "Kemi": 7891,
  "Kanu ,": 7892,
  "Kaduna ,": 7893,
  "Karoui": 7894,
  "Kur": 7895,
  "Kong": 7896,
  "Josephine": 7897,
  "Jour": 7898,
  "Jessie": 7899,
  "Jero": 7900,
  "J .": 7901,
  "Iweka": 7902,
  "Issa": 7903,
  "Island": 7904,
  "Infantino": 7905,
  "Imo .": 7906,
  "Ikechukwu ,": 7907,
  "Ikenna": 7908,
  "Ifeanyichukwu": 7909,
  "Idigo ,": 7910,
  "Ish": 7911,
  "Immigration": 7912,
  "Imma": 7913,
  "Ik": 7914,
  "Igwe": 7915,
  "Ice": 7916,
  "Hungary": 7917,
  "Hud": 7918,
  "Hero": 7919,
  "Haram ?": 7920,
  "Harper": 7921,
  "Hanna": 7922,
  "Hote": 7923,
  "Home": 7924,
  "Guinea ,": 7925,
  "Guardiola": 7926,
  "Guma": 7927,
  "Grimsby": 7928,
  "Godswill": 7929,
  "Goddy": 7930,
  "Global": 7931,
  "Gideon": 7932,
  "Ghana ,": 7933,
  "Gail": 7934,
  "Grea": 7935,
  "Gilead": 7936,
  "Gam": 7937,
  "Food": 7938,
  "Florida": 7939,
  "Fatoyinbo .": 7940,
  "Falana": 7941,
  "Fayo": 7942,
  "Family": 7943,
  "FM": 7944,
  "Ezeobi": 7945,
  "Ezeagu": 7946,
  "Euph": 7947,
  "Engineer": 7948,
  "Enforcement": 7949,
  "Ekweremadu ,": 7950,
  "Ehab .": 7951,
  "Ebelechukwu": 7952,
  "Ebenator ,": 7953,
  "Eaglets": 7954,
  "Eagles .": 7955,
  "Enwo": 7956,
  "Ene": 7957,
  "Elia": 7958,
  "Ef": 7959,
  "Ebuka": 7960,
  "Ebu": 7961,
  "Ebere": 7962,
  "Donatus": 7963,
  "Dorothy": 7964,
  "Dora": 7965,
  "Dixon": 7966,
  "David-West": 7967,
  "Dangote": 7968,
  "Danma": 7969,
  "Dambaza": 7970,
  "DP )": 7971,
  "Dy": 7972,
  "Duke": 7973,
  "Der": 7974,
  "Crowther": 7975,
  "Criminal": 7976,
  "Cornelius": 7977,
  "Corby": 7978,
  "Common": 7979,
  "Codeine ,": 7980,
  "Costa": 7981,
  "Cont": 7982,
  "Clinton": 7983,
  "Chukwulobelu": 7984,
  "Chukwuka": 7985,
  "Chizea": 7986,
  "Chimezie": 7987,
  "Chidoka": 7988,
  "Chikwelu": 7989,
  "Chidera": 7990,
  "Chia": 7991,
  "Chelsea .": 7992,
  "Chelsea ,": 7993,
  "Chapo": 7994,
  "Cho": 7995,
  "Canc": 7996,
  "Calixto": 7997,
  "CNM": 7998,
  "Cu": 7999,
  "Cindy": 8000,
  "Card": 8001,
  "Cara": 8002,
  "C .": 8003,
  "Bundesli": 8004,
  "Brigade": 8005,
  "Britan": 8006,
  "Bring": 8007,
  "Bodejo": 8008,
  "Bola": 8009,
  "Bissa": 8010,
  "Berger": 8011,
  "Benjami": 8012,
  "Bethany": 8013,
  "Best": 8014,
  "Bea": 8015,
  "Banabas": 8016,
  "Babangi": 8017,
  "Babandede": 8018,
  "Baịbụl": 8019,
  "Baga": 8020,
  "BBC \"": 8021,
  "BBOG": 8022,
  "Billi": 8023,
  "Ayamelum": 8024,
  "Avomimi": 8025,
  "Atani": 8026,
  "Atla": 8027,
  "Ashịdi": 8028,
  "Ararume": 8029,
  "Angeles": 8030,
  "Angel": 8031,
  "Anajemba ,": 8032,
  "Amina": 8033,
  "Amarizu": 8034,
  "Amadi": 8035,
  "Akwa ": 8036,
  "Akufo-Ad": 8037,
  "Akase": 8038,
  "Airport :": 8039,
  "Agbakoba": 8040,
  "Africa :": 8041,
  "Adoration": 8042,
  "Adeosun": 8043,
  "Adebukola": 8044,
  "Adamu ,": 8045,
  "Abule": 8046,
  "Abid": 8047,
  "Abeokuta": 8048,
  "Abdulrasheed": 8049,
  "Abdulrahman": 8050,
  "Abdula": 8051,
  "APC :": 8052,
  "AP )": 8053,
  "AC )": 8054,
  "Apa": 8055,
  "Ane": 8056,
  "Analy": 8057,
  "Ako": 8058,
  "Aha": 8059,
  "Agụ": 8060,
  "Aga": 8061,
  "Adu": 8062,
  "AZ": 8063,
  "? \"": 8064,
  "83": 8065,
  "75": 8066,
  "74": 8067,
  "73": 8068,
  "72": 8069,
  "7 - ": 8070,
  "6 :": 8071,
  "500 .": 8072,
  "500 ,": 8073,
  "5000": 8074,
  "5 - ": 8075,
  "40 ,": 8076,
  "370": 8077,
  "34": 8078,
  "33 ,": 8079,
  "28 :": 8080,
  "24 ,": 8081,
  "23 ,": 8082,
  "2016 ,": 8083,
  "2011 ,": 8084,
  "2010 ,": 8085,
  "2000 .": 8086,
  "2008 .": 8087,
  "2003": 8088,
  "29 ,": 8089,
  "17 .": 8090,
  "17 ,": 8091,
  "150": 8092,
  "12 - ": 8093,
  "120": 8094,
  "113": 8095,
  "000 ) .": 8096,
  "08": 8097,
  "- 19": 8098,
  "- 17": 8099,
  "- 16": 8100,
  "- 13": 8101,
  "-P": 8102,
  "( ga": 8103,
  "( DSS": 8104,
  "( 1 ,": 8105,
  " , \" \" ": 8106,
  "  \" naịjirịa \"": 8107,
  "“ ụlọ": 8108,
  "“ ụgwọ": 8109,
  "“ nwe": 8110,
  "“ mana": 8111,
  "“ kemgbe": 8112,
  "“ gba": 8113,
  "“ chọ": 8114,
  "“ bụ": 8115,
  "“ anya": 8116,
  "ụwa . ” )": 8117,
  "ụmụụmụ": 8118,
  "ụlọikwuu .": 8119,
  "ụlọakwụkwọ ,": 8120,
  "ụlọ . ”": 8121,
  "ụlọ \"": 8122,
  "ụkpaka ,": 8123,
  "ụgwọ ?": 8124,
  "ụgha ?": 8125,
  "ụda .": 8126,
  "ụda ,": 8127,
  "ụbọchị ?": 8128,
  "ụbọchị . ”": 8129,
  "ụba ,": 8130,
  "ụta .": 8131,
  "ụta ,": 8132,
  "ụlụ": 8133,
  "ọzọ ;": 8134,
  "ọzọ \"": 8135,
  "ọwara": 8136,
  "ọnwụama": 8137,
  "ọnwụamaegbu": 8138,
  "ọmụmụ ,": 8139,
  "ọma ”": 8140,
  "ọlị . ”": 8141,
  "ọlị ,": 8142,
  "ọkpọrọ": 8143,
  "ọkpọkọ": 8144,
  "ọkpọka ,": 8145,
  "ọkafọ ,": 8146,
  "ọkankuzi": 8147,
  "ọjị ,": 8148,
  "ọhụrụ ”": 8149,
  "ọhanaeze .": 8150,
  "ọgbakọ ,": 8151,
  "ọgbaaghara ,": 8152,
  "ọdọgwụ": 8153,
  "ọdịnala .": 8154,
  "ọdachi ,": 8155,
  "ọchịehi .": 8156,
  "ọchịchị ?": 8157,
  "ọbụla .  \" ": 8158,
  "ọbọ ,": 8159,
  "ọbịa .": 8160,
  "Ọnwụzu": 8161,
  "Ọnwụzuri": 8162,
  "Ọnwụzurike": 8163,
  "Ọm": 8164,
  "Ọmọba": 8165,
  "Ọkọ": 8166,
  "ịtụnanya .": 8167,
  "ịlaịja .": 8168,
  "ịhụnanya . ”": 8169,
  "ịzụ": 8170,
  "ịli": 8171,
  "ịlimọn": 8172,
  "zọ ,": 8173,
  "zuka": 8174,
  "zza": 8175,
  "zakari": 8176,
  "zakariya": 8177,
  "yọs": 8178,
  "yi ,": 8179,
  "yers": 8180,
  "yech": 8181,
  "ye .": 8182,
  "yahoo-": 8183,
  "yahoo-yahoo": 8184,
  "ya .  \" anyị \"": 8185,
  "yad": 8186,
  "yadh": 8187,
  "yaba": 8188,
  "yyi": 8189,
  "west": 8190,
  "wele": 8191,
  "we .": 8192,
  "war": 8193,
  "vitamin": 8194,
  "vironmenta": 8195,
  "vironmentalist": 8196,
  "view": 8197,
  "vic": 8198,
  "vers": 8199,
  "verha": 8200,
  "verhampton": 8201,
  "vangi": 8202,
  "vangirai": 8203,
  "vor": 8204,
  "utenant": 8205,
  "us ,": 8206,
  "umunne": 8207,
  "ukpor ,": 8208,
  "uju :": 8209,
  "uhuruchi ,": 8210,
  "uhuruchi": 8211,
  "ugo ,": 8212,
  "udummiri .": 8213,
  "udubonch": 8214,
  "uno": 8215,
  "ung-": 8216,
  "uko": 8217,
  "uka": 8218,
  "ufe": 8219,
  "tụmọkpọ": 8220,
  "turu": 8221,
  "tum .": 8222,
  "tum ,": 8223,
  "trouse": 8224,
  "trousers": 8225,
  "toro": 8226,
  "tistics": 8227,
  "tility": 8228,
  "tie": 8229,
  "tica": 8230,
  "thority": 8231,
  "that": 8232,
  "th .": 8233,
  "terials": 8234,
  "terling": 8235,
  "tennis": 8236,
  "tenni": 8237,
  "tellite": 8238,
  "tancha": 8239,
  "tan ,": 8240,
  "tau": 8241,
  "tarị": 8242,
  "tanki": 8243,
  "tainer": 8244,
  "tsi": 8245,
  "trans": 8246,
  "sụ .": 8247,
  "syth": 8248,
  "sur": 8249,
  "suki": 8250,
  "stik": 8251,
  "stantpay": 8252,
  "stantpaypal": 8253,
  "stanbu": 8254,
  "stru": 8255,
  "ssment": 8256,
  "spector": 8257,
  "siriak .": 8258,
  "sinamọn": 8259,
  "sio": 8260,
  "sin ,": 8261,
  "siah": 8262,
  "si ?": 8263,
  "si  \" ": 8264,
  "shị": 8265,
  "shford": 8266,
  "senet ,": 8267,
  "senti": 8268,
  "sentimita": 8269,
  "sed": 8270,
  "secon": 8271,
  "se .": 8272,
  "saịlas": 8273,
  "sau": 8274,
  "svangirai": 8275,
  "stu": 8276,
  "sson": 8277,
  "sr": 8278,
  "spo": 8279,
  "spora": 8280,
  "sc": 8281,
  "sCos": 8282,
  "s  \" ": 8283,
  "rụ ;": 8284,
  "rọshịa ,": 8285,
  "ryant": 8286,
  "russia": 8287,
  "ru . ”": 8288,
  "rosene": 8289,
  "ror": 8290,
  "road": 8291,
  "risc": 8292,
  "riage :": 8293,
  "rian": 8294,
  "reader": 8295,
  "retọn": 8296,
  "rem": 8297,
  "rei": 8298,
  "reira": 8299,
  "ramics": 8300,
  "ramadol": 8301,
  "ratai": 8302,
  "rat": 8303,
  "rales": 8304,
  "ra .  \" ": 8305,
  "quin": 8306,
  "quare": 8307,
  "pression": 8308,
  "pping": 8309,
  "police": 8310,
  "post": 8311,
  "point": 8312,
  "pobo": 8313,
  "plastik": 8314,
  "pita ,": 8315,
  "phat": 8316,
  "pentikọst": 8317,
  "pensụ": 8318,
  "papaị": 8319,
  "parency": 8320,
  "pter": 8321,
  "psy": 8322,
  "pol": 8323,
  "ping": 8324,
  "ozigbo ,": 8325,
  "ozizo": 8326,
  "oyibo ,": 8327,
  "oyiyi": 8328,
  "out": 8329,
  "otute": 8330,
  "otu . ”": 8331,
  "otu )": 8332,
  "ositive": 8333,
  "osise": 8334,
  "osin": 8335,
  "oseburụwa": 8336,
  "ortmund": 8337,
  "orie ,": 8338,
  "ophi": 8339,
  "onyonyo .": 8340,
  "onyinye .": 8341,
  "onowu": 8342,
  "omekaome .": 8343,
  "omeiwu ,": 8344,
  "olody": 8345,
  "olodymyr": 8346,
  "olsk": 8347,
  "okwukwe ,": 8348,
  "okwu . ”": 8349,
  "okwu \"": 8350,
  "okpuru .": 8351,
  "okpukpe ,": 8352,
  "okpueze": 8353,
  "okpotokpo": 8354,
  "okomo": 8355,
  "okirikiri ,": 8356,
  "okenye ,": 8357,
  "oke . ”": 8358,
  "ojii :": 8359,
  "oji ,": 8360,
  "oge ?": 8361,
  "odeeakwụkwọ": 8362,
  "obodo ?": 8363,
  "obiọma ,": 8364,
  "owelle": 8365,
  "otụmọkpọ": 8366,
  "oru": 8367,
  "ob": 8368,
  "nọvemba ,": 8369,
  "nọmba": 8370,
  "nọ ?": 8371,
  "nọ \"": 8372,
  "nyọ": 8373,
  "nwu .": 8374,
  "nwafor": 8375,
  "ntụpọ": 8376,
  "ntorobịa ,": 8377,
  "nsọtụ": 8378,
  "nsogbu . ”": 8379,
  "nsky": 8380,
  "nrube": 8381,
  "nnu ,": 8382,
  "nnochiteanya": 8383,
  "nnanna": 8384,
  "nna .": 8385,
  "nkwụ ,": 8386,
  "nkwadebe": 8387,
  "nkakwụ": 8388,
  "nior": 8389,
  "niko": 8390,
  "nikotin": 8391,
  "nigbo": 8392,
  "ngwere ,": 8393,
  "ngo ,": 8394,
  "ng ,": 8395,
  "nei": 8396,
  "nefo": 8397,
  "ndịagụ": 8398,
  "nduhie": 8399,
  "ndo .": 8400,
  "nchụpụ": 8401,
  "nchụaja .": 8402,
  "nchatancha": 8403,
  "narị ,": 8404,
  "nal :": 8405,
  "na  \" onye \"": 8406,
  "nance": 8407,
  "naka": 8408,
  "na :  \" ": 8409,
  "nsi ,": 8410,
  "nny": 8411,
  "nnwụ": 8412,
  "nlọ": 8413,
  "nlọta": 8414,
  "nih": 8415,
  "mpe .": 8416,
  "mpana": 8417,
  "mpanaka": 8418,
  "moso": 8419,
  "mmụta ,": 8420,
  "mmadụ \"": 8421,
  "mkpụrụokwu": 8422,
  "mkpụmkpụ": 8423,
  "mkpirisi": 8424,
  "mkpara": 8425,
  "mino": 8426,
  "milli": 8427,
  "mikal": 8428,
  "mian": 8429,
  "mgbam": 8430,
  "mgbaaka": 8431,
  "merije": 8432,
  "mewu": 8433,
  "menyi": 8434,
  "menti": 8435,
  "mek": 8436,
  "mbinyeaka": 8437,
  "mbem": 8438,
  "maọbụ ...": 8439,
  "marble": 8440,
  "maọlị .": 8441,
  "mamba": 8442,
  "mall": 8443,
  "mala": 8444,
  "mail": 8445,
  "mgbị": 8446,
  "mgbịrị": 8447,
  "m ;": 8448,
  "m \"": 8449,
  "lyn": 8450,
  "lympic": 8451,
  "ly :": 8452,
  "lossom": 8453,
  "lowo": 8454,
  "lom": 8455,
  "liya": 8456,
  "lis": 8457,
  "language .": 8458,
  "lata": 8459,
  "lam": 8460,
  "labi": 8461,
  "la !": 8462,
  "lobi": 8463,
  "kọmputa .": 8464,
  "kọmputa ,": 8465,
  "kọle": 8466,
  "kubi": 8467,
  "kubit": 8468,
  "kpara": 8469,
  "kpala": 8470,
  "kong": 8471,
  "kode": 8472,
  "kid": 8473,
  "kick": 8474,
  "kibo": 8475,
  "kerosene": 8476,
  "kemikal": 8477,
  "kanada .": 8478,
  "karama": 8479,
  "kmaa": 8480,
  "kha": 8481,
  "jijiji .": 8482,
  "jiuba": 8483,
  "jide": 8484,
  "ji \"": 8485,
  "jeriko ,": 8486,
  "jehova ?": 8487,
  "jehova . ”": 8488,
  "jeman": 8489,
  "je .": 8490,
  "jamanị ,": 8491,
  "jj": 8492,
  "iwu \"": 8493,
  "iwe ?": 8494,
  "iteghete": 8495,
  "ite ,": 8496,
  "isse": 8497,
  "iro .": 8498,
  "irighiri": 8499,
  "instantpaypal": 8500,
  "inf": 8501,
  "illing :": 8502,
  "illary": 8503,
  "ikike .": 8504,
  "ihere ,": 8505,
  "ihe ”": 8506,
  "idemmiri ,": 8507,
  "idna": 8508,
  "icheiche ,": 8509,
  "ibe .": 8510,
  "inyo": 8511,
  "igodo": 8512,
  "igh": 8513,
  "iano": 8514,
  "i ,": 8515,
  "hibru ,": 8516,
  "hiti": 8517,
  "head": 8518,
  "ha . )": 8519,
  "hama": 8520,
  "h .": 8521,
  "gị ? ”": 8522,
  "gui": 8523,
  "grik .": 8524,
  "goolu ,": 8525,
  "godị ,": 8526,
  "gon": 8527,
  "go .": 8528,
  "gnatius": 8529,
  "ghachi": 8530,
  "gging": 8531,
  "gboloja": 8532,
  "gberegbe": 8533,
  "gba  \" alụkwaghịm": 8534,
  "gba  \" alụkwaghịm \" \" ": 8535,
  "garri": 8536,
  "ganịganị": 8537,
  "gation": 8538,
  "ga . ”": 8539,
  "gry": 8540,
  "gro": 8541,
  "funa": 8542,
  "fim ,": 8543,
  "febrụwarị ,": 8544,
  "fever": 8545,
  "fairs": 8546,
  "faịlimọn": 8547,
  "fy": 8548,
  "ftau": 8549,
  "fla": 8550,
  "ezinaụlọ ,": 8551,
  "ezi ?": 8552,
  "ewumewu": 8553,
  "etuel": 8554,
  "etu \"": 8555,
  "ency": 8556,
  "eluigwe . ”": 8557,
  "elensky": 8558,
  "ellow": 8559,
  "ehihie ,": 8560,
  "edo ,": 8561,
  "ebumnobi": 8562,
  "eutenant": 8563,
  "euro": 8564,
  "emu": 8565,
  "egu": 8566,
  "eda": 8567,
  "dọkịta ,": 8568,
  "dọkịta .": 8569,
  "dum ,": 8570,
  "donna": 8571,
  "dodo": 8572,
  "dnes": 8573,
  "dioha": 8574,
  "die": 8575,
  "dersfield": 8576,
  "des": 8577,
  "defo": 8578,
  "dike .": 8579,
  "d .": 8580,
  "cury": 8581,
  "colate": 8582,
  "cky": 8583,
  "cident": 8584,
  "chukwu .": 8585,
  "chocolate": 8586,
  "chineke . ,": 8587,
  "chineke . )": 8588,
  "cherem": 8589,
  "chal": 8590,
  "cht": 8591,
  "cess": 8592,
  "ces": 8593,
  "cense": 8594,
  "cancer": 8595,
  "caze": 8596,
  "cas": 8597,
  "cre": 8598,
  "cle": 8599,
  "cker": 8600,
  "cano": 8601,
  "bụ  \" Nigeria \"": 8602,
  "bụ ;": 8603,
  "bọmbụ": 8604,
  "bịafra :": 8605,
  "boy": 8606,
  "bitumen": 8607,
  "bi ”": 8608,
  "bekee :": 8609,
  "beria": 8610,
  "basket": 8611,
  "balsam": 8612,
  "b .": 8613,
  "b ,": 8614,
  "awulu ,": 8615,
  "atụmatụ .": 8616,
  "asụsụ .": 8617,
  "asọmpi  \" ": 8618,
  "asọm": 8619,
  "asọ .": 8620,
  "arụrụala .": 8621,
  "arụmarụ": 8622,
  "arụkwaghị": 8623,
  "arịrịọ ,": 8624,
  "anụrị ,": 8625,
  "anụ  \" - \"": 8626,
  "anya  \" ": 8627,
  "anni": 8628,
  "ankwa": 8629,
  "amụ .": 8630,
  "ameed": 8631,
  "amawbịa .": 8632,
  "amamihe ,": 8633,
  "amagedọn": 8634,
  "alụmdi": 8635,
  "alakụba .": 8636,
  "ala ;": 8637,
  "akụkụ .": 8638,
  "akwụkwụ": 8639,
  "akpakara": 8640,
  "ajambele": 8641,
  "ahụ . ” )": 8642,
  "ahụ ”": 8643,
  "ahụ \"": 8644,
  "agụmba .": 8645,
  "agwọ ,": 8646,
  "agwa ,": 8647,
  "agbụrụ .": 8648,
  "afọ ?": 8649,
  "afị": 8650,
  "abịa ,": 8651,
  "aaaa": 8652,
  "apị": 8653,
  "adụ": 8654,
  "ader": 8655,
  "achu": 8656,
  "] . ”": 8657,
  "Zulum": 8658,
  "Zinedine": 8659,
  "Ziyech": 8660,
  "Zambia": 8661,
  "Zelensky": 8662,
  "Yoruba ,": 8663,
  "York ,": 8664,
  "Woodward": 8665,
  "Wolverhampton": 8666,
  "Wednes": 8667,
  "Wen": 8668,
  "Wel": 8669,
  "Village": 8670,
  "Viole": 8671,
  "Viet": 8672,
  "Victo": 8673,
  "Vulga": 8674,
  "Volodymyr": 8675,
  "Vide": 8676,
  "Venu": 8677,
  "VI": 8678,
  "Uwaleke": 8679,
  "United :": 8680,
  "United .": 8681,
  "Umueri": 8682,
  "Umaru": 8683,
  "Umar ,": 8684,
  "Udoma": 8685,
  "Ute": 8686,
  "Unachukwu": 8687,
  "Ula": 8688,
  "Uko": 8689,
  "UFC": 8690,
  "Tunisia .": 8691,
  "Troost": 8692,
  "Transparency": 8693,
  "Trafficking :": 8694,
  "Traders": 8695,
  "Toure": 8696,
  "Tosyn": 8697,
  "Too": 8698,
  "Timber": 8699,
  "Tigers": 8700,
  "Theophi": 8701,
  "Tekno ?": 8702,
  "Technical": 8703,
  "Teaching": 8704,
  "Taraba ,": 8705,
  "Tanko": 8706,
  "Tambu": 8707,
  "Tasha": 8708,
  "Tahiti": 8709,
  "Tadic": 8710,
  "Tsvangirai": 8711,
  "Tribu": 8712,
  "Tosin": 8713,
  "Tor": 8714,
  "TH": 8715,
  "Syria ,": 8716,
  "Sudan .": 8717,
  "Steven": 8718,
  "Statistics": 8719,
  "Square": 8720,
  "Squad": 8721,
  "Sports": 8722,
  "Special": 8723,
  "Soluyi": 8724,
  "Soludo ,": 8725,
  "Simeu": 8726,
  "Shinto": 8727,
  "Shalom": 8728,
  "Shop": 8729,
  "Shike": 8730,
  "Shell": 8731,
  "Shara": 8732,
  "Serwan": 8733,
  "Senate": 8734,
  "Sekibo": 8735,
  "Scotland": 8736,
  "Sale": 8737,
  "Sabo": 8738,
  "Sabi": 8739,
  "SSS": 8740,
  "Swa": 8741,
  "Sterling": 8742,
  "Solsk": 8743,
  "Smart": 8744,
  "Sisi": 8745,
  "Sing": 8746,
  "Sin": 8747,
  "Saha": 8748,
  "SEMA": 8749,
  "Rumu": 8750,
  "Rochdale": 8751,
  "River ,": 8752,
  "Riyadh": 8753,
  "Rhodesia": 8754,
  "Reuben": 8755,
  "Repor": 8756,
  "Rashford": 8757,
  "Qua": 8758,
  "Qatar": 8759,
  "Qaeda": 8760,
  "Purity": 8761,
  "Protestant": 8762,
  "Produ": 8763,
  "Printing": 8764,
  "Preto": 8765,
  "Port Harcourt ,": 8766,
  "Police :": 8767,
  "Political": 8768,
  "Plateau .": 8769,
  "Pentecostal": 8770,
  "Pepe": 8771,
  "Party ,": 8772,
  "Paris ,": 8773,
  "Pau": 8774,
  "Prisc": 8775,
  "Positive": 8776,
  "Pla": 8777,
  "Pell": 8778,
  "Pel": 8779,
  "Para": 8780,
  "Pana": 8781,
  "Oyo-Ita": 8782,
  "Oyetola": 8783,
  "Osumenyi": 8784,
  "Osimhen": 8785,
  "Osigwe": 8786,
  "Ortom :": 8787,
  "Origi": 8788,
  "Onuma": 8789,
  "Onuachu": 8790,
  "Oloyede": 8791,
  "Olisa": 8792,
  "Olade": 8793,
  "Okafor": 8794,
  "Ohakim": 8795,
  "Oguta": 8796,
  "Ogbun": 8797,
  "Ogbomoso": 8798,
  "Ofumelu": 8799,
  "Odionye": 8800,
  "Obidigbo": 8801,
  "Obafemi": 8802,
  "OPEC": 8803,
  "OAU": 8804,
  "Owo": 8805,
  "Orie": 8806,
  "Opobo": 8807,
  "On": 8808,
  "Okpu": 8809,
  "Odah": 8810,
  "Nwokolo": 8811,
  "Nworah": 8812,
  "Nwogu": 8813,
  "Nwajiuba": 8814,
  "November": 8815,
  "Norway :": 8816,
  "NoBraDay :": 8817,
  "NoBraDay": 8818,
  "Nobel": 8819,
  "Nkwelle": 8820,
  "Nkiru": 8821,
  "Nkemdilim": 8822,
  "Nkem": 8823,
  "Nigerians": 8824,
  "Nijee": 8825,
  "Nepal": 8826,
  "Naija ,": 8827,
  "Nazi": 8828,
  "Naw": 8829,
  "Nasr": 8830,
  "Nte": 8831,
  "Nse": 8832,
  "Njeman": 8833,
  "Nile": 8834,
  "NUJ": 8835,
  "NG": 8836,
  "Mugabe ,": 8837,
  "Muftau": 8838,
  "Mount": 8839,
  "Morgan": 8840,
  "Monaco": 8841,
  "Morales": 8842,
  "Mont": 8843,
  "Monica": 8844,
  "Moni": 8845,
  "Michel": 8846,
  "Micro": 8847,
  "Medical": 8848,
  "Megha": 8849,
  "Meeting": 8850,
  "McG": 8851,
  "Mbaka :": 8852,
  "Mbaka ,": 8853,
  "Mbanefo": 8854,
  "Maurita": 8855,
  "Marley": 8856,
  "Manase": 8857,
  "Maguire": 8858,
  "Maduabu": 8859,
  "Max": 8860,
  "Mavin": 8861,
  "Massa": 8862,
  "Mason": 8863,
  "Mako": 8864,
  "Major": 8865,
  "Maga": 8866,
  "Madonna": 8867,
  "MMM": 8868,
  "Mr": 8869,
  "Mgba": 8870,
  "MH": 8871,
  "ME": 8872,
  "Luther": 8873,
  "Lignite": 8874,
  "Lives": 8875,
  "Limestone": 8876,
  "Life": 8877,
  "Lieutenant": 8878,
  "League :": 8879,
  "Lemek": 8880,
  "Lawrence": 8881,
  "Larry": 8882,
  "Lagos ?": 8883,
  "Laure": 8884,
  "Latin": 8885,
  "Lacaze": 8886,
  "Lalong": 8887,
  "LA": 8888,
  "Kwankwa": 8889,
  "Kuretọn": 8890,
  "Kobe": 8891,
  "Kenyatta": 8892,
  "Kevin": 8893,
  "Kainji": 8894,
  "Ky": 8895,
  "Kir": 8896,
  "Kidna": 8897,
  "Kar": 8898,
  "Jubri": 8899,
  "Josef ?": 8900,
  "Jong-Un": 8901,
  "Jonathan ,": 8902,
  "Johnso": 8903,
  "Josiah": 8904,
  "Joel": 8905,
  "Jerusalem": 8906,
  "Jeremiah": 8907,
  "Jez": 8908,
  "Jeff": 8909,
  "Japan ,": 8910,
  "Jali": 8911,
  "Jair": 8912,
  "Jac": 8913,
  "Jọs": 8914,
  "Jaja": 8915,
  "Izuchukwu": 8916,
  "Iyabo": 8917,
  "Indonesia .": 8918,
  "Intelligence": 8919,
  "Ikoyi": 8920,
  "Ikeazor": 8921,
  "Ikem": 8922,
  "Ifesina": 8923,
  "Ifediora": 8924,
  "Iceland": 8925,
  "Ibida": 8926,
  "ISI": 8927,
  "ISIL": 8928,
  "ICG": 8929,
  "Iwu": 8930,
  "Istanbu": 8931,
  "Ishi": 8932,
  "Ima": 8933,
  "Ikanda": 8934,
  "Ignatius": 8935,
  "Igbene": 8936,
  "Igba": 8937,
  "Iga": 8938,
  "Huddersfield": 8939,
  "Heung-": 8940,
  "Hea": 8941,
  "Harcourt :": 8942,
  "Hajj": 8943,
  "Hon": 8944,
  "Hol": 8945,
  "Hille": 8946,
  "Hillary": 8947,
  "Hameed": 8948,
  "Gypsum": 8949,
  "Guinea :": 8950,
  "Guardian": 8951,
  "Guzman": 8952,
  "Guate": 8953,
  "Guard": 8954,
  "God ,": 8955,
  "Ghana :": 8956,
  "Georgi": 8957,
  "Gerald": 8958,
  "Gbe": 8959,
  "Gana .": 8960,
  "Garuba": 8961,
  "Galena": 8962,
  "Gre": 8963,
  "G .": 8964,
  "Franklin": 8965,
  "Forsyth": 8966,
  "Firmino": 8967,
  "Fayose": 8968,
  "Fall": 8969,
  "Fort": 8970,
  "Fan": 8971,
  "FUT": 8972,
  "Eziowelle": 8973,
  "Ezeh": 8974,
  "Ezeani": 8975,
  "Explo": 8976,
  "Esege": 8977,
  "Erdo": 8978,
  "Equiano": 8979,
  "Enyimba": 8980,
  "Enoch": 8981,
  "Engineeri": 8982,
  "Emirates": 8983,
  "Emir": 8984,
  "Elias": 8985,
  "Elections": 8986,
  "Ekechi": 8987,
  "Edwin": 8988,
  "Economist": 8989,
  "Eagle": 8990,
  "EPL": 8991,
  "Etu": 8992,
  "Enwe": 8993,
  "Eni": 8994,
  "Egbe": 8995,
  "Egba": 8996,
  "Ede": 8997,
  "Eco": 8998,
  "Doreen": 8999,
  "Distribution": 9000,
  "Diaspora": 9001,
  "DisCos": 9002,
  "Dina": 9003,
  "Delta ,": 9004,
  "Dapchi ,": 9005,
  "Dasuki": 9006,
  "Dortmund": 9007,
  "DSP": 9008,
  "D .": 9009,
  "Corps": 9010,
  "Contro": 9011,
  "Congo ,": 9012,
  "Conference": 9013,
  "Confederation": 9014,
  "Communist": 9015,
  "Commission ,": 9016,
  "Command": 9017,
  "Comrade": 9018,
  "Codex": 9019,
  "Coast": 9020,
  "Cook": 9021,
  "Clau": 9022,
  "Chukwumerije": 9023,
  "Chinua ,": 9024,
  "Chinenye": 9025,
  "Chinecherem": 9026,
  "Chidoka ,": 9027,
  "Chidimma": 9028,
  "Chibuzor": 9029,
  "Chiagozie": 9030,
  "Chiji": 9031,
  "Chigozie": 9032,
  "Check": 9033,
  "Chad .": 9034,
  "Chad ,": 9035,
  "Chavez": 9036,
  "Chapel": 9037,
  "Chek": 9038,
  "Ceci": 9039,
  "Canada ,": 9040,
  "Capital": 9041,
  "Cairo": 9042,
  "Caine": 9043,
  "CONUA": 9044,
  "CNN": 9045,
  "CHAN": 9046,
  "Cru": 9047,
  "Cisse": 9048,
  "Business": 9049,
  "Buratai": 9050,
  "Buda": 9051,
  "Brotherhood": 9052,
  "Britannica": 9053,
  "Bright": 9054,
  "Bolsona": 9055,
  "Borussia": 9056,
  "Bissau": 9057,
  "Benue .": 9058,
  "Badagry": 9059,
  "Badmus": 9060,
  "Babajide": 9061,
  "Bryant": 9062,
  "Blossom": 9063,
  "Betuel": 9064,
  "B .": 9065,
  "Ayamelum ,": 9066,
  "Awolowo": 9067,
  "Awgu ,": 9068,
  "Australian": 9069,
  "Authority": 9070,
  "Austri": 9071,
  "Atiku .": 9072,
  "Ashanti": 9073,
  "Aregbe": 9074,
  "Arebia .": 9075,
  "Archdiocese": 9076,
  "Arabia .": 9077,
  "Apostle": 9078,
  "Anyako": 9079,
  "Antiọk": 9080,
  "Anti-": 9081,
  "Anioma": 9082,
  "Anidi": 9083,
  "Angela": 9084,
  "Anenih": 9085,
  "Anaocha ,": 9086,
  "Analytica": 9087,
  "Anajemba .": 9088,
  "Anazo": 9089,
  "Ann": 9090,
  "Amuche": 9091,
  "Amokachi": 9092,
  "Amarachi": 9093,
  "Alexandria": 9094,
  "Alexis": 9095,
  "Alabi": 9096,
  "Al-Qaeda": 9097,
  "Alle": 9098,
  "Alkmaa": 9099,
  "Alfred": 9100,
  "Albert": 9101,
  "Akwa Ibom": 9102,
  "Akufo-Addo": 9103,
  "Akeredolu": 9104,
  "Ahmed ,": 9105,
  "Again": 9106,
  "Africa ,": 9107,
  "Administration": 9108,
  "Adichie .": 9109,
  "Adesi": 9110,
  "Adekunle": 9111,
  "Adamawa ,": 9112,
  "Abuja": 9113,
  "Abidjan": 9114,
  "Abdulaziz": 9115,
  "ASP": 9116,
  "ASCS": 9117,
  "APGA .": 9118,
  "APGA ,": 9119,
  "AIT ,": 9120,
  "AFP": 9121,
  "Atu": 9122,
  "Apart": 9123,
  "Ame": 9124,
  "Akpu": 9125,
  "Age": 9126,
  "Afo": 9127,
  "90 .": 9128,
  "9 ;": 9129,
  "9 :": 9130,
  "86": 9131,
  "82": 9132,
  "79": 9133,
  "737": 9134,
  "7 ;": 9135,
  "66 ,": 9136,
  "62": 9137,
  "6 ;": 9138,
  "53": 9139,
  "51": 9140,
  "42": 9141,
  "392": 9142,
  "30 .": 9143,
  "22 :": 9144,
  "2011 .": 9145,
  "2009 ,": 9146,
  "2008 ,": 9147,
  "2008": 9148,
  "21 .": 9149,
  "1994 .": 9150,
  "1991 ,": 9151,
  "1960": 9152,
  "18 - ": 9153,
  "1315 ,": 9154,
  "12 - 14": 9155,
  "11 ;": 9156,
  "123": 9157,
  "- 7 )": 9158,
  "- 22": 9159,
  "- 13 )": 9160,
  "- 10": 9161,
  "-Germain": 9162,
  "-East": 9163,
  "( ND": 9164,
  "( DSS )": 9165,
  "( otu": 9166,
  "( ndị": 9167,
  "( gụ": 9168,
  "( 2": 9169,
  "( 1 )": 9170,
  " .  \" otu \"": 9171,
  " , ”": 9172,
  " ) ;": 9173,
  " \" \" nke \"": 9174,
  " \" \" ka \"": 9175,
  "  \" we": 9176,
  "  \" na-a": 9177,
  "  \" kedụ \"": 9178,
  "  \" ha \"": 9179,
  "  \" ebe \"": 9180,
  "  \" Black \"": 9181,
  "  \" )": 9182,
  "  \" , \" \" ": 9183,
  "“ ụzọ": 9184,
  "“ ọgwụgwụ": 9185,
  "“ udo": 9186,
  "“ okwute": 9187,
  "“ nọ": 9188,
  "“ kwụ": 9189,
  "“ kedụ": 9190,
  "“ isi": 9191,
  "“ ike": 9192,
  "“ gị": 9193,
  "“ eze": 9194,
  "“ che": 9195,
  "“ ama": 9196,
  "“ akwụkwọ": 9197,
  "“ agwa": 9198,
  "ụzụ ,": 9199,
  "ụtọ ;": 9200,
  "ụtaba": 9201,
  "ụmụagbọghọ": 9202,
  "ụmụ \"": 9203,
  "ụlọakụkọ": 9204,
  "ụlọ ?": 9205,
  "ụkwara ,": 9206,
  "ụgụrụ": 9207,
  "ụgụ ,": 9208,
  "ụgwọ . ”": 9209,
  "ụgbọ .": 9210,
  "ụfụfụ": 9211,
  "ụnọ": 9212,
  "ụla": 9213,
  "ụkwọ": 9214,
  "ụkwa ,": 9215,
  "ụchụ": 9216,
  "ụa": 9217,
  "ọṅụṅụ .": 9218,
  "ọzọ ”": 9219,
  "ọzọ . ” )": 9220,
  "ọtịta": 9221,
  "ọsọ . ”": 9222,
  "ọrụ . ”": 9223,
  "ọrụ \"": 9224,
  "ọnụ )": 9225,
  "ọnụ \"": 9226,
  "ọnwụnwa ,": 9227,
  "ọnwụ . ,": 9228,
  "ọkọchị .": 9229,
  "ọkwadike": 9230,
  "ọkpụkpụ .": 9231,
  "ọkpọkọrọ ,": 9232,
  "ọkpọ .": 9233,
  "ọkpọ ,": 9234,
  "ọkparaeze": 9235,
  "ọkaiwu .": 9236,
  "ọkaibe .": 9237,
  "ọkaipe ,": 9238,
  "ọkaipe": 9239,
  "ọkafọ .": 9240,
  "ọkazị ,": 9241,
  "ọkara ,": 9242,
  "ọkada": 9243,
  "ọhụrụ ?": 9244,
  "ọhụrụ . ”": 9245,
  "ọhịa ?": 9246,
  "ọgwụgwụ ,": 9247,
  "ọgwụgwọ ,": 9248,
  "ọgbụgba ,": 9249,
  "ọgbọsọ": 9250,
  "ọgbọ ,": 9251,
  "ọgbugba": 9252,
  "ọgbatum": 9253,
  "ọdịbe": 9254,
  "ọdaala": 9255,
  "ọtan": 9256,
  "ọtanisi": 9257,
  "ọrị": 9258,
  "ọna ,": 9259,
  "ọgịga": 9260,
  "ọfọdụ": 9261,
  "ọfị": 9262,
  "ọfịs": 9263,
  "ọb": 9264,
  "ọbạ": 9265,
  "ọbạsị": 9266,
  "Ọnụ": 9267,
  "Ọnyị": 9268,
  "Ọnyịdọ": 9269,
  "Ọfọ": 9270,
  "ịntaneti ?": 9271,
  "ịdịn": 9272,
  "ịba .": 9273,
  "ṅụ .": 9274,
  "שׁ": 9275,
  "פשׁ": 9276,
  "נפשׁ": 9277,
  "é ,": 9278,
  "zọ .": 9279,
  "zone \"": 9280,
  "zo ,": 9281,
  "ziem": 9282,
  "zhok": 9283,
  "zhokhar": 9284,
  "zech": 9285,
  "zambi": 9286,
  "zambique": 9287,
  "zalla": 9288,
  "zz": 9289,
  "zoly": 9290,
  "zolyn": 9291,
  "zburg": 9292,
  "yanju": 9293,
  "ya . ” ,": 9294,
  "ya .  \" ha \"": 9295,
  "ya ,  \" ọ \"": 9296,
  "ya  \" o \"": 9297,
  "yal": 9298,
  "ya ! ”": 9299,
  "ysi": 9300,
  "yn": 9301,
  "xy": 9302,
  "x .": 9303,
  "x ,": 9304,
  "wuruwuru": 9305,
  "weight": 9306,
  "weet": 9307,
  "write": 9308,
  "won": 9309,
  "wole": 9310,
  "wol": 9311,
  "who": 9312,
  "vote": 9313,
  "visa \" \" amerịka": 9314,
  "village": 9315,
  "vine": 9316,
  "vidio": 9317,
  "vester": 9318,
  "ved": 9319,
  "vour": 9320,
  "ute ,": 9321,
  "uru :": 9322,
  "unu . ” )": 9323,
  "unu \"": 9324,
  "unu !": 9325,
  "umuawulu ,": 9326,
  "umengwụ .": 9327,
  "ume ,": 9328,
  "umor": 9329,
  "ule .": 9330,
  "ule ,": 9331,
  "uju ,": 9332,
  "uhie .": 9333,
  "uhaila": 9334,
  "ube ,": 9335,
  "uzuzu": 9336,
  "uto": 9337,
  "uters": 9338,
  "une": 9339,
  "ukwe": 9340,
  "ugba ,": 9341,
  "ual": 9342,
  "tụ .": 9343,
  "ture": 9344,
  "tual": 9345,
  "trition :": 9346,
  "trice": 9347,
  "tomato ,": 9348,
  "tolik": 9349,
  "tole": 9350,
  "tlehem": 9351,
  "tion )": 9352,
  "tiivi": 9353,
  "tize": 9354,
  "tiva": 9355,
  "tiona": 9356,
  "tinue": 9357,
  "ti ,": 9358,
  "this": 9359,
  "thias": 9360,
  "tez": 9361,
  "tena": 9362,
  "tegui": 9363,
  "taryan": 9364,
  "taya": 9365,
  "tanker": 9366,
  "tal ,": 9367,
  "ta :": 9368,
  "tto": 9369,
  "tre": 9370,
  "tramadol": 9371,
  "t-": 9372,
  "sọlọmọ": 9373,
  "sọlọmọn ,": 9374,
  "sọs": 9375,
  "sị ;  \" ": 9376,
  "sị :  \" ọ \"": 9377,
  "stituency": 9378,
  "stival": 9379,
  "stigation": 9380,
  "step": 9381,
  "stein": 9382,
  "stria": 9383,
  "ssien": 9384,
  "sopota": 9385,
  "sopotami": 9386,
  "sio-": 9387,
  "sio-Cor": 9388,
  "sio-Cortez": 9389,
  "sinac": 9390,
  "simenti": 9391,
  "signor": 9392,
  "sident": 9393,
  "siu": 9394,
  "sire": 9395,
  "sia .": 9396,
  "si :": 9397,
  "shosun": 9398,
  "shood": 9399,
  "shale": 9400,
  "shade": 9401,
  "shise": 9402,
  "shiseke": 9403,
  "shisekedi": 9404,
  "sh ,": 9405,
  "sey": 9406,
  "sett": 9407,
  "sensi": 9408,
  "sell": 9409,
  "seinde": 9410,
  "say": 9411,
  "same": 9412,
  "sameria": 9413,
  "sai": 9414,
  "stics": 9415,
  "sp": 9416,
  "sm": 9417,
  "sket": 9418,
  "sford": 9419,
  "sbour": 9420,
  "sbourg": 9421,
  "rọ \"": 9422,
  "rịrị": 9423,
  "rịba": 9424,
  "rịbaama": 9425,
  "rị .  \" ": 9426,
  "ry ,": 9427,
  "rus .": 9428,
  "ru ;": 9429,
  "ru .  \" ": 9430,
  "rough": 9431,
  "row": 9432,
  "ried": 9433,
  "rizi": 9434,
  "rius": 9435,
  "riot": 9436,
  "rier": 9437,
  "ri .  \" ": 9438,
  "reet": 9439,
  "result": 9440,
  "rent": 9441,
  "remain": 9442,
  "regi": 9443,
  "reel": 9444,
  "ration :": 9445,
  "randa": 9446,
  "rta": 9447,
  "rreal": 9448,
  "rdo": 9449,
  "qui": 9450,
  "ques": 9451,
  "quel": 9452,
  "pụ  \" ": 9453,
  "pụ  \" International": 9454,
  "pụ  \" International \" \" na \"": 9455,
  "pọl .": 9456,
  "pur": 9457,
  "protest :": 9458,
  "protein ,": 9459,
  "protein": 9460,
  "potassi": 9461,
  "porting": 9462,
  "porte": 9463,
  "pital ,": 9464,
  "pinoe": 9465,
  "petual": 9466,
  "pati .": 9467,
  "pass": 9468,
  "palace": 9469,
  "ozuzo ,": 9470,
  "oyii": 9471,
  "oyega": 9472,
  "otiti": 9473,
  "oriri ,": 9474,
  "opetegui": 9475,
  "open": 9476,
  "onwe .": 9477,
  "onists": 9478,
  "onta": 9479,
  "onsus": 9480,
  "onger": 9481,
  "omekaome ,": 9482,
  "omeiwu \"": 9483,
  "omena": 9484,
  "olemole": 9485,
  "ole ?": 9486,
  "oldo": 9487,
  "oldova": 9488,
  "oku .": 9489,
  "okpukpu": 9490,
  "okpoma": 9491,
  "okpomabo": 9492,
  "ohi ?": 9493,
  "ohere .": 9494,
  "ofufe .": 9495,
  "ofeke": 9496,
  "oche .": 9497,
  "obodo .  \" ": 9498,
  "obieze": 9499,
  "ozara": 9500,
  "over": 9501,
  "ota": 9502,
  "omy": 9503,
  "okpụrụkpụ": 9504,
  "ojoko": 9505,
  "ogwe": 9506,
  "oghe ,": 9507,
  "ogh": 9508,
  "ogbi": 9509,
  "odun": 9510,
  "odu": 9511,
  "och": 9512,
  "o .  \" ": 9513,
  "nọ . ” )": 9514,
  "nịka": 9515,
  "nzaghachị": 9516,
  "nyere": 9517,
  "nyeama": 9518,
  "nwụ . ,": 9519,
  "nwusi": 9520,
  "nwoke ?": 9521,
  "nwe . ”": 9522,
  "nwaafọ ,": 9523,
  "nwale": 9524,
  "nuklia .": 9525,
  "nut": 9526,
  "nukwu ,": 9527,
  "ntụkwasịobi": 9528,
  "ntụma": 9529,
  "ntụ ,": 9530,
  "ntọrị": 9531,
  "ntification": 9532,
  "ntakịrị .": 9533,
  "ntakịrị ,": 9534,
  "ntari": 9535,
  "ntachi": 9536,
  "nsọpụrụ ,": 9537,
  "nsọ . ”": 9538,
  "nsugbe": 9539,
  "nsonso ,": 9540,
  "nsogbo": 9541,
  "nsewe": 9542,
  "nri :": 9543,
  "nri . ”": 9544,
  "nnwụchi": 9545,
  "nnu .": 9546,
  "nness": 9547,
  "nners": 9548,
  "nkịtị ”": 9549,
  "nkwenkwe": 9550,
  "nkume ,": 9551,
  "nkiri .": 9552,
  "nkasi": 9553,
  "njakịrị": 9554,
  "nishia": 9555,
  "niọm": 9556,
  "nhọpụta .": 9557,
  "ngwụcha ,": 9558,
  "ngwugwu": 9559,
  "ngosipụta": 9560,
  "ngs": 9561,
  "net .": 9562,
  "neij": 9563,
  "neijder": 9564,
  "nebọt .": 9565,
  "neve": 9566,
  "neral": 9567,
  "neme": 9568,
  "neka": 9569,
  "nebo": 9570,
  "ndọtị": 9571,
  "ndị ; )": 9572,
  "ndị  \" Restoration \"": 9573,
  "ndeewo .": 9574,
  "ndepụta": 9575,
  "ndan": 9576,
  "ndale": 9577,
  "nchụtu": 9578,
  "nchịkọ": 9579,
  "naịjirịa :": 9580,
  "naịjirịa  \" . \"": 9581,
  "naịjirịa  \" ": 9582,
  "nazaret": 9583,
  "naira ?": 9584,
  "na  \" gọọmentị \"": 9585,
  "naver": 9586,
  "nard": 9587,
  "naeme": 9588,
  "nae": 9589,
  "na :": 9590,
  "nṅomi": 9591,
  "nzi": 9592,
  "nra": 9593,
  "nha .": 9594,
  "nha ,": 9595,
  "ngwo": 9596,
  "ngha": 9597,
  "mụ .": 9598,
  "mperor": 9599,
  "mpako ,": 9600,
  "mph": 9601,
  "mphrey": 9602,
  "mori": 9603,
  "monu": 9604,
  "mogu": 9605,
  "mmezi": 9606,
  "mmadụ . ,": 9607,
  "mmadụ ”": 9608,
  "mmadụ  \" ": 9609,
  "mma . ,": 9610,
  "mma ”": 9611,
  "mkpughe .": 9612,
  "mkpamkpa .": 9613,
  "mit": 9614,
  "misu": 9615,
  "mie": 9616,
  "middle": 9617,
  "middleweight": 9618,
  "mgbọ ,": 9619,
  "mgbịrịgba": 9620,
  "mgbapụta": 9621,
  "mgbaka": 9622,
  "mgbagwo": 9623,
  "mgbagwoju": 9624,
  "mesaya .": 9625,
  "mediterenian .": 9626,
  "me . )": 9627,
  "meter": 9628,
  "mena": 9629,
  "men ,": 9630,
  "me :": 9631,
  "mbụ . ”": 9632,
  "mbọ ,": 9633,
  "mbum :": 9634,
  "mbilla": 9635,
  "mberede ,": 9636,
  "mbenukwu": 9637,
  "mbassy": 9638,
  "man :": 9639,
  "maazị \"": 9640,
  "maọbụ": 9641,
  "map": 9642,
  "man ,": 9643,
  "mto": 9644,
  "mla": 9645,
  "mile": 9646,
  "m ) .": 9647,
  "m  \" . \"": 9648,
  "logist": 9649,
  "lover": 9650,
  "lola": 9651,
  "lock": 9652,
  "liyasu": 9653,
  "listra .": 9654,
  "lit": 9655,
  "lina": 9656,
  "light": 9657,
  "lica": 9658,
  "ler": 9659,
  "lease": 9660,
  "le :": 9661,
  "le \"": 9662,
  "lapo": 9663,
  "lade": 9664,
  "la . ”": 9665,
  "la .  \" ": 9666,
  "kụ .": 9667,
  "kọpa ,": 9668,
  "kọm-": 9669,
  "kwụna": 9670,
  "kwu :": 9671,
  "kwem !": 9672,
  "kwa  \" ": 9673,
  "krismas ,": 9674,
  "kraịst , ”": 9675,
  "kraịst ?": 9676,
  "kpọkpọ": 9677,
  "kpor": 9678,
  "kpomkwe": 9679,
  "kpa ,": 9680,
  "korodu": 9681,
  "kolam": 9682,
  "kos": 9683,
  "koniọm": 9684,
  "ko .": 9685,
  "klaasị ,": 9686,
  "kins": 9687,
  "kini": 9688,
  "ki ,": 9689,
  "khitaryan": 9690,
  "keze": 9691,
  "kes": 9692,
  "kel": 9693,
  "katọlik )": 9694,
  "kansa ,": 9695,
  "kampanọs .": 9696,
  "kama \"": 9697,
  "kayo": 9698,
  "katolik": 9699,
  "kadi": 9700,
  "krist": 9701,
  "kley": 9702,
  "jụụ .": 9703,
  "jụ ?": 9704,
  "juu ,": 9705,
  "julaị ,": 9706,
  "jubi": 9707,
  "jubigbo": 9708,
  "jokovic": 9709,
  "jeriko .": 9710,
  "jenesis ,": 9711,
  "jekọb .": 9712,
  "janụwarị ,": 9713,
  "jah": 9714,
  "jaer": 9715,
  "jja": 9716,
  "jand": 9717,
  "jandro": 9718,
  "jana": 9719,
  "itoshi": 9720,
  "ites": 9721,
  "isi  \" ": 9722,
  "iro . ”": 9723,
  "iriba": 9724,
  "iribama": 9725,
  "inọk ,": 9726,
  "inflation": 9727,
  "ines": 9728,
  "imoh": 9729,
  "illings :": 9730,
  "iles": 9731,
  "ikike ,": 9732,
  "ikeli": 9733,
  "ihito": 9734,
  "ihe . ” )": 9735,
  "igbo \"": 9736,
  "ig ,": 9737,
  "ider": 9738,
  "ili ,": 9739,
  "ifu": 9740,
  "ibi": 9741,
  "helico": 9742,
  "helicopter": 9743,
  "ha . ” )": 9744,
  "ha .  \" ọ \"": 9745,
  "haba": 9746,
  "hy": 9747,
  "hmm": 9748,
  "gọn": 9749,
  "gị ;": 9750,
  "gị . ” )": 9751,
  "guay": 9752,
  "gunle": 9753,
  "golayat .": 9754,
  "golayat ,": 9755,
  "gir": 9756,
  "gin": 9757,
  "ghị  \" ": 9758,
  "ghie": 9759,
  "gham": 9760,
  "ger ,": 9761,
  "gee": 9762,
  "gbudu": 9763,
  "gbenga": 9764,
  "gate": 9765,
  "game": 9766,
  "group": 9767,
  "gnus": 9768,
  "fọnso": 9769,
  "fugee": 9770,
  "fuel": 9771,
  "frem": 9772,
  "frans ,": 9773,
  "former": 9774,
  "foot": 9775,
  "finance": 9776,
  "fim .": 9777,
  "fibre": 9778,
  "fero .": 9779,
  "febụwarị ,": 9780,
  "fessor": 9781,
  "fery": 9782,
  "fence": 9783,
  "fried": 9784,
  "flic": 9785,
  "ezumike ,": 9786,
  "eziokwu :": 9787,
  "ezinụlọ ,": 9788,
  "ezinaụlọ .": 9789,
  "esnaver": 9790,
  "enyi ?": 9791,
  "enu ,": 9792,
  "emume .": 9793,
  "emena": 9794,
  "eloved": 9795,
  "election :": 9796,
  "elele": 9797,
  "el-": 9798,
  "ekworo": 9799,
  "ekperi": 9800,
  "ejula ,": 9801,
  "ejiji .": 9802,
  "ejide": 9803,
  "ehinde": 9804,
  "egwueke": 9805,
  "egbugbere": 9806,
  "efesọs": 9807,
  "eee ?": 9808,
  "edell": 9809,
  "echichi ,": 9810,
  "echiche :": 9811,
  "echi ?": 9812,
  "ebighị": 9813,
  "ewi": 9814,
  "etụ": 9815,
  "ehu": 9816,
  "eghe ,": 9817,
  "eding": 9818,
  "ece": 9819,
  "e .  \" ": 9820,
  "dọkịta \"": 9821,
  "dọtị": 9822,
  "dị ;": 9823,
  "dukaduka": 9824,
  "dume": 9825,
  "dragọn": 9826,
  "do ?": 9827,
  "dney": 9828,
  "disemba ,": 9829,
  "dimma": 9830,
  "dimgba": 9831,
  "digi": 9832,
  "diff": 9833,
  "dies": 9834,
  "di ?": 9835,
  "deri": 9836,
  "defe": 9837,
  "day :": 9838,
  "dara": 9839,
  "dal": 9840,
  "ds": 9841,
  "dru": 9842,
  "dike ,": 9843,
  "ddy": 9844,
  "culata": 9845,
  "continue": 9846,
  "conomy": 9847,
  "cocoa": 9848,
  "ckerberg": 9849,
  "cialist": 9850,
  "chọ ,": 9851,
  "chusett": 9852,
  "chineke , ”": 9853,
  "chineke ”": 9854,
  "chineke ? ”": 9855,
  "chiifu": 9856,
  "chanic": 9857,
  "champion": 9858,
  "cham": 9859,
  "chy": 9860,
  "church": 9861,
  "ce :": 9862,
  "carpet": 9863,
  "casio-Cortez": 9864,
  "caine": 9865,
  "cket": 9866,
  "cell": 9867,
  "bụla . ”": 9868,
  "bụ . ”": 9869,
  "bọọlụ ?": 9870,
  "bọlụ": 9871,
  "bịa . ” )": 9872,
  "bịrị": 9873,
  "bur": 9874,
  "bu . ”": 9875,
  "brador": 9876,
  "bn ) .": 9877,
  "bn ) ,": 9878,
  "blical": 9879,
  "bis": 9880,
  "biowu": 9881,
  "bia ,": 9882,
  "bi ;": 9883,
  "bi . ” )": 9884,
  "betlehem": 9885,
  "bbery": 9886,
  "bbatical": 9887,
  "babịlọn .": 9888,
  "basti": 9889,
  "bao .": 9890,
  "bala": 9891,
  "bac": 9892,
  "aịkoniọm": 9893,
  "atọ :": 9894,
  "atịtị": 9895,
  "asọmpi ,": 9896,
  "asaba .": 9897,
  "arụkwaghịm .": 9898,
  "arụsị .": 9899,
  "aramola": 9900,
  "ars": 9901,
  "anyị . )": 9902,
  "anyị :": 9903,
  "anyị  \" . \"": 9904,
  "anya ;": 9905,
  "anwụrụ .": 9906,
  "ans": 9907,
  "ango": 9908,
  "amerịka ?": 9909,
  "amen .": 9910,
  "ala . ,": 9911,
  "alaeze": 9912,
  "alti": 9913,
  "akịdị": 9914,
  "akwụnakwụna": 9915,
  "akwụkwọ \"": 9916,
  "akwụkwọ  \" ": 9917,
  "akwụna ,": 9918,
  "akpụ . ”": 9919,
  "akpịrị ,": 9920,
  "akaja .": 9921,
  "akaebe .": 9922,
  "ajụjụ ,": 9923,
  "ajụ .": 9924,
  "aja . ”": 9925,
  "ahụ .  \" ọ \"": 9926,
  "ahụ , ”": 9927,
  "ahụma": 9928,
  "ahụike .": 9929,
  "agụmba ,": 9930,
  "agụmakwụkwọ ,": 9931,
  "aghara ,": 9932,
  "agbụsị": 9933,
  "agbidi .": 9934,
  "agadị .": 9935,
  "agadị ,": 9936,
  "afọ . ”": 9937,
  "afịọlụ": 9938,
  "afawa": 9939,
  "adụ ,": 9940,
  "abụ ; )": 9941,
  "abacha ,": 9942,
  "aṅ": 9943,
  "awele": 9944,
  "attacks :": 9945,
  "aluminium": 9946,
  "aig": 9947,
  "ahọ": 9948,
  "aghị": 9949,
  "agbụgbọ": 9950,
  "agbị": 9951,
  "adu": 9952,
  "Zuckerberg": 9953,
  "Zouma": 9954,
  "Zidane ,": 9955,
  "Zionists": 9956,
  "ZANU": 9957,
  "Yusuph": 9958,
  "YoungTo": 9959,
  "YoungToRu": 9960,
  "YoungToRun": 9961,
  "Yeong": 9962,
  "Yekini": 9963,
  "Yoko": 9964,
  "Work": 9965,
  "Wilfried": 9966,
  "Wilder": 9967,
  "Winners": 9968,
  "Whitney": 9969,
  "White": 9970,
  "Whale": 9971,
  "Wenger": 9972,
  "Wells": 9973,
  "Week": 9974,
  "Wayne": 9975,
  "Wasiu": 9976,
  "Wakil": 9977,
  "Wu": 9978,
  "Wan": 9979,
  "WCON": 9980,
  "Visigo": 9981,
  "Violet": 9982,
  "Villarreal": 9983,
  "Vietnam": 9984,
  "Video": 9985,
  "Value": 9986,
  "VAR )": 9987,
  "Vesnaver": 9988,
  "Uzoamaka": 9989,
  "Uwakolam": 9990,
  "Uruguay": 9991,
  "Universities": 9992,
  "Umuchu ,": 9993,
  "Umuoma": 9994,
  "Umuoba": 9995,
  "Umumbo": 9996,
  "Umahi :": 9997,
  "Umahi ,": 9998,
  "Ukraine .": 9999,
  "Ugboaja": 10000,
  "Udeze": 10001,
  "Udechukwu": 10002,
  "UNIZIK \"": 10003,
  "UNGA": 10004,
  "Uwe": 10005,
  "Utomi": 10006,
  "Up": 10007,
  "Uka": 10008,
  "Ugba": 10009,
  "UPP": 10010,
  "Twitter :": 10011,
  "Troost-E": 10012,
  "Troost-Ekong": 10013,
  "Tribunal :": 10014,
  "Toronto .": 10015,
  "TooYoungToRun": 10016,
  "Tokyo": 10017,
  "Total": 10018,
  "Tomori": 10019,
  "Timgad ,": 10020,
  "Timbershade": 10021,
  "Thibaut": 10022,
  "Thibault": 10023,
  "Things": 10024,
  "Theophilus": 10025,
  "Theo": 10026,
  "The \"": 10027,
  "Tennis": 10028,
  "Technovation :": 10029,
  "Tarrant ,": 10030,
  "Tambuwal": 10031,
  "Taiwan": 10032,
  "TEM": 10033,
  "TDF": 10034,
  "Tshisekedi": 10035,
  "Tse": 10036,
  "Tri": 10037,
  "Ton": 10038,
  "Thu": 10039,
  "Tafawa": 10040,
  "Sylvester": 10041,
  "Sur": 10042,
  "Supp": 10043,
  "Strasbourg": 10044,
  "Steve": 10045,
  "States": 10046,
  "St-Germain": 10047,
  "Specialist": 10048,
  "Sowore .": 10049,
  "Solskjaer": 10050,
  "Sokoto ,": 10051,
  "Somto": 10052,
  "Soci": 10053,
  "Slavia": 10054,
  "Simeulue": 10055,
  "Shiites :": 10056,
  "Shekau .": 10057,
  "Sho": 10058,
  "Shim": 10059,
  "Serwanjja": 10060,
  "Second": 10061,
  "Sevilla": 10062,
  "Septe": 10063,
  "Sena": 10064,
  "Semi": 10065,
  "Sebasti": 10066,
  "Sciences": 10067,
  "Saraki :": 10068,
  "Sandie": 10069,
  "Samuel ,": 10070,
  "Sambisa .": 10071,
  "Salah ,": 10072,
  "Salaam": 10073,
  "Salzburg": 10074,
  "Salwa": 10075,
  "Sahara": 10076,
  "Sagagi": 10077,
  "Satellite": 10078,
  "Sagir": 10079,
  "Sabon": 10080,
  "Sabbatical": 10081,
  "Suhaila": 10082,
  "Stu": 10083,
  "Sneijder": 10084,
  "Slo": 10085,
  "Sibe": 10086,
  "Sch": 10087,
  "Sc": 10088,
  "Saka": 10089,
  "SBC": 10090,
  "Russell": 10091,
  "Runsewe": 10092,
  "Rugge": 10093,
  "Ronaldo ,": 10094,
  "Romney ,": 10095,
  "Rochas ,": 10096,
  "Royal": 10097,
  "Roy": 10098,
  "Roman": 10099,
  "Roc": 10100,
  "Robbery": 10101,
  "Rivas .": 10102,
  "Ribeka .": 10103,
  "Reporters": 10104,
  "Regulation": 10105,
  "Redeem": 10106,
  "Records": 10107,
  "Review": 10108,
  "Reuters": 10109,
  "Reso": 10110,
  "Refugee": 10111,
  "Reece": 10112,
  "Reader": 10113,
  "Raypower": 10114,
  "Ransford": 10115,
  "Rally :": 10116,
  "Raw": 10117,
  "Rauf": 10118,
  "Rashi": 10119,
  "Raquel": 10120,
  "Rapinoe": 10121,
  "Raed": 10122,
  "Rache": 10123,
  "RT": 10124,
  "R )": 10125,
  "Qatar .": 10126,
  "Prof": 10127,
  "Priscilla": 10128,
  "Prize": 10129,
  "Premiership .": 10130,
  "Poland .": 10131,
  "Planning": 10132,
  "Pilate": 10133,
  "Pie": 10134,
  "Pharmaceuticals": 10135,
  "Perpetual": 10136,
  "Pereira": 10137,
  "Paul .": 10138,
  "Park": 10139,
  "Pakistan .": 10140,
  "Pacifi": 10141,
  "Passport": 10142,
  "PDP :": 10143,
  "PTDF": 10144,
  "PN )": 10145,
  "P .": 10146,
  "Oyeyemi": 10147,
  "Owerre": 10148,
  "Otukpo": 10149,
  "Osinbajo ,": 10150,
  "Osadebe ,": 10151,
  "Osaka": 10152,
  "Oriental": 10153,
  "Oringo": 10154,
  "Orlu": 10155,
  "Onwuemeodo ,": 10156,
  "Onuo": 10157,
  "Onu ,": 10158,
  "Onnoghen ,": 10159,
  "Omebe": 10160,
  "Olushosun": 10161,
  "Oluka": 10162,
  "Olugbenga": 10163,
  "Olufemi": 10164,
  "Oluehi": 10165,
  "Oleka": 10166,
  "Olaseinde": 10167,
  "Olamma": 10168,
  "Okwuosa": 10169,
  "Okpatu": 10170,
  "Okonjo-": 10171,
  "Okonjo-Iwe": 10172,
  "Okonkwo ,": 10173,
  "Okika": 10174,
  "Okija": 10175,
  "Okagba": 10176,
  "Ojukwu ,": 10177,
  "Ohaozara": 10178,
  "Ogunwusi": 10179,
  "Ogun ,": 10180,
  "Ogbunike ,": 10181,
  "Ogbeh": 10182,
  "Ogbaru ,": 10183,
  "Offa": 10184,
  "Odudu": 10185,
  "Odozi": 10186,
  "Odionyen": 10187,
  "Obowo": 10188,
  "Obiano ,": 10189,
  "Obinna": 10190,
  "Obienye": 10191,
  "Obie": 10192,
  "Obialo": 10193,
  "Ozil": 10194,
  "Ozalla": 10195,
  "Ovie": 10196,
  "Opu": 10197,
  "Onyi": 10198,
  "Ontari": 10199,
  "Onga": 10200,
  "One": 10201,
  "Olympic": 10202,
  "Ol": 10203,
  "Okpe": 10204,
  "Odun": 10205,
  "Ocasio-Cortez": 10206,
  "Obrador": 10207,
  "Nwokocha": 10208,
  "Nutrition :": 10209,
  "NotTooYoungToRun": 10210,
  "Norman": 10211,
  "Nollywood .": 10212,
  "Noa ,": 10213,
  "Nnama": 10214,
  "Nkenu": 10215,
  "Njikọka ,": 10216,
  "Njima": 10217,
  "Njemanze": 10218,
  "Nineve": 10219,
  "Nic": 10220,
  "Netanyahu ,": 10221,
  "Ndiego": 10222,
  "Nancy": 10223,
  "Naza": 10224,
  "Nata": 10225,
  "Nassa": 10226,
  "Naoko": 10227,
  "Nabena": 10228,
  "Non": 10229,
  "Nome": 10230,
  "Njubigbo": 10231,
  "Ndio": 10232,
  "Ndefo": 10233,
  "Mul": 10234,
  "Mozis ,": 10235,
  "Montreal": 10236,
  "Monsignor": 10237,
  "Momodu": 10238,
  "Mozambique": 10239,
  "Moshood": 10240,
  "Monkeypox": 10241,
  "Model": 10242,
  "Mitt": 10243,
  "Misty": 10244,
  "Michi": 10245,
  "Miango": 10246,
  "Methodist": 10247,
  "Mee": 10248,
  "McGin": 10249,
  "Mbano": 10250,
  "Mbana": 10251,
  "Mauritania": 10252,
  "Maurice": 10253,
  "Matthias": 10254,
  "Massachusett": 10255,
  "Martial": 10256,
  "Malawi": 10257,
  "Malami ,": 10258,
  "Mahmou": 10259,
  "Maduabuchi": 10260,
  "Madubu": 10261,
  "Mater": 10262,
  "Mambilla": 10263,
  "Maite": 10264,
  "Magnus": 10265,
  "MAT": 10266,
  "Moldova": 10267,
  "Mkhitaryan": 10268,
  "Metu": 10269,
  "Mele": 10270,
  "Mbe": 10271,
  "MB": 10272,
  "Luke": 10273,
  "Lugard": 10274,
  "Livestock": 10275,
  "Liverpool .": 10276,
  "Liverpool ,": 10277,
  "Libya :": 10278,
  "Liga": 10279,
  "Libra": 10280,
  "Lia": 10281,
  "Leave": 10282,
  "Lawyers": 10283,
  "Laurie": 10284,
  "Laterite": 10285,
  "Lagos :": 10286,
  "Lacazette": 10287,
  "Layou": 10288,
  "Lawan": 10289,
  "Laporte": 10290,
  "Lami": 10291,
  "Ladodo": 10292,
  "Lopetegui": 10293,
  "Lang": 10294,
  "Kwa": 10295,
  "Kurd": 10296,
  "Kuti": 10297,
  "Kuma": 10298,
  "Kolasinac": 10299,
  "Kovac": 10300,
  "Komla": 10301,
  "Kolo": 10302,
  "Kingdom": 10303,
  "Kabiru": 10304,
  "Karen": 10305,
  "Killing :": 10306,
  "Kehinde": 10307,
  "Kal": 10308,
  "Kaka": 10309,
  "Kabu": 10310,
  "Juli": 10311,
  "Joseph ,": 10312,
  "Job .": 10313,
  "Josh": 10314,
  "Jogging": 10315,
  "Joa": 10316,
  "Jideọfọ ,": 10317,
  "Jiha": 10318,
  "Jibri": 10319,
  "Jezreel": 10320,
  "Jerome": 10321,
  "Jenkọ": 10322,
  "Jeffery": 10323,
  "Jalingo": 10324,
  "Jacques": 10325,
  "Jack": 10326,
  "Jimoh": 10327,
  "Jerry": 10328,
  "Jer": 10329,
  "Janga": 10330,
  "Jama": 10331,
  "Iwuno": 10332,
  "Israel .": 10333,
  "Isong": 10334,
  "Isse": 10335,
  "Investigation": 10336,
  "International \"": 10337,
  "Instagra": 10338,
  "Indian": 10339,
  "Inspector": 10340,
  "Immaculata": 10341,
  "Ilorin": 10342,
  "Ikedife": 10343,
  "Ikeji": 10344,
  "Ijegun": 10345,
  "Ihedioha .": 10346,
  "Ihedioha ,": 10347,
  "Igboeze": 10348,
  "Igbo-U": 10349,
  "Igbeneghu": 10350,
  "Igbaria": 10351,
  "Ifeoma": 10352,
  "Iden ,": 10353,
  "Ibraheem": 10354,
  "ISCO": 10355,
  "It": 10356,
  "Iliyasu": 10357,
  "Ikorodu": 10358,
  "Ihu": 10359,
  "Ifrem": 10360,
  "Hungary .": 10361,
  "Hunger": 10362,
  "Humphrey": 10363,
  "Hotel": 10364,
  "Hospital ,": 10365,
  "Hong .": 10366,
  "Heung-min": 10367,
  "Herod": 10368,
  "Henri": 10369,
  "Head": 10370,
  "Hauwa": 10371,
  "Haram :": 10372,
  "Hamisu": 10373,
  "Haiti": 10374,
  "Hus": 10375,
  "Hugo": 10376,
  "Hot": 10377,
  "Hitoshi": 10378,
  "Gọv .": 10379,
  "Gwan": 10380,
  "Gwa": 10381,
  "Guinea-": 10382,
  "Guinness": 10383,
  "Gusau": 10384,
  "Gunna": 10385,
  "Group  \" kwu": 10386,
  "Group  \" kwuru \"": 10387,
  "Greek": 10388,
  "Godfrey": 10389,
  "Gothi": 10390,
  "Goma": 10391,
  "Germany .": 10392,
  "Gerizi": 10393,
  "Gbenga": 10394,
  "Gboyega": 10395,
  "Gali": 10396,
  "Gina": 10397,
  "France :": 10398,
  "Fintiri": 10399,
  "Finland": 10400,
  "Finishia": 10401,
  "Filip": 10402,
  "Fela": 10403,
  "Feina": 10404,
  "Fatima": 10405,
  "FRCN": 10406,
  "FIB": 10407,
  "FF )": 10408,
  "Fide": 10409,
  "Ezini": 10410,
  "Ezenneka": 10411,
  "Ezenachukwu": 10412,
  "Ezeilo": 10413,
  "Extra": 10414,
  "Expe": 10415,
  "Europe ,": 10416,
  "Euphrate": 10417,
  "Etuhu": 10418,
  "Eritrea": 10419,
  "Erdogan": 10420,
  "Erne": 10421,
  "Enwonwu": 10422,
  "Enugwu-A": 10423,
  "Enoide": 10424,
  "Emenike": 10425,
  "Emzolyn": 10426,
  "Ekwulobi": 10427,
  "Ekiti ,": 10428,
  "Eid-": 10429,
  "Egypt .": 10430,
  "Egbunuche": 10431,
  "Education": 10432,
  "Edochie": 10433,
  "Edmund": 10434,
  "Economic \"": 10435,
  "EMA )": 10436,
  "Ezu": 10437,
  "Evi": 10438,
  "Eva": 10439,
  "Euni": 10440,
  "Enyeama": 10441,
  "Enwere": 10442,
  "Ena": 10443,
  "Emperor": 10444,
  "Emp": 10445,
  "Emiliano": 10446,
  "Elo": 10447,
  "Eko": 10448,
  "Edo ,": 10449,
  "E-": 10450,
  "E .": 10451,
  "Dunukofia": 10452,
  "Dunukofi": 10453,
  "Donny": 10454,
  "Dolapo": 10455,
  "District": 10456,
  "Division": 10457,
  "Derby": 10458,
  "Denmark": 10459,
  "Denja": 10460,
  "Democrat": 10461,
  "Delhi": 10462,
  "Desire": 10463,
  "Demon": 10464,
  "Dementi": 10465,
  "Dege": 10466,
  "Dede": 10467,
  "Davies": 10468,
  "Danmallam": 10469,
  "Dambazau": 10470,
  "Damaturu": 10471,
  "Dakolo ,": 10472,
  "Damian": 10473,
  "DSS ?": 10474,
  "Dzhokhar": 10475,
  "Dumor": 10476,
  "Djokovic": 10477,
  "Dele": 10478,
  "Daramola": 10479,
  "DISCO": 10480,
  "D )": 10481,
  "Cyber \"": 10482,
  "Cultural": 10483,
  "Cricket": 10484,
  "Council :": 10485,
  "Cosmas \"": 10486,
  "Corbyn": 10487,
  "Control": 10488,
  "Conte": 10489,
  "Constituency": 10490,
  "Commonwealth .": 10491,
  "Colonel": 10492,
  "Coro": 10493,
  "Copa": 10494,
  "Claudia": 10495,
  "Citize": 10496,
  "Christiane": 10497,
  "Christmas": 10498,
  "Christ ,": 10499,
  "Chioma !": 10500,
  "Chinualu": 10501,
  "Chinese": 10502,
  "Chile .": 10503,
  "Chikere": 10504,
  "Chiemela": 10505,
  "Chiejine ,": 10506,
  "Chinyere": 10507,
  "Chinwe .": 10508,
  "Chikun": 10509,
  "Chiamaka": 10510,
  "Chihe": 10511,
  "Chal": 10512,
  "Center": 10513,
  "Carabao .": 10514,
  "Cardiff": 10515,
  "Cancelo": 10516,
  "Canada .": 10517,
  "Canadian": 10518,
  "Campaig": 10519,
  "Cameroon .": 10520,
  "California .": 10521,
  "Calista": 10522,
  "Calaba": 10523,
  "Callum": 10524,
  "Cape": 10525,
  "CH ,": 10526,
  "Czech": 10527,
  "Currency": 10528,
  "CIS": 10529,
  "CIA": 10530,
  "C-": 10531,
  "C-Don": 10532,
  "Burundi .": 10533,
  "Bundesliga": 10534,
  "Bumbum :": 10535,
  "Bula": 10536,
  "Bruyne": 10537,
  "Bridget": 10538,
  "Brian": 10539,
  "Brass": 10540,
  "Bonny": 10541,
  "Bolsonaro": 10542,
  "Bolton": 10543,
  "Boro": 10544,
  "Book": 10545,
  "Billie": 10546,
  "Bilbao": 10547,
  "Biokpomabo": 10548,
  "Biblical": 10549,
  "Bernardo": 10550,
  "Benjamin .": 10551,
  "Benin ,": 10552,
  "Belgium .": 10553,
  "Beatrice": 10554,
  "Barcelona .": 10555,
  "Barkley": 10556,
  "Babangida": 10557,
  "Basket": 10558,
  "Baru": 10559,
  "Back": 10560,
  "BBC ,": 10561,
  "Bul": 10562,
  "Bin": 10563,
  "Beloved": 10564,
  "Bedell": 10565,
  "Bal": 10566,
  "B ,": 10567,
  "Awara": 10568,
  "Awka": 10569,
  "Austria .": 10570,
  "Austria": 10571,
  "Atuejide": 10572,
  "Atlanti": 10573,
  "Assistant": 10574,
  "Ashley": 10575,
  "Asagwara": 10576,
  "Arsenal ,": 10577,
  "Arimah": 10578,
  "Aregbesola": 10579,
  "Arabik ,": 10580,
  "Anyakora": 10581,
  "Anyachebe": 10582,
  "Antioch": 10583,
  "Anidiobi": 10584,
  "Angeles .": 10585,
  "Angels": 10586,
  "Anazodo": 10587,
  "Anam ,": 10588,
  "Amos": 10589,
  "America ,": 10590,
  "Amaraizu ,": 10591,
  "Amaku": 10592,
  "Amakeze": 10593,
  "Amster": 10594,
  "Alphonsus": 10595,
  "Alona": 10596,
  "Alkmaar": 10597,
  "Alison": 10598,
  "Alexandria ,": 10599,
  "Alejandro": 10600,
  "Alkali": 10601,
  "Alfọnso": 10602,
  "Albi": 10603,
  "Akunwafor": 10604,
  "Akun": 10605,
  "Akume": 10606,
  "Akihito": 10607,
  "Ajegunle": 10608,
  "Airport ?": 10609,
  "Agrippa": 10610,
  "Agricultu": 10611,
  "Against": 10612,
  "Agnes": 10613,
  "Africa  \" - \"": 10614,
  "Afenife": 10615,
  "Adewale": 10616,
  "Adefara": 10617,
  "Adeda": 10618,
  "Adebisi": 10619,
  "Adazi-Nnukwu ,": 10620,
  "Addis": 10621,
  "Achike": 10622,
  "Achebe ,": 10623,
  "Academic": 10624,
  "Account": 10625,
  "Accord": 10626,
  "Abubakar .": 10627,
  "Abuja .": 10628,
  "Abraka ,": 10629,
  "Abiodun": 10630,
  "Abdullahi ,": 10631,
  "Abaribe :": 10632,
  "Abaribe .": 10633,
  "Abakpa": 10634,
  "Abaga": 10635,
  "ASUP": 10636,
  "ASCSDA": 10637,
  "Aze": 10638,
  "Ayi": 10639,
  "Aye": 10640,
  "Ay": 10641,
  "Athe": 10642,
  "Akpe": 10643,
  "Afi": 10644,
  "Adia": 10645,
  "Act": 10646,
  "AWCON": 10647,
  "AD": 10648,
  "94": 10649,
  "900": 10650,
  "900 ) .": 10651,
  "800 ,": 10652,
  "81 ,": 10653,
  "81": 10654,
  "76": 10655,
  "64": 10656,
  "60 .": 10657,
  "6 - ": 10658,
  "50 )": 10659,
  "57": 10660,
  "56 .": 10661,
  "56": 10662,
  "52": 10663,
  "5.": 10664,
  "44 :": 10665,
  "48": 10666,
  "41 )": 10667,
  "4 . \"": 10668,
  "37 :": 10669,
  "344": 10670,
  "314": 10671,
  "28 ;": 10672,
  "23 .": 10673,
  "21 :": 10674,
  "2007 .": 10675,
  "2001": 10676,
  "200 .": 10677,
  "2022": 10678,
  "20 :": 10679,
  "20 .": 10680,
  "2.5": 10681,
  "24 )": 10682,
  "21 ,": 10683,
  "2 ;": 10684,
  "1997 ,": 10685,
  "1996 ,": 10686,
  "1991": 10687,
  "1990 .": 10688,
  "1985 .": 10689,
  "1980 .": 10690,
  "1976 ,": 10691,
  "1975": 10692,
  "1914 ?": 10693,
  "1924": 10694,
  "19 :": 10695,
  "18 .": 10696,
  "176": 10697,
  "164": 10698,
  "15 .": 10699,
  "15 - ": 10700,
  "136": 10701,
  "13 ;": 10702,
  "13 .": 10703,
  "12 .": 10704,
  "11 :": 10705,
  "100 .": 10706,
  "100 ,": 10707,
  "103": 10708,
  "101": 10709,
  "10 :": 10710,
  "120 ,": 10711,
  "115": 10712,
  "11 .": 10713,
  "000 ?": 10714,
  "---": 10715,
  "- 33 )": 10716,
  "- 31": 10717,
  "- 9 )": 10718,
  "- 8 )": 10719,
  "- 6 )": 10720,
  "- 4 )": 10721,
  "- 27": 10722,
  "- 18": 10723,
  "- 17 )": 10724,
  "- 16 )": 10725,
  "- 15 )": 10726,
  "- 14": 10727,
  "- 12 )": 10728,
  "- 12": 10729,
  "-Ife": 10730,
  "( NC": 10731,
  "( Awka": 10732,
  "( ọgọst": 10733,
  "( sper": 10734,
  "( per": 10735,
  "( ihe": 10736,
  "( di": 10737,
  "( VAR )": 10738,
  "( SARS": 10739,
  "( NA": 10740,
  "( J": 10741,
  "( I": 10742,
  "( E": 10743,
  "( AP": 10744,
  "( 9 )": 10745,
  "( 3 )": 10746,
  "( 1.": 10747,
  "( 1": 10748,
  "% ) .": 10749,
  " ? ?": 10750,
  " . \" \" ": 10751,
  " .  \" ọ": 10752,
  " .  \" oge \"": 10753,
  " .  \" kedụ \"": 10754,
  " .  \" ebe \"": 10755,
  " .  \" e": 10756,
  "  \" oge \"": 10757,
  "  \" me": 10758,
  "  \" maka \"": 10759,
  "  \" UNIZIK \"": 10760,
  "  \" ? \"": 10761,
  "“ ọkpara": 10762,
  "“ oo": 10763,
  "“ ee": 10764,
  "“ ‘": 10765,
  "“ ịnyịnya": 10766,
  "“ tụ": 10767,
  "“ so": 10768,
  "“ onyinye": 10769,
  "“ obere": 10770,
  "“ nri": 10771,
  "“ nghọta": 10772,
  "“ mmehie": 10773,
  "“ me": 10774,
  "“ maazị": 10775,
  "“ jehova": 10776,
  "“ igwe": 10777,
  "“ gu": 10778,
  "“ ezigbo": 10779,
  "“ biko": 10780,
  "“ ahụ": 10781,
  "“ ahịhịa": 10782,
  "ụzọ .  \" ": 10783,
  "ụwa . ;": 10784,
  "ụtụ .": 10785,
  "ụtarị ,": 10786,
  "ụsọekwu": 10787,
  "ụmụnne ,": 10788,
  "ụmụnna .": 10789,
  "ụmụaka ?": 10790,
  "ụmụahịa .": 10791,
  "ụmụ .": 10792,
  "ụlọikpe \"": 10793,
  "ụlọmkpọrọ .": 10794,
  "ụkọ .": 10795,
  "ụkpana": 10796,
  "ụkpala": 10797,
  "ụgbọelu ?": 10798,
  "ụgbọelu .": 10799,
  "ụgbọ ,": 10800,
  "ụfụfụ .": 10801,
  "ụfụ .": 10802,
  "ụbụrụ ?": 10803,
  "ụbọchị \"": 10804,
  "ụrị": 10805,
  "ụja ,": 10806,
  "ụgbụgbọ": 10807,
  "ụgbo": 10808,
  "ụgba": 10809,
  "Ụmụdim": 10810,
  "Ụka": 10811,
  "Ụkaeju": 10812,
  "ọṅụṅụ ,": 10813,
  "ọzụzụ .": 10814,
  "ọzụzụ ,": 10815,
  "ọzọ ? ”": 10816,
  "ọzọ . ” ,": 10817,
  "ọtụrụ": 10818,
  "ọtọmegbu": 10819,
  "ọtaakara": 10820,
  "ọsụsọ": 10821,
  "ọsụkọ": 10822,
  "ọsụkọsụ": 10823,
  "ọsịsọ .": 10824,
  "ọsịsọ ,": 10825,
  "ọrịa ?": 10826,
  "ọnụọgụgụ .": 10827,
  "ọnụọgụgụ ,": 10828,
  "ọnụnọ": 10829,
  "ọnwụ ”": 10830,
  "ọma ;": 10831,
  "ọma !": 10832,
  "ọlụlụ": 10833,
  "ọlaedo .": 10834,
  "ọlanchara .": 10835,
  "ọlanchara": 10836,
  "ọla ,": 10837,
  "ọkụka": 10838,
  "ọkwa  \" ": 10839,
  "ọkpụ ,": 10840,
  "ọkpara .": 10841,
  "ọkpara ,": 10842,
  "ọkara .": 10843,
  "ọkamgba": 10844,
  "ọhịa ”": 10845,
  "ọgụ !": 10846,
  "ọgọ .": 10847,
  "ọgbatumtum ,": 10848,
  "ọgbakọ  \" ": 10849,
  "ọgaranya ,": 10850,
  "ọganihu .": 10851,
  "ọfụfụ": 10852,
  "ọfụ .": 10853,
  "ọfụ ,": 10854,
  "ọdụm .": 10855,
  "ọdịbendị": 10856,
  "ọchịchịrị ,": 10857,
  "ọbọ , ...": 10858,
  "ọbọ ;": 10859,
  "ọbasanjọ :": 10860,
  "ọbasanjọ .": 10861,
  "ọọ .": 10862,
  "ọịs": 10863,
  "ọwụ": 10864,
  "ọsa ,": 10865,
  "ọpụrụ": 10866,
  "ọnya .": 10867,
  "ọja ,": 10868,
  "ọja": 10869,
  "ọha .  \" ": 10870,
  "ọgha": 10871,
  "ọ ;": 10872,
  "Ọkọnkọ": 10873,
  "Ọlụ": 10874,
  "Ọkụ": 10875,
  "ịzụka": 10876,
  "ịnyịnya ,": 10877,
  "ịlaịja :": 10878,
  "ịyị": 10879,
  "ịsha": 10880,
  "ịrịbaama": 10881,
  "ịghụ": 10882,
  "ṅomi .": 10883,
  "ón": 10884,
  "ígwé,": 10885,
  "ía": 10886,
  "ão": 10887,
  "zụ ,": 10888,
  "zịza ,": 10889,
  "zị \"": 10890,
  "zukala": 10891,
  "zuo": 10892,
  "zonspor": 10893,
  "ziri": 10894,
  "zinc": 10895,
  "zik ,": 10896,
  "zela": 10897,
  "zela-": 10898,
  "zela-Mandela": 10899,
  "ze .": 10900,
  "zzi": 10901,
  "z-": 10902,
  "yyida": 10903,
  "yonu": 10904,
  "yomi": 10905,
  "yiwa": 10906,
  "yen": 10907,
  "yabasị ,": 10908,
  "ya .  \" o \"": 10909,
  "ya .  \" mana \"": 10910,
  "ya .  \" e": 10911,
  "ya ,  \" onye \"": 10912,
  "yaspor": 10913,
  "yange": 10914,
  "yan ,": 10915,
  "yampo": 10916,
  "yam": 10917,
  "ya  \" ihe \"": 10918,
  "yo .": 10919,
  "yo ,": 10920,
  "yno": 10921,
  "yl": 10922,
  "yellow": 10923,
  "y-": 10924,
  "xt": 10925,
  "xford": 10926,
  "x )": 10927,
  "wolf": 10928,
  "wo ,": 10929,
  "wie": 10930,
  "wers": 10931,
  "were": 10932,
  "wen": 10933,
  "ways": 10934,
  "wayo .": 10935,
  "waya": 10936,
  "wara": 10937,
  "want": 10938,
  "wakpo": 10939,
  "wage": 10940,
  "wọ .": 10941,
  "women": 10942,
  "wn .": 10943,
  "wha": 10944,
  "whate": 10945,
  "whatever": 10946,
  "vorce": 10947,
  "volcano": 10948,
  "vock": 10949,
  "voca": 10950,
  "vivus": 10951,
  "vis": 10952,
  "virus": 10953,
  "vigi": 10954,
  "vigilan": 10955,
  "vigilante": 10956,
  "via ,": 10957,
  "vernment": 10958,
  "verly": 10959,
  "verde": 10960,
  "veranda": 10961,
  "vaịn ,": 10962,
  "vaja": 10963,
  "vajal": 10964,
  "vá": 10965,
  "vu": 10966,
  "volu": 10967,
  "volunte": 10968,
  "volunteer": 10969,
  "venue": 10970,
  "velo": 10971,
  "uwe ,": 10972,
  "urule": 10973,
  "urulere": 10974,
  "urces": 10975,
  "unu ”": 10976,
  "unu . ” ,": 10977,
  "unis": 10978,
  "umeala ,": 10979,
  "ulisi": 10980,
  "ulisic": 10981,
  "ukwu . ,": 10982,
  "ukwu ?": 10983,
  "ugwu :": 10984,
  "ugolo": 10985,
  "ugbala": 10986,
  "udummiri ,": 10987,
  "uche ,": 10988,
  "ura ,": 10989,
  "uny": 10990,
  "uke ,": 10991,
  "ua": 10992,
  "u .": 10993,
  "tụmadụ": 10994,
  "twitter .": 10995,
  "tupu \"": 10996,
  "tung": 10997,
  "tuna": 10998,
  "tu .": 10999,
  "ttima": 11000,
  "ttenai": 11001,
  "ttack :": 11002,
  "tribu": 11003,
  "transformer": 11004,
  "trade": 11005,
  "ton .": 11006,
  "tolemy": 11007,
  "toring": 11008,
  "too": 11009,
  "tn ) .": 11010,
  "tices": 11011,
  "ticles": 11012,
  "tivi": 11013,
  "tition": 11014,
  "tipa": 11015,
  "tinka": 11016,
  "tilla": 11017,
  "tifi": 11018,
  "thing": 11019,
  "thida": 11020,
  "thema": 11021,
  "thon": 11022,
  "th ,": 11023,
  "terpri": 11024,
  "terprises": 11025,
  "tennis .": 11026,
  "tenberg": 11027,
  "teknụzụ .": 11028,
  "terial": 11029,
  "tera": 11030,
  "tende": 11031,
  "tendent": 11032,
  "tebo": 11033,
  "team": 11034,
  "taata :": 11035,
  "taata ,": 11036,
  "taa ;": 11037,
  "taa !": 11038,
  "tasara": 11039,
  "tami": 11040,
  "tality": 11041,
  "ta ”": 11042,
  "ta ;": 11043,
  "ta . ” )": 11044,
  "ta .  \" anyị \"": 11045,
  "ta .  \" ": 11046,
  "tty": 11047,
  "tsu": 11048,
  "tshua": 11049,
  "tshuayi": 11050,
  "td": 11051,
  "tche": 11052,
  "t )": 11053,
  "sọl ,": 11054,
  "sọdọ": 11055,
  "sọdọm": 11056,
  "sọb": 11057,
  "sọbje": 11058,
  "sọbjek": 11059,
  "sọbjekt": 11060,
  "sọ .": 11061,
  "sị :  \" n' \"": 11062,
  "sị . )": 11063,
  "sị ,  \" a \"": 11064,
  "sị ,  \" a": 11065,
  "sị . ”": 11066,
  "sị  \" n' \"": 11067,
  "sulta": 11068,
  "sus ,": 11069,
  "sury": 11070,
  "supa": 11071,
  "sun ,": 11072,
  "struction": 11073,
  "strar": 11074,
  "story": 11075,
  "stern": 11076,
  "steeti .  \" ": 11077,
  "sted": 11078,
  "state ,": 11079,
  "stadium": 11080,
  "strial": 11081,
  "street": 11082,
  "ssion ,": 11083,
  "ssenger": 11084,
  "ssalo": 11085,
  "sorom": 11086,
  "soret": 11087,
  "soanya": 11088,
  "soadu": 11089,
  "soadura": 11090,
  "so \"": 11091,
  "slight": 11092,
  "slav": 11093,
  "single": 11094,
  "silica": 11095,
  "sis": 11096,
  "sioma": 11097,
  "sim": 11098,
  "sil": 11099,
  "sike": 11100,
  "si ;": 11101,
  "shuga ,": 11102,
  "shụa": 11103,
  "shit": 11104,
  "shel": 11105,
  "sh :": 11106,
  "sh .": 11107,
  "senet ?": 11108,
  "senet .": 11109,
  "sekọndrị .": 11110,
  "sekọndrị ,": 11111,
  "secondary": 11112,
  "seum": 11113,
  "semi": 11114,
  "semiro": 11115,
  "seme": 11116,
  "sea ,": 11117,
  "sea": 11118,
  "saụt .": 11119,
  "sayen": 11120,
  "sayensị ,": 11121,
  "salt": 11122,
  "sanna": 11123,
  "sala": 11124,
  "sakra": 11125,
  "sakrame": 11126,
  "sakramentị": 11127,
  "swa": 11128,
  "square": 11129,
  "spur": 11130,
  "spa": 11131,
  "smond": 11132,
  "slate": 11133,
  "s-": 11134,
  "s ) .": 11135,
  "s \" \" n' \"": 11136,
  "rọs .": 11137,
  "rọn": 11138,
  "rọ . ”": 11139,
  "rị . ”": 11140,
  "rum ,": 11141,
  "rugwu": 11142,
  "rts": 11143,
  "rs :": 11144,
  "roni": 11145,
  "role": 11146,
  "roin": 11147,
  "rintendent": 11148,
  "riake": 11149,
  "riah": 11150,
  "riva": 11151,
  "rira": 11152,
  "rinne": 11153,
  "rim": 11154,
  "rilla": 11155,
  "rika": 11156,
  "right": 11157,
  "riga": 11158,
  "ribbe": 11159,
  "renfe": 11160,
  "renfell": 11161,
  "reast": 11162,
  "rers": 11163,
  "rede": 11164,
  "rebel": 11165,
  "ransi": 11166,
  "range": 11167,
  "rangelo": 11168,
  "ramai": 11169,
  "ralong": 11170,
  "ralongko": 11171,
  "ralongkorn": 11172,
  "ractices": 11173,
  "ravers": 11174,
  "ram": 11175,
  "raj": 11176,
  "rain": 11177,
  "racht": 11178,
  "ra ”": 11179,
  "ra ;": 11180,
  "ra )": 11181,
  "rl": 11182,
  "rdi": 11183,
  "quez": 11184,
  "quity": 11185,
  "que ,": 11186,
  "pụ . ”": 11187,
  "pọtịf": 11188,
  "pọtịfa ,": 11189,
  "pịị": 11190,
  "pịnta": 11191,
  "pyright": 11192,
  "price": 11193,
  "premi": 11194,
  "premier": 11195,
  "pping :": 11196,
  "ppeal": 11197,
  "ppines": 11198,
  "poulo": 11199,
  "poulos ,": 11200,
  "potassium": 11201,
  "pova": 11202,
  "phane": 11203,
  "phael": 11204,
  "phra": 11205,
  "permit": 11206,
  "pensụl .": 11207,
  "penalty .": 11208,
  "petro": 11209,
  "perintendent": 11210,
  "peop": 11211,
  "people": 11212,
  "peline": 11213,
  "pele": 11214,
  "pe .": 11215,
  "paradaịs ,": 11216,
  "partition": 11217,
  "papaịrọs .": 11218,
  "pari": 11219,
  "ption": 11220,
  "ptain": 11221,
  "pta": 11222,
  "pra": 11223,
  "poly": 11224,
  "pilla": 11225,
  "pil": 11226,
  "phu": 11227,
  "phus": 11228,
  "ozugbo ;": 11229,
  "ozu :": 11230,
  "ozi ?": 11231,
  "ozi  \" ": 11232,
  "oyin": 11233,
  "oye ,": 11234,
  "owuwu": 11235,
  "owerri :": 11236,
  "owerri .": 11237,
  "owerment": 11238,
  "ough": 11239,
  "otus": 11240,
  "otite": 11241,
  "osimiri ,": 11242,
  "osen": 11243,
  "orure": 11244,
  "orire": 11245,
  "oringo": 11246,
  "opekatampe ,": 11247,
  "onyonyo ,": 11248,
  "onyeisi  \" ": 11249,
  "onyeisi  \" Nigerian \"": 11250,
  "onye ?": 11251,
  "onye  \" ": 11252,
  "onwe ,": 11253,
  "ontay": 11254,
  "ono": 11255,
  "ond": 11256,
  "once": 11257,
  "omume ”": 11258,
  "omume . ”": 11259,
  "omitilla": 11260,
  "omenala :": 11261,
  "ome ,": 11262,
  "ololo": 11263,
  "olive": 11264,
  "oledo": 11265,
  "old": 11266,
  "okwukwe ?": 11267,
  "okwukwe . ”": 11268,
  "okpuru ,": 11269,
  "okpukpe ?": 11270,
  "okpukpe .": 11271,
  "okpu .": 11272,
  "okpu ,": 11273,
  "okorobịa ,": 11274,
  "okija": 11275,
  "oke ?": 11276,
  "oke \"": 11277,
  "okada": 11278,
  "ojisola": 11279,
  "ohu ?": 11280,
  "ohimiri": 11281,
  "ohere ,": 11282,
  "ogoogo  \" ": 11283,
  "ogige .": 11284,
  "ogho": 11285,
  "ogene .": 11286,
  "oge . )": 11287,
  "ogene ,": 11288,
  "ofufe . ” )": 11289,
  "officer": 11290,
  "ofesi :": 11291,
  "ofe .": 11292,
  "obodo :": 11293,
  "obi . )": 11294,
  "obi ”": 11295,
  "obi .  \" ": 11296,
  "oyoyo": 11297,
  "oyo": 11298,
  "otoro": 11299,
  "okpụ": 11300,
  "okpe": 11301,
  "ogwo": 11302,
  "ogha": 11303,
  "oghain": 11304,
  "oding": 11305,
  "ocha ,": 11306,
  "obe .": 11307,
  "o . ”": 11308,
  "nọ ;": 11309,
  "nzọpụ": 11310,
  "nzọmụ": 11311,
  "nzọmụkwụ": 11312,
  "nzacha": 11313,
  "nyelu": 11314,
  "nyong": 11315,
  "nwụ ;": 11316,
  "nwunye \"": 11317,
  "nwoke !": 11318,
  "nwe . ” )": 11319,
  "nwe \"": 11320,
  "nwanne ,": 11321,
  "nwaanyị ;": 11322,
  "nwa ?": 11323,
  "nwa \"": 11324,
  "nwọgha": 11325,
  "nwor": 11326,
  "ntutu ?": 11327,
  "ntorobịa :": 11328,
  "ntity": 11329,
  "ntain": 11330,
  "nta ”": 11331,
  "nta ?": 11332,
  "nsọpụrụ .": 11333,
  "nsọ ”": 11334,
  "nsị .": 11335,
  "nsogbu \"": 11336,
  "nsibidi .": 11337,
  "nsion": 11338,
  "nrubeisi": 11339,
  "nrite  \" onye \"": 11340,
  "nrite  \" ": 11341,
  "non-": 11342,
  "nnụnụ ,": 11343,
  "nnukwu \"": 11344,
  "nnewi .": 11345,
  "nne \"": 11346,
  "nmila": 11347,
  "nmilayo": 11348,
  "nkọ .": 11349,
  "nkwụm": 11350,
  "nkwarị ,": 11351,
  "nketa": 11352,
  "niyi": 11353,
  "nit": 11354,
  "nifer": 11355,
  "nhazị": 11356,
  "nhance": 11357,
  "nhancement": 11358,
  "ngụgụ": 11359,
  "ngọngọ": 11360,
  "ngwọrọ .": 11361,
  "ngon": 11362,
  "nghọgbu": 11363,
  "ngard": 11364,
  "nganga": 11365,
  "ngafe": 11366,
  "news": 11367,
  "nent": 11368,
  "nelo": 11369,
  "ndọrọndọrọ .": 11370,
  "ndọrọ ,": 11371,
  "ndị  \" Super \"": 11372,
  "ndịụnọ": 11373,
  "ndozi": 11374,
  "ndo ,": 11375,
  "ndidi ,": 11376,
  "nde ,": 11377,
  "ndam": 11378,
  "nchọpụta ,": 11379,
  "nchawa": 11380,
  "narị .": 11381,
  "na ,  \" ": 11382,
  "na  \" nke \"": 11383,
  "na  \" anyị \"": 11384,
  "na  \" a": 11385,
  "nastics": 11386,
  "naka ,": 11387,
  "nabis": 11388,
  "nonye": 11389,
  "nobi ,": 11390,
  "nnia": 11391,
  "nla": 11392,
  "nlaghachi": 11393,
  "ngịga": 11394,
  "nction": 11395,
  "nchi": 11396,
  "nchigbu .": 11397,
  "nbu": 11398,
  "nbull": 11399,
  "n-Olu": 11400,
  "mụrụmụ": 11401,
  "mụka": 11402,
  "mụ ,": 11403,
  "mọra": 11404,
  "mọnk": 11405,
  "mwunye": 11406,
  "muri": 11407,
  "mpịakọ": 11408,
  "mpoten": 11409,
  "mpi ,": 11410,
  "mpeo": 11411,
  "mpaghara  \" ": 11412,
  "month": 11413,
  "monkeypox": 11414,
  "mmiri . ,": 11415,
  "mmiri \"": 11416,
  "mmepụta ,": 11417,
  "mmepe ,": 11418,
  "mmezu ,": 11419,
  "mmeju": 11420,
  "mmalite .": 11421,
  "mmadụ . ;": 11422,
  "mma . )": 11423,
  "mmasị ,": 11424,
  "mmanwụ .": 11425,
  "mman": 11426,
  "mmai": 11427,
  "mma . ” )": 11428,
  "mmị": 11429,
  "mkpụrụosisi": 11430,
  "mkpụrụedemede": 11431,
  "mkpọrọ ?": 11432,
  "mkpọmkpọ": 11433,
  "mkpughe ,": 11434,
  "mkpori": 11435,
  "mkpegharị": 11436,
  "mkpegbu .": 11437,
  "mkpe ?": 11438,
  "mkparị .": 11439,
  "mkparị ,": 11440,
  "mkpachi": 11441,
  "mkpa . ”": 11442,
  "minista ?": 11443,
  "million )": 11444,
  "milligram": 11445,
  "midia ?": 11446,
  "midia :": 11447,
  "mission": 11448,
  "mir": 11449,
  "minu": 11450,
  "min ,": 11451,
  "mila": 11452,
  "michael": 11453,
  "mgbu ,": 11454,
  "mgbede .": 11455,
  "mgbanwe ,": 11456,
  "mgbagwojuanya": 11457,
  "mgbawa .": 11458,
  "mgbada ,": 11459,
  "mesaya ,": 11460,
  "meri ,": 11461,
  "mercury": 11462,
  "medicine": 11463,
  "mers": 11464,
  "melu ,": 11465,
  "melo": 11466,
  "melodi": 11467,
  "mega": 11468,
  "mechanic": 11469,
  "me .  \" ọ \"": 11470,
  "mbugharị": 11471,
  "mbola": 11472,
  "mbia": 11473,
  "mbekwu": 11474,
  "mbazụ": 11475,
  "mbassa": 11476,
  "mbasi": 11477,
  "mbada": 11478,
  "mbrose": 11479,
  "maọbụ ...  \" - \"": 11480,
  "mansea ,": 11481,
  "malaria": 11482,
  "maka ,": 11483,
  "magomago": 11484,
  "may": 11485,
  "masoret": 11486,
  "manent": 11487,
  "malik": 11488,
  "mala .": 11489,
  "mak": 11490,
  "mag": 11491,
  "magnesi": 11492,
  "mael": 11493,
  "mọnụ": 11494,
  "mnwọgha": 11495,
  "mnastics": 11496,
  "m . ” ,": 11497,
  "m . ” )": 11498,
  "m  \" - \"": 11499,
  "lọtrị .": 11500,
  "lọtiri": 11501,
  "lue ,": 11502,
  "lour": 11503,
  "loka": 11504,
  "listra ,": 11505,
  "limate": 11506,
  "lize": 11507,
  "lippines": 11508,
  "lio": 11509,
  "linin": 11510,
  "lines": 11511,
  "limestone": 11512,
  "lied": 11513,
  "liame": 11514,
  "li ?": 11515,
  "level": 11516,
  "lenge": 11517,
  "least": 11518,
  "leaf": 11519,
  "latịn ,": 11520,
  "lations": 11521,
  "lanville": 11522,
  "ladys": 11523,
  "lau": 11524,
  "lake": 11525,
  "lak": 11526,
  "la ;": 11527,
  "lory": 11528,
  "kụ ,": 11529,
  "kọpa .": 11530,
  "kọtọ": 11531,
  "kọk": 11532,
  "kwọt": 11533,
  "kwu \"": 11534,
  "kwer": 11535,
  "kwem": 11536,
  "kwa !": 11537,
  "kur": 11538,
  "kumo": 11539,
  "kubo": 11540,
  "ku .": 11541,
  "ksson": 11542,
  "krismas ?": 11543,
  "kpu .": 11544,
  "kpamkpam ?": 11545,
  "kodex .": 11546,
  "kom": 11547,
  "klaho": 11548,
  "kizela-Mandela": 11549,
  "kinri ,": 11550,
  "kimbi": 11551,
  "kiel": 11552,
  "kidi": 11553,
  "kia": 11554,
  "khtar": 11555,
  "kewell": 11556,
  "kanada ,": 11557,
[...]
