{
  "<unk>": 0,
  "<s>": 1,
  "</s>": 2,
  "<pad>": 3,
  "<mask morph>": 4,
  " ": 5,
  "!": 6,
  "\"": 7,
  "#": 8,
  "$": 9,
  "%": 10,
  "&": 11,
  "'": 12,
  "(": 13,
  ")": 14,
  "*": 15,
  ",": 16,
  "-": 17,
  ".": 18,
  "/": 19,
  "0": 20,
  "1": 21,
  "2": 22,
  "3": 23,
  "4": 24,
  "5": 25,
  "6": 26,
  "7": 27,
  "8": 28,
  "9": 29,
  ":": 30,
  ";": 31,
  "<": 32,
  "=": 33,
  ">": 34,
  "?": 35,
  "@": 36,
  "A": 37,
  "B": 38,
  "C": 39,
  "CH": 40,
  "Ch": 41,
  "D": 42,
  "E": 43,
  "F": 44,
  "G": 45,
  "GB": 46,
  "Gb": 47,
  "Gh": 48,
  "Gw": 49,
  "H": 50,
  "I": 51,
  "J": 52,
  "K": 53,
  "KP": 54,
  "Kp": 55,
  "Kw": 56,
  "L": 57,
  "M": 58,
  "N": 59,
  "NW": 60,
  "NY": 61,
  "Nw": 62,
  "Ny": 63,
  "O": 64,
  "P": 65,
  "Q": 66,
  "R": 67,
  "S": 68,
  "SH": 69,
  "Sh": 70,
  "T": 71,
  "U": 72,
  "V": 73,
  "W": 74,
  "X": 75,
  "Y": 76,
  "Z": 77,
  "[": 78,
  "]": 79,
  "^": 80,
  "_": 81,
  "`": 82,
  "a": 83,
  "b": 84,
  "c": 85,
  "ch": 86,
  "d": 87,
  "e": 88,
  "f": 89,
  "g": 90,
  "gb": 91,
  "gh": 92,
  "gw": 93,
  "h": 94,
  "i": 95,
  "j": 96,
  "k": 97,
  "kp": 98,
  "kw": 99,
  "l": 100,
  "m": 101,
  "n": 102,
  "nw": 103,
  "ny": 104,
  "o": 105,
  "p": 106,
  "q": 107,
  "r": 108,
  "s": 109,
  "sh": 110,
  "t": 111,
  "u": 112,
  "v": 113,
  "w": 114,
  "x": 115,
  "y": 116,
  "z": 117,
  "{": 118,
  "|": 119,
  "}": 120,
  "£": 121,
  "®": 122,
  "·": 123,
  "É": 124,
  "Ö": 125,
  "×": 126,
  "à": 127,
  "á": 128,
  "ã": 129,
  "ä": 130,
  "å": 131,
  "æ": 132,
  "ç": 133,
  "è": 134,
  "é": 135,
  "ì": 136,
  "í": 137,
  "ï": 138,
  "ñ": 139,
  "ó": 140,
  "ô": 141,
  "ö": 142,
  "ø": 143,
  "ù": 144,
  "ú": 145,
  "ü": 146,
  "ć": 147,
  "č": 148,
  "ğ": 149,
  "ń": 150,
  "ş": 151,
  "š": 152,
  "ż": 153,
  "ž": 154,
  "̀": 155,
  "́": 156,
  "ׁ": 157,
  "ה": 158,
  "נ": 159,
  "פ": 160,
  "ש": 161,
  "ṅ": 162,
  "ạ": 163,
  "ẹ": 164,
  "Ị": 165,
  "ị": 166,
  "Ọ": 167,
  "ọ": 168,
  "Ụ": 169,
  "ụ": 170,
  "–": 171,
  "—": 172,
  "‘": 173,
  "’": 174,
  "“": 175,
  "”": 176,
  "•": 177,
  "₦": 178,
  "€": 179,
  "■": 180,
  "●": 181,
  "": 182,
  "na": 183,
  "dị": 184,
  "ka": 185,
  "ma": 186,
  " .": 187,
  "n'": 188,
  "bụ": 189,
  " ,": 190,
  "ndị": 191,
  "ke": 192,
  "ra": 193,
  "me": 194,
  "ha": 195,
  "re": 196,
  "na-": 197,
  "ta": 198,
  "nye": 199,
  "ya": 200,
  "ga": 201,
  "la": 202,
  "ri": 203,
  "ih": 204,
  "si": 205,
  "ji": 206,
  "hụ": 207,
  "rụ": 208,
  "ihe": 209,
  "kwu": 210,
  "rị": 211,
  "ru": 212,
  "ba": 213,
  "kwa": 214,
  "any": 215,
  "te": 216,
  "na-a": 217,
  "nke": 218,
  "ahụ": 219,
  "tu": 220,
  "nwe": 221,
  "na-e": 222,
  "gba": 223,
  "onye": 224,
  "ghị": 225,
  "be": 226,
  "tụ": 227,
  "dụ": 228,
  "ti": 229,
  "ga-": 230,
  "le": 231,
  "otu": 232,
  "bi": 233,
  "zi": 234,
  "anyị": 235,
  "sị": 236,
  "pụ": 237,
  "mma": 238,
  "kọ": 239,
  "mụ": 240,
  "chi": 241,
  "che": 242,
  "we": 243,
  "chị": 244,
  " \"": 245,
  "zọ": 246,
  "aka": 247,
  "lọ": 248,
  "rọ": 249,
  "cha": 250,
  "nọ": 251,
  "de": 252,
  "kụ": 253,
  "ne": 254,
  "do": 255,
  "nwa": 256,
  "wa": 257,
  "ụlọ": 258,
  "kwụ": 259,
  "go": 260,
  "fọ": 261,
  "gbu": 262,
  "isi": 263,
  "gha": 264,
  "mmadụ": 265,
  "sa": 266,
  "li": 267,
  "gbe": 268,
  "ebe": 269,
  "ike": 270,
  "nụ": 271,
  "ro": 272,
  "tọ": 273,
  "ni": 274,
  "mgbe": 275,
  "maka": 276,
  "ge": 277,
  "bu": 278,
  "so": 279,
  "ala": 280,
  "ịa": 281,
  "ga-e": 282,
  "gbo": 283,
  "ụmụ": 284,
  "ga-a": 285,
  "gwu": 286,
  "iri": 287,
  "ọrụ": 288,
  "rịa": 289,
  " :": 290,
  "kwe": 291,
  "kpe": 292,
  "ọchị": 293,
  "kpọ": 294,
  "eti": 295,
  "kpa": 296,
  "anya": 297,
  "afọ": 298,
  "mba": 299,
  "bo": 300,
  "okwu": 301,
  "nwụ": 302,
  "da": 303,
  "ọzọ": 304,
  "ste": 305,
  "gị": 306,
  "se": 307,
  "akụ": 308,
  "lu": 309,
  "chọ": 310,
  "gọ": 311,
  "naị": 312,
  "naịji": 313,
  "naịjirịa": 314,
  "kwọ": 315,
  "  \"": 316,
  "obi": 317,
  "zu": 318,
  "gwa": 319,
  "di": 320,
  "akwụ": 321,
  "neke": 322,
  "steeti": 323,
  "chineke": 324,
  "an": 325,
  "akwụkwọ": 326,
  "  \" ": 327,
  "je": 328,
  " ?": 329,
  "ezi": 330,
  "iche": 331,
  "abụ": 332,
  "nu": 333,
  "bịa": 334,
  "ile": 335,
  "oke": 336,
  "nt": 337,
  "oge": 338,
  "niile": 339,
  "gụ": 340,
  "tụtụ": 341,
  " )": 342,
  "va": 343,
  "wu": 344,
  "ku": 345,
  "ya .": 346,
  "abụọ": 347,
  "akụkọ": 348,
  "dịka": 349,
  "ko": 350,
  "mp": 351,
  "sọ": 352,
  "fe": 353,
  "mme": 354,
  "ọtụtụ": 355,
  "“ ": 356,
  "igbo": 357,
  " ”": 358,
  "on": 359,
  "nwaanyị": 360,
  "bodo": 361,
  "pu": 362,
  "bụl": 363,
  "ịbụl": 364,
  "dọ": 365,
  "baịbụl": 366,
  "mi": 367,
  "a .": 368,
  "gbọ": 369,
  "ọnụ": 370,
  "obodo": 371,
  "du": 372,
  "20": 373,
  "egwu": 374,
  "hi": 375,
  "ụwa": 376,
  "ze": 377,
  "ikpe": 378,
  "to": 379,
  "iwu": 380,
  "ụb": 381,
  "ụbọchị": 382,
  "ntị": 383,
  "zụ": 384,
  "lụ": 385,
  "jọ": 386,
  "ho": 387,
  "bọ": 388,
  "jụ": 389,
  "ndụ": 390,
  "ahụ .": 391,
  "ego": 392,
  "zị": 393,
  "ozi": 394,
  "ihi": 395,
  "mana": 396,
  "oji": 397,
  "uwe": 398,
  "uha": 399,
  "ọchịchị": 400,
  "a ,": 401,
  "ụzọ": 402,
  "er": 403,
  "ukwu": 404,
  "ọme": 405,
  "kpụ": 406,
  "gọọme": 407,
  "elu": 408,
  "aha": 409,
  "onyeisi": 410,
  "ojii": 411,
  "onwe": 412,
  "atọ": 413,
  "ya ,": 414,
  "fọdụ": 415,
  "nwoke": 416,
  "ụfọdụ": 417,
  "kpo": 418,
  "sụ": 419,
  "ha .": 420,
  "st": 421,
  "201": 422,
  "ụgbọ": 423,
  "ọka": 424,
  "ọma": 425,
  "ahụ ,": 426,
  "bụla": 427,
  "nso": 428,
  "eze": 429,
  "rịka": 430,
  " . ”": 431,
  "hịa": 432,
  "or": 433,
  "hova": 434,
  "ihu": 435,
  "jehova": 436,
  "agha": 437,
  "uhari": 438,
  "Buhari": 439,
  "gwụ": 440,
  "ọbụla": 441,
  "nna": 442,
  "gi": 443,
  "ọkụ": 444,
  "pa": 445,
  "( ": 446,
  "ugbu": 447,
  "olu": 448,
  "ome": 449,
  "nyo": 450,
  "uru": 451,
  "ma ,": 452,
  "mkpa": 453,
  "ụka": 454,
  "mm": 455,
  "ghọ": 456,
  "nne": 457,
  "el": 458,
  "nwu": 459,
  "ọnwa": 460,
  "ana": 461,
  "ole": 462,
  "nga": 463,
  "ju": 464,
  "ja": 465,
  "nta": 466,
  "asa": 467,
  "zọs": 468,
  "jizọs": 469,
  "gwe": 470,
  "pe": 471,
  "mbụ": 472,
  "mmiri": 473,
  "gọọmentị": 474,
  "lị": 475,
  "yi": 476,
  "vanọ": 477,
  "mpi": 478,
  "gọvanọ": 479,
  "gwọ": 480,
  "bra": 481,
  "Ma": 482,
  " ;": 483,
  "ntụ": 484,
  "ara": 485,
  "nị": 486,
  "maa": 487,
  "gu": 488,
  "Jo": 489,
  "za": 490,
  "aba": 491,
  "ise": 492,
  "mo": 493,
  "ndọ": 494,
  "ahịa": 495,
  "nk": 496,
  "fu": 497,
  "ndọrọ": 498,
  "oko": 499,
  "eziokwu": 500,
  "BB": 501,
  "nyi": 502,
  "he": 503,
  "ce": 504,
  "mu": 505,
  "anụ": 506,
  "tupu": 507,
  "igwe": 508,
  "ọnwụ": 509,
  "BBC": 510,
  "mbra": 511,
  "asọ": 512,
  "lo": 513,
  "nri": 514,
  "anambra": 515,
  "azụ": 516,
  "ntụli": 517,
  "ntụliaka": 518,
  "asọmpi": 519,
  "ọgba": 520,
  "iwe": 521,
  "chụ": 522,
  "atụ": 523,
  "okp": 524,
  "ọgwụ": 525,
  "nsogbu": 526,
  "in": 527,
  "ame": 528,
  "nya": 529,
  "nkwa": 530,
  "bọọ": 531,
  "nche": 532,
  "mgba": 533,
  "nwunye": 534,
  "bọọlụ": 535,
  "regwu": 536,
  "egwuregwu": 537,
  "enu": 538,
  "aghara": 539,
  " .  \" ": 540,
  "ibe": 541,
  "ar": 542,
  "ria": 543,
  "mmụ": 544,
  "họ": 545,
  "etu": 546,
  "ọhụ": 547,
  "ọhụrụ": 548,
  "unu": 549,
  "ọkwa": 550,
  "maazị": 551,
  "th": 552,
  "anị": 553,
  "naanị": 554,
  "su": 555,
  "etiti": 556,
  "enugwu": 557,
  "ezigbo": 558,
  "ngwa": 559,
  "sị :": 560,
  "ama": 561,
  "af": 562,
  "AP": 563,
  "Ni": 564,
  "chukwu": 565,
  "al": 566,
  "ọjọ": 567,
  "ọjọọ": 568,
  "ou": 569,
  "nde": 570,
  "ụtọ": 571,
  "abalị": 572,
  "raị": 573,
  "nti": 574,
  "ghi": 575,
  "sta": 576,
  "Chi": 577,
  "ekpe": 578,
  "bere": 579,
  "kemgbe": 580,
  "2019": 581,
  "goolu": 582,
  "narị": 583,
  "gịnị": 584,
  "ol": 585,
  "ter": 586,
  "ụgwọ": 587,
  "Nige": 588,
  "amerịka": 589,
  "ṅụ": 590,
  "kị": 591,
  "ha ,": 592,
  "gide": 593,
  "zo": 594,
  "mbọ": 595,
  "00": 596,
  "nkeji": 597,
  "nal": 598,
  "afrịka": 599,
  "ọrịa": 600,
  "il": 601,
  "akwa": 602,
  "ọnọ": 603,
  "ọnọdụ": 604,
  "agba": 605,
  "tion": 606,
  "ozu": 607,
  "ụdị": 608,
  "mpaghara": 609,
  "no": 610,
  "nchekwa": 611,
  "ọsọ": 612,
  "nje": 613,
  "vi": 614,
  "ngala": 615,
  "nụlọ": 616,
  "ezinụlọ": 617,
  "Ro": 618,
  "gị :": 619,
  "ki": 620,
  "APC": 621,
  "ngalaba": 622,
  "ng": 623,
  "ugwu": 624,
  "puku": 625,
  "gọọmenti": 626,
  "Da": 627,
  "omeiwu": 628,
  "okpuru": 629,
  "it": 630,
  "ebu": 631,
  "ra ,": 632,
  "19": 633,
  "isii": 634,
  "osi": 635,
  "iko": 636,
  "ekpere": 637,
  "ve": 638,
  "ọdị": 639,
  "ugbo": 640,
  "nkiri": 641,
  "nd": 642,
  "kpụrụ": 643,
  "ụlọikpe": 644,
  "m ,": 645,
  "izu": 646,
  "gharị": 647,
  "imo": 648,
  "uche": 649,
  "m .": 650,
  "nku": 651,
  "ajụ": 652,
  "ụgbọala": 653,
  "nzu": 654,
  "ọgụ": 655,
  "ye": 656,
  "ajụjụ": 657,
  "pụta": 658,
  "asụ": 659,
  "raịst": 660,
  "olee": 661,
  "Re": 662,
  "asụsụ": 663,
  "ver": 664,
  "karị": 665,
  "kraịst": 666,
  "Man": 667,
  "ehi": 668,
  "Su": 669,
  "mmụọ": 670,
  "ada": 671,
  "mume": 672,
  "echi": 673,
  "e .": 674,
  "atụma": 675,
  "atụmatụ": 676,
  "Li": 677,
  "- ": 678,
  "nnu": 679,
  "nsọ": 680,
  "mmemme": 681,
  "asaa": 682,
  "ọba": 683,
  "Mo": 684,
  "Jose": 685,
  "ụkwụ": 686,
  "obere": 687,
  "ngagharị": 688,
  "ano": 689,
  "ru ,": 690,
  "rịọ": 691,
  "e ,": 692,
  "ọzọ .": 693,
  "les": 694,
  "ik": 695,
  "ekwe": 696,
  "mkpụrụ": 697,
  "nka": 698,
  "ụmụaka": 699,
  "anya .": 700,
  "In": 701,
  "re .": 702,
  "enyi": 703,
  "egbe": 704,
  "agụ": 705,
  "ra .": 706,
  "ọgbakọ": 707,
  "La": 708,
  "nala": 709,
  "fụ": 710,
  "beke": 711,
  "asatọ": 712,
  "Hara": 713,
  "Co": 714,
  "Boko": 715,
  "àm": 716,
  "àmà": 717,
  "manụ": 718,
  "Se": 719,
  "Nigeria": 720,
  "of": 721,
  "nwata": 722,
  "kpu": 723,
  "ugboro": 724,
  "nai": 725,
  "DP": 726,
  "ofe": 727,
  "ebubo": 728,
  "anụmanụ": 729,
  "re ,": 730,
  "okpo": 731,
  "njem": 732,
  "ime": 733,
  "ụkọ": 734,
  "ris": 735,
  "po": 736,
  "here": 737,
  "Sa": 738,
  "robịa": 739,
  "ogi": 740,
  "nkuzi": 741,
  "Pe": 742,
  "nnukwu": 743,
  "Uni": 744,
  "ntaakụkọ": 745,
  "PDP": 746,
  "Haram": 747,
  "ca": 748,
  "Na": 749,
  "per": 750,
  "ito": 751,
  "ta .": 752,
  "kama": 753,
  "Le": 754,
  "hu": 755,
  "udo": 756,
  "ọkpụ": 757,
  "aka .": 758,
  "Josef": 759,
  "ikike": 760,
  "eke": 761,
  "abịa": 762,
  "ọcha": 763,
  "ori": 764,
  "anyanwụ": 765,
  "pati": 766,
  "ran": 767,
  "naira": 768,
  "gọs": 769,
  "dum": 770,
  "naịjirịa .": 771,
  "legọs": 772,
  "njọ": 773,
  "tị": 774,
  "okporo": 775,
  "ohere": 776,
  "rịta": 777,
  "mkpọ": 778,
  "ogo": 779,
  "wo": 780,
  "ndịàmà": 781,
  "kanu": 782,
  "Fa": 783,
  "ndọrọndọrọ": 784,
  "hie": 785,
  "akpa": 786,
  "Muha": 787,
  "karịa": 788,
  " !": 789,
  "mkpe": 790,
  "itoolu": 791,
  "abu": 792,
  "Al": 793,
  "bekee": 794,
  "mmanụ": 795,
  "OB": 796,
  "ahụhụ": 797,
  "us": 798,
  "IP": 799,
  "Muhamma": 800,
  "EC": 801,
  "ike .": 802,
  "en": 803,
  "ụkọchukwu": 804,
  "steeti .": 805,
  "oche": 806,
  "mmeri": 807,
  "rị :": 808,
  "a :": 809,
  "Ea": 810,
  "ofesi": 811,
  "Muhammadu": 812,
  "ry": 813,
  "mini": 814,
  " . \"": 815,
  "IPOB": 816,
  "ije": 817,
  "Mu": 818,
  "saụ": 819,
  "mdi": 820,
  "Pa": 821,
  "ru .": 822,
  "niile .": 823,
  "maha": 824,
  "ugo": 825,
  "pọ": 826,
  "mma .": 827,
  "ster": 828,
  "ochi": 829,
  "Ati": 830,
  "ụtụtụ": 831,
  "Atiku": 832,
  "ogige": 833,
  "rel": 834,
  "onal": 835,
  "ikpeazụ": 836,
  "anya ,": 837,
  "ọdụ": 838,
  "okpu": 839,
  "amụ": 840,
  "Ba": 841,
  "ụba": 842,
  "nkwado": 843,
  "nzukọ": 844,
  "nkị": 845,
  "ci": 846,
  "nto": 847,
  "ọha": 848,
  "oso": 849,
  "osisi": 850,
  "Super": 851,
  "ọzọ ,": 852,
  "am": 853,
  "uso": 854,
  "rt": 855,
  "mmụta": 856,
  "fi": 857,
  "osote": 858,
  "co": 859,
  "kere": 860,
  "mgbasa": 861,
  "ga ,": 862,
  "Ada": 863,
  "ck": 864,
  "ga .": 865,
  "nji": 866,
  "mahadum": 867,
  "anyị .": 868,
  "saụt": 869,
  "mkpọrọ": 870,
  "minista": 871,
  "ted": 872,
  "shịa": 873,
  "pị": 874,
  "Tru": 875,
  "Ka": 876,
  "obiano": 877,
  "ọtọ": 878,
  "dia": 879,
  "Oko": 880,
  "dọkị": 881,
  "aja": 882,
  "So": 883,
  "omenala": 884,
  "oku": 885,
  "nda": 886,
  "eluigwe": 887,
  "ele": 888,
  "bụ ,": 889,
  "amụma": 890,
  "ajọ": 891,
  "shọ": 892,
  "gburu": 893,
  "Bi": 894,
  "ọdọ": 895,
  "me .": 896,
  "dọkịta": 897,
  "kọmi": 898,
  "illi": 899,
  "ọma .": 900,
  "okwukwe": 901,
  "Ar": 902,
  "wụ": 903,
  "ur": 904,
  "ntorobịa": 905,
  "gbụ": 906,
  "anyị ,": 907,
  "ty": 908,
  "IN": 909,
  "op": 910,
  "Eag": 911,
  "ọhịa": 912,
  "INEC": 913,
  "fo": 914,
  "Trump": 915,
  "FC": 916,
  "vid": 917,
  "ike ,": 918,
  "  \" . \"": 919,
  "United": 920,
  "omume": 921,
  "Ne": 922,
  "usoro": 923,
  "rocha": 924,
  "lite": 925,
  "ity": 926,
  "baịbụl .": 927,
  "De": 928,
  " \" \"": 929,
  "akara": 930,
  "Af": 931,
  "Ade": 932,
  "ihe .": 933,
  "land": 934,
  "Eagles": 935,
  "ten": 936,
  "Mi": 937,
  "nnamdi": 938,
  "mị": 939,
  "echiche": 940,
  "vo": 941,
  "tan": 942,
  "rụ .": 943,
  "ment": 944,
  "baka": 945,
  "Willi": 946,
  "sị ,": 947,
  "nnọ": 948,
  "iz": 949,
  "Ri": 950,
  "ụlọụka": 951,
  "ọgọ": 952,
  "obi .": 953,
  "akụkụ": 954,
  "Obi": 955,
  "lik": 956,
  "kedụ": 957,
  "chineke ,": 958,
  "od": 959,
  "o ,": 960,
  "ọw": 961,
  "yọ": 962,
  "ọwụwa": 963,
  "dio": 964,
  "pt": 965,
  "jị": 966,
  "else": 967,
  "ede": 968,
  "ọfụ": 969,
  "pọl": 970,
  "mara": 971,
  "ghe": 972,
  "con": 973,
  "ọkacha": 974,
  "ta ,": 975,
  "Chelse": 976,
  "ọgbọ": 977,
  "ohi": 978,
  "ah": 979,
  "City": 980,
  "tọlik": 981,
  "kọrịta": 982,
  "katọlik": 983,
  "izrel": 984,
  "son": 985,
  "enye": 986,
  "chineke .": 987,
  "Ca": 988,
  "onyi": 989,
  "iyi": 990,
  "emume": 991,
  "ss": 992,
  "ochie": 993,
  "ụnya": 994,
  "nihu": 995,
  "ine": 996,
  "ide": 997,
  "abuja": 998,
  "a ?": 999,
  "tional": 1000,
  "pool": 1001,
  "ir": 1002,
  "eziokwu .": 1003,
  "enyemaka": 1004,
  "Moha": 1005,
  "verpool": 1006,
  "oriri": 1007,
  "Liverpool": 1008,
  "200": 1009,
  "shịal": 1010,
  "ssi": 1011,
  "iji": 1012,
  "Me": 1013,
  "soshịal": 1014,
  "fada": 1015,
  "akị": 1016,
  "To": 1017,
  "Sou": 1018,
  "ogbu": 1019,
  "ụgbọelu": 1020,
  "ọla": 1021,
  "zde": 1022,
  "oyi": 1023,
  "ntu": 1024,
  "chu": 1025,
  "Afri": 1026,
  "ul": 1027,
  "' .": 1028,
  "ọkaiwu": 1029,
  "onyinye": 1030,
  "oli": 1031,
  "agu": 1032,
  "Chelsea": 1033,
  "ọmụ": 1034,
  "tri": 1035,
  "okpukpe": 1036,
  "isi .": 1037,
  "and": 1038,
  "onyo": 1039,
  "ntọ": 1040,
  "mmadụ .": 1041,
  "iche .": 1042,
  "ala .": 1043,
  "2019 .": 1044,
  " \" \" ": 1045,
  "ọgbaaghara": 1046,
  "onyonyo": 1047,
  "net": 1048,
  "akpụ": 1049,
  "ham": 1050,
  "ọ \"": 1051,
  "ume": 1052,
  "chester": 1053,
  "Manchester": 1054,
  "wit": 1055,
  "nwanne": 1056,
  "mmed": 1057,
  "godị": 1058,
  "eji": 1059,
  "aka ,": 1060,
  "ụwa .": 1061,
  "ụlọakwụkwọ": 1062,
  "ort": 1063,
  "mama": 1064,
  "madu": 1065,
  "agwa": 1066,
  "South": 1067,
  "Eme": 1068,
  "bri": 1069,
  "Sta": 1070,
  "2018": 1071,
  "ode": 1072,
  "n ,": 1073,
  "abụọ .": 1074,
  "okorocha": 1075,
  "eme": 1076,
  "Ja": 1077,
  "rọ  \" ": 1078,
  "la .": 1079,
  "Nwo": 1080,
  "El": 1081,
  "ọnị": 1082,
  "ọnịcha": 1083,
  "vootu": 1084,
  "nyụ": 1085,
  "mbere": 1086,
  "chas": 1087,
  "Rochas": 1088,
  "ite": 1089,
  "for": 1090,
  "arc": 1091,
  "ọchịehi": 1092,
  "ya ?": 1093,
  "ral": 1094,
  "ia": 1095,
  "agbọ": 1096,
  "Arse": 1097,
  "omeka": 1098,
  "n .": 1099,
  "mberede": 1100,
  "agbọghọ": 1101,
  "Arsenal": 1102,
  "Aba": 1103,
  "ọgbu": 1104,
  "akịrịka": 1105,
  "Mohammed": 1106,
  "Ekwe": 1107,
  "“ ọ": 1108,
  "rụ ,": 1109,
  "mbi": 1110,
  "ijipt": 1111,
  "Peter": 1112,
  "wi": 1113,
  "setan": 1114,
  "juu": 1115,
  "anọ": 1116,
  "' ,": 1117,
  "kwado": 1118,
  "ok": 1119,
  "o .": 1120,
  "nhọ": 1121,
  "ky": 1122,
  "ing": 1123,
  "ala ,": 1124,
  "10": 1125,
  "witter": 1126,
  "remadu": 1127,
  "Ke": 1128,
  "Ekweremadu": 1129,
  "000": 1130,
  "ọkammụta": 1131,
  "taa .": 1132,
  "s .": 1133,
  "omekaome": 1134,
  "nhọpụta": 1135,
  "kọmishọ": 1136,
  "atụ ,": 1137,
  "asị": 1138,
  "Pre": 1139,
  "ọrụ .": 1140,
  "uju": 1141,
  "Eze": 1142,
  "Abu": 1143,
  "ụwa ,": 1144,
  "s ,": 1145,
  "ozugbo": 1146,
  "kọmishọna": 1147,
  "im": 1148,
  "cy": 1149,
  "Bo": 1150,
  "ọbara": 1151,
  "ong": 1152,
  "naeze": 1153,
  "mkpu": 1154,
  "kele": 1155,
  "jo": 1156,
  "eziokwu ,": 1157,
  "ope": 1158,
  "ly": 1159,
  "1 ,": 1160,
  " ) .": 1161,
  "ọrụ ,": 1162,
  "ọkaikpe": 1163,
  "ọgụgụ": 1164,
  "ọ ,": 1165,
  "ogbuni": 1166,
  "ogbunigwe": 1167,
  "nle": 1168,
  "ọhanaeze": 1169,
  "iro": 1170,
  "She": 1171,
  "mpe": 1172,
  "mpụ": 1173,
  "bonyi": 1174,
  "Za": 1175,
  "We": 1176,
  " . ” )": 1177,
  "ọkpa": 1178,
  "ihe ,": 1179,
  "alụ": 1180,
  "ọdịnihu": 1181,
  "warị": 1182,
  "Joh": 1183,
  "Cha": 1184,
  "Bu": 1185,
  "14": 1186,
  "nyocha": 1187,
  "gwo": 1188,
  "ekele": 1189,
  "Ra": 1190,
  "baịbụl ,": 1191,
  "nchọ": 1192,
  "mkpebi": 1193,
  "China": 1194,
  " ) ,": 1195,
  "ọ .": 1196,
  "mma ,": 1197,
  "midia": 1198,
  "15": 1199,
  "ụlọọgwụ": 1200,
  "ụjọ": 1201,
  "niile ,": 1202,
  "nkwe": 1203,
  "mmadụ ,": 1204,
  "devid": 1205,
  "bịaf": 1206,
  "Oke": 1207,
  "Ge": 1208,
  "Be": 1209,
  "nwayọ": 1210,
  "__": 1211,
  "satọ": 1212,
  "Nor": 1213,
  "ụda": 1214,
  "satọde": 1215,
  "gị ,": 1216,
  "ction": 1217,
  "bi .": 1218,
  "arị": 1219,
  "ụtọ .": 1220,
  "shi": 1221,
  "malite": 1222,
  "ghị .": 1223,
  "ezu": 1224,
  "Sara": 1225,
  "SS": 1226,
  "Ha": 1227,
  "Chris": 1228,
  "sha": 1229,
  "duna": 1230,
  "bịa .": 1231,
  "ahị": 1232,
  "Nna": 1233,
  "ụlọakụ": 1234,
  "ọdịnala": 1235,
  "tius": 1236,
  "mọ": 1237,
  "egwuregwu ,": 1238,
  "Leagu": 1239,
  "obi ,": 1240,
  "dị ,": 1241,
  "laị": 1242,
  "elekere": 1243,
  "2017": 1244,
  "ọfụma": 1245,
  "ri .": 1246,
  "ph": 1247,
  "nzuzo": 1248,
  "na  \" ": 1249,
  "ja .": 1250,
  "gị .": 1251,
  "fufe": 1252,
  "fa": 1253,
  "Osi": 1254,
  "Mar": 1255,
  "Lago": 1256,
  "ọgbugbu": 1257,
  "tha": 1258,
  "Chukwu": 1259,
  "wer": 1260,
  "tiusde": 1261,
  "rị .": 1262,
  "kan": 1263,
  "ekwentị": 1264,
  "Zi": 1265,
  "ọnụ .": 1266,
  "nkịtị": 1267,
  "igbo ,": 1268,
  "Willie": 1269,
  "FCC": 1270,
  "ụmụnne": 1271,
  "ụgha": 1272,
  "ọgọst": 1273,
  "naịjirịa ,": 1274,
  "can": 1275,
  "Bri": 1276,
  "tor": 1277,
  "nchọpụta": 1278,
  "man": 1279,
  "icheiche": 1280,
  "ewu": 1281,
  "agụmba": 1282,
  "abụọ ,": 1283,
  "Ihe": 1284,
  "Fran": 1285,
  "nnyocha": 1286,
  "ijeri": 1287,
  "bia": 1288,
  "bakar": 1289,
  "Or": 1290,
  "Di": 1291,
  "pụrụ": 1292,
  "olile": 1293,
  "nrụ": 1294,
  "mkpesa": 1295,
  "mfe": 1296,
  "Uma": 1297,
  "Ude": 1298,
  "Twitter": 1299,
  "Pro": 1300,
  "Je": 1301,
  "Adam": 1302,
  "1 )": 1303,
  "uru .": 1304,
  "ogolo": 1305,
  "ogologo": 1306,
  "briten": 1307,
  "Paul": 1308,
  "Ju": 1309,
  "Gu": 1310,
  "Abubakar": 1311,
  "ọmụmụ": 1312,
  "uro": 1313,
  "mmehie": 1314,
  "kọta": 1315,
  "isiokwu": 1316,
  "gbi": 1317,
  "ebonyi": 1318,
  "dị .": 1319,
  "chọọchị": 1320,
  "trik": 1321,
  "rọ .": 1322,
  "nnọọ": 1323,
  "kwo": 1324,
  "ezum": 1325,
  "atọ .": 1326,
  "GA": 1327,
  "EFCC": 1328,
  "2015": 1329,
  "ogbe": 1330,
  "ndị )": 1331,
  "State": 1332,
  "NA": 1333,
  "ther": 1334,
  "state": 1335,
  "raịde": 1336,
  "ngo": 1337,
  "latrik": 1338,
  "fraịde": 1339,
  "Go": 1340,
  "ọga": 1341,
  "papa": 1342,
  "mmanya": 1343,
  "Nigeri": 1344,
  "Inter": 1345,
  "Ab": 1346,
  "23": 1347,
  "senet": 1348,
  "ofesi ,": 1349,
  "nyị": 1350,
  "nwayọọ": 1351,
  "iche ,": 1352,
  "dri": 1353,
  "atụrụ": 1354,
  "New": 1355,
  "2 ,": 1356,
  "okorobịa": 1357,
  "meri": 1358,
  "gbidi": 1359,
  "El-": 1360,
  "“ a": 1361,
  "ọṅụ": 1362,
  "zaky": 1363,
  "pi": 1364,
  "nwaafọ": 1365,
  "mgbọ": 1366,
  "mbe": 1367,
  "kzaky": 1368,
  "hab": 1369,
  "Zakzaky": 1370,
  "Ike": 1371,
  "Fe": 1372,
  "yo": 1373,
  "nue": 1374,
  "gabe": 1375,
  "agbụ": 1376,
  "Saraki": 1377,
  "Mugabe": 1378,
  "Ga": 1379,
  "Au": 1380,
  "17": 1381,
  "..": 1382,
  " - ": 1383,
  "ọda": 1384,
  "taa": 1385,
  "ton": 1386,
  "rịtaụka": 1387,
  "rị ,": 1388,
  "ofufe": 1389,
  "okwu .": 1390,
  "nwụ .": 1391,
  "nsị": 1392,
  "mọdụ": 1393,
  "Ta": 1394,
  "Lagos": 1395,
  "ọma ,": 1396,
  "ndụmọdụ": 1397,
  "akwụkwọ .": 1398,
  "the": 1399,
  "ration": 1400,
  "n' \"": 1401,
  "foto": 1402,
  "efu": 1403,
  "bịafra": 1404,
  "benue": 1405,
  "agụụ": 1406,
  "18": 1407,
  "ụra": 1408,
  "tic": 1409,
  "nia": 1410,
  "mmekọrịta": 1411,
  "ezumike": 1412,
  "Africa": 1413,
  "APGA": 1414,
  "ọkpara": 1415,
  "mmepe": 1416,
  "kaduna": 1417,
  "He": 1418,
  "Fu": 1419,
  "ribe": 1420,
  "jehova .": 1421,
  "drid": 1422,
  "anyị \"": 1423,
  "Madrid": 1424,
  "Ele": 1425,
  " ? ”": 1426,
  "ọkụkọ": 1427,
  "rs": 1428,
  "ourt": 1429,
  "okenye": 1430,
  "ndụ .": 1431,
  "mgbede": 1432,
  "mba .": 1433,
  "iru": 1434,
  "dọla": 1435,
  "ower": 1436,
  "njikere": 1437,
  "au": 1438,
  "anwụ": 1439,
  "No": 1440,
  "13": 1441,
  "ọkachamara": 1442,
  "ọkpọ": 1443,
  "ịnta": 1444,
  "ịntane": 1445,
  "ịntaneti": 1446,
  "ohu": 1447,
  "igbo .": 1448,
  "Sowo": 1449,
  "Ru": 1450,
  "Ama": 1451,
  "199": 1452,
  "ọdachi": 1453,
  "olileanya": 1454,
  "nkata": 1455,
  "me ,": 1456,
  "ife": 1457,
  "Wa": 1458,
  "Te": 1459,
  "ụtụ": 1460,
  "ọdịda": 1461,
  "ọbasa": 1462,
  "ọbasanjọ": 1463,
  "ọkọ": 1464,
  "steeti ,": 1465,
  "miri": 1466,
  "mbu": 1467,
  "ld": 1468,
  "kịrị": 1469,
  "Ihedio": 1470,
  "Ibra": 1471,
  "spe": 1472,
  "nwaanyị .": 1473,
  "jiji": 1474,
  "edo": 1475,
  "Vi": 1476,
  "AS": 1477,
  "wene": 1478,
  "gun": 1479,
  "agbụrụ": 1480,
  "wenezde": 1481,
  "omi": 1482,
  "k ,": 1483,
  "gburugburu": 1484,
  "anyi": 1485,
  "sị .": 1486,
  "ri ,": 1487,
  "qu": 1488,
  "nrọ": 1489,
  "ngwụ": 1490,
  "late": 1491,
  "lla": 1492,
  "agha .": 1493,
  "Ibrahi": 1494,
  "Ghana": 1495,
  "up": 1496,
  "pase": 1497,
  "osimiri": 1498,
  "na ,": 1499,
  "mgbere": 1500,
  "bi ,": 1501,
  "ahịhịa": 1502,
  "Sowore": 1503,
  "Ife": 1504,
  "FA": 1505,
  "16": 1506,
  "ọk": 1507,
  "ọjị": 1508,
  "rụngwa": 1509,
  "mbụ .": 1510,
  "akụrụngwa": 1511,
  "ad": 1512,
  "Ti": 1513,
  "Nwosu": 1514,
  "Is": 1515,
  "Fal": 1516,
  "ụbụ": 1517,
  "ọkachasị": 1518,
  "sena": 1519,
  "s :": 1520,
  "pụrụiche": 1521,
  "nkịta": 1522,
  "ndị \"": 1523,
  "national": 1524,
  "ndo": 1525,
  "mọnde": 1526,
  "mas": 1527,
  "kwa ,": 1528,
  "guzo": 1529,
  "Olu": 1530,
  "National": 1531,
  "“ onye": 1532,
  "ịnyị": 1533,
  "nrụrụ": 1534,
  "mbab": 1535,
  "mbabwe": 1536,
  "lani": 1537,
  "elo": 1538,
  "Zimbabwe": 1539,
  "US": 1540,
  "Ihedioha": 1541,
  "Ibrahim": 1542,
  "4 .": 1543,
  "ọkụ .": 1544,
  "zie": 1545,
  "ute": 1546,
  "senatọ": 1547,
  "rom": 1548,
  "mkparịtaụka": 1549,
  "by": 1550,
  "anambra ,": 1551,
  "arụ": 1552,
  "Premi": 1553,
  "Madu": 1554,
  "El-Zakzaky": 1555,
  "Ah": 1556,
  "ụfọdụ ,": 1557,
  "ọnwụ .": 1558,
  "ọkafọ": 1559,
  "ọzụ": 1560,
  "ule": 1561,
  "toba": 1562,
  "izuụka": 1563,
  "gen": 1564,
  "ON": 1565,
  "Nai": 1566,
  "League": 1567,
  "ụta": 1568,
  "ọchịchị .": 1569,
  "maachị": 1570,
  "lic": 1571,
  "kata": 1572,
  "egwu .": 1573,
  "arcourt": 1574,
  "achị": 1575,
  "Port": 1576,
  "International": 1577,
  "Harcourt": 1578,
  "Emma": 1579,
  "30": 1580,
  "  \" ọ \"": 1581,
  "ọktoba": 1582,
  "tọzde": 1583,
  "bụ  \" ": 1584,
  "Ale": 1585,
  "12": 1586,
  "taa ,": 1587,
  "sti": 1588,
  "ssa": 1589,
  "otu .": 1590,
  "otu ,": 1591,
  "oriakụ": 1592,
  "nchị": 1593,
  "nba": 1594,
  "mita": 1595,
  "chite": 1596,
  "cho": 1597,
  "bị": 1598,
  "Premier": 1599,
  "Jona": 1600,
  "Comm": 1601,
  "ụnyaahụ": 1602,
  "stra": 1603,
  "nkwekọrịta": 1604,
  "kiri": 1605,
  "gboro": 1606,
  "Falcon": 1607,
  "Bra": 1608,
  "ọzụzụ": 1609,
  "ya . ”": 1610,
  "nturu": 1611,
  "ncheta": 1612,
  "ndi": 1613,
  "med": 1614,
  "la ,": 1615,
  "ise .": 1616,
  "afọ .": 1617,
  "Osinba": 1618,
  "Onye": 1619,
  "Mbaka": 1620,
  "1 .": 1621,
  "ụma": 1622,
  "ọkara": 1623,
  "ka \"": 1624,
  "ihe \"": 1625,
  "ctor": 1626,
  "atọ ,": 1627,
  "Nwa": 1628,
  "Bro": 1629,
  "Alex": 1630,
  "ịnyịnya": 1631,
  "rama": 1632,
  "rd": 1633,
  "na \"": 1634,
  "mpion": 1635,
  "mkpamkpa": 1636,
  "kuku": 1637,
  "achịcha": 1638,
  "Yo": 1639,
  "John": 1640,
  "Face": 1641,
  "Emeka": 1642,
  "David": 1643,
  "Air": 1644,
  "2016": 1645,
  "ọgwụgwụ": 1646,
  "te ,": 1647,
  "obodo .": 1648,
  "nnewi": 1649,
  "mgbanwe": 1650,
  "isi ,": 1651,
  "efe": 1652,
  "amero": 1653,
  "agbidi": 1654,
  "William": 1655,
  "Wor": 1656,
  "MA": 1657,
  "Ko": 1658,
  "Jonatha": 1659,
  "Camero": 1660,
  "ọbụla .": 1661,
  "re :": 1662,
  "niel": 1663,
  "nha": 1664,
  "mgbo": 1665,
  "idemmiri": 1666,
  "ikuku": 1667,
  "ego .": 1668,
  "ekwu": 1669,
  "agụma": 1670,
  "adị": 1671,
  "Mba": 1672,
  "DSS": 1673,
  "Con": 1674,
  "Bor": 1675,
  "Ana": 1676,
  "o \"": 1677,
  "mmi": 1678,
  "ebere": 1679,
  "bert": 1680,
  "alth": 1681,
  "St": 1682,
  "Fulani": 1683,
  "Abdu": 1684,
  "Ai": 1685,
  " , \"": 1686,
  "ren": 1687,
  "obibi": 1688,
  "kwu .": 1689,
  "kansa": 1690,
  "julaị": 1691,
  "eh": 1692,
  "bụ .": 1693,
  "Riva": 1694,
  "Osinbajo": 1695,
  "Naija": 1696,
  "Ger": 1697,
  "Fede": 1698,
  "Euro": 1699,
  "Champion": 1700,
  "Abaribe": 1701,
  "Adi": 1702,
  "“ ndị": 1703,
  "ves": 1704,
  "ngwụcha": 1705,
  "nzụ": 1706,
  "mmasị": 1707,
  "kọmiti": 1708,
  "ime .": 1709,
  "bre": 1710,
  "Timo": 1711,
  "Do": 1712,
  "Del": 1713,
  "ubi": 1714,
  "rie": 1715,
  "pte": 1716,
  "opekata": 1717,
  "okwu ,": 1718,
  "nsogbu .": 1719,
  "ndị ,": 1720,
  "nkọ": 1721,
  "ghụ": 1722,
  "anwụrụ": 1723,
  "Ut": 1724,
  "Falcons": 1725,
  "Barc": 1726,
  "Ara": 1727,
  "2 )": 1728,
  "ụnyaahụ .": 1729,
  "ụbụrụ": 1730,
  "tti": 1731,
  "saye": 1732,
  "pan": 1733,
  "nke \"": 1734,
  "nchịkọta": 1735,
  "nsu": 1736,
  "mbụ ,": 1737,
  "hoo": 1738,
  "ejije": 1739,
  "aga": 1740,
  "Umu": 1741,
  "Jonathan": 1742,
  "Igbo": 1743,
  "Eng": 1744,
  "Barcelo": 1745,
  "Ben": 1746,
  "“ ihe": 1747,
  "ukwu .": 1748,
  "pita": 1749,
  "onald": 1750,
  "odeakwụkwọ": 1751,
  "nzụkọ": 1752,
  "mpu": 1753,
  "mgbakọ": 1754,
  "lateau": 1755,
  "bishọ": 1756,
  "West": 1757,
  "Plateau": 1758,
  "North": 1759,
  "Donald": 1760,
  "3 ,": 1761,
  "“ m": 1762,
  "ọjọọ .": 1763,
  "ọgwụgwọ": 1764,
  "ọbụladị": 1765,
  "wa ,": 1766,
  "taa :": 1767,
  "sia": 1768,
  "rọ ,": 1769,
  "ondo": 1770,
  "inọ": 1771,
  "ghị ,": 1772,
  "gbata": 1773,
  "gra": 1774,
  "chafụ": 1775,
  "car": 1776,
  "anu": 1777,
  "Ye": 1778,
  "World": 1779,
  "Umahi": 1780,
  "The": 1781,
  "Iv": 1782,
  "France": 1783,
  "Cameroon": 1784,
  "“ n'": 1785,
  "yin": 1786,
  "septe": 1787,
  "mbodo": 1788,
  "gboo": 1789,
  "ehihi": 1790,
  "echichi": 1791,
  "asambodo": 1792,
  "Utd": 1793,
  "Ser": 1794,
  "Robert": 1795,
  "Ce": 1796,
  "Barcelona": 1797,
  "Bay": 1798,
  "2 .": 1799,
  "ọna": 1800,
  "tara": 1801,
  "opekatampe": 1802,
  "nọ .": 1803,
  "ll": 1804,
  "kraịst ,": 1805,
  "kama ,": 1806,
  "akwụkwọ ,": 1807,
  "Shi": 1808,
  "Rivas": 1809,
  "Oba": 1810,
  "Londo": 1811,
  "IM": 1812,
  "Gra": 1813,
  "Aisha": 1814,
  "25": 1815,
  "100": 1816,
  "  \" a": 1817,
  "ọnụ ,": 1818,
  "ịchafụ": 1819,
  "thi": 1820,
  "sho": 1821,
  "sayensị": 1822,
  "ogbenye": 1823,
  "nghọ": 1824,
  "ncha": 1825,
  "mbido": 1826,
  "kwụkwọ": 1827,
  "agụmakwụkwọ": 1828,
  "UK": 1829,
  "Fo": 1830,
  "yinbo": 1831,
  "toyinbo": 1832,
  "tten": 1833,
  "nson": 1834,
  "manị": 1835,
  "jamanị": 1836,
  "ja ,": 1837,
  "inọk": 1838,
  "cu": 1839,
  "cra": 1840,
  "ber": 1841,
  "amerịka .": 1842,
  "adịgboro": 1843,
  "Tu": 1844,
  "Ibi": 1845,
  "Hu": 1846,
  "Christi": 1847,
  "ụzọ ,": 1848,
  "tum": 1849,
  "ssion": 1850,
  "rimara": 1851,
  "mkpa .": 1852,
  "min": 1853,
  "mgbochi": 1854,
  "mwu": 1855,
  "ley": 1856,
  "afrịka .": 1857,
  "____": 1858,
  "Totten": 1859,
  "Real": 1860,
  "Niger": 1861,
  "Daniel": 1862,
  "AFC": 1863,
  "2019 :": 1864,
  "ọnụọgụgụ": 1865,
  "ịhụ": 1866,
  "ịhụna": 1867,
  "oge ,": 1868,
  "oma": 1869,
  "nuel": 1870,
  "nturuugo": 1871,
  "nri ,": 1872,
  "ndịda": 1873,
  "ndu": 1874,
  "mbịa": 1875,
  "jizọs ,": 1876,
  "ghụghọ": 1877,
  "ese": 1878,
  "ep": 1879,
  "dike": 1880,
  "chie": 1881,
  "book": 1882,
  "biko": 1883,
  "Shehu": 1884,
  "Facebook": 1885,
  "Fatoyinbo": 1886,
  "Delta": 1887,
  "Demo": 1888,
  "Commi": 1889,
  "AFCON": 1890,
  "Abi": 1891,
  "6 ,": 1892,
  "2019 ,": 1893,
  "28": 1894,
  "ụmụnna": 1895,
  "vs": 1896,
  "pp": 1897,
  "osika": 1898,
  "nkụ": 1899,
  "ina": 1900,
  "gri": 1901,
  "ekpere ,": 1902,
  "egwu ,": 1903,
  "der": 1904,
  "arịrịọ": 1905,
  "aghụghọ": 1906,
  "Timoti": 1907,
  "Lu": 1908,
  " .  \" ọ \"": 1909,
  "ụzọ .": 1910,
  "ịdị": 1911,
  "si ,": 1912,
  "nwaada": 1913,
  "njirimara": 1914,
  "kra": 1915,
  "gal": 1916,
  "amadi": 1917,
  "agha ,": 1918,
  "Sam": 1919,
  "Nigerian": 1920,
  "AC": 1921,
  "4 )": 1922,
  "ụdịrị": 1923,
  "ụbọchị ,": 1924,
  "ọlaedo": 1925,
  "muel": 1926,
  "mmalite": 1927,
  "mba ,": 1928,
  "lia": 1929,
  "kola": 1930,
  "elu .": 1931,
  "dan": 1932,
  "Tottenham": 1933,
  "Samuel": 1934,
  "Peop": 1935,
  "Ebre": 1936,
  "Agu": 1937,
  "( n": 1938,
  "ọkụ ,": 1939,
  "ọhụrụ .": 1940,
  "zịza": 1941,
  "z .": 1942,
  "sịga": 1943,
  "sina": 1944,
  "rena": 1945,
  "nọve": 1946,
  "nrụrụaka": 1947,
  "mwute": 1948,
  "lement": 1949,
  "jizọs .": 1950,
  "jehova ,": 1951,
  "ise ,": 1952,
  "ekwensu": 1953,
  "chi ,": 1954,
  "bịa ,": 1955,
  "ama .": 1956,
  "are": 1957,
  "Ste": 1958,
  "Si": 1959,
  "Japan": 1960,
  "Emmanuel": 1961,
  "Election": 1962,
  "Dan": 1963,
  "Champions": 1964,
  "Ahmed": 1965,
  "AN": 1966,
  "ọnatara": 1967,
  "ọdịmma": 1968,
  "ress": 1969,
  "rea": 1970,
  "para": 1971,
  "onyeàmà": 1972,
  "okwute": 1973,
  "odo": 1974,
  "nkume": 1975,
  "juun": 1976,
  "cia": 1977,
  "bishọp": 1978,
  "arịrị": 1979,
  "ahụ ?": 1980,
  "Okon": 1981,
  "Ola": 1982,
  "Ifeanyi": 1983,
  "Brother": 1984,
  "African": 1985,
  "3 .": 1986,
  "ụtọ ,": 1987,
  "ụlọ ,": 1988,
  "ọnatarachi": 1989,
  "wa .": 1990,
  "re ?": 1991,
  "okiri": 1992,
  "ose": 1993,
  "nụwarị": 1994,
  "nụ .": 1995,
  "nọ ,": 1996,
  "noa": 1997,
  "kana": 1998,
  "gwon": 1999,
  "ghara": 2000,
  "ba ,": 2001,
  "azu": 2002,
  "Par": 2003,
  "Joe": 2004,
  "Adamu": 2005,
  "“ chineke": 2006,
  "tin": 2007,
  "spen": 2008,
  "ree": 2009,
  "pti": 2010,
  "nrite": 2011,
  "mbo": 2012,
  "ls": 2013,
  "kpị": 2014,
  "kilo": 2015,
  "ka ,": 2016,
  "gwongwo": 2017,
  "eprel": 2018,
  "debe": 2019,
  "afọ ,": 2020,
  "Osu": 2021,
  "Kano": 2022,
  "Europe": 2023,
  "Ali": 2024,
  "5 .": 2025,
  " . ” ,": 2026,
  "ọmarị": 2027,
  "ọmarịcha": 2028,
  "zil": 2029,
  "sele": 2030,
  "ptizi": 2031,
  "nge": 2032,
  "mili": 2033,
  "koria": 2034,
  "jọn": 2035,
  "ihu .": 2036,
  "is": 2037,
  "gana": 2038,
  "gy": 2039,
  "ehihie": 2040,
  "den": 2041,
  "daị": 2042,
  "baptizi": 2043,
  "ba .": 2044,
  "azịza": 2045,
  "Williams": 2046,
  "Wol": 2047,
  "Tho": 2048,
  "Shia": 2049,
  "Pri": 2050,
  "Onwu": 2051,
  "Ogbo": 2052,
  "Mike": 2053,
  "Ikpe": 2054,
  "England": 2055,
  "CO": 2056,
  "  \" anyị \"": 2057,
  "ụka .": 2058,
  "ụkwa": 2059,
  "ọgara": 2060,
  "ọgbụ": 2061,
  "ọgbụgba": 2062,
  "ugwu .": 2063,
  "um": 2064,
  "shop": 2065,
  "rọshịa": 2066,
  "ra ?": 2067,
  "paradaị": 2068,
  "port": 2069,
  "nnọchite": 2070,
  "mmegbu": 2071,
  "mmechi": 2072,
  "h ,": 2073,
  "Sala": 2074,
  "River": 2075,
  "Obiano": 2076,
  "Job": 2077,
  "Id": 2078,
  "Democra": 2079,
  "Borno": 2080,
  "Baba": 2081,
  "And": 2082,
  "24": 2083,
  "11": 2084,
  "  \" n' \"": 2085,
  "“ e": 2086,
  "ọwa": 2087,
  "win": 2088,
  "ukwu ,": 2089,
  "ude": 2090,
  "tho": 2091,
  "nụ ,": 2092,
  "ndụ ,": 2093,
  "nze": 2094,
  "nsi": 2095,
  "my": 2096,
  "lian": 2097,
  "ememme": 2098,
  "bọje": 2099,
  "ble": 2100,
  "anọ .": 2101,
  "amadị": 2102,
  "ahịa .": 2103,
  "aku": 2104,
  "Yemi": 2105,
  "50": 2106,
  "zor": 2107,
  "ya :": 2108,
  "uni": 2109,
  "tom": 2110,
  "rusele": 2111,
  "r .": 2112,
  "ongress": 2113,
  "ogogo": 2114,
  "obodo ,": 2115,
  "nkwụ": 2116,
  "lin": 2117,
  "jerusele": 2118,
  "igbe": 2119,
  "ice": 2120,
  "bụ :": 2121,
  "arba": 2122,
  "Serena": 2123,
  "Rev": 2124,
  "Okezie": 2125,
  "Ikpeazu": 2126,
  "Idris": 2127,
  "Congress": 2128,
  "Clement": 2129,
  "As": 2130,
  "9 ,": 2131,
  "7 ,": 2132,
  "udu": 2133,
  "nso .": 2134,
  "kọmpu": 2135,
  "fran": 2136,
  "eri": 2137,
  "e \"": 2138,
  "dy": 2139,
  "agbata": 2140,
  "abụbụ": 2141,
  "ahu": 2142,
  "Victor": 2143,
  "Sera": 2144,
  "Sy": 2145,
  "Lib": 2146,
  "Igbokwe": 2147,
  "God": 2148,
  "Cou": 2149,
  "Brazil": 2150,
  "ụlọ .": 2151,
  "ọchịchị ,": 2152,
  "ịhụnanya": 2153,
  "w .": 2154,
  "uhie": 2155,
  "r ,": 2156,
  "mmanwụ": 2157,
  "ji ,": 2158,
  "ha ?": 2159,
  "febụ": 2160,
  "febụwarị": 2161,
  "ebube": 2162,
  "dun": 2163,
  "deine": 2164,
  "asaa .": 2165,
  "abuja .": 2166,
  "Sha": 2167,
  "Nnamdi": 2168,
  "Kenya": 2169,
  "Em": 2170,
  "Commission": 2171,
  "Chibo": 2172,
  "AR": 2173,
  "198": 2174,
  "“ o": 2175,
  "ụka ,": 2176,
  "ọkpọka": 2177,
  "ọdịnihu .": 2178,
  "ron": 2179,
  "pasentị": 2180,
  "nwaanyị ,": 2181,
  "nri .": 2182,
  "kiti": 2183,
  "kepu": 2184,
  "igbo ?": 2185,
  "ght": 2186,
  "ekpere .": 2187,
  "eju": 2188,
  "azụ .": 2189,
  "adịgboroja": 2190,
  "UN": 2191,
  "Rehab": 2192,
  "Okorocha": 2193,
  "Oj": 2194,
  "Johnson": 2195,
  "Ibiam": 2196,
  "Garba": 2197,
  "Cos": 2198,
  "Cor": 2199,
  "Big": 2200,
  "Bel": 2201,
  "9 .": 2202,
  "3 )": 2203,
  "2014": 2204,
  "  \" , \"": 2205,
  "ọsọ .": 2206,
  "praị": 2207,
  "ozi .": 2208,
  "owerri": 2209,
  "osikapa": 2210,
  "oke .": 2211,
  "ntị .": 2212,
  "nhazi": 2213,
  "ji .": 2214,
  "illa": 2215,
  "imi": 2216,
  "gency": 2217,
  "ford": 2218,
  "ezi .": 2219,
  "ee": 2220,
  "day": 2221,
  "aṅụ": 2222,
  "Ume": 2223,
  "Ugwu": 2224,
  "Spa": 2225,
  "Ope": 2226,
  "NL": 2227,
  "Ku": 2228,
  "FF": 2229,
  "Davi": 2230,
  "Ban": 2231,
  "Alla": 2232,
  "6 .": 2233,
  "2023": 2234,
  "196": 2235,
  "ọjọọ ,": 2236,
  "ya .  \" ": 2237,
  "vel": 2238,
  "te .": 2239,
  "sọọsọ": 2240,
  "one": 2241,
  "nọvemba": 2242,
  "nya .": 2243,
  "nwo": 2244,
  "nsonso": 2245,
  "nghọta": 2246,
  "na .": 2247,
  "nzọ": 2248,
  "kọb": 2249,
  "kraịst .": 2250,
  "jekọb": 2251,
  "cial": 2252,
  "Okoye": 2253,
  "Omo": 2254,
  "India": 2255,
  "Char": 2256,
  "Bukola": 2257,
  "5 )": 2258,
  "ọbụla ,": 2259,
  "ọsị": 2260,
  "ịlaị": 2261,
  "ogbo": 2262,
  "nleta": 2263,
  "kraine": 2264,
  "ff": 2265,
  "ames": 2266,
  "ako": 2267,
  "Union": 2268,
  "Udemba": 2269,
  "Ukraine": 2270,
  "Uche": 2271,
  "Tim": 2272,
  "NLC": 2273,
  "Mer": 2274,
  "Inno": 2275,
  "Ebreham": 2276,
  "DC": 2277,
  "Cent": 2278,
  "Ang": 2279,
  "8 ,": 2280,
  "197": 2281,
  "ụlọọrụ": 2282,
  "ọọ": 2283,
  "wood": 2284,
  "vice": 2285,
  "udi": 2286,
  "tus": 2287,
  "sili": 2288,
  "olly": 2289,
  "ollywood": 2290,
  "mgbu": 2291,
  "gị ?": 2292,
  "ghị \"": 2293,
  "fero": 2294,
  "ffi": 2295,
  "esem": 2296,
  "dise": 2297,
  "cis": 2298,
  "anọ ,": 2299,
  "Wolves": 2300,
  "San": 2301,
  "Nation": 2302,
  "London": 2303,
  "Bio": 2304,
  "Allah": 2305,
  "All": 2306,
  "9 )": 2307,
  "7 )": 2308,
  "26": 2309,
  "0 .": 2310,
  "ọkaibe": 2311,
  "ọgaranya": 2312,
  "tta": 2313,
  "som": 2314,
  "siria": 2315,
  "septemba": 2316,
  "ot": 2317,
  "mmiri .": 2318,
  "midi": 2319,
  "hib": 2320,
  "ehab": 2321,
  "bụla .": 2322,
  "bụla ,": 2323,
  "ahụhụ .": 2324,
  "ace": 2325,
  "Party": 2326,
  "Okonkwo": 2327,
  "Joseph": 2328,
  "Day": 2329,
  "2020": 2330,
  "  \" nke \"": 2331,
  "ọnwụ ,": 2332,
  "ọganihu": 2333,
  "ọcha .": 2334,
  "ọcha ,": 2335,
  "okirikiri": 2336,
  "nwere": 2337,
  "negal": 2338,
  "mmepụta": 2339,
  "lan": 2340,
  "kris": 2341,
  "iwe .": 2342,
  "ikpeazụ ,": 2343,
  "ihere": 2344,
  "ilu": 2345,
  "gazi": 2346,
  "eze ,": 2347,
  "ego ,": 2348,
  "egbu": 2349,
  "bekee .": 2350,
  "aị": 2351,
  "Zam": 2352,
  "Senegal": 2353,
  "Roh": 2354,
  "Ogbu": 2355,
  "Mini": 2356,
  "IS": 2357,
  "Guine": 2358,
  "Femi": 2359,
  "Eji": 2360,
  "Ed": 2361,
  "Democratic": 2362,
  "Dap": 2363,
  "Akanu": 2364,
  "0 ,": 2365,
  "ọka ,": 2366,
  "ọt": 2367,
  "ṅomi": 2368,
  "udo .": 2369,
  "pho": 2370,
  "onwealth": 2371,
  "ngwaahịa": 2372,
  "nno": 2373,
  "nchụ": 2374,
  "legọs .": 2375,
  "izugbe": 2376,
  "gre": 2377,
  "chael": 2378,
  "anyị ?": 2379,
  "abụ ,": 2380,
  "ZA": 2381,
  "Va": 2382,
  "Univer": 2383,
  "Uzo": 2384,
  "Ribe": 2385,
  "Onu": 2386,
  "Maduka": 2387,
  "Kanu": 2388,
  "IV": 2389,
  "Davido": 2390,
  "Commonwealth": 2391,
  "Chibok": 2392,
  "COZA": 2393,
  "Cup": 2394,
  "Cro": 2395,
  "- 3": 2396,
  "ọpụ": 2397,
  "ọbọ": 2398,
  "urch": 2399,
  "tain": 2400,
  "stle": 2401,
  "pụ .": 2402,
  "oti": 2403,
  "ntụnye": 2404,
  "not": 2405,
  "nce": 2406,
  "mbara": 2407,
  "mar": 2408,
  "kọmputa": 2409,
  "kwesili": 2410,
  "idemili": 2411,
  "eze .": 2412,
  "elu ,": 2413,
  "es": 2414,
  "dimkpa": 2415,
  "chị .": 2416,
  "chool": 2417,
  "bọọlụ .": 2418,
  "amerịka ,": 2419,
  "akọ": 2420,
  "Tra": 2421,
  "Rohr": 2422,
  "Ribeka": 2423,
  "Port ": 2424,
  "Port Harcourt": 2425,
  "Ogu": 2426,
  "Nọt": 2427,
  "Mor": 2428,
  "Indi": 2429,
  "Francis": 2430,
  "Cana": 2431,
  "Adichie": 2432,
  "ASU": 2433,
  " ! ”": 2434,
  "“ mgbe": 2435,
  "yetti": 2436,
  "si .": 2437,
  "pasent": 2438,
  "ntụliaka .": 2439,
  "njọ .": 2440,
  "nali": 2441,
  "mbịara": 2442,
  "l .": 2443,
  "icester": 2444,
  "hia": 2445,
  "grik": 2446,
  "gige": 2447,
  "fara": 2448,
  "esemokwu": 2449,
  "enyo": 2450,
  "do ,": 2451,
  "del": 2452,
  "ct": 2453,
  "blic": 2454,
  "aṅụrị": 2455,
  "asị .": 2456,
  "Ngige": 2457,
  "Miyetti": 2458,
  "May": 2459,
  "Leicester": 2460,
  "Ezekwesili": 2461,
  "East": 2462,
  "Ethi": 2463,
  "Christian": 2464,
  "Col": 2465,
  "Bre": 2466,
  "Ani": 2467,
  "Aku": 2468,
  "Ad": 2469,
  "21": 2470,
  "( N": 2471,
  "  \" ndị \"": 2472,
  "  \" ihe \"": 2473,
  "ụlọahịa": 2474,
  "ọtụ": 2475,
  "tek": 2476,
  "tt": 2477,
  "rin": 2478,
  "rank": 2479,
  "ozigbo": 2480,
  "oge .": 2481,
  "nkwu": 2482,
  "mkpọrọ .": 2483,
  "mic": 2484,
  "mgbaghara": 2485,
  "len": 2486,
  "kla": 2487,
  "eluigwe ,": 2488,
  "Ojukwu": 2489,
  "Mercy": 2490,
  "Mai": 2491,
  "Iran": 2492,
  "Imo": 2493,
  "Ebo": 2494,
  "Cy": 2495,
  "( A": 2496,
  " .  \" anyị \"": 2497,
  "“ ị": 2498,
  "ọṅụṅụ": 2499,
  "ọtọ .": 2500,
  "ọhụrụ ,": 2501,
  "ọfọ": 2502,
  "ọbịa": 2503,
  "yinka": 2504,
  "way": 2505,
  "ugwu ,": 2506,
  "teknụ": 2507,
  "teknụzụ": 2508,
  "shu": 2509,
  "ro ,": 2510,
  "ring": 2511,
  "ozi ,": 2512,
  "og": 2513,
  "nsọ .": 2514,
  "nlekọta": 2515,
  "njedebe": 2516,
  "nsụ": 2517,
  "leke": 2518,
  "kpamkpa": 2519,
  "kolo": 2520,
  "gburugbu": 2521,
  "ganị": 2522,
  "dge": 2523,
  "bu .": 2524,
  "akpụkpọ": 2525,
  "abụ )": 2526,
  "Shiite": 2527,
  "Service": 2528,
  "SAR": 2529,
  "SARS": 2530,
  "King": 2531,
  "IMN": 2532,
  "ID": 2533,
  "HIV": 2534,
  "Ethiop": 2535,
  "Dapchi": 2536,
  "Bishop": 2537,
  "Aja": 2538,
  "AF": 2539,
  "7 .": 2540,
  "2017 .": 2541,
  "  \" na \"": 2542,
  "ọbụ": 2543,
  "zik": 2544,
  "umeala": 2545,
  "u ,": 2546,
  "side": 2547,
  "ru ?": 2548,
  "pha": 2549,
  "oly": 2550,
  "ochie .": 2551,
  "owu": 2552,
  "nkọwa": 2553,
  "nkwarị": 2554,
  "nin": 2555,
  "nnwere": 2556,
  "magazi": 2557,
  "mon": 2558,
  "mkwe": 2559,
  "m . ”": 2560,
  "lle": 2561,
  "kwaghị": 2562,
  "ikiri": 2563,
  "ihu ,": 2564,
  "gressi": 2565,
  "gola": 2566,
  "eziokwu ?": 2567,
  "eluigwe .": 2568,
  "disemba": 2569,
  "Orji": 2570,
  "Nwachukwu": 2571,
  "Nwan": 2572,
  "Mikel": 2573,
  "Kogi": 2574,
  "James": 2575,
  "Ikechukwu": 2576,
  "Ita": 2577,
  "Frank": 2578,
  "Eli": 2579,
  "Dakolo": 2580,
  "Church": 2581,
  "Britain": 2582,
  "Biodun": 2583,
  "Benja": 2584,
  "ASUU": 2585,
  "Agency": 2586,
  "5 ,": 2587,
  "22": 2588,
  " ...": 2589,
  "“ ka": 2590,
  "ọnwụnwa": 2591,
  "ọfụma .": 2592,
  "yat": 2593,
  "scar": 2594,
  "penali": 2595,
  "penaliti": 2596,
  "pro": 2597,
  "phe": 2598,
  "obiọma": 2599,
  "ote": 2600,
  "nwatakịrị": 2601,
  "nkwenye": 2602,
  "njikọ": 2603,
  "ngwongwo": 2604,
  "nc": 2605,
  "magazin": 2606,
  "ma .": 2607,
  "mne": 2608,
  "kwu ,": 2609,
  "kanada": 2610,
  "ifo": 2611,
  "gram": 2612,
  "golayat": 2613,
  "fre": 2614,
  "enugwu .": 2615,
  "ef": 2616,
  "ard": 2617,
  "ahụ . ”": 2618,
  "ahịa ,": 2619,
  "a \"": 2620,
  "Umar": 2621,
  "SC": 2622,
  "People": 2623,
  "Peace": 2624,
  "Pu": 2625,
  "Nigeria ,": 2626,
  "Michael": 2627,
  "Kim": 2628,
  "Gernot": 2629,
  "Fi": 2630,
  "En": 2631,
  "-E": 2632,
  "' ?": 2633,
  " .  \" ndị \"": 2634,
  "  \" ka \"": 2635,
  "ụlọikpe .": 2636,
  "velop": 2637,
  "velopment": 2638,
  "tanka": 2639,
  "socia": 2640,
  "sociation": 2641,
  "onye \"": 2642,
  "oke ,": 2643,
  "nsọ ,": 2644,
  "nnaya": 2645,
  "lu ,": 2646,
  "jijiji": 2647,
  "fraịde .": 2648,
  "di ,": 2649,
  "chineke ?": 2650,
  "ata": 2651,
  "aja .": 2652,
  "Zamfara": 2653,
  "Universi": 2654,
  "Soyinka": 2655,
  "Secon": 2656,
  "Progressi": 2657,
  "Pi": 2658,
  "Ndu": 2659,
  "Geor": 2660,
  "Ex": 2661,
  "Bur": 2662,
  "Association": 2663,
  "Abdul": 2664,
  "500": 2665,
  "4 ,": 2666,
  "2018 .": 2667,
  "ọkọlọ": 2668,
  "ọkọlọtọ": 2669,
  "ọkpụkpụ": 2670,
  "ịgba": 2671,
  "uru ,": 2672,
  "tive": 2673,
  "tholic": 2674,
  "sime": 2675,
  "sse": 2676,
  "ru :": 2677,
  "roup": 2678,
  "rist": 2679,
  "nesi": 2680,
  "mmiri ,": 2681,
  "mkpagbu": 2682,
  "mana \"": 2683,
  "lican": 2684,
  "lli": 2685,
  "isii ,": 2686,
  "hole": 2687,
  "gbatagbata": 2688,
  "elsa": 2689,
  "eld": 2690,
  "edeme": 2691,
  "castle": 2692,
  "cto": 2693,
  "bụ \"": 2694,
  "alụm": 2695,
  "Sheka": 2696,
  "Po": 2697,
  "Oluse": 2698,
  "Odu": 2699,
  "Nji": 2700,
  "Musa": 2701,
  "Mz .": 2702,
  "Mala": 2703,
  "League .": 2704,
  "FI": 2705,
  "Ethiopia": 2706,
  "Development": 2707,
  "Catholic": 2708,
  "Bayelsa": 2709,
  "Bank": 2710,
  "Anaje": 2711,
  "Aw": 2712,
  "ụzụ": 2713,
  "ụfụ": 2714,
  "ọpị": 2715,
  "taata": 2716,
  "rish": 2717,
  "rael": 2718,
  "paradaịs .": 2719,
  "ozugbo .": 2720,
  "om": 2721,
  "mbuli": 2722,
  "mwe": 2723,
  "kpụrụkpụ": 2724,
  "kpọmkwe": 2725,
  "jeruselem": 2726,
  "jenụwarị": 2727,
  "iwu .": 2728,
  "iteghe": 2729,
  "ime ,": 2730,
  "ikpe .": 2731,
  "edemede": 2732,
  "cent": 2733,
  "anambra .": 2734,
  "Yoru": 2735,
  "Thomas": 2736,
  "Tan": 2737,
  "Olusegun": 2738,
  "Nwodo": 2739,
  "Nations": 2740,
  "Libya": 2741,
  "Kalu": 2742,
  "Israel": 2743,
  "Good": 2744,
  "Gene": 2745,
  "Charles": 2746,
  "Chan": 2747,
  "Canada": 2748,
  "Buso": 2749,
  " .  \" o \"": 2750,
  "’ )": 2751,
  "ụbọchị .": 2752,
  "ọgụ .": 2753,
  "ọkwụ": 2754,
  "xi": 2755,
  "ukwa": 2756,
  "tiusde .": 2757,
  "stan": 2758,
  "siriak": 2759,
  "shiom": 2760,
  "shiomhole": 2761,
  "rọs": 2762,
  "rus": 2763,
  "praịm": 2764,
  "ochie ,": 2765,
  "okwe": 2766,
  "nnọchiteanya": 2767,
  "nnụ": 2768,
  "mkpa :": 2769,
  "mbuze": 2770,
  "m :": 2771,
  "l ,": 2772,
  "ka .": 2773,
  "isii .": 2774,
  "ino": 2775,
  "hụhụ": 2776,
  "gaasị": 2777,
  "ern": 2778,
  "dibia": 2779,
  "chi .": 2780,
  "alụkwaghị": 2781,
  "a .  \" ": 2782,
  "Yu": 2783,
  "Wike": 2784,
  "Ugwuanyi": 2785,
  "TV": 2786,
  "Ronal": 2787,
  "PC": 2788,
  "Oshiomhole": 2789,
  "Nnabu": 2790,
  "Newcastle": 2791,
  "Germa": 2792,
  "Busola": 2793,
  "Bar": 2794,
  "Austra": 2795,
  "Airport": 2796,
  "Awa": 2797,
  "6 )": 2798,
  "2015 .": 2799,
  "“ unu": 2800,
  "ụkpa": 2801,
  "ọkwọ": 2802,
  "ọchụ": 2803,
  "to ,": 2804,
  "twitter": 2805,
  "ro .": 2806,
  "rest": 2807,
  "ramahụhụ": 2808,
  "oziọma": 2809,
  "oyibo": 2810,
  "obo": 2811,
  "nya ,": 2812,
  "nwoke .": 2813,
  "nwoke ,": 2814,
  "nwaagbọghọ": 2815,
  "ntaramahụhụ": 2816,
  "ntakịrị": 2817,
  "mahịa": 2818,
  "mgbidi": 2819,
  "laza": 2820,
  "kọpa": 2821,
  "ke ,": 2822,
  "iri .": 2823,
  "ikpere": 2824,
  "ijipt .": 2825,
  "int": 2826,
  "hibru": 2827,
  "ha \"": 2828,
  "hị": 2829,
  "gypt": 2830,
  "gad": 2831,
  "enugwu ,": 2832,
  "echiche .": 2833,
  "ek": 2834,
  "dugu": 2835,
  "biko ,": 2836,
  "azụmahịa": 2837,
  "asatọ ,": 2838,
  "anya . ”": 2839,
  "akwa .": 2840,
  "agadi": 2841,
  "________": 2842,
  "Tara": 2843,
  "Stephe": 2844,
  "Shekau": 2845,
  "School": 2846,
  "Rivers": 2847,
  "Oye": 2848,
  "Nollywood": 2849,
  "NFF": 2850,
  "Maidugu": 2851,
  "Haru": 2852,
  "Federal": 2853,
  "For": 2854,
  "Egypt": 2855,
  "Communi": 2856,
  "Chioma": 2857,
  "Chad": 2858,
  "Central": 2859,
  "Benjamin": 2860,
  "Benu": 2861,
  "Agule": 2862,
  "Abdulla": 2863,
  "Ameri": 2864,
  "8 .": 2865,
  "29": 2866,
  "1914": 2867,
  "- \"": 2868,
  "ịlaịja": 2869,
  "ịdịna": 2870,
  "ya ;": 2871,
  "ya  \" ": 2872,
  "van": 2873,
  "sọnde": 2874,
  "sị  \" ": 2875,
  "sekọ": 2876,
  "sto": 2877,
  "rans": 2878,
  "public": 2879,
  "our": 2880,
  "ojii ,": 2881,
  "ohi ,": 2882,
  "nwụ ,": 2883,
  "nuche": 2884,
  "nkwanye": 2885,
  "ndị ;": 2886,
  "ncil": 2887,
  "mma ?": 2888,
  "maahịa": 2889,
  "mkpị": 2890,
  "liance": 2891,
  "li .": 2892,
  "lack": 2893,
  "ezina": 2894,
  "ding": 2895,
  "din": 2896,
  "dne": 2897,
  "conomi": 2898,
  "chebe": 2899,
  "bulu": 2900,
  "bon": 2901,
  "azụmaahịa": 2902,
  "azụ ,": 2903,
  "asatọ .": 2904,
  "arebia": 2905,
  "afrịka ,": 2906,
  "ahia": 2907,
  "University": 2908,
  "Timgad": 2909,
  "Saudi": 2910,
  "PS": 2911,
  "Nyako": 2912,
  "Mou": 2913,
  "Lai": 2914,
  "Innoson": 2915,
  "Isa": 2916,
  "Ibo": 2917,
  "Group": 2918,
  "CB": 2919,
  "Alliance": 2920,
  "Abdullahi": 2921,
  "Abra": 2922,
  "400": 2923,
  "“ i": 2924,
  "ụkwara": 2925,
  "ụra .": 2926,
  "ọpụpụ": 2927,
  "ọlị": 2928,
  "ọkpụrụkpụ": 2929,
  "xico": 2930,
  "sty": 2931,
  "ston": 2932,
  "ship": 2933,
  "ser": 2934,
  "sa ,": 2935,
  "stus": 2936,
  "rụwarị": 2937,
  "rity": 2938,
  "rite": 2939,
  "rg": 2940,
  "phobi": 2941,
  "ogoogo": 2942,
  "nophobi": 2943,
  "ngwọ": 2944,
  "mesa": 2945,
  "mana ,": 2946,
  "kno": 2947,
  "izrel .": 2948,
  "iwe ,": 2949,
  "inji": 2950,
  "ille": 2951,
  "ill": 2952,
  "ikpeazụ .": 2953,
  "ig": 2954,
  "ha . ”": 2955,
  "feb": 2956,
  "febrụwarị": 2957,
  "emeka": 2958,
  "ell": 2959,
  "ebum": 2960,
  "enophobi": 2961,
  "chel": 2962,
  "cha ,": 2963,
  "asaa ,": 2964,
  "akparama": 2965,
  "You": 2966,
  "There": 2967,
  "Qu": 2968,
  "P )": 2969,
  "Obama": 2970,
  "Mexico": 2971,
  "Mbaise": 2972,
  "Mah": 2973,
  "Mada": 2974,
  "Mana": 2975,
  "Kha": 2976,
  "Insta": 2977,
  "IC": 2978,
  "Hi": 2979,
  "Har": 2980,
  "Guinea": 2981,
  "George": 2982,
  "Economi": 2983,
  "Council": 2984,
  "Benin": 2985,
  "Bayern": 2986,
  "  \" a \"": 2987,
  "  \" - \"": 2988,
  "ụra ,": 2989,
  "ọrịa .": 2990,
  "ọnịcha ,": 2991,
  "yọsi": 2992,
  "visa": 2993,
  "ventu": 2994,
  "vin": 2995,
  "t .": 2996,
  "stal": 2997,
  "rou": 2998,
  "otele": 2999,
  "ork": 3000,
  "olution": 3001,
  "ntutu": 3002,
  "ne ,": 3003,
  "nz": 3004,
  "mkpọtụ": 3005,
  "mamanda": 3006,
  "list": 3007,
  "lege": 3008,
  "latị": 3009,
  "kwasị": 3010,
  "ks": 3011,
  "ger": 3012,
  "gar": 3013,
  "gani": 3014,
  "echiche ,": 3015,
  "e ?": 3016,
  "di .": 3017,
  "dayọsi": 3018,
  "bi . ”": 3019,
  "alakụ": 3020,
  "ahịrị": 3021,
  "ac": 3022,
  "Xenophobi": 3023,
  "Uwa": 3024,
  "Theresa": 3025,
  "Tekno": 3026,
  "Sunda": 3027,
  "Stephen": 3028,
  "Sal": 3029,
  "Revolution": 3030,
  "Ran": 3031,
  "Power": 3032,
  "Pope": 3033,
  "Ortom": 3034,
  "Ogun": 3035,
  "Odi": 3036,
  "Isla": 3037,
  "Haruna": 3038,
  "FIFA": 3039,
  "European": 3040,
  "Chimamanda": 3041,
  "Christ": 3042,
  "Cri": 3043,
  "CN": 3044,
  "Boris": 3045,
  "Bala": 3046,
  "Alge": 3047,
  "At": 3048,
  "Ant": 3049,
  "Ala": 3050,
  "AM": 3051,
  "8 )": 3052,
  "2013": 3053,
  "’ ”": 3054,
  "ụwa ?": 3055,
  "ụnyaahụ ,": 3056,
  "ụmụada": 3057,
  "ọkwa .": 3058,
  "ọchịchọ": 3059,
  "uchu": 3060,
  "tụma": 3061,
  "to .": 3062,
  "tiu ,": 3063,
  "sị :  \" ": 3064,
  "saị": 3065,
  "ous": 3066,
  "org": 3067,
  "olo": 3068,
  "oghe": 3069,
  "ntụkwasị": 3070,
  "mmefu": 3071,
  "mak ,": 3072,
  "luck": 3073,
  "let": 3074,
  "kpam": 3075,
  "ket": 3076,
  "iwu ,": 3077,
  "id": 3078,
  "gwuru": 3079,
  "ganda": 3080,
  "da ,": 3081,
  "codeine": 3082,
  "cha .": 3083,
  "cal": 3084,
  "bọọlụ ,": 3085,
  "biri": 3086,
  "baptizim": 3087,
  "anya ?": 3088,
  "akụkọ \"": 3089,
  "abụbọ": 3090,
  "ama ,": 3091,
  "Zara": 3092,
  "WAS": 3093,
  "Sunday": 3094,
  "St .": 3095,
  "Ruga": 3096,
  "Preside": 3097,
  "PSG": 3098,
  "Obio": 3099,
  "Oha": 3100,
  "Ode": 3101,
  "OWAS": 3102,
  "Njikọ": 3103,
  "Nu": 3104,
  "Nsu": 3105,
  "Nnia": 3106,
  "Nke": 3107,
  "Ndi": 3108,
  "NB": 3109,
  "Messi": 3110,
  "Kenne": 3111,
  "Emlin": 3112,
  "ECOWAS": 3113,
  "Enyi": 3114,
  "EMA": 3115,
  "Chief": 3116,
  "Black": 3117,
  "2018 ,": 3118,
  "2000": 3119,
  "ụgwọ .": 3120,
  "ọsịsọ": 3121,
  "ọnya": 3122,
  "wich": 3123,
  "stri": 3124,
  "sing": 3125,
  "satọde .": 3126,
  "sley": 3127,
  "rial": 3128,
  "riko": 3129,
  "pou": 3130,
  "omen": 3131,
  "olulu": 3132,
  "ojii .": 3133,
  "ofor": 3134,
  "os": 3135,
  "nzagha": 3136,
  "nyahụ": 3137,
  "nnogh": 3138,
  "nnoghen": 3139,
  "nkeji :": 3140,
  "nish": 3141,
  "nis": 3142,
  "naịjirịa ?": 3143,
  "mfe .": 3144,
  "me ?": 3145,
  "matiu ,": 3146,
  "laye": 3147,
  "jairo": 3148,
  "ingland": 3149,
  "ejiji": 3150,
  "do .": 3151,
  "dinma": 3152,
  "dayọsiisi": 3153,
  "dada": 3154,
  "cese": 3155,
  "cer": 3156,
  "bọjetị": 3157,
  "bi ?": 3158,
  "Ze": 3159,
  "Uganda": 3160,
  "UE": 3161,
  "UEFA": 3162,
  "Tanza": 3163,
  "Tur": 3164,
  "Sudan": 3165,
  "Salah": 3166,
  "Solu": 3167,
  "Rama": 3168,
  "Osun": 3169,
  "Ono": 3170,
  "Onnoghen": 3171,
  "Maiduguri": 3172,
  "Kenneth": 3173,
  "Juventu": 3174,
  "Islamic": 3175,
  "II": 3176,
  "Goodluck": 3177,
  "Ezi": 3178,
  "Chine": 3179,
  "Chike": 3180,
  "Cali": 3181,
  "CBN": 3182,
  "Car": 3183,
  "Augu": 3184,
  "Anglican": 3185,
  "Algeria": 3186,
  "Adeleke": 3187,
  "App": 3188,
  "Aka": 3189,
  "37": 3190,
  "ụgha .": 3191,
  "ụfọdụ .": 3192,
  "ụnyahụ": 3193,
  "ọsọ ,": 3194,
  "ọmụgwọ": 3195,
  "ọs": 3196,
  "zu .": 3197,
  "yahoo": 3198,
  "yode": 3199,
  "ura": 3200,
  "res": 3201,
  "rah": 3202,
  "ra \"": 3203,
  "phosa": 3204,
  "nwanna": 3205,
  "nwa .": 3206,
  "ngosi": 3207,
  "mmehi": 3208,
  "midia .": 3209,
  "lịkan": 3210,
  "jeriko": 3211,
  "goolu .": 3212,
  "chị ,": 3213,
  "ban": 3214,
  "ang": 3215,
  "amaw": 3216,
  "akwa ,": 3217,
  "akparamagwa": 3218,
  "aka ?": 3219,
  "ajị": 3220,
  "Yusu": 3221,
  "Yoruba": 3222,
  "WA": 3223,
  "WAEC": 3224,
  "Soko": 3225,
  "Ramaphosa": 3226,
  "Rus": 3227,
  "Progressive": 3228,
  "Poli": 3229,
  "NAF": 3230,
  "Melaye": 3231,
  "Kaduna": 3232,
  "Josef .": 3233,
  "Jong": 3234,
  "Ji": 3235,
  "Instagram": 3236,
  "Ibom": 3237,
  "Health": 3238,
  "Grand": 3239,
  "Ebonyi": 3240,
  "College": 3241,
  "Buhari ,": 3242,
  "Bello": 3243,
  "Bru": 3244,
  "Alexand": 3245,
  "Amara": 3246,
  "Achebe": 3247,
  "33": 3248,
  "-O": 3249,
  "ụgbọmmiri": 3250,
  "ọzọ ?": 3251,
  "ọhịa .": 3252,
  "ọbụna": 3253,
  "zuru": 3254,
  "yele": 3255,
  "yuro": 3256,
  "yurop": 3257,
  "xit": 3258,
  "vie": 3259,
  "unu .": 3260,
  "uba": 3261,
  "tụmadị": 3262,
  "stry": 3263,
  "rer": 3264,
  "poli": 3265,
  "py": 3266,
  "nzọpụta": 3267,
  "ntị ,": 3268,
  "nsibi": 3269,
  "nnụnụ": 3270,
  "nchekwa ,": 3271,
  "nkwọ": 3272,
  "mọnde .": 3273,
  "mmụọ .": 3274,
  "mmer": 3275,
  "mahadu": 3276,
  "mah": 3277,
  "leagu": 3278,
  "lazarọs": 3279,
  "las": 3280,
  "kwa .": 3281,
  "izi": 3282,
  "hony": 3283,
  "gers": 3284,
  "gba .": 3285,
  "fim": 3286,
  "fị": 3287,
  "ezie ,": 3288,
  "ebumnuche": 3289,
  "ctu": 3290,
  "bụ ?": 3291,
  "bekee ,": 3292,
  "arụsị": 3293,
  "akụnụ": 3294,
  "aro": 3295,
  "Yobe": 3296,
  "Villa": 3297,
  "Taraba": 3298,
  "Ronaldo": 3299,
  "Paris": 3300,
  "Onwuama": 3301,
  "Omoyele": 3302,
  "Oscar": 3303,
  "Norwich": 3304,
  "Madaga": 3305,
  "Italy": 3306,
  "Idi": 3307,
  "Ekiti": 3308,
  "Dabiri": 3309,
  "Dino": 3310,
  "DAC": 3311,
  "Cross": 3312,
  "Chido": 3313,
  "Che": 3314,
  "Can": 3315,
  "Brexit": 3316,
  "Anthony": 3317,
  "Adesina": 3318,
  "Azik": 3319,
  "An": 3320,
  "Ami": 3321,
  "A )": 3322,
  "30 ,": 3323,
  " \" \" n' \"": 3324,
  "  \" ma": 3325,
  "ụlọmkpọrọ": 3326,
  "wenezde .": 3327,
  "uju .": 3328,
  "udo ,": 3329,
  "ume .": 3330,
  "tọzde .": 3331,
  "tics": 3332,
  "tine": 3333,
  "so .": 3334,
  "part": 3335,
  "on ,": 3336,
  "ohi .": 3337,
  "ogu": 3338,
  "nwe .": 3339,
  "nka ,": 3340,
  "niile . ”": 3341,
  "nor": 3342,
  "ngụ": 3343,
  "mma . ”": 3344,
  "kame": 3345,
  "kah": 3346,
  "janụwarị": 3347,
  "iri ,": 3348,
  "injin": 3349,
  "ghalo": 3350,
  "gbu .": 3351,
  "enyi ,": 3352,
  "ejima": 3353,
  "dị ?": 3354,
  "bọjet": 3355,
  "buka": 3356,
  "baịbụl ?": 3357,
  "agbara": 3358,
  "a . ”": 3359,
  "awa": 3360,
  "aja ,": 3361,
  "Uzodinma": 3362,
  "Togo": 3363,
  "Republic": 3364,
  "Peoples": 3365,
  "Operation": 3366,
  "Osa": 3367,
  "Ondo": 3368,
  "Norway": 3369,
  "Njikọka": 3370,
  "NAFDAC": 3371,
  "Mon": 3372,
  "Ighalo": 3373,
  "Iba": 3374,
  "Germany": 3375,
  "General": 3376,
  "Ezeife": 3377,
  "Economic": 3378,
  "Dave": 3379,
  "Don": 3380,
  "Congo": 3381,
  "Chukwuemeka": 3382,
  "Channe": 3383,
  "Bles": 3384,
  "Anajemba": 3385,
  "Amaechi": 3386,
  "Adama": 3387,
  "Abraham": 3388,
  "Action": 3389,
  "40": 3390,
  "2016 .": 3391,
  "20 ,": 3392,
  "15 ,": 3393,
  "-A": 3394,
  " .  \" n' \"": 3395,
  " .  \" ihe \"": 3396,
  "“ ma": 3397,
  "ụtụtụ ,": 3398,
  "ụlọọgwụ .": 3399,
  "ọgọst ,": 3400,
  "ọchị .": 3401,
  "ịntaneti .": 3402,
  "ịkpe": 3403,
  "ziaka": 3404,
  "ya ,  \" ": 3405,
  "yị": 3406,
  "y ,": 3407,
  "ww .": 3408,
  "www .": 3409,
  "wn": 3410,
  "verton": 3411,
  "vre": 3412,
  "ustom": 3413,
  "strị": 3414,
  "spen .": 3415,
  "saụdi": 3416,
  "sy": 3417,
  "re \"": 3418,
  "por": 3419,
  "onyinye ,": 3420,
  "osu": 3421,
  "nịstrị": 3422,
  "mịnịstrị": 3423,
  "luk": 3424,
  "le ,": 3425,
  "krismas": 3426,
  "jụụ": 3427,
  "jw .": 3428,
  "iko .": 3429,
  "icheiche .": 3430,
  "iberibe": 3431,
  "fai": 3432,
  "ezigbote": 3433,
  "ezi ,": 3434,
  "esom": 3435,
  "buike": 3436,
  "bour": 3437,
  "bedel": 3438,
  "anụrị": 3439,
  "all": 3440,
  "abalị ,": 3441,
  "awụ": 3442,
  "arọ": 3443,
  "York": 3444,
  "Wat": 3445,
  "Women": 3446,
  "Ve": 3447,
  "Turke": 3448,
  "Trans": 3449,
  "Spanish": 3450,
  "Samson": 3451,
  "Rufai": 3452,
  "Road": 3453,
  "Osita": 3454,
  "Organi": 3455,
  "Oli": 3456,
  "Nyesom": 3457,
  "Now": 3458,
  "Kayode": 3459,
  "JAM": 3460,
  "JAMB": 3461,
  "IMF": 3462,
  "Hope": 3463,
  "Gol": 3464,
  "Foot": 3465,
  "Flo": 3466,
  "FB": 3467,
  "FBI": 3468,
  "Enyinnaya": 3469,
  "Everton": 3470,
  "EU": 3471,
  "Cosmas": 3472,
  "Community": 3473,
  "Codeine": 3474,
  "Chidi": 3475,
  "Channels": 3476,
  "Custom": 3477,
  "Cla": 3478,
  "America": 3479,
  "Abike": 3480,
  "APC .": 3481,
  "Are": 3482,
  "AT": 3483,
  "60": 3484,
  "194": 3485,
  " \" \" . \"": 3486,
  "ụmụaka .": 3487,
  "ụlọelu": 3488,
  "ọnụahịa": 3489,
  "èvre": 3490,
  "wenezde ,": 3491,
  "ward": 3492,
  "wanda": 3493,
  "uteeze": 3494,
  "ustin": 3495,
  "urundi": 3496,
  "tical": 3497,
  "tanya": 3498,
  "tanyahu": 3499,
  "taa ?": 3500,
  "ta ?": 3501,
  "ses": 3502,
  "rystal": 3503,
  "pende": 3504,
  "ogle": 3505,
  "ofesi .": 3506,
  "obi ?": 3507,
  "nụ !": 3508,
  "nzukọ .": 3509,
  "nwa ,": 3510,
  "ntuziaka": 3511,
  "nso ,": 3512,
  "nich": 3513,
  "ni ,": 3514,
  "ngagwa": 3515,
  "nes": 3516,
  "nangagwa": 3517,
  "mọnde ,": 3518,
  "mnesty": 3519,
  "mkpa ,": 3520,
  "mb": 3521,
  "lint": 3522,
  "kwu ?": 3523,
  "klaasị": 3524,
  "keke": 3525,
  "kali": 3526,
  "jeria": 3527,
  "isiala": 3528,
  "injinịa": 3529,
  "ikpe ,": 3530,
  "ikwu": 3531,
  "ibu .": 3532,
  "ghton": 3533,
  "gara": 3534,
  "gan": 3535,
  "fèvre": 3536,
  "ezinaụlọ": 3537,
  "ence": 3538,
  "egbe .": 3539,
  "ders": 3540,
  "bịlọ": 3541,
  "bel": 3542,
  "babịlọ": 3543,
  "bn": 3544,
  "alakụba": 3545,
  "alace": 3546,
  "aljeria": 3547,
  "akwụna": 3548,
  "ahụ .  \" ": 3549,
  "aha .": 3550,
  "abacha": 3551,
  "Udo": 3552,
  "Turkey": 3553,
  "Tha": 3554,
  "Spain": 3555,
  "Solo": 3556,
  "Sia": 3557,
  "Regi": 3558,
  "Rwanda": 3559,
  "Roge": 3560,
  "Prima": 3561,
  "Phi": 3562,
  "Okechukwu": 3563,
  "Obo": 3564,
  "Netanyahu": 3565,
  "NYSC": 3566,
  "Musta": 3567,
  "Munich": 3568,
  "Mnangagwa": 3569,
  "Lefèvre": 3570,
  "Lan": 3571,
  "Keshi": 3572,
  "Kat": 3573,
  "Juventus": 3574,
  "Inde": 3575,
  "Ibe": 3576,
  "Grace": 3577,
  "Google": 3578,
  "Gi": 3579,
  "Federation": 3580,
  "Ebola": 3581,
  "Equ": 3582,
  "Ekwu": 3583,
  "Boy": 3584,
  "Burundi": 3585,
  "Ber": 3586,
  "Azikiwe": 3587,
  "Awgu": 3588,
  "Australia": 3589,
  "Andre": 3590,
  "Aso": 3591,
  "Ash": 3592,
  "Asa": 3593,
  "Amnesty": 3594,
  "27": 3595,
  "--": 3596,
  " :  \" ": 3597,
  "“ otu": 3598,
  "“ obi": 3599,
  "“ anyị": 3600,
  "’ ,": 3601,
  "ụmụahịa": 3602,
  "ọrụ )": 3603,
  "ọka .": 3604,
  "zu ,": 3605,
  "ya \"": 3606,
  "ychel": 3607,
  "ychelles": 3608,
  "vement": 3609,
  "ugbo ,": 3610,
  "tte": 3611,
  "satọdee": 3612,
  "sa .": 3613,
  "rinho": 3614,
  "ril": 3615,
  "rench": 3616,
  "red": 3617,
  "pyrus": 3618,
  "papyrus": 3619,
  "ozuzo": 3620,
  "ohu .": 3621,
  "ogidi": 3622,
  "nye .": 3623,
  "nwayọọ ,": 3624,
  "ntọala": 3625,
  "nsogbu ,": 3626,
  "nsibidi": 3627,
  "nnwereonwe": 3628,
  "nchụaja": 3629,
  "nisi": 3630,
  "mgbe \"": 3631,
  "mesaya": 3632,
  "mbize": 3633,
  "ms": 3634,
  "m ?": 3635,
  "luk ,": 3636,
  "lestine": 3637,
  "kọp": 3638,
  "kpọmkwem": 3639,
  "kamel": 3640,
  "kin": 3641,
  "fraịde ,": 3642,
  "fransị": 3643,
  "ekere": 3644,
  "dary": 3645,
  "dg": 3646,
  "baptizim ,": 3647,
  "asị ,": 3648,
  "akpị": 3649,
  "Yusuf": 3650,
  "Yaku": 3651,
  "Watford": 3652,
  "Udemba .": 3653,
  "Tunisi": 3654,
  "Tanzania": 3655,
  "Tacha": 3656,
  "Seychelles": 3657,
  "Que": 3658,
  "Osho": 3659,
  "Ngo": 3660,
  "Mourinho": 3661,
  "Maina": 3662,
  "Magu": 3663,
  "Korea": 3664,
  "Kon": 3665,
  "Jong-": 3666,
  "Jane": 3667,
  "Jor": 3668,
  "Independe": 3669,
  "High": 3670,
  "Hou": 3671,
  "Federer": 3672,
  "French": 3673,
  "Edo": 3674,
  "Crystal": 3675,
  "Brighton": 3676,
  "Blessing": 3677,
  "Arabi": 3678,
  "Anya": 3679,
  "Ange": 3680,
  "45": 3681,
  "2018 :": 3682,
  "2017 ,": 3683,
  "2014 .": 3684,
  "10 ,": 3685,
  " ; )": 3686,
  "  \" bụ \"": 3687,
  "“ mkpụrụ": 3688,
  "“ ha": 3689,
  "ụkwụ .": 3690,
  "ọtọ ,": 3691,
  "ọstra": 3692,
  "ọghọ": 3693,
  "ṅa": 3694,
  "zi .": 3695,
  "uri": 3696,
  "un": 3697,
  "ube": 3698,
  "tia": 3699,
  "tary": 3700,
  "ta \"": 3701,
  "tra": 3702,
  "shola": 3703,
  "sekọnd": 3704,
  "ru \"": 3705,
  "riri": 3706,
  "rima": 3707,
  "que": 3708,
  "pito": 3709,
  "osisi ,": 3710,
  "ord": 3711,
  "oloko": 3712,
  "okwuchukwu": 3713,
  "obiano ,": 3714,
  "obere .": 3715,
  "ogwu": 3716,
  "nic": 3717,
  "ngwa ,": 3718,
  "nebọ": 3719,
  "ndina": 3720,
  "ndagwuru": 3721,
  "ndagwurugwu": 3722,
  "nan": 3723,
  "ngwe": 3724,
  "mou": 3725,
  "mmy": 3726,
  "mi ,": 3727,
  "mgbọrọ": 3728,
  "mgbe ,": 3729,
  "mbụ :": 3730,
  "mkpụ": 3731,
  "lari": 3732,
  "kpọ  \" ": 3733,
  "jenesi": 3734,
  "izu ,": 3735,
  "izrel ,": 3736,
  "imiri": 3737,
  "iberi": 3738,
  "hooha": 3739,
  "ha .  \" ": 3740,
  "ha :": 3741,
  "gwongworo": 3742,
  "gburugburu ,": 3743,
  "gboo ,": 3744,
  "gba ,": 3745,
  "ful": 3746,
  "ffield": 3747,
  "etiti .": 3748,
  "ebe ,": 3749,
  "e !": 3750,
  "dgz .": 3751,
  "dah": 3752,
  "da .": 3753,
  "ctoral": 3754,
  "chineke . ”": 3755,
  "bu ,": 3756,
  "be .": 3757,
  "ball": 3758,
  "bal": 3759,
  "arụrụ": 3760,
  "anusi": 3761,
  "ahụike ,": 3762,
  "abuja ,": 3763,
  "abalị .": 3764,
  "Whi": 3765,
  "Wal": 3766,
  "VC": 3767,
  "Umeh": 3768,
  "Tiwa": 3769,
  "Sheffield": 3770,
  "SSOB": 3771,
  "Rangers": 3772,
  "Queen": 3773,
  "Patri": 3774,
  "Oki": 3775,
  "Nigeria :": 3776,
  "Ndubu": 3777,
  "Nan": 3778,
  "Mohamed": 3779,
  "Ministry": 3780,
  "Martin": 3781,
  "MASSOB": 3782,
  "Law": 3783,
  "Lo": 3784,
  "Katsina": 3785,
  "Jide": 3786,
  "Isaac": 3787,
  "Ire": 3788,
  "Hen": 3789,
  "Gabon": 3790,
  "Forest": 3791,
  "Festus": 3792,
  "Fri": 3793,
  "Electoral": 3794,
  "Customs": 3795,
  "Camp": 3796,
  "BBNaija": 3797,
  "Aguleri": 3798,
  "Anti": 3799,
  "Amu": 3800,
  "AI": 3801,
  "44": 3802,
  "2020 .": 3803,
  "2015 ,": 3804,
  "195": 3805,
  "11 ,": 3806,
  "( S": 3807,
  " ) \"": 3808,
  " \" ": 3809,
  "  \" ( ": 3810,
  "“ na-": 3811,
  "ọrịa ,": 3812,
  "ọnwa .": 3813,
  "ọktoba .": 3814,
  "ọchịagha": 3815,
  "ọsụ": 3816,
  "ugboro .": 3817,
  "uke": 3818,
  "soja": 3819,
  "sion": 3820,
  "shua": 3821,
  "rumba": 3822,
  "rance": 3823,
  "pọtị": 3824,
  "pas": 3825,
  "omume .": 3826,
  "omume ,": 3827,
  "ost": 3828,
  "oo": 3829,
  "nye ,": 3830,
  "nwunye .": 3831,
  "nsọpụrụ": 3832,
  "nka .": 3833,
  "nie": 3834,
  "neu": 3835,
  "ndị  \" ": 3836,
  "mmụọ ,": 3837,
  "mmekọ": 3838,
  "mmebi": 3839,
  "mmadụ ?": 3840,
  "meya": 3841,
  "lius": 3842,
  "li ,": 3843,
  "lation": 3844,
  "la \"": 3845,
  "iteghete ,": 3846,
  "inab": 3847,
  "imirikiti": 3848,
  "hoohaa": 3849,
  "gọọmentị ,": 3850,
  "gịnị ?": 3851,
  "gua": 3852,
  "gement": 3853,
  "gburugburu .": 3854,
  "gboo .": 3855,
  "emeodo": 3856,
  "ekpenta": 3857,
  "ekeresime": 3858,
  "ee ,": 3859,
  "col": 3860,
  "briel": 3861,
  "asara": 3862,
  "aland": 3863,
  "aka . ”": 3864,
  "ato": 3865,
  "a  \" ": 3866,
  "Zealand": 3867,
  "Zainab": 3868,
  "Yakubu": 3869,
  "War": 3870,
  "Uba": 3871,
  "Tech": 3872,
  "Syria": 3873,
  "Osuji": 3874,
  "Onyema": 3875,
  "Onwuemeodo": 3876,
  "Okeke": 3877,
  "Oyo": 3878,
  "Ojo": 3879,
  "Nwankwo": 3880,
  "Nnabuihe": 3881,
  "Ney": 3882,
  "Movement": 3883,
  "Moses": 3884,
  "Kukah": 3885,
  "Khafi": 3886,
  "Jideọfọ": 3887,
  "Jere": 3888,
  "Indo": 3889,
  "Isi": 3890,
  "Ilo": 3891,
  "IA": 3892,
  "Gover": 3893,
  "Gabriel": 3894,
  "Ejike": 3895,
  "Dru": 3896,
  "Dike": 3897,
  "Cyril": 3898,
  "Arabia": 3899,
  "Andrew": 3900,
  "Abacha": 3901,
  "Amo": 3902,
  "Agba": 3903,
  "Achu": 3904,
  "2007": 3905,
  "14 )": 3906,
  " ; ,": 3907,
  " \" \" na \"": 3908,
  "“ dị": 3909,
  "ụjọ .": 3910,
  "ụgbọala .": 3911,
  "ụdọ": 3912,
  "ọzọ . ”": 3913,
  "ọsịsa": 3914,
  "ọgụ ,": 3915,
  "ọghọm": 3916,
  "ọrumba": 3917,
  "yu": 3918,
  "wan": 3919,
  "ugbog": 3920,
  "udele": 3921,
  "thy": 3922,
  "ters": 3923,
  "te \"": 3924,
  "t ,": 3925,
  "sịga ,": 3926,
  "shing": 3927,
  "ska": 3928,
  "rụ ?": 3929,
  "pital": 3930,
  "penal": 3931,
  "penalty": 3932,
  "paradaịs": 3933,
  "pre": 3934,
  "ozizi": 3935,
  "onel": 3936,
  "oju": 3937,
  "ojuju": 3938,
  "nubu": 3939,
  "nkịtị .": 3940,
  "njọ ,": 3941,
  "njem .": 3942,
  "niile ?": 3943,
  "ngwa .": 3944,
  "nghọtahie": 3945,
  "neumo": 3946,
  "nder": 3947,
  "nchekwu": 3948,
  "mọn": 3949,
  "mpị": 3950,
  "mpanọ": 3951,
  "mmerson": 3952,
  "mmerụ": 3953,
  "mmanya .": 3954,
  "mkpụrụ .": 3955,
  "mkparị": 3956,
  "mgbọrọgwụ": 3957,
  "mgbali": 3958,
  "meyang": 3959,
  "melu": 3960,
  "maachị .": 3961,
  "m )": 3962,
  "loma": 3963,
  "lip": 3964,
  "lia .": 3965,
  "koro": 3966,
  "kemgbe .": 3967,
  "kampanọ": 3968,
  "ka  \" ": 3969,
  "iyi .": 3970,
  "itoolu ,": 3971,
  "ifufe": 3972,
  "har": 3973,
  "ha ;": 3974,
  "huru": 3975,
  "ge :": 3976,
  "fiele": 3977,
  "eziokwu . ”": 3978,
  "enyi .": 3979,
  "elị": 3980,
  "et": 3981,
  "bịbịa": 3982,
  "burg": 3983,
  "bar": 3984,
  "bameyang": 3985,
  "asaba": 3986,
  "anyị . ”": 3987,
  "ahụhụ ,": 3988,
  "alo": 3989,
  "Zida": 3990,
  "Xenophobia": 3991,
  "Wole": 3992,
  "Wil": 3993,
  "UT": 3994,
  "Tinubu": 3995,
  "Solomon": 3996,
  "Siasia": 3997,
  "Secondary": 3998,
  "Russia": 3999
}