#version: 0.2
n a
d ị
k a
m a
n '
b ụ
n dị
k e
r a
m e
h a
r e
na -
t a
ny e
y a
g a
l a
r i
i h
s i
j i
h ụ
r ụ
ih e
kw u
r ị
r u
b a
kw a
a ny
t e
na- a
n ke
a hụ
t u
nw e
na- e
gb a
o nye
gh ị
b e
t ụ
d ụ
t i
ga -
l e
o tu
b i
z i
any ị
s ị
p ụ
m ma
k ọ
m ụ
ch i
ch e
w e
ch ị
z ọ
a ka
l ọ
r ọ
ch a
n ọ
d e
k ụ
n e
d o
nw a
w a
ụ lọ
kw ụ
g o
f ọ
gb u
i si
gh a
mma dụ
s a
l i
gb e
e be
i ke
n ụ
r o
t ọ
n i
m gbe
ma ka
g e
b u
s o
a la
ị a
ga- e
gb o
ụ mụ
ga- a
gw u
i ri
ọ rụ
rị a
kw e
kp e
ọ chị
kp ọ
e ti
kp a
any a
a fọ
m ba
b o
o kwu
nw ụ
d a
ọ zọ
s te
g ị
s e
a kụ
l u
ch ọ
g ọ
na ị
naị ji
naịji rịa
kw ọ
o bi
z u
gw a
d i
a kwụ
ne ke
ste eti
chi neke
a n
akwụ kwọ
j e
e zi
i che
a bụ
n u
b ịa
i le
o ke
n t
o ge
ni ile
g ụ
tụ tụ
v a
w u
k u
ya .
abụ ọ
akụ kọ
dị ka
k o
m p
s ọ
f e
m me
ọ tụtụ
i gbo
o n
nwa anyị
bo do
p u
bụ l
ị bụl
d ọ
ba ịbụl
m i
a .
gb ọ
ọ nụ
o bodo
d u
2 0
e gwu
h i
ụ wa
z e
i kpe
t o
i wu
ụ b
ụb ọchị
nt ị
z ụ
l ụ
j ọ
h o
b ọ
j ụ
n dụ
ahụ .
e go
z ị
o zi
ih i
ma na
o ji
u we
u ha
ọchị chị
a ,
ụ zọ
e r
u kwu
ọ me
kp ụ
gọ ọme
e lu
a ha
onye isi
oji i
o nwe
a tọ
ya ,
fọ dụ
nw oke
ụ fọdụ
kp o
s ụ
ha .
s t
20 1
ụ gbọ
ọ ka
ọ ma
ahụ ,
bụ la
n so
e ze
rị ka
. ”
h ịa
o r
ho va
ih u
je hova
a gha
uha ri
B uhari
gw ụ
ọ bụla
n na
g i
ọ kụ
p a
u gbu
o lu
o me
ny o
u ru
ma ,
m kpa
ụ ka
m m
gh ọ
n ne
e l
nw u
ọ nwa
a na
o le
n ga
j u
j a
n ta
a sa
zọ s
ji zọs
gw e
. "
p e
m bụ
mm iri
gọọme ntị
l ị
y i
va nọ
mp i
gọ vanọ
gw ọ
b ra
M a
n tụ
a ra
n ị
ma a
g u
J o
z a
a ba
i se
m o
n dọ
a hịa
n k
f u
ndọ rọ
o ko
ezi okwu
B B
ny i
h e
c e
m u
a nụ
tu pu
i gwe
ọ nwụ
BB C
m bra
a sọ
l o
n ri
ana mbra
a zụ
ntụ li
ntụli aka
asọ mpi
ọ gba
i we
ch ụ
a tụ
o kp
ọ gwụ
nso gbu
i n
a me
ny a
n kwa
bọ ọ
n che
m gba
nwu nye
bọọ lụ
re gwu
egwu regwu
e nu
agha ra
i be
ri a
a r
m mụ
h ọ
e tu
ọ hụ
ọhụ rụ
u nu
ọ kwa
maa zị
t h
an ị
na anị
s u
eti ti
enu gwu
ezi gbo
n gwa
sị :
a ma
a f
A P
N i
ch ukwu
a l
ọ jọ
ọjọ ọ
o u
n de
ụ tọ
aba lị
ra ị
n ti
gh i
s ta
Ch i
e kpe
be re
ke mgbe
201 9
go olu
na rị
gị nị
o l
te r
ụ gwọ
Ni ge
ame rịka
ṅ ụ
k ị
ha ,
gi de
z o
m bọ
0 0
nke ji
na l
af rịka
ọ rịa
i l
a kwa
ọ nọ
ọnọ dụ
a gba
ti on
o zu
ụ dị
mp aghara
n o
nche kwa
ọ sọ
n je
v i
nga la
n ụlọ
ezi nụlọ
R o
gị :
k i
AP C
ngala ba
n g
u gwu
pu ku
gọọme nti
D a
ome iwu
okp uru
i t
e bu
ra ,
1 9
isi i
o si
i ko
ekpe re
v e
ọ dị
u gbo
nk iri
n d
kpụ rụ
ụlọ ikpe
m ,
i zu
gha rị
i mo
u che
m .
n ku
a jụ
ụgbọ ala
n zu
ọ gụ
y e
ajụ jụ
pụ ta
a sụ
raị st
ole e
R e
asụ sụ
v er
ka rị
k raịst
M an
e hi
S u
mmụ ọ
a da
mu me
e chi
e .
atụ ma
atụma tụ
L i
n nu
n sọ
mme mme
asa a
ọ ba
M o
Jo se
ụ kwụ
o bere
nga gharị
an o
ru ,
rị ọ
e ,
ọzọ .
le s
i k
e kwe
m kpụrụ
n ka
ụmụ aka
anya .
I n
e nyi
re .
e gbe
a gụ
ọgba kọ
L a
ra .
na la
f ụ
be ke
asa tọ
H ara
C o
B oko
à m
àm à
ma nụ
S e
Nige ria
o f
nwa ta
kp u
ugbo ro
na i
D P
o fe
ebu bo
anụ manụ
re ,
o kpo
nje m
i me
ụ kọ
ri s
p o
he re
S a
ro bịa
o gi
nku zi
P e
nnu kwu
U ni
nta akụkọ
P DP
Hara m
c a
N a
p er
i to
ta .
ka ma
L e
h u
u do
ọ kpụ
aka .
Jose f
ik ike
e ke
a bịa
ọ cha
o ri
anya nwụ
pa ti
ra n
nai ra
gọ s
du m
naịjirịa .
le gọs
n jọ
t ị
okpo ro
o here
rị ta
m kpọ
o go
w o
ndị àmà
ka nu
F a
ndọrọ ndọrọ
hi e
a kpa
M uha
ka rịa
m kpe
ito olu
a bu
A l
beke e
mma nụ
O B
ahụ hụ
u s
I P
Muha mma
E C
ike .
e n
ụkọ chukwu
steeti .
o che
mme ri
rị :
a :
E a
ofe si
Muhamma du
r y
mi ni
IP OB
i je
M u
sa ụ
m di
P a
ru .
niile .
ma ha
u go
p ọ
mma .
ste r
o chi
A ti
ụ tụtụ
Ati ku
ogi ge
re l
o nal
ikpe azụ
anya ,
ọ dụ
okp u
a mụ
B a
ụ ba
nkwa do
nzu kọ
nk ị
c i
nt o
ọ ha
o so
osi si
Su per
ọzọ ,
u so
r t
mmụ ta
f i
a m
oso te
c o
ke re
mgba sa
ga ,
A da
c k
ga .
n ji
maha dum
anyị .
saụ t
mkpọ rọ
mini sta
" ."
te d
sh ịa
p ị
T ru
K a
obi ano
ọ tọ
di a
O ko
dọ kị
a ja
S o
ome nala
o ku
n da
elu igwe
e le
bụ ,
amụ ma
a jọ
sh ọ
gbu ru
B i
ọ dọ
me .
dọkị ta
kọ mi
il li
ọma .
okwu kwe
A r
w ụ
u r
nto robịa
gb ụ
anyị ,
t y
I N
o p
Ea g
ọ hịa
IN EC
f o
Tru mp
F C
vi d
ike ,
Uni ted
o mume
N e
uso ro
ro cha
li te
it y
baịbụl .
D e
aka ra
A f
na "
A de
ihe .
la nd
Eag les
te n
M i
nna mdi
m ị
echi che
v o
ta n
rụ .
me nt
ba ka
W illi
sị ,
n nọ
i z
R i
ụlọ ụka
ọ gọ
obi .
akụ kụ
O bi
li k
ke dụ
chineke ,
o d
o ,
ọ w
y ọ
ọw ụwa
di o
p t
j ị
el se
e de
ọ fụ
pọ l
ma ra
gh e
c on
ọka cha
ta ,
Ch else
ọ gbọ
o hi
a h
C ity
tọ lik
kọ rịta
ka tọlik
iz rel
so n
e nye
chineke .
C a
o nyi
i yi
e mume
s s
ochi e
ụ nya
n ihu
i ne
i de
abu ja
a ?
ti onal
po ol
i r
eziokwu .
enye maka
Mo ha
" "
ver pool
ori ri
Li verpool
20 0
shịa l
s si
i ji
M e
so shịal
f ada
a kị
T o
S ou
o gbu
ụgbọ elu
ọ la
ọ "
z de
o yi
n tu
ch u
Af ri
u l
' .
ọka iwu
onyi nye
o li
a gu
Chelse a
ọ mụ
t ri
. .
okpu kpe
isi .
an d
o nyo
n tọ
iche .
ala .
ọgba aghara
onyo nyo
ne t
mmadụ .
a kpụ
2019 .
ha m
u me
che ster
Man chester
w it
nwa nne
mme d
go dị
e ji
aka ,
ụwa .
ụlọ akwụkwọ
rọ "
or t
ma ma
ma du
a gwa
Sou th
E me
b ri
S ta
201 8
o de
n ,
abụọ .
oko rocha
e me
J a
la .
Nw o
E l
ọ nị
ọnị cha
vo otu
ny ụ
m bere
cha s
Ro chas
i te
f or
ar c
ọchị ehi
ya ?
ra l
i a
a gbọ
Ar se
ome ka
n .
mbere de
agbọ ghọ
Arse nal
A ba
ọ gbu
akị rịka
Moha mmed
E kwe
“ ọ
rụ ,
m bi
iji pt
Pe ter
w i
se tan
ju u
a nọ
' ,
kwa do
o k
o .
n họ
k y
in g
ala ,
1 0
wit ter
re madu
K e
Ekwe remadu
00 0
ọka mmụta
ta a.
s .
omeka ome
nhọ pụta
kọmi shọ
atụ ,
a sị
P re
ọrụ .
u ju
E ze
A bu
ụwa ,
s ,
ozu gbo
i m
c y
B o
ọba ra
on g
na eze
m kpu
kọmishọ na
ke le
j o
eziokwu ,
o pe
l y
1 ,
ọrụ ,
ọka ikpe
ọgụ gụ
ọ ,
ogbu ni
ogbuni gwe
n le
) .
ọha naeze
i ro
Sh e
.” )
mp e
m pụ
bo nyi
Z a
W e
ọ kpa
ihe ,
a lụ
ọdị nihu
wa rị
Jo h
Ch a
B u
1 4
nyo cha
gw o
eke le
R a
baịbụl ,
) ,
n chọ
mkpe bi
Chi na
ọ .
mma ,
mi dia
1 5
ụlọ ọgwụ
ụ jọ
niile ,
n kwe
mmadụ ,
de vid
bịa f
O ke
G e
B e
nwa yọ
_ _
sa tọ
N or
ụ da
satọ de
gị ,
c tion
bi .
a rị
ụtọ .
sh i
ma lite
ghị .
e zu
S ara
S S
H a
Ch ris
sh a
du na
ah ị
N na
ụlọ akụ
ọdị nala
ti us
m ọ
egwuregwu ,
Le agu
obi ,
dị ,
la ị
ele kere
bịa .
201 7
ọfụ ma
ri .
p h
nzu zo
j a.
fu fe
f a
O si
Ma r
La go
ọgbu gbu
t ha
gị .
Ch ukwu
we r
tius de
rị .
ka n
ekwe ntị
Z i
ọnụ .
nkị tị
igbo ,
Willi e
FC C
ụmụ nne
ụ gha
ọgọ st
naịjirịa ,
c an
bụ "
B ri
to r
nchọ pụta
ma n
iche iche
e wu
agụ mba
abụọ ,
I he
F ran
n nyocha
ije ri
bi a
baka r
O r
D i
pụ rụ
oli le
n rụ
mkpe sa
m fe
U ma
U de
T witter
P ro
J e
Ada m
1 )
uru .
ogo lo
ogolo go
bri ten
Pa ul
J u
G u
Abu bakar
ọmụ mụ
u ro
mme hie
kọ ta
isi okwu
gb i
e bonyi
dị .
chọ ọchị
, "
tri k
rọ .
nnọ ọ
kw o
ezu m
G A
E FCC
201 5
o gbe
ndị )
atọ .
Sta te
N A
th er
sta te
raị de
n go
la trik
f raịde
G o
ọ ga
pa pa
mma nya
Nige ri
In ter
A b
2 3
se net
ofesi ,
ny ị
nwayọ ọ
d ri
atụ rụ
Ne w
oko robịa
me ri
gbi di
El -
2 ,
“ a
ọ ṅụ
za ky
p i
nwa afọ
ndị "
m gbọ
m be
k zaky
iche ,
ha b
Za kzaky
I ke
F e
y o
nu e
ga be
a gbụ
Sara ki
Mu gabe
G a
A u
1 7
ọ da
ta a
t on
rịta ụka
o fufe
okwu .
nwụ .
n sị
m ọdụ
T a
Lago s
rị ,
ndụ mọdụ
n' "
akwụkwọ .
ọma ,
t he
ra tion
fo to
e fu
bịaf ra
be nue
agụ ụ
1 8
ụ ra
ti c
ni a
mme kọrịta
ezum ike
Afri ca
AP GA
ọkpa ra
mme pe
ka duna
H e
F u
ri be
jehova .
dri d
anyị "
Ma drid
E le
? ”
ọkụ kọ
r s
ou rt
oke nye
ndụ .
mgbe de
ka "
i ru
dọ la
1 .
o wer
nji kere
mba .
a u
a nwụ
N o
1 3
ọkacha mara
ọ kpọ
ị nta
ịnta ne
ịntane ti
o hu
igbo .
a "
So wo
R u
A ma
19 9
ọda chi
olile anya
nka ta
me ,
i fe
W a
T e
ụ tụ
ọdị da
ọba sa
ọbasa njọ
ọ kọ
steeti ,
m iri
m bu
l d
kị rị
Ihe dio
I bra
s pe
nwaanyị .
ji ji
e do
V i
A S
we ne
gu n
agbụ rụ
wene zde
o mi
k ,
gburu gburu
any i
ri ,
q u
n rọ
n gwụ
la te
l la
Ibra hi
Gh ana
u p
sị .
pa se
osi miri
mgbe re
bi ,
ahị hịa
agha .
Sowo re
I fe
F A
4 .
1 6
ọ k
ọ jị
rụ ngwa
pụrụ iche
mbụ .
akụ rụngwa
a d
T i
Nwo su
I s
F al
ụ bụ
ọkacha sị
se na
s :
o na
nkị ta
na tional
n do
mọ nde
ma s
gu zo
O lu
Na tional
“ onye
ị nyị
nrụ rụ
mba b
mbab we
la ni
kwa ,
Zi mbabwe
U S
Ihedio ha
Ibrahi m
ọkụ .
zi e
u te
sena tọ
ro m
mkpa rịtaụka
b y
anambra ,
a rụ
Pre mi
Ma du
El- Zakzaky
A h
ọnwụ .
ọka fọ
ọ zụ
u le
to ba
izu ụka
ge n
O N
Na i
Leagu e
ụfọdụ ,
ụ ta
maa chị
li c
ka ta
egwu .
arc ourt
a chị
P ort
Inter national
H arcourt
E mma
3 0
ọk toba
ọchịchị .
tọ zde
A le
2 .
ta a,
s ti
s sa
otu ,
ori akụ
n chị
n ba
mi ta
chi te
ch o
b ị
Premi er
Jo na
Co mm
2 )
ụnya ahụ
st ra
otu .
nkwe kọrịta
k iri
gbo ro
Fal con
B ra
ọzụ zụ
ya. ”
ntu ru
nke "
nche ta
na ,
n di
me d
la ,
ise .
ihe "
Osi nba
O nye
M baka
" ọ"
ụ ma
ọka ra
c tor
atọ ,
afọ .
Nw a
B ro
Ale x
ịnyị nya
ra ma
r d
o "
mpi on
mkpa mkpa
ku ku
achị cha
Y o
Joh n
Fa ce
Eme ka
Da vid
A ir
201 6
ọgwụ gwụ
te ,
obodo .
nne wi
mgba nwe
isi ,
e fe
ame ro
a gbidi
Willi am
W or
M A
K o
Jona tha
C amero
ọbụla .
re :
ni el
n ha
m gbo
ide mmiri
i kuku
ego .
e kwu
agụ ma
a dị
M ba
D SS
C on
B or
A na
m mi
ebe re
be rt
al th
S t
Fu lani
Ab du
A i
re n
obi bi
kan sa
ju laị
e h
Ri va
Osinba jo
Nai ja
G er
F ede
E uro
Cha mpion
Aba ribe
A di
“ ndị
ve s
ngwụ cha
n zụ
mma sị
kọmi ti
kwu .
b re
T imo
D el
u bi
ri e
p te
ope kata
okwu ,
nsogbu .
ndị ,
n kọ
ime .
gh ụ
anwụ rụ
U t
Falcon s
B arc
A ra
ụnya ahụ.
ụbụ rụ
t ti
sa ye
p an
nchị kọta
n su
ho o
el ona
eji je
a ga
U mu
Jonatha n
I gbo
E ng
Barc elona
B en
“ ihe
ukwu .
pi ta
onal d
ode akwụkwọ
nzụ kọ
mp u
mgba kọ
mbụ ,
late au
bi shọ
We st
P lateau
Nor th
D onald
3 ,
“ m
ọgwụ gwọ
ọbụla dị
wa ,
ta a:
si a
on do
i nọ
gba ta
g ra
cha fụ
c ar
an u
Y e
Wor ld
Uma hi
T he
I v
Fran ce
Camero on
2 5
“ n'
ọjọọ .
yi n
se pte
m bodo
ghị ,
eh ihi
echi chi
asa mbodo
Ut d
S er
Ro bert
C e
Ba y
ọ na
ta ra
rọ ,
opekata mpe
nọ .
l l
kraịst ,
ka ma,
gbo o
bụ .
akwụkwọ ,
Sh i
Riva s
O ba
L ondo
I M
G ra
Ai sha
1 00
ọnụ ,
ị chafụ
t hi
sh o
saye nsị
ogbe nye
n ghọ
n cha
mbi do
kwụ kwọ
e "
agụma kwụkwọ
U K
F o
1 2
yin bo
to yinbo
t ten
nso n
ma nị
ja manị
j a,
inọ k
c u
c ra
be r
amerịka .
adị gboro
T u
I bi
H u
D o
Chris ti
ụzọ ,
tu m
ssi on
ri mara
mkpa .
mi n
mgbo chi
m wu
le y
afrịka .
__ __
To tten
Re al
Nige r
Da niel
A FC
3 .
2019 :
ọnụ ọgụgụ
ị hụ
ịhụ na
oge ,
o ma
nu el
nturu ugo
nri ,
ndị da
n du
m bịa
jizọs ,
ghụ ghọ
e se
e p
d ike
chi e
bo ok
bi ko
a ghụghọ
She hu
Face book
Fa toyinbo
Del ta
De mo
Co mmi
AFC ON
A bi
9 .
6 ,
2019 ,
2 8
ụmụ nna
v s
p p
osi ka
n kụ
i na
g ri
ekpere ,
egwu ,
de r
arị rịọ
Timo ti
L u
5 .
." ọ"
ụzọ .
ị dị
nwa ada
nji rimara
k ra
ga l
ama di
agha ,
Sa m
Nigeri an
A C
4 )
ụdị rị
ụbọchị ,
ọla edo
si ,
mu el
mma lite
mba ,
li a
ko la
elu .
da n
Totten ham
Sa muel
Pe op
E bre
A gu
( n
ọkụ ,
zị za
z .
sị ga
si na
re na
nọ ve
nrụrụ aka
mwu te
le ment
jizọs .
jehova ,
ise ,
ekwe nsu
chi ,
bịa ,
ama .
a re
S te
S i
Ja pan
Emma nuel
Ele ction
D an
Champion s
Ah med
A N
ọna tara
ọhụrụ .
ọdị mma
re ss
re a
pa ra
onye àmà
okwu te
o do
nku me
juu n
ci a
bishọ p
arị rị
ahụ ?
Oko n
O la
Ife anyi
Bro ther
Afri can
.. .
ụtọ ,
ụlọ ,
ọnatara chi
ya "
wa .
re ?
ok iri
o se
nụ warị
nọ ,
no a
ka na
gw on
gha ra
ba ,
a zu
P ar
Ada mu
“ chineke
ti n
spe n
p ti
nụ .
nri te
m bo
l s
kp ị
ki lo
ka ,
gwon gwo
ep rel
de be
afọ ,
O su
K ano
Jo e
Euro pe
A li
.” ,
ọma rị
ọmarị cha
zi l
ya. "
se le
pti zi
n ge
mi li
ko ria
jọ n
ihu .
i s
ga na
g y
de n
da ị
ba ptizi
ba .
a zịza
William s
W ol
T ho
Sh ia
P ri
O nwu
O gbo
M ike
I kpe
Eng land
C O
ụka .
ụ kwa
ọga ra
ọ gbụ
ọgbụ gba
ugwu .
u m
sh op
s "
rọ shịa
ra ?
para daị
p ort
nnọ chite
mme gbu
mme chi
h ,
ehihi e
S ala
Ri ver
Obi ano
Jo b
I d
Demo cra
Bor no
B aba
A nd
2 4
“ e
ọ wa
w in
ukwu ,
u de
t ho
nụ ,
ndụ ,
n ze
n si
m y
li an
eme mme
bọ je
b le
anọ .
ama dị
ahịa .
a ku
Ye mi
B el
5 0
z or
ya :
u ni
to m
ru sele
re e
r .
ong ress
ogo go
n kwụ
li n
je rusele
i gbe
i ce
bụ :
ar ba
Se rena
Re v
Oke zie
Ikpe azu
Id ris
C ongress
C lement
A s
9 ,
7 ,
u du
obodo ,
nso .
kọ mpu
f ran
e ri
d y
agba ta
abụ bụ
a hu
Vi ctor
Se ra
S y
Li b
Igbo kwe
G od
C ou
Bra zil
1 1
- 3
ụlọ .
ọchịchị ,
ịhụna nya
w .
v el
u hie
r ,
mma nwụ
ji ,
ha ?
ha "
ghị "
fe bụ
febụ warị
ebu be
du n
de ine
asa a.
abu ja.
Sh a
Nna mdi
Ke nya
E m
Commi ssion
Chi bo
A R
19 8
“ o
ụka ,
ọkpọ ka
ọdịnihu .
ro n
pase ntị
nwaanyị ,
nri .
ki ti
ke pu
igbo ?
gh t
e ju
azụ .
adịgboro ja
U N
Re hab
Oko rocha
O j
Joh nson
Ibi am
G arba
Co s
C or
Bi g
6 .
201 4
" anyị"
ọsọ .
p raị
ozi .
ower ri
osika pa
ntị .
nha zi
ji .
il la
i mi
gen cy
for d
ezi .
ekpere .
e e
da y
a ṅụ
U me
U gwu
S pa
O pe
N L
K u
F F
Da vi
B an
Al la
20 23
19 6
ọjọọ ,
te .
sọ ọsọ
oke .
o ne
nọve mba
ny a.
nw o
nso nso
nghọ ta
n zọ
kọ b
kraịst .
je kọb
ci al
Oko ye
O mo
In dia
Ch ar
Bu kola
7 .
5 )
ọbụla ,
ọ sị
ị laị
o gbo
nle ta
na .
kra ine
f f
a ko
Uni on
Ude mba
U kraine
U che
T im
NL C
M er
In no
Ebre ham
D C
Ce nt
A ng
8 ,
19 7
0 .
ụlọ ọrụ
ọ ọ
wo od
vi ce
u di
tu s
si li
ol ly
olly wood
m gbu
gị ?
fe ro
f fi
ese m
di se
ci s
anọ ,
ame s
Wol ves
S an
Na tion
Londo n
Bi o
Alla h
Al l
9 )
7 )
2 6
" n'"
ọka ibe
ọgara nya
t ta
so m
si ria
septe mba
o t
mmiri .
mi di
hi b
e hab
bụla .
bụla ,
ahụhụ .
a ce
Par ty
Okon kwo
Jose ph
Da y
3 )
20 20
" ,"
ọnwụ ,
ọga nihu
ọcha .
ọcha ,
ra "
okiri kiri
nwe re
ne gal
mme pụta
la n
k ris
iwe .
ikpeazụ ,
ihe re
i lu
ga zi
eze ,
ego ,
e gbu
beke e.
a ị
Z am
Se negal
Ro h
O gbu
Mi ni
I S
Gu ine
Fe mi
E ji
E d
Democra tic
Da p
A kanu
8 .
0 ,
ọ t
ṅ omi
p ho
onwe alth
ngwa ahịa
n no
n chụ
legọs .
izu gbe
g re
cha el
anyị ?
abụ ,
a. "
Z A
V a
Uni ver
U zo
R ibe
O nu
Madu ka
K anu
I V
Davi do
Comm onwealth
Chibo k
CO ZA
C up
C ro
ọka ,
ọ pụ
ọ bọ
ur ch
udo .
ta in
st le
pụ .
o ti
ntụ nye
no t
n ce
mba ra
ma r
kọmpu ta
kwe sili
ide mili
elu ,
di mkpa
cho ol
bọọlụ .
amerịka ,
a kọ
T ra
Roh r
Ribe ka
Port Harcourt
O gu
N ọt
M or
In di
Fran cis
C ana
Adi chie
AS U
! ”
“ mgbe
ọ bụ
ye tti
si .
pase nt
ntụliaka .
njọ .
na li
mbịa ra
l .
ice ster
hi a
gri k
gi ge
f ara
eze .
esem okwu
e nyo
do ,
de l
chị .
c t
b lic
aṅụ rị
N gige
Mi yetti
Ma y
Le icester
Eze kwesili
Ea st
E thi
Christi an
C ol
B re
A ni
A ku
A d
2 1
( N
ụlọ ahịa
ọ tụ
te k
t t
ri n
ra nk
ozi gbo
oge .
n kwu
mkpọrọ .
mi c
mgba ghara
le n
k la
eluigwe ,
asị .
Oj ukwu
Mer cy
Ma i
I ran
I mo
E bo
C y
." anyị"
( A
" nke"
“ ị
ọṅụ ṅụ
ọtọ .
ọhụrụ ,
ọ fọ
ọ bịa
yi nka
wa y
ugwu ,
tek nụ
teknụ zụ
sh u
ro ,
ri ng
ozi ,
onye "
o g
nsọ .
nle kọta
nje debe
n sụ
le ke
kpa mkpa
ko lo
gburu gbu
ga nị
d ge
bu .
akpụ kpọ
abụ )
Shi ite
Ser vice
S AR
SAR S
K ing
IM N
I D
H IV
Ethi op
Dap chi
Bi shop
A ja
A F
2017 .
zi k
ume ala
u ,
sị "
si de
ru ?
p ha
ol y
ochi e.
o wu
nkọ wa
nkwa rị
ni n
n nwere
ma gazi
m on
m kwe
m .”
l le
kwa ghị
ik iri
ihu ,
gre ssi
go la
eziokwu ?
eluigwe .
e s
dise mba
Or ji
Nwa chukwu
Nw an
Mike l
K ogi
Ike chukwu
I ta
F rank
E li
Da kolo
Ch urch
Bri tain
Bio dun
Ben ja
ASU U
A gency
2 2
“ ka
ọnwụ nwa
ọfụma .
ya t
s car
re "
pe nali
penali ti
p ro
p he
obi ọma
o te
nwata kịrị
nkwe nye
nji kọ
n gwongwo
n c
mana "
magazi n
ma .
m ne
kana da
i fo
gra m
gola yat
f re
enugwu .
e f
ar d
ahụ. ”
ahịa ,
Uma r
S C
Peop le
Pe ace
P u
Nigeri a,
Mi chael
K im
J ames
Ger not
F i
E n
." ndị"
- E
' ?
" na"
ụlọikpe .
vel op
velop ment
ta nka
so cia
socia tion
oke ,
nsọ ,
nna ya
lu ,
kwu ,
jiji ji
fraịde .
di ,
chineke ?
a ta
a ja.
Zam fara
Univer si
So yinka
Se con
Pro gressi
P i
N du
Ge or
E x
B ur
As sociation
Abdu l
5 00
5 ,
4 ,
2018 .
" ihe"
ọkọ lọ
ọkọlọ tọ
ọkpụ kpụ
ị gba
uru ,
ti ve
tho lic
si me
s se
ru :
ro up
ri st
ne si
mmiri ,
mkpa gbu
li can
l li
isii ,
ho le
gbata gbata
el sa
el d
ede me
ca stle
c to
alụ m
She ka
P o
Olu se
O du
N ji
Mu sa
M z.
M ala
Leagu e.
F I
Ethiop ia
De velopment
Ca tholic
Bay elsa
Ban k
Ana je
A w
ụ zụ
ụ fụ
ọ pị
taa ta
ri sh
ra el
paradaị s.
ozugbo .
o m
mbu li
m we
kpụrụ kpụ
kpọ mkwe
jerusele m
je nụwarị
iwu .
ite ghe
ime ,
ikpe .
edeme de
ce nt
anambra .
Yo ru
Tho mas
T an
Oluse gun
Nwo do
Lib ya
Ka lu
Is rael
Go od
Ge ne
Char les
Ch an
Cana da
B uso
." o"
’ )
ụbọchị .
ọgụ .
ọ kwụ
x i
u kwa
tiusde .
sta n
siria k
shi om
shiom hole
rọ s
ru s
praị m
ochi e,
o kwe
nnọchite anya
n nụ
mkpa :
mbu ze
m :
ka .
isii .
in o
hụ hụ
ga asị
er n
di bia
chi .
alụ kwaghị
Y u
W ike
Ugwu anyi
T V
Ro nal
P C
O shiomhole
Nna bu
New castle
Ger ma
Buso la
B ar
Au stra
Air port
A wa
6 )
2015 .
- "
“ unu
ụ kpa
ọ kwọ
ọ chụ
to ,
t witter
sị: "
ro .
re st
rama hụhụ
ozi ọma
oyi bo
o bo
ny a,
nwoke .
nwoke ,
nwa agbọghọ
nta ramahụhụ
nta kịrị
ma hịa
m gbidi
la za
l ,
kọ pa
ke ,
iri .
ikpe re
ijipt .
i nt
hib ru
h ị
gy pt
ga d
enugwu ,
echiche .
e k
du gu
biko ,
azụ mahịa
asatọ ,
anya .”
akwa .
aga di
____ ____
T ara
Ste phe
Sheka u
S chool
River s
O ye
Nation s
N ollywood
N FF
Mai dugu
Ha ru
Fede ral
F or
E gypt
Comm uni
Chi oma
Cha d
Cent ral
Benja min
B enu
Agu le
Abdu lla
A meri
2 9
19 14
ịlaị ja
ịdị na
ya ;
v an
sọ nde
se kọ
s to
pu blic
ou r
ojii ,
ohi ,
nwụ ,
nu che
nkwa nye
ndị ;
nc il
mma ?
maa hịa
m kpị
lian ce
li .
la ck
ezi na
di ng
di n
d ne
con omi
che be
bu lu
bo n
azụ maahịa
azụ ,
asatọ .
are bia
a hia
Universi ty
Tim gad
Sa udi
P S
Ny ako
M ou
La i
Inno son
I sa
I bo
G roup
C B
Al liance
Abdulla hi
A bra
4 00
) "
“ i
ụkwa ra
ụ ra.
ọpụ pụ
ọ lị
ọ kpụrụkpụ
xi co
st y
st on
shi p
se r
sa ,
s tus
rụ warị
ri ty
ri te
ran s
r g
ph obi
ogo ogo
no phobi
n gwọ
me sa
mana ,
k no
izrel .
iwe ,
in ji
il le
il l
ikpeazụ .
i g
ha. ”
fe b
feb rụwarị
eme ka
ebu m
e nophobi
che l
cha ,
asa a,
akpa rama
afrịka ,
Y ou
T here
Q u
P )
Oba ma
Me xico
Mba ise
Ma h
Ma da
M ana
K ha
In sta
I C
H i
H ar
Guine a
Geor ge
E conomi
Cou ncil
Be nin
Bay ern
ụ ra,
ọrịa .
ọnịcha ,
yọ si
vi sa
ve ntu
v in
t .
sta l
ro u
ote le
or k
olu tion
ntu tu
ne ,
n z
mkpọ tụ
mama nda
li st
le ge
la tị
kwa sị
k s
ge r
ga r
ga ni
el l
echiche ,
e ?
di .
da yọsi
bi .”
ala kụ
akụkọ "
ahị rị
a c
X enophobi
U wa
There sa
Te kno
Su nda
Stephe n
S al
Rev olution
R an
P ower
P ope
Or tom
O gun
O di
Is la
Haru na
FI FA
Europe an
Chi mamanda
Ch rist
C ri
C N
Bo ris
B ala
Al ge
A t
A nt
A la
A M
8 )
201 3
’ ”
ụwa ?
ụnya ahụ,
ụmụ ada
ọkwa .
ọchị chọ
u chu
tụ ma
to .
ti u,
ta "
sa ị
or g
o s
o lo
o ghe
ntụ kwasị
mme fu
ma k,
lu ck
le t
kpa m
ke t
iwu ,
i d
gwu ru
ga nda
da ,
co deine
cha .
c al
bọọlụ ,
bi ri
baptizi m
anya ?
abụ bọ
a ma,
Z ara
W AS
Sunda y
St .
Ru ga
Pre side
PS G
Obi o
O ha
O de
O WAS
Nji kọ
N u
N su
N nia
N ke
N di
N B
Me ssi
Ke nne
Em lin
EC OWAS
E nyi
E MA
Chi ef
B lack
2018 ,
20 00
" ndị"
ụgwọ .
ọsị sọ
ọ nya
wi ch
st ri
si ng
satọde .
s ley
ria l
ri ko
p ou
ou s
otu "
ome n
olu lu
ojii .
of or
nz agha
ny ahụ
nno gh
nnogh en
nkeji :
ni sh
ni s
naịjirịa ?
mfe .
me ?
ma tiu,
la ye
ja iro
ing land
eji ji
do .
din ma
dayọsi isi
da da
ce se
c er
bọje tị
bi ?
Z e
U ganda
U E
UE FA
Tan za
T ur
Su dan
Sala h
S olu
R ama
Osu n
O no
O nnoghen
Maidugu ri
Kenne th
Ju ventu
Isla mic
I I
Good luck
E zi
Chi ne
Ch ike
Ca li
CB N
C ar
Au gu
Ang lican
Alge ria
Ade leke
A pp
A ka
: "
3 7
ụgha .
ụfọdụ .
ụ nyahụ
ọsọ ,
ọmụ gwọ
ọ s
zu .
ya hoo
y ode
u ra
re s
ra h
pho sa
nwa nna
nwa .
ngo si
mme hi
midi a.
lị kan
je riko
goolu .
chị ,
ba n
an g
ama w
akwa ,
akparama gwa
aka ?
ahụ. "
a jị
Yu su
Yoru ba
W A
WA EC
S oko
Rama phosa
R us
Progressi ve
P oli
NA F
Me laye
Ka duna
Josef .
J ong
J i
Insta gram
Ibo m
He alth
Gra nd
E bonyi
Col lege
Buhari ,
Bel lo
B ru
Alex and
A mara
A chebe
- O
" -"
ụgbọ mmiri
ọzọ ?
ọhịa .
ọbụ na
zu ru
ye le
y uro
yuro p
x it
vi e
unu .
u ba
tụma dị
st ry
re r
po li
p y
nzọ pụta
ntị ,
nsi bi
nnụ nụ
nchekwa ,
n kwọ
mọnde .
mmụọ .
mme r
maha du
ma h
le agu
laza rọs
la s
kwa .
i zi
ho ny
ge rs
gba .
fi m
f ị
ezi e,
ebum nuche
c tu
bụ ?
beke e,
arụ sị
akụ nụ
a ro
Yo be
V illa
Tara ba
Ronal do
Pa ris
Onwu ama
Omo yele
O scar
Nor wich
Mada ga
Ita ly
I di
E kiti
Da biri
D ino
D AC
Cro ss
Chi do
Ch e
C an
Bre xit
Ant hony
Ade sina
A zik
A n
A mi
30 ,
- 4
"" n'"
" ka"
ụlọ mkpọrọ
ya, "
wenezde .
uju .
udo ,
u me.
tọzde .
ti ne
sị, "
so .
ru "
pa rt
on ,
ohi .
o gu
nwe .
nka ,
niile .”
n or
n gụ
mma .”
ka me
ka h
ja nụwarị
iri ,
inji n
gha lo
gbu .
enyi ,
eji ma
dị ?
bọje t
bu ka
baịbụl ?
agba ra
a. ”
a wa
a ja,
Uzo dinma
T ogo
Re public
Peop les
Ope ration
O sa
O ndo
Nor way
Njikọ ka
NAF DAC
M on
I ghalo
I ba
Germa ny
Gene ral
Eze ife
Economi c
Da ve
D on
Con go
Chukwu emeka
Chan ne
B les
Anaje mba
Ama echi
Ada ma
Abra ham
A ction
2016 .
20 ,
15 ,
." n'"
." ihe"
- A
“ ma
ụtụtụ ,
ụlọọgwụ .
ọgọst ,
ọchị .
ịntaneti .
ị kpe
zi aka
y ị
y ,
w w.
w ww.
w n
ver ton
v re
us tom
st rị
spe n.
saụ di
s y
rụ "
p or
onyinye ,
o su
nị strị
mị nịstrị
lu k
le ,
kris mas
jụ ụ
j w.
iko .
iche iche.
ibe ribe
fa i
ezigbo te
ezi ,
e som
bu ike
bo ur
be del
anụ rị
al l
abalị ,
a wụ
a rọ
Y ork
Wa t
W omen
V e
Tur ke
T rans
Spa nish
Sam son
Ru fai
Ro ad
Osi ta
Or gani
O li
Ny esom
No w
Ka yode
J AM
JAM B
IM F
H ope
G ol
Fo ot
F lo
F B
FB I
Enyi nnaya
E verton
E U
Cos mas
Communi ty
Co deine
Chi di
Channe ls
C ustom
C la
Ameri ca
Abi ke
APC .
A re
A T
A )
6 0
3 3
19 4
ụmụaka .
ụlọ elu
ọnụ ahịa
è vre
wenezde ,
wa rd
wa nda
ute eze
us tin
uru ndi
tic al
ta nya
tanya hu
ta a?
ta ?
ry stal
pe nde
og le
ofesi .
obi ?
nụ !
nzukọ .
nwa ,
ntu ziaka
nso ,
ni ch
ni ,
nga gwa
ne s
na ngagwa
mọnde ,
mne sty
maka "
ma "
m b
li nt
kwu ?
kla asị
ke ke
ka li
je ria
isi ala
injin ịa
ikpe ,
i kwu
i bu.
gh ton
ga ra
ga n
f èvre
ezina ụlọ
en ce
egbe .
de rs
bị lọ
be l
ba bịlọ
b n
alakụ ba
ala ce
al jeria
akwụ na
aha .
aba cha
U do
Turke y
T ha
Spa in
So lo
S ia
Re gi
R wanda
R oge
Pri ma
P hi
Oke chukwu
O bo
Ne tanyahu
NY SC
Mu sta
Mu nich
M nangagwa
Le fèvre
L an
Ke shi
Ka t
Juventu s
I nde
I be
Gra ce
Go ogle
G i
Fede ration
Ebo la
E qu
E kwu
Bo y
B urundi
B er
Azik iwe
Aw gu
Austra lia
And re
A so
A sh
A sa
A mnesty
2 7
- -
“ otu
“ obi
“ anyị
’ ,
ụmụ ahịa
ọrụ )
ọka .
y chel
ychel les
ve ment
ugbo ,
tic s
te "
t te
se s
satọde e
sa .
rin ho
ri l
ren ch
re d
py rus
pa pyrus
ozu zo
ohu .
ogi di
nwayọ ọ,
ntọ ala
nsogbu ,
nsibi di
nnwere onwe
nchụ aja
n isi
mkpa ,
mgbe "
mesa ya
mbi ze
m s
m ?
lu k,
les tine
la "
kọ p
kpọmkwe m
kpọ "
kame l
k in
ha. "
fraịde ,
fran sị
eke re
da ry
d g
baptizi m,
a sị,
a kpị
Yusu f
Y aku
Wat ford
Ude mba.
Tu nisi
Tanza nia
Ta cha
Se ychelles
Qu e
O sho
N go
Mou rinho
Ma ina
Ma gu
Ko rea
K on
Jong -
Ja ne
J or
Inde pende
Hi gh
H ou
Fede rer
F rench
E do
C rystal
Bri ghton
Bles sing
Ara bi
A nya
A nge
; )
2018 :
2017 ,
201 4.
10 ,
"" na"
" "."
“ mkpụrụ
“ ha
ụkwụ .
ọtọ ,
ọ stra
ọ ghọ
ṅ a
zu ,
zi .
u ri
u n
u be
ti a
ta ry
t ra
sho la
sekọ nd
ri ri
ri ma
qu e
p ito
osisi ,
or d
ol oko
okwu chukwu
obiano ,
obere .
o gwu
nye .
ni c
ngwa ,
ne bọ
ndi na
nda gwuru
ndagwuru gwu
na n
n gwe
mo u
mm y
mi ,
mgbọ rọ
mgbe ,
mbụ :
m kpụ
la ri
je nesi
izu ,
izrel ,
im iri
ibe ri
hoo ha
ha :
gwongwo ro
gburugbu ru,
gbo o,
gba ,
fu l
ffi eld
etiti .
ebe ,
e !
dg z.
da h
da .
cto ral
chineke .”
bu ,
be .
ba ll
ba l
arụ rụ
anu si
ahụ ike,
abu ja,
abalị .
W hi
W al
V C
Ume h
Ti wa
She ffield
SS OB
Ran gers
Que en
Pa tri
O ki
Nigeria :
Ndu bu
N an
Moha med
Mini stry
Mar tin
MA SSOB
La w
L o
Kat sina
J ide
Isa ac
I re
H en
Ga bon
Fo rest
Fe stus
F ri
Ele ctoral
Custom s
Ca mp
BB Naija
Agule ri
A nti
A mu
A I
4 5
4 0
2020 .
2015 ,
19 5
1 1,
( S
“ na-
ọrịa ,
ọnwa .
ọktoba .
ọchị agha
ọ sụ
ugboro .
u ke
so ja
si on
shu a
ru mba
ran ce
pọ tị
pa s
omume .
omume ,
oge "
o st
o o
nye ,
nwunye .
nsọ pụrụ
nka .
ni e
ne u
mmụọ ,
mme kọ
mme bi
mmadụ ?
me ya
li us
li ,
la tion
iteghe te,
ina b
imiri kiti
hooha a
gọọmentị ,
gịnị ?
gu a
ge ment
gburugbu ru.
gbo o.
eme odo
ekpe nta
ekere sime
e e,
c ol
bri el
asa ra
ala nd
aka .”
a to
Ze aland
Za inab
Yaku bu
W ar
U ba
Te ch
Sy ria
Osu ji
Onye ma
Onwu emeodo
Oke ke
O yo
O jo
Nwan kwo
Nnabu ihe
Ne y
Mo vement
Mo ses
Ku kah
Kha fi
Jide ọfọ
Je re
In do
I si
I lo
I A
Go ver
Ga briel
F re
Eji ke
D ru
D ike
Cy ril
Ara bia
Andre w
Aba cha
A mo
A gba
A chu
; ,
200 7
2 -
14 )
“ dị
ụjọ .
ụgbọala .
ụ dọ
ọzọ .”
ọsị sa
ọgụ ,
ọghọ m
ọ rumba
ị "
y u
wa n
ugbo g
ude le
th y
t ,
sị ga,
sh ing
s ka
rụ ?
pita l
pe nal
penal ty
paradaị s
p re
ozi zi
one l
o ju
oju ju
nu bu
nkịtị .
njọ ,
nje m.
niile ?
ngwa .
nghọta hie
neu mo
nde r
nche kwu
mọ n
mp ị
mp anọ
mmer son
mme rụ
mma nya.
mkpụrụ .
mkpa rị
mgbọrọ gwụ
mgba li
meya ng
me lu
maachị .
m )
lo ma
li p
li a.
ko ro
kemgbe .
ka mpanọ
iyi .
itoolu ,
i fufe
ha r
ha ;
h uru
ge :
fi ele
eziokwu .”
enyi .
el ị
ebe "
e t
bị bịa
bu rg
ba r
ba meyang
asa ba
anyị .”
ahụhụ ,
a lo
Zi da
Xenophobi a
W ole
W il
U T
Ti nubu
Solo mon
Sia sia
Secon dary
Rus sia
Ro ck
Ra bi
Power ful
P er
P alace
Onwuama egbu
Obio ra
O tti
O kwu
Ngo zi
Ney mar
N asara
N PC
N NPC
Mor si
Mana gement
M c
Li onel
Ka bi
Ire land
Hara m.
Ha u
H O
G an
Eme fiele
E mmerson
Chukwu ma
Ch ile
Bri dge
Ba le
B ebe
Au bameyang
Ang lịkan
Al ha
Al -
Aba ng
A si
A kpa
A gbo
A be
201 2
14 ,
." mana"
( gba
( APC
” .
“ na-e
“ mmadụ
“ le
ụlọ ikwu
ụlọikwu u
ụkwụ ,
ọrụ ?
ọnịcha .
ọdụ m
ọchịchị rị
ọ bịbịa
ị ba
z on
z bọ
ye mi
we ,
wa l
u tu
th ur
sọ l
su l
si riri
si r
si n
shing ton
sh ia
s anya
ru ctu
ro c
ri bu
re en
re ;
pas tọ
oriri .
oge ne
ode e
o di
nsụ gharị
nnu pụ
nna ,
nkị rị
ngwa ngwa
neumo nia
ne buka
nebuka dne
nchekwu be
na nt
n mi
n ja
ma d
m son
lli on
li ne
li fe
latị n
la :
kpa ndo
kpa kpando
kp i
kedụ "
ke r
ka ra
ka pito
ijipt ,
ihe .”
igwe ,
i re
gọọmentị .
fre y
fe r
enyemaka .
ele ction
ek ike
ehi ,
e kwo
e bi
dio cese
ci e
car d
be zbọ
babịlọ n
awụ sa
asị rị
ar ch
anụmanụ .
ala ?
akwa ra
Y a
We ah
Wa shington
Tho mson
T hi
Su le
Soko to
S la
Regi na
Re de
Ra dio
P neumonia
Odu me
O ga
Nsu k
Musta pha
Ma t
Le ah
La ssa
King sley
Kanu :
Independe nt
H os
Gol den
Em zor
Eli za
Election :
El- Rufai
Eji ofor
China .
C C
Buhari .
Bo b
Ar thur
Al len
Adi nu
9 0
2023 .
13 )
1 1)
." nke"
( $
“ nke
“ na-a
ụtọ .”
ụgbọala ,
ọkọ chị
ọ ta
ọ ?
Ọ ka
Ọka fọ
ị tụ
ịtụ na
z ara
win do
uru ?
ul tu
uche .
u t
u mu
to ma
tiusde ,
ti mi
ti co
ther land
te l
te :
su s
sta nt
s man
s )
ructu ring
roc co
ri a.
ri a,
ra te
pụ l
pọtị fa
praị ma
p se
p per
or y
ole .
obi .”
o ba
nzuzo ,
nzu zu
nwa mkpị
nu k
nnupụ isi
nebọ t
ndụ .”
ndị isi
naịjirịa "
n te
mwe re
mp ton
mmehi e.
mkpọrọ ,
mgba go
me n
me dia
mberede .
mahadu m,
lo s
li stra
le be
la ss
ku zi
kraịst .”
ke nan
kali ki
isi on
il ding
iko m
iberi ibe
gọọmentị "
gha ni
gboo ?
fran s
ezi e.
eri ri
eprel ,
el le
ekpe rima
efu .
e d
di bịa
cu rity
che ,
c ou
bịaf ra.
bi o
atụ .
anyanwụ ,
ama okwu
ahụ ;
aba kaliki
a t
a gwọ
W HO
Ve ne
V ir
U loma
T er
South ,
Solu do
S we
S anusi
Ro timi
Ro ma
Re d
PDP .
Ope n
Onye bu
Odume gwu
O ma
O f
O do
Nw oko
Nigeria "
Mu r
Mo rocco
Mo gha
Mi lan
Ma ry
L ibe
Jo shua
Inno cent
Idi go
Iba dan
I je
I de
High life
Hen ry
Har ry
God win
Fa shola
Fa ni
FA AN
El kana
E mi
Day :
D en
Co a
Chi som
Chi nu
Ca the
C AF
Bor der
Bi nta
B ol
Alha ji
Adam s
Achu zi
A ya
A ri
A ngo
5 :
4 7
4 4
3 9
2 :
10 )
." akụkọ"
." a"
' "
" bụ"
“ okwu
“ nna
ụwa .”
ụmụaka ,
ụgwọ ,
ọrụ "
ọhịa ,
ọgọst .
ọgwụ ,
ọ ha.
ị ,
zị ,
yi ng
unu .”
unu ,
ume ngwụ
ul ga
ugbo .
u nyi
u hi
tu nde
ter s
te bụl
t ter
sti tu
sa tion
ri son
ri "
ren ce
re fe
praịma rị
pou nd
ozugbo ,
ozu bulu
ower ri,
otu to
og iri
o ye
o bu
nụ ?
nwe ,
ntụliaka ,
nti al
nno chite
nne s
nle y
nke wa
ni ng
ndụ ?
ndi di
nchekwa .
n karị
n gọ
n gwu
mo la
mbịara mbịara
ma mị
lụ .
lị ka
lu e
legọs ,
leagu e
la ?
l ying
kwa ra
ku nle
ka nda
jizọs ?
izu u
izu .
izi zi
im on
ig .
ha m,
gbu ,
gbo ,
g gi
fi a
fe .
fa ce
etiti ,
ekeresime si
ebe re.
ebe re,
ebe e
ebe .
e x
e m
do r
d ral
d d
che z
c ity
c a.
b lọ
ara ck
a se
a rụ.
a gboro
________ ________
V an
Uche ndu
Tunisi a
Tha i
Se curity
San chez
Sa dio
S imon
Preside ntial
Poli ce
P oly
P an
P VC
P P
Onye ama
Ogbo nna
Ogbo do
O by
Ni mo
Ne therland
Ndi di
Ma li
M ozi
M ma
La bour
L y
Ko re
K lint
Josef ,
I ya
H ong
H oly
Ge a
Gan du
G ana
Fri day
Face App
F lying
Ekweremadu :
E van
E ri
E ke
E be
E R
Cathe dral
C i
Bur nley
Ba u
B arack
Ah mad
Af ghani
Adinu ba
AI T
A zu
A wo
A chi
8 8
7 7
19 )
18 7
17 )
15 )
- Olu
- 5
" a"
“ si
“ mụ
ụ gụ
ọmụ ma
ọchị ,
ọbọ gwụ
zuru ike
za tion
ya. ,
ve n
va ge
v ision
ugbu a
tọzde ,
tor s
th le
te bulu
sị ;
su rance
sto ne
sse y
so cial
sh ir
sekọnd rị
ra nt
pụ ,
part ment
pa tị
p a,
oyi ,
okwu ?
ogologo .
ogi di,
o jo
nwunye ,
ntọ rọ
nta net
nne kwu
nne ,
nkwu pụta
nkuzi ,
nke sa
ngwe re
ngo zi
ndị .
nche ,
na- i
mp ard
mo od
mmekọ ahụ
mgbe .
mgba gha
mbe r
li ty
le tico
land .
la pse
la g
kọp ta
kwụ .
kwara ji
kwa "
kpa .
kiri e
kepu kepu
kampanọ s
ka -
jụ ,
jenesi s
jamanị .
ja ni
ike ?
ike .”
i su
i ntanet
hu abu
gị .”
gh e,
gar de
ga wa
fị ọ
fu .
fre d
fe ty
ese re
ekwentị ,
e ro
de au
da ura
ca tion
bịaf ra,
ber g
be th
be ,
ba nk
aị za
atụ rụ,
asọmpi .
anụmanụ ,
anyanwụ .
anya sị
an ,
alụkwaghị m.
akpa ti
a s
a pa
a ;
Zida ne
U sman
U go
Tech no
T A
So cial
Secon du
Se lari
Sa vage
S tan
Ro mne
Pa ki
P or
Oscar s
Oko rie
O kwaraji
O kpa
O huabu
Nasara wa
Na sir
N C
N AP
Mor rison
Mar k
Mala y
Mah mood
Ma ria
M M
Londo n.
Le ban
La mpard
La garde
Kw ara
Jere my
Indi gen
I ko
H ollywood
Gandu je
G ir
Fu nd
Foot ball
Fa i
F ir
F R
England .
Ed ward
E id
Di ck
De partment
Dan daura
D r
Cy ber
Cri me
Cor po
Cali for
C ourt
Benu e,
Bel gi
B ill
B all
At letico
As se
Ami nu
Aja yi
Ade sanya
A ustin
A kwu
A c
? "
4 3
20 )
1 -
- N
(APC )
" a
" (
“ abụ
ụtụtụ .
ụlọụka .
ụlọikpe ,
ụ sa
ụ bịa
ụbịa m
ọnụ nụ
ọnụ ma
ọdịnihu ?
ọ nyụ
ọ mị
zu e
ya n
we lle
ur ta
urta do
u bi,
t s
t le
si c
septe mba.
saị t
satọde e.
sa l
s k
ru, "
ru m
ro m.
ris ti
rie s:
re th
ra q
ra c
puku ,
pro te
pa l
ozu ,
ozi e
okwukwe .
obere ,
o nu
nwaanyị ?
nnọ chi
nna ba
ni te
ngụ kọ
nge r
ng :
nebukadne za
n ment
n ko
n ike
mp a
mou th
mmeri .
midi a,
mi se
mamị rị
ma ị
m pụta
li ng
l lo
kọ rị
kpamkpa m.
kpamkpa m
julaị .
ji "
inọk .
iko ,
ije re
igbo :
i la
gịnị "
gu ,
gi di
ght s
egwuregwu .
di um
di an
ck le
ci ence
chukwu ,
c tri
c el
baịbụl .”
b si
aị zik
ato rial
an ti
an t
akpụ .
akpị rị
aka ri
ahụhụ ?
aha ,
adịgboro ja.
abụ ;
a nwa
a ni
a a
You Tu
W o
Vir gi
Va len
Twitter .
Ti jani
Ta mmy
Ta i
T ar
T IP
Swe den
Si ckle
Sa fety
S ky
S co
S cience
Ri ta
Ra y
Queen s
Pro mise
Preside nt
Phi lip
Patri ck
PDP ,
Organi sation
Onyebu chi
Onu mah
Oke ke,
Ohuabu nwa
Ode kpe
Oba ma,
O kpo
O ka
O k
O G
Nw agbara
Nsuk ka
Nigeri a.
New s
NB C
NAP TIP
N EMA
Mogha lu
Madaga ska
Libe ria
Li ght
Li g
L af
K en
Ju lius
Jor dan
Jong- un
Je ssi
Indigen ous
I raq
Hou se
Hos pital
Fi re
F r.
F ou
F in
Evan s
Equ atorial
Ekweremadu .
E F
E E
Chukwu di
Ch u
Cent re
C al
Buhari "
Bu ilding
Bo ston
Bo ni
Bi ble
Baba tunde
Ba ssey
Ba shir
B S
Augu sti
Ango la
Ana o
Amara izu
Ama zon
Alexand ra
Akpa bio
Aja x
Afghani stan
Ade ye
Adama wa
Ada m.
A yo
A ston
A kwa
A ki
8 5
8 0
3 5
201 3.
201 1
1 ;
." a
"" ,"
“ oge
“ gịnị
“ ezi
ụtọ ?
ụta rị
ụb ọ
ụ kpụrụ
ọma ?
ọlị .
ọktoba ,
ọjọọ ?
ọgwụgwọ .
ọgba ta
ọchụ chụ
ọcha nja
ọ f
ị s
zo .
zi ,
ze r
z a.
we bụ
webụ saịt
vi a
ve nant
uru .”
u re
u kpo
u huru
tọ ,
tta ck
toma to
tle he
tha niel
te nis
te ?
sọ lọ
sị: "anyị"
sị ga.
st s
ss y
so la
si sta
ser ver
sa ra
s cu
rọ d
risti ano
rie s
re t
re ctor
p lo
owu we
osika pa,
onye .
oli li
ok ike
oghe re
of frey
obo si
o ka
nzuzo .
nze re
nwata ,
nwaanyị "
nwa a
nuk lia
nta ,
nt on
nnewi ,
nke ,
ni ca
nha ta
nga po
na" ọ"
n se
n rọ.
mwere onwe
mu m
mpụ ,
mp any
mmemme .
mmemme ,
mme zu
mmadụ .”
mma nya,
me r
mbọ mbọ
mbo de
m !
lụ ,
lu m
lu b
li sti
li m
latrik ,
kọ .
kpo ,
ke .
katọlik ,
itoolu .
isi si
isi "
in de
igwe .
i chi
ha nnes
h ong
gu e
gra mme
gbụ rụ
ga ?
fi eld
fe ,
esere se
eme ne
ekpere ?
ehi .
egbe ,
echi .
echi ,
e ge
e bo
do m
de ji
d ,
col lapse
cha ris
ce ment
briten ,
bo r
blọ k
bi shop
aịza ya
arụrụ ala
an ca
amaw bịa,
ama m
akịrịka .
aku m
ahụ ike
ada .
a le
a cha
Z u
Yo akum
Uni lag
U SS
USS D
Twitter ,
To ny
Thai land
Stan ley
Si ngapo
Sha ribu
Selari ọs
Se me
S ri
Prima ries:
Okorocha :
Obi na
O zo
O ri
O na
O ld
O ffi
Nw abu
Na thaniel
N )
Mu elle
Mon day
Mma ku
Mini mum
Mar ch
Madaga scar
Ma ta
Ma l
Ma ku
Lu ka
Lago s,
L in
Kano ,
Job ,
Jo hannes
Je hova
In surance
Ihe ana
I zu
Hu nt
He rọd
Gu ar
Gir ls
Gh ost
Ge offrey
F urtado
F ina
F er
Eme ma
Eliza beth
EE DC
E kpe
Cos charis
Corpo ration
Cor ne
Con fe
Co venant
Co de
Chi ka
Chi eji
Champion ship
C ristiano
C ole
C ala
C AN
Buhari :
Bi anca
Be nson
Augusti ne
Augu st
Asse mb
Amu neke
Ali yu
A ta
A nne
A mbode
A gwu
9 5
5 5
4 6
3 2
199 9
000 )
." e"
- 6
- 2
- 19
( nke
( IPOB
' '
" e
“ ụmụ
“ nwa
“ ga-
ụlọọgwụ ,
ụ sọ
ụ mị
ọzọ ."
ọtụtụ .
ọhanaeze ,
ọgọ dọ
ọgbata uhie
ọgbakọ .
ọfụ ma,
ọba ra.
ọ zara
ị ị
ị .
z a,
ya. )
ya "."
wit zer
w ọ
vootu .
ve re
uhi e,
ugbog uru.
u se
u d
tị nkọ
tum tum
to ph
toph er
ti s
ti ce
the w
tha mpton
sti ng
ssa n
so ,
septe mba,
sekọ ndị
sekọndị rị
satọde ,
ris ky
ren cy
re dio
re chi
re al
re .”
re -
ran ozie
r to
r gency
po pe
pa ị
p ịa
p ri
p hi
ozu zu
our ne
ourne mouth
otu to.
okpukpe rechi
okpo koro
ojo ro
ogbenye .
obi ọma.
o ro
nzukọ ,
nzagha chi,
nzagha chi
nw ịị
nti na
ntaakụkọ .
no w
nnaba ta
nkị ta.
nkwụ sị
nkuzi .
njedebe .
ni u
ni a.
nda pụta
n tụtụ
n s
mwe pụ
mu su
mi ted
mgba .
mbe rg
mba !
maa tụ
ma ni
ma ja
m kp
lọ t
listi a
li sh
kw o,
kris ma
je kwu
je ct
izuu ka.
ihe ?
i za
i man
hụ .
hụ ,
h er
gụ .
gọvanọ "
gị nwa
gwụ .
gi ne
ge ge
fi te
fi listia
eme d
ekwentị .
ekele ,
eke ne
eke ,
efu ,
e wo
e e.
e :
e -
dị "
du m.
devid .
devid ,
de ,
da alụ
ck ing
cie ty
chọ .
ca de
c ord
c lo
briten .
bishọ ọpụ
bi si
ba s
ale rt
akụkọ ,
akịrịka ,
agụ ,
agwa etiti
af ụ
af ana
ad res
abụ ba
a ne
York .
Wal ter
V in
V AR
UN I
Tru deau
Tra ffi
Tar rant
Sou thampton
So ciety
Sa mbi
S qu
S p
S on
S ime
Roge rs
Rev .
Rede emed
Rabi u
R al
Pro gramme
Plateau :
Pa pa
P y
P F
Oye de
Ogbo nnaya
O wer
O pa
O me
O ji
Netherland s
Ndubu aku
NB S
N ze
N ne
N ike
Muhamma d
Muha mmed
Mozi s
Mo tors
Mo st
Mo ne
Mat thew
Madu me
Ma ne
Luka ku
Li mited
La dy
L E
Kon go
Kanu .
Ka chi
K an
Ja net
INEC ,
I we
Ha di
Ga reth
G ree
G ala
Flo ri
Fai th
F iji
En gine
Emema nka
Ele ctri
Ebre ham,
Ea ster
Dan ju
D ou
Commi tte
Christi ne
Chris topher
Chinu a
Chi nwe
Chi ld
Ch eri
Ce lestine
Bru ce
Bro ad
Boni face
Bob risky
Black "
Bau chi
Ba lo
B ournemouth
B aka
B afana
Aya melu
Assemb ly
Ar ge
Ada m,
A m
A k
A do
A cade
A DC
9 7
8 4
3 1
28 ,
25 ,
2014 ,
201 3,
201 0.
201 0
200 ,
2 7,
197 0
1914 .
16 ,
16 )
1 000
." dị
-O b
(IPOB )
( ma
( bụ
( APGA
” ,
“ ụwa
“ ya
ụta zị
ụlọakụ ,
ụ kp
ọṅụ .
ọnwụ ?
ọma .”
ọla ọcha
ọkụkọ ,
ọdịnihu ,
ọdachi .
ọba ra,
ọ ha,
ịtụna nya
ịchafụ .
zọ ma
zị .
yurop .
ya.” )
ya ”
ya mo
y ou
we i
w ill
visa ""
vi so
viso ry
vere nd
va ị
va tion
v ing
v il
u tical
tu tu
tta h
to ck
tia tive
ti u
ti ng
te re
te ch
ta r
ta l
t ro
sị ?
sul t
su per
su n
st ructuring
shu ga
setan .
s per
s le
s chool
rish .
ri si
ri ck
ri ?
ree scu
paị let
p la
oyi .
osisi .
or ,
onye ,
omi mi
okpo m
oko ro
ogbu gbu
odi bo
o ni
o gba
ogba ru
o cese
nọ .”
nzu te
nwo -Olu
nu s
nta .
nrụrụ aka.
nrụ rịtaụka
nkị ta,
nkwa lite
nke y
nka tọ
nje m,
ni tiative
ni o
ngwọ rọ
nghọ ta.
ne y
ndu ru
nda ba
ncha ra
nai ra.
na tor
n za
n gi
mu s
mpụ .
mmehi e,
mmanụ .
mkpu ghe
mgba ,
me di
mbụ ?
ma ọbụ
ma ce
mace utical
lo be
lla m
latrik .
kọ ,
kwe te
kris ti
kpo .
kpa m.
ko ,
katọlik .
k h
jerusele m.
ime ?
he li
har maceutical
gị ga
gu gu
go zie
gb ị
ewu .
elị iza
eju la
ejije .
ego "
ebi li
e nwe
e kpi
du ,
de .
da n.
ci ous
cha ị,
ca sting
c .
ba by
aị rish.
ara ,
ar t
alụkwaghị m,
ala .”
al la
al -
akụnụ ba.
akpụ ,
aka :
agụ .
aghụghọ .
ada l
abụọ )
abụ .
aba ,
a maka
a kpụrụ
a gwu
a chi
a bọ
Z uba
YouTu be
W i
Vin cent
Vi sa
Valen cia
Va le
Uche nna
U zọma
U zor
To ro
Timo thy
T ele
Sy ria.
Sule iman
Shiite s
Ser ge
Secondu s
Sa nwo-Olu
Sa li
Sa di
S witzer
S pe
S il
Romne y
Revolution Now
Re verend
Re structuring
R ome
Pu n
Progressi ves
Pre ss
Pre cious
Por tu
Pi er
Pe p
Papa do
Pa lestine
P in
P harmaceutical
Oyede po
Osho di
Osho ala
Organi zation
Opa ranozie
Ono ja
Ona ga
Okoye ,
Okorocha ,
Oko ro
Ogu nye
Ogbu ata
Obi di
O te
O ra
O lo
Nwosu ,
Nwachukwu ,
Nw eke
No Bra
Nna ji
Niger ,
National "
N el
N adal
Mohammed ,
Mexico .
Mar ket
Malay sia
Mah re
Ma uri
Ma c
M bo
M T
Li ve
Li on
Laf ia
Kon du
Ke yamo
K ya
Johannes burg
Jehova h
Je sus
J im
Iv ory
Italy .
In stitu
Imo hi
Iheana cho
I w
I chi
He ran
Hau sa
Hara m,
H er
H an
Gover nment
Fre edo
For ce
Fo rum
Fe li
Fa ther
Fa rou
FR SC
FF K
F ala
Eze nwa
Euro pa
Eng lish
Eme rgency
Eli sha
E vo
E u
E r
E )
Dru nk
Do gara
Dick son
Di rector
Di ocese
Danju ma
D u
D ana
D R
Cou rto
Cos by
Co mpany
City .
Chine du
Ca ta
C lub
C am
C S
C ON
Buhari ?
Broad casting
Belgi um
Ball on
B ulga
Azu buike
And reescu
Ala de
Akwu ke
Agu ata
Afri ca.
Adeye ye
Ade mola
Ade bo
Ada zi
Achuzi a
Abubakar ,
Abaribe ,
Aba te
Aba gana
Ab del
Ab ba
A thle
A nto
A maka
A kwete
A a
A K
A BS
A AC
; ;
8 00
7 0
50 ,
4 :
30 )
3 8
3 6
3 00
2019 ?
200 9.
200 9
2 9)
19 ,
18 0
10 .
1 2,
1 2)
." onye"
." che
. )
-3 5
( ya
( U
( PDP
( P
' ;
" o"
" kwu
! !
” ?
“ ugbu
“ mba
“ ebe
“ bi
“ agha
“ [
ụta ra
ụgha ,
ụbụ rụ.
ụ sụ
ụ rọ
ọstra lia.
ọstra lia
ọrụ ;
ọnyụ pa
ọnwụ .”
ọnwa ,
ọmụ maatụ
ọma jiji
ọka i
ọgbaaghara .
ọgba a
ọgbaa tumtum
ọdụ .
ọdịnala ,
ọ yị
ọ pụrụiche
ọ n
ịntaneti ,
ịlaị sha
í gw
ígw é
za ?
ya. "ọ"
y ne
wu ji
ve nti
venti on
uru agụ
ukwu .”
ugboro ,
u gba
tụ ,
tịnkọ m
to ry
ti can
ta la
stri ke
steeti ?
sta nda
standa dị
st ịs
sion :
si ve
sh les
shles s
sh ee
setan ,
satọde e,
sa n
sa le
s wi
s so
s li
s la
ru sale
ro "
re- Eme
re-Eme rick
re y
re wa
re mberg
ration "
ra ble
r by
pị m
pou los
pe eji
pe ,
p s
otu tu
otu ?
onyi nyo
olile anya.
okpom ọkụ
oko oko
ohu ,
ogbu gbo
obiano .
obi bi.
o re
o nwu
o la
o h
o be
nye "
ny u
nwụ ?
nu gwu
ntaakụkọ ,
nkwa .
nkiri :
nji nji
nje ri
nje hie
niile ;
ni an
ngalaba "
ng -
ndọ rịtaụka
nde ewo
ncha .
na te
na chukwu
mu nd
mpi o
mp e,
mme gide
mmalite ,
mmadụ "
mkpu ,
mgbu .
mbọ .
mbi bi
mbe le
mahadu m.
maachị ,
m "
lo ja
lo gy
lo ,
llo f
lin s
li tion
li e
lebe "
latị n.
kọ m
kwe lu
ku n
kra t
kpo ro
kere do
kara t
kansa .
ka adị
ka :
k ki
jọ stịs
jọ n,
ji ofor
jerusele m,
je ms
izi to
iteghe te.
iri ka
in ,
il y
ikpeazụ .”
ike nga
ifo .
ibe ,
i bu,
ha ra
gụ ,
gọvanọ .
gọvanọ ,
gwụ ,
go o
go di
gh e.
ge ne
gbe re
gba "
g ration
fran s.
febụwarị .
fe mi
fa t
fa ir
ezi e
ewu ,
er ry
ele lebe"
ekpi li
egwu ri
ede ,
e shia
e cu
dị .”
do la
dimkpa ,
di ne
dge t
d ro
d ra
cto ber
con c
collapse :
co al
che .
cha lla
c a,
bịa ?
bsi dy
bri dge
bo olu
be lụ
amaw bịa
ala ka
akụnụ ba,
akụ ,
akpa .
ajụjụ ọnụ
ajụjụ .
ahụ :
agwa .
aghara .
agba .
af or
af a
acha ra
abụọ ;
abụọ :
a tị
a musu
a gọ
Zimbabwe .
Z ine
You ng
W is
Vene zue
Va tican
V o
V AT
United ,
Ume h,
Ude ogu
Ude mba,
Uche chi
Uba ni
U te:
Trump ,
Trans for
Toro nto
To chukwu
Ti mi
Te x
Te odo
Switzer land
Su n
Sla m
Singapo re
Ser gi
Se x
School ,
Saraki ,
Sara h
Sa int
SARS :
S port
S and
S ama
Q ata
Py rite
Pro ject
PortHarcourt .
Pier re-Emerick
Pan ther
PF N
P h
Ote dola
Omo -A
Omo-A gege
Oma mba
Oli ver
Okpo ko
Ok igwe
Ojo to
Ogunye mi
Ogbu okiri
Obi ang
O y
O tu
O lani
O ctober
O bu
O P
Nwa bia
Nu remberg
Nsu gbe
No t
No a.
Nke chi
Ni co
Ni cho
Ndubu isi
N D
Muelle r
Mone tary
May or
Ma tiu
Ma in
MT N
M y
M it
M S
M .
Ly on
Lo ve
Lan ka
La mbo
La ke
Ko la
Kabi r
Ka te
K izito
K i
K ele
K ara
Ju ne
Ju de
Ju d
Ju an
Jo s
Jo nes
Jo llof
Je rusale
J us
Iv ,
Institu te
Indi a,
In f
Ike okwu
Ije oma
IA AF
I sha
I ron
I fite
Ha ssan
Gover nor
Go mbe
Ga ssa
G lo
G ames
Feli x
Fani -
Fani- Kayode
F r
Ex ecu
Ekwu eme
Ebonyi ,
Eag let
E ti
E se
E no
E hab
E fe
E P
Dru g
Do mini
Di stri
Di j
Demo krat
Dan go
D ar
D J
D A
Col lins
Coa lition
Co lo
City ,
Church ,
Chukwu lobe
Chi me
Char ly
Cata lo
C ultu
C ell
Bur na
Bulga ria
Bre nton
Bebe l
Bar win
Ba sin
Ba d
Awa da
Au du
Arge ntina
Anya oku
Ama ju
Ah madu
Agbo gugu
Ade le
Ad visory
Abi y
Abdul ra
Aa ron
AT M
A ro
A my
A gri
A g
A bo
7 00
6 00
3 4
25 )
23 )
201 2,
20 ;
2 2,
196 7
19 0
18 )
17 :
16 0
13 ,
.. ..
." ya"
- U
- 14
( onye
( dị
( C
"" bụ"
" onye"
“ ụkwụ
“ ụbọchị
“ ọtụtụ
“ ọnwụ
“ we
“ olee
“ oke
“ na
“ hụ
“ bịa
“ anụ
ụta lị
ụkọchukwu .
ụda ra
ụbụ bọ
ụ ja
ọtụtụ "
ọtọ .”
ọrụ ."
ọnọdụ .
ọkọ rọ
ọkọrọ tọ
ọkwụ rụ
ọkwa ,
ọkpọka :
ọf ala
ọdụ ,
ọ m
ọ lụ
ịgba .
ị rish
zi ?
z ,
ya? ”
y uni
y ke
wu ru
we ll
we ?
wa le
vootu ,
vo mi
vin ce
vie ve
v ille
v illa
v ,
unu ko
ugo .
u dah
u bu
tụ ta
tọ rọ
tọ n
ton ,
to ye
tlehe m.
ti sh
ti ence
ti e
tech nic
te ria
ta .”
sọnde .
sọlọ mọn
sị, "ọ"
swi di
swidi n.
su re:
su bsidy
steeti :
st :
st ,
sle eti
sime ntị
si ne
se n
se arch
sa m
rụ" elelebe"
rọshịa .
rọ s,
rị pọ
rịpọ b
rịpọb lịkan
ru wa
ro se
ri ne
ren dum
refe rendum
re au
re ."
rah man
rac le
ra y
ra :
r ya
r n
r ghi
pọ nd
poli cy
po x
po ta
pe dia
pe ace
op i
omenala ,
olo gy
oli n
ogbugbo :
odo gwu
oche ,
obo si,
obi bi,
nọ ọsụ
nyocha .
nwu nmi
nwa mba
nu ,
ntụ gharị
ntụ .
ntu le
nti ne
nta kị
nso .”
nri ?
no -Ob
nne rby
nne .
nkụ ,
nkịtị ,
nkwu chite
nkwado ,
nkwa rụ
nke nke
nk i
nji de
niile ”
niile .”)
nie sta
ni ck
ni a,
ngwa ọrụ
ne sia
ne r
nde kọ
nche .
nai ye
n hịa
n cial
mpe mpe
mp osi
mp o
mmụ ta.
mme tụta
mmanwụ ,
mkpị sị
mkpu chi
mkp iri
mi llion
mgbọ .
mgbagha ra.
me stone
me .”
mbi pụta
maị l
ma rt
m ."
lị n
lu sive
lo pp
leagu e.
late rite
la ndo
kwe ,
kwa s
kpọ ,
kpamkpa m,
kla s
ki na
ki m
ka l
k ing
jenụwarị ,
je so
je ,
j oko
j o,
in ter
illi ng
ikike re
ik h
iji ng
ije ,
ihe re.
igbo ukwu
i ti
hib ru.
he n
ha. ,
h elị
helị kọpta
gua ge
go du
go do
go ,
ghị ?
ghị .”
gh u
ge dọ
gb ụgbọ
gara aga
f t
f ri
f on
ezum ike.
ezu me
enyo .
eluigwe ?
ejije ,
ehihi e.
ego ?
ege de
egbu ke
ebu le
e- Osuji
du ka
do zie
dio ka
di li
di c
de nt
da n,
cy clo
cyclo pedia
cu a
cou nt
cha rd
c us
c ca
bụ" a"
bụ rụ"elelebe"
bọọ lu
bn )
bi a.
bezbọ l
ber to
b ba
azụmaahịa .
atụmatụ "
atụ rụ.
arch bishop
ara .
anụ rị.
anụ ,
anwa nsi
an der
alụkwaghị m
akụkọ .
akwụkwọ "
akwụ na.
akpa ,
aka "
ahịhịa ,
agụụ .
agụma akwụkwọ
agha ?
agba ,
af i
achịcha ,
abalị :
a wu
a vi
a tu
a te
a rọ.
a pụl
a ction
Z akari
Z I
ZI K
X avi
Wa ter
Vale ntine
V er
Umu okpu
Umu chu
Ugo chukwu
UT H
UNI ZIK
UN IC
UNIC EF
U ber
Transfor ma
Traffi cking
Tra de
To wn
To ni
Thi ba
Tele vision
T ro
T ime
T al
Sy l
Sta nda
St ra
Soyinka :
So ma
Sil va
Si nai
She ikh
Sha ron
Service s
Serge ant
Sa ga
S pan
S irika
S imo
S P
Ru ff
Ru be
Roge r
Ri ghts
Ri chard
R t.
Pun ch
Pro te
Prima ry
Po land
Po gba
Pin nick
Peter s
Pe te
Papado poulos
Paki stan
Pa tience
Pa rish
P lan
Osa debe
Or lando
Ola udah
Okwu dili
Oki yi
Oke y
Ogbu nike
Odi on
Obo no-Ob
Obina gu
Obi gwe
O welle
O ti
O s
O re
O ni
O naiye
O kere
O go
O fu
Nw afor
Nnabu ife
Nigerian "
Nicho las
Na poli
NC DC
N j
Mur tala
Mu sic
Me tho
Me di
Mar cel
Man .
Mahre z
Madrid ,
Mac ron
M us
M W
Londo n,
Lib ya.
Li lian
Le nt
Le a
Lambo rghi
Kya ri
Kele chi
Kaduna .
Ka olin
K lopp
K el
Jose phi
Jong- U
Japan .
Ja iru
J ustin
Iw obi
Isi guzo
Indo nesia
Indo nesi
Indi a.
Imo h
Ike di
IPOB :
IPOB ,
I yke
I sta
I nitiative
I niesta
I le
H is
H am
Ghana .
Germa in
Gene vieve
Ge t
Gassa ma
Gana ,
G ọ
G reen
France .
Fir st
Fina ncial
Farou q
Facebook ,
Fa ttah
F ul
F ree
Execu tive
En cyclopedia
Ed gal
Ebo e-Osuji
Ebe le
E ye
E nd
E je
E cua
E S
Dij k
De nnerby
Dapchi :
Dabiri -E
Dabiri-E rewa
Da ily
D unuko
D ona
D ole
D ama
Courto is
Co mma
Co m
City :
Chukwu jekwu
China ,
Chieji ne
Chibo k,
Chi ze
Chi ma
Che kwas
Chan ge
Catalo nia
Car l
Can cer
Camero n
Cam bridge
Califor nia
Cala bar
Ca re
CC TV
C lo
C en
C )
Bur kina
Bu reau
Bu ck
Bri tish
Bri ga
Brazil .
Bi den
Ber na
Benu e:
Be tlehem.
Be ijing
Balo gun
Bala ra
Baka re
B on
B il
Ayo gu
Awa rd
Atiku ,
Arsenal .
Arabi k
Ara fat
Ar ch
Anto nio
Ani chukwu
Alex ander
Aki nwunmi
Ade osu
Abe oku
APC ,
AFCON :
ABS UTH
A ịrish
A vomi
A rea
A po
A lo
A keredo
A A
6 9
6 6
400 ,
3 :
29 ;
28 )
26 )
201 2.
200 6.
200 4,
2 6,
1914 ,
187 9.
18 ,
17 ;
1 10
1 1.
000 .
000 ,
." ha"
- 5)
- 0
) :
(PDP )
(APGA )
( ọ
( n'
( IMN
( G
"." "
" mgbe"
" e"
“ ụmụnna
“ ji
“ ga
ụwa. ,
ụwa ;
ụmụada ""n'"
ụmụ ,
ụma .
ụlọikpe ?
ụlọakụ .
ụlọakwụkwọ .
ụkọchukwu ,
ụka "
ụjọ ,
ụ yọ
ụyọ kọ
ụ pa
ụ nwụ
ụ cha
ọtọ ?
ọma ."
ọkụkọ .
ọkpụ tọrọ
ọkpụtọrọ kpụ
ọjọọ .”
ọjị .
ọgụgụ .
ọgụgụ ,
ọgwụ .
ọgara nya.
ọ rọ
ọ lọ
Ọ zọ
ịhụna nya,
ịgba ,
ịchafụ :
zuru oke
zu zu
zor ,
zo ne
ze ,
za ni
z man
yo yo
yi .
y er
y .
wu ,
wi g
wa zuruike
wa yo
w or
vaị n
uro toye
ur gen
umu dioka
ugo eze
udo ?
u wazuruike
u f
tu men
ttack s:
tt lement
ti ri
ti i
tere nian
te l.
taa ta.
t rou
t rea
sị "ọ"
su m
st her
so na
sine ss
si g
si "
sho ggi
sh e
ser vice
se ,
saị rọs
sa t
sa r
sa nd
s co
rụ "na"
rọ fe
rọ ba
ru ba
refe ree
rate s
ra de
ra .”
ra ."
pọ pụl
pu b
pub lican
pre me
pound s
po wer
pa y
pa rish
pa r
p rọfe
p pe
p ino
ozigbo .
ose ,
ori e
one y
omeka tara
ole ,
okwute .
okpo to
oko kporo
okenye .
ogologo ,
ogbenye ,
of fi
obi :
obi "
o he
nọve mba.
nọ ọ
nwụ .”
nwoke "
nwata .
nwamkpị .
nwa amadị
nu kwu
ntorobịa .
nta l
nsụ nsụ
nsọ pụ
nnọ kọ
nle do
nkụ .
nkwa fu
nkwa ,
nkey pox
nka ta.
nka ta,
ngwu pụta
nga rị
ndo kwa
ndi di.
nda tion
nchọ nchọ
nche gbu
ncha ra.
ncha ,
nce :
nai ji
naiji ria
na" ndị"
na ,"
n on
n kpụ
n gwuru
mụ rụ
my r
mpi ks
mp ịa
mp ako
mon d
mmeri ,
mme zu.
mkpesa .
minista .
min ).
mi na
mi ly
mgbede ,
mfe ,
medi terenian
me nta
me gbu
me gawa
megawa tt
me ."
mbịa mbịa
mbo mbo
ma chukwu
m ole
m ford
m ?”
lọ f
lọ b
lu mma
lo w
lo od
lla r
li stus
li ban
legọs :
lan guage
la y
kọrị ta.
kọ nkịrị
kwụ rụ"na"
kwụ ?
kwụ ,
ku ,
krisma s.
kpọmkwe m.
kemgbe ,
ka sị
ka dị
ka chi
k lọb
jọ lọf
juu n,
je e
j or
j an
iwu "
iro ,
ine r
ike "
ije .
ihi ala,
ihi ala
ide n.
iche .”
iberiibe .
i p
i chie
i bu
ho od
hi ara
he em
ha n
ha "."
gue ma
gri k,
goo lụ
gi e
gen ce
gbo ruwa
gbo lu
gbe ne
ga s
g lass
fu rt
fri ji
ezume zu
ezinụlọ .
ezi e?
ezi bel
eprel .
enugwu ?
ele ke
ekwe .
ego :
egede ge
ebube .
e zani
e ing
e gbo
e .”
dọ b
dọb lịn
du ct
do llar
de la
dd le
da le
conc lusive
co b
co a
ci ne
chineke :
cha nge
ca shless
bụ" ụmụada""n'"
bọ l
bu kola
bezbọ l.
bar rel
baptizi m.
ba le
b ro
b bi
b be
awa ra
atụmatụ ,
arụ sị,
anya ."
anya "
any ụ
an ga
amụma .
ama ra,
ama gedọ
ala "
akwụ ,
ahụ "
ahịa "
aga dị
afa el
a? ”
a. )
a tia
a st
a rụ,
a fe
a "."
a !
________________ ________________
Zi on
Z ik
You th
Y aha
Y aba
Xenophobi a:
Wo od
Wis dom
Wil fred
Whi t
We sley
We are
War ri
Vo ice
Virgi l
V al
Uwa zuruike
Univer sal
Uni ty
UN ES
UNES CO
U ru
U lumma
U ke
U ju
U J
U C
Tru st
Transforma tion
To m
To ky
Timgad .
Time s
Teodo rin
Techno vation
Te am
Ta liban
T ou
T onye
T en
T am
T E
T D
Su preme
Ste lla
Standa rd
Sta mford
Spanish .
Span n
Sowore :
Simo ne
Shehu ,
Se gun
Sco t
Sali su
Sadi ya
S now
S ER
S A
Rube n
Ro tary
Ro berto
Re publican
Re gu
Re cord
Ral ph
R ile
R ebe
R afael
Pri nce
Pri me
Premier ship
Portu gal
Pe shia
P ho
P P)
Ono h
Onaiye kan
Oli mpiks
Okon jo
Oko i
Odi nga
Obi -
OG M
O gbe
O A
Nna mu
Nna mani
Nna dozie
Nel son
Ne bal
Ndu bisi
N machukwu
N guema
Mo mo
Mini ster
Mi c
Metho di
Mbo nu
Mba kwe
Martin s
Mar ble
Madume re
Madu agwu
Madrid .
Ma li.
MA TA
M gbe
Lin da
Li ving
Leban on
Leagu e,
Le kki
Lamborghi ni
Lago s.
La wal
LE A
L ille
Kore a.
Kondu ga
Kha shoggi
Kachi kwu
Ka ori
Jus tice
Jo y
Ji gawa
Jessi ca
Je rom
Je f
Ja cob
J urgen
J ezibel
J en
Iv .
In ve
In du
Imohi mi
Imo ,
Ike me
Ike a
Ife jiofor
Ibi kunle
IS IS
IPOB .
IC PC
I su
I so
I da
Hu tter
Hu nga
Hu man
He art
Harcourt .
Ha w
H il
Gọ v
Guar dio
Gu i
God son
G y
G ri
G on
G ide
Ful ham
Frank furt
Fou ndation
Fer na
Fa yemi
Fa so
Eze nne
Europe .
Electri city
El-Zakzaky .
Ecua dor
Eagles ,
E sther
E nugwu
E gwu
E gbu
E du
Domini c
Di ezani
Daniel ,
Da ura
Da ni
D urotoye
D r.
D ia
D NA
Cup :
Cro w
Cro atia
Crime s
Cou nt
Codeine :
Co al
Clo sure:
Cla y
Ci vil
Chukwu eze
Chu ks
Christi e
Chidi ebere
Chi eme
Chi buike
Chi bu
Cameroon ,
Cal listus
Ca ro
CH OGM
C lint
Buck nor
Bo eing
Be ni
Be ne
Balara be
Ba h
Ba by
B ode
B ana
B ada
B C
Atiku :
Asi sat
Asa gwa
Aro chukwu
Are wa
Ara b
And y
Anao cha
Al ph
Aku re
Air peace
Agule ri,
Agu ero
Af ara
Adi chi
Adebo ye
Ade gboruwa
Adazi -N
Ad mini
Acade my
Abate te
Ab bo
AN U
A ssi
A sia
A kin
A je
A hiara
A fe
A challa
A bia
?” )
60 7
6 8
4 9
3 5)
2000 ,
200 6,
200 6
200 5
200 4
20 2
2 2)
199 9.
18 4
17 0
17 .
12 :
- West
- 8
- 16
- 14)
- 13
(IMN )
( £
( R
( INEC
( D
( AN
( 4
( 3
% )
" ma
" i
“mkpụrụ ”
“ ozi
“ naanị
“ chineke,
“ biko,
’ .
ụmụ ahịa,
ụlọụka ,
ụfụ ,
ụfọdụ "
ụba .
Ụ mụ
ọzọ "
ọnụ ?
ọnụ "
ọmị iko
ọlaedo ,
ọkọ chị,
ọkpụ kpọ
ọgwụgwụ .
ọgba ra
ọgba nje
ọfọ ka
ọ tị
Ọ nwụ
ịnyị nya.
ịkpe azụ
ịhụna nya.
ịchafụ ,
ị di
á n
zụ .
zi z
zi g
z ho
yuni ọn
yo ta
ye de
ya: "
ya." ihe"
ya. ;
ya )
ya !
x to
x on
w ork
w ka
vie t
vi ta
vi ron
ve z
va l
va c
v us
v ol
ur rency
ul t
ukpo r
ugbog uru
ud iri
u ta
uta zi
u m.
u m,
u ge
uge gbe
tị n
to mi
to la
tion :
ti ves
ti ma
ti es
ther n
tha ny
te naị
te lli
telli gence
te le
ta tenaị
ta i
ta !
t z
t n
t :
sọnde ,
sị, "anyị"
sy n
strike :
sto ration"
sti que
state :
sta n.
st ries
sso r
ssi a
ss port
spe n,
so nal
si a,
sho t
shee d
sh a,
se x
se man
s will
s por
rụ .”
rọ ?
rịọ rịọ
ru me
rou i
ro thy
ro ke
risi i
ri zu
rest ructuring
re public
rama do
ral d
ra mic
ra i
ra h,
pụ "
pọ nti
pọnti ọs
pọ int
prọfe sọ
plo sion:
pho to
per s
pe nti
penti kọ
pa pers
p sum
p pa
p el
p a.
ozu .
otu to,
osimiri .
ose bu
osebu rụ
oro ma
onu gbu
omenala .
omeiwu .
olu .
olu ,
olo gbo
oku ,
okorobịa .
ofufe ,
odi de
ochie ?
obo sara
o ki
o ?
o !
nzọ ụkwụ
nze ,
nwunye ?
nwu ,
ntị ?
nti ng
nti fi
nte co
nta mu
nt ozu
nsọ ?
nsogbu ?
nrụrụ aka,
nrụ pụta
no fia
nnyocha ,
nkwe kọrịta.
nkwado .
nkeji .
nke r
nke bi
njedebe ,
ni fe
ni cal
nhọpụta ,
nghọ ta,
nga .
ne w
ne l
nde sli
nde de
nd s
nchụ aja,
naịjirịa ."
nator ,
nal y
na" ihe"
na za
na m
n ru
n obi
n n
n guzo
nguzo be
mọ kpọ
mị ,
ms by
mpi c
mpi .
mo nt
mmi gration
mmanụ ,
mmadụ ."
mma d
mkpụrụ ,
mini um
mili ano
mi nal
mi ah
mgbochi .
mgba da
me ri.
mbịara mbịa
mbido .
mbido ,
mbi nye
mbi lite
mba za
mar k
ma ss
ma ke
ma in
ma go
ma de
m ”
m or
m kpo
m ),
lọ ọlọ
lịka lịka
lu s
lu minium
lo gi
lle r
li ma
li a,
le na
laza rọs,
la dy
kọrị nt
kịrị kịrị
kwu "
kw o.
ku lu
kpọmkwe m,
kpe .
ko ba
kemgbe "
ke du
kadị nal
k il
k hi
juu n.
ju da
izugbe .
iyi ,
ip zig
in dy
in conclusive
imi ,
ille r
ile le
ile ad
ike ;
idemmiri .
i ru.
i re.
i re,
i lo
i a,
i .
ho de
heli kọpta
ha m.
h el
gra ph
gide .
gh iri
gbụrụ gbụrụ
gbu o
gba nụ
gb inde
gazi ne
ga rd
g na
g ge
for cement
fo -
fo- Ad
fi te,
fa risii
f ort
f ford
ex plosion:
eti ng
eri meri
er ra
er ,
enyo ,
enyemaka ,
enu e
el la
ekwu lọ
ekwensu ,
ekpe .
ekpe ,
egwuregwu :
ebe lebe
e z
e mo
e mi
do w
dio ra
di th
di s
di mkpa.
di m
di er
de ration
de ra
day .
da ta
da m
co pper
co ma
co m
co in
cha !
ce ,
car pe
c up
c ultu
c lass
c ,
bịa .”
bu tion
bu dget
bor der
bon ch
bi n
bi llion
bi ll
be tel.
be na
ba o
ba il
azụmaahịa ,
arụ ma
ar y
anụ .
anyị ;
anti no
ama la
ama dị,
al ong
akụnụ ba
akụ .
aka ra.
ahụ. ,
ahịhịa .
agụụ ,
agụmakwụkwọ .
afi kpo
achi ng
a ”
a zi
a wa.
a th
a kp
a !”
Zuba ir
Zimbabwe ,
Z ou
Yaha ya
Y or
Y PP
We alth
Wa les
Wa ge:
W in
W ike,
W ha
Ver sion
Venezue la
Vene rable
V ol
V isi
Uzo ho
Uwa ifo
US A
US .
U huru
U gbo
U A
Tra fford
To yota
Tex as
Techno logy
Tai wo
T y
T UC
T CN
T B
T .
Super "
State :
Sta ff
Sta dium
Sp ring
So viet
Snow den
Sime on
Si erra
Service ,
Sergi o
Se ttlement
Sco tt
Sambi sa
Sa ni
SER AP
S wi
S tock
S ir
S ar
S U
S ON
S .
Ruff coin
Ro oney
Ro ch
Rile y
Rehab .
Rebe cca
Re ube
Re sult
Re storation"
Re chel
Ra ila
R obi
R hode
R am
R B
Q a
Pu blic
Pro vince
Poly technic
Plateau ,
Pe nteco
Patri cia
Pa t
Pa s
Pa ci
P rie
P ra
Oyo -
Oye made
Osi m
Ope n.
Oni gbinde
Omamba la
Okwu o
Okpa leke
Oko li
Oke zi
Offi cer
Odekpe ,
Ode deji
Obono-Ob la
O ut
O ur
O se
O le
O il
O gba
O ff
O R
Nze wuji
Ny ong
Nwo ye
Nwo do,
Nwabu eze
Nu ella
North .
North ,
Nor thern
No ve
Nnamu oh
Nna emeka
Nke mdi
Nimo ,
Niger .
Nico las
Ngige ,
News papers
Nai ja.
ND LEA
N no
N kwe
N ki
N do
My stique
Mus lim
Moha mmad
Mo na
Mi racle
Mi la
Me gan
Me dia
Mar ti
Mar co
Man dela
Man City
Mala mi
Mal ta
Ma u
Ma tịn
Ma ri
Ma llam
Ma il
Ma gazine
M iche
M aha
Lu pita
Love th
Light ,
Lib ya,
Le one
Le ipzig
La u
La te
L os
L ord
L ar
Kore a,
Kel vin
Ke mi
Kaduna ,
Ka roui
K ur
K ong
Josephi ne
Jo ur
Jessi e
Je ro
J .
Iwe ka
Is sa
Is land
Inf antino
Imo .
Ikechukwu ,
Ike nna
Ifeanyi chukwu
Idigo ,
I sh
I mmigration
I mma
I k
I gwe
I ce
Hunga ry
Hu d
He ro
Haram ?
Har per
Han na
H ote
H ome
Guine a,
Guardio la
Gu ma
Gri msby
God swill
God dy
Glo bal
Gide on
Ghana ,
Ga il
G rea
G ilead
G am
Freedo m
Fo od
Flori da
Fatoyinbo .
Fala na
Fa yo
Fa mily
F M
Eze obi
Eze agu
Eu ph
Engine er
En forcement
Ekweremadu ,
Ehab .
Ebele chukwu
Ebe nator,
Eaglet s
Eagles .
E nwo
E ne
E lia
E f
E buka
E bu
E bere
Dona tus
Do rothy
Do ra
Di xon
David -West
Dango te
Dan ma
Da mbaza
DP )
D y
D uke
D er
Crow ther
Cri minal
Corne lius
Cor by
Committe e
Comm on
Codeine ,
Co sta
Co nt
Clint on
Chukwulobe lu
Chukwu ka
Chize a
Chime zie
Chido ka
Chi kwelu
Chi dera
Chi a
Chelse a.
Chelse a,
Cha po
Ch o
Cali xto
CN M
C u
C indy
C ard
C ara
C .
Bu ndesli
Briga de
Bri tan
Bri ng
Bode jo
Bo la
Bi ssa
Ber ger
Benja mi
Be thany
Be st
Be a
Bana bas
Baba ngi
Baba ndede
Ba ịbụl
Ba ga
BBC "
BB OG
B illi
Ayamelu m
Avomi mi
Athle tics
Ata ni
At la
Ash ịdi
Ara rume
Ange les
Ange l
Anaje mba,
Ami na
Ama rizu
Ama di
