{
  "version": "1.0",
  "truncation": null,
  "padding": null,
  "added_tokens": [
    {
      "id": 0,
      "content": "<unk>",
      "single_word": false,
      "lstrip": false,
      "rstrip": false,
      "normalized": false,
      "special": true
    },
    {
      "id": 1,
      "content": "<s>",
      "single_word": false,
      "lstrip": false,
      "rstrip": false,
      "normalized": false,
      "special": true
    },
    {
      "id": 2,
      "content": "</s>",
      "single_word": false,
      "lstrip": false,
      "rstrip": false,
      "normalized": false,
      "special": true
    },
    {
      "id": 3,
      "content": "<pad>",
      "single_word": false,
      "lstrip": false,
      "rstrip": false,
      "normalized": false,
      "special": true
    },
    {
      "id": 4,
      "content": "<mask morph>",
      "single_word": false,
      "lstrip": false,
      "rstrip": false,
      "normalized": false,
      "special": true
    }
  ],
  "normalizer": {
    "type": "NFC"
  },
  "pre_tokenizer": {
    "type": "Whitespace"
  },
  "post_processor": null,
  "decoder": {
    "type": "BPEDecoder"
  },
  "model": {
    "type": "BPE",
    "dropout": null,
    "unk_token": "<unk>",
    "continuing_subword_prefix": null,
    "end_of_word_suffix": null,
    "fuse_unk": false,
    "vocab": {
      "<unk>": 0,
      "<s>": 1,
      "</s>": 2,
      "<pad>": 3,
      "<mask morph>": 4,
      " ": 5,
      "!": 6,
      "\"": 7,
      "#": 8,
      "$": 9,
      "%": 10,
      "&": 11,
      "'": 12,
      "(": 13,
      ")": 14,
      "*": 15,
      ",": 16,
      "-": 17,
      ".": 18,
      "/": 19,
      "0": 20,
      "1": 21,
      "2": 22,
      "3": 23,
      "4": 24,
      "5": 25,
      "6": 26,
      "7": 27,
      "8": 28,
      "9": 29,
      ":": 30,
      ";": 31,
      "<": 32,
      "=": 33,
      ">": 34,
      "?": 35,
      "@": 36,
      "A": 37,
      "B": 38,
      "C": 39,
      "CH": 40,
      "Ch": 41,
      "D": 42,
      "E": 43,
      "F": 44,
      "G": 45,
      "GB": 46,
      "Gb": 47,
      "Gh": 48,
      "Gw": 49,
      "H": 50,
      "I": 51,
      "J": 52,
      "K": 53,
      "KP": 54,
      "Kp": 55,
      "Kw": 56,
      "L": 57,
      "M": 58,
      "N": 59,
      "NW": 60,
      "NY": 61,
      "Nw": 62,
      "Ny": 63,
      "O": 64,
      "P": 65,
      "Q": 66,
      "R": 67,
      "S": 68,
      "SH": 69,
      "Sh": 70,
      "T": 71,
      "U": 72,
      "V": 73,
      "W": 74,
      "X": 75,
      "Y": 76,
      "Z": 77,
      "[": 78,
      "]": 79,
      "^": 80,
      "_": 81,
      "`": 82,
      "a": 83,
      "b": 84,
      "c": 85,
      "ch": 86,
      "d": 87,
      "e": 88,
      "f": 89,
      "g": 90,
      "gb": 91,
      "gh": 92,
      "gw": 93,
      "h": 94,
      "i": 95,
      "j": 96,
      "k": 97,
      "kp": 98,
      "kw": 99,
      "l": 100,
      "m": 101,
      "n": 102,
      "nw": 103,
      "ny": 104,
      "o": 105,
      "p": 106,
      "q": 107,
      "r": 108,
      "s": 109,
      "sh": 110,
      "t": 111,
      "u": 112,
      "v": 113,
      "w": 114,
      "x": 115,
      "y": 116,
      "z": 117,
      "{": 118,
      "|": 119,
      "}": 120,
      "£": 121,
      "®": 122,
      "·": 123,
      "É": 124,
      "Ö": 125,
      "×": 126,
      "à": 127,
      "á": 128,
      "ã": 129,
      "ä": 130,
      "å": 131,
      "æ": 132,
      "ç": 133,
      "è": 134,
      "é": 135,
      "ì": 136,
      "í": 137,
      "ï": 138,
      "ñ": 139,
      "ó": 140,
      "ô": 141,
      "ö": 142,
      "ø": 143,
      "ù": 144,
      "ú": 145,
      "ü": 146,
      "ć": 147,
      "č": 148,
      "ğ": 149,
      "ń": 150,
      "ş": 151,
      "š": 152,
      "ż": 153,
      "ž": 154,
      "̀": 155,
      "́": 156,
      "ׁ": 157,
      "ה": 158,
      "נ": 159,
      "פ": 160,
      "ש": 161,
      "ṅ": 162,
      "ạ": 163,
      "ẹ": 164,
      "Ị": 165,
      "ị": 166,
      "Ọ": 167,
      "ọ": 168,
      "Ụ": 169,
      "ụ": 170,
      "–": 171,
      "—": 172,
      "‘": 173,
      "’": 174,
      "“": 175,
      "”": 176,
      "•": 177,
      "₦": 178,
      "€": 179,
      "■": 180,
      "●": 181,
      "": 182,
      "na": 183,
      "dị": 184,
      "ka": 185,
      "ma": 186,
      " .": 187,
      "n'": 188,
      "bụ": 189,
      " ,": 190,
      "ndị": 191,
      "ke": 192,
      "ra": 193,
      "me": 194,
      "ha": 195,
      "re": 196,
      "na-": 197,
      "ta": 198,
      "nye": 199,
      "ya": 200,
      "ga": 201,
      "la": 202,
      "ri": 203,
      "ih": 204,
      "si": 205,
      "ji": 206,
      "hụ": 207,
      "rụ": 208,
      "ihe": 209,
      "kwu": 210,
      "rị": 211,
      "ru": 212,
      "ba": 213,
      "kwa": 214,
      "any": 215,
      "te": 216,
      "na-a": 217,
      "nke": 218,
      "ahụ": 219,
      "tu": 220,
      "nwe": 221,
      "na-e": 222,
      "gba": 223,
      "onye": 224,
      "ghị": 225,
      "be": 226,
      "tụ": 227,
      "dụ": 228,
      "ti": 229,
      "ga-": 230,
      "le": 231,
      "otu": 232,
      "bi": 233,
      "zi": 234,
      "anyị": 235,
      "sị": 236,
      "pụ": 237,
      "mma": 238,
      "kọ": 239,
      "mụ": 240,
      "chi": 241,
      "che": 242,
      "we": 243,
      "chị": 244,
      " \"": 245,
      "zọ": 246,
      "aka": 247,
      "lọ": 248,
      "rọ": 249,
      "cha": 250,
      "nọ": 251,
      "de": 252,
      "kụ": 253,
      "ne": 254,
      "do": 255,
      "nwa": 256,
      "wa": 257,
      "ụlọ": 258,
      "kwụ": 259,
      "go": 260,
      "fọ": 261,
      "gbu": 262,
      "isi": 263,
      "gha": 264,
      "mmadụ": 265,
      "sa": 266,
      "li": 267,
      "gbe": 268,
      "ebe": 269,
      "ike": 270,
      "nụ": 271,
      "ro": 272,
      "tọ": 273,
      "ni": 274,
      "mgbe": 275,
      "maka": 276,
      "ge": 277,
      "bu": 278,
      "so": 279,
      "ala": 280,
      "ịa": 281,
      "ga-e": 282,
      "gbo": 283,
      "ụmụ": 284,
      "ga-a": 285,
      "gwu": 286,
      "iri": 287,
      "ọrụ": 288,
      "rịa": 289,
      " :": 290,
      "kwe": 291,
      "kpe": 292,
      "ọchị": 293,
      "kpọ": 294,
      "eti": 295,
      "kpa": 296,
      "anya": 297,
      "afọ": 298,
      "mba": 299,
      "bo": 300,
      "okwu": 301,
      "nwụ": 302,
      "da": 303,
      "ọzọ": 304,
      "ste": 305,
      "gị": 306,
      "se": 307,
      "akụ": 308,
      "lu": 309,
      "chọ": 310,
      "gọ": 311,
      "naị": 312,
      "jirịa": 313,
      "naịjirịa": 314,
      "kwọ": 315,
      "  \"": 316,
      "obi": 317,
      "zu": 318,
      "gwa": 319,
      "di": 320,
      "akwụ": 321,
      "neke": 322,
      "steeti": 323,
      "chineke": 324,
      "an": 325,
      "akwụkwọ": 326,
      "  \" ": 327,
      "je": 328,
      " ?": 329,
      "ezi": 330,
      "iche": 331,
      "abụ": 332,
      "nu": 333,
      "bịa": 334,
      "ile": 335,
      "oke": 336,
      "nt": 337,
      "oge": 338,
      "niile": 339,
      "gụ": 340,
      "tụtụ": 341,
      " )": 342,
      "va": 343,
      "wu": 344,
      "ku": 345,
      "ya .": 346,
      "abụọ": 347,
      "akụkọ": 348,
      "dịka": 349,
      "ko": 350,
      "mp": 351,
      "sọ": 352,
      "fe": 353,
      "mme": 354,
      "ọtụtụ": 355,
      "“ ": 356,
      "igbo": 357,
      " ”": 358,
      "on": 359,
      "nwaanyị": 360,
      "bodo": 361,
      "pu": 362,
      "bụl": 363,
      "ịbụl": 364,
      "dọ": 365,
      "baịbụl": 366,
      "mi": 367,
      "a .": 368,
      "gbọ": 369,
      "ọnụ": 370,
      "du": 371,
      "obodo": 372,
      "20": 373,
      "egwu": 374,
      "hi": 375,
      "ụwa": 376,
      "ze": 377,
      "ikpe": 378,
      "to": 379,
      "iwu": 380,
      "ụb": 381,
      "ụbọchị": 382,
      "ntị": 383,
      "zụ": 384,
      "lụ": 385,
      "jọ": 386,
      "ho": 387,
      "bọ": 388,
      "jụ": 389,
      "ndụ": 390,
      "ahụ .": 391,
      "ego": 392,
      "zị": 393,
      "ozi": 394,
      "ihi": 395,
      "mana": 396,
      "oji": 397,
      "uwe": 398,
      "uha": 399,
      "ọchịchị": 400,
      "a ,": 401,
      "ụzọ": 402,
      "er": 403,
      "ukwu": 404,
      "kpụ": 405,
      "ọme": 406,
      "gọọme": 407,
      "elu": 408,
      "aha": 409,
      "onyeisi": 410,
      "ojii": 411,
      "onwe": 412,
      "atọ": 413,
      "ya ,": 414,
      "fọdụ": 415,
      "nwoke": 416,
      "ụfọdụ": 417,
      "kpo": 418,
      "sụ": 419,
      "ha .": 420,
      "st": 421,
      "201": 422,
      "ụgbọ": 423,
      "ọka": 424,
      "ọma": 425,
      "ahụ ,": 426,
      "bụla": 427,
      "nso": 428,
      "eze": 429,
      "rịka": 430,
      " . ”": 431,
      "hịa": 432,
      "or": 433,
      "hova": 434,
      "ihu": 435,
      "jehova": 436,
      "agha": 437,
      "Buha": 438,
      "Buhari": 439,
      "gwụ": 440,
      "ọbụla": 441,
      "nna": 442,
      "gi": 443,
      "ọkụ": 444,
      "pa": 445,
      "( ": 446,
      "ugbu": 447,
      "olu": 448,
      "ome": 449,
      "nyo": 450,
      "ma ,": 451,
      "uru": 452,
      "mkpa": 453,
      "ụka": 454,
      "mm": 455,
      "ghọ": 456,
      "nne": 457,
      "el": 458,
      "nwu": 459,
      "ọnwa": 460,
      "ana": 461,
      "ole": 462,
      "ju": 463,
      "nga": 464,
      "ja": 465,
      "nta": 466,
      "asa": 467,
      "zọs": 468,
      "jizọs": 469,
      "gwe": 470,
      "pe": 471,
      "mbụ": 472,
      "gọọmentị": 473,
      "mmiri": 474,
      "lị": 475,
      "yi": 476,
      "vanọ": 477,
      "mpi": 478,
      "gọvanọ": 479,
      "gwọ": 480,
      "bra": 481,
      "Ma": 482,
      " ;": 483,
      "ara": 484,
      "ntụ": 485,
      "nị": 486,
      "Jo": 487,
      "gu": 488,
      "maa": 489,
      "za": 490,
      "aba": 491,
      "ise": 492,
      "mo": 493,
      "ndọ": 494,
      "ahịa": 495,
      "nk": 496,
      "fu": 497,
      "ndọrọ": 498,
      "oko": 499,
      "eziokwu": 500,
      "BB": 501,
      "nyi": 502,
      "he": 503,
      "ce": 504,
      "mu": 505,
      "anụ": 506,
      "tupu": 507,
      "igwe": 508,
      "ọnwụ": 509,
      "BBC": 510,
      "asọ": 511,
      "mbra": 512,
      "lo": 513,
      "nri": 514,
      "anambra": 515,
      "azụ": 516,
      "liaka": 517,
      "ntụliaka": 518,
      "asọmpi": 519,
      "chụ": 520,
      "ọgba": 521,
      "atụ": 522,
      "iwe": 523,
      "okp": 524,
      "nsogbu": 525,
      "ọgwụ": 526,
      "in": 527,
      "ame": 528,
      "nya": 529,
      "nkwa": 530,
      "bọọ": 531,
      "nche": 532,
      "mgba": 533,
      "nwunye": 534,
      "bọọlụ": 535,
      "regwu": 536,
      "egwuregwu": 537,
      "enu": 538,
      "aghara": 539,
      " .  \" ": 540,
      "ar": 541,
      "ibe": 542,
      "ria": 543,
      "mmụ": 544,
      "họ": 545,
      "etu": 546,
      "ọhụ": 547,
      "ọhụrụ": 548,
      "unu": 549,
      "ọkwa": 550,
      "maazị": 551,
      "th": 552,
      "anị": 553,
      "naanị": 554,
      "su": 555,
      "etiti": 556,
      "enugwu": 557,
      "ezigbo": 558,
      "ngwa": 559,
      "sị :": 560,
      "ama": 561,
      "af": 562,
      "AP": 563,
      "Ni": 564,
      "chukwu": 565,
      "al": 566,
      "ou": 567,
      "ọjọ": 568,
      "ọjọọ": 569,
      "nde": 570,
      "ụtọ": 571,
      "abalị": 572,
      "raị": 573,
      "nti": 574,
      "ghi": 575,
      "sta": 576,
      "Chi": 577,
      "bere": 578,
      "ekpe": 579,
      "kemgbe": 580,
      "2019": 581,
      "goolu": 582,
      "narị": 583,
      "gịnị": 584,
      "ol": 585,
      "ter": 586,
      "ụgwọ": 587,
      "Nige": 588,
      "amerịka": 589,
      "ṅụ": 590,
      "kị": 591,
      "ha ,": 592,
      "gide": 593,
      "zo": 594,
      "00": 595,
      "mbọ": 596,
      "nal": 597,
      "nkeji": 598,
      "afrịka": 599,
      "ọrịa": 600,
      "il": 601,
      "akwa": 602,
      "ọnọ": 603,
      "ọnọdụ": 604,
      "agba": 605,
      "ozu": 606,
      "tion": 607,
      "ụdị": 608,
      "mpaghara": 609,
      "no": 610,
      "nchekwa": 611,
      "ọsọ": 612,
      "nje": 613,
      "vi": 614,
      "Ro": 615,
      "nụlọ": 616,
      "ngala": 617,
      "ezinụlọ": 618,
      "gị :": 619,
      "ki": 620,
      "APC": 621,
      "ngalaba": 622,
      "ng": 623,
      "ugwu": 624,
      "puku": 625,
      "gọọmenti": 626,
      "Da": 627,
      "omeiwu": 628,
      "okpuru": 629,
      "it": 630,
      "ebu": 631,
      "ra ,": 632,
      "19": 633,
      "isii": 634,
      "osi": 635,
      "iko": 636,
      "ekpere": 637,
      "ve": 638,
      "ọdị": 639,
      "ugbo": 640,
      "nkiri": 641,
      "nd": 642,
      "kpụrụ": 643,
      "ụlọikpe": 644,
      "m ,": 645,
      "gharị": 646,
      "izu": 647,
      "imo": 648,
      "m .": 649,
      "uche": 650,
      "nku": 651,
      "ajụ": 652,
      "nzu": 653,
      "ụgbọala": 654,
      "ye": 655,
      "ọgụ": 656,
      "ajụjụ": 657,
      "pụta": 658,
      "asụ": 659,
      "Re": 660,
      "olee": 661,
      "raịst": 662,
      "asụsụ": 663,
      "karị": 664,
      "Man": 665,
      "ver": 666,
      "kraịst": 667,
      "Su": 668,
      "ehi": 669,
      "mmụọ": 670,
      "ada": 671,
      "mume": 672,
      "echi": 673,
      "e .": 674,
      "atụma": 675,
      "atụmatụ": 676,
      "Li": 677,
      "- ": 678,
      "nnu": 679,
      "nsọ": 680,
      "mmemme": 681,
      "asaa": 682,
      "Mo": 683,
      "ọba": 684,
      "Jose": 685,
      "ụkwụ": 686,
      "obere": 687,
      "ngagharị": 688,
      "ano": 689,
      "ru ,": 690,
      "e ,": 691,
      "rịọ": 692,
      "les": 693,
      "ọzọ .": 694,
      "ik": 695,
      "ekwe": 696,
      "mkpụrụ": 697,
      "nka": 698,
      "ụmụaka": 699,
      "anya .": 700,
      "In": 701,
      "re .": 702,
      "enyi": 703,
      "egbe": 704,
      "agụ": 705,
      "ra .": 706,
      "La": 707,
      "ọgbakọ": 708,
      "fụ": 709,
      "Co": 710,
      "nala": 711,
      "beke": 712,
      "asatọ": 713,
      "Hara": 714,
      "Boko": 715,
      "àm": 716,
      "manụ": 717,
      "àmà": 718,
      "Se": 719,
      "Nigeria": 720,
      "of": 721,
      "kpu": 722,
      "nwata": 723,
      "ugboro": 724,
      "DP": 725,
      "nai": 726,
      "ofe": 727,
      "ebubo": 728,
      "anụmanụ": 729,
      "re ,": 730,
      "okpo": 731,
      "njem": 732,
      "ime": 733,
      "ụkọ": 734,
      "po": 735,
      "ris": 736,
      "here": 737,
      "Sa": 738,
      "robịa": 739,
      "ogi": 740,
      "nkuzi": 741,
      "Pe": 742,
      "Uni": 743,
      "nnukwu": 744,
      "ntaakụkọ": 745,
      "Haram": 746,
      "PDP": 747,
      "Na": 748,
      "ca": 749,
      "ito": 750,
      "per": 751,
      "Le": 752,
      "kama": 753,
      "ta .": 754,
      "hu": 755,
      "udo": 756,
      "aka .": 757,
      "ọkpụ": 758,
      "Josef": 759,
      "eke": 760,
      "ikike": 761,
      "abịa": 762,
      "ọcha": 763,
      "ori": 764,
      "anyanwụ": 765,
      "pati": 766,
      "ran": 767,
      "gọs": 768,
      "dum": 769,
      "naira": 770,
      "naịjirịa .": 771,
      "legọs": 772,
      "njọ": 773,
      "tị": 774,
      "okporo": 775,
      "ohere": 776,
      "rịta": 777,
      "mkpọ": 778,
      "ogo": 779,
      "wo": 780,
      "Fa": 781,
      "kanu": 782,
      "ndịàmà": 783,
      "akpa": 784,
      "hie": 785,
      "Muha": 786,
      "ndọrọndọrọ": 787,
      " !": 788,
      "karịa": 789,
      "mkpe": 790,
      "itoolu": 791,
      "abu": 792,
      "Al": 793,
      "bekee": 794,
      "OB": 795,
      "mmanụ": 796,
      "ahụhụ": 797,
      "us": 798,
      "IP": 799,
      "Muhamma": 800,
      "EC": 801,
      "en": 802,
      "ike .": 803,
      "ụkọchukwu": 804,
      "oche": 805,
      "steeti .": 806,
      "mmeri": 807,
      "rị :": 808,
      "Ea": 809,
      "a :": 810,
      "ofesi": 811,
      "Muhammadu": 812,
      "ry": 813,
      " . \"": 814,
      "mini": 815,
      "IPOB": 816,
      "Mu": 817,
      "ije": 818,
      "Pa": 819,
      "saụ": 820,
      "mdi": 821,
      "maha": 822,
      "ru .": 823,
      "niile .": 824,
      "pọ": 825,
      "mma .": 826,
      "ugo": 827,
      "ster": 828,
      "Ati": 829,
      "ochi": 830,
      "ụtụtụ": 831,
      "Atiku": 832,
      "ogige": 833,
      "rel": 834,
      "anya ,": 835,
      "ikpeazụ": 836,
      "onal": 837,
      "Ba": 838,
      "ọdụ": 839,
      "amụ": 840,
      "okpu": 841,
      "ụba": 842,
      "nkwado": 843,
      "nzukọ": 844,
      "ci": 845,
      "nkị": 846,
      "nto": 847,
      "ọha": 848,
      "oso": 849,
      "osisi": 850,
      "Super": 851,
      "am": 852,
      "ọzọ ,": 853,
      "rt": 854,
      "fi": 855,
      "uso": 856,
      "mmụta": 857,
      "co": 858,
      "osote": 859,
      "kere": 860,
      "ga ,": 861,
      "Ada": 862,
      "mgbasa": 863,
      "ck": 864,
      "ga .": 865,
      "nji": 866,
      "anyị .": 867,
      "mahadum": 868,
      "mkpọrọ": 869,
      "minista": 870,
      "saụt": 871,
      "pị": 872,
      "ted": 873,
      "shịa": 874,
      "Ka": 875,
      "Tru": 876,
      "obiano": 877,
      "ọtọ": 878,
      "dia": 879,
      "Oko": 880,
      "aja": 881,
      "dọkị": 882,
      "So": 883,
      "bụ ,": 884,
      "ele": 885,
      "nda": 886,
      "oku": 887,
      "ajọ": 888,
      "eluigwe": 889,
      "omenala": 890,
      "amụma": 891,
      "Bi": 892,
      "shọ": 893,
      "gburu": 894,
      "me .": 895,
      "ọdọ": 896,
      "dọkịta": 897,
      "kọmi": 898,
      "illi": 899,
      "Ar": 900,
      "okwukwe": 901,
      "ọma .": 902,
      "ur": 903,
      "wụ": 904,
      "gbụ": 905,
      "anyị ,": 906,
      "ntorobịa": 907,
      "IN": 908,
      "ty": 909,
      "op": 910,
      "Eag": 911,
      "ọhịa": 912,
      "INEC": 913,
      "fo": 914,
      "FC": 915,
      "Trump": 916,
      "vid": 917,
      "ike ,": 918,
      "  \" . \"": 919,
      "United": 920,
      "Ne": 921,
      "omume": 922,
      "lite": 923,
      "rocha": 924,
      "ity": 925,
      "usoro": 926,
      "De": 927,
      " \" \"": 928,
      "baịbụl .": 929,
      "Af": 930,
      "akara": 931,
      "Ade": 932,
      "ihe .": 933,
      "land": 934,
      "Eagles": 935,
      "ten": 936,
      "Mi": 937,
      "mị": 938,
      "echiche": 939,
      "nnamdi": 940,
      "vo": 941,
      "tan": 942,
      "rụ .": 943,
      "baka": 944,
      "ment": 945,
      "Willi": 946,
      "sị ,": 947,
      "iz": 948,
      "Ri": 949,
      "nnọ": 950,
      "Obi": 951,
      "akụkụ": 952,
      "ọgọ": 953,
      "obi .": 954,
      "ụlọụka": 955,
      "kedụ": 956,
      "lik": 957,
      "chineke ,": 958,
      "od": 959,
      "o ,": 960,
      "ọw": 961,
      "yọ": 962,
      "dio": 963,
      "ọwụwa": 964,
      "jị": 965,
      "pt": 966,
      "ede": 967,
      "else": 968,
      "mara": 969,
      "ọfụ": 970,
      "pọl": 971,
      "ghe": 972,
      "con": 973,
      "ta ,": 974,
      "ọkacha": 975,
      "Chelse": 976,
      "ah": 977,
      "ọgbọ": 978,
      "ohi": 979,
      "City": 980,
      "katọ": 981,
      "kọrịta": 982,
      "izrel": 983,
      "katọlik": 984,
      "Ca": 985,
      "enye": 986,
      "son": 987,
      "chineke .": 988,
      "iyi": 989,
      "onyi": 990,
      "emume": 991,
      "ss": 992,
      "ochie": 993,
      "ide": 994,
      "ine": 995,
      "a ?": 996,
      "nihu": 997,
      "ụnya": 998,
      "abuja": 999,
      "ir": 1000,
      "eziokwu .": 1001,
      "Moha": 1002,
      "pool": 1003,
      "tional": 1004,
      "enyemaka": 1005,
      "200": 1006,
      "Liver": 1007,
      "oriri": 1008,
      "Liverpool": 1009,
      "ssi": 1010,
      "iji": 1011,
      "shịal": 1012,
      "Me": 1013,
      "To": 1014,
      "Sou": 1015,
      "akị": 1016,
      "fada": 1017,
      "soshịal": 1018,
      "ogbu": 1019,
      "chu": 1020,
      "ọla": 1021,
      "ntu": 1022,
      "zde": 1023,
      "ụgbọelu": 1024,
      "oyi": 1025,
      "Afri": 1026,
      "ul": 1027,
      "' .": 1028,
      "oli": 1029,
      "ọkaiwu": 1030,
      "agu": 1031,
      "Chelsea": 1032,
      "onyinye": 1033,
      "tri": 1034,
      "ọmụ": 1035,
      "okpukpe": 1036,
      "isi .": 1037,
      "and": 1038,
      "mmadụ .": 1039,
      "ntọ": 1040,
      "ala .": 1041,
      "iche .": 1042,
      "onyo": 1043,
      "2019 .": 1044,
      " \" \" ": 1045,
      "net": 1046,
      "akpụ": 1047,
      "ọgbaaghara": 1048,
      "onyonyo": 1049,
      "ham": 1050,
      "ume": 1051,
      "ọ \"": 1052,
      "Manche": 1053,
      "Manchester": 1054,
      "eji": 1055,
      "aka ,": 1056,
      "godị": 1057,
      "mmed": 1058,
      "nwanne": 1059,
      "wit": 1060,
      "mama": 1061,
      "Eme": 1062,
      "agwa": 1063,
      "ụlọakwụkwọ": 1064,
      "madu": 1065,
      "ụwa .": 1066,
      "ort": 1067,
      "South": 1068,
      "Sta": 1069,
      "bri": 1070,
      "2018": 1071,
      "Nwo": 1072,
      "n ,": 1073,
      "abụọ .": 1074,
      "Ja": 1075,
      "eme": 1076,
      "okorocha": 1077,
      "El": 1078,
      "la .": 1079,
      "ode": 1080,
      "rọ  \" ": 1081,
      "nyụ": 1082,
      "chas": 1083,
      "ọnị": 1084,
      "mbere": 1085,
      "vootu": 1086,
      "Rochas": 1087,
      "ọnịcha": 1088,
      "ite": 1089,
      "for": 1090,
      "arc": 1091,
      "ia": 1092,
      "ral": 1093,
      "ya ?": 1094,
      "agbọ": 1095,
      "ọchịehi": 1096,
      "Arse": 1097,
      "n .": 1098,
      "omeka": 1099,
      "mberede": 1100,
      "Aba": 1101,
      "agbọghọ": 1102,
      "Arsenal": 1103,
      "ọgbu": 1104,
      "Ekwe": 1105,
      "akịrịka": 1106,
      "Mohammed": 1107,
      "rụ ,": 1108,
      "mbi": 1109,
      "“ ọ": 1110,
      "Peter": 1111,
      "ijipt": 1112,
      "wi": 1113,
      "' ,": 1114,
      "anọ": 1115,
      "juu": 1116,
      "setan": 1117,
      "kwado": 1118,
      "ok": 1119,
      "ky": 1120,
      "10": 1121,
      "o .": 1122,
      "ala ,": 1123,
      "ing": 1124,
      "nhọ": 1125,
      "Ke": 1126,
      "000": 1127,
      "witter": 1128,
      "remadu": 1129,
      "Ekweremadu": 1130,
      "s .": 1131,
      "Pre": 1132,
      "asị": 1133,
      "taa .": 1134,
      "atụ ,": 1135,
      "ọkammụta": 1136,
      "kọmishọ": 1137,
      "omekaome": 1138,
      "nhọpụta": 1139,
      "Abu": 1140,
      "ọrụ .": 1141,
      "Eze": 1142,
      "uju": 1143,
      "im": 1144,
      "Bo": 1145,
      "cy": 1146,
      "s ,": 1147,
      "ụwa ,": 1148,
      "ozugbo": 1149,
      "kọmishọna": 1150,
      "jo": 1151,
      "kele": 1152,
      "ong": 1153,
      "naeze": 1154,
      "eziokwu ,": 1155,
      "ọbara": 1156,
      "mkpu": 1157,
      "ly": 1158,
      "1 ,": 1159,
      " ) .": 1160,
      "ope": 1161,
      "ọ ,": 1162,
      "nle": 1163,
      "ọrụ ,": 1164,
      "ọkaikpe": 1165,
      "nigwe": 1166,
      "ọgụgụ": 1167,
      "ogbunigwe": 1168,
      "She": 1169,
      "iro": 1170,
      "ọhanaeze": 1171,
      "We": 1172,
      "Za": 1173,
      "mpụ": 1174,
      "mpe": 1175,
      " . ” )": 1176,
      "bonyi": 1177,
      "ihe ,": 1178,
      "ọkpa": 1179,
      "alụ": 1180,
      "Bu": 1181,
      "14": 1182,
      "Cha": 1183,
      "warị": 1184,
      "Joh": 1185,
      "ọdịnihu": 1186,
      "gwo": 1187,
      "Ra": 1188,
      "nyocha": 1189,
      "ekele": 1190,
      "baịbụl ,": 1191,
      "nchọ": 1192,
      " ) ,": 1193,
      "China": 1194,
      "mkpebi": 1195,
      "15": 1196,
      "ọ .": 1197,
      "mma ,": 1198,
      "midia": 1199,
      "Be": 1200,
      "Ge": 1201,
      "Oke": 1202,
      "mmadụ ,": 1203,
      "nkwe": 1204,
      "bịaf": 1205,
      "niile ,": 1206,
      "ụjọ": 1207,
      "ụlọọgwụ": 1208,
      "devid": 1209,
      "__": 1210,
      "nwayọ": 1211,
      "satọ": 1212,
      "Nor": 1213,
      "arị": 1214,
      "bi .": 1215,
      "ụda": 1216,
      "gị ,": 1217,
      "ction": 1218,
      "satọde": 1219,
      "Ha": 1220,
      "shi": 1221,
      "SS": 1222,
      "ghị .": 1223,
      "ezu": 1224,
      "Sara": 1225,
      "ụtọ .": 1226,
      "Chris": 1227,
      "malite": 1228,
      "sha": 1229,
      "Nna": 1230,
      "bịa .": 1231,
      "duna": 1232,
      "ahị": 1233,
      "mọ": 1234,
      "ụlọakụ": 1235,
      "egwuregwu ,": 1236,
      "ọdịnala": 1237,
      "tius": 1238,
      "Leagu": 1239,
      "dị ,": 1240,
      "obi ,": 1241,
      "laị": 1242,
      "2017": 1243,
      "elekere": 1244,
      "fa": 1245,
      "ph": 1246,
      "ri .": 1247,
      "Osi": 1248,
      "gị .": 1249,
      "na  \" ": 1250,
      "ja .": 1251,
      "Mar": 1252,
      "fufe": 1253,
      "nzuzo": 1254,
      "Lago": 1255,
      "ọfụma": 1256,
      "tha": 1257,
      "Chukwu": 1258,
      "ọgbugbu": 1259,
      "rs": 1260,
      "Zi": 1261,
      "kan": 1262,
      "rị .": 1263,
      "ekwentị": 1264,
      "tiusde": 1265,
      "igbo ,": 1266,
      "ọnụ .": 1267,
      "nkịtị": 1268,
      "FCC": 1269,
      "Willie": 1270,
      "Bri": 1271,
      "ụgha": 1272,
      "naịjirịa ,": 1273,
      "can": 1274,
      "ụmụnne": 1275,
      "ọgọst": 1276,
      "man": 1277,
      "wer": 1278,
      "icheiche": 1279,
      "ewu": 1280,
      "abụọ ,": 1281,
      "Ihe": 1282,
      "agụmba": 1283,
      "Fran": 1284,
      "nchọpụta": 1285,
      "Di": 1286,
      "bia": 1287,
      "ijeri": 1288,
      "bakar": 1289,
      "nnyocha": 1290,
      "Je": 1291,
      "Or": 1292,
      "Uma": 1293,
      "nrụ": 1294,
      "pụrụ": 1295,
      "Ude": 1296,
      "Pro": 1297,
      "1 )": 1298,
      "mfe": 1299,
      "mkpesa": 1300,
      "Adam": 1301,
      "olile": 1302,
      "Twitter": 1303,
      "Ju": 1304,
      "Gu": 1305,
      "uru .": 1306,
      "logo": 1307,
      "Paul": 1308,
      "briten": 1309,
      "Abubakar": 1310,
      "ogologo": 1311,
      "gbi": 1312,
      "dị .": 1313,
      "kọta": 1314,
      "uro": 1315,
      "isiokwu": 1316,
      "chọọchị": 1317,
      "mmehie": 1318,
      "ọmụmụ": 1319,
      "ebonyi": 1320,
      "kwo": 1321,
      "GA": 1322,
      "rọ .": 1323,
      "cto": 1324,
      "atọ .": 1325,
      "2015": 1326,
      "nnọọ": 1327,
      "trik": 1328,
      "ezum": 1329,
      "EFCC": 1330,
      "NA": 1331,
      "ogbe": 1332,
      "ndị )": 1333,
      "State": 1334,
      "Go": 1335,
      "ngo": 1336,
      "ther": 1337,
      "fraị": 1338,
      "state": 1339,
      "latrik": 1340,
      "fraịde": 1341,
      "Ab": 1342,
      "23": 1343,
      "ọga": 1344,
      "papa": 1345,
      "mmanya": 1346,
      "Nigeri": 1347,
      "Inter": 1348,
      "nyị": 1349,
      "2 ,": 1350,
      "dri": 1351,
      "iche ,": 1352,
      "atụrụ": 1353,
      "ofesi ,": 1354,
      "New": 1355,
      "senet": 1356,
      "nwayọọ": 1357,
      "meri": 1358,
      "okorobịa": 1359,
      "El-": 1360,
      "gbidi": 1361,
      "pi": 1362,
      "Fe": 1363,
      "Ike": 1364,
      "hab": 1365,
      "mbe": 1366,
      "nwaafọ": 1367,
      "“ a": 1368,
      "mgbọ": 1369,
      "kza": 1370,
      "ọṅụ": 1371,
      "Zakza": 1372,
      "Zakzaky": 1373,
      "..": 1374,
      "yo": 1375,
      "Au": 1376,
      "Ga": 1377,
      "17": 1378,
      "gabe": 1379,
      "nue": 1380,
      " - ": 1381,
      "agbụ": 1382,
      "Saraki": 1383,
      "Mugabe": 1384,
      "taa": 1385,
      "rị ,": 1386,
      "ọda": 1387,
      "ton": 1388,
      "rịtaụka": 1389,
      "ofufe": 1390,
      "Ta": 1391,
      "nsị": 1392,
      "okwu .": 1393,
      "nwụ .": 1394,
      "mọdụ": 1395,
      "Lagos": 1396,
      "akwụkwọ .": 1397,
      "ọma ,": 1398,
      "ndụmọdụ": 1399,
      "18": 1400,
      "n' \"": 1401,
      "efu": 1402,
      "the": 1403,
      "ration": 1404,
      "agụụ": 1405,
      "foto": 1406,
      "bịafra": 1407,
      "benue": 1408,
      "ụra": 1409,
      "tic": 1410,
      "nia": 1411,
      "mmekọrịta": 1412,
      "Africa": 1413,
      "APGA": 1414,
      "ezumike": 1415,
      "Fu": 1416,
      "He": 1417,
      "mmepe": 1418,
      "ọkpara": 1419,
      "kaduna": 1420,
      "ribe": 1421,
      "Ele": 1422,
      "anyị \"": 1423,
      " ? ”": 1424,
      "jehova .": 1425,
      "Madri": 1426,
      "Madrid": 1427,
      "iru": 1428,
      "mgbede": 1429,
      "mba .": 1430,
      "okenye": 1431,
      "dọla": 1432,
      "ndụ .": 1433,
      "ọkụkọ": 1434,
      "ourt": 1435,
      "au": 1436,
      "No": 1437,
      "13": 1438,
      "anwụ": 1439,
      "njikere": 1440,
      "ower": 1441,
      "Ru": 1442,
      "Ama": 1443,
      "neti": 1444,
      "ọkpọ": 1445,
      "igbo .": 1446,
      "ịnta": 1447,
      "199": 1448,
      "ohu": 1449,
      "Sowo": 1450,
      "ọkachamara": 1451,
      "ịntaneti": 1452,
      "Te": 1453,
      "Wa": 1454,
      "me ,": 1455,
      "ife": 1456,
      "nkata": 1457,
      "olileanya": 1458,
      "ọdachi": 1459,
      "ld": 1460,
      "ụtụ": 1461,
      "ọkọ": 1462,
      "mbu": 1463,
      "miri": 1464,
      "steeti ,": 1465,
      "Ibra": 1466,
      "kịrị": 1467,
      "ọdịda": 1468,
      "ọbasa": 1469,
      "Ihedio": 1470,
      "ọbasanjọ": 1471,
      "AS": 1472,
      "Vi": 1473,
      "jiji": 1474,
      "edo": 1475,
      "nwaanyị .": 1476,
      "spe": 1477,
      "wene": 1478,
      "gun": 1479,
      "agbụrụ": 1480,
      "k ,": 1481,
      "anyi": 1482,
      "omi": 1483,
      "gburugburu": 1484,
      "wenezde": 1485,
      "qu": 1486,
      "lla": 1487,
      "ri ,": 1488,
      "late": 1489,
      "sị .": 1490,
      "nrọ": 1491,
      "agha .": 1492,
      "ngwụ": 1493,
      "Ghana": 1494,
      "Ibrahi": 1495,
      "up": 1496,
      "FA": 1497,
      "16": 1498,
      "na ,": 1499,
      "bi ,": 1500,
      "mgbere": 1501,
      "Ife": 1502,
      "pase": 1503,
      "ahịhịa": 1504,
      "Sowore": 1505,
      "osimiri": 1506,
      "ad": 1507,
      "Ti": 1508,
      "ọk": 1509,
      "Is": 1510,
      "akụrụ": 1511,
      "mbụ .": 1512,
      "Fal": 1513,
      "ọjị": 1514,
      "Nwosu": 1515,
      "akụrụngwa": 1516,
      "mas": 1517,
      "ụbụ": 1518,
      "kwa ,": 1519,
      "ndị \"": 1520,
      "ndo": 1521,
      "sena": 1522,
      "Olu": 1523,
      "guzo": 1524,
      "nkịta": 1525,
      "ọkachasị": 1526,
      "National": 1527,
      "national": 1528,
      "mọnde": 1529,
      "pụrụiche": 1530,
      "US": 1531,
      "4 .": 1532,
      "bwe": 1533,
      "lani": 1534,
      "“ onye": 1535,
      "elo": 1536,
      "Zimba": 1537,
      "nrụrụ": 1538,
      "ịnyị": 1539,
      "Ihedioha": 1540,
      "Ibrahim": 1541,
      "Zimbabwe": 1542,
      "Ah": 1543,
      "by": 1544,
      "arụ": 1545,
      "ute": 1546,
      "zie": 1547,
      "rom": 1548,
      "s :": 1549,
      "ọkụ .": 1550,
      "Madu": 1551,
      "anambra ,": 1552,
      "Premi": 1553,
      "El-Zakzaky": 1554,
      "mkparịtaụka": 1555,
      "senatọ": 1556,
      "ON": 1557,
      "ule": 1558,
      "gen": 1559,
      "toba": 1560,
      "ọzụ": 1561,
      "ụfọdụ ,": 1562,
      "ọkafọ": 1563,
      "ọnwụ .": 1564,
      "izuụka": 1565,
      "Nai": 1566,
      "League": 1567,
      "30": 1568,
      "ụta": 1569,
      "kata": 1570,
      "Emma": 1571,
      "achị": 1572,
      "lic": 1573,
      "egwu .": 1574,
      "ọchịchị .": 1575,
      "maachị": 1576,
      "  \" ọ \"": 1577,
      "Port": 1578,
      "Harc": 1579,
      "International": 1580,
      "Harcourt": 1581,
      "12": 1582,
      "Ale": 1583,
      "bụ  \" ": 1584,
      "tọzde": 1585,
      "ọktoba": 1586,
      "bị": 1587,
      "cho": 1588,
      "nba": 1589,
      "sti": 1590,
      "otu ,": 1591,
      "otu .": 1592,
      "chite": 1593,
      "nchị": 1594,
      "ssa": 1595,
      "mita": 1596,
      "taa ,": 1597,
      "Jona": 1598,
      "Comm": 1599,
      "oriakụ": 1600,
      "Premier": 1601,
      "Bra": 1602,
      "gboro": 1603,
      "kiri": 1604,
      "stra": 1605,
      "ụnyaahụ": 1606,
      "nkwekọrịta": 1607,
      "Falcon": 1608,
      "1 .": 1609,
      "med": 1610,
      "Onye": 1611,
      "la ,": 1612,
      "afọ .": 1613,
      "ndi": 1614,
      "ya . ”": 1615,
      "ise .": 1616,
      "ncheta": 1617,
      "Mbaka": 1618,
      "nturu": 1619,
      "ọzụzụ": 1620,
      "Osinba": 1621,
      "Nwa": 1622,
      "ụma": 1623,
      "ihe \"": 1624,
      "ka \"": 1625,
      "Bro": 1626,
      "atọ ,": 1627,
      "ọkara": 1628,
      "Alex": 1629,
      "rd": 1630,
      "Yo": 1631,
      "rama": 1632,
      "na \"": 1633,
      "kuku": 1634,
      "2016": 1635,
      "mkpamkpa": 1636,
      "mpion": 1637,
      "Face": 1638,
      "David": 1639,
      "Air": 1640,
      "Emeka": 1641,
      "John": 1642,
      "ịnyịnya": 1643,
      "achịcha": 1644,
      "Ko": 1645,
      "MA": 1646,
      "te ,": 1647,
      "isi ,": 1648,
      "efe": 1649,
      "obodo .": 1650,
      "Wor": 1651,
      "ọgwụgwụ": 1652,
      "Came": 1653,
      "mgbanwe": 1654,
      "William": 1655,
      "nnewi": 1656,
      "agbidi": 1657,
      "Jonatha": 1658,
      "Camero": 1659,
      "Ana": 1660,
      "adị": 1661,
      "nha": 1662,
      "ekwu": 1663,
      "Mba": 1664,
      "mgbo": 1665,
      "re :": 1666,
      "Con": 1667,
      "ego .": 1668,
      "Bor": 1669,
      "ọbụla .": 1670,
      "niel": 1671,
      "agụma": 1672,
      "idemmiri": 1673,
      "DSS": 1674,
      "ikuku": 1675,
      "St": 1676,
      "Ai": 1677,
      "o \"": 1678,
      " , \"": 1679,
      "ebere": 1680,
      "mmi": 1681,
      "alth": 1682,
      "Robe": 1683,
      "ctor": 1684,
      "Abdu": 1685,
      "Fulani": 1686,
      "eh": 1687,
      "bụ .": 1688,
      "ren": 1689,
      "kwu .": 1690,
      "obibi": 1691,
      "Adi": 1692,
      "Ger": 1693,
      "Riva": 1694,
      "Fede": 1695,
      "julaị": 1696,
      "kansa": 1697,
      "Euro": 1698,
      "Abaribe": 1699,
      "Naija": 1700,
      "Osinbajo": 1701,
      "Champion": 1702,
      "Do": 1703,
      "bre": 1704,
      "mmasị": 1705,
      "“ ndị": 1706,
      "nzụ": 1707,
      "Del": 1708,
      "ves": 1709,
      "Timo": 1710,
      "ime .": 1711,
      "kọmiti": 1712,
      "ngwụcha": 1713,
      "ghụ": 1714,
      "Ut": 1715,
      "ndị ,": 1716,
      "Ara": 1717,
      "rie": 1718,
      "pte": 1719,
      "ubi": 1720,
      "nkọ": 1721,
      "okwu ,": 1722,
      "2 )": 1723,
      "nsogbu .": 1724,
      "Barc": 1725,
      "anwụrụ": 1726,
      "opekata": 1727,
      "Falcons": 1728,
      "aga": 1729,
      "tti": 1730,
      "nke \"": 1731,
      "Igbo": 1732,
      "pan": 1733,
      "hoo": 1734,
      "mbụ ,": 1735,
      "Umu": 1736,
      "nsu": 1737,
      "Eng": 1738,
      "saye": 1739,
      "Ben": 1740,
      "ụnyaahụ .": 1741,
      "ejije": 1742,
      "ụbụrụ": 1743,
      "nchịkọta": 1744,
      "Jonathan": 1745,
      "Barcelo": 1746,
      "3 ,": 1747,
      "mpu": 1748,
      "“ ihe": 1749,
      "ukwu .": 1750,
      "mgbakọ": 1751,
      "Donal": 1752,
      "bishọ": 1753,
      "odeakwụkwọ": 1754,
      "West": 1755,
      "North": 1756,
      "pita": 1757,
      "Plate": 1758,
      "nzụkọ": 1759,
      "Donald": 1760,
      "Plateau": 1761,
      "Iv": 1762,
      "Ye": 1763,
      "gra": 1764,
      "sia": 1765,
      "gbata": 1766,
      "ghị ,": 1767,
      "rọ ,": 1768,
      "inọ": 1769,
      "wa ,": 1770,
      "anu": 1771,
      "“ m": 1772,
      "Lon": 1773,
      "ọbụladị": 1774,
      "The": 1775,
      "ọgwụgwọ": 1776,
      "car": 1777,
      "ọjọọ .": 1778,
      "chafụ": 1779,
      "taa :": 1780,
      "France": 1781,
      "Umahi": 1782,
      "World": 1783,
      "Cameroon": 1784,
      "Ce": 1785,
      "2 .": 1786,
      "gboo": 1787,
      "“ n'": 1788,
      "mbodo": 1789,
      "Ser": 1790,
      "yin": 1791,
      "echichi": 1792,
      "Bay": 1793,
      "Robert": 1794,
      "ehihi": 1795,
      "Utd": 1796,
      "septe": 1797,
      "Barcelona": 1798,
      "asambodo": 1799,
      "IM": 1800,
      "ll": 1801,
      "Shi": 1802,
      "25": 1803,
      "ọna": 1804,
      "Gra": 1805,
      "tara": 1806,
      "Oba": 1807,
      "nọ .": 1808,
      "akwụkwọ ,": 1809,
      "  \" a": 1810,
      "kama ,": 1811,
      "100": 1812,
      "kraịst ,": 1813,
      "Aisha": 1814,
      "Rivas": 1815,
      "opekatampe": 1816,
      "Londo": 1817,
      "sho": 1818,
      "UK": 1819,
      "Fo": 1820,
      "r ,": 1821,
      "ncha": 1822,
      "kwụkwọ": 1823,
      "ọnụ ,": 1824,
      "thi": 1825,
      "nghọ": 1826,
      "mbido": 1827,
      "ogbenye": 1828,
      "sayensị": 1829,
      "ịchafụ": 1830,
      "agụmakwụkwọ": 1831,
      "cu": 1832,
      "Hu": 1833,
      "Tu": 1834,
      "cra": 1835,
      "Ibi": 1836,
      "ja ,": 1837,
      "nson": 1838,
      "jama": 1839,
      "amerịka .": 1840,
      "tten": 1841,
      "Christi": 1842,
      "adịgboro": 1843,
      "inọk": 1844,
      "toyin": 1845,
      "jamanị": 1846,
      "toyinbo": 1847,
      "tum": 1848,
      "ley": 1849,
      "mwu": 1850,
      "min": 1851,
      "ụzọ ,": 1852,
      "mkpa .": 1853,
      "2019 :": 1854,
      "afrịka .": 1855,
      "Real": 1856,
      "AFC": 1857,
      "rimara": 1858,
      "ssion": 1859,
      "____": 1860,
      "mgbochi": 1861,
      "Daniel": 1862,
      "Totten": 1863,
      "ep": 1864,
      "28": 1865,
      "oma": 1866,
      "6 ,": 1867,
      "ịhụ": 1868,
      "Abi": 1869,
      "chie": 1870,
      "dike": 1871,
      "ndịda": 1872,
      "ese": 1873,
      "mbịa": 1874,
      "oge ,": 1875,
      "biko": 1876,
      "ndu": 1877,
      "nuel": 1878,
      "jizọs ,": 1879,
      "nri ,": 1880,
      "2019 ,": 1881,
      "Demo": 1882,
      "book": 1883,
      "ọnụọgụgụ": 1884,
      "Shehu": 1885,
      "nturuugo": 1886,
      "Commi": 1887,
      "Delta": 1888,
      "ghụghọ": 1889,
      "Fatoyinbo": 1890,
      "AFCON": 1891,
      "ịhụna": 1892,
      "Facebook": 1893,
      "pp": 1894,
      "Lu": 1895,
      "vs": 1896,
      "ina": 1897,
      "r .": 1898,
      "gri": 1899,
      "nkụ": 1900,
      "egwu ,": 1901,
      "ụmụnna": 1902,
      "osika": 1903,
      "ekpere ,": 1904,
      " .  \" ọ \"": 1905,
      "arịrịọ": 1906,
      "Timoti": 1907,
      "aghụghọ": 1908,
      "AC": 1909,
      "ịdị": 1910,
      "kra": 1911,
      "gal": 1912,
      "si ,": 1913,
      "4 )": 1914,
      "ụzọ .": 1915,
      "agha ,": 1916,
      "amadi": 1917,
      "nwaada": 1918,
      "Sam": 1919,
      "Nigerian": 1920,
      "njirimara": 1921,
      "der": 1922,
      "lia": 1923,
      "mba ,": 1924,
      "dan": 1925,
      "kola": 1926,
      "ụbọchị ,": 1927,
      "elu .": 1928,
      "( n": 1929,
      "Agu": 1930,
      "muel": 1931,
      "ụdịrị": 1932,
      "Peop": 1933,
      "mmalite": 1934,
      "ọlaedo": 1935,
      "Ebre": 1936,
      "Tottenham": 1937,
      "Samuel": 1938,
      "AN": 1939,
      "Si": 1940,
      "z .": 1941,
      "are": 1942,
      "rena": 1943,
      "sina": 1944,
      "Ste": 1945,
      "sịga": 1946,
      "chi ,": 1947,
      "Dan": 1948,
      "bịa ,": 1949,
      "jehova ,": 1950,
      "ọkụ ,": 1951,
      "jizọs .": 1952,
      "zịza": 1953,
      "ise ,": 1954,
      "ọhụrụ .": 1955,
      "ama .": 1956,
      "nọve": 1957,
      "lement": 1958,
      "Election": 1959,
      "nrụrụaka": 1960,
      "Ahmed": 1961,
      "Champions": 1962,
      "Japan": 1963,
      "ekwensu": 1964,
      "mwute": 1965,
      "Emmanuel": 1966,
      "3 .": 1967,
      "rea": 1968,
      "Ola": 1969,
      "odo": 1970,
      "okwute": 1971,
      "ahụ ?": 1972,
      "para": 1973,
      "ọdịmma": 1974,
      "nkume": 1975,
      "onyeàmà": 1976,
      "cia": 1977,
      "Okon": 1978,
      "ress": 1979,
      "juun": 1980,
      "arịrị": 1981,
      "African": 1982,
      "Ifeanyi": 1983,
      "Brother": 1984,
      "bishọp": 1985,
      "ọnatara": 1986,
      "kana": 1987,
      "ba ,": 1988,
      "nọ ,": 1989,
      "wa .": 1990,
      "ụlọ ,": 1991,
      "ghara": 1992,
      "nụ .": 1993,
      "ose": 1994,
      "azu": 1995,
      "re ?": 1996,
      "gwon": 1997,
      "Joe": 1998,
      "Par": 1999
    },
    "merges": [
      "n a",
      "d ị",
      "k a",
      "m a",
      "  .",
      "n '",
      "b ụ",
      "  ,",
      "n dị",
      "k e",
      "r a",
      "m e",
      "h a",
      "r e",
      "na -",
      "t a",
      "ny e",
      "y a",
      "g a",
      "l a",
      "r i",
      "i h",
      "s i",
      "j i",
      "h ụ",
      "r ụ",
      "ih e",
      "kw u",
      "r ị",
      "r u",
      "b a",
      "kw a",
      "a ny",
      "t e",
      "na- a",
      "n ke",
      "a hụ",
      "t u",
      "nw e",
      "na- e",
      "gb a",
      "o nye",
      "gh ị",
      "b e",
      "t ụ",
      "d ụ",
      "t i",
      "ga -",
      "l e",
      "o tu",
      "b i",
      "z i",
      "any ị",
      "s ị",
      "p ụ",
      "m ma",
      "k ọ",
      "m ụ",
      "ch i",
      "ch e",
      "w e",
      "ch ị",
      "  \"",
      "z ọ",
      "a ka",
      "l ọ",
      "r ọ",
      "ch a",
      "n ọ",
      "d e",
      "k ụ",
      "n e",
      "d o",
      "nw a",
      "w a",
      "ụ lọ",
      "kw ụ",
      "g o",
      "f ọ",
      "gb u",
      "i si",
      "gh a",
      "mma dụ",
      "s a",
      "l i",
      "gb e",
      "e be",
      "i ke",
      "n ụ",
      "r o",
      "t ọ",
      "n i",
      "m gbe",
      "ma ka",
      "g e",
      "b u",
      "s o",
      "a la",
      "ị a",
      "ga- e",
      "gb o",
      "ụ mụ",
      "ga- a",
      "gw u",
      "i ri",
      "ọ rụ",
      "rị a",
      "  :",
      "kw e",
      "kp e",
      "ọ chị",
      "kp ọ",
      "e ti",
      "kp a",
      "any a",
      "a fọ",
      "m ba",
      "b o",
      "o kwu",
      "nw ụ",
      "d a",
      "ọ zọ",
      "s te",
      "g ị",
      "s e",
      "a kụ",
      "l u",
      "ch ọ",
      "g ọ",
      "na ị",
      "ji rịa",
      "naị jirịa",
      "kw ọ",
      "   \"",
      "o bi",
      "z u",
      "gw a",
      "d i",
      "a kwụ",
      "ne ke",
      "ste eti",
      "chi neke",
      "a n",
      "akwụ kwọ",
      "  \"  ",
      "j e",
      "  ?",
      "e zi",
      "i che",
      "a bụ",
      "n u",
      "b ịa",
      "i le",
      "o ke",
      "n t",
      "o ge",
      "ni ile",
      "g ụ",
      "tụ tụ",
      "  )",
      "v a",
      "w u",
      "k u",
      "ya  .",
      "abụ ọ",
      "akụ kọ",
      "dị ka",
      "k o",
      "m p",
      "s ọ",
      "f e",
      "m me",
      "ọ tụtụ",
      "“  ",
      "i gbo",
      "  ”",
      "o n",
      "nwa anyị",
      "bo do",
      "p u",
      "bụ l",
      "ị bụl",
      "d ọ",
      "ba ịbụl",
      "m i",
      "a  .",
      "gb ọ",
      "ọ nụ",
      "d u",
      "o bodo",
      "2 0",
      "e gwu",
      "h i",
      "ụ wa",
      "z e",
      "i kpe",
      "t o",
      "i wu",
      "ụ b",
      "ụb ọchị",
      "nt ị",
      "z ụ",
      "l ụ",
      "j ọ",
      "h o",
      "b ọ",
      "j ụ",
      "n dụ",
      "ahụ  .",
      "e go",
      "z ị",
      "o zi",
      "ih i",
      "ma na",
      "o ji",
      "u we",
      "u ha",
      "ọchị chị",
      "a  ,",
      "ụ zọ",
      "e r",
      "u kwu",
      "kp ụ",
      "ọ me",
      "gọ ọme",
      "e lu",
      "a ha",
      "onye isi",
      "oji i",
      "o nwe",
      "a tọ",
      "ya  ,",
      "fọ dụ",
      "nw oke",
      "ụ fọdụ",
      "kp o",
      "s ụ",
      "ha  .",
      "s t",
      "20 1",
      "ụ gbọ",
      "ọ ka",
      "ọ ma",
      "ahụ  ,",
      "bụ la",
      "n so",
      "e ze",
      "rị ka",
      " .  ”",
      "h ịa",
      "o r",
      "ho va",
      "ih u",
      "je hova",
      "a gha",
      "B uha",
      "Buha ri",
      "gw ụ",
      "ọ bụla",
      "n na",
      "g i",
      "ọ kụ",
      "p a",
      "(  ",
      "u gbu",
      "o lu",
      "o me",
      "ny o",
      "ma  ,",
      "u ru",
      "m kpa",
      "ụ ka",
      "m m",
      "gh ọ",
      "n ne",
      "e l",
      "nw u",
      "ọ nwa",
      "a na",
      "o le",
      "j u",
      "n ga",
      "j a",
      "n ta",
      "a sa",
      "zọ s",
      "ji zọs",
      "gw e",
      "p e",
      "m bụ",
      "gọọme ntị",
      "mm iri",
      "l ị",
      "y i",
      "va nọ",
      "mp i",
      "gọ vanọ",
      "gw ọ",
      "b ra",
      "M a",
      "  ;",
      "a ra",
      "n tụ",
      "n ị",
      "J o",
      "g u",
      "ma a",
      "z a",
      "a ba",
      "i se",
      "m o",
      "n dọ",
      "a hịa",
      "n k",
      "f u",
      "ndọ rọ",
      "o ko",
      "ezi okwu",
      "B B",
      "ny i",
      "h e",
      "c e",
      "m u",
      "a nụ",
      "tu pu",
      "i gwe",
      "ọ nwụ",
      "BB C",
      "a sọ",
      "m bra",
      "l o",
      "n ri",
      "ana mbra",
      "a zụ",
      "li aka",
      "ntụ liaka",
      "asọ mpi",
      "ch ụ",
      "ọ gba",
      "a tụ",
      "i we",
      "o kp",
      "nso gbu",
      "ọ gwụ",
      "i n",
      "a me",
      "ny a",
      "n kwa",
      "bọ ọ",
      "n che",
      "m gba",
      "nwu nye",
      "bọọ lụ",
      "re gwu",
      "egwu regwu",
      "e nu",
      "agha ra",
      " .   \" ",
      "a r",
      "i be",
      "ri a",
      "m mụ",
      "h ọ",
      "e tu",
      "ọ hụ",
      "ọhụ rụ",
      "u nu",
      "ọ kwa",
      "maa zị",
      "t h",
      "an ị",
      "na anị",
      "s u",
      "eti ti",
      "enu gwu",
      "ezi gbo",
      "n gwa",
      "sị  :",
      "a ma",
      "a f",
      "A P",
      "N i",
      "ch ukwu",
      "a l",
      "o u",
      "ọ jọ",
      "ọjọ ọ",
      "n de",
      "ụ tọ",
      "aba lị",
      "ra ị",
      "n ti",
      "gh i",
      "s ta",
      "Ch i",
      "be re",
      "e kpe",
      "ke mgbe",
      "201 9",
      "go olu",
      "na rị",
      "gị nị",
      "o l",
      "te r",
      "ụ gwọ",
      "Ni ge",
      "ame rịka",
      "ṅ ụ",
      "k ị",
      "ha  ,",
      "gi de",
      "z o",
      "0 0",
      "m bọ",
      "na l",
      "nke ji",
      "af rịka",
      "ọ rịa",
      "i l",
      "a kwa",
      "ọ nọ",
      "ọnọ dụ",
      "a gba",
      "o zu",
      "ti on",
      "ụ dị",
      "mp aghara",
      "n o",
      "nche kwa",
      "ọ sọ",
      "n je",
      "v i",
      "R o",
      "n ụlọ",
      "nga la",
      "ezi nụlọ",
      "gị  :",
      "k i",
      "AP C",
      "ngala ba",
      "n g",
      "u gwu",
      "pu ku",
      "gọọme nti",
      "D a",
      "ome iwu",
      "okp uru",
      "i t",
      "e bu",
      "ra  ,",
      "1 9",
      "isi i",
      "o si",
      "i ko",
      "ekpe re",
      "v e",
      "ọ dị",
      "u gbo",
      "nk iri",
      "n d",
      "kpụ rụ",
      "ụlọ ikpe",
      "m  ,",
      "gha rị",
      "i zu",
      "i mo",
      "m  .",
      "u che",
      "n ku",
      "a jụ",
      "n zu",
      "ụgbọ ala",
      "y e",
      "ọ gụ",
      "ajụ jụ",
      "pụ ta",
      "a sụ",
      "R e",
      "ole e",
      "raị st",
      "asụ sụ",
      "ka rị",
      "M an",
      "v er",
      "k raịst",
      "S u",
      "e hi",
      "mmụ ọ",
      "a da",
      "mu me",
      "e chi",
      "e  .",
      "atụ ma",
      "atụma tụ",
      "L i",
      "-  ",
      "n nu",
      "n sọ",
      "mme mme",
      "asa a",
      "M o",
      "ọ ba",
      "Jo se",
      "ụ kwụ",
      "o bere",
      "nga gharị",
      "an o",
      "ru  ,",
      "e  ,",
      "rị ọ",
      "le s",
      "ọzọ  .",
      "i k",
      "e kwe",
      "m kpụrụ",
      "n ka",
      "ụmụ aka",
      "anya  .",
      "I n",
      "re  .",
      "e nyi",
      "e gbe",
      "a gụ",
      "ra  .",
      "L a",
      "ọgba kọ",
      "f ụ",
      "C o",
      "na la",
      "be ke",
      "asa tọ",
      "H ara",
      "B oko",
      "à m",
      "ma nụ",
      "àm à",
      "S e",
      "Nige ria",
      "o f",
      "kp u",
      "nwa ta",
      "ugbo ro",
      "D P",
      "na i",
      "o fe",
      "ebu bo",
      "anụ manụ",
      "re  ,",
      "o kpo",
      "nje m",
      "i me",
      "ụ kọ",
      "p o",
      "ri s",
      "he re",
      "S a",
      "ro bịa",
      "o gi",
      "nku zi",
      "P e",
      "U ni",
      "nnu kwu",
      "nta akụkọ",
      "Hara m",
      "P DP",
      "N a",
      "c a",
      "i to",
      "p er",
      "L e",
      "ka ma",
      "ta  .",
      "h u",
      "u do",
      "aka  .",
      "ọ kpụ",
      "Jose f",
      "e ke",
      "ik ike",
      "a bịa",
      "ọ cha",
      "o ri",
      "anya nwụ",
      "pa ti",
      "ra n",
      "gọ s",
      "du m",
      "nai ra",
      "naịjirịa  .",
      "le gọs",
      "n jọ",
      "t ị",
      "okpo ro",
      "o here",
      "rị ta",
      "m kpọ",
      "o go",
      "w o",
      "F a",
      "ka nu",
      "ndị àmà",
      "a kpa",
      "hi e",
      "M uha",
      "ndọrọ ndọrọ",
      "  !",
      "ka rịa",
      "m kpe",
      "ito olu",
      "a bu",
      "A l",
      "beke e",
      "O B",
      "mma nụ",
      "ahụ hụ",
      "u s",
      "I P",
      "Muha mma",
      "E C",
      "e n",
      "ike  .",
      "ụkọ chukwu",
      "o che",
      "steeti  .",
      "mme ri",
      "rị  :",
      "E a",
      "a  :",
      "ofe si",
      "Muhamma du",
      "r y",
      " .  \"",
      "mi ni",
      "IP OB",
      "M u",
      "i je",
      "P a",
      "sa ụ",
      "m di",
      "ma ha",
      "ru  .",
      "niile  .",
      "p ọ",
      "mma  .",
      "u go",
      "ste r",
      "A ti",
      "o chi",
      "ụ tụtụ",
      "Ati ku",
      "ogi ge",
      "re l",
      "anya  ,",
      "ikpe azụ",
      "o nal",
      "B a",
      "ọ dụ",
      "a mụ",
      "okp u",
      "ụ ba",
      "nkwa do",
      "nzu kọ",
      "c i",
      "nk ị",
      "nt o",
      "ọ ha",
      "o so",
      "osi si",
      "Su per",
      "a m",
      "ọzọ  ,",
      "r t",
      "f i",
      "u so",
      "mmụ ta",
      "c o",
      "oso te",
      "ke re",
      "ga  ,",
      "A da",
      "mgba sa",
      "c k",
      "ga  .",
      "n ji",
      "anyị  .",
      "maha dum",
      "mkpọ rọ",
      "mini sta",
      "saụ t",
      "p ị",
      "te d",
      "sh ịa",
      "K a",
      "T ru",
      "obi ano",
      "ọ tọ",
      "di a",
      "O ko",
      "a ja",
      "dọ kị",
      "S o",
      "bụ  ,",
      "e le",
      "n da",
      "o ku",
      "a jọ",
      "elu igwe",
      "ome nala",
      "amụ ma",
      "B i",
      "sh ọ",
      "gbu ru",
      "me  .",
      "ọ dọ",
      "dọkị ta",
      "kọ mi",
      "il li",
      "A r",
      "okwu kwe",
      "ọma  .",
      "u r",
      "w ụ",
      "gb ụ",
      "anyị  ,",
      "nto robịa",
      "I N",
      "t y",
      "o p",
      "Ea g",
      "ọ hịa",
      "IN EC",
      "f o",
      "F C",
      "Tru mp",
      "vi d",
      "ike  ,",
      "  \"  . \"",
      "Uni ted",
      "N e",
      "o mume",
      "li te",
      "ro cha",
      "it y",
      "uso ro",
      "D e",
      " \"  \"",
      "baịbụl  .",
      "A f",
      "aka ra",
      "A de",
      "ihe  .",
      "la nd",
      "Eag les",
      "te n",
      "M i",
      "m ị",
      "echi che",
      "nna mdi",
      "v o",
      "ta n",
      "rụ  .",
      "ba ka",
      "me nt",
      "W illi",
      "sị  ,",
      "i z",
      "R i",
      "n nọ",
      "O bi",
      "akụ kụ",
      "ọ gọ",
      "obi  .",
      "ụlọ ụka",
      "ke dụ",
      "li k",
      "chineke  ,",
      "o d",
      "o  ,",
      "ọ w",
      "y ọ",
      "di o",
      "ọw ụwa",
      "j ị",
      "p t",
      "e de",
      "el se",
      "ma ra",
      "ọ fụ",
      "pọ l",
      "gh e",
      "c on",
      "ta  ,",
      "ọka cha",
      "Ch else",
      "a h",
      "ọ gbọ",
      "o hi",
      "C ity",
      "ka tọ",
      "kọ rịta",
      "iz rel",
      "katọ lik",
      "C a",
      "e nye",
      "so n",
      "chineke  .",
      "i yi",
      "o nyi",
      "e mume",
      "s s",
      "ochi e",
      "i de",
      "i ne",
      "a  ?",
      "n ihu",
      "ụ nya",
      "abu ja",
      "i r",
      "eziokwu  .",
      "Mo ha",
      "po ol",
      "ti onal",
      "enye maka",
      "20 0",
      "Li ver",
      "ori ri",
      "Liver pool",
      "s si",
      "i ji",
      "shịa l",
      "M e",
      "T o",
      "S ou",
      "a kị",
      "f ada",
      "so shịal",
      "o gbu",
      "ch u",
      "ọ la",
      "n tu",
      "z de",
      "ụgbọ elu",
      "o yi",
      "Af ri",
      "u l",
      "'  .",
      "o li",
      "ọka iwu",
      "a gu",
      "Chelse a",
      "onyi nye",
      "t ri",
      "ọ mụ",
      "okpu kpe",
      "isi  .",
      "an d",
      "mmadụ  .",
      "n tọ",
      "ala  .",
      "iche  .",
      "o nyo",
      "2019  .",
      " \" \"  ",
      "ne t",
      "a kpụ",
      "ọgba aghara",
      "onyo nyo",
      "ha m",
      "u me",
      "ọ  \"",
      "Man che",
      "Manche ster",
      "e ji",
      "aka  ,",
      "go dị",
      "mme d",
      "nwa nne",
      "w it",
      "ma ma",
      "E me",
      "a gwa",
      "ụlọ akwụkwọ",
      "ma du",
      "ụwa  .",
      "or t",
      "Sou th",
      "S ta",
      "b ri",
      "201 8",
      "Nw o",
      "n  ,",
      "abụọ  .",
      "J a",
      "e me",
      "oko rocha",
      "E l",
      "la  .",
      "o de",
      "rọ   \" ",
      "ny ụ",
      "cha s",
      "ọ nị",
      "m bere",
      "vo otu",
      "Ro chas",
      "ọnị cha",
      "i te",
      "f or",
      "ar c",
      "i a",
      "ra l",
      "ya  ?",
      "a gbọ",
      "ọchị ehi",
      "Ar se",
      "n  .",
      "ome ka",
      "mbere de",
      "A ba",
      "agbọ ghọ",
      "Arse nal",
      "ọ gbu",
      "E kwe",
      "akị rịka",
      "Moha mmed",
      "rụ  ,",
      "m bi",
      "“  ọ",
      "Pe ter",
      "iji pt",
      "w i",
      "'  ,",
      "a nọ",
      "ju u",
      "se tan",
      "kwa do",
      "o k",
      "k y",
      "1 0",
      "o  .",
      "ala  ,",
      "in g",
      "n họ",
      "K e",
      "00 0",
      "wit ter",
      "re madu",
      "Ekwe remadu",
      "s  .",
      "P re",
      "a sị",
      "ta a .",
      "atụ  ,",
      "ọka mmụta",
      "kọmi shọ",
      "omeka ome",
      "nhọ pụta",
      "A bu",
      "ọrụ  .",
      "E ze",
      "u ju",
      "i m",
      "B o",
      "c y",
      "s  ,",
      "ụwa  ,",
      "ozu gbo",
      "kọmishọ na",
      "j o",
      "ke le",
      "on g",
      "na eze",
      "eziokwu  ,",
      "ọba ra",
      "m kpu",
      "l y",
      "1  ,",
      " )  .",
      "o pe",
      "ọ  ,",
      "n le",
      "ọrụ  ,",
      "ọka ikpe",
      "ni gwe",
      "ọgụ gụ",
      "ogbu nigwe",
      "Sh e",
      "i ro",
      "ọha naeze",
      "W e",
      "Z a",
      "m pụ",
      "mp e",
      " . ”  )",
      "bo nyi",
      "ihe  ,",
      "ọ kpa",
      "a lụ",
      "B u",
      "1 4",
      "Ch a",
      "wa rị",
      "Jo h",
      "ọdị nihu",
      "gw o",
      "R a",
      "nyo cha",
      "eke le",
      "baịbụl  ,",
      "n chọ",
      " )  ,",
      "Chi na",
      "mkpe bi",
      "1 5",
      "ọ  .",
      "mma  ,",
      "mi dia",
      "B e",
      "G e",
      "O ke",
      "mmadụ  ,",
      "n kwe",
      "bịa f",
      "niile  ,",
      "ụ jọ",
      "ụlọ ọgwụ",
      "de vid",
      "_ _",
      "nwa yọ",
      "sa tọ",
      "N or",
      "a rị",
      "bi  .",
      "ụ da",
      "gị  ,",
      "c tion",
      "satọ de",
      "H a",
      "sh i",
      "S S",
      "ghị  .",
      "e zu",
      "S ara",
      "ụtọ  .",
      "Ch ris",
      "ma lite",
      "sh a",
      "N na",
      "bịa  .",
      "du na",
      "ah ị",
      "m ọ",
      "ụlọ akụ",
      "egwuregwu  ,",
      "ọdị nala",
      "ti us",
      "Le agu",
      "dị  ,",
      "obi  ,",
      "la ị",
      "201 7",
      "ele kere",
      "f a",
      "p h",
      "ri  .",
      "O si",
      "gị  .",
      "na   \" ",
      "j a .",
      "Ma r",
      "fu fe",
      "nzu zo",
      "La go",
      "ọfụ ma",
      "t ha",
      "Ch ukwu",
      "ọgbu gbu",
      "r s",
      "Z i",
      "ka n",
      "rị  .",
      "ekwe ntị",
      "tius de",
      "igbo  ,",
      "ọnụ  .",
      "nkị tị",
      "FC C",
      "Willi e",
      "B ri",
      "ụ gha",
      "naịjirịa  ,",
      "c an",
      "ụmụ nne",
      "ọgọ st",
      "ma n",
      "we r",
      "iche iche",
      "e wu",
      "abụọ  ,",
      "I he",
      "agụ mba",
      "F ran",
      "nchọ pụta",
      "D i",
      "bi a",
      "ije ri",
      "baka r",
      "n nyocha",
      "J e",
      "O r",
      "U ma",
      "n rụ",
      "pụ rụ",
      "U de",
      "P ro",
      "1  )",
      "m fe",
      "mkpe sa",
      "Ada m",
      "oli le",
      "T witter",
      "J u",
      "G u",
      "uru  .",
      "lo go",
      "Pa ul",
      "bri ten",
      "Abu bakar",
      "ogo logo",
      "gb i",
      "dị  .",
      "kọ ta",
      "u ro",
      "isi okwu",
      "chọ ọchị",
      "mme hie",
      "ọmụ mụ",
      "e bonyi",
      "kw o",
      "G A",
      "rọ  .",
      "c to",
      "atọ  .",
      "201 5",
      "nnọ ọ",
      "tri k",
      "ezu m",
      "E FCC",
      "N A",
      "o gbe",
      "ndị  )",
      "Sta te",
      "G o",
      "n go",
      "th er",
      "f raị",
      "sta te",
      "la trik",
      "fraị de",
      "A b",
      "2 3",
      "ọ ga",
      "pa pa",
      "mma nya",
      "Nige ri",
      "In ter",
      "ny ị",
      "2  ,",
      "d ri",
      "iche  ,",
      "atụ rụ",
      "ofesi  ,",
      "Ne w",
      "se net",
      "nwayọ ọ",
      "me ri",
      "oko robịa",
      "El -",
      "gbi di",
      "p i",
      "F e",
      "I ke",
      "ha b",
      "m be",
      "nwa afọ",
      "“  a",
      "m gbọ",
      "k za",
      "ọ ṅụ",
      "Za kza",
      "Zakza ky",
      ". .",
      "y o",
      "A u",
      "G a",
      "1 7",
      "ga be",
      "nu e",
      "  - ",
      "a gbụ",
      "Sara ki",
      "Mu gabe",
      "ta a",
      "rị  ,",
      "ọ da",
      "t on",
      "rịta ụka",
      "o fufe",
      "T a",
      "n sị",
      "okwu  .",
      "nwụ  .",
      "m ọdụ",
      "Lago s",
      "akwụkwọ  .",
      "ọma  ,",
      "ndụ mọdụ",
      "1 8",
      "n'  \"",
      "e fu",
      "t he",
      "ra tion",
      "agụ ụ",
      "fo to",
      "bịaf ra",
      "be nue",
      "ụ ra",
      "ti c",
      "ni a",
      "mme kọrịta",
      "Afri ca",
      "AP GA",
      "ezum ike",
      "F u",
      "H e",
      "mme pe",
      "ọkpa ra",
      "ka duna",
      "ri be",
      "E le",
      "anyị  \"",
      " ?  ”",
      "jehova  .",
      "Ma dri",
      "Madri d",
      "i ru",
      "mgbe de",
      "mba  .",
      "oke nye",
      "dọ la",
      "ndụ  .",
      "ọkụ kọ",
      "ou rt",
      "a u",
      "N o",
      "1 3",
      "a nwụ",
      "nji kere",
      "o wer",
      "R u",
      "A ma",
      "ne ti",
      "ọ kpọ",
      "igbo  .",
      "ị nta",
      "19 9",
      "o hu",
      "So wo",
      "ọkacha mara",
      "ịnta neti",
      "T e",
      "W a",
      "me  ,",
      "i fe",
      "nka ta",
      "olile anya",
      "ọda chi",
      "l d",
      "ụ tụ",
      "ọ kọ",
      "m bu",
      "m iri",
      "steeti  ,",
      "I bra",
      "kị rị",
      "ọdị da",
      "ọba sa",
      "Ihe dio",
      "ọbasa njọ",
      "A S",
      "V i",
      "ji ji",
      "e do",
      "nwaanyị  .",
      "s pe",
      "we ne",
      "gu n",
      "agbụ rụ",
      "k  ,",
      "any i",
      "o mi",
      "gburu gburu",
      "wene zde",
      "q u",
      "l la",
      "ri  ,",
      "la te",
      "sị  .",
      "n rọ",
      "agha  .",
      "n gwụ",
      "Gh ana",
      "Ibra hi",
      "u p",
      "F A",
      "1 6",
      "na  ,",
      "bi  ,",
      "mgbe re",
      "I fe",
      "pa se",
      "ahị hịa",
      "Sowo re",
      "osi miri",
      "a d",
      "T i",
      "ọ k",
      "I s",
      "akụ rụ",
      "mbụ  .",
      "F al",
      "ọ jị",
      "Nwo su",
      "akụrụ ngwa",
      "ma s",
      "ụ bụ",
      "kwa  ,",
      "ndị  \"",
      "n do",
      "se na",
      "O lu",
      "gu zo",
      "nkị ta",
      "ọkacha sị",
      "Na tional",
      "na tional",
      "mọ nde",
      "pụrụ iche",
      "U S",
      "4  .",
      "b we",
      "la ni",
      "“  onye",
      "el o",
      "Zi mba",
      "nrụ rụ",
      "ị nyị",
      "Ihedio ha",
      "Ibrahi m",
      "Zimba bwe",
      "A h",
      "b y",
      "a rụ",
      "u te",
      "zi e",
      "ro m",
      "s  :",
      "ọkụ  .",
      "Ma du",
      "anambra  ,",
      "Pre mi",
      "El- Zakzaky",
      "mkpa rịtaụka",
      "sena tọ",
      "O N",
      "u le",
      "ge n",
      "to ba",
      "ọ zụ",
      "ụfọdụ  ,",
      "ọka fọ",
      "ọnwụ  .",
      "izu ụka",
      "Na i",
      "Leagu e",
      "3 0",
      "ụ ta",
      "ka ta",
      "E mma",
      "a chị",
      "li c",
      "egwu  .",
      "ọchịchị  .",
      "maa chị",
      "  \"  ọ \"",
      "P ort",
      "H arc",
      "Inter national",
      "Harc ourt",
      "1 2",
      "A le",
      "bụ   \" ",
      "tọ zde",
      "ọk toba",
      "b ị",
      "ch o",
      "n ba",
      "s ti",
      "otu  ,",
      "otu  .",
      "chi te",
      "n chị",
      "s sa",
      "mi ta",
      "ta a ,",
      "Jo na",
      "Co mm",
      "ori akụ",
      "Premi er",
      "B ra",
      "gbo ro",
      "k iri",
      "st ra",
      "ụnya ahụ",
      "nkwe kọrịta",
      "Fal con",
      "1  .",
      "me d",
      "O nye",
      "la  ,",
      "afọ  .",
      "n di",
      "ya .  ”",
      "ise  .",
      "nche ta",
      "M baka",
      "ntu ru",
      "ọzụ zụ",
      "Osi nba",
      "Nw a",
      "ụ ma",
      "ihe  \"",
      "ka  \"",
      "B ro",
      "atọ  ,",
      "ọka ra",
      "Ale x",
      "r d",
      "Y o",
      "ra ma",
      "na  \"",
      "ku ku",
      "201 6",
      "mkpa mkpa",
      "mpi on",
      "Fa ce",
      "Da vid",
      "A ir",
      "Eme ka",
      "Joh n",
      "ịnyị nya",
      "achị cha",
      "K o",
      "M A",
      "te  ,",
      "isi  ,",
      "e fe",
      "obodo  .",
      "W or",
      "ọgwụ gwụ",
      "C ame",
      "mgba nwe",
      "Willi am",
      "nne wi",
      "a gbidi",
      "Jona tha",
      "Came ro",
      "A na",
      "a dị",
      "n ha",
      "e kwu",
      "M ba",
      "m gbo",
      "re  :",
      "C on",
      "ego  .",
      "B or",
      "ọbụla  .",
      "ni el",
      "agụ ma",
      "ide mmiri",
      "D SS",
      "i kuku",
      "S t",
      "A i",
      "o  \"",
      " ,  \"",
      "ebe re",
      "m mi",
      "al th",
      "Ro be",
      "cto r",
      "Ab du",
      "Fu lani",
      "e h",
      "bụ  .",
      "re n",
      "kwu  .",
      "obi bi",
      "A di",
      "G er",
      "Ri va",
      "F ede",
      "ju laị",
      "kan sa",
      "E uro",
      "Aba ribe",
      "Nai ja",
      "Osinba jo",
      "Cha mpion",
      "D o",
      "b re",
      "mma sị",
      "“  ndị",
      "n zụ",
      "D el",
      "ve s",
      "T imo",
      "ime  .",
      "kọmi ti",
      "ngwụ cha",
      "gh ụ",
      "U t",
      "ndị  ,",
      "A ra",
      "ri e",
      "p te",
      "u bi",
      "n kọ",
      "okwu  ,",
      "2  )",
      "nsogbu  .",
      "B arc",
      "anwụ rụ",
      "ope kata",
      "Falcon s",
      "a ga",
      "t ti",
      "nke  \"",
      "I gbo",
      "p an",
      "ho o",
      "mbụ  ,",
      "U mu",
      "n su",
      "E ng",
      "sa ye",
      "B en",
      "ụnya ahụ .",
      "eji je",
      "ụbụ rụ",
      "nchị kọta",
      "Jonatha n",
      "Barc elo",
      "3  ,",
      "mp u",
      "“  ihe",
      "ukwu  .",
      "mgba kọ",
      "D onal",
      "bi shọ",
      "ode akwụkwọ",
      "We st",
      "Nor th",
      "pi ta",
      "P late",
      "nzụ kọ",
      "Donal d",
      "Plate au",
      "I v",
      "Y e",
      "g ra",
      "si a",
      "gba ta",
      "ghị  ,",
      "rọ  ,",
      "i nọ",
      "wa  ,",
      "an u",
      "“  m",
      "L on",
      "ọbụla dị",
      "T he",
      "ọgwụ gwọ",
      "c ar",
      "ọjọọ  .",
      "cha fụ",
      "ta a :",
      "Fran ce",
      "Uma hi",
      "Wor ld",
      "Camero on",
      "C e",
      "2  .",
      "gbo o",
      "“  n'",
      "m bodo",
      "S er",
      "yi n",
      "echi chi",
      "Ba y",
      "Robe rt",
      "eh ihi",
      "Ut d",
      "se pte",
      "Barcelo na",
      "asa mbodo",
      "I M",
      "l l",
      "Sh i",
      "2 5",
      "ọ na",
      "G ra",
      "ta ra",
      "O ba",
      "nọ  .",
      "akwụkwọ  ,",
      "  \"  a",
      "ka ma ,",
      "1 00",
      "kraịst  ,",
      "Ai sha",
      "Riva s",
      "opekata mpe",
      "Lon do",
      "sh o",
      "U K",
      "F o",
      "r  ,",
      "n cha",
      "kwụ kwọ",
      "ọnụ  ,",
      "t hi",
      "n ghọ",
      "mbi do",
      "ogbe nye",
      "saye nsị",
      "ị chafụ",
      "agụma kwụkwọ",
      "c u",
      "H u",
      "T u",
      "c ra",
      "I bi",
      "j a ,",
      "nso n",
      "ja ma",
      "amerịka  .",
      "t ten",
      "Chris ti",
      "adị gboro",
      "inọ k",
      "to yin",
      "jama nị",
      "toyin bo",
      "tu m",
      "le y",
      "m wu",
      "mi n",
      "ụzọ  ,",
      "mkpa  .",
      "2019  :",
      "afrịka  .",
      "Re al",
      "A FC",
      "ri mara",
      "ssi on",
      "__ __",
      "mgbo chi",
      "Da niel",
      "To tten",
      "e p",
      "2 8",
      "o ma",
      "6  ,",
      "ị hụ",
      "A bi",
      "chi e",
      "d ike",
      "ndị da",
      "e se",
      "m bịa",
      "oge  ,",
      "bi ko",
      "n du",
      "nu el",
      "jizọs  ,",
      "nri  ,",
      "2019  ,",
      "De mo",
      "bo ok",
      "ọnụ ọgụgụ",
      "She hu",
      "nturu ugo",
      "Co mmi",
      "Del ta",
      "ghụ ghọ",
      "Fa toyinbo",
      "AFC ON",
      "ịhụ na",
      "Face book",
      "p p",
      "L u",
      "v s",
      "i na",
      "r  .",
      "g ri",
      "n kụ",
      "egwu  ,",
      "ụmụ nna",
      "osi ka",
      "ekpere  ,",
      " .  \"  ọ \"",
      "arị rịọ",
      "Timo ti",
      "a ghụghọ",
      "A C",
      "ị dị",
      "k ra",
      "ga l",
      "si  ,",
      "4  )",
      "ụzọ  .",
      "agha  ,",
      "ama di",
      "nwa ada",
      "Sa m",
      "Nigeri an",
      "nji rimara",
      "de r",
      "li a",
      "mba  ,",
      "da n",
      "ko la",
      "ụbọchị  ,",
      "elu  .",
      "(  n",
      "A gu",
      "mu el",
      "ụdị rị",
      "Pe op",
      "mma lite",
      "ọla edo",
      "E bre",
      "Totten ham",
      "Sa muel",
      "A N",
      "S i",
      "z  .",
      "a re",
      "re na",
      "si na",
      "S te",
      "sị ga",
      "chi  ,",
      "D an",
      "bịa  ,",
      "jehova  ,",
      "ọkụ  ,",
      "jizọs  .",
      "zị za",
      "ise  ,",
      "ọhụrụ  .",
      "ama  .",
      "nọ ve",
      "le ment",
      "Ele ction",
      "nrụrụ aka",
      "Ah med",
      "Champion s",
      "Ja pan",
      "ekwe nsu",
      "mwu te",
      "Emma nuel",
      "3  .",
      "re a",
      "O la",
      "o do",
      "okwu te",
      "ahụ  ?",
      "pa ra",
      "ọdị mma",
      "nku me",
      "onye àmà",
      "ci a",
      "Oko n",
      "re ss",
      "juu n",
      "arị rị",
      "Afri can",
      "Ife anyi",
      "Bro ther",
      "bishọ p",
      "ọna tara",
      "ka na",
      "ba  ,",
      "nọ  ,",
      "wa  .",
      "ụlọ  ,",
      "gha ra",
      "nụ  .",
      "o se",
      "a zu",
      "re  ?",
      "gw on",
      "Jo e",
      "P ar"
    ]
  }
}