{
  "version": "1.0",
  "truncation": null,
  "padding": null,
  "added_tokens": [
    {
      "id": 0,
      "content": "<unk>",
      "single_word": false,
      "lstrip": false,
      "rstrip": false,
      "normalized": false,
      "special": true
    },
    {
      "id": 1,
      "content": "<s>",
      "single_word": false,
      "lstrip": false,
      "rstrip": false,
      "normalized": false,
      "special": true
    },
    {
      "id": 2,
      "content": "</s>",
      "single_word": false,
      "lstrip": false,
      "rstrip": false,
      "normalized": false,
      "special": true
    },
    {
      "id": 3,
      "content": "<pad>",
      "single_word": false,
      "lstrip": false,
      "rstrip": false,
      "normalized": false,
      "special": true
    },
    {
      "id": 4,
      "content": "<mask morph>",
      "single_word": false,
      "lstrip": false,
      "rstrip": false,
      "normalized": false,
      "special": true
    }
  ],
  "normalizer": {
    "type": "NFC"
  },
  "pre_tokenizer": {
    "type": "Whitespace"
  },
  "post_processor": null,
  "decoder": {
    "type": "BPEDecoder"
  },
  "model": {
    "type": "BPE",
    "dropout": null,
    "unk_token": "<unk>",
    "continuing_subword_prefix": null,
    "end_of_word_suffix": null,
    "fuse_unk": false,
    "vocab": {
      "<unk>": 0,
      "<s>": 1,
      "</s>": 2,
      "<pad>": 3,
      "<mask morph>": 4,
      " ": 5,
      "!": 6,
      "\"": 7,
      "#": 8,
      "$": 9,
      "%": 10,
      "&": 11,
      "'": 12,
      "(": 13,
      ")": 14,
      "*": 15,
      ",": 16,
      "-": 17,
      ".": 18,
      "/": 19,
      "0": 20,
      "1": 21,
      "2": 22,
      "3": 23,
      "4": 24,
      "5": 25,
      "6": 26,
      "7": 27,
      "8": 28,
      "9": 29,
      ":": 30,
      ";": 31,
      "<": 32,
      "=": 33,
      ">": 34,
      "?": 35,
      "@": 36,
      "A": 37,
      "B": 38,
      "C": 39,
      "CH": 40,
      "Ch": 41,
      "D": 42,
      "E": 43,
      "F": 44,
      "G": 45,
      "GB": 46,
      "Gb": 47,
      "Gh": 48,
      "Gw": 49,
      "H": 50,
      "I": 51,
      "J": 52,
      "K": 53,
      "KP": 54,
      "Kp": 55,
      "Kw": 56,
      "L": 57,
      "M": 58,
      "N": 59,
      "NW": 60,
      "NY": 61,
      "Nw": 62,
      "Ny": 63,
      "O": 64,
      "P": 65,
      "Q": 66,
      "R": 67,
      "S": 68,
      "SH": 69,
      "Sh": 70,
      "T": 71,
      "U": 72,
      "V": 73,
      "W": 74,
      "X": 75,
      "Y": 76,
      "Z": 77,
      "[": 78,
      "]": 79,
      "^": 80,
      "_": 81,
      "`": 82,
      "a": 83,
      "b": 84,
      "c": 85,
      "ch": 86,
      "d": 87,
      "e": 88,
      "f": 89,
      "g": 90,
      "gb": 91,
      "gh": 92,
      "gw": 93,
      "h": 94,
      "i": 95,
      "j": 96,
      "k": 97,
      "kp": 98,
      "kw": 99,
      "l": 100,
      "m": 101,
      "n": 102,
      "nw": 103,
      "ny": 104,
      "o": 105,
      "p": 106,
      "q": 107,
      "r": 108,
      "s": 109,
      "sh": 110,
      "t": 111,
      "u": 112,
      "v": 113,
      "w": 114,
      "x": 115,
      "y": 116,
      "z": 117,
      "{": 118,
      "|": 119,
      "}": 120,
      "£": 121,
      "®": 122,
      "·": 123,
      "É": 124,
      "Ö": 125,
      "×": 126,
      "à": 127,
      "á": 128,
      "ã": 129,
      "ä": 130,
      "å": 131,
      "æ": 132,
      "ç": 133,
      "è": 134,
      "é": 135,
      "ì": 136,
      "í": 137,
      "ï": 138,
      "ñ": 139,
      "ó": 140,
      "ô": 141,
      "ö": 142,
      "ø": 143,
      "ù": 144,
      "ú": 145,
      "ü": 146,
      "ć": 147,
      "č": 148,
      "ğ": 149,
      "ń": 150,
      "ş": 151,
      "š": 152,
      "ż": 153,
      "ž": 154,
      "̀": 155,
      "́": 156,
      "ׁ": 157,
      "ה": 158,
      "נ": 159,
      "פ": 160,
      "ש": 161,
      "ṅ": 162,
      "ạ": 163,
      "ẹ": 164,
      "Ị": 165,
      "ị": 166,
      "Ọ": 167,
      "ọ": 168,
      "Ụ": 169,
      "ụ": 170,
      "–": 171,
      "—": 172,
      "‘": 173,
      "’": 174,
      "“": 175,
      "”": 176,
      "•": 177,
      "₦": 178,
      "€": 179,
      "■": 180,
      "●": 181,
      "": 182,
      "na": 183,
      "dị": 184,
      "ka": 185,
      "ma": 186,
      " .": 187,
      "n'": 188,
      "bụ": 189,
      " ,": 190,
      "ndị": 191,
      "ke": 192,
      "ra": 193,
      "me": 194,
      "ha": 195,
      "re": 196,
      "na-": 197,
      "ta": 198,
      "nye": 199,
      "ya": 200,
      "ga": 201,
      "la": 202,
      "ri": 203,
      "ih": 204,
      "si": 205,
      "ji": 206,
      "hụ": 207,
      "rụ": 208,
      "ihe": 209,
      "kwu": 210,
      "rị": 211,
      "ru": 212,
      "ba": 213,
      "kwa": 214,
      "any": 215,
      "te": 216,
      "na-a": 217,
      "nke": 218,
      "ahụ": 219,
      "tu": 220,
      "nwe": 221,
      "na-e": 222,
      "gba": 223,
      "onye": 224,
      "ghị": 225,
      "be": 226,
      "tụ": 227,
      "dụ": 228,
      "ti": 229,
      "ga-": 230,
      "le": 231,
      "otu": 232,
      "bi": 233,
      "zi": 234,
      "anyị": 235,
      "sị": 236,
      "pụ": 237,
      "mma": 238,
      "kọ": 239,
      "mụ": 240,
      "chi": 241,
      "che": 242,
      "we": 243,
      "chị": 244,
      " \"": 245,
      "zọ": 246,
      "aka": 247,
      "lọ": 248,
      "rọ": 249,
      "cha": 250,
      "nọ": 251,
      "de": 252,
      "kụ": 253,
      "ne": 254,
      "do": 255,
      "nwa": 256,
      "wa": 257,
      "ụlọ": 258,
      "kwụ": 259,
      "go": 260,
      "fọ": 261,
      "gbu": 262,
      "isi": 263,
      "gha": 264,
      "mmadụ": 265,
      "sa": 266,
      "li": 267,
      "gbe": 268,
      "ebe": 269,
      "ike": 270,
      "nụ": 271,
      "ro": 272,
      "tọ": 273,
      "ni": 274,
      "mgbe": 275,
      "maka": 276,
      "ge": 277,
      "bu": 278,
      "so": 279,
      "ala": 280,
      "ịa": 281,
      "ga-e": 282,
      "gbo": 283,
      "ụmụ": 284,
      "ga-a": 285,
      "gwu": 286,
      "iri": 287,
      "ọrụ": 288,
      "rịa": 289,
      " :": 290,
      "kwe": 291,
      "kpe": 292,
      "ọchị": 293,
      "kpọ": 294,
      "eti": 295,
      "kpa": 296,
      "anya": 297,
      "afọ": 298,
      "mba": 299,
      "bo": 300,
      "okwu": 301,
      "nwụ": 302,
      "da": 303,
      "ọzọ": 304,
      "ste": 305,
      "gị": 306,
      "se": 307,
      "akụ": 308,
      "lu": 309,
      "chọ": 310,
      "gọ": 311,
      "naị": 312,
      "jirịa": 313,
      "naịjirịa": 314,
      "kwọ": 315,
      "  \"": 316,
      "obi": 317,
      "zu": 318,
      "gwa": 319,
      "di": 320,
      "akwụ": 321,
      "neke": 322,
      "steeti": 323,
      "chineke": 324,
      "an": 325,
      "akwụkwọ": 326,
      "  \" ": 327,
      "je": 328,
      " ?": 329,
      "ezi": 330,
      "iche": 331,
      "abụ": 332,
      "nu": 333,
      "bịa": 334,
      "ile": 335,
      "oke": 336,
      "nt": 337,
      "oge": 338,
      "niile": 339,
      "gụ": 340,
      "tụtụ": 341,
      " )": 342,
      "va": 343,
      "wu": 344,
      "ku": 345,
      "ya .": 346,
      "abụọ": 347,
      "akụkọ": 348,
      "dịka": 349,
      "ko": 350,
      "mp": 351,
      "sọ": 352,
      "fe": 353,
      "mme": 354,
      "ọtụtụ": 355,
      "“ ": 356,
      "igbo": 357,
      " ”": 358,
      "on": 359,
      "nwaanyị": 360,
      "bodo": 361,
      "pu": 362,
      "bụl": 363,
      "ịbụl": 364,
      "dọ": 365,
      "baịbụl": 366,
      "mi": 367,
      "a .": 368,
      "gbọ": 369,
      "ọnụ": 370,
      "du": 371,
      "obodo": 372,
      "20": 373,
      "egwu": 374,
      "hi": 375,
      "ụwa": 376,
      "ze": 377,
      "ikpe": 378,
      "to": 379,
      "iwu": 380,
      "ụb": 381,
      "ụbọchị": 382,
      "ntị": 383,
      "zụ": 384,
      "lụ": 385,
      "jọ": 386,
      "ho": 387,
      "bọ": 388,
      "jụ": 389,
      "ndụ": 390,
      "ahụ .": 391,
      "ego": 392,
      "zị": 393,
      "ozi": 394,
      "ihi": 395,
      "mana": 396,
      "oji": 397,
      "uwe": 398,
      "uha": 399,
      "ọchịchị": 400,
      "a ,": 401,
      "ụzọ": 402,
      "er": 403,
      "ukwu": 404,
      "kpụ": 405,
      "ọme": 406,
      "gọọme": 407,
      "elu": 408,
      "aha": 409,
      "onyeisi": 410,
      "ojii": 411,
      "onwe": 412,
      "atọ": 413,
      "ya ,": 414,
      "fọdụ": 415,
      "nwoke": 416,
      "ụfọdụ": 417,
      "kpo": 418,
      "sụ": 419,
      "ha .": 420,
      "st": 421,
      "201": 422,
      "ụgbọ": 423,
      "ọka": 424,
      "ọma": 425,
      "ahụ ,": 426,
      "bụla": 427,
      "nso": 428,
      "eze": 429,
      "rịka": 430,
      " . ”": 431,
      "hịa": 432,
      "or": 433,
      "hova": 434,
      "ihu": 435,
      "jehova": 436,
      "agha": 437,
      "Buha": 438,
      "Buhari": 439,
      "gwụ": 440,
      "ọbụla": 441,
      "nna": 442,
      "gi": 443,
      "ọkụ": 444,
      "pa": 445,
      "( ": 446,
      "ugbu": 447,
      "olu": 448,
      "ome": 449,
      "nyo": 450,
      "ma ,": 451,
      "uru": 452,
      "mkpa": 453,
      "ụka": 454,
      "mm": 455,
      "ghọ": 456,
      "nne": 457,
      "el": 458,
      "nwu": 459,
      "ọnwa": 460,
      "ana": 461,
      "ole": 462,
      "ju": 463,
      "nga": 464,
      "ja": 465,
      "nta": 466,
      "asa": 467,
      "zọs": 468,
      "jizọs": 469,
      "gwe": 470,
      "pe": 471,
      "mbụ": 472,
      "gọọmentị": 473,
      "mmiri": 474,
      "lị": 475,
      "yi": 476,
      "vanọ": 477,
      "mpi": 478,
      "gọvanọ": 479,
      "gwọ": 480,
      "bra": 481,
      "Ma": 482,
      " ;": 483,
      "ara": 484,
      "ntụ": 485,
      "nị": 486,
      "Jo": 487,
      "gu": 488,
      "maa": 489,
      "za": 490,
      "aba": 491,
      "ise": 492,
      "mo": 493,
      "ndọ": 494,
      "ahịa": 495,
      "nk": 496,
      "fu": 497,
      "ndọrọ": 498,
      "oko": 499,
      "eziokwu": 500,
      "BB": 501,
      "nyi": 502,
      "he": 503,
      "ce": 504,
      "mu": 505,
      "anụ": 506,
      "tupu": 507,
      "igwe": 508,
      "ọnwụ": 509,
      "BBC": 510,
      "asọ": 511,
      "mbra": 512,
      "lo": 513,
      "nri": 514,
      "anambra": 515,
      "azụ": 516,
      "liaka": 517,
      "ntụliaka": 518,
      "asọmpi": 519,
      "chụ": 520,
      "ọgba": 521,
      "atụ": 522,
      "iwe": 523,
      "okp": 524,
      "nsogbu": 525,
      "ọgwụ": 526,
      "in": 527,
      "ame": 528,
      "nya": 529,
      "nkwa": 530,
      "bọọ": 531,
      "nche": 532,
      "mgba": 533,
      "nwunye": 534,
      "bọọlụ": 535,
      "regwu": 536,
      "egwuregwu": 537,
      "enu": 538,
      "aghara": 539,
      " .  \" ": 540,
      "ar": 541,
      "ibe": 542,
      "ria": 543,
      "mmụ": 544,
      "họ": 545,
      "etu": 546,
      "ọhụ": 547,
      "ọhụrụ": 548,
      "unu": 549,
      "ọkwa": 550,
      "maazị": 551,
      "th": 552,
      "anị": 553,
      "naanị": 554,
      "su": 555,
      "etiti": 556,
      "enugwu": 557,
      "ezigbo": 558,
      "ngwa": 559,
      "sị :": 560,
      "ama": 561,
      "af": 562,
      "AP": 563,
      "Ni": 564,
      "chukwu": 565,
      "al": 566,
      "ou": 567,
      "ọjọ": 568,
      "ọjọọ": 569,
      "nde": 570,
      "ụtọ": 571,
      "abalị": 572,
      "raị": 573,
      "nti": 574,
      "ghi": 575,
      "sta": 576,
      "Chi": 577,
      "bere": 578,
      "ekpe": 579,
      "kemgbe": 580,
      "2019": 581,
      "goolu": 582,
      "narị": 583,
      "gịnị": 584,
      "ol": 585,
      "ter": 586,
      "ụgwọ": 587,
      "Nige": 588,
      "amerịka": 589,
      "ṅụ": 590,
      "kị": 591,
      "ha ,": 592,
      "gide": 593,
      "zo": 594,
      "00": 595,
      "mbọ": 596,
      "nal": 597,
      "nkeji": 598,
      "afrịka": 599,
      "ọrịa": 600,
      "il": 601,
      "akwa": 602,
      "ọnọ": 603,
      "ọnọdụ": 604,
      "agba": 605,
      "ozu": 606,
      "tion": 607,
      "ụdị": 608,
      "mpaghara": 609,
      "no": 610,
      "nchekwa": 611,
      "ọsọ": 612,
      "nje": 613,
      "vi": 614,
      "Ro": 615,
      "nụlọ": 616,
      "ngala": 617,
      "ezinụlọ": 618,
      "gị :": 619,
      "ki": 620,
      "APC": 621,
      "ngalaba": 622,
      "ng": 623,
      "ugwu": 624,
      "puku": 625,
      "gọọmenti": 626,
      "Da": 627,
      "omeiwu": 628,
      "okpuru": 629,
      "it": 630,
      "ebu": 631,
      "ra ,": 632,
      "19": 633,
      "isii": 634,
      "osi": 635,
      "iko": 636,
      "ekpere": 637,
      "ve": 638,
      "ọdị": 639,
      "ugbo": 640,
      "nkiri": 641,
      "nd": 642,
      "kpụrụ": 643,
      "ụlọikpe": 644,
      "m ,": 645,
      "gharị": 646,
      "izu": 647,
      "imo": 648,
      "m .": 649,
      "uche": 650,
      "nku": 651,
      "ajụ": 652,
      "nzu": 653,
      "ụgbọala": 654,
      "ye": 655,
      "ọgụ": 656,
      "ajụjụ": 657,
      "pụta": 658,
      "asụ": 659,
      "Re": 660,
      "olee": 661,
      "raịst": 662,
      "asụsụ": 663,
      "karị": 664,
      "Man": 665,
      "ver": 666,
      "kraịst": 667,
      "Su": 668,
      "ehi": 669,
      "mmụọ": 670,
      "ada": 671,
      "mume": 672,
      "echi": 673,
      "e .": 674,
      "atụma": 675,
      "atụmatụ": 676,
      "Li": 677,
      "- ": 678,
      "nnu": 679,
      "nsọ": 680,
      "mmemme": 681,
      "asaa": 682,
      "Mo": 683,
      "ọba": 684,
      "Jose": 685,
      "ụkwụ": 686,
      "obere": 687,
      "ngagharị": 688,
      "ano": 689,
      "ru ,": 690,
      "e ,": 691,
      "rịọ": 692,
      "les": 693,
      "ọzọ .": 694,
      "ik": 695,
      "ekwe": 696,
      "mkpụrụ": 697,
      "nka": 698,
      "ụmụaka": 699,
      "anya .": 700,
      "In": 701,
      "re .": 702,
      "enyi": 703,
      "egbe": 704,
      "agụ": 705,
      "ra .": 706,
      "La": 707,
      "ọgbakọ": 708,
      "fụ": 709,
      "Co": 710,
      "nala": 711,
      "beke": 712,
      "asatọ": 713,
      "Hara": 714,
      "Boko": 715,
      "àm": 716,
      "manụ": 717,
      "àmà": 718,
      "Se": 719,
      "Nigeria": 720,
      "of": 721,
      "kpu": 722,
      "nwata": 723,
      "ugboro": 724,
      "DP": 725,
      "nai": 726,
      "ofe": 727,
      "ebubo": 728,
      "anụmanụ": 729,
      "re ,": 730,
      "okpo": 731,
      "njem": 732,
      "ime": 733,
      "ụkọ": 734,
      "po": 735,
      "ris": 736,
      "here": 737,
      "Sa": 738,
      "robịa": 739,
      "ogi": 740,
      "nkuzi": 741,
      "Pe": 742,
      "Uni": 743,
      "nnukwu": 744,
      "ntaakụkọ": 745,
      "Haram": 746,
      "PDP": 747,
      "Na": 748,
      "ca": 749,
      "ito": 750,
      "per": 751,
      "Le": 752,
      "kama": 753,
      "ta .": 754,
      "hu": 755,
      "udo": 756,
      "aka .": 757,
      "ọkpụ": 758,
      "Josef": 759,
      "eke": 760,
      "ikike": 761,
      "abịa": 762,
      "ọcha": 763,
      "ori": 764,
      "anyanwụ": 765,
      "pati": 766,
      "ran": 767,
      "gọs": 768,
      "dum": 769,
      "naira": 770,
      "naịjirịa .": 771,
      "legọs": 772,
      "njọ": 773,
      "tị": 774,
      "okporo": 775,
      "ohere": 776,
      "rịta": 777,
      "mkpọ": 778,
      "ogo": 779,
      "wo": 780,
      "Fa": 781,
      "kanu": 782,
      "ndịàmà": 783,
      "akpa": 784,
      "hie": 785,
      "Muha": 786,
      "ndọrọndọrọ": 787,
      " !": 788,
      "karịa": 789,
      "mkpe": 790,
      "itoolu": 791,
      "abu": 792,
      "Al": 793,
      "bekee": 794,
      "OB": 795,
      "mmanụ": 796,
      "ahụhụ": 797,
      "us": 798,
      "IP": 799,
      "Muhamma": 800,
      "EC": 801,
      "en": 802,
      "ike .": 803,
      "ụkọchukwu": 804,
      "oche": 805,
      "steeti .": 806,
      "mmeri": 807,
      "rị :": 808,
      "Ea": 809,
      "a :": 810,
      "ofesi": 811,
      "Muhammadu": 812,
      "ry": 813,
      " . \"": 814,
      "mini": 815,
      "IPOB": 816,
      "Mu": 817,
      "ije": 818,
      "Pa": 819,
      "saụ": 820,
      "mdi": 821,
      "maha": 822,
      "ru .": 823,
      "niile .": 824,
      "pọ": 825,
      "mma .": 826,
      "ugo": 827,
      "ster": 828,
      "Ati": 829,
      "ochi": 830,
      "ụtụtụ": 831,
      "Atiku": 832,
      "ogige": 833,
      "rel": 834,
      "anya ,": 835,
      "ikpeazụ": 836,
      "onal": 837,
      "Ba": 838,
      "ọdụ": 839,
      "amụ": 840,
      "okpu": 841,
      "ụba": 842,
      "nkwado": 843,
      "nzukọ": 844,
      "ci": 845,
      "nkị": 846,
      "nto": 847,
      "ọha": 848,
      "oso": 849,
      "osisi": 850,
      "Super": 851,
      "am": 852,
      "ọzọ ,": 853,
      "rt": 854,
      "fi": 855,
      "uso": 856,
      "mmụta": 857,
      "co": 858,
      "osote": 859,
      "kere": 860,
      "ga ,": 861,
      "Ada": 862,
      "mgbasa": 863,
      "ck": 864,
      "ga .": 865,
      "nji": 866,
      "anyị .": 867,
      "mahadum": 868,
      "mkpọrọ": 869,
      "minista": 870,
      "saụt": 871,
      "pị": 872,
      "ted": 873,
      "shịa": 874,
      "Ka": 875,
      "Tru": 876,
      "obiano": 877,
      "ọtọ": 878,
      "dia": 879,
      "Oko": 880,
      "aja": 881,
      "dọkị": 882,
      "So": 883,
      "bụ ,": 884,
      "ele": 885,
      "nda": 886,
      "oku": 887,
      "ajọ": 888,
      "eluigwe": 889,
      "omenala": 890,
      "amụma": 891,
      "Bi": 892,
      "shọ": 893,
      "gburu": 894,
      "me .": 895,
      "ọdọ": 896,
      "dọkịta": 897,
      "kọmi": 898,
      "illi": 899,
      "Ar": 900,
      "okwukwe": 901,
      "ọma .": 902,
      "ur": 903,
      "wụ": 904,
      "gbụ": 905,
      "anyị ,": 906,
      "ntorobịa": 907,
      "IN": 908,
      "ty": 909,
      "op": 910,
      "Eag": 911,
      "ọhịa": 912,
      "INEC": 913,
      "fo": 914,
      "FC": 915,
      "Trump": 916,
      "vid": 917,
      "ike ,": 918,
      "  \" . \"": 919,
      "United": 920,
      "Ne": 921,
      "omume": 922,
      "lite": 923,
      "rocha": 924,
      "ity": 925,
      "usoro": 926,
      "De": 927,
      " \" \"": 928,
      "baịbụl .": 929,
      "Af": 930,
      "akara": 931,
      "Ade": 932,
      "ihe .": 933,
      "land": 934,
      "Eagles": 935,
      "ten": 936,
      "Mi": 937,
      "mị": 938,
      "echiche": 939,
      "nnamdi": 940,
      "vo": 941,
      "tan": 942,
      "rụ .": 943,
      "baka": 944,
      "ment": 945,
      "Willi": 946,
      "sị ,": 947,
      "iz": 948,
      "Ri": 949,
      "nnọ": 950,
      "Obi": 951,
      "akụkụ": 952,
      "ọgọ": 953,
      "obi .": 954,
      "ụlọụka": 955,
      "kedụ": 956,
      "lik": 957,
      "chineke ,": 958,
      "od": 959,
      "o ,": 960,
      "ọw": 961,
      "yọ": 962,
      "dio": 963,
      "ọwụwa": 964,
      "jị": 965,
      "pt": 966,
      "ede": 967,
      "else": 968,
      "mara": 969,
      "ọfụ": 970,
      "pọl": 971,
      "ghe": 972,
      "con": 973,
      "ta ,": 974,
      "ọkacha": 975,
      "Chelse": 976,
      "ah": 977,
      "ọgbọ": 978,
      "ohi": 979,
      "City": 980,
      "katọ": 981,
      "kọrịta": 982,
      "izrel": 983,
      "katọlik": 984,
      "Ca": 985,
      "enye": 986,
      "son": 987,
      "chineke .": 988,
      "iyi": 989,
      "onyi": 990,
      "emume": 991,
      "ss": 992,
      "ochie": 993,
      "ide": 994,
      "ine": 995,
      "a ?": 996,
      "nihu": 997,
      "ụnya": 998,
      "abuja": 999,
      "ir": 1000,
      "eziokwu .": 1001,
      "Moha": 1002,
      "pool": 1003,
      "tional": 1004,
      "enyemaka": 1005,
      "200": 1006,
      "Liver": 1007,
      "oriri": 1008,
      "Liverpool": 1009,
      "ssi": 1010,
      "iji": 1011,
      "shịal": 1012,
      "Me": 1013,
      "To": 1014,
      "Sou": 1015,
      "akị": 1016,
      "fada": 1017,
      "soshịal": 1018,
      "ogbu": 1019,
      "chu": 1020,
      "ọla": 1021,
      "ntu": 1022,
      "zde": 1023,
      "ụgbọelu": 1024,
      "oyi": 1025,
      "Afri": 1026,
      "ul": 1027,
      "' .": 1028,
      "oli": 1029,
      "ọkaiwu": 1030,
      "agu": 1031,
      "Chelsea": 1032,
      "onyinye": 1033,
      "tri": 1034,
      "ọmụ": 1035,
      "okpukpe": 1036,
      "isi .": 1037,
      "and": 1038,
      "mmadụ .": 1039,
      "ntọ": 1040,
      "ala .": 1041,
      "iche .": 1042,
      "onyo": 1043,
      "2019 .": 1044,
      " \" \" ": 1045,
      "net": 1046,
      "akpụ": 1047,
      "ọgbaaghara": 1048,
      "onyonyo": 1049,
      "ham": 1050,
      "ume": 1051,
      "ọ \"": 1052,
      "Manche": 1053,
      "Manchester": 1054,
      "eji": 1055,
      "aka ,": 1056,
      "godị": 1057,
      "mmed": 1058,
      "nwanne": 1059,
      "wit": 1060,
      "mama": 1061,
      "Eme": 1062,
      "agwa": 1063,
      "ụlọakwụkwọ": 1064,
      "madu": 1065,
      "ụwa .": 1066,
      "ort": 1067,
      "South": 1068,
      "Sta": 1069,
      "bri": 1070,
      "2018": 1071,
      "Nwo": 1072,
      "n ,": 1073,
      "abụọ .": 1074,
      "Ja": 1075,
      "eme": 1076,
      "okorocha": 1077,
      "El": 1078,
      "la .": 1079,
      "ode": 1080,
      "rọ  \" ": 1081,
      "nyụ": 1082,
      "chas": 1083,
      "ọnị": 1084,
      "mbere": 1085,
      "vootu": 1086,
      "Rochas": 1087,
      "ọnịcha": 1088,
      "ite": 1089,
      "for": 1090,
      "arc": 1091,
      "ia": 1092,
      "ral": 1093,
      "ya ?": 1094,
      "agbọ": 1095,
      "ọchịehi": 1096,
      "Arse": 1097,
      "n .": 1098,
      "omeka": 1099,
      "mberede": 1100,
      "Aba": 1101,
      "agbọghọ": 1102,
      "Arsenal": 1103,
      "ọgbu": 1104,
      "Ekwe": 1105,
      "akịrịka": 1106,
      "Mohammed": 1107,
      "rụ ,": 1108,
      "mbi": 1109,
      "“ ọ": 1110,
      "Peter": 1111,
      "ijipt": 1112,
      "wi": 1113,
      "' ,": 1114,
      "anọ": 1115,
      "juu": 1116,
      "setan": 1117,
      "kwado": 1118,
      "ok": 1119,
      "ky": 1120,
      "10": 1121,
      "o .": 1122,
      "ala ,": 1123,
      "ing": 1124,
      "nhọ": 1125,
      "Ke": 1126,
      "000": 1127,
      "witter": 1128,
      "remadu": 1129,
      "Ekweremadu": 1130,
      "s .": 1131,
      "Pre": 1132,
      "asị": 1133,
      "taa .": 1134,
      "atụ ,": 1135,
      "ọkammụta": 1136,
      "kọmishọ": 1137,
      "omekaome": 1138,
      "nhọpụta": 1139,
      "Abu": 1140,
      "ọrụ .": 1141,
      "Eze": 1142,
      "uju": 1143,
      "im": 1144,
      "Bo": 1145,
      "cy": 1146,
      "s ,": 1147,
      "ụwa ,": 1148,
      "ozugbo": 1149,
      "kọmishọna": 1150,
      "jo": 1151,
      "kele": 1152,
      "ong": 1153,
      "naeze": 1154,
      "eziokwu ,": 1155,
      "ọbara": 1156,
      "mkpu": 1157,
      "ly": 1158,
      "1 ,": 1159,
      " ) .": 1160,
      "ope": 1161,
      "ọ ,": 1162,
      "nle": 1163,
      "ọrụ ,": 1164,
      "ọkaikpe": 1165,
      "nigwe": 1166,
      "ọgụgụ": 1167,
      "ogbunigwe": 1168,
      "She": 1169,
      "iro": 1170,
      "ọhanaeze": 1171,
      "We": 1172,
      "Za": 1173,
      "mpụ": 1174,
      "mpe": 1175,
      " . ” )": 1176,
      "bonyi": 1177,
      "ihe ,": 1178,
      "ọkpa": 1179,
      "alụ": 1180,
      "Bu": 1181,
      "14": 1182,
      "Cha": 1183,
      "warị": 1184,
      "Joh": 1185,
      "ọdịnihu": 1186,
      "gwo": 1187,
      "Ra": 1188,
      "nyocha": 1189,
      "ekele": 1190,
      "baịbụl ,": 1191,
      "nchọ": 1192,
      " ) ,": 1193,
      "China": 1194,
      "mkpebi": 1195,
      "15": 1196,
      "ọ .": 1197,
      "mma ,": 1198,
      "midia": 1199,
      "Be": 1200,
      "Ge": 1201,
      "Oke": 1202,
      "mmadụ ,": 1203,
      "nkwe": 1204,
      "bịaf": 1205,
      "niile ,": 1206,
      "ụjọ": 1207,
      "ụlọọgwụ": 1208,
      "devid": 1209,
      "__": 1210,
      "nwayọ": 1211,
      "satọ": 1212,
      "Nor": 1213,
      "arị": 1214,
      "bi .": 1215,
      "ụda": 1216,
      "gị ,": 1217,
      "ction": 1218,
      "satọde": 1219,
      "Ha": 1220,
      "shi": 1221,
      "SS": 1222,
      "ghị .": 1223,
      "ezu": 1224,
      "Sara": 1225,
      "ụtọ .": 1226,
      "Chris": 1227,
      "malite": 1228,
      "sha": 1229,
      "Nna": 1230,
      "bịa .": 1231,
      "duna": 1232,
      "ahị": 1233,
      "mọ": 1234,
      "ụlọakụ": 1235,
      "egwuregwu ,": 1236,
      "ọdịnala": 1237,
      "tius": 1238,
      "Leagu": 1239,
      "dị ,": 1240,
      "obi ,": 1241,
      "laị": 1242,
      "2017": 1243,
      "elekere": 1244,
      "fa": 1245,
      "ph": 1246,
      "ri .": 1247,
      "Osi": 1248,
      "gị .": 1249,
      "na  \" ": 1250,
      "ja .": 1251,
      "Mar": 1252,
      "fufe": 1253,
      "nzuzo": 1254,
      "Lago": 1255,
      "ọfụma": 1256,
      "tha": 1257,
      "Chukwu": 1258,
      "ọgbugbu": 1259,
      "rs": 1260,
      "Zi": 1261,
      "kan": 1262,
      "rị .": 1263,
      "ekwentị": 1264,
      "tiusde": 1265,
      "igbo ,": 1266,
      "ọnụ .": 1267,
      "nkịtị": 1268,
      "FCC": 1269,
      "Willie": 1270,
      "Bri": 1271,
      "ụgha": 1272,
      "naịjirịa ,": 1273,
      "can": 1274,
      "ụmụnne": 1275,
      "ọgọst": 1276,
      "man": 1277,
      "wer": 1278,
      "icheiche": 1279,
      "ewu": 1280,
      "abụọ ,": 1281,
      "Ihe": 1282,
      "agụmba": 1283,
      "Fran": 1284,
      "nchọpụta": 1285,
      "Di": 1286,
      "bia": 1287,
      "ijeri": 1288,
      "bakar": 1289,
      "nnyocha": 1290,
      "Je": 1291,
      "Or": 1292,
      "Uma": 1293,
      "nrụ": 1294,
      "pụrụ": 1295,
      "Ude": 1296,
      "Pro": 1297,
      "1 )": 1298,
      "mfe": 1299,
      "mkpesa": 1300,
      "Adam": 1301,
      "olile": 1302,
      "Twitter": 1303,
      "Ju": 1304,
      "Gu": 1305,
      "uru .": 1306,
      "logo": 1307,
      "Paul": 1308,
      "briten": 1309,
      "Abubakar": 1310,
      "ogologo": 1311,
      "gbi": 1312,
      "dị .": 1313,
      "kọta": 1314,
      "uro": 1315,
      "isiokwu": 1316,
      "chọọchị": 1317,
      "mmehie": 1318,
      "ọmụmụ": 1319,
      "ebonyi": 1320,
      "kwo": 1321,
      "GA": 1322,
      "rọ .": 1323,
      "cto": 1324,
      "atọ .": 1325,
      "2015": 1326,
      "nnọọ": 1327,
      "trik": 1328,
      "ezum": 1329,
      "EFCC": 1330,
      "NA": 1331,
      "ogbe": 1332,
      "ndị )": 1333,
      "State": 1334,
      "Go": 1335,
      "ngo": 1336,
      "ther": 1337,
      "fraị": 1338,
      "state": 1339,
      "latrik": 1340,
      "fraịde": 1341,
      "Ab": 1342,
      "23": 1343,
      "ọga": 1344,
      "papa": 1345,
      "mmanya": 1346,
      "Nigeri": 1347,
      "Inter": 1348,
      "nyị": 1349,
      "2 ,": 1350,
      "dri": 1351,
      "iche ,": 1352,
      "atụrụ": 1353,
      "ofesi ,": 1354,
      "New": 1355,
      "senet": 1356,
      "nwayọọ": 1357,
      "meri": 1358,
      "okorobịa": 1359,
      "El-": 1360,
      "gbidi": 1361,
      "pi": 1362,
      "Fe": 1363,
      "Ike": 1364,
      "hab": 1365,
      "mbe": 1366,
      "nwaafọ": 1367,
      "“ a": 1368,
      "mgbọ": 1369,
      "kza": 1370,
      "ọṅụ": 1371,
      "Zakza": 1372,
      "Zakzaky": 1373,
      "..": 1374,
      "yo": 1375,
      "Au": 1376,
      "Ga": 1377,
      "17": 1378,
      "gabe": 1379,
      "nue": 1380,
      " - ": 1381,
      "agbụ": 1382,
      "Saraki": 1383,
      "Mugabe": 1384,
      "taa": 1385,
      "rị ,": 1386,
      "ọda": 1387,
      "ton": 1388,
      "rịtaụka": 1389,
      "ofufe": 1390,
      "Ta": 1391,
      "nsị": 1392,
      "okwu .": 1393,
      "nwụ .": 1394,
      "mọdụ": 1395,
      "Lagos": 1396,
      "akwụkwọ .": 1397,
      "ọma ,": 1398,
      "ndụmọdụ": 1399,
      "18": 1400,
      "n' \"": 1401,
      "efu": 1402,
      "the": 1403,
      "ration": 1404,
      "agụụ": 1405,
      "foto": 1406,
      "bịafra": 1407,
      "benue": 1408,
      "ụra": 1409,
      "tic": 1410,
      "nia": 1411,
      "mmekọrịta": 1412,
      "Africa": 1413,
      "APGA": 1414,
      "ezumike": 1415,
      "Fu": 1416,
      "He": 1417,
      "mmepe": 1418,
      "ọkpara": 1419,
      "kaduna": 1420,
      "ribe": 1421,
      "Ele": 1422,
      "anyị \"": 1423,
      " ? ”": 1424,
      "jehova .": 1425,
      "Madri": 1426,
      "Madrid": 1427,
      "iru": 1428,
      "mgbede": 1429,
      "mba .": 1430,
      "okenye": 1431,
      "dọla": 1432,
      "ndụ .": 1433,
      "ọkụkọ": 1434,
      "ourt": 1435,
      "au": 1436,
      "No": 1437,
      "13": 1438,
      "anwụ": 1439,
      "njikere": 1440,
      "ower": 1441,
      "Ru": 1442,
      "Ama": 1443,
      "neti": 1444,
      "ọkpọ": 1445,
      "igbo .": 1446,
      "ịnta": 1447,
      "199": 1448,
      "ohu": 1449,
      "Sowo": 1450,
      "ọkachamara": 1451,
      "ịntaneti": 1452,
      "Te": 1453,
      "Wa": 1454,
      "me ,": 1455,
      "ife": 1456,
      "nkata": 1457,
      "olileanya": 1458,
      "ọdachi": 1459,
      "ld": 1460,
      "ụtụ": 1461,
      "ọkọ": 1462,
      "mbu": 1463,
      "miri": 1464,
      "steeti ,": 1465,
      "Ibra": 1466,
      "kịrị": 1467,
      "ọdịda": 1468,
      "ọbasa": 1469,
      "Ihedio": 1470,
      "ọbasanjọ": 1471,
      "AS": 1472,
      "Vi": 1473,
      "jiji": 1474,
      "edo": 1475,
      "nwaanyị .": 1476,
      "spe": 1477,
      "wene": 1478,
      "gun": 1479,
      "agbụrụ": 1480,
      "k ,": 1481,
      "anyi": 1482,
      "omi": 1483,
      "gburugburu": 1484,
      "wenezde": 1485,
      "qu": 1486,
      "lla": 1487,
      "ri ,": 1488,
      "late": 1489,
      "sị .": 1490,
      "nrọ": 1491,
      "agha .": 1492,
      "ngwụ": 1493,
      "Ghana": 1494,
      "Ibrahi": 1495,
      "up": 1496,
      "FA": 1497,
      "16": 1498,
      "na ,": 1499,
      "bi ,": 1500,
      "mgbere": 1501,
      "Ife": 1502,
      "pase": 1503,
      "ahịhịa": 1504,
      "Sowore": 1505,
      "osimiri": 1506,
      "ad": 1507,
      "Ti": 1508,
      "ọk": 1509,
      "Is": 1510,
      "akụrụ": 1511,
      "mbụ .": 1512,
      "Fal": 1513,
      "ọjị": 1514,
      "Nwosu": 1515,
      "akụrụngwa": 1516,
      "mas": 1517,
      "ụbụ": 1518,
      "kwa ,": 1519,
      "ndị \"": 1520,
      "ndo": 1521,
      "sena": 1522,
      "Olu": 1523,
      "guzo": 1524,
      "nkịta": 1525,
      "ọkachasị": 1526,
      "National": 1527,
      "national": 1528,
      "mọnde": 1529,
      "pụrụiche": 1530,
      "US": 1531,
      "4 .": 1532,
      "bwe": 1533,
      "lani": 1534,
      "“ onye": 1535,
      "elo": 1536,
      "Zimba": 1537,
      "nrụrụ": 1538,
      "ịnyị": 1539,
      "Ihedioha": 1540,
      "Ibrahim": 1541,
      "Zimbabwe": 1542,
      "Ah": 1543,
      "by": 1544,
      "arụ": 1545,
      "ute": 1546,
      "zie": 1547,
      "rom": 1548,
      "s :": 1549,
      "ọkụ .": 1550,
      "Madu": 1551,
      "anambra ,": 1552,
      "Premi": 1553,
      "El-Zakzaky": 1554,
      "mkparịtaụka": 1555,
      "senatọ": 1556,
      "ON": 1557,
      "ule": 1558,
      "gen": 1559,
      "toba": 1560,
      "ọzụ": 1561,
      "ụfọdụ ,": 1562,
      "ọkafọ": 1563,
      "ọnwụ .": 1564,
      "izuụka": 1565,
      "Nai": 1566,
      "League": 1567,
      "30": 1568,
      "ụta": 1569,
      "kata": 1570,
      "Emma": 1571,
      "achị": 1572,
      "lic": 1573,
      "egwu .": 1574,
      "ọchịchị .": 1575,
      "maachị": 1576,
      "  \" ọ \"": 1577,
      "Port": 1578,
      "Harc": 1579,
      "International": 1580,
      "Harcourt": 1581,
      "12": 1582,
      "Ale": 1583,
      "bụ  \" ": 1584,
      "tọzde": 1585,
      "ọktoba": 1586,
      "bị": 1587,
      "cho": 1588,
      "nba": 1589,
      "sti": 1590,
      "otu ,": 1591,
      "otu .": 1592,
      "chite": 1593,
      "nchị": 1594,
      "ssa": 1595,
      "mita": 1596,
      "taa ,": 1597,
      "Jona": 1598,
      "Comm": 1599,
      "oriakụ": 1600,
      "Premier": 1601,
      "Bra": 1602,
      "gboro": 1603,
      "kiri": 1604,
      "stra": 1605,
      "ụnyaahụ": 1606,
      "nkwekọrịta": 1607,
      "Falcon": 1608,
      "1 .": 1609,
      "med": 1610,
      "Onye": 1611,
      "la ,": 1612,
      "afọ .": 1613,
      "ndi": 1614,
      "ya . ”": 1615,
      "ise .": 1616,
      "ncheta": 1617,
      "Mbaka": 1618,
      "nturu": 1619,
      "ọzụzụ": 1620,
      "Osinba": 1621,
      "Nwa": 1622,
      "ụma": 1623,
      "ihe \"": 1624,
      "ka \"": 1625,
      "Bro": 1626,
      "atọ ,": 1627,
      "ọkara": 1628,
      "Alex": 1629,
      "rd": 1630,
      "Yo": 1631,
      "rama": 1632,
      "na \"": 1633,
      "kuku": 1634,
      "2016": 1635,
      "mkpamkpa": 1636,
      "mpion": 1637,
      "Face": 1638,
      "David": 1639,
      "Air": 1640,
      "Emeka": 1641,
      "John": 1642,
      "ịnyịnya": 1643,
      "achịcha": 1644,
      "Ko": 1645,
      "MA": 1646,
      "te ,": 1647,
      "isi ,": 1648,
      "efe": 1649,
      "obodo .": 1650,
      "Wor": 1651,
      "ọgwụgwụ": 1652,
      "Came": 1653,
      "mgbanwe": 1654,
      "William": 1655,
      "nnewi": 1656,
      "agbidi": 1657,
      "Jonatha": 1658,
      "Camero": 1659,
      "Ana": 1660,
      "adị": 1661,
      "nha": 1662,
      "ekwu": 1663,
      "Mba": 1664,
      "mgbo": 1665,
      "re :": 1666,
      "Con": 1667,
      "ego .": 1668,
      "Bor": 1669,
      "ọbụla .": 1670,
      "niel": 1671,
      "agụma": 1672,
      "idemmiri": 1673,
      "DSS": 1674,
      "ikuku": 1675,
      "St": 1676,
      "Ai": 1677,
      "o \"": 1678,
      " , \"": 1679,
      "ebere": 1680,
      "mmi": 1681,
      "alth": 1682,
      "Robe": 1683,
      "ctor": 1684,
      "Abdu": 1685,
      "Fulani": 1686,
      "eh": 1687,
      "bụ .": 1688,
      "ren": 1689,
      "kwu .": 1690,
      "obibi": 1691,
      "Adi": 1692,
      "Ger": 1693,
      "Riva": 1694,
      "Fede": 1695,
      "julaị": 1696,
      "kansa": 1697,
      "Euro": 1698,
      "Abaribe": 1699,
      "Naija": 1700,
      "Osinbajo": 1701,
      "Champion": 1702,
      "Do": 1703,
      "bre": 1704,
      "mmasị": 1705,
      "“ ndị": 1706,
      "nzụ": 1707,
      "Del": 1708,
      "ves": 1709,
      "Timo": 1710,
      "ime .": 1711,
      "kọmiti": 1712,
      "ngwụcha": 1713,
      "ghụ": 1714,
      "Ut": 1715,
      "ndị ,": 1716,
      "Ara": 1717,
      "rie": 1718,
      "pte": 1719,
      "ubi": 1720,
      "nkọ": 1721,
      "okwu ,": 1722,
      "2 )": 1723,
      "nsogbu .": 1724,
      "Barc": 1725,
      "anwụrụ": 1726,
      "opekata": 1727,
      "Falcons": 1728,
      "aga": 1729,
      "tti": 1730,
      "nke \"": 1731,
      "Igbo": 1732,
      "pan": 1733,
      "hoo": 1734,
      "mbụ ,": 1735,
      "Umu": 1736,
      "nsu": 1737,
      "Eng": 1738,
      "saye": 1739,
      "Ben": 1740,
      "ụnyaahụ .": 1741,
      "ejije": 1742,
      "ụbụrụ": 1743,
      "nchịkọta": 1744,
      "Jonathan": 1745,
      "Barcelo": 1746,
      "3 ,": 1747,
      "mpu": 1748,
      "“ ihe": 1749,
      "ukwu .": 1750,
      "mgbakọ": 1751,
      "Donal": 1752,
      "bishọ": 1753,
      "odeakwụkwọ": 1754,
      "West": 1755,
      "North": 1756,
      "pita": 1757,
      "Plate": 1758,
      "nzụkọ": 1759,
      "Donald": 1760,
      "Plateau": 1761,
      "Iv": 1762,
      "Ye": 1763,
      "gra": 1764,
      "sia": 1765,
      "gbata": 1766,
      "ghị ,": 1767,
      "rọ ,": 1768,
      "inọ": 1769,
      "wa ,": 1770,
      "anu": 1771,
      "“ m": 1772,
      "Lon": 1773,
      "ọbụladị": 1774,
      "The": 1775,
      "ọgwụgwọ": 1776,
      "car": 1777,
      "ọjọọ .": 1778,
      "chafụ": 1779,
      "taa :": 1780,
      "France": 1781,
      "Umahi": 1782,
      "World": 1783,
      "Cameroon": 1784,
      "Ce": 1785,
      "2 .": 1786,
      "gboo": 1787,
      "“ n'": 1788,
      "mbodo": 1789,
      "Ser": 1790,
      "yin": 1791,
      "echichi": 1792,
      "Bay": 1793,
      "Robert": 1794,
      "ehihi": 1795,
      "Utd": 1796,
      "septe": 1797,
      "Barcelona": 1798,
      "asambodo": 1799,
      "IM": 1800,
      "ll": 1801,
      "Shi": 1802,
      "25": 1803,
      "ọna": 1804,
      "Gra": 1805,
      "tara": 1806,
      "Oba": 1807,
      "nọ .": 1808,
      "akwụkwọ ,": 1809,
      "  \" a": 1810,
      "kama ,": 1811,
      "100": 1812,
      "kraịst ,": 1813,
      "Aisha": 1814,
      "Rivas": 1815,
      "opekatampe": 1816,
      "Londo": 1817,
      "sho": 1818,
      "UK": 1819,
      "Fo": 1820,
      "r ,": 1821,
      "ncha": 1822,
      "kwụkwọ": 1823,
      "ọnụ ,": 1824,
      "thi": 1825,
      "nghọ": 1826,
      "mbido": 1827,
      "ogbenye": 1828,
      "sayensị": 1829,
      "ịchafụ": 1830,
      "agụmakwụkwọ": 1831,
      "cu": 1832,
      "Hu": 1833,
      "Tu": 1834,
      "cra": 1835,
      "Ibi": 1836,
      "ja ,": 1837,
      "nson": 1838,
      "jama": 1839,
      "amerịka .": 1840,
      "tten": 1841,
      "Christi": 1842,
      "adịgboro": 1843,
      "inọk": 1844,
      "toyin": 1845,
      "jamanị": 1846,
      "toyinbo": 1847,
      "tum": 1848,
      "ley": 1849,
      "mwu": 1850,
      "min": 1851,
      "ụzọ ,": 1852,
      "mkpa .": 1853,
      "2019 :": 1854,
      "afrịka .": 1855,
      "Real": 1856,
      "AFC": 1857,
      "rimara": 1858,
      "ssion": 1859,
      "____": 1860,
      "mgbochi": 1861,
      "Daniel": 1862,
      "Totten": 1863,
      "ep": 1864,
      "28": 1865,
      "oma": 1866,
      "6 ,": 1867,
      "ịhụ": 1868,
      "Abi": 1869,
      "chie": 1870,
      "dike": 1871,
      "ndịda": 1872,
      "ese": 1873,
      "mbịa": 1874,
      "oge ,": 1875,
      "biko": 1876,
      "ndu": 1877,
      "nuel": 1878,
      "jizọs ,": 1879,
      "nri ,": 1880,
      "2019 ,": 1881,
      "Demo": 1882,
      "book": 1883,
      "ọnụọgụgụ": 1884,
      "Shehu": 1885,
      "nturuugo": 1886,
      "Commi": 1887,
      "Delta": 1888,
      "ghụghọ": 1889,
      "Fatoyinbo": 1890,
      "AFCON": 1891,
      "ịhụna": 1892,
      "Facebook": 1893,
      "pp": 1894,
      "Lu": 1895,
      "vs": 1896,
      "ina": 1897,
      "r .": 1898,
      "gri": 1899,
      "nkụ": 1900,
      "egwu ,": 1901,
      "ụmụnna": 1902,
      "osika": 1903,
      "ekpere ,": 1904,
      " .  \" ọ \"": 1905,
      "arịrịọ": 1906,
      "Timoti": 1907,
      "aghụghọ": 1908,
      "AC": 1909,
      "ịdị": 1910,
      "kra": 1911,
      "gal": 1912,
      "si ,": 1913,
      "4 )": 1914,
      "ụzọ .": 1915,
      "agha ,": 1916,
      "amadi": 1917,
      "nwaada": 1918,
      "Sam": 1919,
      "Nigerian": 1920,
      "njirimara": 1921,
      "der": 1922,
      "lia": 1923,
      "mba ,": 1924,
      "dan": 1925,
      "kola": 1926,
      "ụbọchị ,": 1927,
      "elu .": 1928,
      "( n": 1929,
      "Agu": 1930,
      "muel": 1931,
      "ụdịrị": 1932,
      "Peop": 1933,
      "mmalite": 1934,
      "ọlaedo": 1935,
      "Ebre": 1936,
      "Tottenham": 1937,
      "Samuel": 1938,
      "AN": 1939,
      "Si": 1940,
      "z .": 1941,
      "are": 1942,
      "rena": 1943,
      "sina": 1944,
      "Ste": 1945,
      "sịga": 1946,
      "chi ,": 1947,
      "Dan": 1948,
      "bịa ,": 1949,
      "jehova ,": 1950,
      "ọkụ ,": 1951,
      "jizọs .": 1952,
      "zịza": 1953,
      "ise ,": 1954,
      "ọhụrụ .": 1955,
      "ama .": 1956,
      "nọve": 1957,
      "lement": 1958,
      "Election": 1959,
      "nrụrụaka": 1960,
      "Ahmed": 1961,
      "Champions": 1962,
      "Japan": 1963,
      "ekwensu": 1964,
      "mwute": 1965,
      "Emmanuel": 1966,
      "3 .": 1967,
      "rea": 1968,
      "Ola": 1969,
      "odo": 1970,
      "okwute": 1971,
      "ahụ ?": 1972,
      "para": 1973,
      "ọdịmma": 1974,
      "nkume": 1975,
      "onyeàmà": 1976,
      "cia": 1977,
      "Okon": 1978,
      "ress": 1979,
      "juun": 1980,
      "arịrị": 1981,
      "African": 1982,
      "Ifeanyi": 1983,
      "Brother": 1984,
      "bishọp": 1985,
      "ọnatara": 1986,
      "kana": 1987,
      "ba ,": 1988,
      "nọ ,": 1989,
      "wa .": 1990,
      "ụlọ ,": 1991,
      "ghara": 1992,
      "nụ .": 1993,
      "ose": 1994,
      "azu": 1995,
      "re ?": 1996,
      "gwon": 1997,
      "Joe": 1998,
      "Par": 1999,
      "ụtọ ,": 2000,
      "noa": 2001,
      "Adamu": 2002,
      "okiri": 2003,
      "nụwarị": 2004,
      "ọnatarachi": 2005,
      "Am": 2006,
      "ls": 2007,
      "kpị": 2008,
      "5 .": 2009,
      "ka ,": 2010,
      "ree": 2011,
      "ber": 2012,
      "tin": 2013,
      "pti": 2014,
      "debe": 2015,
      "Ali": 2016,
      "afọ ,": 2017,
      "“ chineke": 2018,
      " . ” ,": 2019,
      "nrite": 2020,
      "Osu": 2021,
      "kilo": 2022,
      "Kano": 2023,
      "spen": 2024,
      "Europe": 2025,
      "eprel": 2026,
      "gwongwo": 2027,
      "um": 2028,
      "is": 2029,
      "gy": 2030,
      "CO": 2031,
      "gana": 2032,
      "Pri": 2033,
      "ba .": 2034,
      "zil": 2035,
      "den": 2036,
      "Mike": 2037,
      "nge": 2038,
      "Ogbo": 2039,
      "Ikpe": 2040,
      "daị": 2041,
      "sele": 2042,
      "mili": 2043,
      "jọn": 2044,
      "Tho": 2045,
      "ọmarị": 2046,
      "ihu .": 2047,
      "Onwu": 2048,
      "koria": 2049,
      "Wol": 2050,
      "Shia": 2051,
      "  \" anyị \"": 2052,
      "Williams": 2053,
      "England": 2054,
      "ehihie": 2055,
      "azịza": 2056,
      "bapti": 2057,
      "ọmarịcha": 2058,
      "baptizi": 2059,
      "11": 2060,
      "Id": 2061,
      "24": 2062,
      "h ,": 2063,
      "ụkwa": 2064,
      "Sala": 2065,
      "ra ?": 2066,
      "mmechi": 2067,
      "mmegbu": 2068,
      "ụka .": 2069,
      "Job": 2070,
      "Baba": 2071,
      "ugwu .": 2072,
      "And": 2073,
      "rọshịa": 2074,
      "ọgbụ": 2075,
      "shop": 2076,
      "River": 2077,
      "Obiano": 2078,
      "port": 2079,
      "ọgara": 2080,
      "  \" n' \"": 2081,
      "nnọchite": 2082,
      "Borno": 2083,
      "Democra": 2084,
      "paradaị": 2085,
      "ọgbụgba": 2086,
      "50": 2087,
      "nsi": 2088,
      "ble": 2089,
      "ude": 2090,
      "ọwa": 2091,
      "nụ ,": 2092,
      "lian": 2093,
      "aku": 2094,
      "“ e": 2095,
      "nze": 2096,
      "tho": 2097,
      "bọje": 2098,
      "ndụ ,": 2099,
      "ukwu ,": 2100,
      "ahịa .": 2101,
      "win": 2102,
      "amadị": 2103,
      "ememme": 2104,
      "anọ .": 2105,
      "Yemi": 2106,
      "As": 2107,
      "29": 2108,
      "7 ,": 2109,
      "nkwụ": 2110,
      "lin": 2111,
      "igbe": 2112,
      "uni": 2113,
      "bụ :": 2114,
      "ya :": 2115,
      "jeru": 2116,
      "obodo ,": 2117,
      "tom": 2118,
      "zor": 2119,
      "ice": 2120,
      "Gar": 2121,
      "Rev": 2122,
      "ogogo": 2123,
      "Cong": 2124,
      "Okezie": 2125,
      "Serena": 2126,
      "Clement": 2127,
      "Ikpeazu": 2128,
      "Idris": 2129,
      "jerusele": 2130,
      "Congress": 2131,
      "Sy": 2132,
      "dy": 2133,
      "eri": 2134,
      "e \"": 2135,
      "abụbụ": 2136,
      "udu": 2137,
      "nso .": 2138,
      "Cou": 2139,
      "agbata": 2140,
      "Lib": 2141,
      "Sera": 2142,
      "ahu": 2143,
      "fran": 2144,
      "God": 2145,
      "Victor": 2146,
      "Igbokwe": 2147,
      "kọmpu": 2148,
      "Brazil": 2149,
      "Em": 2150,
      "Sha": 2151,
      "AR": 2152,
      "w .": 2153,
      "ji ,": 2154,
      "ụlọ .": 2155,
      "mmanwụ": 2156,
      "ha ?": 2157,
      "febụ": 2158,
      "dun": 2159,
      "ọchịchị ,": 2160,
      "asaa .": 2161,
      "Chibo": 2162,
      "ebube": 2163,
      "198": 2164,
      "uhie": 2165,
      "deine": 2166,
      "Kenya": 2167,
      "Nnamdi": 2168,
      "abuja .": 2169,
      "Commission": 2170,
      "ịhụnanya": 2171,
      "febụwarị": 2172,
      "Oj": 2173,
      "ght": 2174,
      "UN": 2175,
      "ron": 2176,
      "3 )": 2177,
      "“ o": 2178,
      "igbo ?": 2179,
      "nwaanyị ,": 2180,
      "kepu": 2181,
      "2014": 2182,
      "Cor": 2183,
      "ụka ,": 2184,
      "Bel": 2185,
      "eju": 2186,
      "nri .": 2187,
      "azụ .": 2188,
      "kiti": 2189,
      "ekpere .": 2190,
      "Cos": 2191,
      "Big": 2192,
      "Okorocha": 2193,
      "ọdịnihu .": 2194,
      "Rehab": 2195,
      "ọkpọka": 2196,
      "pasentị": 2197,
      "  \" , \"": 2198,
      "Ibiam": 2199,
      "Johnson": 2200,
      "adịgboroja": 2201,
      "Garba": 2202,
      "ee": 2203,
      "NL": 2204,
      "Ku": 2205,
      "FF": 2206,
      "6 .": 2207,
      "Ume": 2208,
      "ji .": 2209,
      "Ugwu": 2210,
      "day": 2211,
      "Ban": 2212,
      "ezi .": 2213,
      "oke .": 2214,
      "imi": 2215,
      "ntị .": 2216,
      "ozi .": 2217,
      "Spa": 2218,
      "Ope": 2219,
      "praị": 2220,
      "Niger": 2221,
      "aṅụ": 2222,
      "illa": 2223,
      "ọsọ .": 2224,
      "Davi": 2225,
      "196": 2226,
      "Alla": 2227,
      "ford": 2228,
      "2023": 2229,
      "owerri": 2230,
      "gency": 2231,
      "nhazi": 2232,
      "osikapa": 2233,
      "nwo": 2234,
      "na .": 2235,
      "te .": 2236,
      "kọb": 2237,
      "nzọ": 2238,
      "one": 2239,
      "5 )": 2240,
      "ya .  \" ": 2241,
      "nya .": 2242,
      "nsonso": 2243,
      "vel": 2244,
      "Omo": 2245,
      "Char": 2246,
      "ọjọọ ,": 2247,
      "sọọsọ": 2248,
      "kraịst .": 2249,
      "cial": 2250,
      "India": 2251,
      "Okoye": 2252,
      "nghọta": 2253,
      "Bukola": 2254,
      "nọvemba": 2255,
      "jekọb": 2256,
      "ff": 2257,
      "DC": 2258,
      "9 .": 2259,
      "8 ,": 2260,
      "9 ,": 2261,
      "ọsị": 2262,
      "Uche": 2263,
      "ogbo": 2264,
      "ako": 2265,
      "Mer": 2266,
      "ọbụla ,": 2267,
      "ames": 2268,
      "Ang": 2269,
      "197": 2270,
      "Inno": 2271,
      "Union": 2272,
      "Tim": 2273,
      "nleta": 2274,
      "ịlaị": 2275,
      "Udemba": 2276,
      "Cent": 2277,
      "Ukra": 2278,
      "Ebreham": 2279,
      "NLC": 2280,
      "Ukraine": 2281,
      "ọọ": 2282,
      "26": 2283,
      "0 .": 2284,
      "tus": 2285,
      "ghị \"": 2286,
      "mgbu": 2287,
      "sili": 2288,
      "ụlọọrụ": 2289,
      "udi": 2290,
      "dise": 2291,
      "San": 2292,
      "gị ?": 2293,
      "7 )": 2294,
      "fero": 2295,
      "vice": 2296,
      "Nation": 2297,
      "All": 2298,
      "cis": 2299,
      "ffi": 2300,
      "Bio": 2301,
      "wood": 2302,
      "anọ ,": 2303,
      "olly": 2304,
      "London": 2305,
      "esem": 2306,
      "Wolves": 2307,
      "Allah": 2308,
      "ollywood": 2309,
      "ot": 2310,
      "my": 2311,
      "tta": 2312,
      "som": 2313,
      "midi": 2314,
      "2020": 2315,
      "hib": 2316,
      "bụla .": 2317,
      "bụla ,": 2318,
      "mmiri .": 2319,
      "ace": 2320,
      "ọkaibe": 2321,
      "siria": 2322,
      "Day": 2323,
      "ahụhụ .": 2324,
      "Joseph": 2325,
      "ehab": 2326,
      "  \" nke \"": 2327,
      "septemba": 2328,
      "Okonkwo": 2329,
      "Party": 2330,
      "ọgaranya": 2331,
      "aị": 2332,
      "Ed": 2333,
      "IS": 2334,
      "0 ,": 2335,
      "lan": 2336,
      "Eji": 2337,
      "ihere": 2338,
      "nwere": 2339,
      "gazi": 2340,
      "Ogbu": 2341,
      "egbu": 2342,
      "mbo": 2343,
      "ilu": 2344,
      "ego ,": 2345,
      "eze ,": 2346,
      "ọnwụ ,": 2347,
      "iwe .": 2348,
      "Roh": 2349,
      "Dap": 2350,
      "mmepụta": 2351,
      "bekee .": 2352,
      "Sene": 2353,
      "kris": 2354,
      "ọcha ,": 2355,
      "ọcha .": 2356,
      "Akanu": 2357,
      "ikpeazụ ,": 2358,
      "Zam": 2359,
      "Mini": 2360,
      "Guine": 2361,
      "ọganihu": 2362,
      "Femi": 2363,
      "okirikiri": 2364,
      "Democratic": 2365,
      "Senegal": 2366,
      "ọt": 2367,
      "Va": 2368,
      "ZA": 2369,
      "IV": 2370,
      "gre": 2371,
      "Cro": 2372,
      "anyị ?": 2373,
      "abụ ,": 2374,
      "Onu": 2375,
      "pho": 2376,
      "ọka ,": 2377,
      "chael": 2378,
      "nchụ": 2379,
      "Ribe": 2380,
      "ngwaahịa": 2381,
      "Uzo": 2382,
      "nno": 2383,
      "izugbe": 2384,
      "- 3": 2385,
      "Univer": 2386,
      "udo .": 2387,
      "legọs .": 2388,
      "ṅomi": 2389,
      "Cup": 2390,
      "Maduka": 2391,
      "Commonwe": 2392,
      "Kanu": 2393,
      "Chibok": 2394,
      "Davido": 2395,
      "COZA": 2396,
      "Commonwealth": 2397,
      "es": 2398,
      "mar": 2399,
      "Tra": 2400,
      "oti": 2401,
      "len": 2402,
      "ọpụ": 2403,
      "pụ .": 2404,
      "akọ": 2405,
      "chị .": 2406,
      "do ,": 2407,
      "mbara": 2408,
      "ọbọ": 2409,
      "elu ,": 2410,
      "stle": 2411,
      "eze .": 2412,
      "Mor": 2413,
      "dimkpa": 2414,
      "Cana": 2415,
      "ntụnye": 2416,
      "Ogu": 2417,
      "tain": 2418,
      "bọọlụ .": 2419,
      "amerịka ,": 2420,
      "not": 2421,
      "Indi": 2422,
      " ! ”": 2423,
      "urch": 2424,
      "Ezekwe": 2425,
      "ASU": 2426,
      "Port ": 2427,
      "chool": 2428,
      "Adichie": 2429,
      "idemili": 2430,
      "kọmputa": 2431,
      "Francis": 2432,
      "Rohr": 2433,
      "Nọt": 2434,
      "Ribeka": 2435,
      "Port Harcourt": 2436,
      "21": 2437,
      "ct": 2438,
      "Ad": 2439,
      "l .": 2440,
      "Bre": 2441,
      "rin": 2442,
      "si .": 2443,
      "del": 2444,
      "nali": 2445,
      "Ani": 2446,
      "Aku": 2447,
      "“ mgbe": 2448,
      "hia": 2449,
      "gige": 2450,
      "( N": 2451,
      "enyo": 2452,
      "May": 2453,
      "fara": 2454,
      "ntụliaka .": 2455,
      "Col": 2456,
      "njọ .": 2457,
      "East": 2458,
      "Miye": 2459,
      "asị .": 2460,
      "pasent": 2461,
      "  \" ndị \"": 2462,
      "blic": 2463,
      "  \" ihe \"": 2464,
      "Ethi": 2465,
      "Christian": 2466,
      "mbịara": 2467,
      "grik": 2468,
      "Leice": 2469,
      "aṅụrị": 2470,
      "esemokwu": 2471,
      "Ezekwesili": 2472,
      "Ngige": 2473,
      "Miyetti": 2474,
      "Leicester": 2475,
      "Cy": 2476,
      "tt": 2477,
      "Fra": 2478,
      "kla": 2479,
      "nkwu": 2480,
      "tek": 2481,
      "ọtụ": 2482,
      "Ebo": 2483,
      "oge .": 2484,
      "mic": 2485,
      "ozigbo": 2486,
      "( A": 2487,
      "Mai": 2488,
      "Imo": 2489,
      "ụlọahịa": 2490,
      "Iran": 2491,
      "mkpọrọ .": 2492,
      "eluigwe ,": 2493,
      " .  \" anyị \"": 2494,
      "mgbaghara": 2495,
      "Ojukwu": 2496,
      "Mercy": 2497,
      "og": 2498,
      "ID": 2499,
      "AF": 2500,
      "shu": 2501,
      "7 .": 2502,
      "leke": 2503,
      "way": 2504,
      "ọfọ": 2505,
      "ro ,": 2506,
      "dge": 2507,
      "bu .": 2508,
      "ọbịa": 2509,
      "abụ )": 2510,
      "“ ị": 2511,
      "nụzụ": 2512,
      "ozi ,": 2513,
      "nsụ": 2514,
      "kpamkpa": 2515,
      "Aja": 2516,
      "ganị": 2517,
      "nce": 2518,
      "kolo": 2519,
      "ọhụrụ ,": 2520,
      "ring": 2521,
      "ugwu ,": 2522,
      "nsọ .": 2523,
      "yinka": 2524,
      "ọtọ .": 2525,
      "gburugbu": 2526,
      "akpụkpọ": 2527,
      "King": 2528,
      "2017 .": 2529,
      "nlekọta": 2530,
      "ọṅụṅụ": 2531,
      "  \" na \"": 2532,
      "IMN": 2533,
      "Shiite": 2534,
      "njedebe": 2535,
      "Bishop": 2536,
      "SAR": 2537,
      "Service": 2538,
      "Dapchi": 2539,
      "HIV": 2540,
      "Ethiop": 2541,
      "teknụzụ": 2542,
      "SARS": 2543,
      "ọbụ": 2544,
      "u ,": 2545,
      "5 ,": 2546,
      "pha": 2547,
      "Ita": 2548,
      "kwaghị": 2549,
      "lle": 2550,
      "zik": 2551,
      "side": 2552,
      "gola": 2553,
      "Eli": 2554,
      "nin": 2555,
      "mkwe": 2556,
      "Nwan": 2557,
      "ru ?": 2558,
      "owu": 2559,
      "mon": 2560,
      "m . ”": 2561,
      "ihu ,": 2562,
      "eziokwu ?": 2563,
      "nkwarị": 2564,
      "oly": 2565,
      "ikiri": 2566,
      "Kogi": 2567,
      "ochie .": 2568,
      "eluigwe .": 2569,
      "umeala": 2570,
      "Orji": 2571,
      "Ikechukwu": 2572,
      " ...": 2573,
      "Nwachukwu": 2574,
      "nkọwa": 2575,
      "Benja": 2576,
      "Mikel": 2577,
      "Agency": 2578,
      "James": 2579,
      "disemba": 2580,
      "Biodun": 2581,
      "nnwere": 2582,
      "magazi": 2583,
      "gressi": 2584,
      "Britain": 2585,
      "Church": 2586,
      "ASUU": 2587,
      "Frank": 2588,
      "Dakolo": 2589,
      "-E": 2590,
      "Fi": 2591,
      "En": 2592,
      "ef": 2593,
      "nc": 2594,
      "22": 2595,
      "Pu": 2596,
      "SC": 2597,
      "ma .": 2598,
      "fre": 2599,
      "yat": 2600,
      "kwu ,": 2601,
      "ote": 2602,
      "a \"": 2603,
      "pro": 2604,
      "' ?": 2605,
      "“ ka": 2606,
      "ahụ . ”": 2607,
      "obiọma": 2608,
      "ahịa ,": 2609,
      "hen": 2610,
      "ọnwụnwa": 2611,
      "ard": 2612,
      "enugwu .": 2613,
      "njikọ": 2614,
      "ifo": 2615,
      "Kim": 2616,
      "nkwenye": 2617,
      "ọfụma .": 2618,
      "Umar": 2619,
      "Nigeria ,": 2620,
      "nwatakịrị": 2621,
      " .  \" ndị \"": 2622,
      "  \" ka \"": 2623,
      "gram": 2624,
      "scar": 2625,
      "People": 2626,
      "kanada": 2627,
      "ngwongwo": 2628,
      "Peace": 2629,
      "Michael": 2630,
      "Gernot": 2631,
      "penali": 2632,
      "magazin": 2633,
      "golayat": 2634,
      "penaliti": 2635,
      "Pi": 2636,
      "Ex": 2637,
      "4 ,": 2638,
      "ata": 2639,
      "onye \"": 2640,
      "lu ,": 2641,
      "di ,": 2642,
      "chineke ?": 2643,
      "oke ,": 2644,
      "Ndu": 2645,
      "nnaya": 2646,
      "Bar": 2647,
      "500": 2648,
      "ụlọikpe .": 2649,
      "nsọ ,": 2650,
      "tanka": 2651,
      "Bur": 2652,
      "opment": 2653,
      "Secon": 2654,
      "2018 .": 2655,
      "Geor": 2656,
      "aja .": 2657,
      "fraịde .": 2658,
      "jijiji": 2659,
      "Abdul": 2660,
      "socia": 2661,
      "Universi": 2662,
      "Zamfara": 2663,
      "Soyinka": 2664,
      "Progressi": 2665,
      "velopment": 2666,
      "Associa": 2667,
      "Association": 2668,
      "Po": 2669,
      "FI": 2670,
      "Aw": 2671,
      "sime": 2672,
      "Nji": 2673,
      "rus": 2674,
      "ịgba": 2675,
      "bụ \"": 2676,
      "nesi": 2677,
      "lli": 2678,
      "lọtọ": 2679,
      "Mala": 2680,
      "ru :": 2681,
      "9 )": 2682,
      "Odu": 2683,
      "hole": 2684,
      "mana \"": 2685,
      "rist": 2686,
      "uru ,": 2687,
      "mkpagbu": 2688,
      "elsa": 2689,
      "eld": 2690,
      "mmiri ,": 2691,
      "isii ,": 2692,
      "tive": 2693,
      "ọkpụkpụ": 2694,
      "Musa": 2695,
      "edeme": 2696,
      "Sheka": 2697,
      "alụm": 2698,
      "League .": 2699,
      "lican": 2700,
      "roup": 2701,
      "Oluse": 2702,
      "Anaje": 2703,
      "gbatagbata": 2704,
      "Mz .": 2705,
      "Catho": 2706,
      "Bank": 2707,
      "castle": 2708,
      "Ethiopia": 2709,
      "Development": 2710,
      "ọkọlọtọ": 2711,
      "Bayelsa": 2712,
      "Catholic": 2713,
      "om": 2714,
      "rish": 2715,
      "mwe": 2716,
      "Tan": 2717,
      "Chan": 2718,
      "ikpe .": 2719,
      "sto": 2720,
      "iwu .": 2721,
      "ụzụ": 2722,
      "rael": 2723,
      "cent": 2724,
      "anambra .": 2725,
      "kpụrụkpụ": 2726,
      "ụfụ": 2727,
      "ime ,": 2728,
      "Buso": 2729,
      "ọpị": 2730,
      "Kalu": 2731,
      "Nwodo": 2732,
      "iteghe": 2733,
      "ozugbo .": 2734,
      "Gene": 2735,
      "Good": 2736,
      "taata": 2737,
      "mbuli": 2738,
      "Yoru": 2739,
      " .  \" o \"": 2740,
      "jenụwarị": 2741,
      "Thomas": 2742,
      "paradaịs .": 2743,
      "jeruselem": 2744,
      "Libya": 2745,
      "Charles": 2746,
      "Nations": 2747,
      "Canada": 2748,
      "kpọmkwe": 2749,
      "edemede": 2750,
      "Olusegun": 2751,
      "Israel": 2752,
      "PC": 2753,
      "TV": 2754,
      "Yu": 2755,
      "xi": 2756,
      "ka .": 2757,
      "l ,": 2758,
      "hụhụ": 2759,
      "ukwa": 2760,
      "chi .": 2761,
      "rọs": 2762,
      "Awa": 2763,
      "ọkwụ": 2764,
      "Wike": 2765,
      "nnụ": 2766,
      "m :": 2767,
      "okwe": 2768,
      "sse": 2769,
      "6 )": 2770,
      "’ )": 2771,
      "a .  \" ": 2772,
      "ụbọchị .": 2773,
      "ern": 2774,
      "mkpa :": 2775,
      "ino": 2776,
      "stan": 2777,
      "Ronal": 2778,
      "isii .": 2779,
      "ọgụ .": 2780,
      "ochie ,": 2781,
      "gaasị": 2782,
      "Oshi": 2783,
      "Nnabu": 2784,
      "tiusde .": 2785,
      "dibia": 2786,
      "2015 .": 2787,
      "mbuze": 2788,
      "Austra": 2789,
      "Germa": 2790,
      "Airport": 2791,
      "nnọchiteanya": 2792,
      "Ugwuanyi": 2793,
      "praịm": 2794,
      "siriak": 2795,
      "alụkwaghị": 2796,
      "Newcastle": 2797,
      "omhole": 2798,
      "Busola": 2799,
      "Oshiomhole": 2800,
      "ek": 2801,
      "hị": 2802,
      "8 .": 2803,
      "ke ,": 2804,
      "gad": 2805,
      "ha \"": 2806,
      "- \"": 2807,
      "ro .": 2808,
      "iri .": 2809,
      "ụkpa": 2810,
      "obo": 2811,
      "ọkwọ": 2812,
      "int": 2813,
      "ikpere": 2814,
      "otuto": 2815,
      "nya ,": 2816,
      "nwoke .": 2817,
      "nwoke ,": 2818,
      "rest": 2819,
      "oziọma": 2820,
      "anya . ”": 2821,
      "For": 2822,
      "kọpa": 2823,
      "Tara": 2824,
      "dugu": 2825,
      "laza": 2826,
      "azụma": 2827,
      "ọchụ": 2828,
      "Benu": 2829,
      "“ unu": 2830,
      "enugwu ,": 2831,
      "akwa .": 2832,
      "Oye": 2833,
      "asatọ ,": 2834,
      "echiche .": 2835,
      "oyibo": 2836,
      "nwaagbọghọ": 2837,
      "ijipt .": 2838,
      "twitter": 2839,
      "1914": 2840,
      "Chad": 2841,
      "Haru": 2842,
      "Ameri": 2843,
      "mgbidi": 2844,
      "ntakịrị": 2845,
      "Abdulla": 2846,
      "Federal": 2847,
      "agadi": 2848,
      "________": 2849,
      "Chioma": 2850,
      "biko ,": 2851,
      "Agule": 2852,
      "Step": 2853,
      "Egy": 2854,
      "Rivers": 2855,
      "Communi": 2856,
      "NFF": 2857,
      "Central": 2858,
      "Nollywood": 2859,
      "hibru": 2860,
      "School": 2861,
      "Benjamin": 2862,
      "Shekau": 2863,
      "ntarama": 2864,
      "Maidugu": 2865,
      "azụmahịa": 2866,
      "Egypt": 2867,
      "ntaramahụhụ": 2868,
      "PS": 2869,
      "CB": 2870,
      "Bla": 2871,
      "chebe": 2872,
      "dne": 2873,
      "Isa": 2874,
      "li .": 2875,
      "bon": 2876,
      "Ibo": 2877,
      "nwụ ,": 2878,
      "sekọ": 2879,
      "bulu": 2880,
      "din": 2881,
      "van": 2882,
      "ya  \" ": 2883,
      "sị  \" ": 2884,
      "mma ?": 2885,
      "ezina": 2886,
      "nuche": 2887,
      "ojii ,": 2888,
      "Abra": 2889,
      "ya ;": 2890,
      "ndị ;": 2891,
      "maahịa": 2892,
      "azụ ,": 2893,
      "nkwanye": 2894,
      "our": 2895,
      "Mou": 2896,
      "sọnde": 2897,
      "400": 2898,
      "afrịka ,": 2899,
      "ding": 2900,
      "Repu": 2901,
      "Lai": 2902,
      "asatọ .": 2903,
      "rans": 2904,
      "Econ": 2905,
      "ohi ,": 2906,
      "ịdịna": 2907,
      "arebia": 2908,
      "mkpị": 2909,
      "Allian": 2910,
      "Nyako": 2911,
      "Innoson": 2912,
      "ịlaịja": 2913,
      "Saudi": 2914,
      "ahia": 2915,
      "ncil": 2916,
      "University": 2917,
      "Group": 2918,
      "Timgad": 2919,
      "Abdullahi": 2920,
      "azụmaahịa": 2921,
      "Alliance": 2922,
      "ig": 2923,
      "rg": 2924,
      "Hi": 2925,
      "Qu": 2926,
      "IC": 2927,
      "Kha": 2928,
      "brụ": 2929,
      "rite": 2930,
      "chel": 2931,
      "cha ,": 2932,
      "sa ,": 2933,
      "mesa": 2934,
      "ser": 2935,
      "P )": 2936,
      "“ i": 2937,
      "mana ,": 2938,
      "ha . ”": 2939,
      "ston": 2940,
      "sty": 2941,
      "ell": 2942,
      "Mana": 2943,
      "asaa ,": 2944,
      "ọlị": 2945,
      "ngwọ": 2946,
      "Mada": 2947,
      "Mah": 2948,
      "iwe ,": 2949,
      "inji": 2950,
      "Har": 2951,
      "You": 2952,
      "ille": 2953,
      "ill": 2954,
      "eno": 2955,
      "kno": 2956,
      "ebum": 2957,
      "Insta": 2958,
      "ụra .": 2959,
      "There": 2960,
      "ogoogo": 2961,
      "ikpeazụ .": 2962,
      "rity": 2963,
      "izrel .": 2964,
      "emeka": 2965,
      "ship": 2966,
      "phobi": 2967,
      "akparama": 2968,
      "Mbaise": 2969,
      "Obama": 2970,
      "  \" a \"": 2971,
      "ụkwara": 2972,
      "stus": 2973,
      "Guinea": 2974,
      "ọpụpụ": 2975,
      "Benin": 2976,
      "George": 2977,
      "ọkpụrụkpụ": 2978,
      "Mexi": 2979,
      "Bayern": 2980,
      "  \" - \"": 2981,
      "Economi": 2982,
      "Council": 2983,
      "febrụ": 2984,
      "enophobi": 2985,
      "Mexico": 2986,
      "febrụwarị": 2987,
      "nz": 2988,
      "At": 2989,
      "ac": 2990,
      "AM": 2991,
      "ks": 2992,
      "CN": 2993,
      "t .": 2994,
      "gar": 2995,
      "Ala": 2996,
      "Cri": 2997,
      "kwasị": 2998,
      "ne ,": 2999,
      "Uwa": 3000,
      "rou": 3001,
      "gani": 3002,
      "ger": 3003,
      "lege": 3004,
      "alakụ": 3005,
      "Bala": 3006,
      "di .": 3007,
      "Odi": 3008,
      "Ran": 3009,
      "e ?": 3010,
      "Ant": 3011,
      "8 )": 3012,
      "list": 3013,
      "2013": 3014,
      "bi . ”": 3015,
      "Yor": 3016,
      "vin": 3017,
      "Sal": 3018,
      "stal": 3019,
      "ọrịa .": 3020,
      "olution": 3021,
      "visa": 3022,
      "ụra ,": 3023,
      "latị": 3024,
      "mkpọtụ": 3025,
      "Alge": 3026,
      "Sunda": 3027,
      "echiche ,": 3028,
      "dayọ": 3029,
      "ntutu": 3030,
      "ventu": 3031,
      "Chimama": 3032,
      "ọnịcha ,": 3033,
      "Boris": 3034,
      "Pope": 3035,
      "ahịrị": 3036,
      "Power": 3037,
      "Ogun": 3038,
      "Isla": 3039,
      "European": 3040,
      "Ortom": 3041,
      "otele": 3042,
      "FIFA": 3043,
      "Christ": 3044,
      "Haruna": 3045,
      "Stephen": 3046,
      "Tekno": 3047,
      "Theresa": 3048,
      "Xenophobi": 3049,
      "Revolution": 3050,
      "dayọsi": 3051,
      "Chimamanda": 3052,
      "id": 3053,
      "Nu": 3054,
      "NB": 3055,
      "OW": 3056,
      "madị": 3057,
      "ket": 3058,
      "Nke": 3059,
      "Oha": 3060,
      "let": 3061,
      "biri": 3062,
      "cha .": 3063,
      "Ode": 3064,
      "saị": 3065,
      "gwuru": 3066,
      "kpam": 3067,
      "da ,": 3068,
      "ọchịchọ": 3069,
      "Ndi": 3070,
      "anya ?": 3071,
      "akụkọ \"": 3072,
      "’ ”": 3073,
      "ụwa ?": 3074,
      "iwu ,": 3075,
      "abụbọ": 3076,
      "org": 3077,
      "ama ,": 3078,
      "Zara": 3079,
      "mmefu": 3080,
      "Enyi": 3081,
      "olo": 3082,
      "bọọlụ ,": 3083,
      "ọkwa .": 3084,
      "Nsu": 3085,
      "sị :  \" ": 3086,
      "cal": 3087,
      "ous": 3088,
      "2000": 3089,
      "ụmụada": 3090,
      "luck": 3091,
      "ganda": 3092,
      "Obio": 3093,
      "oghe": 3094,
      "ụnyaahụ ,": 3095,
      "Messi": 3096,
      "uchu": 3097,
      "2018 ,": 3098,
      "Kenne": 3099,
      "Nnia": 3100,
      "Ruga": 3101,
      "mak ,": 3102,
      "EMA": 3103,
      "St .": 3104,
      "baptizim": 3105,
      "Emlin": 3106,
      "codeine": 3107,
      "tiu ,": 3108,
      "Preside": 3109,
      "Chief": 3110,
      "Njikọ": 3111,
      "PSG": 3112,
      "Black": 3113,
      "ntụkwasị": 3114,
      "Sunday": 3115,
      "ECOW": 3116,
      "ECOWAS": 3117,
      "37": 3118,
      "os": 3119,
      "Ze": 3120,
      "UE": 3121,
      "II": 3122,
      "Aka": 3123,
      "nyahụ": 3124,
      "Ezi": 3125,
      "do .": 3126,
      "Chike": 3127,
      "nis": 3128,
      "nish": 3129,
      "dada": 3130,
      "bi ?": 3131,
      "me ?": 3132,
      "naịjirịa ?": 3133,
      "riko": 3134,
      "cer": 3135,
      "ojii .": 3136,
      "stri": 3137,
      "olulu": 3138,
      "Solu": 3139,
      "omen": 3140,
      "cese": 3141,
      "ọnya": 3142,
      "Car": 3143,
      "rial": 3144,
      "Rama": 3145,
      "pou": 3146,
      "Chine": 3147,
      "ụgwọ .": 3148,
      "nkeji :": 3149,
      "Ono": 3150,
      "sing": 3151,
      "laye": 3152,
      "ofor": 3153,
      "ghen": 3154,
      "Tur": 3155,
      "Cali": 3156,
      "ejiji": 3157,
      "wich": 3158,
      "ingland": 3159,
      "jairo": 3160,
      "satọde .": 3161,
      "mfe .": 3162,
      "Augu": 3163,
      "sley": 3164,
      "App": 3165,
      "Sudan": 3166,
      "Osun": 3167,
      "Salah": 3168,
      "bọjetị": 3169,
      "ọsịsọ": 3170,
      "Onno": 3171,
      "Adeleke": 3172,
      "Anglican": 3173,
      "Tanza": 3174,
      "Maiduguri": 3175,
      "CBN": 3176,
      "dinma": 3177,
      "nzagha": 3178,
      "Algeria": 3179,
      "Juventu": 3180,
      "Islamic": 3181,
      "dayọsiisi": 3182,
      "Goodluck": 3183,
      "Uganda": 3184,
      "Kenneth": 3185,
      "matiu ,": 3186,
      "UEFA": 3187,
      "Onnoghen": 3188,
      "ọs": 3189,
      "Ji": 3190,
      "33": 3191,
      "WA": 3192,
      "-O": 3193,
      "FD": 3194,
      "ura": 3195,
      "rah": 3196,
      "res": 3197,
      "ban": 3198,
      "chị ,": 3199,
      "ra \"": 3200,
      "nwa .": 3201,
      "zu .": 3202,
      "Lan": 3203,
      "aka ?": 3204,
      "mmehi": 3205,
      "ụfọdụ .": 3206,
      "Buhari ,": 3207,
      "nwanna": 3208,
      "Soko": 3209,
      "amaw": 3210,
      "goolu .": 3211,
      "akwa ,": 3212,
      "ọsọ ,": 3213,
      "Josef .": 3214,
      "Rus": 3215,
      "ajị": 3216,
      "Amara": 3217,
      "Poli": 3218,
      "ọmụgwọ": 3219,
      "yode": 3220,
      "Jong": 3221,
      "Ebonyi": 3222,
      "Kaduna": 3223,
      "lịkan": 3224,
      "ụgha .": 3225,
      "ngosi": 3226,
      "Alexand": 3227,
      "Health": 3228,
      "yahoo": 3229,
      "Grand": 3230,
      "Bello": 3231,
      "midia .": 3232,
      "phosa": 3233,
      "Progressive": 3234,
      "Yoruba": 3235,
      "Yusu": 3236,
      "Achebe": 3237,
      "Ibom": 3238,
      "Instagram": 3239,
      "akparamagwa": 3240,
      "College": 3241,
      "ụnyahụ": 3242,
      "jeriko": 3243,
      "Melaye": 3244,
      "WAEC": 3245,
      "Ramaphosa": 3246,
      "An": 3247,
      "Che": 3248,
      "fị": 3249,
      "py": 3250,
      "mah": 3251,
      "rer": 3252,
      "las": 3253,
      "uba": 3254,
      "kwa .": 3255,
      "ctu": 3256,
      "gba .": 3257,
      "izi": 3258,
      "aro": 3259,
      "akụnụ": 3260,
      "nkwọ": 3261,
      "zuru": 3262,
      "Idi": 3263,
      "Can": 3264,
      "  \" ma": 3265,
      "ọzọ ?": 3266,
      "bụ ?": 3267,
      "A )": 3268,
      "mmer": 3269,
      "Ami": 3270,
      "to ,": 3271,
      "ntị ,": 3272,
      "hony": 3273,
      "ụgbọmmiri": 3274,
      "unu .": 3275,
      "Chido": 3276,
      "nchekwa ,": 3277,
      "vie": 3278,
      "xit": 3279,
      "mmụọ .": 3280,
      "ezie ,": 3281,
      "bekee ,": 3282,
      "poli": 3283,
      "stry": 3284,
      "Paris": 3285,
      "mahadu": 3286,
      "fim": 3287,
      "ọhịa .": 3288,
      "leagu": 3289,
      "gers": 3290,
      "urop": 3291,
      " \" \" n' \"": 3292,
      "mọnde .": 3293,
      "arụsị": 3294,
      "30 ,": 3295,
      "Yobe": 3296,
      "Adesina": 3297,
      "Onwuama": 3298,
      "nsibi": 3299,
      "Ekiti": 3300,
      "Villa": 3301,
      "nzọpụta": 3302,
      "Omoye": 3303,
      "Cross": 3304,
      "ọbụna": 3305,
      "Italy": 3306,
      "Azik": 3307,
      "Oscar": 3308,
      "nnụnụ": 3309,
      "Dino": 3310,
      "Ronaldo": 3311,
      "Taraba": 3312,
      "lazarọs": 3313,
      "Madaga": 3314,
      "ebumnuche": 3315,
      "tụmadị": 3316,
      "Dabiri": 3317,
      "Norwich": 3318,
      "Anthony": 3319,
      "Brexit": 3320,
      "yurop": 3321,
      "Omoyele": 3322,
      "-A": 3323,
      "40": 3324,
      "kah": 3325,
      "kame": 3326,
      "Bru": 3327,
      "Iba": 3328,
      "nwe .": 3329,
      "tine": 3330,
      "ney": 3331,
      "awa": 3332,
      "gbu .": 3333,
      "Igha": 3334,
      "Osa": 3335,
      "buka": 3336,
      "so .": 3337,
      "iri ,": 3338,
      "dị ?": 3339,
      "ngụ": 3340,
      "Don": 3341,
      "on ,": 3342,
      "Mon": 3343,
      "baịbụl ?": 3344,
      "a . ”": 3345,
      "20 ,": 3346,
      "mma . ”": 3347,
      "niile . ”": 3348,
      "nor": 3349,
      "ogu": 3350,
      "agbara": 3351,
      "Dave": 3352,
      "Bles": 3353,
      "nka ,": 3354,
      "enyi ,": 3355,
      "udo ,": 3356,
      "Togo": 3357,
      "part": 3358,
      "Adama": 3359,
      "ụlọmkpọrọ": 3360,
      "ume .": 3361,
      "ohi .": 3362,
      "ejima": 3363,
      "uju .": 3364,
      "15 ,": 3365,
      "Action": 3366,
      " .  \" n' \"": 3367,
      "tics": 3368,
      "Amaechi": 3369,
      "Ezeife": 3370,
      "wenezde .": 3371,
      "Ondo": 3372,
      "tọzde .": 3373,
      " .  \" ihe \"": 3374,
      "2016 .": 3375,
      "Congo": 3376,
      "aja ,": 3377,
      "Peoples": 3378,
      "janụwarị": 3379,
      "bọjet": 3380,
      "Operation": 3381,
      "Norway": 3382,
      "Anajemba": 3383,
      "Channe": 3384,
      "General": 3385,
      "Germany": 3386,
      "Abraham": 3387,
      "Republic": 3388,
      "nesty": 3389,
      "injin": 3390,
      "Chukwuemeka": 3391,
      "Economic": 3392,
      "Njikọka": 3393,
      "Uzodinma": 3394,
      "NAFD": 3395,
      "Ighalo": 3396,
      "NAFDAC": 3397,
      "sy": 3398,
      "60": 3399,
      "EU": 3400,
      "AT": 3401,
      "wn": 3402,
      "FB": 3403,
      "Ve": 3404,
      "yị": 3405,
      "key": 3406,
      "Are": 3407,
      "vre": 3408,
      "Cla": 3409,
      "le ,": 3410,
      "re \"": 3411,
      "ziaka": 3412,
      "arọ": 3413,
      "Oli": 3414,
      "buike": 3415,
      "ịkpe": 3416,
      "ọchị .": 3417,
      "luk": 3418,
      "ezi ,": 3419,
      "“ ma": 3420,
      "jụụ": 3421,
      "ya ,  \" ": 3422,
      "por": 3423,
      "anụrị": 3424,
      "Flo": 3425,
      "osu": 3426,
      "ezigbote": 3427,
      "all": 3428,
      "abalị ,": 3429,
      "Chidi": 3430,
      "Gol": 3431,
      "APC .": 3432,
      "194": 3433,
      "iko .": 3434,
      "Ever": 3435,
      "Cus": 3436,
      "saụdi": 3437,
      "ụtụtụ ,": 3438,
      "bour": 3439,
      "awụ": 3440,
      " \" \" . \"": 3441,
      "mịnị": 3442,
      "onyinye ,": 3443,
      "icheiche .": 3444,
      "Boy": 3445,
      "Hope": 3446,
      "ụlọọgwụ .": 3447,
      "fai": 3448,
      "Osita": 3449,
      "ọgọst ,": 3450,
      "iberibe": 3451,
      "Now": 3452,
      "ịntaneti .": 3453,
      "Wat": 3454,
      "spen .": 3455,
      "Road": 3456,
      "IMF": 3457,
      "Abike": 3458,
      "Samson": 3459,
      "ww": 3460,
      "jw .": 3461,
      "Codeine": 3462,
      "Cosmas": 3463,
      "Foot": 3464,
      "Nye": 3465,
      "krismas": 3466,
      "bedel": 3467,
      "America": 3468,
      "Community": 3469,
      "Trans": 3470,
      "JAM": 3471,
      "Organi": 3472,
      "York": 3473,
      "Enyinnaya": 3474,
      "Spanish": 3475,
      "Women": 3476,
      "Kayode": 3477,
      "Channels": 3478,
      "FBI": 3479,
      "Turkey": 3480,
      "Everton": 3481,
      "Custom": 3482,
      "mịnịst": 3483,
      "Rufai": 3484,
      "www .": 3485,
      "Nyesom": 3486,
      "JAMB": 3487,
      "mịnịstrị": 3488,
      "bn": 3489,
      "Ash": 3490,
      "Gi": 3491,
      "27": 3492,
      "--": 3493,
      "Mna": 3494,
      "keke": 3495,
      "Tha": 3496,
      "gan": 3497,
      "gara": 3498,
      "ikwu": 3499,
      "Ekwu": 3500,
      "bel": 3501,
      "Ibe": 3502,
      "Udo": 3503,
      "nwa ,": 3504,
      "Rwa": 3505,
      "Asa": 3506,
      "kali": 3507,
      "ni ,": 3508,
      "nich": 3509,
      "Aso": 3510,
      "isiala": 3511,
      "Obo": 3512,
      "ses": 3513,
      "akwụna": 3514,
      "ang": 3515,
      " :  \" ": 3516,
      "ta ?": 3517,
      "kwu ?": 3518,
      "obi ?": 3519,
      "lint": 3520,
      "Roge": 3521,
      "Phi": 3522,
      "ikpe ,": 3523,
      "ato": 3524,
      "ahụ .  \" ": 3525,
      "Ber": 3526,
      "ụlọelu": 3527,
      "aha .": 3528,
      "nso ,": 3529,
      "Buru": 3530,
      "mkpa ,": 3531,
      "ngagwa": 3532,
      "abacha": 3533,
      "ọnụahịa": 3534,
      "alace": 3535,
      "tanya": 3536,
      "alje": 3537,
      "Inde": 3538,
      "pende": 3539,
      "Regi": 3540,
      "ụmụaka .": 3541,
      "egbe .": 3542,
      "nụ !": 3543,
      "ence": 3544,
      "ofesi .": 3545,
      "Cry": 3546,
      "Musta": 3547,
      "nzukọ .": 3548,
      "Kat": 3549,
      "Solo": 3550,
      "taa ?": 3551,
      "Sia": 3552,
      "Okechukwu": 3553,
      "Keshi": 3554,
      "ders": 3555,
      "ghton": 3556,
      "tical": 3557,
      "wenezde ,": 3558,
      "Equ": 3559,
      "mọnde ,": 3560,
      "uteeze": 3561,
      "babị": 3562,
      "ward": 3563,
      "Federation": 3564,
      "Grace": 3565,
      "ustin": 3566,
      "Prima": 3567,
      "Andre": 3568,
      "Spain": 3569,
      "klaasị": 3570,
      "Ebola": 3571,
      "Goog": 3572,
      "ibu .": 3573,
      "NYSC": 3574,
      "Awgu": 3575,
      "Australia": 3576,
      "ezinaụlọ": 3577,
      "alakụba": 3578,
      "Juventus": 3579,
      "Azikiwe": 3580,
      "Amnesty": 3581,
      "injinịa": 3582,
      "Lef": 3583,
      "ntuziaka": 3584,
      "Rwanda": 3585,
      "Munich": 3586,
      "Burundi": 3587,
      "Mnangagwa": 3588,
      "Netanya": 3589,
      "aljeria": 3590,
      "babịlọ": 3591,
      "Google": 3592,
      "Lefè": 3593,
      "Netanyahu": 3594,
      "Lefèvre": 3595,
      "ms": 3596,
      "dg": 3597,
      "45": 3598,
      "’ ,": 3599,
      "red": 3600,
      "nye .": 3601,
      "ril": 3602,
      "tte": 3603,
      "kọp": 3604,
      "ya \"": 3605,
      "nes": 3606,
      "Edo": 3607,
      "Ngo": 3608,
      "nisi": 3609,
      "sa .": 3610,
      "mgbe \"": 3611,
      "zu ,": 3612,
      "m ?": 3613,
      "ọrụ )": 3614,
      "“ obi": 3615,
      "“ anyị": 3616,
      "“ otu": 3617,
      "Kon": 3618,
      "ọka .": 3619,
      "Jor": 3620,
      "mmy": 3621,
      " ; )": 3622,
      "Magu": 3623,
      "ụmụahịa": 3624,
      "nsogbu ,": 3625,
      "kin": 3626,
      "Anya": 3627,
      "Hou": 3628,
      "ozuzo": 3629,
      "ugbo ,": 3630,
      "Sey": 3631,
      "ogidi": 3632,
      "ekere": 3633,
      "dary": 3634,
      "vement": 3635,
      "asị ,": 3636,
      "ntọala": 3637,
      "2018 :": 3638,
      "Jane": 3639,
      "mbize": 3640,
      "10 ,": 3641,
      "nwayọọ ,": 3642,
      "satọdee": 3643,
      "2017 ,": 3644,
      "fraịde ,": 3645,
      "Tacha": 3646,
      "Udemba .": 3647,
      "ohu .": 3648,
      "luk ,": 3649,
      "2014 .": 3650,
      "Fren": 3651,
      "Arabi": 3652,
      "Osho": 3653,
      "Maina": 3654,
      "Korea": 3655,
      "akpị": 3656,
      "Ange": 3657,
      "baptizim ,": 3658,
      "Yaku": 3659,
      "fransị": 3660,
      "nchụaja": 3661,
      "rinho": 3662,
      "nnwereonwe": 3663,
      "  \" bụ \"": 3664,
      "kpọmkwem": 3665,
      "High": 3666,
      "Que": 3667,
      "chelles": 3668,
      "mesaya": 3669,
      "Tanzania": 3670,
      "Jong-": 3671,
      "Yusuf": 3672,
      "papy": 3673,
      "Federer": 3674,
      "nsibidi": 3675,
      "kamel": 3676,
      "lestine": 3677,
      "Blessing": 3678,
      "Watford": 3679,
      "Independe": 3680,
      "Crystal": 3681,
      "Brighton": 3682,
      "Tunisi": 3683,
      "French": 3684,
      "Mourinho": 3685,
      "Seychelles": 3686,
      "papyrus": 3687,
      "un": 3688,
      "44": 3689,
      "Lo": 3690,
      "VC": 3691,
      "AI": 3692,
      "ṅa": 3693,
      "nan": 3694,
      "tra": 3695,
      "haa": 3696,
      "Ire": 3697,
      "uri": 3698,
      "lari": 3699,
      "rima": 3700,
      "riri": 3701,
      "Fri": 3702,
      "bal": 3703,
      "gba ,": 3704,
      "ube": 3705,
      "be .": 3706,
      "tia": 3707,
      "zi .": 3708,
      " \" ": 3709,
      "ru \"": 3710,
      "ta \"": 3711,
      "ebe ,": 3712,
      "nic": 3713,
      "mgbe ,": 3714,
      "bu ,": 3715,
      "ogwu": 3716,
      "ha :": 3717,
      "dah": 3718,
      "da .": 3719,
      "Nan": 3720,
      "  \" dị": 3721,
      "kpọ  \" ": 3722,
      " ) \"": 3723,
      "“ ha": 3724,
      "mi ,": 3725,
      "Whi": 3726,
      "nebọ": 3727,
      "mkpụ": 3728,
      "chineke . ”": 3729,
      "ord": 3730,
      "( S": 3731,
      "  \" ( ": 3732,
      "ọghọ": 3733,
      "ngwe": 3734,
      "mbụ :": 3735,
      "mou": 3736,
      "ful": 3737,
      "Amu": 3738,
      "iberi": 3739,
      "thy": 3740,
      "etiti .": 3741,
      "ngwa ,": 3742,
      "okwuchukwu": 3743,
      "Wal": 3744,
      "abalị .": 3745,
      "Anti": 3746,
      "oloko": 3747,
      "Oki": 3748,
      "195": 3749,
      "izu ,": 3750,
      "ụkwụ .": 3751,
      "obere .": 3752,
      "“ mkpụrụ": 3753,
      "Law": 3754,
      "Nigeria :": 3755,
      "pito": 3756,
      "e !": 3757,
      "Hen": 3758,
      "tary": 3759,
      "osisi ,": 3760,
      "obiano ,": 3761,
      "ọtọ ,": 3762,
      "ahụike ,": 3763,
      "gboo ,": 3764,
      "izrel ,": 3765,
      "Camp": 3766,
      "Jide": 3767,
      "Patri": 3768,
      "imiri": 3769,
      "11 ,": 3770,
      "SSOB": 3771,
      "ctoral": 3772,
      "2015 ,": 3773,
      "mgbọrọ": 3774,
      "que": 3775,
      "Tiwa": 3776,
      "arụrụ": 3777,
      "ọstra": 3778,
      "Mohamed": 3779,
      "ndina": 3780,
      "BBNaija": 3781,
      "anusi": 3782,
      "ball": 3783,
      "shola": 3784,
      "abuja ,": 3785,
      "Martin": 3786,
      "gwongworo": 3787,
      "Umeh": 3788,
      "2020 .": 3789,
      "gburugburu ,": 3790,
      "Ndubu": 3791,
      "jenesi": 3792,
      "Sheffi": 3793,
      "Forest": 3794,
      "Aguleri": 3795,
      "Gabon": 3796,
      "sekọnd": 3797,
      "Festus": 3798,
      "Isaac": 3799,
      "ndagwuru": 3800,
      "Sokoto": 3801,
      "Ministry": 3802,
      "Rangers": 3803,
      "Customs": 3804,
      "Katsina": 3805,
      "dgz .": 3806,
      "Queen": 3807,
      "MASSOB": 3808,
      "Electoral": 3809,
      "Sheffield": 3810,
      "ndagwurugwu": 3811,
      "mb": 3812,
      "oo": 3813,
      "IA": 3814,
      "uke": 3815,
      "nye ,": 3816,
      "meya": 3817,
      "Isi": 3818,
      "Dru": 3819,
      "Uba": 3820,
      "Agba": 3821,
      "la \"": 3822,
      "neu": 3823,
      "li ,": 3824,
      "Dike": 3825,
      "nie": 3826,
      "rumba": 3827,
      "ndị  \" ": 3828,
      "a  \" ": 3829,
      "mmadụ ?": 3830,
      "mmekọ": 3831,
      "mmebi": 3832,
      "“ na-": 3833,
      "sion": 3834,
      "ọsụ": 3835,
      "ost": 3836,
      "aka . ”": 3837,
      "ọchịagha": 3838,
      "ọnwa .": 3839,
      "soja": 3840,
      "asara": 3841,
      "gọọmentị ,": 3842,
      " ; ,": 3843,
      "gua": 3844,
      "Amo": 3845,
      "Ilo": 3846,
      "nwunye .": 3847,
      "War": 3848,
      "ekpenta": 3849,
      "gịnị ?": 3850,
      "col": 3851,
      "ọrịa ,": 3852,
      "lation": 3853,
      "aland": 3854,
      "mmụọ ,": 3855,
      "ee ,": 3856,
      "nka .": 3857,
      "Indo": 3858,
      "ugboro .": 3859,
      "rance": 3860,
      "lius": 3861,
      "pọtị": 3862,
      "Ney": 3863,
      "omume .": 3864,
      "omume ,": 3865,
      "gement": 3866,
      "2007": 3867,
      "Achu": 3868,
      "briel": 3869,
      "Abacha": 3870,
      "gboo .": 3871,
      "Ojo": 3872,
      "14 )": 3873,
      "Okeke": 3874,
      "Jere": 3875,
      "nsọpụrụ": 3876,
      "Gover": 3877,
      "Oyo": 3878,
      "Tech": 3879,
      "ọktoba .": 3880,
      "Onyema": 3881,
      " \" \" na \"": 3882,
      "  \" o \"": 3883,
      "Arabia": 3884,
      "Zaina": 3885,
      "emeodo": 3886,
      "Osuji": 3887,
      "Syria": 3888,
      "Ejike": 3889,
      "shua": 3890,
      "gburugburu .": 3891,
      "Nwankwo": 3892,
      "iteghete ,": 3893,
      "Nnabuihe": 3894,
      "Khafi": 3895,
      "Kukah": 3896,
      "Moses": 3897,
      "Andrew": 3898,
      "Cyril": 3899,
      "ekeresime": 3900,
      "Movement": 3901,
      "Yakubu": 3902,
      "hoohaa": 3903,
      "Jideọfọ": 3904,
      "imirikiti": 3905,
      "Zealand": 3906,
      "Gabriel": 3907,
      "Zainab": 3908,
      "Onwuemeodo": 3909,
      "et": 3910,
      "lt": 3911,
      "yu": 3912,
      "HO": 3913,
      "UT": 3914,
      "Mc": 3915,
      "47": 3916,
      "NN": 3917,
      "ska": 3918,
      "har": 3919,
      "pre": 3920,
      "Asi": 3921,
      "Okwu": 3922,
      "bar": 3923,
      "Abe": 3924,
      "te \"": 3925,
      "wan": 3926,
      "lip": 3927,
      "Bebe": 3928,
      "stọ": 3929,
      "Agbo": 3930,
      "ge :": 3931,
      "Akpa": 3932,
      "melu": 3933,
      "Gan": 3934,
      "ka  \" ": 3935,
      "rụ ?": 3936,
      "nubu": 3937,
      "Chile": 3938,
      "niile ?": 3939,
      "m )": 3940,
      "koro": 3941,
      "kamp": 3942,
      "mpị": 3943,
      "mmerụ": 3944,
      "“ dị": 3945,
      "ụdọ": 3946,
      "lia .": 3947,
      "tor": 3948,
      "rto": 3949,
      "ozizi": 3950,
      "Per": 3951,
      "ọha .": 3952,
      "2012": 3953,
      "anyị . ”": 3954,
      "ọzọ . ”": 3955,
      "( gba": 3956,
      "huru": 3957,
      "mkparị": 3958,
      "elị": 3959,
      "Wole": 3960,
      "oju": 3961,
      "asaba": 3962,
      "ha ;": 3963,
      "eziokwu . ”": 3964,
      "alo": 3965,
      "loma": 3966,
      "nchekwu": 3967,
      "mgbali": 3968,
      "ngwa .": 3969,
      "nder": 3970,
      "kemgbe .": 3971,
      "ters": 3972,
      "penal": 3973,
      "Wil": 3974,
      "( APC": 3975,
      "ugbog": 3976,
      "njem .": 3977,
      "ụgbọala .": 3978,
      "ọgụ ,": 3979,
      "mkpụrụ .": 3980,
      "enyi .": 3981,
      "Haram .": 3982,
      "njọ ,": 3983,
      "itoolu ,": 3984,
      "Al-": 3985,
      "Alha": 3986,
      "ahụhụ ,": 3987,
      "Bale": 3988,
      "sịga ,": 3989,
      "Rock": 3990,
      "Kabi": 3991,
      "fiele": 3992,
      "iyi .": 3993,
      "Abang": 3994,
      "shing": 3995,
      "14 ,": 3996,
      "Rabi": 3997,
      "ụjọ .": 3998,
      "Hau": 3999
    },
    "merges": [
      "n a",
      "d ị",
      "k a",
      "m a",
      "  .",
      "n '",
      "b ụ",
      "  ,",
      "n dị",
      "k e",
      "r a",
      "m e",
      "h a",
      "r e",
      "na -",
      "t a",
      "ny e",
      "y a",
      "g a",
      "l a",
      "r i",
      "i h",
      "s i",
      "j i",
      "h ụ",
      "r ụ",
      "ih e",
      "kw u",
      "r ị",
      "r u",
      "b a",
      "kw a",
      "a ny",
      "t e",
      "na- a",
      "n ke",
      "a hụ",
      "t u",
      "nw e",
      "na- e",
      "gb a",
      "o nye",
      "gh ị",
      "b e",
      "t ụ",
      "d ụ",
      "t i",
      "ga -",
      "l e",
      "o tu",
      "b i",
      "z i",
      "any ị",
      "s ị",
      "p ụ",
      "m ma",
      "k ọ",
      "m ụ",
      "ch i",
      "ch e",
      "w e",
      "ch ị",
      "  \"",
      "z ọ",
      "a ka",
      "l ọ",
      "r ọ",
      "ch a",
      "n ọ",
      "d e",
      "k ụ",
      "n e",
      "d o",
      "nw a",
      "w a",
      "ụ lọ",
      "kw ụ",
      "g o",
      "f ọ",
      "gb u",
      "i si",
      "gh a",
      "mma dụ",
      "s a",
      "l i",
      "gb e",
      "e be",
      "i ke",
      "n ụ",
      "r o",
      "t ọ",
      "n i",
      "m gbe",
      "ma ka",
      "g e",
      "b u",
      "s o",
      "a la",
      "ị a",
      "ga- e",
      "gb o",
      "ụ mụ",
      "ga- a",
      "gw u",
      "i ri",
      "ọ rụ",
      "rị a",
      "  :",
      "kw e",
      "kp e",
      "ọ chị",
      "kp ọ",
      "e ti",
      "kp a",
      "any a",
      "a fọ",
      "m ba",
      "b o",
      "o kwu",
      "nw ụ",
      "d a",
      "ọ zọ",
      "s te",
      "g ị",
      "s e",
      "a kụ",
      "l u",
      "ch ọ",
      "g ọ",
      "na ị",
      "ji rịa",
      "naị jirịa",
      "kw ọ",
      "   \"",
      "o bi",
      "z u",
      "gw a",
      "d i",
      "a kwụ",
      "ne ke",
      "ste eti",
      "chi neke",
      "a n",
      "akwụ kwọ",
      "  \"  ",
      "j e",
      "  ?",
      "e zi",
      "i che",
      "a bụ",
      "n u",
      "b ịa",
      "i le",
      "o ke",
      "n t",
      "o ge",
      "ni ile",
      "g ụ",
      "tụ tụ",
      "  )",
      "v a",
      "w u",
      "k u",
      "ya  .",
      "abụ ọ",
      "akụ kọ",
      "dị ka",
      "k o",
      "m p",
      "s ọ",
      "f e",
      "m me",
      "ọ tụtụ",
      "“  ",
      "i gbo",
      "  ”",
      "o n",
      "nwa anyị",
      "bo do",
      "p u",
      "bụ l",
      "ị bụl",
      "d ọ",
      "ba ịbụl",
      "m i",
      "a  .",
      "gb ọ",
      "ọ nụ",
      "d u",
      "o bodo",
      "2 0",
      "e gwu",
      "h i",
      "ụ wa",
      "z e",
      "i kpe",
      "t o",
      "i wu",
      "ụ b",
      "ụb ọchị",
      "nt ị",
      "z ụ",
      "l ụ",
      "j ọ",
      "h o",
      "b ọ",
      "j ụ",
      "n dụ",
      "ahụ  .",
      "e go",
      "z ị",
      "o zi",
      "ih i",
      "ma na",
      "o ji",
      "u we",
      "u ha",
      "ọchị chị",
      "a  ,",
      "ụ zọ",
      "e r",
      "u kwu",
      "kp ụ",
      "ọ me",
      "gọ ọme",
      "e lu",
      "a ha",
      "onye isi",
      "oji i",
      "o nwe",
      "a tọ",
      "ya  ,",
      "fọ dụ",
      "nw oke",
      "ụ fọdụ",
      "kp o",
      "s ụ",
      "ha  .",
      "s t",
      "20 1",
      "ụ gbọ",
      "ọ ka",
      "ọ ma",
      "ahụ  ,",
      "bụ la",
      "n so",
      "e ze",
      "rị ka",
      " .  ”",
      "h ịa",
      "o r",
      "ho va",
      "ih u",
      "je hova",
      "a gha",
      "B uha",
      "Buha ri",
      "gw ụ",
      "ọ bụla",
      "n na",
      "g i",
      "ọ kụ",
      "p a",
      "(  ",
      "u gbu",
      "o lu",
      "o me",
      "ny o",
      "ma  ,",
      "u ru",
      "m kpa",
      "ụ ka",
      "m m",
      "gh ọ",
      "n ne",
      "e l",
      "nw u",
      "ọ nwa",
      "a na",
      "o le",
      "j u",
      "n ga",
      "j a",
      "n ta",
      "a sa",
      "zọ s",
      "ji zọs",
      "gw e",
      "p e",
      "m bụ",
      "gọọme ntị",
      "mm iri",
      "l ị",
      "y i",
      "va nọ",
      "mp i",
      "gọ vanọ",
      "gw ọ",
      "b ra",
      "M a",
      "  ;",
      "a ra",
      "n tụ",
      "n ị",
      "J o",
      "g u",
      "ma a",
      "z a",
      "a ba",
      "i se",
      "m o",
      "n dọ",
      "a hịa",
      "n k",
      "f u",
      "ndọ rọ",
      "o ko",
      "ezi okwu",
      "B B",
      "ny i",
      "h e",
      "c e",
      "m u",
      "a nụ",
      "tu pu",
      "i gwe",
      "ọ nwụ",
      "BB C",
      "a sọ",
      "m bra",
      "l o",
      "n ri",
      "ana mbra",
      "a zụ",
      "li aka",
      "ntụ liaka",
      "asọ mpi",
      "ch ụ",
      "ọ gba",
      "a tụ",
      "i we",
      "o kp",
      "nso gbu",
      "ọ gwụ",
      "i n",
      "a me",
      "ny a",
      "n kwa",
      "bọ ọ",
      "n che",
      "m gba",
      "nwu nye",
      "bọọ lụ",
      "re gwu",
      "egwu regwu",
      "e nu",
      "agha ra",
      " .   \" ",
      "a r",
      "i be",
      "ri a",
      "m mụ",
      "h ọ",
      "e tu",
      "ọ hụ",
      "ọhụ rụ",
      "u nu",
      "ọ kwa",
      "maa zị",
      "t h",
      "an ị",
      "na anị",
      "s u",
      "eti ti",
      "enu gwu",
      "ezi gbo",
      "n gwa",
      "sị  :",
      "a ma",
      "a f",
      "A P",
      "N i",
      "ch ukwu",
      "a l",
      "o u",
      "ọ jọ",
      "ọjọ ọ",
      "n de",
      "ụ tọ",
      "aba lị",
      "ra ị",
      "n ti",
      "gh i",
      "s ta",
      "Ch i",
      "be re",
      "e kpe",
      "ke mgbe",
      "201 9",
      "go olu",
      "na rị",
      "gị nị",
      "o l",
      "te r",
      "ụ gwọ",
      "Ni ge",
      "ame rịka",
      "ṅ ụ",
      "k ị",
      "ha  ,",
      "gi de",
      "z o",
      "0 0",
      "m bọ",
      "na l",
      "nke ji",
      "af rịka",
      "ọ rịa",
      "i l",
      "a kwa",
      "ọ nọ",
      "ọnọ dụ",
      "a gba",
      "o zu",
      "ti on",
      "ụ dị",
      "mp aghara",
      "n o",
      "nche kwa",
      "ọ sọ",
      "n je",
      "v i",
      "R o",
      "n ụlọ",
      "nga la",
      "ezi nụlọ",
      "gị  :",
      "k i",
      "AP C",
      "ngala ba",
      "n g",
      "u gwu",
      "pu ku",
      "gọọme nti",
      "D a",
      "ome iwu",
      "okp uru",
      "i t",
      "e bu",
      "ra  ,",
      "1 9",
      "isi i",
      "o si",
      "i ko",
      "ekpe re",
      "v e",
      "ọ dị",
      "u gbo",
      "nk iri",
      "n d",
      "kpụ rụ",
      "ụlọ ikpe",
      "m  ,",
      "gha rị",
      "i zu",
      "i mo",
      "m  .",
      "u che",
      "n ku",
      "a jụ",
      "n zu",
      "ụgbọ ala",
      "y e",
      "ọ gụ",
      "ajụ jụ",
      "pụ ta",
      "a sụ",
      "R e",
      "ole e",
      "raị st",
      "asụ sụ",
      "ka rị",
      "M an",
      "v er",
      "k raịst",
      "S u",
      "e hi",
      "mmụ ọ",
      "a da",
      "mu me",
      "e chi",
      "e  .",
      "atụ ma",
      "atụma tụ",
      "L i",
      "-  ",
      "n nu",
      "n sọ",
      "mme mme",
      "asa a",
      "M o",
      "ọ ba",
      "Jo se",
      "ụ kwụ",
      "o bere",
      "nga gharị",
      "an o",
      "ru  ,",
      "e  ,",
      "rị ọ",
      "le s",
      "ọzọ  .",
      "i k",
      "e kwe",
      "m kpụrụ",
      "n ka",
      "ụmụ aka",
      "anya  .",
      "I n",
      "re  .",
      "e nyi",
      "e gbe",
      "a gụ",
      "ra  .",
      "L a",
      "ọgba kọ",
      "f ụ",
      "C o",
      "na la",
      "be ke",
      "asa tọ",
      "H ara",
      "B oko",
      "à m",
      "ma nụ",
      "àm à",
      "S e",
      "Nige ria",
      "o f",
      "kp u",
      "nwa ta",
      "ugbo ro",
      "D P",
      "na i",
      "o fe",
      "ebu bo",
      "anụ manụ",
      "re  ,",
      "o kpo",
      "nje m",
      "i me",
      "ụ kọ",
      "p o",
      "ri s",
      "he re",
      "S a",
      "ro bịa",
      "o gi",
      "nku zi",
      "P e",
      "U ni",
      "nnu kwu",
      "nta akụkọ",
      "Hara m",
      "P DP",
      "N a",
      "c a",
      "i to",
      "p er",
      "L e",
      "ka ma",
      "ta  .",
      "h u",
      "u do",
      "aka  .",
      "ọ kpụ",
      "Jose f",
      "e ke",
      "ik ike",
      "a bịa",
      "ọ cha",
      "o ri",
      "anya nwụ",
      "pa ti",
      "ra n",
      "gọ s",
      "du m",
      "nai ra",
      "naịjirịa  .",
      "le gọs",
      "n jọ",
      "t ị",
      "okpo ro",
      "o here",
      "rị ta",
      "m kpọ",
      "o go",
      "w o",
      "F a",
      "ka nu",
      "ndị àmà",
      "a kpa",
      "hi e",
      "M uha",
      "ndọrọ ndọrọ",
      "  !",
      "ka rịa",
      "m kpe",
      "ito olu",
      "a bu",
      "A l",
      "beke e",
      "O B",
      "mma nụ",
      "ahụ hụ",
      "u s",
      "I P",
      "Muha mma",
      "E C",
      "e n",
      "ike  .",
      "ụkọ chukwu",
      "o che",
      "steeti  .",
      "mme ri",
      "rị  :",
      "E a",
      "a  :",
      "ofe si",
      "Muhamma du",
      "r y",
      " .  \"",
      "mi ni",
      "IP OB",
      "M u",
      "i je",
      "P a",
      "sa ụ",
      "m di",
      "ma ha",
      "ru  .",
      "niile  .",
      "p ọ",
      "mma  .",
      "u go",
      "ste r",
      "A ti",
      "o chi",
      "ụ tụtụ",
      "Ati ku",
      "ogi ge",
      "re l",
      "anya  ,",
      "ikpe azụ",
      "o nal",
      "B a",
      "ọ dụ",
      "a mụ",
      "okp u",
      "ụ ba",
      "nkwa do",
      "nzu kọ",
      "c i",
      "nk ị",
      "nt o",
      "ọ ha",
      "o so",
      "osi si",
      "Su per",
      "a m",
      "ọzọ  ,",
      "r t",
      "f i",
      "u so",
      "mmụ ta",
      "c o",
      "oso te",
      "ke re",
      "ga  ,",
      "A da",
      "mgba sa",
      "c k",
      "ga  .",
      "n ji",
      "anyị  .",
      "maha dum",
      "mkpọ rọ",
      "mini sta",
      "saụ t",
      "p ị",
      "te d",
      "sh ịa",
      "K a",
      "T ru",
      "obi ano",
      "ọ tọ",
      "di a",
      "O ko",
      "a ja",
      "dọ kị",
      "S o",
      "bụ  ,",
      "e le",
      "n da",
      "o ku",
      "a jọ",
      "elu igwe",
      "ome nala",
      "amụ ma",
      "B i",
      "sh ọ",
      "gbu ru",
      "me  .",
      "ọ dọ",
      "dọkị ta",
      "kọ mi",
      "il li",
      "A r",
      "okwu kwe",
      "ọma  .",
      "u r",
      "w ụ",
      "gb ụ",
      "anyị  ,",
      "nto robịa",
      "I N",
      "t y",
      "o p",
      "Ea g",
      "ọ hịa",
      "IN EC",
      "f o",
      "F C",
      "Tru mp",
      "vi d",
      "ike  ,",
      "  \"  . \"",
      "Uni ted",
      "N e",
      "o mume",
      "li te",
      "ro cha",
      "it y",
      "uso ro",
      "D e",
      " \"  \"",
      "baịbụl  .",
      "A f",
      "aka ra",
      "A de",
      "ihe  .",
      "la nd",
      "Eag les",
      "te n",
      "M i",
      "m ị",
      "echi che",
      "nna mdi",
      "v o",
      "ta n",
      "rụ  .",
      "ba ka",
      "me nt",
      "W illi",
      "sị  ,",
      "i z",
      "R i",
      "n nọ",
      "O bi",
      "akụ kụ",
      "ọ gọ",
      "obi  .",
      "ụlọ ụka",
      "ke dụ",
      "li k",
      "chineke  ,",
      "o d",
      "o  ,",
      "ọ w",
      "y ọ",
      "di o",
      "ọw ụwa",
      "j ị",
      "p t",
      "e de",
      "el se",
      "ma ra",
      "ọ fụ",
      "pọ l",
      "gh e",
      "c on",
      "ta  ,",
      "ọka cha",
      "Ch else",
      "a h",
      "ọ gbọ",
      "o hi",
      "C ity",
      "ka tọ",
      "kọ rịta",
      "iz rel",
      "katọ lik",
      "C a",
      "e nye",
      "so n",
      "chineke  .",
      "i yi",
      "o nyi",
      "e mume",
      "s s",
      "ochi e",
      "i de",
      "i ne",
      "a  ?",
      "n ihu",
      "ụ nya",
      "abu ja",
      "i r",
      "eziokwu  .",
      "Mo ha",
      "po ol",
      "ti onal",
      "enye maka",
      "20 0",
      "Li ver",
      "ori ri",
      "Liver pool",
      "s si",
      "i ji",
      "shịa l",
      "M e",
      "T o",
      "S ou",
      "a kị",
      "f ada",
      "so shịal",
      "o gbu",
      "ch u",
      "ọ la",
      "n tu",
      "z de",
      "ụgbọ elu",
      "o yi",
      "Af ri",
      "u l",
      "'  .",
      "o li",
      "ọka iwu",
      "a gu",
      "Chelse a",
      "onyi nye",
      "t ri",
      "ọ mụ",
      "okpu kpe",
      "isi  .",
      "an d",
      "mmadụ  .",
      "n tọ",
      "ala  .",
      "iche  .",
      "o nyo",
      "2019  .",
      " \" \"  ",
      "ne t",
      "a kpụ",
      "ọgba aghara",
      "onyo nyo",
      "ha m",
      "u me",
      "ọ  \"",
      "Man che",
      "Manche ster",
      "e ji",
      "aka  ,",
      "go dị",
      "mme d",
      "nwa nne",
      "w it",
      "ma ma",
      "E me",
      "a gwa",
      "ụlọ akwụkwọ",
      "ma du",
      "ụwa  .",
      "or t",
      "Sou th",
      "S ta",
      "b ri",
      "201 8",
      "Nw o",
      "n  ,",
      "abụọ  .",
      "J a",
      "e me",
      "oko rocha",
      "E l",
      "la  .",
      "o de",
      "rọ   \" ",
      "ny ụ",
      "cha s",
      "ọ nị",
      "m bere",
      "vo otu",
      "Ro chas",
      "ọnị cha",
      "i te",
      "f or",
      "ar c",
      "i a",
      "ra l",
      "ya  ?",
      "a gbọ",
      "ọchị ehi",
      "Ar se",
      "n  .",
      "ome ka",
      "mbere de",
      "A ba",
      "agbọ ghọ",
      "Arse nal",
      "ọ gbu",
      "E kwe",
      "akị rịka",
      "Moha mmed",
      "rụ  ,",
      "m bi",
      "“  ọ",
      "Pe ter",
      "iji pt",
      "w i",
      "'  ,",
      "a nọ",
      "ju u",
      "se tan",
      "kwa do",
      "o k",
      "k y",
      "1 0",
      "o  .",
      "ala  ,",
      "in g",
      "n họ",
      "K e",
      "00 0",
      "wit ter",
      "re madu",
      "Ekwe remadu",
      "s  .",
      "P re",
      "a sị",
      "ta a .",
      "atụ  ,",
      "ọka mmụta",
      "kọmi shọ",
      "omeka ome",
      "nhọ pụta",
      "A bu",
      "ọrụ  .",
      "E ze",
      "u ju",
      "i m",
      "B o",
      "c y",
      "s  ,",
      "ụwa  ,",
      "ozu gbo",
      "kọmishọ na",
      "j o",
      "ke le",
      "on g",
      "na eze",
      "eziokwu  ,",
      "ọba ra",
      "m kpu",
      "l y",
      "1  ,",
      " )  .",
      "o pe",
      "ọ  ,",
      "n le",
      "ọrụ  ,",
      "ọka ikpe",
      "ni gwe",
      "ọgụ gụ",
      "ogbu nigwe",
      "Sh e",
      "i ro",
      "ọha naeze",
      "W e",
      "Z a",
      "m pụ",
      "mp e",
      " . ”  )",
      "bo nyi",
      "ihe  ,",
      "ọ kpa",
      "a lụ",
      "B u",
      "1 4",
      "Ch a",
      "wa rị",
      "Jo h",
      "ọdị nihu",
      "gw o",
      "R a",
      "nyo cha",
      "eke le",
      "baịbụl  ,",
      "n chọ",
      " )  ,",
      "Chi na",
      "mkpe bi",
      "1 5",
      "ọ  .",
      "mma  ,",
      "mi dia",
      "B e",
      "G e",
      "O ke",
      "mmadụ  ,",
      "n kwe",
      "bịa f",
      "niile  ,",
      "ụ jọ",
      "ụlọ ọgwụ",
      "de vid",
      "_ _",
      "nwa yọ",
      "sa tọ",
      "N or",
      "a rị",
      "bi  .",
      "ụ da",
      "gị  ,",
      "c tion",
      "satọ de",
      "H a",
      "sh i",
      "S S",
      "ghị  .",
      "e zu",
      "S ara",
      "ụtọ  .",
      "Ch ris",
      "ma lite",
      "sh a",
      "N na",
      "bịa  .",
      "du na",
      "ah ị",
      "m ọ",
      "ụlọ akụ",
      "egwuregwu  ,",
      "ọdị nala",
      "ti us",
      "Le agu",
      "dị  ,",
      "obi  ,",
      "la ị",
      "201 7",
      "ele kere",
      "f a",
      "p h",
      "ri  .",
      "O si",
      "gị  .",
      "na   \" ",
      "j a .",
      "Ma r",
      "fu fe",
      "nzu zo",
      "La go",
      "ọfụ ma",
      "t ha",
      "Ch ukwu",
      "ọgbu gbu",
      "r s",
      "Z i",
      "ka n",
      "rị  .",
      "ekwe ntị",
      "tius de",
      "igbo  ,",
      "ọnụ  .",
      "nkị tị",
      "FC C",
      "Willi e",
      "B ri",
      "ụ gha",
      "naịjirịa  ,",
      "c an",
      "ụmụ nne",
      "ọgọ st",
      "ma n",
      "we r",
      "iche iche",
      "e wu",
      "abụọ  ,",
      "I he",
      "agụ mba",
      "F ran",
      "nchọ pụta",
      "D i",
      "bi a",
      "ije ri",
      "baka r",
      "n nyocha",
      "J e",
      "O r",
      "U ma",
      "n rụ",
      "pụ rụ",
      "U de",
      "P ro",
      "1  )",
      "m fe",
      "mkpe sa",
      "Ada m",
      "oli le",
      "T witter",
      "J u",
      "G u",
      "uru  .",
      "lo go",
      "Pa ul",
      "bri ten",
      "Abu bakar",
      "ogo logo",
      "gb i",
      "dị  .",
      "kọ ta",
      "u ro",
      "isi okwu",
      "chọ ọchị",
      "mme hie",
      "ọmụ mụ",
      "e bonyi",
      "kw o",
      "G A",
      "rọ  .",
      "c to",
      "atọ  .",
      "201 5",
      "nnọ ọ",
      "tri k",
      "ezu m",
      "E FCC",
      "N A",
      "o gbe",
      "ndị  )",
      "Sta te",
      "G o",
      "n go",
      "th er",
      "f raị",
      "sta te",
      "la trik",
      "fraị de",
      "A b",
      "2 3",
      "ọ ga",
      "pa pa",
      "mma nya",
      "Nige ri",
      "In ter",
      "ny ị",
      "2  ,",
      "d ri",
      "iche  ,",
      "atụ rụ",
      "ofesi  ,",
      "Ne w",
      "se net",
      "nwayọ ọ",
      "me ri",
      "oko robịa",
      "El -",
      "gbi di",
      "p i",
      "F e",
      "I ke",
      "ha b",
      "m be",
      "nwa afọ",
      "“  a",
      "m gbọ",
      "k za",
      "ọ ṅụ",
      "Za kza",
      "Zakza ky",
      ". .",
      "y o",
      "A u",
      "G a",
      "1 7",
      "ga be",
      "nu e",
      "  - ",
      "a gbụ",
      "Sara ki",
      "Mu gabe",
      "ta a",
      "rị  ,",
      "ọ da",
      "t on",
      "rịta ụka",
      "o fufe",
      "T a",
      "n sị",
      "okwu  .",
      "nwụ  .",
      "m ọdụ",
      "Lago s",
      "akwụkwọ  .",
      "ọma  ,",
      "ndụ mọdụ",
      "1 8",
      "n'  \"",
      "e fu",
      "t he",
      "ra tion",
      "agụ ụ",
      "fo to",
      "bịaf ra",
      "be nue",
      "ụ ra",
      "ti c",
      "ni a",
      "mme kọrịta",
      "Afri ca",
      "AP GA",
      "ezum ike",
      "F u",
      "H e",
      "mme pe",
      "ọkpa ra",
      "ka duna",
      "ri be",
      "E le",
      "anyị  \"",
      " ?  ”",
      "jehova  .",
      "Ma dri",
      "Madri d",
      "i ru",
      "mgbe de",
      "mba  .",
      "oke nye",
      "dọ la",
      "ndụ  .",
      "ọkụ kọ",
      "ou rt",
      "a u",
      "N o",
      "1 3",
      "a nwụ",
      "nji kere",
      "o wer",
      "R u",
      "A ma",
      "ne ti",
      "ọ kpọ",
      "igbo  .",
      "ị nta",
      "19 9",
      "o hu",
      "So wo",
      "ọkacha mara",
      "ịnta neti",
      "T e",
      "W a",
      "me  ,",
      "i fe",
      "nka ta",
      "olile anya",
      "ọda chi",
      "l d",
      "ụ tụ",
      "ọ kọ",
      "m bu",
      "m iri",
      "steeti  ,",
      "I bra",
      "kị rị",
      "ọdị da",
      "ọba sa",
      "Ihe dio",
      "ọbasa njọ",
      "A S",
      "V i",
      "ji ji",
      "e do",
      "nwaanyị  .",
      "s pe",
      "we ne",
      "gu n",
      "agbụ rụ",
      "k  ,",
      "any i",
      "o mi",
      "gburu gburu",
      "wene zde",
      "q u",
      "l la",
      "ri  ,",
      "la te",
      "sị  .",
      "n rọ",
      "agha  .",
      "n gwụ",
      "Gh ana",
      "Ibra hi",
      "u p",
      "F A",
      "1 6",
      "na  ,",
      "bi  ,",
      "mgbe re",
      "I fe",
      "pa se",
      "ahị hịa",
      "Sowo re",
      "osi miri",
      "a d",
      "T i",
      "ọ k",
      "I s",
      "akụ rụ",
      "mbụ  .",
      "F al",
      "ọ jị",
      "Nwo su",
      "akụrụ ngwa",
      "ma s",
      "ụ bụ",
      "kwa  ,",
      "ndị  \"",
      "n do",
      "se na",
      "O lu",
      "gu zo",
      "nkị ta",
      "ọkacha sị",
      "Na tional",
      "na tional",
      "mọ nde",
      "pụrụ iche",
      "U S",
      "4  .",
      "b we",
      "la ni",
      "“  onye",
      "el o",
      "Zi mba",
      "nrụ rụ",
      "ị nyị",
      "Ihedio ha",
      "Ibrahi m",
      "Zimba bwe",
      "A h",
      "b y",
      "a rụ",
      "u te",
      "zi e",
      "ro m",
      "s  :",
      "ọkụ  .",
      "Ma du",
      "anambra  ,",
      "Pre mi",
      "El- Zakzaky",
      "mkpa rịtaụka",
      "sena tọ",
      "O N",
      "u le",
      "ge n",
      "to ba",
      "ọ zụ",
      "ụfọdụ  ,",
      "ọka fọ",
      "ọnwụ  .",
      "izu ụka",
      "Na i",
      "Leagu e",
      "3 0",
      "ụ ta",
      "ka ta",
      "E mma",
      "a chị",
      "li c",
      "egwu  .",
      "ọchịchị  .",
      "maa chị",
      "  \"  ọ \"",
      "P ort",
      "H arc",
      "Inter national",
      "Harc ourt",
      "1 2",
      "A le",
      "bụ   \" ",
      "tọ zde",
      "ọk toba",
      "b ị",
      "ch o",
      "n ba",
      "s ti",
      "otu  ,",
      "otu  .",
      "chi te",
      "n chị",
      "s sa",
      "mi ta",
      "ta a ,",
      "Jo na",
      "Co mm",
      "ori akụ",
      "Premi er",
      "B ra",
      "gbo ro",
      "k iri",
      "st ra",
      "ụnya ahụ",
      "nkwe kọrịta",
      "Fal con",
      "1  .",
      "me d",
      "O nye",
      "la  ,",
      "afọ  .",
      "n di",
      "ya .  ”",
      "ise  .",
      "nche ta",
      "M baka",
      "ntu ru",
      "ọzụ zụ",
      "Osi nba",
      "Nw a",
      "ụ ma",
      "ihe  \"",
      "ka  \"",
      "B ro",
      "atọ  ,",
      "ọka ra",
      "Ale x",
      "r d",
      "Y o",
      "ra ma",
      "na  \"",
      "ku ku",
      "201 6",
      "mkpa mkpa",
      "mpi on",
      "Fa ce",
      "Da vid",
      "A ir",
      "Eme ka",
      "Joh n",
      "ịnyị nya",
      "achị cha",
      "K o",
      "M A",
      "te  ,",
      "isi  ,",
      "e fe",
      "obodo  .",
      "W or",
      "ọgwụ gwụ",
      "C ame",
      "mgba nwe",
      "Willi am",
      "nne wi",
      "a gbidi",
      "Jona tha",
      "Came ro",
      "A na",
      "a dị",
      "n ha",
      "e kwu",
      "M ba",
      "m gbo",
      "re  :",
      "C on",
      "ego  .",
      "B or",
      "ọbụla  .",
      "ni el",
      "agụ ma",
      "ide mmiri",
      "D SS",
      "i kuku",
      "S t",
      "A i",
      "o  \"",
      " ,  \"",
      "ebe re",
      "m mi",
      "al th",
      "Ro be",
      "cto r",
      "Ab du",
      "Fu lani",
      "e h",
      "bụ  .",
      "re n",
      "kwu  .",
      "obi bi",
      "A di",
      "G er",
      "Ri va",
      "F ede",
      "ju laị",
      "kan sa",
      "E uro",
      "Aba ribe",
      "Nai ja",
      "Osinba jo",
      "Cha mpion",
      "D o",
      "b re",
      "mma sị",
      "“  ndị",
      "n zụ",
      "D el",
      "ve s",
      "T imo",
      "ime  .",
      "kọmi ti",
      "ngwụ cha",
      "gh ụ",
      "U t",
      "ndị  ,",
      "A ra",
      "ri e",
      "p te",
      "u bi",
      "n kọ",
      "okwu  ,",
      "2  )",
      "nsogbu  .",
      "B arc",
      "anwụ rụ",
      "ope kata",
      "Falcon s",
      "a ga",
      "t ti",
      "nke  \"",
      "I gbo",
      "p an",
      "ho o",
      "mbụ  ,",
      "U mu",
      "n su",
      "E ng",
      "sa ye",
      "B en",
      "ụnya ahụ .",
      "eji je",
      "ụbụ rụ",
      "nchị kọta",
      "Jonatha n",
      "Barc elo",
      "3  ,",
      "mp u",
      "“  ihe",
      "ukwu  .",
      "mgba kọ",
      "D onal",
      "bi shọ",
      "ode akwụkwọ",
      "We st",
      "Nor th",
      "pi ta",
      "P late",
      "nzụ kọ",
      "Donal d",
      "Plate au",
      "I v",
      "Y e",
      "g ra",
      "si a",
      "gba ta",
      "ghị  ,",
      "rọ  ,",
      "i nọ",
      "wa  ,",
      "an u",
      "“  m",
      "L on",
      "ọbụla dị",
      "T he",
      "ọgwụ gwọ",
      "c ar",
      "ọjọọ  .",
      "cha fụ",
      "ta a :",
      "Fran ce",
      "Uma hi",
      "Wor ld",
      "Camero on",
      "C e",
      "2  .",
      "gbo o",
      "“  n'",
      "m bodo",
      "S er",
      "yi n",
      "echi chi",
      "Ba y",
      "Robe rt",
      "eh ihi",
      "Ut d",
      "se pte",
      "Barcelo na",
      "asa mbodo",
      "I M",
      "l l",
      "Sh i",
      "2 5",
      "ọ na",
      "G ra",
      "ta ra",
      "O ba",
      "nọ  .",
      "akwụkwọ  ,",
      "  \"  a",
      "ka ma ,",
      "1 00",
      "kraịst  ,",
      "Ai sha",
      "Riva s",
      "opekata mpe",
      "Lon do",
      "sh o",
      "U K",
      "F o",
      "r  ,",
      "n cha",
      "kwụ kwọ",
      "ọnụ  ,",
      "t hi",
      "n ghọ",
      "mbi do",
      "ogbe nye",
      "saye nsị",
      "ị chafụ",
      "agụma kwụkwọ",
      "c u",
      "H u",
      "T u",
      "c ra",
      "I bi",
      "j a ,",
      "nso n",
      "ja ma",
      "amerịka  .",
      "t ten",
      "Chris ti",
      "adị gboro",
      "inọ k",
      "to yin",
      "jama nị",
      "toyin bo",
      "tu m",
      "le y",
      "m wu",
      "mi n",
      "ụzọ  ,",
      "mkpa  .",
      "2019  :",
      "afrịka  .",
      "Re al",
      "A FC",
      "ri mara",
      "ssi on",
      "__ __",
      "mgbo chi",
      "Da niel",
      "To tten",
      "e p",
      "2 8",
      "o ma",
      "6  ,",
      "ị hụ",
      "A bi",
      "chi e",
      "d ike",
      "ndị da",
      "e se",
      "m bịa",
      "oge  ,",
      "bi ko",
      "n du",
      "nu el",
      "jizọs  ,",
      "nri  ,",
      "2019  ,",
      "De mo",
      "bo ok",
      "ọnụ ọgụgụ",
      "She hu",
      "nturu ugo",
      "Co mmi",
      "Del ta",
      "ghụ ghọ",
      "Fa toyinbo",
      "AFC ON",
      "ịhụ na",
      "Face book",
      "p p",
      "L u",
      "v s",
      "i na",
      "r  .",
      "g ri",
      "n kụ",
      "egwu  ,",
      "ụmụ nna",
      "osi ka",
      "ekpere  ,",
      " .  \"  ọ \"",
      "arị rịọ",
      "Timo ti",
      "a ghụghọ",
      "A C",
      "ị dị",
      "k ra",
      "ga l",
      "si  ,",
      "4  )",
      "ụzọ  .",
      "agha  ,",
      "ama di",
      "nwa ada",
      "Sa m",
      "Nigeri an",
      "nji rimara",
      "de r",
      "li a",
      "mba  ,",
      "da n",
      "ko la",
      "ụbọchị  ,",
      "elu  .",
      "(  n",
      "A gu",
      "mu el",
      "ụdị rị",
      "Pe op",
      "mma lite",
      "ọla edo",
      "E bre",
      "Totten ham",
      "Sa muel",
      "A N",
      "S i",
      "z  .",
      "a re",
      "re na",
      "si na",
      "S te",
      "sị ga",
      "chi  ,",
      "D an",
      "bịa  ,",
      "jehova  ,",
      "ọkụ  ,",
      "jizọs  .",
      "zị za",
      "ise  ,",
      "ọhụrụ  .",
      "ama  .",
      "nọ ve",
      "le ment",
      "Ele ction",
      "nrụrụ aka",
      "Ah med",
      "Champion s",
      "Ja pan",
      "ekwe nsu",
      "mwu te",
      "Emma nuel",
      "3  .",
      "re a",
      "O la",
      "o do",
      "okwu te",
      "ahụ  ?",
      "pa ra",
      "ọdị mma",
      "nku me",
      "onye àmà",
      "ci a",
      "Oko n",
      "re ss",
      "juu n",
      "arị rị",
      "Afri can",
      "Ife anyi",
      "Bro ther",
      "bishọ p",
      "ọna tara",
      "ka na",
      "ba  ,",
      "nọ  ,",
      "wa  .",
      "ụlọ  ,",
      "gha ra",
      "nụ  .",
      "o se",
      "a zu",
      "re  ?",
      "gw on",
      "Jo e",
      "P ar",
      "ụtọ  ,",
      "no a",
      "Ada mu",
      "ok iri",
      "nụ warị",
      "ọnatara chi",
      "A m",
      "l s",
      "kp ị",
      "5  .",
      "ka  ,",
      "re e",
      "be r",
      "ti n",
      "p ti",
      "de be",
      "A li",
      "afọ  ,",
      "“  chineke",
      " . ”  ,",
      "nri te",
      "O su",
      "ki lo",
      "K ano",
      "spe n",
      "Euro pe",
      "ep rel",
      "gwon gwo",
      "u m",
      "i s",
      "g y",
      "C O",
      "ga na",
      "P ri",
      "ba  .",
      "zi l",
      "de n",
      "M ike",
      "n ge",
      "O gbo",
      "I kpe",
      "da ị",
      "se le",
      "mi li",
      "jọ n",
      "T ho",
      "ọma rị",
      "ihu  .",
      "O nwu",
      "ko ria",
      "W ol",
      "Sh ia",
      "  \"  anyị \"",
      "William s",
      "Eng land",
      "ehihi e",
      "a zịza",
      "ba pti",
      "ọmarị cha",
      "bapti zi",
      "1 1",
      "I d",
      "2 4",
      "h  ,",
      "ụ kwa",
      "S ala",
      "ra  ?",
      "mme chi",
      "mme gbu",
      "ụka  .",
      "Jo b",
      "B aba",
      "ugwu  .",
      "A nd",
      "rọ shịa",
      "ọ gbụ",
      "sh op",
      "Ri ver",
      "Obi ano",
      "p ort",
      "ọga ra",
      "  \"  n' \"",
      "nnọ chite",
      "Bor no",
      "Demo cra",
      "para daị",
      "ọgbụ gba",
      "5 0",
      "n si",
      "b le",
      "u de",
      "ọ wa",
      "nụ  ,",
      "li an",
      "a ku",
      "“  e",
      "n ze",
      "t ho",
      "bọ je",
      "ndụ  ,",
      "ukwu  ,",
      "ahịa  .",
      "w in",
      "ama dị",
      "eme mme",
      "anọ  .",
      "Ye mi",
      "A s",
      "2 9",
      "7  ,",
      "n kwụ",
      "li n",
      "i gbe",
      "u ni",
      "bụ  :",
      "ya  :",
      "je ru",
      "obodo  ,",
      "to m",
      "z or",
      "i ce",
      "G ar",
      "Re v",
      "ogo go",
      "C ong",
      "Oke zie",
      "Se rena",
      "C lement",
      "Ikpe azu",
      "Id ris",
      "jeru sele",
      "Cong ress",
      "S y",
      "d y",
      "e ri",
      "e  \"",
      "abụ bụ",
      "u du",
      "nso  .",
      "C ou",
      "agba ta",
      "Li b",
      "Se ra",
      "a hu",
      "f ran",
      "G od",
      "Vi ctor",
      "Igbo kwe",
      "kọ mpu",
      "Bra zil",
      "E m",
      "Sh a",
      "A R",
      "w  .",
      "ji  ,",
      "ụlọ  .",
      "mma nwụ",
      "ha  ?",
      "fe bụ",
      "du n",
      "ọchịchị  ,",
      "asa a .",
      "Chi bo",
      "ebu be",
      "19 8",
      "u hie",
      "de ine",
      "Ke nya",
      "Nna mdi",
      "abu ja .",
      "Commi ssion",
      "ịhụna nya",
      "febụ warị",
      "O j",
      "gh t",
      "U N",
      "ro n",
      "3  )",
      "“  o",
      "igbo  ?",
      "nwaanyị  ,",
      "ke pu",
      "201 4",
      "C or",
      "ụka  ,",
      "B el",
      "e ju",
      "nri  .",
      "azụ  .",
      "ki ti",
      "ekpere  .",
      "Co s",
      "Bi g",
      "Oko rocha",
      "ọdịnihu  .",
      "Re hab",
      "ọkpọ ka",
      "pase ntị",
      "  \"  , \"",
      "Ibi am",
      "Joh nson",
      "adịgboro ja",
      "Gar ba",
      "e e",
      "N L",
      "K u",
      "F F",
      "6  .",
      "U me",
      "ji  .",
      "U gwu",
      "da y",
      "B an",
      "ezi  .",
      "oke  .",
      "i mi",
      "ntị  .",
      "ozi  .",
      "S pa",
      "O pe",
      "p raị",
      "Nige r",
      "a ṅụ",
      "il la",
      "ọsọ  .",
      "Da vi",
      "19 6",
      "Al la",
      "for d",
      "20 23",
      "ower ri",
      "gen cy",
      "nha zi",
      "osika pa",
      "nw o",
      "na  .",
      "te  .",
      "kọ b",
      "n zọ",
      "o ne",
      "5  )",
      "ya .   \" ",
      "ny a .",
      "nso nso",
      "v el",
      "O mo",
      "Ch ar",
      "ọjọọ  ,",
      "sọ ọsọ",
      "kraịst  .",
      "ci al",
      "In dia",
      "Oko ye",
      "nghọ ta",
      "Bu kola",
      "nọve mba",
      "je kọb",
      "f f",
      "D C",
      "9  .",
      "8  ,",
      "9  ,",
      "ọ sị",
      "U che",
      "o gbo",
      "a ko",
      "M er",
      "ọbụla  ,",
      "ame s",
      "A ng",
      "19 7",
      "In no",
      "Uni on",
      "T im",
      "nle ta",
      "ị laị",
      "Ude mba",
      "Ce nt",
      "U kra",
      "Ebre ham",
      "NL C",
      "Ukra ine",
      "ọ ọ",
      "2 6",
      "0  .",
      "tu s",
      "ghị  \"",
      "m gbu",
      "si li",
      "ụlọ ọrụ",
      "u di",
      "di se",
      "S an",
      "gị  ?",
      "7  )",
      "fe ro",
      "vi ce",
      "Na tion",
      "Al l",
      "ci s",
      "f fi",
      "Bi o",
      "wo od",
      "anọ  ,",
      "ol ly",
      "Londo n",
      "ese m",
      "Wol ves",
      "Alla h",
      "olly wood",
      "o t",
      "m y",
      "t ta",
      "so m",
      "mi di",
      "20 20",
      "hi b",
      "bụla  .",
      "bụla  ,",
      "mmiri  .",
      "a ce",
      "ọka ibe",
      "si ria",
      "Da y",
      "ahụhụ  .",
      "Jose ph",
      "e hab",
      "  \"  nke \"",
      "septe mba",
      "Okon kwo",
      "Par ty",
      "ọgara nya",
      "a ị",
      "E d",
      "I S",
      "0  ,",
      "la n",
      "E ji",
      "ihe re",
      "nwe re",
      "ga zi",
      "O gbu",
      "e gbu",
      "m bo",
      "i lu",
      "ego  ,",
      "eze  ,",
      "ọnwụ  ,",
      "iwe  .",
      "Ro h",
      "Da p",
      "mme pụta",
      "beke e .",
      "Se ne",
      "k ris",
      "ọcha  ,",
      "ọcha  .",
      "A kanu",
      "ikpeazụ  ,",
      "Z am",
      "Mi ni",
      "Gu ine",
      "ọga nihu",
      "Fe mi",
      "okiri kiri",
      "Democra tic",
      "Sene gal",
      "ọ t",
      "V a",
      "Z A",
      "I V",
      "g re",
      "C ro",
      "anyị  ?",
      "abụ  ,",
      "O nu",
      "p ho",
      "ọka  ,",
      "cha el",
      "n chụ",
      "R ibe",
      "ngwa ahịa",
      "U zo",
      "n no",
      "izu gbe",
      "-  3",
      "Uni ver",
      "udo  .",
      "legọs  .",
      "ṅ omi",
      "C up",
      "Madu ka",
      "Comm onwe",
      "K anu",
      "Chibo k",
      "Davi do",
      "CO ZA",
      "Commonwe alth",
      "e s",
      "ma r",
      "T ra",
      "o ti",
      "le n",
      "ọ pụ",
      "pụ  .",
      "a kọ",
      "chị  .",
      "do  ,",
      "mba ra",
      "ọ bọ",
      "elu  ,",
      "st le",
      "eze  .",
      "M or",
      "di mkpa",
      "C ana",
      "ntụ nye",
      "O gu",
      "ta in",
      "bọọlụ  .",
      "amerịka  ,",
      "no t",
      "In di",
      " !  ”",
      "ur ch",
      "Eze kwe",
      "AS U",
      "Port  ",
      "cho ol",
      "Adi chie",
      "ide mili",
      "kọmpu ta",
      "Fran cis",
      "Roh r",
      "N ọt",
      "Ribe ka",
      "Port  Harcourt",
      "2 1",
      "c t",
      "A d",
      "l  .",
      "B re",
      "ri n",
      "si  .",
      "de l",
      "na li",
      "A ni",
      "A ku",
      "“  mgbe",
      "hi a",
      "gi ge",
      "(  N",
      "e nyo",
      "Ma y",
      "f ara",
      "ntụliaka  .",
      "C ol",
      "njọ  .",
      "Ea st",
      "Mi ye",
      "asị  .",
      "pase nt",
      "  \"  ndị \"",
      "b lic",
      "  \"  ihe \"",
      "E thi",
      "Christi an",
      "mbịa ra",
      "gri k",
      "Le ice",
      "aṅụ rị",
      "esem okwu",
      "Ezekwe sili",
      "N gige",
      "Miye tti",
      "Leice ster",
      "C y",
      "t t",
      "F ra",
      "k la",
      "n kwu",
      "te k",
      "ọ tụ",
      "E bo",
      "oge  .",
      "mi c",
      "ozi gbo",
      "(  A",
      "Ma i",
      "I mo",
      "ụlọ ahịa",
      "I ran",
      "mkpọrọ  .",
      "eluigwe  ,",
      " .  \"  anyị \"",
      "mgba ghara",
      "Oj ukwu",
      "Mer cy",
      "o g",
      "I D",
      "A F",
      "sh u",
      "7  .",
      "le ke",
      "wa y",
      "ọ fọ",
      "ro  ,",
      "d ge",
      "bu  .",
      "ọ bịa",
      "abụ  )",
      "“  ị",
      "nụ zụ",
      "ozi  ,",
      "n sụ",
      "kpa mkpa",
      "A ja",
      "ga nị",
      "n ce",
      "ko lo",
      "ọhụrụ  ,",
      "ri ng",
      "ugwu  ,",
      "nsọ  .",
      "yi nka",
      "ọtọ  .",
      "gburu gbu",
      "akpụ kpọ",
      "K ing",
      "2017  .",
      "nle kọta",
      "ọṅụ ṅụ",
      "  \"  na \"",
      "IM N",
      "Shi ite",
      "nje debe",
      "Bi shop",
      "S AR",
      "Ser vice",
      "Dap chi",
      "H IV",
      "Ethi op",
      "tek nụzụ",
      "SAR S",
      "ọ bụ",
      "u  ,",
      "5  ,",
      "p ha",
      "I ta",
      "kwa ghị",
      "l le",
      "zi k",
      "si de",
      "go la",
      "E li",
      "ni n",
      "m kwe",
      "Nw an",
      "ru  ?",
      "o wu",
      "m on",
      "m  . ”",
      "ihu  ,",
      "eziokwu  ?",
      "nkwa rị",
      "ol y",
      "ik iri",
      "K ogi",
      "ochi e .",
      "eluigwe  .",
      "ume ala",
      "Or ji",
      "Ike chukwu",
      " . ..",
      "Nwa chukwu",
      "nkọ wa",
      "Ben ja",
      "Mike l",
      "A gency",
      "J ames",
      "dise mba",
      "Bio dun",
      "n nwere",
      "ma gazi",
      "gre ssi",
      "Bri tain",
      "Ch urch",
      "ASU U",
      "Fra nk",
      "Da kolo",
      "- E",
      "F i",
      "E n",
      "e f",
      "n c",
      "2 2",
      "P u",
      "S C",
      "ma  .",
      "f re",
      "ya t",
      "kwu  ,",
      "o te",
      "a  \"",
      "p ro",
      "'  ?",
      "“  ka",
      "ahụ .  ”",
      "obi ọma",
      "ahịa  ,",
      "he n",
      "ọnwụ nwa",
      "ar d",
      "enugwu  .",
      "nji kọ",
      "i fo",
      "K im",
      "nkwe nye",
      "ọfụma  .",
      "Uma r",
      "Nigeri a ,",
      "nwata kịrị",
      " .  \"  ndị \"",
      "  \"  ka \"",
      "gra m",
      "s car",
      "Peop le",
      "kana da",
      "n gwongwo",
      "Pe ace",
      "Mi chael",
      "Ger not",
      "pe nali",
      "magazi n",
      "gola yat",
      "penali ti",
      "P i",
      "E x",
      "4  ,",
      "a ta",
      "onye  \"",
      "lu  ,",
      "di  ,",
      "chineke  ?",
      "oke  ,",
      "N du",
      "nna ya",
      "B ar",
      "5 00",
      "ụlọikpe  .",
      "nsọ  ,",
      "ta nka",
      "B ur",
      "op ment",
      "Se con",
      "2018  .",
      "Ge or",
      "a ja .",
      "fraịde  .",
      "jiji ji",
      "Abdu l",
      "so cia",
      "Univer si",
      "Zam fara",
      "So yinka",
      "Pro gressi",
      "vel opment",
      "As socia",
      "Associa tion",
      "P o",
      "F I",
      "A w",
      "si me",
      "N ji",
      "ru s",
      "ị gba",
      "bụ  \"",
      "ne si",
      "l li",
      "lọ tọ",
      "M ala",
      "ru  :",
      "9  )",
      "O du",
      "ho le",
      "mana  \"",
      "ri st",
      "uru  ,",
      "mkpa gbu",
      "el sa",
      "el d",
      "mmiri  ,",
      "isii  ,",
      "ti ve",
      "ọkpụ kpụ",
      "Mu sa",
      "ede me",
      "She ka",
      "alụ m",
      "Leagu e .",
      "li can",
      "ro up",
      "Olu se",
      "Ana je",
      "gbata gbata",
      "M z .",
      "Ca tho",
      "Ban k",
      "ca stle",
      "Ethiop ia",
      "De velopment",
      "ọkọ lọtọ",
      "Bay elsa",
      "Catho lic",
      "o m",
      "ri sh",
      "m we",
      "T an",
      "Ch an",
      "ikpe  .",
      "s to",
      "iwu  .",
      "ụ zụ",
      "ra el",
      "ce nt",
      "anambra  .",
      "kpụrụ kpụ",
      "ụ fụ",
      "ime  ,",
      "B uso",
      "ọ pị",
      "Ka lu",
      "Nwo do",
      "ite ghe",
      "ozugbo  .",
      "Ge ne",
      "Go od",
      "taa ta",
      "mbu li",
      "Yo ru",
      " .  \"  o \"",
      "je nụwarị",
      "Tho mas",
      "paradaị s .",
      "jerusele m",
      "Lib ya",
      "Char les",
      "Nation s",
      "Cana da",
      "kpọ mkwe",
      "edeme de",
      "Oluse gun",
      "Is rael",
      "P C",
      "T V",
      "Y u",
      "x i",
      "ka  .",
      "l  ,",
      "hụ hụ",
      "u kwa",
      "chi  .",
      "rọ s",
      "A wa",
      "ọ kwụ",
      "W ike",
      "n nụ",
      "m  :",
      "o kwe",
      "s se",
      "6  )",
      "’  )",
      "a .   \" ",
      "ụbọchị  .",
      "er n",
      "mkpa  :",
      "in o",
      "sta n",
      "Ro nal",
      "isii  .",
      "ọgụ  .",
      "ochi e ,",
      "ga asị",
      "O shi",
      "Nna bu",
      "tiusde  .",
      "di bia",
      "2015  .",
      "mbu ze",
      "Au stra",
      "Ger ma",
      "Air port",
      "nnọchite anya",
      "Ugwu anyi",
      "praị m",
      "siria k",
      "alụ kwaghị",
      "New castle",
      "om hole",
      "Buso la",
      "Oshi omhole",
      "e k",
      "h ị",
      "8  .",
      "ke  ,",
      "ga d",
      "ha  \"",
      "-  \"",
      "ro  .",
      "iri  .",
      "ụ kpa",
      "o bo",
      "ọ kwọ",
      "i nt",
      "ikpe re",
      "otu to",
      "ny a ,",
      "nwoke  .",
      "nwoke  ,",
      "re st",
      "ozi ọma",
      "anya  . ”",
      "F or",
      "kọ pa",
      "T ara",
      "du gu",
      "la za",
      "azụ ma",
      "ọ chụ",
      "B enu",
      "“  unu",
      "enugwu  ,",
      "akwa  .",
      "O ye",
      "asatọ  ,",
      "echiche  .",
      "oyi bo",
      "nwa agbọghọ",
      "ijipt  .",
      "t witter",
      "19 14",
      "Cha d",
      "Ha ru",
      "A meri",
      "m gbidi",
      "nta kịrị",
      "Abdu lla",
      "Fede ral",
      "aga di",
      "____ ____",
      "Chi oma",
      "biko  ,",
      "Agu le",
      "Ste p",
      "E gy",
      "River s",
      "Comm uni",
      "N FF",
      "Cent ral",
      "N ollywood",
      "hib ru",
      "S chool",
      "Benja min",
      "Sheka u",
      "nta rama",
      "Mai dugu",
      "azụma hịa",
      "Egy pt",
      "ntarama hụhụ",
      "P S",
      "C B",
      "B la",
      "che be",
      "d ne",
      "I sa",
      "li  .",
      "bo n",
      "I bo",
      "nwụ  ,",
      "se kọ",
      "bu lu",
      "di n",
      "v an",
      "ya   \" ",
      "sị   \" ",
      "mma  ?",
      "ezi na",
      "nu che",
      "ojii  ,",
      "A bra",
      "ya  ;",
      "ndị  ;",
      "maa hịa",
      "azụ  ,",
      "nkwa nye",
      "ou r",
      "M ou",
      "sọ nde",
      "4 00",
      "afrịka  ,",
      "di ng",
      "Re pu",
      "La i",
      "asatọ  .",
      "ran s",
      "E con",
      "ohi  ,",
      "ịdị na",
      "are bia",
      "m kpị",
      "Al lian",
      "Ny ako",
      "Inno son",
      "ịlaị ja",
      "Sa udi",
      "a hia",
      "nc il",
      "Universi ty",
      "G roup",
      "Tim gad",
      "Abdulla hi",
      "azụ maahịa",
      "Allian ce",
      "i g",
      "r g",
      "H i",
      "Q u",
      "I C",
      "K ha",
      "b rụ",
      "ri te",
      "che l",
      "cha  ,",
      "sa  ,",
      "me sa",
      "se r",
      "P  )",
      "“  i",
      "mana  ,",
      "ha .  ”",
      "st on",
      "st y",
      "el l",
      "M ana",
      "asa a ,",
      "ọ lị",
      "n gwọ",
      "Ma da",
      "Ma h",
      "iwe  ,",
      "in ji",
      "H ar",
      "Y ou",
      "il le",
      "il l",
      "e no",
      "k no",
      "ebu m",
      "In sta",
      "ụ ra .",
      "T here",
      "ogo ogo",
      "ikpeazụ  .",
      "ri ty",
      "izrel  .",
      "eme ka",
      "shi p",
      "ph obi",
      "akpa rama",
      "Mba ise",
      "Oba ma",
      "  \" a  \"",
      "ụkwa ra",
      "s tus",
      "Guine a",
      "ọpụ pụ",
      "Be nin",
      "Geor ge",
      "ọ kpụrụkpụ",
      "Me xi",
      "Bay ern",
      "  \"  - \"",
      "Econ omi",
      "Cou ncil",
      "fe brụ",
      "eno phobi",
      "Mexi co",
      "febrụ warị",
      "n z",
      "A t",
      "a c",
      "A M",
      "k s",
      "C N",
      "t  .",
      "ga r",
      "A la",
      "C ri",
      "kwa sị",
      "ne  ,",
      "U wa",
      "ro u",
      "ga ni",
      "ge r",
      "le ge",
      "ala kụ",
      "B ala",
      "di  .",
      "O di",
      "R an",
      "e  ?",
      "A nt",
      "8  )",
      "li st",
      "201 3",
      "bi  . ”",
      "Y or",
      "v in",
      "S al",
      "sta l",
      "ọrịa  .",
      "olu tion",
      "vi sa",
      "ụ ra ,",
      "la tị",
      "mkpọ tụ",
      "Al ge",
      "Su nda",
      "echiche  ,",
      "da yọ",
      "ntu tu",
      "ve ntu",
      "Chi mama",
      "ọnịcha  ,",
      "Bo ris",
      "P ope",
      "ahị rị",
      "P ower",
      "O gun",
      "Is la",
      "Europe an",
      "Or tom",
      "ote le",
      "FI FA",
      "Ch rist",
      "Haru na",
      "Step hen",
      "Te kno",
      "There sa",
      "X enophobi",
      "Rev olution",
      "dayọ si",
      "Chimama nda",
      "i d",
      "N u",
      "N B",
      "O W",
      "ma dị",
      "ke t",
      "N ke",
      "O ha",
      "le t",
      "bi ri",
      "cha  .",
      "O de",
      "sa ị",
      "gwu ru",
      "kpa m",
      "da  ,",
      "ọchị chọ",
      "N di",
      "anya  ?",
      "akụkọ  \"",
      "’  ”",
      "ụwa  ?",
      "iwu  ,",
      "abụ bọ",
      "or g",
      "a ma ,",
      "Z ara",
      "mme fu",
      "E nyi",
      "o lo",
      "bọọlụ  ,",
      "ọkwa  .",
      "N su",
      "sị :   \" ",
      "c al",
      "ou s",
      "20 00",
      "ụmụ ada",
      "lu ck",
      "ga nda",
      "Obi o",
      "o ghe",
      "ụnya ahụ ,",
      "Me ssi",
      "u chu",
      "2018  ,",
      "Ke nne",
      "N nia",
      "Ru ga",
      "ma k ,",
      "E MA",
      "St  .",
      "baptizi m",
      "Em lin",
      "co deine",
      "ti u ,",
      "Pre side",
      "Chi ef",
      "Nji kọ",
      "PS G",
      "Bla ck",
      "ntụ kwasị",
      "Sunda y",
      "EC OW",
      "ECOW AS",
      "3 7",
      "o s",
      "Z e",
      "U E",
      "I I",
      "A ka",
      "ny ahụ",
      "E zi",
      "do  .",
      "Ch ike",
      "ni s",
      "ni sh",
      "da da",
      "bi  ?",
      "me  ?",
      "naịjirịa  ?",
      "ri ko",
      "c er",
      "ojii  .",
      "st ri",
      "olu lu",
      "S olu",
      "ome n",
      "ce se",
      "ọ nya",
      "C ar",
      "ria l",
      "R ama",
      "p ou",
      "Chi ne",
      "ụgwọ  .",
      "nkeji  :",
      "O no",
      "si ng",
      "la ye",
      "of or",
      "gh en",
      "T ur",
      "Ca li",
      "eji ji",
      "wi ch",
      "ing land",
      "ja iro",
      "satọde  .",
      "mfe  .",
      "Au gu",
      "s ley",
      "A pp",
      "Su dan",
      "Osu n",
      "Sala h",
      "bọje tị",
      "ọsị sọ",
      "O nno",
      "Ade leke",
      "Ang lican",
      "Tan za",
      "Maidugu ri",
      "CB N",
      "din ma",
      "nz agha",
      "Alge ria",
      "Ju ventu",
      "Isla mic",
      "dayọsi isi",
      "Good luck",
      "U ganda",
      "Kenne th",
      "ma tiu ,",
      "UE FA",
      "Onno ghen",
      "ọ s",
      "J i",
      "3 3",
      "W A",
      "- O",
      "F D",
      "u ra",
      "ra h",
      "re s",
      "ba n",
      "chị  ,",
      "ra  \"",
      "nwa  .",
      "zu  .",
      "L an",
      "aka  ?",
      "mme hi",
      "ụfọdụ  .",
      "Buhari  ,",
      "nwa nna",
      "S oko",
      "ama w",
      "goolu  .",
      "akwa  ,",
      "ọsọ  ,",
      "Josef  .",
      "R us",
      "a jị",
      "A mara",
      "P oli",
      "ọmụ gwọ",
      "y ode",
      "J ong",
      "E bonyi",
      "Ka duna",
      "lị kan",
      "ụgha  .",
      "ngo si",
      "Alex and",
      "He alth",
      "ya hoo",
      "Gra nd",
      "Bel lo",
      "midi a .",
      "pho sa",
      "Progressi ve",
      "Yoru ba",
      "Yu su",
      "A chebe",
      "Ibo m",
      "Insta gram",
      "akparama gwa",
      "Col lege",
      "ụ nyahụ",
      "je riko",
      "Me laye",
      "WA EC",
      "Rama phosa",
      "A n",
      "Ch e",
      "f ị",
      "p y",
      "ma h",
      "re r",
      "la s",
      "u ba",
      "kwa  .",
      "c tu",
      "gba  .",
      "i zi",
      "a ro",
      "akụ nụ",
      "n kwọ",
      "zu ru",
      "I di",
      "C an",
      "  \"  ma",
      "ọzọ  ?",
      "bụ  ?",
      "A  )",
      "mme r",
      "A mi",
      "to  ,",
      "ntị  ,",
      "ho ny",
      "ụgbọ mmiri",
      "unu  .",
      "Chi do",
      "nchekwa  ,",
      "vi e",
      "x it",
      "mmụọ  .",
      "ezi e ,",
      "beke e ,",
      "po li",
      "st ry",
      "Pa ris",
      "maha du",
      "fi m",
      "ọhịa  .",
      "le agu",
      "ge rs",
      "uro p",
      " \" \"  n' \"",
      "mọnde  .",
      "arụ sị",
      "30  ,",
      "Yo be",
      "Ade sina",
      "Onwu ama",
      "nsi bi",
      "E kiti",
      "V illa",
      "nzọ pụta",
      "Omo ye",
      "Cro ss",
      "ọbụ na",
      "Ita ly",
      "A zik",
      "O scar",
      "nnụ nụ",
      "D ino",
      "Ronal do",
      "Tara ba",
      "laza rọs",
      "Mada ga",
      "ebum nuche",
      "tụ madị",
      "Da biri",
      "Nor wich",
      "Ant hony",
      "Bre xit",
      "y urop",
      "Omoye le",
      "- A",
      "4 0",
      "ka h",
      "ka me",
      "B ru",
      "I ba",
      "nwe  .",
      "ti ne",
      "ne y",
      "a wa",
      "gbu  .",
      "I gha",
      "O sa",
      "bu ka",
      "so  .",
      "iri  ,",
      "dị  ?",
      "n gụ",
      "D on",
      "on  ,",
      "M on",
      "baịbụl  ?",
      "a .  ”",
      "20  ,",
      "mma  . ”",
      "niile  . ”",
      "n or",
      "o gu",
      "agba ra",
      "Da ve",
      "B les",
      "nka  ,",
      "enyi  ,",
      "udo  ,",
      "T ogo",
      "pa rt",
      "Ada ma",
      "ụlọ mkpọrọ",
      "u me .",
      "ohi  .",
      "eji ma",
      "uju  .",
      "15  ,",
      "A ction",
      " .  \"  n' \"",
      "tic s",
      "Ama echi",
      "Eze ife",
      "wenezde  .",
      "O ndo",
      "tọzde  .",
      " .  \"  ihe \"",
      "2016  .",
      "Con go",
      "a ja ,",
      "Peop les",
      "ja nụwarị",
      "bọje t",
      "Ope ration",
      "Nor way",
      "Anaje mba",
      "Chan ne",
      "Gene ral",
      "Germa ny",
      "Abra ham",
      "Repu blic",
      "ne sty",
      "inji n",
      "Chukwu emeka",
      "Economi c",
      "Njikọ ka",
      "Uzo dinma",
      "NA FD",
      "Igha lo",
      "NAFD AC",
      "s y",
      "6 0",
      "E U",
      "A T",
      "w n",
      "F B",
      "V e",
      "y ị",
      "ke y",
      "A re",
      "v re",
      "C la",
      "le  ,",
      "re  \"",
      "zi aka",
      "a rọ",
      "O li",
      "bu ike",
      "ị kpe",
      "ọchị  .",
      "lu k",
      "ezi  ,",
      "“  ma",
      "jụ ụ",
      "ya ,   \" ",
      "p or",
      "anụ rị",
      "F lo",
      "o su",
      "ezigbo te",
      "al l",
      "abalị  ,",
      "Chi di",
      "G ol",
      "APC  .",
      "19 4",
      "iko  .",
      "E ver",
      "C us",
      "saụ di",
      "ụtụtụ  ,",
      "bo ur",
      "a wụ",
      " \" \"  . \"",
      "mị nị",
      "onyinye  ,",
      "iche iche .",
      "Bo y",
      "H ope",
      "ụlọọgwụ  .",
      "fa i",
      "Osi ta",
      "ọgọst  ,",
      "ibe ribe",
      "No w",
      "ịntaneti  .",
      "Wa t",
      "spe n .",
      "Ro ad",
      "IM F",
      "Abi ke",
      "Sam son",
      "w w",
      "j w .",
      "Co deine",
      "Cos mas",
      "Fo ot",
      "Ny e",
      "kris mas",
      "be del",
      "Ameri ca",
      "Communi ty",
      "T rans",
      "J AM",
      "Or gani",
      "Yor k",
      "Enyi nnaya",
      "Spa nish",
      "W omen",
      "Ka yode",
      "Channe ls",
      "FB I",
      "Tur key",
      "Ever ton",
      "Cus tom",
      "mịnị st",
      "Ru fai",
      "ww w .",
      "Nye som",
      "JAM B",
      "mịnịst rị",
      "b n",
      "A sh",
      "G i",
      "2 7",
      "- -",
      "M na",
      "ke ke",
      "T ha",
      "ga n",
      "ga ra",
      "i kwu",
      "E kwu",
      "be l",
      "I be",
      "U do",
      "nwa  ,",
      "R wa",
      "A sa",
      "ka li",
      "ni  ,",
      "ni ch",
      "A so",
      "isi ala",
      "O bo",
      "se s",
      "akwụ na",
      "an g",
      " :   \" ",
      "ta  ?",
      "kwu  ?",
      "obi  ?",
      "li nt",
      "R oge",
      "P hi",
      "ikpe  ,",
      "a to",
      "ahụ .   \" ",
      "B er",
      "ụlọ elu",
      "aha  .",
      "nso  ,",
      "B uru",
      "mkpa  ,",
      "nga gwa",
      "aba cha",
      "ọnụ ahịa",
      "ala ce",
      "ta nya",
      "al je",
      "I nde",
      "pe nde",
      "Re gi",
      "ụmụaka  .",
      "egbe  .",
      "nụ  !",
      "en ce",
      "ofesi  .",
      "C ry",
      "Mu sta",
      "nzukọ  .",
      "Ka t",
      "So lo",
      "ta a ?",
      "S ia",
      "Oke chukwu",
      "Ke shi",
      "de rs",
      "gh ton",
      "tic al",
      "wenezde  ,",
      "E qu",
      "mọnde  ,",
      "ute eze",
      "ba bị",
      "wa rd",
      "Fede ration",
      "Gra ce",
      "us tin",
      "Pri ma",
      "And re",
      "Spa in",
      "kla asị",
      "Ebo la",
      "Go og",
      "i bu .",
      "NY SC",
      "Aw gu",
      "Austra lia",
      "ezina ụlọ",
      "alakụ ba",
      "Juventu s",
      "Azik iwe",
      "Am nesty",
      "injin ịa",
      "Le f",
      "ntu ziaka",
      "Rwa nda",
      "Mu nich",
      "Buru ndi",
      "Mna ngagwa",
      "Ne tanya",
      "alje ria",
      "babị lọ",
      "Goog le",
      "Lef è",
      "Netanya hu",
      "Lefè vre",
      "m s",
      "d g",
      "4 5",
      "’  ,",
      "re d",
      "nye  .",
      "ri l",
      "t te",
      "kọ p",
      "ya  \"",
      "ne s",
      "E do",
      "N go",
      "n isi",
      "sa  .",
      "mgbe  \"",
      "zu  ,",
      "m  ?",
      "ọrụ  )",
      "“  obi",
      "“  anyị",
      "“  otu",
      "K on",
      "ọka  .",
      "J or",
      "mm y",
      " ;  )",
      "Ma gu",
      "ụmụ ahịa",
      "nsogbu  ,",
      "k in",
      "A nya",
      "H ou",
      "ozu zo",
      "ugbo  ,",
      "Se y",
      "ogi di",
      "eke re",
      "da ry",
      "ve ment",
      "a sị ,",
      "ntọ ala",
      "2018  :",
      "Ja ne",
      "mbi ze",
      "10  ,",
      "nwayọ ọ ,",
      "satọde e",
      "2017  ,",
      "fraịde  ,",
      "Ta cha",
      "Ude mba .",
      "ohu  .",
      "lu k ,",
      "201 4 .",
      "F ren",
      "Ara bi",
      "O sho",
      "Ma ina",
      "Ko rea",
      "a kpị",
      "A nge",
      "baptizi m ,",
      "Y aku",
      "fran sị",
      "nchụ aja",
      "rin ho",
      "nnwere onwe",
      "  \"  bụ \"",
      "kpọmkwe m",
      "Hi gh",
      "Qu e",
      "chel les",
      "mesa ya",
      "Tanza nia",
      "Jong -",
      "Yusu f",
      "pa py",
      "Fede rer",
      "nsibi di",
      "kame l",
      "les tine",
      "Bles sing",
      "Wat ford",
      "Inde pende",
      "Cry stal",
      "Bri ghton",
      "Tu nisi",
      "Fren ch",
      "Mou rinho",
      "Sey chelles",
      "papy rus",
      "u n",
      "4 4",
      "L o",
      "V C",
      "A I",
      "ṅ a",
      "na n",
      "t ra",
      "ha a",
      "I re",
      "u ri",
      "la ri",
      "ri ma",
      "ri ri",
      "F ri",
      "ba l",
      "gba  ,",
      "u be",
      "be  .",
      "ti a",
      "zi  .",
      " \"  ",
      "ru  \"",
      "ta  \"",
      "ebe  ,",
      "ni c",
      "mgbe  ,",
      "bu  ,",
      "o gwu",
      "ha  :",
      "da h",
      "da  .",
      "N an",
      "  \"  dị",
      "kpọ   \" ",
      " )  \"",
      "“  ha",
      "mi  ,",
      "W hi",
      "ne bọ",
      "m kpụ",
      "chineke  . ”",
      "or d",
      "(  S",
      "  \"  ( ",
      "ọ ghọ",
      "n gwe",
      "mbụ  :",
      "mo u",
      "fu l",
      "A mu",
      "ibe ri",
      "th y",
      "etiti  .",
      "ngwa  ,",
      "okwu chukwu",
      "W al",
      "abalị  .",
      "A nti",
      "ol oko",
      "O ki",
      "19 5",
      "izu  ,",
      "ụkwụ  .",
      "obere  .",
      "“  mkpụrụ",
      "La w",
      "Nigeria  :",
      "p ito",
      "e  !",
      "H en",
      "ta ry",
      "osisi  ,",
      "obiano  ,",
      "ọtọ  ,",
      "ahụ ike ,",
      "gbo o ,",
      "izrel  ,",
      "Ca mp",
      "J ide",
      "Pa tri",
      "im iri",
      "1 1 ,",
      "SS OB",
      "cto ral",
      "2015  ,",
      "mgbọ rọ",
      "qu e",
      "Ti wa",
      "arụ rụ",
      "ọ stra",
      "Moha med",
      "ndi na",
      "BB Naija",
      "anu si",
      "ba ll",
      "sho la",
      "abu ja ,",
      "Mar tin",
      "gwongwo ro",
      "Ume h",
      "2020  .",
      "gburugbu ru ,",
      "Ndu bu",
      "je nesi",
      "She ffi",
      "Fo rest",
      "Agule ri",
      "Ga bon",
      "sekọ nd",
      "Fe stus",
      "Isa ac",
      "nda gwuru",
      "Soko to",
      "Mini stry",
      "Ran gers",
      "Custom s",
      "Kat sina",
      "dg z .",
      "Que en",
      "MA SSOB",
      "Ele ctoral",
      "Sheffi eld",
      "ndagwuru gwu",
      "m b",
      "o o",
      "I A",
      "u ke",
      "nye  ,",
      "me ya",
      "I si",
      "D ru",
      "U ba",
      "A gba",
      "la  \"",
      "ne u",
      "li  ,",
      "D ike",
      "ni e",
      "ru mba",
      "ndị   \" ",
      "a   \" ",
      "mmadụ  ?",
      "mme kọ",
      "mme bi",
      "“  na-",
      "si on",
      "ọ sụ",
      "o st",
      "aka  . ”",
      "ọchị agha",
      "ọnwa  .",
      "so ja",
      "asa ra",
      "gọọmentị  ,",
      " ;  ,",
      "gu a",
      "A mo",
      "I lo",
      "nwunye  .",
      "W ar",
      "ekpe nta",
      "gịnị  ?",
      "c ol",
      "ọrịa  ,",
      "la tion",
      "ala nd",
      "mmụọ  ,",
      "e e ,",
      "nka  .",
      "In do",
      "ugboro  .",
      "ran ce",
      "li us",
      "pọ tị",
      "Ne y",
      "omume  .",
      "omume  ,",
      "ge ment",
      "200 7",
      "A chu",
      "bri el",
      "Aba cha",
      "gbo o .",
      "O jo",
      "14  )",
      "Oke ke",
      "Je re",
      "nsọ pụrụ",
      "Go ver",
      "O yo",
      "Te ch",
      "ọktoba  .",
      "Onye ma",
      " \" \"  na \"",
      "  \"  o \"",
      "Ara bia",
      "Za ina",
      "eme odo",
      "Osu ji",
      "Sy ria",
      "Eji ke",
      "shu a",
      "gburugbu ru .",
      "Nwan kwo",
      "iteghe te ,",
      "Nnabu ihe",
      "Kha fi",
      "Ku kah",
      "Mo ses",
      "Andre w",
      "Cy ril",
      "ekere sime",
      "Mo vement",
      "Yaku bu",
      "hoo haa",
      "Jide ọfọ",
      "imiri kiti",
      "Ze aland",
      "Ga briel",
      "Zaina b",
      "Onwu emeodo",
      "e t",
      "l t",
      "y u",
      "H O",
      "U T",
      "M c",
      "4 7",
      "N N",
      "s ka",
      "ha r",
      "p re",
      "A si",
      "O kwu",
      "ba r",
      "A be",
      "te  \"",
      "wa n",
      "li p",
      "B ebe",
      "s tọ",
      "A gbo",
      "ge  :",
      "A kpa",
      "me lu",
      "G an",
      "ka   \" ",
      "rụ  ?",
      "nu bu",
      "Ch ile",
      "niile  ?",
      "m  )",
      "ko ro",
      "ka mp",
      "mp ị",
      "mme rụ",
      "“  dị",
      "ụ dọ",
      "li a .",
      "to r",
      "r to",
      "ozi zi",
      "P er",
      "ọ ha .",
      "201 2",
      "anyị  . ”",
      "ọzọ  . ”",
      "(  gba",
      "h uru",
      "mkpa rị",
      "el ị",
      "W ole",
      "o ju",
      "asa ba",
      "ha  ;",
      "eziokwu  . ”",
      "a lo",
      "lo ma",
      "nche kwu",
      "mgba li",
      "ngwa  .",
      "nde r",
      "kemgbe  .",
      "ter s",
      "pe nal",
      "W il",
      "(  APC",
      "ugbo g",
      "nje m .",
      "ụgbọala  .",
      "ọgụ  ,",
      "mkpụrụ  .",
      "enyi  .",
      "Hara m .",
      "njọ  ,",
      "itoolu  ,",
      "Al -",
      "Al ha",
      "ahụhụ  ,",
      "Ba le",
      "sị ga ,",
      "Ro ck",
      "Ka bi",
      "fi ele",
      "iyi  .",
      "Aba ng",
      "sh ing",
      "14  ,",
      "Ra bi",
      "ụjọ  .",
      "Ha u"
    ]
  }
}